<unk>	0
<s>	0
</s>	0
<pad>	0
<0x00>	0
<0x01>	0
<0x02>	0
<0x03>	0
<0x04>	0
<0x05>	0
<0x06>	0
<0x07>	0
<0x08>	0
<0x09>	0
<0x0A>	0
<0x0B>	0
<0x0C>	0
<0x0D>	0
<0x0E>	0
<0x0F>	0
<0x10>	0
<0x11>	0
<0x12>	0
<0x13>	0
<0x14>	0
<0x15>	0
<0x16>	0
<0x17>	0
<0x18>	0
<0x19>	0
<0x1A>	0
<0x1B>	0
<0x1C>	0
<0x1D>	0
<0x1E>	0
<0x1F>	0
<0x20>	0
<0x21>	0
<0x22>	0
<0x23>	0
<0x24>	0
<0x25>	0
<0x26>	0
<0x27>	0
<0x28>	0
<0x29>	0
<0x2A>	0
<0x2B>	0
<0x2C>	0
<0x2D>	0
<0x2E>	0
<0x2F>	0
<0x30>	0
<0x31>	0
<0x32>	0
<0x33>	0
<0x34>	0
<0x35>	0
<0x36>	0
<0x37>	0
<0x38>	0
<0x39>	0
<0x3A>	0
<0x3B>	0
<0x3C>	0
<0x3D>	0
<0x3E>	0
<0x3F>	0
<0x40>	0
<0x41>	0
<0x42>	0
<0x43>	0
<0x44>	0
<0x45>	0
<0x46>	0
<0x47>	0
<0x48>	0
<0x49>	0
<0x4A>	0
<0x4B>	0
<0x4C>	0
<0x4D>	0
<0x4E>	0
<0x4F>	0
<0x50>	0
<0x51>	0
<0x52>	0
<0x53>	0
<0x54>	0
<0x55>	0
<0x56>	0
<0x57>	0
<0x58>	0
<0x59>	0
<0x5A>	0
<0x5B>	0
<0x5C>	0
<0x5D>	0
<0x5E>	0
<0x5F>	0
<0x60>	0
<0x61>	0
<0x62>	0
<0x63>	0
<0x64>	0
<0x65>	0
<0x66>	0
<0x67>	0
<0x68>	0
<0x69>	0
<0x6A>	0
<0x6B>	0
<0x6C>	0
<0x6D>	0
<0x6E>	0
<0x6F>	0
<0x70>	0
<0x71>	0
<0x72>	0
<0x73>	0
<0x74>	0
<0x75>	0
<0x76>	0
<0x77>	0
<0x78>	0
<0x79>	0
<0x7A>	0
<0x7B>	0
<0x7C>	0
<0x7D>	0
<0x7E>	0
<0x7F>	0
<0x80>	0
<0x81>	0
<0x82>	0
<0x83>	0
<0x84>	0
<0x85>	0
<0x86>	0
<0x87>	0
<0x88>	0
<0x89>	0
<0x8A>	0
<0x8B>	0
<0x8C>	0
<0x8D>	0
<0x8E>	0
<0x8F>	0
<0x90>	0
<0x91>	0
<0x92>	0
<0x93>	0
<0x94>	0
<0x95>	0
<0x96>	0
<0x97>	0
<0x98>	0
<0x99>	0
<0x9A>	0
<0x9B>	0
<0x9C>	0
<0x9D>	0
<0x9E>	0
<0x9F>	0
<0xA0>	0
<0xA1>	0
<0xA2>	0
<0xA3>	0
<0xA4>	0
<0xA5>	0
<0xA6>	0
<0xA7>	0
<0xA8>	0
<0xA9>	0
<0xAA>	0
<0xAB>	0
<0xAC>	0
<0xAD>	0
<0xAE>	0
<0xAF>	0
<0xB0>	0
<0xB1>	0
<0xB2>	0
<0xB3>	0
<0xB4>	0
<0xB5>	0
<0xB6>	0
<0xB7>	0
<0xB8>	0
<0xB9>	0
<0xBA>	0
<0xBB>	0
<0xBC>	0
<0xBD>	0
<0xBE>	0
<0xBF>	0
<0xC0>	0
<0xC1>	0
<0xC2>	0
<0xC3>	0
<0xC4>	0
<0xC5>	0
<0xC6>	0
<0xC7>	0
<0xC8>	0
<0xC9>	0
<0xCA>	0
<0xCB>	0
<0xCC>	0
<0xCD>	0
<0xCE>	0
<0xCF>	0
<0xD0>	0
<0xD1>	0
<0xD2>	0
<0xD3>	0
<0xD4>	0
<0xD5>	0
<0xD6>	0
<0xD7>	0
<0xD8>	0
<0xD9>	0
<0xDA>	0
<0xDB>	0
<0xDC>	0
<0xDD>	0
<0xDE>	0
<0xDF>	0
<0xE0>	0
<0xE1>	0
<0xE2>	0
<0xE3>	0
<0xE4>	0
<0xE5>	0
<0xE6>	0
<0xE7>	0
<0xE8>	0
<0xE9>	0
<0xEA>	0
<0xEB>	0
<0xEC>	0
<0xED>	0
<0xEE>	0
<0xEF>	0
<0xF0>	0
<0xF1>	0
<0xF2>	0
<0xF3>	0
<0xF4>	0
<0xF5>	0
<0xF6>	0
<0xF7>	0
<0xF8>	0
<0xF9>	0
<0xFA>	0
<0xFB>	0
<0xFC>	0
<0xFD>	0
<0xFE>	0
<0xFF>	0
.	-2.92964
s	-3.36074
:	-3.4073
▁*	-3.45925
,	-3.5411
▁the	-3.64787
'	-3.87609
▁a	-4.17277
mot	-4.26162
▁you	-4.31212
▁i	-4.31669
▁and	-4.32533
▁to	-4.34097
?	-4.38306
chi	-4.4589
t	-4.46519
▁it	-4.5819
▁of	-4.5995
▁in	-4.67131
▁that	-4.80263
▁he	-5.15799
▁is	-5.2066
ed	-5.23728
▁was	-5.27905
ing	-5.35145
▁=	-5.38417
▁on	-5.41071
▁[	-5.43197
d	-5.45879
▁what	-5.47436
▁for	-5.48968
▁we	-5.53407
m	-5.56904
▁"	-5.61288
]	-5.67085
re	-5.67684
▁this	-5.68086
!	-5.69138
▁do	-5.72514
y	-5.72879
▁be	-5.7319
▁with	-5.73313
▁no	-5.73537
▁me	-5.78993
▁they	-5.81752
▁have	-5.84666
▁there	-5.85252
▁-	-5.88388
▁not	-5.88929
▁she	-5.89702
-	-5.90499
▁at	-5.94589
▁one	-5.95666
▁are	-5.95835
▁can	-5.95867
e	-5.96218
▁but	-5.99629
▁so	-6.01008
i	-6.0171
▁his	-6.01727
ll	-6.03476
ly	-6.03776
a	-6.04948
n	-6.09025
▁as	-6.10388
er	-6.10914
▁all	-6.12251
▁	-6.12284
▁her	-6.13771
▁oh	-6.15162
▁yeah	-6.15911
▁my	-6.16629
▁go	-6.17343
▁don	-6.17365
▁know	-6.18868
...	-6.1985
▁had	-6.21206
▁your	-6.21433
▁like	-6.2223
▁up	-6.23568
ve	-6.24504
inv	-6.35701
▁from	-6.37776
▁out	-6.39327
r	-6.3961
▁here	-6.43169
▁get	-6.45914
in	-6.4633
▁him	-6.47363
▁see	-6.50146
▁just	-6.50357
▁by	-6.50639
▁an	-6.51202
▁if	-6.51517
▁now	-6.5242
▁were	-6.52678
▁right	-6.5393
▁well	-6.55782
g	-6.56134
▁or	-6.59461
▁when	-6.59563
▁about	-6.60195
▁then	-6.64098
▁who	-6.65595
c	-6.67401
al	-6.67626
▁think	-6.67924
▁got	-6.67972
▁some	-6.68498
▁them	-6.69833
▁did	-6.70769
▁said	-6.71928
▁b	-6.72312
fat	-6.73202
▁where	-6.75699
▁come	-6.75904
o	-6.77845
▁will	-6.78572
▁look	-6.79463
;	-6.79874
▁would	-6.80567
▁yes	-6.81677
▁good	-6.82447
p	-6.83322
es	-6.83997
▁want	-6.84267
▁(	-6.84609
l	-6.86321
▁how	-6.87854
▁xxx	-6.8976
▁okay	-6.90575
b	-6.91429
le	-6.91941
▁“	-6.92231
].	-6.92896
▁little	-6.92931
▁put	-6.93425
▁time	-6.93656
▁down	-6.93796
w	-6.95027
▁s	-6.96382
▁back	-6.96709
▁going	-6.96848
▁more	-6.9719
▁re	-6.97365
’	-6.97504
▁been	-6.97807
"	-6.99269
▁has	-6.99809
."	-6.99903
)	-6.99934
▁over	-6.99994
▁two	-7.00333
▁very	-7.00462
▁which	-7.01251
▁their	-7.05164
th	-7.07408
u	-7.08515
▁let	-7.08552
▁'	-7.0944
▁could	-7.10209
▁19	-7.11239
h	-7.11337
f	-7.11629
or	-7.11993
▁de	-7.1417
▁say	-7.15588
ck	-7.17392
▁take	-7.17457
k	-7.1893
▁man	-7.21845
▁other	-7.22312
▁why	-7.24518
▁make	-7.25589
en	-7.25726
,"	-7.26593
ar	-7.27249
▁into	-7.28581
it	-7.29203
▁way	-7.29565
▁people	-7.31253
an	-7.33881
ion	-7.34132
▁too	-7.34313
ne	-7.35053
▁first	-7.35237
on	-7.3626
▁off	-7.3647
la	-7.36627
▁because	-7.36723
▁tell	-7.37543
▁us	-7.38568
▁e	-7.40088
▁gonna	-7.40145
el	-7.40281
▁after	-7.42009
na	-7.42548
▁any	-7.43129
ter	-7.44325
ie	-7.44386
ch	-7.45083
▁only	-7.45265
▁these	-7.45823
li	-7.46726
▁car	-7.4702
▁our	-7.47919
▁er	-7.4875
ra	-7.49141
▁uh	-7.49237
--	-7.49516
il	-7.49872
ur	-7.51158
▁didn	-7.51554
▁need	-7.51655
▁new	-7.52409
de	-7.52642
par	-7.52711
se	-7.53543
ation	-7.53818
ma	-7.54211
▁something	-7.54229
▁really	-7.54697
▁o	-7.5472
▁again	-7.54967
▁mean	-7.55523
▁much	-7.56738
lo	-7.57786
▁made	-7.59547
ce	-7.59956
ro	-7.60333
ry	-7.61265
▁ma	-7.6311
▁before	-7.63195
3	-7.64339
▁work	-7.64533
▁than	-7.64673
▁day	-7.64757
2	-7.64945
▁play	-7.65516
▁should	-7.66583
▁big	-7.66781
▁con	-7.67446
ri	-7.67477
ment	-7.67545
▁away	-7.67613
▁give	-7.67952
us	-7.69153
▁three	-7.69982
▁p	-7.70003
▁never	-7.70128
▁house	-7.7048
▁home	-7.71361
sh	-7.71397
▁went	-7.71865
▁does	-7.71883
me	-7.72188
▁those	-7.73231
▁um	-7.73635
no	-7.73941
▁long	-7.73977
▁great	-7.74308
▁ba	-7.74906
man	-7.75098
▁ra	-7.76007
▁came	-7.76087
▁co	-7.76644
to	-7.76727
the	-7.76807
▁even	-7.77434
est	-7.77527
▁old	-7.77544
▁help	-7.78353
▁also	-7.78754
▁wanna	-7.78873
ta	-7.8074
▁another	-7.80758
ke	-7.80766
▁la	-7.80825
▁thought	-7.81388
▁many	-7.81922
▁must	-7.81964
vi	-7.81967
is	-7.82236
et	-7.82247
z	-7.82621
▁mr	-7.83001
▁thing	-7.83151
▁doing	-7.83166
ers	-7.83529
▁may	-7.83669
as	-7.8373
▁un	-7.84168
at	-7.8422
▁place	-7.84234
▁find	-7.84425
▁am	-7.84996
▁d	-7.8523
▁through	-7.85439
_	-7.85502
▁still	-7.85888
▁show	-7.86345
ent	-7.8695
ic	-7.87036
?"	-7.87324
ha	-7.87382
x	-7.87445
▁dis	-7.87743
▁name	-7.87763
te	-7.87808
▁boy	-7.8791
▁things	-7.88123
▁last	-7.88316
▁head	-7.88962
ia	-7.89361
exp	-7.89417
▁please	-7.89869
▁won	-7.90083
5	-7.90346
▁c	-7.90414
co	-7.9138
6	-7.92201
▁night	-7.92395
▁hand	-7.93723
▁po	-7.939
▁baby	-7.94822
▁found	-7.95069
▁mm	-7.96057
/	-7.96118
ian	-7.9672
▁part	-7.97119
ted	-7.97477
▁g	-7.97894
▁isn	-7.97943
▁%	-7.9872
▁ro	-7.98745
▁li	-7.98821
▁thank	-7.98829
▁called	-7.98874
▁bit	-7.98934
▁might	-7.98968
▁done	-7.99013
▁love	-7.99135
pe	-7.993
▁sure	-7.99428
be	-8.00154
▁mother	-8.0032
▁most	-8.00536
▁water	-8.00648
8	-8.01095
▁na	-8.01148
▁girl	-8.0124
v	-8.01404
ate	-8.01552
9	-8.02389
1	-8.02606
▁k	-8.02767
▁eat	-8.02812
ton	-8.03641
ity	-8.04225
▁around	-8.04517
▁mhm	-8.04646
▁nice	-8.04655
▁book	-8.04766
▁pro	-8.0521
▁chi	-8.05319
▁better	-8.05953
.”	-8.0677
▁keep	-8.06806
ist	-8.06828
▁turn	-8.06933
▁life	-8.07545
▁men	-8.07592
▁kind	-8.07793
▁lo	-8.07888
ver	-8.08578
▁ha	-8.08682
▁own	-8.08801
he	-8.08917
▁da	-8.0969
▁end	-8.09699
▁t	-8.09879
▁while	-8.09911
able	-8.10346
and	-8.10502
▁talk	-8.10552
do	-8.10687
▁di	-8.10827
▁anything	-8.11146
son	-8.11401
mo	-8.11813
▁hey	-8.12022
▁four	-8.12297
▁school	-8.12638
▁ah	-8.12712
po	-8.12797
ul	-8.12844
▁vi	-8.13216
▁erm	-8.13294
▁hi	-8.14195
▁under	-8.14546
▁doesn	-8.15231
ine	-8.15574
ge	-8.15749
▁such	-8.15831
▁call	-8.15872
ir	-8.16017
▁years	-8.16033
▁use	-8.16187
▁next	-8.16805
ant	-8.1689
▁father	-8.16892
▁shall	-8.17176
▁miss	-8.17306
▁used	-8.175
id	-8.17582
ies	-8.18017
ba	-8.18245
▁same	-8.18486
we	-8.18654
ol	-8.1907
▁world	-8.19094
▁being	-8.19125
,”	-8.19172
▁lot	-8.19372
add	-8.19464
▁room	-8.19487
▁else	-8.19569
4	-8.19753
laughs	-8.20107
ting	-8.20849
▁w	-8.20952
mp	-8.20961
▁mo	-8.21098
sis	-8.21504
!"	-8.21831
da	-8.22175
▁open	-8.22462
▁mummy	-8.23051
▁f	-8.23649
▁always	-8.24477
tic	-8.24542
bo	-8.24881
▁left	-8.2509
▁saw	-8.25151
7	-8.25312
▁ta	-8.25446
▁told	-8.25466
▁nothing	-8.25663
▁high	-8.25685
▁sit	-8.26074
▁set	-8.26103
▁leave	-8.26395
▁war	-8.26983
▁le	-8.27158
▁every	-8.27274
▁door	-8.2757
▁looks	-8.27655
ni	-8.27709
ish	-8.28184
▁wait	-8.2841
▁ever	-8.28588
ho	-8.28709
▁se	-8.28713
ty	-8.28855
▁mi	-8.28898
mi	-8.29154
▁bo	-8.29496
un	-8.30199
▁ca	-8.30845
▁side	-8.31528
▁huh	-8.31627
▁sorry	-8.3209
▁remember	-8.32492
wa	-8.32922
▁five	-8.33176
▁daddy	-8.33337
▁ti	-8.33623
▁stop	-8.34047
▁fire	-8.34265
ng	-8.34372
▁hear	-8.34699
um	-8.34713
▁gone	-8.34725
age	-8.3498
go	-8.35418
ca	-8.35675
tion	-8.35797
▁money	-8.35838
▁coming	-8.35874
▁ri	-8.36125
▁though	-8.3634
lu	-8.36426
▁hm	-8.3687
▁young	-8.36972
▁took	-8.3704
▁enough	-8.37115
▁face	-8.37218
▁maybe	-8.37418
tea	-8.38078
▁pre	-8.38509
▁start	-8.38818
▁number	-8.38994
▁red	-8.39044
▁box	-8.39156
▁gra	-8.39191
em	-8.39237
you	-8.39464
▁ten	-8.39795
ness	-8.39795
▁ga	-8.39826
▁m	-8.40081
▁morning	-8.40234
ph	-8.40273
▁sa	-8.40716
▁watch	-8.41013
ad	-8.41164
▁goes	-8.41179
di	-8.41194
▁once	-8.41323
▁light	-8.41329
▁until	-8.41595
▁hold	-8.41766
am	-8.41925
▁stay	-8.42057
▁sir	-8.42546
▁god	-8.42709
ci	-8.4336
▁3	-8.43396
▁second	-8.43435
ling	-8.43469
op	-8.43499
▁try	-8.43545
▁best	-8.43623
▁course	-8.43651
ak	-8.43687
ff	-8.44232
▁_	-8.44266
▁dear	-8.44398
▁ball	-8.44406
▁th	-8.44437
▁quite	-8.44455
▁ja	-8.44625
▁mar	-8.44651
▁year	-8.44748
▁eyes	-8.45688
▁feel	-8.45846
▁ne	-8.45917
ated	-8.4602
ah	-8.4605
▁hard	-8.46136
0	-8.4625
▁du	-8.4628
dy	-8.46332
▁both	-8.46479
▁read	-8.46521
▁far	-8.47051
ga	-8.4707
▁today	-8.4713
▁city	-8.47312
hi	-8.47418
▁ho	-8.47473
▁r	-8.47821
mon	-8.47942
▁game	-8.48025
▁yet	-8.48149
up	-8.48257
▁looking	-8.48551
▁bar	-8.48607
ful	-8.48921
▁each	-8.49018
▁small	-8.49363
▁asked	-8.49502
▁seen	-8.49628
▁run	-8.4965
nd	-8.49748
▁dog	-8.49764
▁few	-8.49995
▁round	-8.49997
▁close	-8.50209
▁friend	-8.50346
▁together	-8.50368
ance	-8.50484
▁soon	-8.50711
per	-8.50848
▁different	-8.50849
▁dr	-8.50986
▁blue	-8.51309
bro	-8.51321
im	-8.51944
ous	-8.52151
▁mind	-8.52547
▁bad	-8.52917
les	-8.53389
led	-8.53802
▁children	-8.54076
▁getting	-8.54296
▁♪	-8.54593
▁without	-8.5468
▁believe	-8.54859
▁says	-8.54931
▁everything	-8.55463
▁cat	-8.55478
▁train	-8.55616
red	-8.5575
▁black	-8.56192
gra	-8.56554
▁st	-8.56681
mch	-8.56803
mar	-8.56884
▁ready	-8.56998
▁pi	-8.5738
▁later	-8.57642
▁mu	-8.57642
▁heard	-8.57813
▁mommy	-8.57951
▁sp	-8.57999
▁between	-8.58138
▁picture	-8.58153
va	-8.58249
ard	-8.59275
▁known	-8.59295
int	-8.59734
▁since	-8.59825
▁pa	-8.60023
▁bring	-8.60068
▁live	-8.6017
cause	-8.602
min	-8.6021
▁l	-8.60325
ary	-8.60338
▁u	-8.60627
▁bed	-8.607
▁half	-8.60722
▁per	-8.60879
▁upon	-8.61364
▁1	-8.61458
▁white	-8.61562
▁story	-8.61571
▁child	-8.61703
▁having	-8.62195
gi	-8.62366
▁himself	-8.6243
▁week	-8.62568
▁hafta	-8.62656
▁move	-8.62943
▁haven	-8.63076
▁si	-8.63286
▁cl	-8.63596
ru	-8.6361
▁cha	-8.63641
▁mrs	-8.6376
▁six	-8.63772
▁happened	-8.63777
▁real	-8.63908
▁star	-8.63969
▁jack	-8.64011
▁alright	-8.64252
▁cut	-8.64255
▁al	-8.64266
rs	-8.6445
▁sha	-8.64607
▁pe	-8.64659
▁american	-8.65011
▁fa	-8.65044
yes	-8.6521
▁pick	-8.65229
ka	-8.6526
▁color	-8.65312
▁table	-8.6544
ence	-8.6559
▁near	-8.6571
▁wanted	-8.65784
▁pretty	-8.66022
ps	-8.66057
gma	-8.66267
▁en	-8.66286
▁ask	-8.66462
ten	-8.66673
▁matter	-8.66688
ster	-8.66718
▁along	-8.66815
▁el	-8.6699
▁listen	-8.67054
▁point	-8.67218
▁ka	-8.67999
▁john	-8.68019
▁sort	-8.68075
▁air	-8.68239
▁knew	-8.68258
▁green	-8.6852
pa	-8.68587
▁lu	-8.68588
but	-8.68597
▁heart	-8.6861
▁looked	-8.68621
▁18	-8.68705
▁talking	-8.68744
▁hello	-8.68783
▁piece	-8.6905
▁care	-8.69295
▁cup	-8.69311
if	-8.69422
▁top	-8.70177
▁fall	-8.70195
▁horse	-8.70445
oh	-8.70472
▁rest	-8.70628
▁state	-8.70781
ron	-8.70881
▁n	-8.71305
ugh	-8.7146
▁ru	-8.71538
▁hands	-8.71783
—	-8.71997
▁ya	-8.72151
ber	-8.7227
▁united	-8.72313
▁making	-8.72527
land	-8.72561
▁moment	-8.72573
▁dad	-8.72645
▁family	-8.73204
▁idea	-8.73288
▁hope	-8.73365
▁against	-8.73377
▁drink	-8.7345
▁order	-8.73455
▁chair	-8.73527
".	-8.73581
▁sea	-8.73908
▁actually	-8.73933
bi	-8.74075
▁town	-8.74174
▁line	-8.74233
▁win	-8.74497
▁wi	-8.74582
▁music	-8.74714
less	-8.74771
▁gave	-8.74855
gu	-8.74988
▁har	-8.75011
▁tea	-8.75176
1:	-8.75213
▁fine	-8.753
▁king	-8.75349
▁party	-8.75357
▁ste	-8.75376
▁sleep	-8.75506
▁j	-8.7554
▁land	-8.75652
▁boys	-8.757
▁bear	-8.75749
cha	-8.76003
▁comp	-8.76304
bu	-8.76517
▁v	-8.76677
▁leg	-8.76935
▁paper	-8.76959
▁during	-8.77065
j	-8.77278
▁son	-8.77662
▁noise	-8.77702
▁north	-8.77707
ning	-8.77901
▁movie	-8.78006
ud	-8.78054
▁brother	-8.78117
▁pu	-8.78877
what	-8.79258
▁born	-8.79664
ding	-8.79686
▁whole	-8.79851
▁voice	-8.79977
king	-8.80174
▁team	-8.80397
pp	-8.80489
▁wasn	-8.80548
▁mot	-8.80581
▁person	-8.80583
▁died	-8.81091
▁mom	-8.81553
▁wouldn	-8.8193
▁days	-8.81966
?”	-8.81984
▁food	-8.82183
fa	-8.82294
ving	-8.82504
om	-8.82595
▁almost	-8.82854
+	-8.82911
▁song	-8.83155
▁happy	-8.83284
▁pay	-8.83366
fi	-8.83372
▁started	-8.8357
▁word	-8.83695
▁ex	-8.83713
é	-8.83722
by	-8.83858
bb	-8.83945
▁trying	-8.84
),	-8.84038
▁states	-8.84056
▁understand	-8.84089
au	-8.84227
well	-8.84299
ture	-8.84645
▁4	-8.84773
vo	-8.84851
rn	-8.85453
▁pull	-8.85454
nan	-8.85524
▁floor	-8.85854
▁sh	-8.85982
▁walk	-8.8601
ep	-8.86191
▁stand	-8.86233
ise	-8.86279
▁saying	-8.86286
wi	-8.8644
▁full	-8.86465
▁minute	-8.86537
ven	-8.86566
▁present	-8.86623
▁2	-8.86761
▁wrong	-8.87033
▁ju	-8.87088
▁fun	-8.87132
▁pat	-8.87351
nk	-8.875
▁fi	-8.87524
▁already	-8.87617
▁mine	-8.87638
▁playing	-8.88014
▁age	-8.88114
▁tu	-8.88142
▁probably	-8.8819
▁wa	-8.88242
▁guess	-8.88295
▁job	-8.88334
ite	-8.88399
ee	-8.88474
▁hair	-8.88544
▁tra	-8.88601
▁country	-8.88607
▁south	-8.8866
▁ar	-8.88776
ial	-8.88779
▁feet	-8.88974
▁question	-8.89509
▁rock	-8.8969
so	-8.90115
▁sound	-8.90249
ip	-8.90592
▁fish	-8.9069
▁woman	-8.90717
▁wish	-8.91022
tain	-8.91038
▁hat	-8.91071
ger	-8.91532
▁seven	-8.91765
tor	-8.91879
que	-8.92068
▁case	-8.92136
▁poor	-8.92294
▁lost	-8.92372
ow	-8.92642
▁became	-8.92757
▁ran	-8.93085
▁thomas	-8.93312
▁began	-8.93584
mb	-8.9373
▁large	-8.93782
▁sec	-8.93808
▁fact	-8.9385
▁lady	-8.9391
tra	-8.93929
▁front	-8.93962
▁short	-8.94082
▁bird	-8.94148
ac	-8.94173
▁jo	-8.94194
▁throw	-8.9435
ring	-8.94443
way	-8.94447
||	-8.94491
ja	-8.94496
▁sal	-8.94608
▁doctor	-8.9474
▁pass	-8.94907
▁gotta	-8.94997
oo	-8.95024
▁sometimes	-8.95129
▁change	-8.95331
▁plan	-8.95715
▁sun	-8.9578
▁eight	-8.95955
lt	-8.95999
ki	-8.96267
▁behind	-8.96545
▁hundred	-8.96551
▁letter	-8.96592
▁page	-8.96657
▁boat	-8.96689
▁5	-8.96717
lin	-8.96772
out	-8.96973
und	-8.97151
val	-8.97187
▁late	-8.9719
▁friends	-8.97196
▁record	-8.97222
▁form	-8.97425
ner	-8.97451
▁group	-8.97502
▁aren	-8.97881
▁sta	-8.98023
▁act	-8.98824
▁–	-8.98846
▁played	-8.99194
▁outside	-8.99339
▁member	-8.99434
▁wonder	-8.99541
▁captain	-8.99555
",	-9.00191
▁hot	-9.00297
▁brought	-9.00392
ble	-9.0059
▁dead	-9.00717
▁em	-9.00741
ley	-9.00805
der	-9.00961
▁speak	-9.01093
▁county	-9.01154
qui	-9.01183
ap	-9.01228
▁couldn	-9.01348
that	-9.01575
▁stuff	-9.01979
pi	-9.02052
all	-9.02074
▁sister	-9.02151
dad	-9.02256
▁national	-9.02356
ating	-9.02387
00	-9.02574
▁road	-9.02575
▁gu	-9.02585
▁h	-9.02859
▁girls	-9.03253
▁stick	-9.03318
ran	-9.03376
▁break	-9.03466
▁river	-9.03476
our	-9.03555
▁tri	-9.03639
▁clear	-9.03703
▁wood	-9.03741
ries	-9.0442
▁sub	-9.04452
ward	-9.0447
pat	-9.0451
▁hurt	-9.04622
▁seemed	-9.04721
▁turned	-9.04802
cu	-9.0484
cc	-9.04885
nny	-9.04943
▁guy	-9.0499
men	-9.05076
▁ni	-9.05203
▁fast	-9.05355
▁arm	-9.05441
ot	-9.05514
).	-9.05544
▁business	-9.05831
▁main	-9.05977
▁however	-9.06002
car	-9.06003
▁hu	-9.06124
▁mark	-9.06184
▁death	-9.062
▁problem	-9.06235
ily	-9.0639
▁someone	-9.0643
▁general	-9.06726
▁often	-9.06901
”	-9.06923
▁ben	-9.06976
▁window	-9.07058
▁draw	-9.07281
tle	-9.07442
▁beautiful	-9.07602
▁step	-9.07704
con	-9.07772
ator	-9.07932
iv	-9.07946
▁dark	-9.08251
▁able	-9.08325
ect	-9.08372
▁cap	-9.08401
▁taken	-9.08533
▁fe	-9.08613
▁tree	-9.08671
▁buy	-9.08762
▁hit	-9.08869
▁taking	-9.09079
▁pan	-9.09185
▁fair	-9.09196
▁je	-9.09313
rr	-9.09386
▁early	-9.09652
▁twenty	-9.09772
▁myself	-9.09797
▁sent	-9.09852
end	-9.09856
my	-9.09868
▁che	-9.09988
▁laugh	-9.09991
gg	-9.10104
▁fell	-9.10176
▁cre	-9.10249
io	-9.1034
▁va	-9.10565
ex	-9.10773
ey	-9.10809
cy	-9.10855
ice	-9.10871
ally	-9.11012
▁inside	-9.11066
ham	-9.11171
ay	-9.1138
▁ship	-9.11402
▁su	-9.11588
▁area	-9.11738
▁bri	-9.11893
▁ob	-9.11902
!”	-9.1213
▁push	-9.12138
▁cold	-9.12193
ut	-9.12217
▁6	-9.12271
▁yourself	-9.12318
for	-9.12438
▁ring	-9.12696
▁rather	-9.12957
▁touch	-9.13176
▁bur	-9.13271
ld	-9.13392
▁nor	-9.13402
▁free	-9.13443
▁jump	-9.13483
▁yellow	-9.13589
den	-9.13685
▁till	-9.14075
▁true	-9.14085
▁perhaps	-9.14482
▁wear	-9.14641
ang	-9.14697
▁reason	-9.14924
▁words	-9.15021
▁ki	-9.15172
▁class	-9.15196
▁count	-9.15198
▁wife	-9.15254
▁ago	-9.15276
▁ge	-9.15422
▁bi	-9.15467
▁pri	-9.15632
of	-9.15708
os	-9.15727
▁strong	-9.15729
ric	-9.15918
▁mum	-9.15964
▁times	-9.15989
▁app	-9.16024
▁felt	-9.16026
▁minutes	-9.16031
▁brown	-9.16109
nie	-9.16168
▁ear	-9.16228
▁wo	-9.16228
▁milk	-9.16378
▁alone	-9.1638
▁sign	-9.16592
ned	-9.16701
www	-9.16979
▁march	-9.17079
▁power	-9.17219
▁funny	-9.17264
▁trouble	-9.1753
▁bag	-9.17877
▁either	-9.17923
▁x	-9.17968
▁means	-9.18112
▁grow	-9.18228
▁sweet	-9.18665
▁cu	-9.18712
▁makes	-9.18736
ual	-9.18777
▁chance	-9.18977
▁!	-9.19308
▁women	-9.19349
▁mon	-9.19354
▁company	-9.1944
▁comes	-9.19468
ever	-9.19738
▁given	-9.19823
lf	-9.19981
▁wall	-9.20052
born	-9.20209
▁france	-9.20308
side	-9.20512
▁english	-9.20722
▁toys	-9.20728
light	-9.209
▁gun	-9.20944
▁police	-9.21002
how	-9.21097
▁street	-9.21142
ze	-9.21349
▁meet	-9.21542
▁become	-9.21582
▁somebody	-9.21696
▁ce	-9.21906
▁ground	-9.22105
▁10	-9.22121
▁body	-9.22166
▁ke	-9.22181
let	-9.22211
ler	-9.22268
▁bob	-9.22665
ped	-9.22751
▁wind	-9.22754
▁important	-9.2278
huh	-9.22998
▁fit	-9.23218
▁8	-9.2335
▁foot	-9.23358
▁7	-9.23412
nder	-9.23423
▁park	-9.23586
▁president	-9.23724
▁several	-9.23796
time	-9.23915
lic	-9.2408
▁past	-9.24129
▁pra	-9.24131
▁write	-9.242
▁deal	-9.24268
▁phone	-9.24561
ight	-9.24638
▁across	-9.24641
ab	-9.24643
don	-9.24802
her	-9.24901
▁thanks	-9.24929
one	-9.24946
▁glad	-9.25182
▁pen	-9.2524
▁save	-9.25531
ical	-9.25539
▁cor	-9.25682
▁law	-9.25722
▁clean	-9.25736
line	-9.25843
▁least	-9.25891
▁working	-9.25978
▁imp	-9.26041
▁roll	-9.26229
▁sing	-9.26303
▁lay	-9.26342
▁bra	-9.26389
nch	-9.26619
▁dinner	-9.26693
ations	-9.27015
rk	-9.27208
▁visit	-9.27349
tro	-9.27359
▁force	-9.2744
ya	-9.27516
fe	-9.27606
▁answer	-9.2782
ign	-9.27965
ag	-9.27975
▁fight	-9.28049
▁ye	-9.28059
▁seat	-9.28069
ping	-9.28184
▁sur	-9.28312
▁cho	-9.28432
▁bus	-9.28552
▁island	-9.2863
she	-9.28737
▁9	-9.28749
ple	-9.28845
▁york	-9.2887
▁uhhuh	-9.2887
gan	-9.29017
▁sat	-9.29172
▁quiet	-9.29182
▁football	-9.29365
▁whi	-9.29415
rus	-9.29522
bel	-9.29631
▁bill	-9.29645
▁post	-9.29802
▁y	-9.29864
▁cross	-9.2995
▁fl	-9.30026
ship	-9.30183
▁gi	-9.30339
▁camp	-9.30339
▁kid	-9.30344
loi	-9.30526
▁min	-9.30611
look	-9.30628
▁west	-9.30747
ther	-9.3088
2:	-9.30897
▁send	-9.30989
▁guys	-9.31001
▁finished	-9.31112
▁cur	-9.31173
▁darling	-9.31206
lan	-9.31299
▁#	-9.31307
▁among	-9.31489
▁animals	-9.31546
▁everybody	-9.31672
▁living	-9.31853
▁egg	-9.32082
▁tomorrow	-9.32181
▁french	-9.32215
▁catch	-9.3222
▁government	-9.32367
▁grand	-9.32432
▁joe	-9.32435
▁hour	-9.32566
▁port	-9.32682
▁return	-9.32698
gen	-9.32937
▁special	-9.3297
▁frank	-9.33039
▁expect	-9.33609
▁glo	-9.33659
▁gri	-9.33702
▁drive	-9.3375
old	-9.33767
ju	-9.33798
▁mor	-9.33932
▁20	-9.33969
▁fo	-9.33988
▁te	-9.3399
cent	-9.34103
▁service	-9.3417
▁tried	-9.34362
▁pop	-9.34374
ism	-9.34512
row	-9.34532
rri	-9.34545
▁church	-9.34549
ren	-9.34636
ded	-9.34728
▁inter	-9.34789
▁trans	-9.35122
▁mouth	-9.35129
▁report	-9.35316
▁exp	-9.35365
▁fellow	-9.3544
▁check	-9.35447
ches	-9.35469
▁wow	-9.35524
▁frog	-9.35593
▁herself	-9.35593
▁club	-9.3574
tan	-9.3578
▁cru	-9.35794
che	-9.36016
▁daughter	-9.36308
▁rain	-9.36394
▁inv	-9.36408
ris	-9.36546
▁region	-9.36742
▁aunt	-9.36748
▁soft	-9.36846
▁gre	-9.36892
▁ski	-9.37026
▁uncle	-9.37242
▁band	-9.37365
mer	-9.37409
▁cried	-9.37425
ities	-9.37473
▁sam	-9.37484
▁anyway	-9.37846
▁building	-9.37864
act	-9.37944
▁usually	-9.37969
▁2020	-9.37999
▁feeling	-9.38068
▁...	-9.38072
unk	-9.38095
br	-9.38106
▁history	-9.38271
lie	-9.38276
▁nine	-9.38284
▁sto	-9.38311
▁carry	-9.38352
▁ok	-9.38361
▁figure	-9.38492
▁earth	-9.38517
▁human	-9.38883
▁ed	-9.38895
▁paint	-9.38921
▁afraid	-9.38959
▁running	-9.39014
▁eye	-9.39035
▁wash	-9.39102
▁engine	-9.39118
▁super	-9.39199
read	-9.39217
ney	-9.39354
▁thinking	-9.39357
▁system	-9.39387
▁cook	-9.39599
▁ow	-9.39654
pped	-9.39699
▁fix	-9.39843
▁summer	-9.39931
▁east	-9.39965
▁sitting	-9.40031
put	-9.40311
▁gar	-9.40359
com	-9.40369
ina	-9.40474
▁held	-9.40504
tri	-9.40582
▁bye	-9.40742
jo	-9.40874
▁player	-9.40929
▁forget	-9.40974
▁truck	-9.4104
ub	-9.41171
▁less	-9.4118
▁char	-9.41251
hu	-9.41354
▁wants	-9.4147
▁flo	-9.41516
▁learn	-9.41577
▁kill	-9.41588
▁station	-9.4159
▁thousand	-9.41614
▁suppose	-9.41855
▁series	-9.4191
▁ch	-9.4194
▁cos	-9.42029
▁kept	-9.4209
▁art	-9.42154
▁dream	-9.42166
han	-9.42242
▁office	-9.42334
mber	-9.42344
▁fu	-9.4244
▁doll	-9.42441
adu	-9.42565
▁birthday	-9.42914
▁happen	-9.42963
friend	-9.43018
▁finger	-9.43099
▁lead	-9.43114
▁lived	-9.43262
nce	-9.43403
dge	-9.4343
▁snow	-9.43486
▁card	-9.43643
▁duck	-9.43753
ung	-9.43773
▁par	-9.43789
od	-9.43805
▁object	-9.43904
some	-9.43985
▁married	-9.43998
▁easy	-9.44122
▁master	-9.44203
▁department	-9.44633
▁hang	-9.44706
▁single	-9.44734
000	-9.44774
▁attack	-9.44847
▁ver	-9.45049
▁blood	-9.45122
cds	-9.4555
▁stood	-9.45649
▁fear	-9.45679
▁remain	-9.4582
▁shot	-9.4589
▁board	-9.45943
tur	-9.46008
wn	-9.46018
▁z	-9.4618
▁den	-9.4623
▁kiss	-9.46247
cra	-9.46375
aft	-9.46453
▁officer	-9.46559
▁indian	-9.46686
▁ooh	-9.46762
▁peter	-9.4681
cul	-9.46889
▁university	-9.469
▁others	-9.4692
▁june	-9.47076
kin	-9.47188
▁tonight	-9.47272
▁15	-9.47315
ible	-9.474
▁dress	-9.47458
▁block	-9.47473
▁language	-9.47555
ste	-9.47633
▁term	-9.47793
▁whatever	-9.47809
cing	-9.47835
▁seems	-9.47905
▁include	-9.47948
▁deep	-9.48007
▁nu	-9.48008
▁smile	-9.48037
▁books	-9.48062
▁pound	-9.48124
▁january	-9.48168
▁ice	-9.48414
bra	-9.48455
▁ph	-9.48496
▁cover	-9.48559
▁field	-9.48726
▁orange	-9.48777
▁safe	-9.48798
▁whether	-9.48822
▁boo	-9.491
len	-9.49185
▁tired	-9.4921
▁12	-9.49212
▁garden	-9.49214
▁drop	-9.49448
▁ride	-9.49452
ile	-9.49573
▁straight	-9.49592
▁stra	-9.49968
▁cop	-9.49999
wo	-9.50085
▁hours	-9.50165
▁village	-9.50227
▁bla	-9.50248
▁qu	-9.50295
▁bell	-9.50381
▁lord	-9.50392
▁lovely	-9.50636
uch	-9.50677
▁rec	-9.50715
▁cause	-9.50732
▁clothes	-9.50801
▁sca	-9.50902
▁hall	-9.50908
▁17	-9.50996
▁cra	-9.51239
▁san	-9.51299
▁hill	-9.5138
room	-9.51487
ker	-9.51504
▁killed	-9.51697
▁couple	-9.51709
▁dance	-9.51775
zz	-9.51946
lar	-9.52005
▁cake	-9.52034
▁list	-9.52273
▁sounds	-9.52334
▁million	-9.52399
▁common	-9.52428
ii	-9.52436
rate	-9.52558
day	-9.52587
ized	-9.52645
▁eh	-9.5268
▁waiting	-9.52753
▁excuse	-9.52813
▁season	-9.52947
▁replied	-9.53097
▁rose	-9.531
▁careful	-9.53196
▁themselves	-9.53261
▁quick	-9.53379
ky	-9.53465
▁kids	-9.53509
▁nose	-9.53557
▁named	-9.53704
▁cow	-9.53739
▁stone	-9.5374
▁low	-9.53752
▁roman	-9.53962
ko	-9.53985
▁cool	-9.54058
▁released	-9.5412
▁album	-9.54154
▁[1	-9.54223
▁mountain	-9.54232
▁follow	-9.54344
mic	-9.54415
▁sw	-9.5449
▁dec	-9.54528
▁major	-9.54838
makes	-9.55024
low	-9.5523
▁forward	-9.55242
▁career	-9.55268
▁district	-9.5528
▁command	-9.55359
▁character	-9.55379
tive	-9.55396
▁lie	-9.55417
dic	-9.55535
ray	-9.55647
▁spot	-9.55731
hy	-9.55784
▁instead	-9.55874
▁answered	-9.55899
▁warm	-9.56084
▁rule	-9.56098
▁shop	-9.56129
▁shoes	-9.56139
ef	-9.56225
▁husband	-9.56271
▁eating	-9.56304
att	-9.56318
▁possible	-9.5648
▁dat	-9.56496
▁months	-9.5665
fch	-9.56801
▁gold	-9.56887
▁british	-9.5702
za	-9.57049
board	-9.57091
▁christmas	-9.57091
▁within	-9.57233
▁middle	-9.57311
▁lots	-9.57401
▁evening	-9.57544
▁film	-9.57585
▁juice	-9.57606
gue	-9.57623
▁wheel	-9.57658
▁fra	-9.57739
lor	-9.57778
▁bank	-9.57812
▁die	-9.57848
ition	-9.57988
ging	-9.58
▁august	-9.58048
not	-9.58107
▁exactly	-9.5819
▁third	-9.582
mu	-9.58267
ek	-9.58272
▁sand	-9.58354
á	-9.58444
▁court	-9.58627
▁tape	-9.58669
use	-9.5884
▁space	-9.58945
▁cannot	-9.59068
▁type	-9.59187
▁wild	-9.59273
▁apple	-9.59359
▁putting	-9.59394
▁above	-9.59396
▁quickly	-9.59494
▁sy	-9.59518
▁passed	-9.5955
▁qua	-9.59728
▁breath	-9.59744
ious	-9.59778
▁moved	-9.59778
▁broken	-9.59787
▁difficult	-9.59826
▁beside	-9.59859
▁points	-9.59874
▁seem	-9.59941
▁although	-9.5995
▁knock	-9.60023
▁certain	-9.60115
▁plant	-9.60167
▁key	-9.602
▁german	-9.60599
▁toward	-9.60805
ade	-9.60832
▁lives	-9.60845
▁award	-9.60907
▁honey	-9.60973
▁finish	-9.60991
uk	-9.6104
▁worry	-9.61062
▁16	-9.6115
▁arms	-9.61234
▁worked	-9.61395
▁treat	-9.61396
▁bro	-9.61508
ory	-9.61644
▁mary	-9.61688
▁van	-9.61707
ach	-9.61751
▁temp	-9.6184
▁indeed	-9.61952
ev	-9.61986
pro	-9.62104
▁offer	-9.6213
nu	-9.62157
▁everyone	-9.62224
▁strange	-9.62247
▁television	-9.62259
▁april	-9.62315
▁hole	-9.62388
▁pet	-9.62519
▁england	-9.62534
▁nin	-9.62551
▁longer	-9.62604
▁public	-9.62619
▁plane	-9.62669
ide	-9.62907
▁control	-9.62928
▁perfect	-9.62991
▁support	-9.63001
▁whose	-9.63061
▁race	-9.63159
▁tre	-9.63253
▁glass	-9.63257
▁pretend	-9.63486
childes	-9.63562
▁anyone	-9.63575
fully	-9.63929
▁match	-9.64001
▁october	-9.6405
▁nearly	-9.64172
▁childes	-9.64219
▁enjoy	-9.64524
▁shape	-9.64553
▁beat	-9.64758
▁mess	-9.64868
▁explain	-9.65023
▁position	-9.65049
▁build	-9.6505
▁example	-9.65306
▁burn	-9.65308
▁test	-9.65345
▁op	-9.6544
▁caught	-9.65524
▁plate	-9.6577
▁mama	-9.65788
▁chief	-9.65947
▁towards	-9.65963
▁nobody	-9.66126
▁bath	-9.66203
pri	-9.66396
▁broke	-9.66438
▁sight	-9.66465
▁store	-9.66467
▁november	-9.66512
▁travel	-9.66639
▁bright	-9.66865
▁sco	-9.66905
▁miles	-9.67013
nic	-9.67027
▁pardon	-9.67132
▁standing	-9.67137
▁reached	-9.67333
▁charge	-9.67381
▁farm	-9.67469
▁shout	-9.67603
▁chapter	-9.67649
▁ahead	-9.67782
▁july	-9.67823
▁september	-9.67832
▁except	-9.67988
▁serious	-9.67994
▁effect	-9.68
▁yu	-9.68005
▁david	-9.6809
▁reach	-9.68284
▁hol	-9.68293
▁former	-9.683
▁blow	-9.68436
20	-9.6846
place	-9.68533
▁track	-9.68683
▁paul	-9.6871
▁notice	-9.68765
▁hungry	-9.68817
uff	-9.69044
▁certainly	-9.69058
▁teacher	-9.69294
ban	-9.69448
▁yesterday	-9.69465
▁climb	-9.69477
▁view	-9.69546
igh	-9.69657
▁noises	-9.69693
▁spi	-9.69743
▁vo	-9.69754
▁mad	-9.69797
▁army	-9.69801
▁december	-9.69886
qu	-9.69924
▁doubt	-9.69962
▁fla	-9.70142
burg	-9.70213
▁breakfast	-9.70401
▁george	-9.7047
▁manage	-9.70502
▁hospital	-9.70539
lea	-9.70553
ened	-9.70651
–	-9.70685
can	-9.70758
take	-9.70804
▁crayon	-9.71022
▁gro	-9.71061
▁]	-9.71122
hold	-9.71181
like	-9.7125
▁kitchen	-9.71253
▁pack	-9.7129
illustration	-9.71345
ium	-9.71388
▁para	-9.7142
▁february	-9.71449
▁suggest	-9.71507
▁returned	-9.71546
▁chicken	-9.71624
▁begin	-9.71639
▁changed	-9.71776
▁bottle	-9.71787
▁yep	-9.71794
▁cro	-9.7184
▁afternoon	-9.71844
▁queen	-9.72089
laugh	-9.72188
▁moon	-9.72212
▁stopped	-9.72341
▁join	-9.72391
▁scr	-9.72393
▁london	-9.72498
▁cal	-9.72612
▁protect	-9.72632
▁following	-9.72748
▁pot	-9.72811
▁helen	-9.72886
now	-9.72906
▁bread	-9.72925
▁heavy	-9.73238
▁lunch	-9.73243
▁conf	-9.73316
▁telling	-9.7332
▁yo	-9.73334
▁built	-9.73651
▁hum	-9.73659
there	-9.73668
▁secret	-9.73742
du	-9.7376
▁loud	-9.73868
▁hunt	-9.74015
▁supposed	-9.74103
▁def	-9.7411
mor	-9.74122
▁fat	-9.74379
▁trust	-9.74437
name	-9.74442
▁suddenly	-9.74454
▁anybody	-9.74651
▁council	-9.74675
")	-9.74681
▁decided	-9.74702
▁wal	-9.75208
right	-9.7529
▁written	-9.75299
▁cheer	-9.75439
▁trees	-9.75477
▁11	-9.75506
▁(19	-9.76045
▁sad	-9.76213
▁ken	-9.76249
▁comm	-9.76292
▁lake	-9.76332
▁mid	-9.76338
▁particular	-9.7651
gar	-9.76517
▁truth	-9.76583
%	-9.76643
ified	-9.7667
▁sick	-9.76687
vin	-9.76768
▁suit	-9.7685
▁dar	-9.77036
▁author	-9.77109
▁program	-9.77159
▁soldier	-9.77282
▁followed	-9.77492
▁opened	-9.77492
come	-9.77846
▁shoot	-9.77957
▁fraser	-9.78116
van	-9.78242
▁thirty	-9.78318
19	-9.78336
▁bridge	-9.78351
cla	-9.78534
▁sense	-9.78694
▁bru	-9.78731
▁tv	-9.78765
▁ur	-9.78856
▁cry	-9.78885
form	-9.78959
▁worth	-9.78963
ddle	-9.79066
▁hurry	-9.7919
▁refer	-9.792
house	-9.79232
▁somewhere	-9.79272
play	-9.79328
▁bun	-9.794
▁lock	-9.79559
▁bunny	-9.79643
▁coffee	-9.79654
▁13	-9.79695
▁press	-9.79753
why	-9.79763
ok	-9.79781
▁giving	-9.79856
▁bought	-9.79857
q	-9.79992
▁using	-9.8009
▁ko	-9.80156
▁wide	-9.80165
ties	-9.80204
child	-9.80293
▁belong	-9.8035
▁guard	-9.80491
▁leaving	-9.80564
▁stuck	-9.80614
▁bull	-9.80744
▁consider	-9.80761
▁led	-9.81221
▁shi	-9.81262
▁corner	-9.81288
▁bottom	-9.81354
▁added	-9.81367
▁holding	-9.81399
▁ven	-9.81575
▁hasn	-9.81605
▁cheese	-9.81701
▁stu	-9.81749
▁leader	-9.81794
▁level	-9.81908
▁sell	-9.81973
▁battle	-9.8201
▁slip	-9.82119
▁continue	-9.82225
▁lift	-9.823
▁interest	-9.82343
▁14	-9.82436
▁australia	-9.8246
lk	-9.82529
▁gen	-9.82646
▁health	-9.82822
▁squ	-9.82873
gasps	-9.82879
▁enter	-9.82909
▁meeting	-9.8292
▁tail	-9.82985
▁elephant	-9.83043
pu	-9.83143
▁college	-9.83148
▁angel	-9.83327
▁pink	-9.83341
nor	-9.83455
▁busy	-9.83485
▁wrote	-9.835
▁fifty	-9.83526
▁watching	-9.83559
▁30	-9.83568
▁apart	-9.83602
▁pal	-9.83815
▁lin	-9.83926
singing	-9.83955
▁fly	-9.83987
ose	-9.84083
▁share	-9.84382
▁spirit	-9.8442
▁machine	-9.8444
▁result	-9.84472
har	-9.8454
▁cookie	-9.8471
ou	-9.84718
▁pain	-9.848
▁silver	-9.84882
sure	-9.84967
they	-9.8497
▁bow	-9.85022
▁sky	-9.8515
▁whom	-9.85179
▁league	-9.8532
▁population	-9.85399
▁lose	-9.85458
▁moving	-9.85463
▁minister	-9.85586
▁ze	-9.8562
▁rabbit	-9.85706
▁welcome	-9.85707
ong	-9.85739
box	-9.85744
duc	-9.85915
▁bang	-9.85946
▁animal	-9.86045
▁ought	-9.86058
▁commune	-9.86068
ez	-9.86131
▁happens	-9.86141
▁cri	-9.86155
ative	-9.86187
=	-9.8637
▁pin	-9.86409
▁mc	-9.86581
í	-9.86592
▁america	-9.86681
▁spring	-9.86722
amp	-9.86759
cious	-9.86846
▁fail	-9.86854
spect	-9.86855
▁amy	-9.86868
▁personal	-9.8692
▁express	-9.86971
▁international	-9.87173
oth	-9.87233
▁further	-9.87304
▁month	-9.8731
▁finally	-9.87335
▁dig	-9.87353
▁flowers	-9.87408
▁pig	-9.8743
▁anymore	-9.87432
▁spoke	-9.87488
▁carl	-9.87615
▁natural	-9.8769
▁wonderful	-9.87703
▁ham	-9.87741
ford	-9.8781
press	-9.8782
▁local	-9.87938
ically	-9.88009
▁$	-9.88025
▁tro	-9.88037
▁moo	-9.88081
▁ann	-9.88155
gged	-9.88191
je	-9.88196
serv	-9.88237
pping	-9.88358
▁‘	-9.88408
▁parents	-9.88416
▁grandma	-9.88675
▁tall	-9.88728
▁rich	-9.88771
▁hy	-9.89022
▁base	-9.89316
▁beginning	-9.89329
▁circle	-9.89602
▁escape	-9.89602
▁lad	-9.89612
▁current	-9.8963
▁original	-9.89631
▁cost	-9.89652
▁knee	-9.89657
▁exclaimed	-9.89741
▁received	-9.89795
▁fur	-9.89874
▁including	-9.89991
▁michael	-9.90019
▁mari	-9.90103
▁robert	-9.90114
▁agree	-9.90226
▁murder	-9.90243
▁mix	-9.90333
▁sail	-9.9034
port	-9.90381
▁phil	-9.90385
▁winter	-9.90409
▁rising	-9.90516
night	-9.90538
mother	-9.90681
▁wave	-9.90741
▁dia	-9.90839
noise	-9.91103
cat	-9.91127
▁dry	-9.91167
▁proper	-9.91179
▁james	-9.91194
▁action	-9.91372
▁square	-9.91531
▁design	-9.91713
vocalize	-9.91878
▁hide	-9.91967
▁attention	-9.91977
▁carried	-9.92051
▁self	-9.92273
▁trip	-9.92309
▁video	-9.92479
illa	-9.9261
▁none	-9.92739
▁distance	-9.92764
col	-9.92771
▁shut	-9.92961
ounce	-9.93061
▁william	-9.93097
▁walking	-9.93135
▁rob	-9.93135
▁accept	-9.93411
▁scar	-9.93576
▁collect	-9.93611
ji	-9.93728
▁mal	-9.93884
▁direction	-9.93935
▁rush	-9.93957
60	-9.94111
▁century	-9.94163
fl	-9.94247
ku	-9.94489
▁lion	-9.94577
unc	-9.94699
▁choo	-9.94756
qua	-9.94935
▁appeared	-9.94938
where	-9.9516
▁jim	-9.95233
▁sharp	-9.95252
10	-9.95308
▁silence	-9.95394
▁writing	-9.95465
▁popular	-9.95554
points	-9.95707
▁mass	-9.95717
▁grass	-9.95729
▁role	-9.95739
▁capital	-9.9576
▁crying	-9.9579
▁pocket	-9.95805
▁harry	-9.96122
ache	-9.96183
▁feed	-9.96343
▁basket	-9.96576
▁sport	-9.96618
▁weren	-9.96705
▁promise	-9.96751
90	-9.96838
▁study	-9.96917
▁connect	-9.96946
▁dropped	-9.96981
50	-9.97027
▁contain	-9.97069
▁ter	-9.97077
▁peace	-9.97114
▁camera	-9.97155
▁cell	-9.97262
▁account	-9.97293
40	-9.973
80	-9.9738
▁direct	-9.97393
▁clar	-9.97461
▁billy	-9.97526
▁information	-9.97549
▁gate	-9.97694
▁spoon	-9.97715
▁teach	-9.978
▁total	-9.97828
▁organ	-9.97867
▁allowed	-9.97891
▁shouldn	-9.98255
▁spend	-9.9829
▁favorite	-9.98311
▁hop	-9.98324
▁prove	-9.98393
zi	-9.98444
▁experience	-9.98485
▁coll	-9.98562
▁wake	-9.98595
field	-9.98652
▁ci	-9.98688
pen	-9.9872
▁puzzle	-9.98729
▁teeth	-9.98745
▁taste	-9.98767
▁province	-9.9879
▁fer	-9.98791
ov	-9.98796
this	-9.98865
▁ser	-9.99021
▁han	-9.99037
▁coat	-9.99185
▁louis	-9.99257
▁walked	-9.99266
▁paris	-9.99313
▁search	-9.99464
▁laughing	-9.99498
▁dan	-9.99532
then	-9.99544
▁especially	-9.99554
wood	-9.99564
▁africa	-9.99635
▁joy	-9.9968
▁continued	-9.9978
▁based	-9.99811
▁surprise	-9.99854
▁stage	-9.99886
▁cream	-9.99967
▁fresh	-9.99996
▁broad	-10.0004
▁remark	-10.0012
clock	-10.0017
▁interesting	-10.0026
▁quarter	-10.0028
▁monkey	-10.0028
▁flu	-10.0049
lon	-10.0056
▁entire	-10.0062
▁delight	-10.0067
▁due	-10.0123
▁2018	-10.0128
▁famous	-10.014
head	-10.0141
▁respect	-10.0144
▁teddy	-10.0162
30	-10.0166
▁25	-10.0173
hood	-10.0216
▁speed	-10.0219
▁val	-10.0224
▁normal	-10.0228
▁opera	-10.0231
▁mistake	-10.0264
▁corn	-10.0269
▁allow	-10.0271
▁bomb	-10.0277
▁reading	-10.0282
▁bobby	-10.0293
cher	-10.0294
▁row	-10.0294
▁qui	-10.0298
▁scene	-10.0302
▁itself	-10.0307
▁honor	-10.0308
▁rub	-10.0311
▁created	-10.0328
▁according	-10.0329
ology	-10.0333
▁period	-10.0339
▁final	-10.0347
▁fro	-10.0357
▁pla	-10.0369
▁japan	-10.0372
rick	-10.0373
▁future	-10.0392
▁kitty	-10.0406
▁shoulder	-10.0415
▁conversation	-10.042
sib	-10.0423
▁comb	-10.0424
▁button	-10.0431
off	-10.0436
bling	-10.0443
▁center	-10.0471
▁prince	-10.0497
▁2021	-10.0498
▁chocolate	-10.0501
▁ger	-10.0503
▁buck	-10.0506
▁brush	-10.0512
▁victor	-10.0515
▁martin	-10.0519
▁forgot	-10.0526
zo	-10.0527
▁pitch	-10.0534
ridge	-10.0537
▁nick	-10.0547
▁fri	-10.0555
war	-10.0555
▁lower	-10.0556
▁student	-10.0558
▁whisper	-10.0561
▁smell	-10.0569
▁clever	-10.057
▁mac	-10.0574
▁uhoh	-10.0586
▁tower	-10.0596
▁wha	-10.0604
▁germany	-10.0609
ably	-10.0627
▁forest	-10.0627
▁laughed	-10.0629
▁fre	-10.0629
▁twelve	-10.063
fri	-10.0638
▁tiger	-10.0639
▁butter	-10.0641
▁union	-10.0647
▁luck	-10.0659
▁interested	-10.0668
▁social	-10.0673
▁fan	-10.068
▁grew	-10.0682
cept	-10.0682
▁paid	-10.0682
ville	-10.0696
gro	-10.0704
▁shake	-10.0708
▁concern	-10.0715
▁alive	-10.0721
▁slowly	-10.0741
counter	-10.0743
hel	-10.0744
▁jane	-10.0745
▁length	-10.0759
▁magic	-10.0764
▁storm	-10.0768
▁flat	-10.0771
▁radio	-10.0784
▁earn	-10.0788
▁director	-10.0794
▁singing	-10.0796
ize	-10.0802
▁range	-10.0828
▁suffer	-10.0834
▁sch	-10.0835
▁mouse	-10.0841
▁betty	-10.0846
▁exc	-10.0873
70	-10.0903
▁sheep	-10.0907
▁lying	-10.0911
▁price	-10.092
▁faith	-10.0921
▁below	-10.0926
▁snake	-10.0942
pose	-10.0979
▁appear	-10.0983
ix	-10.1009
▁adult	-10.1042
▁realize	-10.1043
▁exist	-10.1044
▁extra	-10.105
▁kick	-10.1058
▁coast	-10.1064
▁terrible	-10.1071
▁situation	-10.1071
work	-10.1073
▁cast	-10.1079
▁accident	-10.109
▁attempt	-10.1097
▁size	-10.1102
⌋	-10.1107
▁scared	-10.1126
▁neck	-10.1134
▁christian	-10.1145
▁computer	-10.1147
▁woo	-10.1147
▁approach	-10.1159
▁official	-10.1169
▁civil	-10.1169
▁vol	-10.117
▁franc	-10.1186
▁politician	-10.1192
ette	-10.1193
▁loved	-10.1199
▁unless	-10.1224
▁closed	-10.123
▁provide	-10.1245
▁pause	-10.1248
▁bigger	-10.1249
▁danger	-10.1249
▁california	-10.1256
▁subject	-10.1259
▁actor	-10.1265
⌉	-10.1265
▁add	-10.1269
▁⌊	-10.1274
▁date	-10.1294
truct	-10.1296
▁drawing	-10.1302
▁plain	-10.1311
▁⌈	-10.1311
▁jwww	-10.1315
▁shore	-10.1329
▁publish	-10.1335
▁(20	-10.1355
▁cent	-10.1365
▁henry	-10.1381
▁kingdom	-10.1385
bar	-10.1391
▁stories	-10.1391
▁richard	-10.1394
▁repeat	-10.1395
▁sleeping	-10.1397
▁develop	-10.1399
▁host	-10.1418
▁hoo	-10.1418
▁shoe	-10.1421
▁hate	-10.143
▁sum	-10.143
▁yard	-10.1431
▁difference	-10.1431
▁thus	-10.1432
ograph	-10.1439
▁asleep	-10.1443
▁lee	-10.1444
▁success	-10.1446
▁madam	-10.1451
▁condition	-10.1454
▁bert	-10.146
▁bowl	-10.1462
▁gall	-10.1462
▁ty	-10.1469
vol	-10.1472
▁driver	-10.1472
▁simple	-10.1483
▁trick	-10.1488
▁india	-10.1493
▁prepare	-10.1504
▁pie	-10.1505
lia	-10.1518
▁destroy	-10.1524
▁species	-10.1524
▁24	-10.1529
cycl	-10.1529
▁hardly	-10.1533
▁smart	-10.1537
▁hotel	-10.1538
▁gather	-10.154
▁sue	-10.1542
▁awful	-10.1548
▁manner	-10.1559
ica	-10.1569
▁asking	-10.1576
▁countries	-10.1597
▁imagine	-10.1598
babble	-10.1624
▁complete	-10.1627
▁edge	-10.1628
▁fruit	-10.1641
▁forty	-10.1649
kay	-10.1651
▁handle	-10.1653
▁championship	-10.1658
ency	-10.1664
▁similar	-10.1666
▁perform	-10.1669
▁republic	-10.1674
▁skin	-10.1678
▁2019	-10.1679
▁cloud	-10.1679
ctor	-10.1683
just	-10.1691
rop	-10.171
▁fred	-10.1711
▁beach	-10.173
▁sunday	-10.1737
▁central	-10.1738
12	-10.1738
▁pour	-10.1741
▁hung	-10.175
▁stan	-10.1752
▁21	-10.1761
▁tale	-10.1776
▁crash	-10.1785
[	-10.1821
▁crowd	-10.1821
▁aye	-10.1822
ute	-10.1831
ection	-10.1849
▁mil	-10.1851
hen	-10.1854
berg	-10.1867
▁education	-10.1867
▁trade	-10.1872
▁served	-10.1894
▁market	-10.1902
▁path	-10.1907
▁therefore	-10.1908
▁judge	-10.1909
▁issue	-10.1913
▁shin	-10.1914
--"	-10.1955
▁wound	-10.196
▁soul	-10.1963
▁title	-10.1965
▁professional	-10.1979
▁picked	-10.1981
▁election	-10.1985
▁pleasure	-10.1986
▁spent	-10.199
▁slow	-10.1997
▁bump	-10.2
▁process	-10.2007
▁bound	-10.2016
▁folk	-10.2022
▁honest	-10.2026
▁upstairs	-10.2032
▁spread	-10.2032
▁native	-10.2033
▁cousin	-10.2034
▁motor	-10.2055
▁max	-10.2056
▁anna	-10.2056
▁nest	-10.2064
▁brave	-10.2065
▁puppet	-10.2071
18	-10.2075
who	-10.208
cast	-10.2081
▁purpose	-10.2087
▁movement	-10.209
laughing	-10.21
▁occasion	-10.21
▁western	-10.2101
▁nature	-10.2101
▁anne	-10.2111
▁2017	-10.2116
fad	-10.2123
▁speaking	-10.2123
▁older	-10.2133
▁double	-10.2135
▁cloth	-10.2139
▁amount	-10.2146
▁oops	-10.2153
11	-10.2154
▁beyond	-10.2155
▁royal	-10.2163
uh	-10.2165
▁gene	-10.2189
▁learned	-10.2191
▁("	-10.2202
▁christ	-10.2203
▁covered	-10.2212
▁oo	-10.2224
▁crack	-10.2238
▁anti	-10.2245
▁artist	-10.2252
▁worse	-10.2271
▁vote	-10.2284
▁private	-10.2302
▁professor	-10.2323
▁&	-10.2339
▁joined	-10.2353
▁message	-10.2376
▁lean	-10.2384
▁load	-10.2388
▁governor	-10.2389
miss	-10.2395
▁shirt	-10.2396
▁monster	-10.2399
▁23	-10.2403
▁japanese	-10.2403
▁tax	-10.2415
▁adam	-10.2424
▁charles	-10.2436
itude	-10.2443
▁driving	-10.2446
▁silly	-10.2449
▁rough	-10.245
▁fox	-10.2452
▁sarah	-10.2452
▁caused	-10.246
▁regard	-10.247
▁zo	-10.2471
▁dollars	-10.248
▁gru	-10.2485
▁heaven	-10.2494
▁fighting	-10.2501
▁bite	-10.2504
spir	-10.2519
▁tiny	-10.252
round	-10.2525
▁spanish	-10.2533
▁deck	-10.2542
▁weather	-10.2545
ö	-10.2549
▁describe	-10.2557
▁eleanor	-10.2561
▁22	-10.2562
▁enemy	-10.2563
▁clock	-10.2567
▁2022	-10.2571
▁project	-10.2573
▁flying	-10.2582
▁cabin	-10.2587
▁represent	-10.259
▁gain	-10.26
bby	-10.2603
▁merc	-10.2606
▁grave	-10.2611
▁disappear	-10.2617
▁calm	-10.2622
▁electric	-10.2629
▁political	-10.2641
▁produce	-10.2642
▁address	-10.2647
hand	-10.2649
▁smoke	-10.2651
▁swing	-10.2663
▁modern	-10.2681
▁wan	-10.2682
▁various	-10.269
▁background	-10.2693
▁stock	-10.2694
▁retire	-10.2706
▁claim	-10.2709
▁europe	-10.2713
▁mill	-10.2727
▁nurse	-10.2735
▁hug	-10.2747
▁lucky	-10.2748
▁declared	-10.2758
▁proud	-10.2762
▁ban	-10.2774
▁entered	-10.2774
▁discuss	-10.2774
▁sandwich	-10.2774
▁bush	-10.2784
▁branch	-10.2793
▁hiding	-10.2813
▁agreed	-10.2816
▁ladies	-10.2828
▁mike	-10.2838
▁pair	-10.2846
▁flower	-10.2855
▁depend	-10.2858
▁deliver	-10.286
gger	-10.2862
▁olympic	-10.2866
▁crime	-10.2867
▁arrived	-10.2868
▁bone	-10.2877
▁affect	-10.2878
law	-10.2878
▁tight	-10.2882
shire	-10.2886
▁crazy	-10.2889
▁drew	-10.2902
▁directed	-10.2909
▁absolutely	-10.2914
▁angry	-10.2917
▁spell	-10.2925
▁2010	-10.2925
▁fool	-10.2931
▁pleasant	-10.2943
▁dressed	-10.2967
mate	-10.2975
▁ku	-10.2983
▁attend	-10.3008
▁russian	-10.3012
▁swa	-10.3025
cries	-10.3027
▁science	-10.3036
▁dangerous	-10.3041
▁saint	-10.3044
▁neighbor	-10.3049
▁jesus	-10.3053
▁glance	-10.3057
▁trail	-10.3061
▁strength	-10.3061
▁feature	-10.3067
▁regular	-10.3084
▁sugar	-10.309
▁census	-10.309
▁thou	-10.3097
▁prisoner	-10.31
▁happening	-10.3118
▁largest	-10.3129
▁der	-10.3134
▁choice	-10.3134
▁dolly	-10.3139
▁slide	-10.3141
▁separate	-10.3152
▁northern	-10.3162
▁kar	-10.3169
▁scott	-10.3178
▁singer	-10.318
▁bless	-10.3188
▁employ	-10.319
▁version	-10.3192
▁laid	-10.3198
▁remove	-10.3203
▁companion	-10.3204
▁brain	-10.3206
▁critic	-10.3207
▁anywhere	-10.3213
▁occur	-10.3217
/0	-10.3219
▁considered	-10.3221
▁thick	-10.3222
▁patient	-10.3224
mbled	-10.3244
▁centre	-10.325
▁100	-10.3259
▁bother	-10.3272
▁military	-10.3273
▁babies	-10.3277
▁saturday	-10.3288
▁coach	-10.3291
▁col	-10.3293
▁castle	-10.3295
▁require	-10.3299
▁arrest	-10.331
▁sold	-10.3318
▁crew	-10.3324
▁scream	-10.3329
cut	-10.333
▁adventure	-10.3333
▁immediately	-10.3334
▁neither	-10.3335
▁discovered	-10.3341
▁threw	-10.3342
▁dinosaur	-10.335
▁holiday	-10.3371
▁female	-10.3376
▁twin	-10.3384
▁easily	-10.3389
▁ocean	-10.3389
▁european	-10.3398
▁research	-10.3417
bil	-10.3436
▁eager	-10.3443
▁surprised	-10.3444
▁demand	-10.3445
▁prize	-10.3447
15	-10.3448
turn	-10.3451
▁farmer	-10.3459
▁completely	-10.3461
▁energy	-10.3463
▁naughty	-10.3463
▁purple	-10.3463
▁correct	-10.3463
▁journey	-10.3478
▁weapon	-10.3478
▁increase	-10.3482
▁fault	-10.3493
▁effort	-10.3495
▁→	-10.3497
▁score	-10.35
▁fill	-10.3502
▁arch	-10.3506
▁tip	-10.3517
▁tele	-10.3517
▁twice	-10.3524
▁china	-10.3533
▁spider	-10.3549
▁wil	-10.3549
ü	-10.355
▁society	-10.3561
▁roof	-10.3566
▁marry	-10.3574
▁empty	-10.3577
▁duty	-10.3578
▁brick	-10.3579
▁dust	-10.3584
▁chu	-10.3595
▁municipality	-10.3602
▁custom	-10.3605
▁goodness	-10.3606
▁clo	-10.3609
▁barn	-10.3617
▁tin	-10.3637
▁dam	-10.3637
▁raised	-10.3639
▁26	-10.3642
▁admit	-10.3643
▁slave	-10.3653
▁model	-10.3661
▁2011	-10.3668
▁lieutenant	-10.3674
▁threat	-10.3677
▁equal	-10.3681
▁recognize	-10.369
▁medicine	-10.3703
▁flight	-10.3741
▁supper	-10.3743
▁simply	-10.3745
▁drug	-10.3746
▁previous	-10.375
▁stream	-10.375
▁mate	-10.3751
▁zoo	-10.3751
▁plenty	-10.3754
▁spec	-10.3771
▁cheek	-10.3785
▁italian	-10.3814
▁balloon	-10.3817
▁hal	-10.3819
▁charlie	-10.3822
▁boss	-10.3831
▁produced	-10.384
▁filled	-10.3843
▁nation	-10.3848
▁2016	-10.3852
jen	-10.3861
▁anxious	-10.3867
▁swim	-10.3886
▁serve	-10.3888
▁unit	-10.3898
▁potato	-10.3906
▁risk	-10.3907
▁huge	-10.3919
▁advance	-10.392
▁fifteen	-10.3926
▁gentlemen	-10.3927
▁division	-10.3931
ability	-10.3937
▁studio	-10.3954
▁vessel	-10.3961
▁guest	-10.3962
▁peas	-10.3969
▁princess	-10.397
▁flash	-10.3975
▁rapid	-10.3984
▁rate	-10.3985
▁fallen	-10.3991
▁telephone	-10.3995
▁flag	-10.4005
17	-10.4017
▁ancient	-10.4027
picks	-10.4029
▁eleven	-10.4039
▁practice	-10.405
▁excited	-10.405
▁decision	-10.4053
▁appearance	-10.4055
▁log	-10.4056
▁za	-10.406
▁spin	-10.4066
▁evidence	-10.4083
▁prime	-10.4083
▁whoops	-10.4088
▁mission	-10.4093
▁choose	-10.4097
▁southern	-10.4097
▁steam	-10.4099
13	-10.4103
▁bug	-10.4112
89	-10.4116
▁maggie	-10.412
▁partner	-10.4125
▁27	-10.4131
▁lesson	-10.4131
▁degree	-10.4143
▁50	-10.4152
▁steven	-10.4153
▁affair	-10.4171
▁channel	-10.4174
istic	-10.4174
▁necessary	-10.4188
brother	-10.419
▁announced	-10.4204
14	-10.4208
▁sho	-10.4209
▁gift	-10.4235
▁prison	-10.4244
▁swimming	-10.4244
▁instant	-10.4249
▁gentleman	-10.4254
▁brief	-10.4259
▁promised	-10.4266
▁29	-10.4267
▁needta	-10.428
▁papa	-10.428
▁grace	-10.4307
▁content	-10.4307
▁possess	-10.432
▁usual	-10.4332
▁string	-10.4358
▁community	-10.4374
back	-10.439
bble	-10.4399
▁28	-10.4405
▁gil	-10.4423
known	-10.4428
▁oil	-10.4441
▁earlier	-10.4444
chuckles	-10.4456
▁firm	-10.4469
▁rope	-10.4472
▁chap	-10.4484
▁print	-10.4485
▁episode	-10.4499
▁discover	-10.4502
▁measure	-10.4514
▁2014	-10.4527
▁marriage	-10.4543
▁laura	-10.4548
▁grown	-10.4589
▁creature	-10.4597
▁writer	-10.4611
▁jess	-10.4622
45	-10.4638
▁stretch	-10.4641
▁material	-10.465
▁motion	-10.4665
with	-10.4666
▁2012	-10.4679
▁mamma	-10.4688
▁knife	-10.469
▁haha	-10.4694
▁drama	-10.4695
(	-10.4699
▁2013	-10.4708
▁carefully	-10.4713
▁pear	-10.4717
▁border	-10.4742
▁philip	-10.4743
▁grab	-10.4758
▁tur	-10.4759
▁observe	-10.4771
▁interrupt	-10.4779
▁friday	-10.4782
▁golden	-10.4787
▁sul	-10.4793
▁silent	-10.4796
▁attract	-10.4797
▁dancing	-10.4798
▁jean	-10.4805
▁blanket	-10.4806
▁grant	-10.4806
▁style	-10.481
▁arab	-10.4813
▁value	-10.4813
▁metal	-10.4824
▁bike	-10.4833
▁santa	-10.4838
▁dirty	-10.4839
▁texas	-10.4844
script	-10.4845
▁toast	-10.4853
▁sudden	-10.4862
▁wolf	-10.4889
▁speech	-10.4894
75	-10.4909
▁limit	-10.4921
▁bonnet	-10.4929
▁obviously	-10.4939
▁successful	-10.4943
▁sigh	-10.495
▁development	-10.4974
▁poet	-10.4979
▁strip	-10.4979
▁snap	-10.4982
▁rise	-10.4989
▁downstairs	-10.499
▁newspaper	-10.499
▁detail	-10.499
▁troop	-10.4999
book	-10.5001
▁2015	-10.5006
▁colonel	-10.5041
▁struck	-10.5056
▁valley	-10.5058
▁remind	-10.5062
▁horn	-10.5064
▁tradition	-10.5069
▁desire	-10.5075
▁smith	-10.5076
▁2008	-10.5089
▁refuse	-10.51
▁involved	-10.5107
▁signal	-10.5136
▁manager	-10.5146
▁steal	-10.5146
▁lawyer	-10.5149
▁damage	-10.5152
▁otherwise	-10.5154
▁alice	-10.5162
16	-10.5172
▁stairs	-10.5198
▁joke	-10.5207
▁impossible	-10.5208
▁goodbye	-10.5208
▁pizza	-10.5234
▁washington	-10.5247
▁eva	-10.5252
▁agent	-10.5256
▁cau	-10.5266
▁colour	-10.5269
▁decide	-10.5269
▁taught	-10.5271
86	-10.5271
▁magazine	-10.5286
▁robin	-10.5296
▁individual	-10.5296
▁conduct	-10.5338
good	-10.5341
▁evident	-10.5357
▁worried	-10.5357
▁beauty	-10.536
phone	-10.5377
communi	-10.5378
▁stranger	-10.5379
▁influence	-10.5389
▁canada	-10.5392
▁crown	-10.5396
▁italy	-10.5402
▁comment	-10.5403
▁pool	-10.5404
▁giant	-10.5407
▁throat	-10.541
è	-10.5415
▁auto	-10.5423
▁disease	-10.5428
&	-10.5433
87	-10.5433
▁operation	-10.5438
▁ninety	-10.5446
▁comfort	-10.5452
▁honour	-10.5452
▁bedroom	-10.5469
▁everywhere	-10.547
▁mount	-10.5474
▁2007	-10.5489
▁spoken	-10.5494
▁receive	-10.55
▁2009	-10.5505
position	-10.5507
▁chris	-10.5509
▁actress	-10.5514
▁nineteen	-10.5519
▁blind	-10.5527
▁tongue	-10.5533
▁introduce	-10.554
▁alex	-10.5545
▁committee	-10.5562
▁wise	-10.5563
▁ruth	-10.5575
▁flow	-10.5582
▁brand	-10.5583
▁strike	-10.5589
▁surface	-10.5602
▁multi	-10.563
ification	-10.5638
▁magnet	-10.5648
▁eastern	-10.5662
▁fence	-10.5664
▁tries	-10.5671
▁wedding	-10.5679
▁sixty	-10.5679
▁forgotten	-10.5681
▁towel	-10.5686
ó	-10.5708
▁roger	-10.5732
▁protest	-10.5741
▁maid	-10.5742
▁compete	-10.5757
sighs	-10.5774
▁defend	-10.578
▁sake	-10.579
▁shadow	-10.5796
▁bark	-10.5799
▁medal	-10.5807
▁desert	-10.583
▁spain	-10.5851
▁2006	-10.5854
▁chinese	-10.5854
▁purdie	-10.5856
▁rank	-10.586
▁mister	-10.5878
stitution	-10.5892
ggle	-10.5898
▁treasure	-10.5898
▁located	-10.5906
▁dump	-10.591
▁fashion	-10.5917
▁brazil	-10.5926
▁ticket	-10.5926
▁definitely	-10.5937
zar	-10.5939
▁egypt	-10.5956
▁formula	-10.5963
24	-10.5978
▁reaches	-10.6009
▁prefer	-10.601
▁museum	-10.6041
▁upset	-10.6043
▁empire	-10.6063
▁brook	-10.6066
when	-10.6066
▁evil	-10.607
▁contract	-10.6075
▁banana	-10.6089
▁clap	-10.6114
▁sword	-10.612
▁uhuh	-10.6121
▁favour	-10.6123
worth	-10.6135
65	-10.6139
▁stir	-10.6142
79	-10.6154
▁odd	-10.6157
▁opportunity	-10.6157
▁possibly	-10.6157
▁addition	-10.6178
▁alarm	-10.6179
▁novel	-10.6185
▁relationship	-10.6218
▁gordon	-10.622
▁proceed	-10.622
▁secretary	-10.6233
▁parliament	-10.6234
▁security	-10.6243
▁chest	-10.6264
▁airport	-10.6267
▁prevent	-10.6268
ttering	-10.6272
▁victim	-10.6292
morrow	-10.6306
▁release	-10.6308
ject	-10.6317
▁scientist	-10.6318
while	-10.6334
▁opposite	-10.6341
▁awake	-10.6342
$	-10.6348
▁opinion	-10.6353
▁extreme	-10.6356
▁shock	-10.6363
▁crawl	-10.6372
▁pirate	-10.6373
▁monday	-10.6388
▁pipe	-10.6393
▁percent	-10.6395
▁servant	-10.6397
64	-10.6403
77	-10.6407
▁var	-10.6412
▁desk	-10.6415
▁austria	-10.6417
▁julia	-10.6418
▁section	-10.642
▁defeat	-10.6422
▁constant	-10.6426
▁yup	-10.6447
▁suspect	-10.6455
▁scout	-10.6456
▁contact	-10.6485
▁ghost	-10.6493
▁hook	-10.6502
47	-10.6518
42	-10.6526
▁favor	-10.6534
▁loose	-10.6535
down	-10.654
▁sentence	-10.654
▁microphone	-10.6541
▁bessie	-10.6577
▁wrap	-10.6586
▁greek	-10.6594
▁champion	-10.6599
▁afterwards	-10.6601
▁guide	-10.6613
▁chase	-10.6614
psych	-10.6637
▁ourselves	-10.6639
▁easier	-10.6645
▁switch	-10.6648
▁grandpa	-10.6655
▁colon	-10.6664
▁recover	-10.6672
▁production	-10.6675
▁punish	-10.6684
▁yyy	-10.6727
▁staff	-10.6743
▁cities	-10.6751
▁foreign	-10.676
▁rescue	-10.6766
izing	-10.677
▁jeff	-10.677
▁trunk	-10.6772
▁apparently	-10.6787
▁performance	-10.6787
▁lamb	-10.6791
▁excellent	-10.6811
▁carrot	-10.6819
78	-10.682
▁frightened	-10.682
▁tank	-10.6828
▁element	-10.683
▁safety	-10.683
▁drum	-10.6835
▁association	-10.6839
▁disappoint	-10.6842
▁brilliant	-10.6842
▁credit	-10.6842
▁standard	-10.6847
▁narrow	-10.6848
▁sailor	-10.685
▁dutch	-10.6877
▁dozen	-10.6882
▁product	-10.6884
▁joseph	-10.6888
▁ladder	-10.6891
berry	-10.6892
year	-10.6894
▁~	-10.6901
▁knight	-10.6904
▁circum	-10.6906
▁korea	-10.6921
▁2000	-10.6935
▁memory	-10.6938
▁academy	-10.694
▁source	-10.6946
▁boots	-10.6948
▁fancy	-10.6948
▁shopping	-10.6953
▁edward	-10.696
silence	-10.6966
▁text	-10.6966
▁comfortable	-10.6981
▁fortune	-10.6989
▁knowledge	-10.699
▁clown	-10.6991
▁curious	-10.6995
▁task	-10.7015
48	-10.7038
▁biscuit	-10.7045
▁horsie	-10.7052
▁pressure	-10.7052
▁screen	-10.7055
▁airplane	-10.7058
`	-10.7064
¶	-10.7067
▁doggie	-10.7068
▁jones	-10.7069
▁buddy	-10.707
▁nursery	-10.7081
▁wipe	-10.7084
▁elder	-10.7091
▁response	-10.7095
filler	-10.7111
▁bathroom	-10.7119
▁succeed	-10.7124
▁carriage	-10.7133
▁transport	-10.7157
▁blame	-10.7163
▁biggest	-10.7177
▁habit	-10.7183
▁bubble	-10.7187
▁photograph	-10.7193
▁hammer	-10.7202
▁medical	-10.7215
▁palace	-10.7218
▁photo	-10.7226
▁pencil	-10.7241
town	-10.7251
▁media	-10.7269
▁culture	-10.7282
▁mirror	-10.7311
▁shook	-10.7331
▁smiling	-10.7333
▁article	-10.7333
▁chuck	-10.7334
stone	-10.7336
crib	-10.7339
▁network	-10.7362
ological	-10.7364
▁tractor	-10.7368
▁gentle	-10.7376
▁rosa	-10.7408
▁2005	-10.7414
▁birth	-10.7429
▁powerful	-10.7441
▁congress	-10.7462
▁pilot	-10.7486
▁launch	-10.7495
▁studied	-10.7508
▁progress	-10.7515
▁amazing	-10.7515
▁penny	-10.7521
▁2004	-10.7537
37	-10.7538
49	-10.7542
▁flew	-10.7554
▁method	-10.7564
▁consist	-10.7572
ulate	-10.7582
▁avoid	-10.759
bird	-10.7595
▁witness	-10.7597
▁respond	-10.761
▁2001	-10.763
footnote	-10.7635
▁dragon	-10.7643
▁improve	-10.7649
▁passenger	-10.7653
▁afford	-10.7666
▁leap	-10.7671
▁struggle	-10.7673
▁beast	-10.7679
▁splash	-10.7683
ization	-10.7705
*	-10.775
▁cancer	-10.7751
▁turtle	-10.7761
▁railway	-10.7766
rink	-10.7778
▁focus	-10.7786
▁florida	-10.7813
▁chicago	-10.7816
▁russia	-10.7818
▁environment	-10.7823
▁scratch	-10.784
▁library	-10.7887
▁weird	-10.7917
▁complain	-10.7918
▁nervous	-10.7935
▁revolution	-10.7935
▁organization	-10.7939
▁average	-10.7939
▁related	-10.7969
▁elected	-10.7973
59	-10.798
▁positive	-10.7983
▁grandmother	-10.7999
▁commission	-10.8007
▁baseball	-10.8007
▁utter	-10.8026
▁hurried	-10.8034
▁property	-10.8045
▁latter	-10.8049
▁emperor	-10.8055
▁leaf	-10.8056
▁available	-10.8058
▁wander	-10.8078
ä	-10.9006
―	-11.0197
}	-11.0244
ō	-11.0891
ñ	-11.0937
°	-11.1034
♪	-11.1824
{	-11.2227
ú	-11.2253
─	-11.372
æ	-11.3762
ç	-11.3916
‘	-11.4012
â	-11.4497
ô	-11.4609
\	-11.4831
✿	-11.5071
#	-11.5673
ã	-11.6204
ā	-11.6425
|	-11.7607
~	-11.8138
š	-11.8361
£	-11.8497
ć	-11.8527
à	-11.9229
“	-11.9871
→	-12.0333
ø	-12.0594
•	-12.0703
ū	-12.1064
ê	-12.1166
↗	-12.1333
ł	-12.1637
↫	-12.1937
@	-12.2203
ë	-12.2246
å	-12.2317
č	-12.3313
î	-12.426
♫	-12.4383
ß	-12.4706
ă	-12.5503
ş	-12.5763
§	-12.6155
ï	-12.6325
⁄	-12.639
œ	-12.652
ı	-12.7555
ì	-12.7976
	-12.8027
ī	-12.8104
×	-12.8258
ž	-12.8522
¡	-12.9711
¿	-13.0142
©	-13.0526
·	-13.0558
ý	-13.1027
ð	-13.1306
ș	-13.1484
ń	-13.1924
€	-13.2583
−	-13.2786
ò	-13.2786
^	-13.3375
ś	-13.4048
	-13.4236
¤	-13.477
′	-13.5125
∆	-13.5281
ř	-13.5821
þ	-13.5876
∙	-13.6159
⌈	-13.6252
đ	-13.6332
û	-13.6509
­	-13.7638
ğ	-13.7638
ː	-13.7638
ˈ	-13.7705
õ	-13.7772
ù	-13.8045
ě	-13.8045
⁎	-13.8397
ē	-13.9141
ə	-13.9141
	-13.9861
ț	-14.0113
ż	-14.0638
ő	-14.1191
İ	-14.1286
ę	-14.1877
¢	-14.1979
ą	-14.2187
±	-14.2506
ţ	-14.2835
ʻ	-14.3529
ʼ	-14.467
„	-14.467
‡	-14.4942
η	-14.5081
ṯ	-14.5081
ả	-14.5509
ṭ	-14.5509
ḥ	-14.5656
ệ	-14.5806
ー	-14.6751
ɪ	-14.6751
ɛ	-14.6918
÷	-14.7087
	-14.7435
ė	-14.7435
ź	-14.7614
ư	-14.7614
®	-14.7981
>	-14.817
ĕ	-14.8758
†	-14.9383
»	-14.9383
ʿ	-14.9601
ṉ	-15.005
ɑ	-15.005
ṣ	-15.005
«	-15.005
ň	-15.0521
ọ	-15.0765
¦	-15.1015
ÿ	-15.1015
ů	-15.1015
ǎ	-15.1804
	-15.1805
་	-15.2082
ŋ	-15.2662
¬	-15.2662
॥	-15.2965
▔	-15.3278
ɔ	-15.3278
←	-15.36
ʊ	-15.36
ạ	-15.3933
	-15.4278
ʾ	-15.4635
ế	-15.5006
ũ	-15.5006
¥	-15.539
∇	-15.579
ṇ	-15.579
・	-15.579
ứ	-15.6207
♭	-15.6642
ʃ	-15.7096
⟩	-15.7096
ŭ	-15.7096
ŵ	-15.7573
ộ	-15.7573
	-15.7573
ố	-15.8073
‐	-15.8073
ơ	-15.8073
ν	-15.8599
।	-15.8599
ṃ	-15.8599
ʒ	-15.8599
ˌ	-15.9155
∞	-15.9743
₹	-16.0368
ġ	-16.0368
█	-16.0368
○	-16.0368
ε	-16.1034
ề	-16.1034
ị	-16.1034
ŏ	-16.1034
٤	-16.1034
ƒ	-16.1749
‚	-16.1749
<	-16.1749
	-16.1749
ǫ	-16.2518
ο	-16.2518
؟	-16.2518
١	-16.2518
ḍ	-16.2518
∴	-16.2518
ĭ	-16.2518
ʔ	-16.2518
į	-16.3351
ľ	-16.3351
ť	-16.3351
ŷ	-16.3351
ǔ	-16.3351
ʌ	-16.3351
↑	-16.426
ɐ	-16.426
ɣ	-16.426
ɡ	-16.426
	-16.4261
	-16.4261
₤	-16.526
≤	-16.526
ɾ	-16.526
٥	-16.526
ɫ	-16.6371
ʁ	-16.6371
٢	-16.6371
٧	-16.6371
ĩ	-16.6371
٨	-16.6371
♯	-16.6371
ẓ	-16.6371
ď	-16.7621
ĝ	-16.7621
ļ	-16.7621
ḻ	-16.7621
ớ	-16.7621
√	-16.7621
≥	-16.7621
☆	-16.7621
⬄	-16.7621
	-16.7622
	-16.7622
	-16.7622
	-16.7622
ɦ	-16.905
ĥ	-16.905
٦	-16.905
	-16.905
ǁ	-16.905
ǐ	-16.905
ɒ	-16.905
ˆ	-16.905
१	-16.905
ẻ	-16.905
ụ	-16.905
ữ	-16.905
⁂	-16.905
ʋ	-16.905
ħ	-17.0717
ĉ	-17.0717
ŝ	-17.0717
ű	-17.0717
ǒ	-17.0717
ủ	-17.0717
ỹ	-17.0717
⁠	-17.0717
★	-17.0717
☺	-17.0717
✡	-17.0717
ǝ	-17.0717
ɕ	-17.0717
	-17.0717
	-17.0717
	-17.2717
ɲ	-17.2717
ṓ	-17.2717
ɯ	-17.2717
ɹ	-17.2717
٩	-17.2717
ậ	-17.2717
ắ	-17.2717
ẹ	-17.2717
∘	-17.2717
≈	-17.2717
⋅	-17.2717
ʏ	-17.2717
ḷ	-17.2717
	-17.2717
ẽ	-17.5217
ĵ	-17.5217
ḫ	-17.5217
ỳ	-17.5217
ǂ	-17.5217
ǚ	-17.5217
ɩ	-17.5217
ṅ	-17.5217
ầ	-17.5217
ổ	-17.5217
‖	-17.5217
※	-17.5217
₱	-17.5217
₵	-17.5217
≠	-17.5217
●	-17.5217
♥	-17.5217
、	-17.5217
ɨ	-17.5217
˧	-17.5217
ව	-17.5217
	-17.5217
	-17.5217
ȝ	-17.855
ɜ	-17.855
ʕ	-17.855
∈	-17.855
ƌ	-17.855
ɘ	-17.855
ʇ	-17.855
ˊ	-17.855
ˋ	-17.855
״	-17.855
ấ	-17.855
ằ	-17.855
ử	-17.855
‬	-17.855
‰	-17.855
∗	-17.855
∝	-17.855
「	-17.855
」	-17.855
ỉ	-17.855
∂	-17.855
≡	-17.855
ṛ	-17.855
⌊	-18.3528
	-18.355
ǧ	-18.355
ʎ	-18.355
ḿ	-18.355
ƿ	-18.355
ǣ	-18.355
ɂ	-18.355
ʂ	-18.355
ʈ	-18.355
ˇ	-18.355
а	-18.355
б	-18.355
३	-18.355
४	-18.355
५	-18.355
ය	-18.355
ා	-18.355
၁	-18.355
ṁ	-18.355
ṙ	-18.355
ẏ	-18.355
ể	-18.355
ự	-18.355
☃	-18.355
☻	-18.355
✅	-18.355
✙	-18.355
❌	-18.355
ꞯ	-18.355
с	-18.355
◉	-18.355
〜	-18.355
ꜧ	-18.355
ʹ	-18.355
ở	-18.355
⊙	-18.355
ɳ	-18.355
ʐ	-18.355
ේ	-18.355
	-18.355
ǩ	-19.3529
ŧ	-19.353
ǵ	-19.3531
‍	-19.3532
ـ	-19.3533
τ	-19.3534
ʘ	-19.3535
₩	-19.3536
υ	-19.3537
།	-19.3538
ј	-19.3539
ķ	-19.354
ņ	-19.3541
⟨	-19.3542
α	-19.3543
ễ	-19.3544
ờ	-19.3545
ẩ	-19.3546
‭	-19.3547
ồ	-19.3548
̶	-19.3549
ɝ	-19.355
០	-19.355
១	-19.355
២	-19.355
៣	-19.355
៤	-19.355
៥	-19.355
ˀ	-19.355
ḵ	-19.355
ɗ	-19.355
ḩ	-19.355
ĺ	-19.355
ŕ	-19.355
ų	-19.355
ƅ	-19.355
ǃ	-19.355
ǹ	-19.355
ȁ	-19.355
ȃ	-19.355
ɟ	-19.355
ɥ	-19.355
ɶ	-19.355
ɷ	-19.355
ɸ	-19.355
ʙ	-19.355
ʝ	-19.355
ʟ	-19.355
ʧ	-19.355
ʽ	-19.355
˥	-19.355
˦	-19.355
˩	-19.355
̈	-19.355
β	-19.355
й	-19.355
к	-19.355
м	-19.355
о	-19.355
у	-19.355
ш	-19.355
я	-19.355
־	-19.355
۞	-19.355
۰	-19.355
०	-19.355
६	-19.355
७	-19.355
८	-19.355
९	-19.355
ආ	-19.355
ජ	-19.355
බ	-19.355
ු	-19.355
ෝ	-19.355
၀	-19.355
၃	-19.355
၄	-19.355
၅	-19.355
၆	-19.355
၇	-19.355
၈	-19.355
၉	-19.355
᚛	-19.355
᚜	-19.355
៦	-19.355
៧	-19.355
៨	-19.355
៩	-19.355
ḋ	-19.355
ḏ	-19.355
ḗ	-19.355
ḡ	-19.355
ḱ	-19.355
ṗ	-19.355
ṫ	-19.355
ṳ	-19.355
ṹ	-19.355
ẵ	-19.355
ỏ	-19.355
ỗ	-19.355
ợ	-19.355
⁣	-19.355
₣	-19.355
₿	-19.355
↊	-19.355
↋	-19.355
∉	-19.355
∼	-19.355
≒	-19.355
▼	-19.355
☉	-19.355
☐	-19.355
☚	-19.355
☛	-19.355
☣	-19.355
☭	-19.355
☯	-19.355
♄	-19.355
♑	-19.355
♒	-19.355
♠	-19.355
♡	-19.355
♮	-19.355
✚	-19.355
❤	-19.355
⬱	-19.355
ⱡ	-19.355
。	-19.355
〉	-19.355
ṟ	-19.355
ģ	-19.355
ặ	-19.355
ɺ	-19.355
ʑ	-19.355
ɖ	-19.355
ɮ	-19.355
‿	-19.355
	-19.3551
́	-19.3551
