<unk>	0
<s>	0
</s>	0
<pad>	0
<0x00>	0
<0x01>	0
<0x02>	0
<0x03>	0
<0x04>	0
<0x05>	0
<0x06>	0
<0x07>	0
<0x08>	0
<0x09>	0
<0x0A>	0
<0x0B>	0
<0x0C>	0
<0x0D>	0
<0x0E>	0
<0x0F>	0
<0x10>	0
<0x11>	0
<0x12>	0
<0x13>	0
<0x14>	0
<0x15>	0
<0x16>	0
<0x17>	0
<0x18>	0
<0x19>	0
<0x1A>	0
<0x1B>	0
<0x1C>	0
<0x1D>	0
<0x1E>	0
<0x1F>	0
<0x20>	0
<0x21>	0
<0x22>	0
<0x23>	0
<0x24>	0
<0x25>	0
<0x26>	0
<0x27>	0
<0x28>	0
<0x29>	0
<0x2A>	0
<0x2B>	0
<0x2C>	0
<0x2D>	0
<0x2E>	0
<0x2F>	0
<0x30>	0
<0x31>	0
<0x32>	0
<0x33>	0
<0x34>	0
<0x35>	0
<0x36>	0
<0x37>	0
<0x38>	0
<0x39>	0
<0x3A>	0
<0x3B>	0
<0x3C>	0
<0x3D>	0
<0x3E>	0
<0x3F>	0
<0x40>	0
<0x41>	0
<0x42>	0
<0x43>	0
<0x44>	0
<0x45>	0
<0x46>	0
<0x47>	0
<0x48>	0
<0x49>	0
<0x4A>	0
<0x4B>	0
<0x4C>	0
<0x4D>	0
<0x4E>	0
<0x4F>	0
<0x50>	0
<0x51>	0
<0x52>	0
<0x53>	0
<0x54>	0
<0x55>	0
<0x56>	0
<0x57>	0
<0x58>	0
<0x59>	0
<0x5A>	0
<0x5B>	0
<0x5C>	0
<0x5D>	0
<0x5E>	0
<0x5F>	0
<0x60>	0
<0x61>	0
<0x62>	0
<0x63>	0
<0x64>	0
<0x65>	0
<0x66>	0
<0x67>	0
<0x68>	0
<0x69>	0
<0x6A>	0
<0x6B>	0
<0x6C>	0
<0x6D>	0
<0x6E>	0
<0x6F>	0
<0x70>	0
<0x71>	0
<0x72>	0
<0x73>	0
<0x74>	0
<0x75>	0
<0x76>	0
<0x77>	0
<0x78>	0
<0x79>	0
<0x7A>	0
<0x7B>	0
<0x7C>	0
<0x7D>	0
<0x7E>	0
<0x7F>	0
<0x80>	0
<0x81>	0
<0x82>	0
<0x83>	0
<0x84>	0
<0x85>	0
<0x86>	0
<0x87>	0
<0x88>	0
<0x89>	0
<0x8A>	0
<0x8B>	0
<0x8C>	0
<0x8D>	0
<0x8E>	0
<0x8F>	0
<0x90>	0
<0x91>	0
<0x92>	0
<0x93>	0
<0x94>	0
<0x95>	0
<0x96>	0
<0x97>	0
<0x98>	0
<0x99>	0
<0x9A>	0
<0x9B>	0
<0x9C>	0
<0x9D>	0
<0x9E>	0
<0x9F>	0
<0xA0>	0
<0xA1>	0
<0xA2>	0
<0xA3>	0
<0xA4>	0
<0xA5>	0
<0xA6>	0
<0xA7>	0
<0xA8>	0
<0xA9>	0
<0xAA>	0
<0xAB>	0
<0xAC>	0
<0xAD>	0
<0xAE>	0
<0xAF>	0
<0xB0>	0
<0xB1>	0
<0xB2>	0
<0xB3>	0
<0xB4>	0
<0xB5>	0
<0xB6>	0
<0xB7>	0
<0xB8>	0
<0xB9>	0
<0xBA>	0
<0xBB>	0
<0xBC>	0
<0xBD>	0
<0xBE>	0
<0xBF>	0
<0xC0>	0
<0xC1>	0
<0xC2>	0
<0xC3>	0
<0xC4>	0
<0xC5>	0
<0xC6>	0
<0xC7>	0
<0xC8>	0
<0xC9>	0
<0xCA>	0
<0xCB>	0
<0xCC>	0
<0xCD>	0
<0xCE>	0
<0xCF>	0
<0xD0>	0
<0xD1>	0
<0xD2>	0
<0xD3>	0
<0xD4>	0
<0xD5>	0
<0xD6>	0
<0xD7>	0
<0xD8>	0
<0xD9>	0
<0xDA>	0
<0xDB>	0
<0xDC>	0
<0xDD>	0
<0xDE>	0
<0xDF>	0
<0xE0>	0
<0xE1>	0
<0xE2>	0
<0xE3>	0
<0xE4>	0
<0xE5>	0
<0xE6>	0
<0xE7>	0
<0xE8>	0
<0xE9>	0
<0xEA>	0
<0xEB>	0
<0xEC>	0
<0xED>	0
<0xEE>	0
<0xEF>	0
<0xF0>	0
<0xF1>	0
<0xF2>	0
<0xF3>	0
<0xF4>	0
<0xF5>	0
<0xF6>	0
<0xF7>	0
<0xF8>	0
<0xF9>	0
<0xFA>	0
<0xFB>	0
<0xFC>	0
<0xFD>	0
<0xFE>	0
<0xFF>	0
.	-2.85964
:	-3.33918
▁*	-3.38888
,	-3.47309
s	-3.5213
▁the	-3.58436
'	-3.80622
▁a	-4.16347
mot	-4.19457
▁you	-4.24462
▁and	-4.25625
▁i	-4.27087
▁to	-4.29901
?	-4.31324
chi	-4.39178
▁it	-4.50925
▁of	-4.52948
▁in	-4.63665
t	-4.69839
▁that	-4.73224
▁he	-5.11404
▁is	-5.12844
▁was	-5.2138
▁=	-5.31376
▁on	-5.35118
▁[	-5.38495
▁what	-5.40393
▁for	-5.44489
▁we	-5.5097
▁"	-5.54233
]	-5.59726
▁this	-5.61042
!	-5.62145
▁with	-5.66617
▁do	-5.68399
▁no	-5.71156
▁they	-5.73218
▁be	-5.76723
▁there	-5.77565
▁have	-5.77731
▁-	-5.8137
▁me	-5.81798
m	-5.81829
ed	-5.81911
▁not	-5.83201
-	-5.84442
▁she	-5.8471
ing	-5.85655
d	-5.85792
▁at	-5.8805
▁one	-5.8832
▁are	-5.88673
▁can	-5.90525
re	-5.90536
▁but	-5.92645
▁his	-5.9565
▁so	-6.0054
▁as	-6.04766
▁all	-6.05523
▁her	-6.07964
▁oh	-6.08131
▁yeah	-6.08871
▁my	-6.10478
▁don	-6.1101
▁know	-6.11944
...	-6.14064
▁your	-6.14264
▁had	-6.1634
▁go	-6.17936
▁up	-6.1873
▁like	-6.18862
ll	-6.23082
i	-6.27567
inv	-6.28703
▁from	-6.3073
▁out	-6.32916
▁here	-6.35674
▁	-6.3777
▁him	-6.40289
▁get	-6.42762
▁by	-6.43547
▁if	-6.44119
▁just	-6.44711
▁were	-6.4553
▁now	-6.45602
▁right	-6.46885
▁see	-6.47962
ve	-6.48311
▁well	-6.48591
▁an	-6.48865
▁about	-6.53182
▁when	-6.53852
▁then	-6.54788
▁or	-6.55217
y	-6.55324
a	-6.5792
ly	-6.6093
▁them	-6.61047
▁think	-6.61073
▁got	-6.61589
▁did	-6.63761
▁who	-6.6439
▁said	-6.64884
▁some	-6.65817
er	-6.66775
fat	-6.67457
▁where	-6.69702
▁come	-6.71406
;	-6.72834
▁look	-6.73357
▁will	-6.73564
▁would	-6.73646
▁yes	-6.74483
▁good	-6.75403
e	-6.75502
▁want	-6.77942
▁(	-6.81395
▁how	-6.81577
▁xxx	-6.8272
▁okay	-6.83534
▁little	-6.85893
▁“	-6.86153
▁down	-6.86744
▁time	-6.87118
].	-6.87191
▁going	-6.89348
▁more	-6.90077
▁put	-6.90358
▁been	-6.90639
▁back	-6.91041
"	-6.91388
n	-6.91556
’	-6.92914
▁over	-6.93236
▁two	-6.93293
▁very	-6.93409
."	-6.93896
▁which	-6.94204
▁has	-6.95421
▁their	-6.97721
▁'	-7.0107
)	-7.0244
▁b	-7.03204
▁could	-7.03288
r	-7.03665
▁let	-7.03682
▁say	-7.09174
in	-7.13555
▁other	-7.1577
▁why	-7.17475
▁man	-7.18536
▁make	-7.19035
▁take	-7.19385
,"	-7.1986
▁into	-7.21015
▁way	-7.22453
▁people	-7.24215
o	-7.2506
es	-7.25802
▁too	-7.27337
▁off	-7.2925
▁because	-7.29677
▁tell	-7.30678
▁first	-7.30685
▁us	-7.31591
▁gonna	-7.33104
▁after	-7.34976
al	-7.36764
▁these	-7.37121
▁only	-7.37423
▁any	-7.3776
c	-7.3799
▁our	-7.40811
▁uh	-7.42206
▁didn	-7.44248
--	-7.46471
▁something	-7.47196
▁really	-7.47601
▁again	-7.47939
▁er	-7.48118
▁much	-7.49676
l	-7.52942
▁made	-7.53149
▁before	-7.56166
▁new	-7.571
▁than	-7.57637
par	-7.58393
▁big	-7.59723
▁day	-7.59935
▁should	-7.60136
▁away	-7.60464
▁s	-7.60982
▁car	-7.61627
p	-7.62006
▁three	-7.62945
▁home	-7.64302
▁does	-7.64627
▁went	-7.64847
▁never	-7.65115
▁need	-7.65161
▁those	-7.66189
▁um	-7.66453
▁house	-7.66717
▁long	-7.67015
▁mean	-7.67442
▁give	-7.6753
▁came	-7.69085
b	-7.69271
▁play	-7.6943
it	-7.70603
▁also	-7.71714
▁wanna	-7.7183
▁re	-7.71905
g	-7.72412
th	-7.72614
▁work	-7.72667
▁another	-7.73718
▁old	-7.74
▁thought	-7.74213
▁doing	-7.74538
▁many	-7.74561
k	-7.75159
the	-7.76435
▁mr	-7.76436
▁thing	-7.76456
▁de	-7.78186
▁still	-7.78859
▁must	-7.78861
?"	-7.80507
▁things	-7.80532
▁last	-7.8125
▁may	-7.81358
f	-7.81542
▁am	-7.81556
w	-7.81959
exp	-7.82369
h	-7.8241
▁won	-7.82942
▁great	-7.83406
▁through	-7.83546
▁head	-7.83712
▁even	-7.83836
le	-7.83944
▁find	-7.84261
▁boy	-7.84326
en	-7.86579
/	-7.86703
▁o	-7.86842
▁night	-7.87007
▁baby	-7.87773
_	-7.88401
▁isn	-7.88901
▁help	-7.89443
▁name	-7.89891
▁done	-7.90822
▁please	-7.91185
on	-7.91395
▁called	-7.91602
▁%	-7.91671
na	-7.92089
▁thank	-7.923
▁hand	-7.92404
▁mother	-7.93265
▁mm	-7.93554
or	-7.94776
▁water	-7.94812
▁love	-7.9626
▁bit	-7.9639
▁might	-7.96831
▁around	-7.97383
▁nice	-7.97603
▁mhm	-7.97613
▁e	-7.98086
▁book	-7.98293
▁girl	-7.98558
▁better	-7.98911
▁found	-7.98915
▁sure	-7.99186
.”	-7.99721
▁life	-8.00501
▁place	-8.01684
▁hey	-8.01724
▁most	-8.02786
▁eat	-8.02811
▁while	-8.02833
▁ah	-8.03814
▁anything	-8.04109
▁un	-8.04541
▁school	-8.05596
▁erm	-8.06096
man	-8.0617
ne	-8.06947
▁doesn	-8.08008
▁years	-8.08603
▁such	-8.08757
▁keep	-8.08986
▁p	-8.09549
▁being	-8.09603
▁used	-8.09758
▁next	-8.09765
▁father	-8.09857
▁shall	-8.10048
▁under	-8.11127
▁same	-8.11364
▁part	-8.11544
ers	-8.11606
▁lot	-8.11719
,”	-8.12139
▁room	-8.12403
▁else	-8.12498
▁d	-8.13343
ation	-8.13393
▁world	-8.14884
!"	-8.14888
▁four	-8.15136
▁end	-8.15196
laughs	-8.15435
add	-8.15627
no	-8.15663
▁mummy	-8.1601
▁own	-8.16154
an	-8.16425
de	-8.16607
▁talk	-8.16688
▁men	-8.17119
▁always	-8.17437
▁kind	-8.17471
▁left	-8.18049
▁saw	-8.18053
▁told	-8.18107
▁chi	-8.18195
▁looks	-8.18379
to	-8.18423
▁nothing	-8.18645
la	-8.19077
▁door	-8.19977
▁every	-8.20073
ch	-8.20601
and	-8.20702
li	-8.20899
▁ever	-8.2162
u	-8.22116
▁call	-8.22499
▁show	-8.24175
▁side	-8.24414
▁use	-8.24473
▁huh	-8.24515
▁sorry	-8.25049
▁five	-8.26055
▁daddy	-8.26288
▁c	-8.27068
ie	-8.27337
▁gone	-8.27359
▁open	-8.27732
ra	-8.28117
il	-8.28355
▁money	-8.28787
▁sit	-8.28824
▁coming	-8.28878
▁though	-8.29543
▁took	-8.29888
▁enough	-8.30074
▁face	-8.30153
▁red	-8.30195
us	-8.30216
▁maybe	-8.30357
▁wait	-8.30509
▁stop	-8.31396
as	-8.31403
lo	-8.3187
sis	-8.33137
▁morning	-8.33189
▁once	-8.33596
▁goes	-8.33676
▁remember	-8.33869
el	-8.33925
▁hi	-8.33946
▁turn	-8.34072
ion	-8.34292
ro	-8.34493
▁until	-8.34559
▁sir	-8.34785
▁leave	-8.35417
▁la	-8.35947
▁best	-8.36223
▁hear	-8.36234
▁second	-8.36398
ic	-8.36586
▁course	-8.36616
▁ma	-8.36626
▁try	-8.36656
we	-8.36806
you	-8.36901
ar	-8.37012
▁_	-8.371
▁g	-8.37135
▁dear	-8.37152
▁quite	-8.37416
▁god	-8.38111
▁year	-8.38203
▁eyes	-8.38429
tea	-8.38816
ter	-8.38838
▁feel	-8.38983
▁both	-8.39064
▁young	-8.39359
▁read	-8.39706
v	-8.39863
▁today	-8.40071
▁city	-8.4023
▁looking	-8.40507
▁hm	-8.40668
▁box	-8.40707
▁yet	-8.40833
z	-8.41542
▁seen	-8.41636
▁each	-8.41964
▁war	-8.42014
▁ball	-8.42282
▁asked	-8.4229
▁few	-8.42911
▁round	-8.42914
▁together	-8.43328
ry	-8.43561
▁different	-8.43812
▁miss	-8.43876
▁m	-8.43897
▁con	-8.44086
▁blue	-8.44321
▁t	-8.44791
▁mind	-8.45321
▁fire	-8.45362
▁hard	-8.45378
▁number	-8.454
se	-8.45614
do	-8.45726
▁says	-8.45825
ment	-8.46137
x	-8.46835
▁children	-8.47036
▁getting	-8.47149
ton	-8.47217
ma	-8.47227
▁without	-8.47538
▁♪	-8.47548
bro	-8.48176
he	-8.48366
▁everything	-8.48425
▁bed	-8.48707
is	-8.48718
▁far	-8.4879
▁black	-8.49133
mch	-8.49531
▁ready	-8.49765
ck	-8.50243
▁heard	-8.50289
▁later	-8.50437
▁soon	-8.50776
▁mommy	-8.50909
ia	-8.5095
▁known	-8.50953
▁between	-8.51098
em	-8.5152
▁bad	-8.51881
▁light	-8.51987
able	-8.52577
▁co	-8.52673
▁since	-8.52784
▁dis	-8.53093
▁half	-8.53674
est	-8.5392
▁upon	-8.54022
me	-8.54141
▁haven	-8.54165
ted	-8.54185
▁story	-8.54502
▁white	-8.54528
▁hold	-8.54532
▁set	-8.54655
▁high	-8.54903
▁live	-8.54992
▁having	-8.55136
ha	-8.55391
▁himself	-8.55399
▁mrs	-8.55552
▁small	-8.55595
▁hafta	-8.55616
▁stay	-8.56473
▁happened	-8.5663
id	-8.56926
ah	-8.5702
▁alright	-8.57209
▁watch	-8.57279
▁wanted	-8.57311
▁ha	-8.57458
▁top	-8.57662
ling	-8.57812
go	-8.57818
▁american	-8.57933
yes	-8.58041
▁run	-8.58103
▁table	-8.58352
be	-8.58397
ity	-8.58422
ian	-8.58663
co	-8.58664
▁pretty	-8.58981
ine	-8.59086
▁ask	-8.59258
▁dog	-8.59263
cause	-8.59405
▁18	-8.59462
gma	-8.59562
▁matter	-8.59683
▁looked	-8.60039
ness	-8.60528
ta	-8.60583
▁friend	-8.60986
▁sort	-8.61005
▁heart	-8.61176
▁knew	-8.6122
▁talking	-8.61306
▁green	-8.61461
▁hello	-8.61745
▁train	-8.63335
▁six	-8.63725
▁hands	-8.64081
▁believe	-8.6426
▁united	-8.65228
1:	-8.65308
ting	-8.65353
▁moment	-8.65454
▁making	-8.65469
▁1	-8.65637
▁child	-8.65682
▁idea	-8.661
▁bring	-8.66101
▁family	-8.66167
▁care	-8.66268
▁against	-8.66295
▁along	-8.66408
ies	-8.6654
▁close	-8.66634
▁town	-8.66887
▁actually	-8.66901
▁air	-8.66947
▁mot	-8.66979
▁ta	-8.67075
▁bear	-8.672
▁boys	-8.67216
▁king	-8.67459
ent	-8.67561
▁gave	-8.67608
▁party	-8.67869
▁cat	-8.68
▁3	-8.68211
".	-8.68503
▁fine	-8.68863
▁real	-8.69357
▁2	-8.69449
▁son	-8.69598
▁ten	-8.69673
▁wasn	-8.69675
▁paper	-8.69902
▁during	-8.70034
ri	-8.70119
ty	-8.70789
▁noise	-8.70979
▁move	-8.72024
▁sea	-8.72142
▁19	-8.72184
▁whole	-8.72281
▁n	-8.72488
am	-8.72505
▁born	-8.72557
te	-8.72809
▁game	-8.72841
ir	-8.72892
▁voice	-8.7295
▁days	-8.73116
▁died	-8.73172
▁team	-8.73199
▁f	-8.73239
▁start	-8.73323
ul	-8.7349
2	-8.73526
▁wouldn	-8.74013
mar	-8.74029
▁person	-8.7434
▁cup	-8.74628
▁k	-8.74747
?”	-8.74943
da	-8.75083
▁food	-8.75139
ke	-8.75249
▁state	-8.75475
▁almost	-8.75815
+	-8.75871
ant	-8.75913
▁started	-8.75976
▁states	-8.76091
▁happy	-8.76247
▁dad	-8.76361
ce	-8.76492
oh	-8.76591
but	-8.76666
▁trying	-8.76677
sh	-8.7697
▁understand	-8.77052
▁sleep	-8.77123
▁word	-8.77156
▁rest	-8.77462
po	-8.77533
▁hope	-8.77851
son	-8.77959
▁john	-8.78084
▁l	-8.78091
▁saying	-8.78206
ba	-8.78444
up	-8.78625
▁floor	-8.78776
1	-8.79235
▁stand	-8.79324
land	-8.79638
▁wrong	-8.79993
▁minute	-8.80016
ary	-8.80024
▁color	-8.80177
▁playing	-8.80255
▁per	-8.80276
▁mo	-8.80345
▁already	-8.80577
▁cut	-8.81124
▁probably	-8.81154
▁job	-8.81239
▁guess	-8.81252
gra	-8.8126
▁chair	-8.81391
▁al	-8.81393
▁hair	-8.81467
▁country	-8.81541
▁mine	-8.81854
),	-8.81867
j	-8.8194
▁feet	-8.81995
▁na	-8.8215
▁mom	-8.8243
▁u	-8.82622
—	-8.82728
mo	-8.82941
▁near	-8.83281
▁drink	-8.83296
▁mar	-8.83648
▁woman	-8.83664
ga	-8.84022
ist	-8.84083
▁jack	-8.84412
▁north	-8.84778
▁picture	-8.85115
▁point	-8.8513
▁lost	-8.8526
nan	-8.85487
ful	-8.85498
▁became	-8.85716
▁da	-8.85725
▁4	-8.85841
▁bo	-8.85891
▁thomas	-8.86272
vi	-8.86302
▁began	-8.86447
▁front	-8.86934
▁ya	-8.87049
what	-8.8757
▁line	-8.87618
▁doctor	-8.87666
▁gotta	-8.87725
▁aren	-8.87757
ate	-8.87824
▁sometimes	-8.88089
▁brother	-8.88402
▁friends	-8.88625
int	-8.89328
▁behind	-8.89505
▁hundred	-8.89511
▁page	-8.89528
▁music	-8.8959
ci	-8.90133
▁full	-8.90171
▁listen	-8.90191
▁sec	-8.90477
▁w	-8.90705
▁di	-8.90818
▁played	-8.91157
et	-8.91276
tic	-8.9129
▁week	-8.91296
▁en	-8.91487
▁lady	-8.91497
ca	-8.91549
▁–	-8.9179
per	-8.91795
▁r	-8.92073
▁outside	-8.92231
▁hot	-8.92247
▁pro	-8.9232
▁captain	-8.92503
ish	-8.92517
less	-8.9332
▁brought	-8.93352
▁movie	-8.93507
▁couldn	-8.93511
▁dead	-8.93557
▁sound	-8.93691
▁county	-8.93936
un	-8.94037
that	-8.94311
▁girls	-8.94494
",	-8.94566
▁stuff	-8.94925
▁hat	-8.95015
▁sister	-8.95098
▁horse	-8.95145
▁age	-8.95224
▁national	-8.95301
▁ra	-8.95459
▁road	-8.95478
▁poor	-8.95528
▁ho	-8.9554
well	-8.9555
▁pay	-8.95701
ki	-8.95792
▁sun	-8.95988
led	-8.9631
▁river	-8.96383
▁short	-8.96776
▁turned	-8.9692
▁vi	-8.96964
▁south	-8.97205
▁walk	-8.9737
▁tea	-8.97562
▁seemed	-8.9758
cha	-8.97684
▁hurt	-8.97757
▁le	-8.97953
age	-8.98095
▁guy	-8.98249
▁song	-8.98329
▁land	-8.98372
▁business	-8.98791
▁however	-8.98898
▁often	-8.99028
▁death	-8.99158
▁seven	-8.99266
▁piece	-8.99297
▁someone	-8.99374
▁fish	-8.99394
▁able	-9.00116
at	-9.00141
▁star	-9.00439
▁beautiful	-9.00561
▁taken	-9.00659
▁st	-9.00912
pe	-9.01273
dy	-9.01387
).	-9.01554
ver	-9.01589
▁tree	-9.02017
▁taking	-9.02028
▁case	-9.02413
▁early	-9.02455
▁twenty	-9.02732
▁myself	-9.02778
▁fell	-9.03066
▁ba	-9.03365
▁inside	-9.03587
ur	-9.03676
▁times	-9.04497
▁large	-9.04522
mi	-9.05002
▁cold	-9.05025
!”	-9.05089
▁yourself	-9.05298
va	-9.05452
▁fall	-9.05522
▁bar	-9.05544
dad	-9.05859
▁rather	-9.0589
pa	-9.06147
é	-9.06218
▁comes	-9.06296
▁order	-9.06373
▁means	-9.06413
▁yellow	-9.06551
▁till	-9.06638
”	-9.06654
▁fun	-9.0675
▁po	-9.06878
▁true	-9.07171
▁words	-9.0731
bi	-9.07333
▁boat	-9.07401
▁perhaps	-9.07435
▁lo	-9.07487
▁ro	-9.07514
▁change	-9.07693
▁hit	-9.07838
▁late	-9.07959
▁ago	-9.08019
▁eight	-9.0806
▁wife	-9.08203
▁makes	-9.08272
▁minutes	-9.08295
▁pick	-9.08454
▁dr	-9.08587
▁v	-9.08635
3	-9.08666
▁sent	-9.08751
▁fact	-9.08764
▁present	-9.08805
▁felt	-9.08971
pat	-9.09137
▁speak	-9.09147
▁brown	-9.09181
▁milk	-9.09288
▁alone	-9.09329
▁march	-9.09901
▁power	-9.10193
▁funny	-9.10219
▁wish	-9.10307
▁!	-9.10482
▁trouble	-9.1049
▁5	-9.10627
▁group	-9.10771
▁either	-9.10882
▁mark	-9.11182
▁pa	-9.11386
um	-9.11571
▁ca	-9.11605
▁chance	-9.11921
▁stick	-9.11954
ge	-9.1212
▁given	-9.12209
▁women	-9.123
▁company	-9.12401
▁break	-9.12401
▁mum	-9.12438
▁bag	-9.1261
5	-9.1268
▁ran	-9.12947
▁france	-9.13089
▁pre	-9.13165
by	-9.13608
▁ne	-9.13616
▁english	-9.13682
▁meet	-9.13791
||	-9.13891
my	-9.14042
▁street	-9.14101
ley	-9.14162
if	-9.14217
ated	-9.14369
▁buy	-9.14409
▁become	-9.14536
▁somebody	-9.14674
▁past	-9.14694
▁bob	-9.14907
▁rock	-9.14931
▁wind	-9.14953
▁toys	-9.15026
▁ground	-9.1507
2:	-9.15084
▁body	-9.15105
ka	-9.15683
▁fit	-9.15726
▁important	-9.1574
▁reason	-9.15905
ff	-9.1599
huh	-9.16025
hi	-9.16047
▁park	-9.16244
▁question	-9.16302
▁clear	-9.1639
▁deal	-9.16461
car	-9.16638
▁several	-9.16756
time	-9.16969
born	-9.17102
▁write	-9.17288
men	-9.17392
▁10	-9.17399
way	-9.17458
▁phone	-9.17516
▁across	-9.17601
▁working	-9.17811
▁h	-9.17917
▁j	-9.18058
▁glad	-9.18286
▁lay	-9.18302
ance	-9.18548
▁least	-9.18851
▁ka	-9.18958
▁dinner	-9.19654
▁free	-9.19745
ous	-9.199
ni	-9.19954
▁area	-9.20067
▁dark	-9.20345
rs	-9.20722
ng	-9.20814
0	-9.20996
▁answer	-9.21015
▁fight	-9.21177
▁pull	-9.2164
▁uhhuh	-9.21834
▁arm	-9.21966
▁strong	-9.22055
▁foot	-9.22155
▁mi	-9.2223
▁football	-9.22327
les	-9.2237
▁sa	-9.22694
▁thanks	-9.22747
▁y	-9.22783
4	-9.23134
▁sha	-9.23143
▁camp	-9.23221
▁guys	-9.23284
▁6	-9.23315
▁finished	-9.23897
▁fast	-9.23928
▁bus	-9.23941
▁throw	-9.23982
ow	-9.24144
▁darling	-9.24162
▁animals	-9.24204
▁general	-9.24255
▁sing	-9.2442
▁everybody	-9.24636
ard	-9.24697
▁living	-9.24764
▁catch	-9.24882
ad	-9.2514
▁tomorrow	-9.2516
▁french	-9.25172
▁government	-9.25329
bu	-9.25337
gu	-9.25405
▁cos	-9.25548
▁special	-9.25927
▁hour	-9.25935
min	-9.26023
▁tried	-9.26823
▁li	-9.26983
ho	-9.274
▁ship	-9.27816
di	-9.27976
▁el	-9.27978
▁mouth	-9.2807
▁gu	-9.28083
▁wants	-9.28089
▁west	-9.2819
▁president	-9.28317
loi	-9.28358
▁wow	-9.28362
▁frog	-9.28465
▁herself	-9.28581
▁club	-9.28686
▁daughter	-9.29275
▁york	-9.29497
▁thinking	-9.29537
ak	-9.29573
▁band	-9.29855
all	-9.29865
▁cried	-9.30128
▁uncle	-9.30211
▁#	-9.30283
▁building	-9.30638
▁wonder	-9.30651
ru	-9.30763
▁anyway	-9.30784
▁usually	-9.30892
▁nine	-9.30976
▁police	-9.30995
▁form	-9.31133
▁7	-9.31183
▁history	-9.31228
wa	-9.3133
▁bye	-9.31392
▁lu	-9.31722
▁main	-9.31738
▁clean	-9.31758
▁human	-9.31787
▁letter	-9.31885
00	-9.31893
▁afraid	-9.31919
▁running	-9.31948
▁window	-9.32053
mp	-9.32201
▁se	-9.3222
▁ex	-9.323
der	-9.32328
▁system	-9.32348
▁eye	-9.32429
one	-9.32503
▁...	-9.32737
▁ar	-9.3274
▁win	-9.32799
▁summer	-9.3289
ism	-9.32904
▁sitting	-9.32944
▁sat	-9.32985
▁held	-9.33033
▁seat	-9.33442
ial	-9.33487
▁em	-9.33503
ya	-9.3361
▁less	-9.3372
ence	-9.33794
red	-9.33867
adu	-9.33977
▁truck	-9.34017
ee	-9.3402
▁forget	-9.34076
▁su	-9.34211
▁ju	-9.34299
▁wa	-9.34346
▁station	-9.34372
▁th	-9.34548
▁thousand	-9.34574
▁bird	-9.34728
▁series	-9.34829
▁count	-9.34915
ner	-9.34927
▁suppose	-9.34951
▁kept	-9.35048
▁draw	-9.35113
▁dream	-9.35126
▁sweet	-9.35141
▁others	-9.35246
ten	-9.35272
▁joe	-9.35284
▁ice	-9.35365
▁office	-9.35516
qui	-9.35541
6	-9.35621
▁wall	-9.3577
ja	-9.35868
▁birthday	-9.35874
▁lived	-9.3589
bo	-9.3608
lu	-9.36081
▁touch	-9.36098
▁ben	-9.36169
▁snow	-9.36428
▁duck	-9.36546
io	-9.36567
▁20	-9.36648
ship	-9.36764
que	-9.36826
▁happen	-9.36882
▁married	-9.36957
▁easy	-9.37081
▁frank	-9.37118
▁master	-9.37126
ex	-9.37518
▁single	-9.37572
▁department	-9.37593
▁problem	-9.37627
▁class	-9.37731
▁among	-9.37741
for	-9.37834
of	-9.37874
▁8	-9.38035
ding	-9.38112
ger	-9.38181
7	-9.382
cds	-9.38214
ph	-9.38301
ol	-9.38304
let	-9.38383
ster	-9.38411
line	-9.38504
▁shot	-9.38543
▁stood	-9.38601
▁books	-9.38616
▁board	-9.38763
au	-9.38903
im	-9.39245
den	-9.39346
▁church	-9.39572
▁peter	-9.39605
▁pass	-9.39618
▁ooh	-9.39689
lin	-9.39803
▁ri	-9.39834
▁university	-9.3986
▁june	-9.39975
▁tonight	-9.40057
▁cross	-9.40121
▁law	-9.40185
▁seems	-9.40298
os	-9.40371
▁whatever	-9.40377
▁ok	-9.40449
ring	-9.40455
ey	-9.40574
▁dress	-9.40671
▁send	-9.40877
▁january	-9.41136
▁lie	-9.41182
lan	-9.41224
▁earth	-9.41232
▁pe	-9.41349
▁17	-9.41468
▁tu	-9.41507
don	-9.41538
▁cover	-9.41623
▁field	-9.41653
▁pen	-9.41672
▁return	-9.417
▁orange	-9.41741
▁region	-9.41765
▁whether	-9.41782
▁member	-9.41784
▁bill	-9.41804
▁post	-9.41857
▁garden	-9.42168
▁tired	-9.42173
▁nor	-9.42216
▁hours	-9.42512
▁straight	-9.42544
tion	-9.42591
ac	-9.42662
▁lovely	-9.43097
▁village	-9.43208
▁lord	-9.43429
▁drive	-9.43448
▁check	-9.43522
▁cause	-9.43633
▁clothes	-9.43728
▁sounds	-9.4381
▁sign	-9.44008
▁ring	-9.44033
ward	-9.44195
▁x	-9.44267
▁15	-9.44269
▁killed	-9.44275
▁toy	-9.44317
▁wear	-9.4437
▁art	-9.44562
▁couple	-9.44668
▁sta	-9.44755
▁nose	-9.44808
val	-9.44876
▁cake	-9.44887
8	-9.4495
▁waiting	-9.44977
▁list	-9.44982
▁kids	-9.45074
▁figure	-9.45164
▁eh	-9.45166
▁million	-9.45342
▁low	-9.45706
ran	-9.4572
so	-9.45767
▁excuse	-9.4577
▁named	-9.4582
▁season	-9.45869
▁rose	-9.46044
▁replied	-9.46057
▁themselves	-9.46221
▁careful	-9.46243
she	-9.46302
▁quick	-9.46452
▁[1	-9.46811
▁within	-9.46812
▁die	-9.46884
▁cool	-9.46886
▁released	-9.47034
www	-9.47102
▁album	-9.47113
▁gun	-9.47549
▁follow	-9.47728
▁fear	-9.47925
▁forward	-9.47972
che	-9.47979
▁career	-9.47984
makes	-9.48025
con	-9.48119
▁eating	-9.48236
▁district	-9.48247
▁12	-9.48303
▁lots	-9.48305
▁island	-9.48333
▁east	-9.48433
▁cow	-9.48521
▁answered	-9.48549
ler	-9.48588
▁ru	-9.48615
▁shoes	-9.48635
▁spot	-9.48659
mon	-9.48688
ron	-9.48971
▁instead	-9.48973
▁shop	-9.49028
▁warm	-9.49105
▁ste	-9.49109
▁jo	-9.49154
▁evening	-9.49161
▁months	-9.49225
▁husband	-9.4923
fch	-9.49253
▁possible	-9.4944
▁ti	-9.49469
▁gold	-9.49638
▁kid	-9.49639
▁wood	-9.49866
▁points	-9.49929
▁2020	-9.49952
▁british	-9.4998
▁christmas	-9.5005
how	-9.50126
▁va	-9.50187
▁middle	-9.50255
unk	-9.50504
▁juice	-9.5055
ating	-9.50646
▁film	-9.50654
za	-9.50759
king	-9.50855
▁august	-9.51017
ally	-9.51084
▁third	-9.5116
▁exactly	-9.51171
day	-9.51311
▁aunt	-9.51341
▁plan	-9.51367
▁fair	-9.51576
▁court	-9.51598
▁passed	-9.51838
▁space	-9.5191
▁cannot	-9.51979
▁apple	-9.52023
ud	-9.52039
▁putting	-9.5216
▁pop	-9.52201
▁act	-9.52232
▁moved	-9.52264
▁ver	-9.5228
▁quickly	-9.52343
▁above	-9.52347
▁worked	-9.52415
▁report	-9.52436
nce	-9.52557
▁tape	-9.52581
▁broken	-9.52641
▁lives	-9.52664
▁pi	-9.52846
▁although	-9.52912
▁ain	-9.52933
▁seem	-9.53143
▁hall	-9.53168
▁certain	-9.53179
▁fi	-9.53275
kin	-9.53498
▁toward	-9.53542
ig	-9.53563
▁mary	-9.5365
▁quiet	-9.53684
▁german	-9.53717
▁honey	-9.53917
ries	-9.53986
▁ride	-9.54016
▁worry	-9.54021
▁hole	-9.54039
▁gi	-9.54044
▁save	-9.54099
mb	-9.54101
▁pat	-9.54105
▁finish	-9.54191
▁ga	-9.54385
vo	-9.54502
▁indeed	-9.54894
▁longer	-9.5495
▁fa	-9.55044
▁16	-9.55123
▁everyone	-9.5518
▁television	-9.55219
▁whose	-9.55264
▁bank	-9.55268
▁april	-9.55291
▁strange	-9.55337
▁feeling	-9.55447
▁england	-9.55494
our	-9.55532
▁public	-9.55579
ving	-9.55809
▁race	-9.55861
tor	-9.55996
▁tom	-9.56055
▁service	-9.56076
▁9	-9.56252
ber	-9.56441
ut	-9.56511
▁anyone	-9.56524
childes	-9.56533
▁du	-9.56535
▁deep	-9.56587
▁object	-9.56646
▁nearly	-9.56775
▁childes	-9.56986
▁grand	-9.57007
▁october	-9.57018
▁shape	-9.57045
▁mad	-9.57162
▁takes	-9.57283
▁ni	-9.57306
▁arms	-9.57709
▁jump	-9.57788
▁position	-9.57951
▁inter	-9.58101
▁example	-9.58266
▁towards	-9.58353
▁mama	-9.58404
▁attack	-9.58409
▁caught	-9.58484
▁store	-9.58633
▁visit	-9.58648
ung	-9.58684
▁plate	-9.58744
bb	-9.58847
▁chief	-9.5888
▁learn	-9.58891
nt	-9.59087
▁nobody	-9.59157
▁sight	-9.59202
▁safe	-9.59244
ping	-9.59351
▁broke	-9.59462
▁november	-9.59471
▁wild	-9.59521
▁sam	-9.59582
▁roll	-9.59601
▁standing	-9.59667
op	-9.59685
▁bright	-9.59775
▁dance	-9.5978
▁wi	-9.5985
▁rain	-9.59983
fe	-9.59993
▁reached	-9.60006
▁sub	-9.60047
▁pardon	-9.60084
▁doll	-9.60099
▁farm	-9.60201
▁charge	-9.60259
▁cook	-9.60359
▁july	-9.60421
▁player	-9.60433
▁ahead	-9.60554
▁chapter	-9.60588
▁former	-9.60765
▁september	-9.60801
▁]	-9.60811
3:	-9.60839
▁tri	-9.60871
nie	-9.6091
▁david	-9.61049
▁hu	-9.61106
▁noises	-9.61354
▁fellow	-9.61485
▁track	-9.615
▁push	-9.61521
▁paul	-9.61741
▁hungry	-9.61759
▁miles	-9.61886
▁certainly	-9.61915
▁teacher	-9.62086
▁army	-9.62358
▁yesterday	-9.62425
oo	-9.62485
▁view	-9.62539
gi	-9.62546
▁blood	-9.62568
ile	-9.62623
▁mu	-9.62748
▁december	-9.62857
▁doubt	-9.62918
▁met	-9.62953
▁breakfast	-9.63362
▁pan	-9.63472
▁gra	-9.63491
▁hospital	-9.63498
▁george	-9.63525
▁test	-9.63809
read	-9.64069
▁returned	-9.64097
▁kitchen	-9.64213
▁telling	-9.64317
▁changed	-9.64336
▁february	-9.64419
lic	-9.64457
▁chicken	-9.64592
▁yep	-9.64621
jo	-9.64661
▁bottle	-9.64757
▁ja	-9.64771
▁afternoon	-9.64804
▁super	-9.64846
▁van	-9.64931
▁join	-9.64972
▁news	-9.64985
▁queen	-9.6506
▁carry	-9.65198
now	-9.65219
▁stopped	-9.65267
▁helen	-9.65268
▁london	-9.65457
▁following	-9.6548
▁wee	-9.65749
▁cap	-9.65769
▁bread	-9.65806
▁major	-9.65943
there	-9.65978
▁heavy	-9.66198
▁imp	-9.66606
▁built	-9.66611
▁secret	-9.66685
▁engine	-9.66688
▁supposed	-9.66874
ble	-9.66993
▁sh	-9.67291
▁trees	-9.67345
▁suddenly	-9.67364
▁trust	-9.67432
ice	-9.67503
")	-9.67519
▁decided	-9.67598
▁dat	-9.67615
▁anybody	-9.67626
nd	-9.67643
ham	-9.67647
▁control	-9.6766
▁language	-9.67721
▁comp	-9.67874
▁bath	-9.67887
9	-9.68032
▁common	-9.68095
her	-9.68106
ric	-9.68199
▁written	-9.68267
▁san	-9.68275
▁step	-9.68306
▁sad	-9.68632
▁(19	-9.6895
▁indian	-9.68995
▁lake	-9.69049
att	-9.69111
▁opened	-9.69203
▁beat	-9.69224
come	-9.69268
not	-9.69269
000	-9.69395
▁sick	-9.69519
▁truth	-9.69555
▁mess	-9.69607
%	-9.69656
▁fix	-9.69735
▁hang	-9.70005
▁followed	-9.70156
friend	-9.70175
om	-9.70287
▁port	-9.70295
▁boo	-9.70703
ko	-9.70715
▁games	-9.7088
▁using	-9.70935
▁gar	-9.70971
▁cor	-9.71001
mer	-9.71024
▁fraser	-9.71069
▁bridge	-9.71238
▁thirty	-9.71278
ps	-9.71397
▁tv	-9.71543
▁sense	-9.71691
▁bra	-9.71739
▁cry	-9.71783
▁11	-9.71788
▁lead	-9.718
▁worth	-9.71899
ned	-9.71933
end	-9.71953
▁hurry	-9.72156
▁somewhere	-9.72208
▁den	-9.72324
▁sand	-9.72464
▁hasn	-9.7259
▁bunny	-9.72607
▁coffee	-9.72614
ite	-9.72672
why	-9.72704
▁travel	-9.72738
gan	-9.72787
▁giving	-9.72799
▁bought	-9.7283
ab	-9.72917
▁lunch	-9.73149
lt	-9.73155
▁ko	-9.73222
▁kiss	-9.73327
▁holding	-9.73381
ily	-9.73405
▁stuck	-9.73516
▁leaving	-9.73524
ator	-9.73674
tri	-9.7373
od	-9.7391
▁si	-9.73911
▁corner	-9.74144
▁added	-9.74145
▁bottom	-9.74313
▁leader	-9.74432
out	-9.74505
▁support	-9.74531
▁cheese	-9.74661
▁har	-9.74681
gar	-9.74708
▁ye	-9.74752
▁level	-9.74866
▁bur	-9.74947
▁battle	-9.74973
▁share	-9.75238
▁carl	-9.75318
ugh	-9.75345
tra	-9.75386
▁stone	-9.75473
▁watching	-9.75503
▁weeks	-9.75508
▁pretend	-9.75518
can	-9.75519
▁meeting	-9.75522
▁pictures	-9.75533
▁smile	-9.75561
▁moon	-9.75668
▁interest	-9.75682
▁whom	-9.7579
▁tail	-9.75831
nu	-9.75912
▁14	-9.75925
singing	-9.75938
▁sal	-9.75999
▁elephant	-9.76003
▁college	-9.76107
▁busy	-9.76142
▁bro	-9.76175
▁fly	-9.7618
▁places	-9.7629
▁pink	-9.7629
ical	-9.76341
they	-9.76422
▁wrote	-9.76459
▁fifty	-9.76486
á	-9.76544
▁cur	-9.76824
▁led	-9.76924
▁cha	-9.76928
▁hill	-9.77052
▁wide	-9.77053
▁13	-9.77131
▁bow	-9.77368
▁bell	-9.77393
▁machine	-9.77394
▁result	-9.77431
▁lose	-9.77456
ap	-9.77548
▁laugh	-9.77587
▁pet	-9.77591
ina	-9.77652
ip	-9.77816
▁silver	-9.77882
▁amy	-9.77929
▁dar	-9.77955
▁sky	-9.78053
▁league	-9.78279
▁happens	-9.7829
▁soft	-9.78298
▁force	-9.78323
▁grow	-9.78329
▁population	-9.78361
▁moving	-9.78406
▁minister	-9.78549
box	-9.78633
▁rabbit	-9.78666
▁welcome	-9.78666
▁pieces	-9.78742
▁commune	-9.79041
▁ought	-9.79044
tle	-9.79372
▁gets	-9.79395
ze	-9.79438
▁animal	-9.79527
ning	-9.79549
▁spring	-9.79718
▁america	-9.79754
ded	-9.79971
▁difficult	-9.79978
tur	-9.80006
▁roman	-9.80012
▁flowers	-9.80028
▁turns	-9.8007
▁build	-9.80081
▁council	-9.80089
▁rich	-9.80094
▁international	-9.80133
room	-9.80173
▁finally	-9.8021
▁lad	-9.8025
▁further	-9.80259
▁anymore	-9.80424
fa	-9.80539
▁wonderful	-9.80539
▁spoke	-9.80565
▁month	-9.80637
▁local	-9.809
▁tall	-9.80987
▁je	-9.80989
ok	-9.80993
ide	-9.8113
wi	-9.81217
▁kill	-9.81263
▁‘	-9.81325
sha	-9.8135
20	-9.81448
▁works	-9.81464
▁legs	-9.81492
use	-9.81571
▁base	-9.81584
▁except	-9.81695
▁needs	-9.81736
▁grandma	-9.81856
▁laughs	-9.81875
▁reach	-9.81999
mu	-9.82038
▁parents	-9.82142
ther	-9.82163
í	-9.8227
▁beginning	-9.82274
▁yo	-9.82442
▁cost	-9.82443
▁circle	-9.82561
mother	-9.82607
▁received	-9.82683
▁exclaimed	-9.82701
ier	-9.8279
wn	-9.82813
▁officer	-9.82896
▁dry	-9.8291
▁including	-9.82959
▁michael	-9.82991
▁bi	-9.83011
▁robert	-9.83071
gasps	-9.83118
ot	-9.83139
▁winter	-9.83215
ium	-9.83293
▁rising	-9.83416
▁none	-9.83521
br	-9.83725
▁trip	-9.83979
ld	-9.83995
noise	-9.84018
illustration	-9.84068
▁james	-9.84177
▁action	-9.84238
▁nin	-9.84433
▁square	-9.84486
▁dan	-9.8456
ub	-9.84577
▁30	-9.84632
▁hide	-9.84699
▁attention	-9.84937
▁type	-9.8494
▁carried	-9.85009
pped	-9.8502
ized	-9.85056
nder	-9.85063
ches	-9.85175
▁ob	-9.85245
laugh	-9.85274
▁walking	-9.85399
▁video	-9.85436
child	-9.85513
▁weren	-9.85709
▁distance	-9.85723
▁fat	-9.85848
▁blow	-9.8605
▁william	-9.86055
▁record	-9.8623
side	-9.8628
▁members	-9.86286
▁shut	-9.86414
–	-9.86462
fi	-9.86514
▁meant	-9.86527
cat	-9.86586
▁direction	-9.86858
▁lion	-9.86989
rn	-9.87088
▁century	-9.87134
▁role	-9.87156
board	-9.87227
▁drop	-9.87399
amp	-9.87412
▁choo	-9.87527
ious	-9.87607
▁appeared	-9.87695
uk	-9.87705
▁knock	-9.8774
▁ow	-9.87821
rk	-9.87953
iv	-9.88038
▁card	-9.88046
▁wash	-9.88106
▁grass	-9.88144
▁sharp	-9.88206
▁silence	-9.88331
▁te	-9.88355
▁leg	-9.88364
▁jim	-9.88418
▁key	-9.88441
▁writing	-9.88441
aw	-9.88443
▁popular	-9.88516
▁crying	-9.88567
ign	-9.88646
▁capital	-9.8872
▁pocket	-9.88764
tro	-9.88906
▁harry	-9.88937
ang	-9.89058
ise	-9.8908
▁bu	-9.89181
points	-9.89525
like	-9.8964
▁match	-9.89652
▁camera	-9.89846
▁promise	-9.89847
▁dropped	-9.89929
▁shouldn	-9.90039
▁spirit	-9.90088
▁billy	-9.90093
▁egg	-9.90109
▁gate	-9.90198
▁account	-9.90253
▁fl	-9.90343
▁trans	-9.90496
▁information	-9.90509
▁allowed	-9.90625
▁spoon	-9.90677
▁cell	-9.91077
▁due	-9.91176
▁spend	-9.91209
▁favorite	-9.91267
cy	-9.91292
du	-9.91319
▁expect	-9.91324
▁walked	-9.91352
ju	-9.91385
▁coat	-9.91425
▁experience	-9.91445
▁pounds	-9.91465
▁taste	-9.91545
▁laughing	-9.91633
▁wake	-9.9165
field	-9.91659
urs	-9.91664
▁puzzle	-9.91689
▁teeth	-9.91706
▁province	-9.91749
▁bang	-9.9193
lf	-9.92067
rr	-9.92096
gen	-9.92184
sings	-9.92221
▁character	-9.92291
▁continued	-9.92396
ging	-9.9242
▁search	-9.92425
▁based	-9.92468
▁especially	-9.92521
shi	-9.9255
▁stage	-9.92737
▁seeing	-9.92741
▁cream	-9.92883
▁surprise	-9.92951
▁fresh	-9.92952
▁interesting	-9.92989
this	-9.93059
then	-9.93172
▁protect	-9.93198
clock	-9.93211
▁sp	-9.9324
▁monkey	-9.93241
▁quarter	-9.93253
▁term	-9.93311
=	-9.93456
har	-9.93505
▁horses	-9.93669
house	-9.93771
▁command	-9.93791
▁belong	-9.9407
▁guard	-9.94125
▁2018	-9.94236
▁press	-9.94243
▁min	-9.94318
ny	-9.94342
▁famous	-9.94357
ney	-9.94553
▁teddy	-9.94582
▁block	-9.94711
▁reading	-9.94876
▁row	-9.94956
▁letters	-9.9513
▁speed	-9.95142
▁cho	-9.95402
sta	-9.95687
▁allow	-9.957
▁bobby	-9.95871
tive	-9.95916
▁cheer	-9.95926
▁scene	-9.9598
act	-9.95992
▁honor	-9.96036
▁according	-9.96291
▁itself	-9.96297
▁created	-9.96324
▁period	-9.96346
▁ki	-9.96392
▁mountain	-9.9646
▁final	-9.96566
▁button	-9.9659
gg	-9.96663
▁japan	-9.96682
oth	-9.96784
▁finger	-9.96846
▁future	-9.96859
▁kitty	-9.97023
▁forest	-9.97156
▁conversation	-9.97162
pro	-9.97221
▁ear	-9.97233
ji	-9.97377
▁mc	-9.97479
▁center	-9.9756
ped	-9.97566
▁cl	-9.97751
▁plant	-9.97866
looks	-9.97874
▁prince	-9.97947
▁chocolate	-9.97968
▁brush	-9.98099
▁remain	-9.98106
▁forgot	-9.98219
▁cra	-9.98281
▁laughed	-9.98283
uff	-9.9829
▁perfect	-9.98534
▁clever	-9.98626
▁pain	-9.98649
▁smell	-9.98653
right	-9.98686
pi	-9.98721
▁lower	-9.9873
dic	-9.98734
▁germany	-9.98774
▁eggs	-9.98778
▁uhoh	-9.98807
▁tower	-9.98839
▁z	-9.98902
▁ears	-9.9891
▁paint	-9.98982
▁union	-9.99062
ade	-9.99182
▁twelve	-9.99257
▁serious	-9.99273
▁tiger	-9.99287
▁crayon	-9.99301
▁interested	-9.99335
hu	-9.99422
▁glass	-9.99439
▁explain	-9.99455
▁luck	-9.99536
▁tra	-9.99604
▁grew	-9.99617
ations	-9.99683
▁social	-9.99687
▁paid	-9.99698
light	-9.99762
nk	-9.99816
▁flat	-9.99853
▁bri	-10.0008
▁alive	-10.0015
fl	-10.0021
▁slowly	-10.0028
▁stars	-10.0029
▁singing	-10.0035
tan	-10.0037
ville	-10.0037
▁wheel	-10.004
▁radio	-10.0041
▁fe	-10.0047
some	-10.005
▁fri	-10.0051
ative	-10.0052
cing	-10.0054
▁storm	-10.0065
▁shake	-10.0071
▁director	-10.0078
▁suit	-10.0085
▁breath	-10.0093
▁cal	-10.0093
▁jane	-10.0095
vin	-10.0105
com	-10.0106
els	-10.0109
▁health	-10.0113
dge	-10.0123
▁mor	-10.0125
▁plane	-10.0128
▁mis	-10.0129
ag	-10.0129
▁mouse	-10.0132
▁magic	-10.0135
▁offer	-10.0137
▁sheep	-10.014
▁betty	-10.0143
▁birds	-10.0154
▁picks	-10.0185
▁below	-10.0194
▁price	-10.0203
▁program	-10.0204
tu	-10.0207
ach	-10.0213
▁lying	-10.0215
▁ge	-10.0224
nic	-10.0225
▁ed	-10.0228
ep	-10.023
▁self	-10.0233
▁snake	-10.0237
▁respect	-10.0253
ified	-10.0255
pping	-10.0259
han	-10.0279
▁appear	-10.0304
▁cast	-10.031
ku	-10.0314
▁adult	-10.0338
▁25	-10.0339
▁kick	-10.0339
▁size	-10.0348
▁coast	-10.0359
▁add	-10.0362
▁whoa	-10.0364
▁terrible	-10.0367
▁situation	-10.0367
work	-10.037
▁date	-10.038
port	-10.0384
10	-10.0385
▁scared	-10.0385
▁accident	-10.0386
▁loved	-10.0388
ford	-10.0391
▁attempt	-10.0393
▁tro	-10.0396
▁neck	-10.0398
▁pla	-10.0403
▁closed	-10.0427
▁skin	-10.0436
▁christian	-10.0439
▁computer	-10.0443
▁pot	-10.0449
gue	-10.0459
▁inv	-10.0462
▁sell	-10.0466
▁showed	-10.0469
ions	-10.0474
▁hate	-10.0481
▁phil	-10.0487
▁politician	-10.0488
▁corn	-10.0488
▁actor	-10.0489
▁fo	-10.0489
▁lee	-10.0498
▁unless	-10.0513
▁drawing	-10.0521
▁plays	-10.0524
▁needed	-10.0528
▁cre	-10.0533
▁bigger	-10.0538
▁danger	-10.054
▁california	-10.0552
▁subject	-10.0554
▁pie	-10.0565
su	-10.0565
▁⌊	-10.057
▁plain	-10.0592
▁⌈	-10.0607
▁jwww	-10.0608
▁sleeping	-10.0609
▁shore	-10.061
▁bert	-10.0648
▁(20	-10.0653
▁murder	-10.0674
▁henry	-10.0676
▁kingdom	-10.0681
▁stories	-10.0684
▁richard	-10.0689
▁host	-10.0693
▁holds	-10.0693
▁stra	-10.0694
▁thus	-10.0707
ii	-10.071
▁difference	-10.0727
▁questions	-10.0729
▁puts	-10.0731
▁app	-10.0731
▁asking	-10.0731
▁ate	-10.0737
▁success	-10.0738
▁asleep	-10.0739
▁driver	-10.074
▁joy	-10.0743
▁condition	-10.075
▁pin	-10.0766
▁cars	-10.0767
med	-10.0768
▁sue	-10.0768
▁hardly	-10.0768
▁hy	-10.0768
▁trick	-10.0771
▁moo	-10.0774
▁simple	-10.0779
▁bowl	-10.0781
▁india	-10.0784
▁bet	-10.0794
▁..	-10.0805
▁tre	-10.0806
zz	-10.0812
▁species	-10.0819
▁forty	-10.0819
ight	-10.0824
▁hotel	-10.0826
▁smart	-10.0831
ong	-10.0833
▁manner	-10.0845
11	-10.0848
▁fla	-10.0857
▁handle	-10.0857
▁gas	-10.0859
▁iron	-10.0865
▁pig	-10.0873
rd	-10.0878
▁)	-10.0889
▁countries	-10.0891
wood	-10.0893
▁imagine	-10.0894
▁ken	-10.0902
▁edge	-10.0906
▁slip	-10.091
rus	-10.091
ren	-10.0915
und	-10.0919
ize	-10.0929
▁fruit	-10.0937
▁mid	-10.0949
▁championship	-10.0954
▁beach	-10.096
▁similar	-10.0962
▁note	-10.0973
▁2019	-10.0974
▁trade	-10.0986
▁fer	-10.0989
▁val	-10.099
▁rule	-10.0999
ana	-10.1002
lon	-10.1013
▁leaves	-10.1016
▁peace	-10.1019
▁pour	-10.1023
▁turning	-10.1027
▁sunday	-10.1032
▁central	-10.1036
▁path	-10.1043
▁natural	-10.1046
row	-10.1063
▁enjoy	-10.1073
nor	-10.1074
▁liked	-10.1078
night	-10.1079
cc	-10.1081
▁hung	-10.1087
▁butter	-10.1088
▁crash	-10.1093
ez	-10.1101
▁picked	-10.1116
low	-10.1118
▁anne	-10.112
▁24	-10.1138
▁ce	-10.1144
▁crowd	-10.1147
fully	-10.1147
▁aye	-10.1152
▁soul	-10.116
▁education	-10.1163
fad	-10.1174
▁served	-10.1179
fri	-10.1183
▁market	-10.1188
▁loud	-10.1189
▁agree	-10.1192
▁judge	-10.1203
▁anna	-10.1203
▁lift	-10.1208
ities	-10.1214
▁bee	-10.1215
▁issue	-10.1215
ix	-10.1216
▁therefore	-10.1218
off	-10.1232
▁lock	-10.1237
▁starts	-10.1242
▁meat	-10.1248
▁ci	-10.125
▁title	-10.1251
▁include	-10.1254
bel	-10.1262
ven	-10.1266
▁spent	-10.127
▁ch	-10.1279
▁professional	-10.1281
▁election	-10.1281
▁pleasure	-10.1283
▁bat	-10.1289
▁slow	-10.129
▁bump	-10.1297
▁ke	-10.1302
▁process	-10.1303
▁bound	-10.1312
▁older	-10.1312
▁native	-10.1324
▁spread	-10.1325
▁upstairs	-10.1328
▁cousin	-10.133
▁problems	-10.1343
▁speaking	-10.1344
▁nest	-10.1357
ure	-10.1358
▁vote	-10.136
laughing	-10.1362
▁puppet	-10.1367
▁study	-10.1368
▁helped	-10.1372
▁movement	-10.1372
sib	-10.1374
▁purpose	-10.1383
bar	-10.1386
▁nature	-10.1395
▁brave	-10.1399
head	-10.14
▁western	-10.1401
over	-10.1405
uch	-10.1406
▁2017	-10.1412
ming	-10.1412
▁shoot	-10.1416
▁learned	-10.142
▁double	-10.143
▁calling	-10.1438
▁christ	-10.144
mic	-10.1441
oc	-10.1443
▁talked	-10.1448
▁beyond	-10.1451
▁angel	-10.1459
▁covered	-10.1461
▁royal	-10.1462
sure	-10.1466
▁fingers	-10.1469
lea	-10.1479
▁amount	-10.1479
▁cu	-10.1485
▁enter	-10.1487
▁$	-10.1502
▁("	-10.1508
▁mac	-10.1515
ste	-10.154
▁feed	-10.1545
▁oops	-10.1566
who	-10.1566
▁worse	-10.1567
▁bite	-10.1571
▁artist	-10.1571
where	-10.1572
▁private	-10.1598
ition	-10.1602
▁fur	-10.1609
▁joined	-10.161
▁lean	-10.1615
▁cro	-10.1616
▁professor	-10.1619
▁shoe	-10.1621
bra	-10.1624
gro	-10.1625
▁paris	-10.163
▁&	-10.1631
uh	-10.1649
van	-10.1649
ris	-10.166
rate	-10.1666
▁ham	-10.1667
▁treat	-10.167
▁message	-10.167
▁load	-10.1672
▁extra	-10.1672
ible	-10.1674
▁governor	-10.1686
tes	-10.1688
ple	-10.169
▁monster	-10.169
▁bull	-10.1694
▁shirt	-10.1695
▁japanese	-10.1699
▁deck	-10.1707
ably	-10.1711
▁tin	-10.1711
▁adam	-10.1715
ened	-10.1719
▁caused	-10.1726
lar	-10.1726
▁charles	-10.1727
▁rough	-10.1732
▁particular	-10.1735
▁fox	-10.1741
▁driving	-10.1742
▁21	-10.1745
▁fighting	-10.1748
▁silly	-10.1749
▁sarah	-10.1752
old	-10.1754
▁grave	-10.1755
ose	-10.1757
▁notice	-10.1757
ita	-10.1763
▁regard	-10.1767
▁escape	-10.1787
▁del	-10.1789
▁heaven	-10.179
▁consider	-10.1797
▁beside	-10.1799
ky	-10.18
▁tiny	-10.1801
▁length	-10.1817
▁spanish	-10.183
▁weather	-10.1841
ö	-10.1845
▁mistake	-10.1845
▁par	-10.1846
▁flying	-10.1849
▁clock	-10.1852
rac	-10.1854
▁bay	-10.1855
▁eleanor	-10.1857
▁gri	-10.1858
▁enemy	-10.1859
are	-10.1865
▁2022	-10.1867
▁project	-10.1868
▁parts	-10.1868
▁dollars	-10.1884
▁swing	-10.1885
▁calm	-10.1889
▁personal	-10.1894
▁mass	-10.1896
▁cookie	-10.1899
dor	-10.1913
form	-10.1921
▁tony	-10.1925
▁political	-10.1937
▁award	-10.1943
▁smoke	-10.1947
ered	-10.1952
▁bin	-10.1973
▁stock	-10.1974
▁modern	-10.1977
▁various	-10.1986
▁begin	-10.199
▁background	-10.1993
▁op	-10.1994
place	-10.1998
▁burn	-10.2004
▁claim	-10.2011
▁europe	-10.2013
▁che	-10.2016
▁entered	-10.2018
▁missing	-10.202
▁lucky	-10.2023
▁civil	-10.2025
zo	-10.2026
▁fu	-10.2031
▁nurse	-10.2034
▁proud	-10.2047
▁declared	-10.2059
▁sch	-10.206
▁agreed	-10.2082
▁nu	-10.2082
▁address	-10.2083
▁hiding	-10.2101
▁wo	-10.2103
▁effect	-10.2117
▁ladies	-10.2122
▁mike	-10.2129
▁pair	-10.2133
▁oo	-10.2133
▁tim	-10.2153
▁directed	-10.2154
▁depend	-10.2154
▁deliver	-10.2156
▁crime	-10.2157
ai	-10.216
▁dogs	-10.216
▁fan	-10.2166
▁tight	-10.2171
▁arrived	-10.2178
burg	-10.2181
▁crazy	-10.2185
ug	-10.2191
▁contain	-10.2191
rri	-10.2195
▁drew	-10.2198
▁sin	-10.2204
▁absolutely	-10.2208
cu	-10.2208
▁flower	-10.2209
▁dressed	-10.221
▁angry	-10.2212
▁spell	-10.2221
▁2010	-10.2221
▁pleasant	-10.2239
▁hero	-10.224
▁lid	-10.2251
▁likely	-10.226
ology	-10.2264
▁starting	-10.228
▁russian	-10.2301
▁original	-10.2307
▁barn	-10.2312
▁tone	-10.2323
▁cop	-10.2325
▁saint	-10.233
▁science	-10.2332
▁australia	-10.2341
▁dangerous	-10.2341
▁vo	-10.2346
▁jesus	-10.2349
▁falling	-10.2353
▁strength	-10.2357
▁happening	-10.2368
▁dolly	-10.2379
▁gro	-10.238
▁regular	-10.238
▁sugar	-10.2386
▁census	-10.2386
▁thou	-10.2389
12	-10.2394
▁fred	-10.2405
▁soldiers	-10.2412
▁2021	-10.2416
▁largest	-10.2418
bby	-10.2422
▁choice	-10.2427
ev	-10.2429
▁ven	-10.2429
▁singer	-10.2438
▁apart	-10.2446
▁gre	-10.2447
▁hum	-10.2449
▁accept	-10.2452
ou	-10.2457
▁northern	-10.2459
▁considered	-10.246
▁brain	-10.2464
ker	-10.2464
▁design	-10.2465
▁rush	-10.2466
▁bless	-10.2467
ace	-10.2468
▁laid	-10.2471
▁23	-10.248
▁slide	-10.2485
▁version	-10.2488
gh	-10.2491
▁steps	-10.2491
▁companion	-10.25
duc	-10.2503
▁anywhere	-10.2507
▁thick	-10.2518
▁patient	-10.252
▁tip	-10.2521
▁centre	-10.2525
▁basket	-10.2526
law	-10.2537
▁names	-10.2542
▁sold	-10.2543
▁coach	-10.2561
▁crew	-10.2566
▁military	-10.2569
fin	-10.257
▁han	-10.2571
▁babies	-10.2573
aft	-10.2577
▁para	-10.258
▁castle	-10.2582
▁saturday	-10.2584
▁besides	-10.2591
nny	-10.2605
▁discovered	-10.2605
zi	-10.2619
▁immediately	-10.2627
▁wal	-10.2628
▁adventure	-10.2629
▁neither	-10.2631
gged	-10.2636
▁threw	-10.2637
ect	-10.264
▁wave	-10.2645
▁dinosaur	-10.2646
▁ann	-10.2649
▁ter	-10.2653
▁pri	-10.2659
▁forth	-10.2662
▁holiday	-10.2667
▁hal	-10.267
▁female	-10.2672
ken	-10.268
▁easily	-10.2685
▁ocean	-10.2685
▁climb	-10.2687
▁european	-10.269
lia	-10.27
▁woods	-10.2704
▁knee	-10.2705
▁meaning	-10.2711
▁100	-10.2711
▁research	-10.2713
til	-10.2718
▁surprised	-10.2721
▁farmer	-10.2727
▁completely	-10.2739
▁prize	-10.274
▁blocks	-10.2753
▁bother	-10.2753
▁missed	-10.2753
ec	-10.2753
ama	-10.2756
▁energy	-10.2759
▁naughty	-10.2759
▁purple	-10.2759
▁correct	-10.2761
ock	-10.277
▁wearing	-10.277
▁fra	-10.2771
din	-10.2774
▁journey	-10.2774
30	-10.2786
▁fault	-10.279
▁effort	-10.2791
▁→	-10.2792
▁meal	-10.2799
▁china	-10.2799
▁ski	-10.2811
▁twice	-10.282
▁exist	-10.2824
ek	-10.2833
▁watched	-10.2833
▁spider	-10.2843
▁mon	-10.2843
▁marry	-10.2845
▁placed	-10.2849
▁roof	-10.2853
▁society	-10.2857
▁duty	-10.2859
▁dia	-10.2861
dra	-10.2862
▁empty	-10.2873
hand	-10.2875
hy	-10.2876
▁martin	-10.2878
▁fill	-10.2882
▁log	-10.2885
▁goodness	-10.2887
▁bomb	-10.2887
▁max	-10.2891
▁municipality	-10.2897
▁goal	-10.2907
▁current	-10.291
die	-10.292
▁sy	-10.2939
▁pulled	-10.2939
▁windows	-10.2944
▁slave	-10.2949
gie	-10.2951
ture	-10.2952
▁zoo	-10.2954
▁raised	-10.2954
▁organ	-10.2958
▁2011	-10.2964
ela	-10.2965
vocalizes	-10.2965
▁lieutenant	-10.297
▁equal	-10.2977
▁22	-10.2977
▁nick	-10.2995
▁model	-10.2996
▁medicine	-10.2999
▁sur	-10.3006
▁shows	-10.3009
▁exp	-10.3015
▁serve	-10.3022
▁higher	-10.3025
▁anti	-10.3026
▁flight	-10.3029
▁drug	-10.3032
late	-10.3038
▁supper	-10.304
▁simply	-10.3041
ery	-10.3042
▁stream	-10.3049
▁plenty	-10.305
▁boss	-10.3063
mor	-10.3064
pl	-10.3073
▁lines	-10.3087
▁nation	-10.309
▁movies	-10.3102
▁produced	-10.3105
log	-10.3106
▁italian	-10.3109
▁fre	-10.311
▁qua	-10.3113
▁filled	-10.3115
▁balloon	-10.3115
▁charlie	-10.3116
▁glo	-10.3126
▁unit	-10.3127
top	-10.3129
▁onto	-10.3135
▁prove	-10.3147
▁2016	-10.3148
▁cent	-10.3151
▁collect	-10.3156
▁swim	-10.3178
▁huge	-10.319
▁weak	-10.3198
ray	-10.32
ell	-10.3216
▁risk	-10.3218
▁fifteen	-10.3222
▁gentlemen	-10.3223
▁formed	-10.3226
▁division	-10.3227
▁ty	-10.3231
▁goin	-10.3232
mat	-10.3238
▁flag	-10.3241
▁rate	-10.3241
kay	-10.3243
▁shi	-10.3244
▁guest	-10.3246
just	-10.3247
▁studio	-10.325
▁za	-10.3251
ette	-10.3253
▁mate	-10.3254
▁vessel	-10.3257
cla	-10.3259
▁princess	-10.3261
▁fallen	-10.3261
▁express	-10.3265
▁def	-10.3274
kar	-10.3275
ties	-10.3286
▁flash	-10.3286
▁pu	-10.3287
▁telephone	-10.3291
▁bru	-10.33
▁stan	-10.3303
▁gal	-10.3305
▁lin	-10.3308
▁hadn	-10.332
▁ancient	-10.3323
▁opening	-10.3323
▁aw	-10.3327
▁range	-10.3334
▁eleven	-10.3335
▁sco	-10.3341
▁practice	-10.3346
▁excited	-10.3346
▁teach	-10.3348
▁decision	-10.3349
▁appearance	-10.335
▁prime	-10.3355
▁mission	-10.3361
▁total	-10.3368
▁pound	-10.3368
ay	-10.3374
▁evidence	-10.3379
▁pra	-10.338
▁whoops	-10.3383
▁choose	-10.3385
▁expected	-10.3394
▁southern	-10.3394
▁qu	-10.3399
tis	-10.34
ye	-10.34
▁()	-10.34
ax	-10.3407
▁partner	-10.3413
▁broad	-10.3413
▁maggie	-10.3416
▁lesson	-10.3419
▁ram	-10.3426
_,	-10.3428
ü	-10.3435
▁1,	-10.3438
▁degree	-10.3439
ica	-10.3448
hold	-10.3449
▁steven	-10.345
vy	-10.3455
▁channel	-10.347
picks	-10.3472
▁tale	-10.3476
▁tie	-10.3481
ering	-10.3482
▁necessary	-10.3484
brother	-10.3489
[	-10.349
▁male	-10.3492
▁announced	-10.35
▁non	-10.35
▁pause	-10.3513
▁mal	-10.3521
▁needta	-10.3526
ute	-10.3527
▁pleased	-10.3529
▁gift	-10.3531
nch	-10.3535
run	-10.3537
rya	-10.3539
▁promised	-10.354
▁swimming	-10.3541
▁motor	-10.3547
▁gentleman	-10.3549
ria	-10.3552
14	-10.356
▁mostly	-10.356
15	-10.3561
get	-10.3562
▁official	-10.3564
▁songs	-10.3567
▁grace	-10.3567
17	-10.3567
▁papa	-10.3578
▁prison	-10.3597
▁ended	-10.36
▁content	-10.3602
▁sail	-10.3615
▁refer	-10.3619
▁usual	-10.3621
▁26	-10.3624
▁painting	-10.3638
▁believed	-10.3647
▁string	-10.3648
▁oil	-10.3652
back	-10.3653
yo	-10.3655
▁rope	-10.3657
vis	-10.366
col	-10.3661
▁bla	-10.367
▁community	-10.367
here	-10.3672
▁awful	-10.3673
chuckles	-10.3684
▁faith	-10.3692
▁ger	-10.3706
▁continues	-10.3711
▁pack	-10.3712
ari	-10.3716
cent	-10.3721
▁ze	-10.3725
qu	-10.373
▁der	-10.374
▁earlier	-10.374
illa	-10.3743
▁gives	-10.375
uck	-10.3757
▁firm	-10.3766
▁rid	-10.3772
▁ban	-10.3781
bling	-10.3783
ius	-10.3785
▁print	-10.3785
pen	-10.3786
▁ku	-10.3793
▁episode	-10.3795
▁colors	-10.3798
▁salt	-10.3798
▁measure	-10.381
▁saved	-10.3817
▁grown	-10.3822
▁2014	-10.3823
bil	-10.3829
▁marriage	-10.3839
ov	-10.3844
▁laura	-10.3847
▁gray	-10.3867
▁writer	-10.3867
▁spi	-10.3886
ston	-10.3887
▁creature	-10.3892
mal	-10.3897
▁27	-10.3899
ddle	-10.3902
put	-10.3913
▁numbers	-10.3925
▁motion	-10.3927
soa	-10.3938
▁stu	-10.3942
▁material	-10.3946
counter	-10.3951
bble	-10.3958
▁heat	-10.3958
▁haha	-10.3962
▁ser	-10.3974
▁2012	-10.3974
▁carefully	-10.398
qua	-10.3984
▁knife	-10.3986
▁mamma	-10.3986
jen	-10.3987
berg	-10.3993
press	-10.3998
(	-10.4001
take	-10.4002
▁2013	-10.4004
ik	-10.4021
▁gen	-10.4024
cus	-10.4025
ched	-10.4033
▁border	-10.4038
ef	-10.4061
puts	-10.4064
▁event	-10.4065
▁lap	-10.4065
lk	-10.4066
▁friday	-10.4078
▁golden	-10.4079
▁toast	-10.4084
▁jean	-10.4087
▁arab	-10.4092
▁silent	-10.4093
▁dancing	-10.4093
ura	-10.4098
▁pal	-10.4099
rie	-10.4101
▁blanket	-10.4103
▁value	-10.4108
▁style	-10.4109
▁bike	-10.4113
▁tears	-10.4114
▁rise	-10.4116
▁santa	-10.4126
▁dare	-10.4139
▁texas	-10.414
▁dirty	-10.414
tz	-10.414
takes	-10.415
▁fourth	-10.415
war	-10.4151
▁author	-10.4155
cries	-10.4158
▁weight	-10.416
▁mountains	-10.4162
▁metal	-10.4162
▁sudden	-10.4169
▁listening	-10.4169
pp	-10.4176
avi	-10.4178
▁wolf	-10.4181
ack	-10.4187
▁speech	-10.4193
▁growing	-10.4196
▁forgive	-10.4199
eg	-10.4204
▁reg	-10.4217
tain	-10.422
▁noticed	-10.4223
▁bonnet	-10.4225
▁shoulder	-10.4227
win	-10.4232
▁[2	-10.4234
▁obviously	-10.4239
▁sigh	-10.4241
▁successful	-10.4245
▁28	-10.4251
▁grant	-10.4252
▁mat	-10.4255
▁development	-10.4264
▁hug	-10.4265
ball	-10.4267
▁strip	-10.4271
▁downstairs	-10.4286
▁newspaper	-10.4286
▁detail	-10.4288
▁site	-10.4292
▁2015	-10.4302
▁ordered	-10.4305
ob	-10.4307
book	-10.4308
ists	-10.4317
▁officers	-10.4319
13	-10.4321
▁ph	-10.4326
▁colonel	-10.4333
▁qui	-10.4343
▁char	-10.4345
▁ross	-10.4351
▁struck	-10.4353
▁valley	-10.4353
▁keeping	-10.4356
▁remind	-10.4365
▁desire	-10.437
▁smith	-10.4376
lau	-10.4377
▁steal	-10.4385
▁2008	-10.4386
▁signal	-10.4396
▁manager	-10.4402
q	-10.4404
▁thy	-10.4405
▁involved	-10.4414
▁hop	-10.4433
▁bug	-10.444
▁horn	-10.4444
▁lawyer	-10.4444
▁joke	-10.4445
▁damage	-10.4446
▁alice	-10.4451
▁otherwise	-10.4453
did	-10.4457
50	-10.4471
▁stairs	-10.4494
▁pit	-10.45
▁impossible	-10.4504
▁29	-10.4509
▁goodbye	-10.4515
▁dam	-10.4516
▁dig	-10.4519
mel	-10.4525
▁pizza	-10.453
▁washington	-10.4545
pan	-10.4545
▁agent	-10.4547
▁mail	-10.4549
▁terms	-10.4553
▁len	-10.4555
cle	-10.4563
▁colour	-10.4564
▁taught	-10.4566
▁rat	-10.4574
▁rec	-10.4576
▁lips	-10.4577
▁decide	-10.4578
▁published	-10.4581
▁magazine	-10.4582
▁individual	-10.4592
more	-10.4597
▁guns	-10.4626
▁wise	-10.4631
19	-10.4637
good	-10.4638
▁stranger	-10.4642
▁training	-10.4648
▁moves	-10.465
▁worried	-10.4653
▁beauty	-10.4655
▁italy	-10.4668
▁bark	-10.4672
ena	-10.4676
bri	-10.4679
▁influence	-10.4684
▁normal	-10.4688
yn	-10.4689
▁comment	-10.4694
▁giant	-10.4697
▁dun	-10.47
mate	-10.4705
▁throat	-10.4706
phone	-10.4707
ae	-10.4707
▁canada	-10.4708
▁occasion	-10.471
è	-10.4711
▁crown	-10.4711
play	-10.4714
▁nut	-10.4717
▁disease	-10.4724
▁operation	-10.473
&	-10.4734
▁ninety	-10.4738
▁wan	-10.4746
▁honest	-10.4746
▁honour	-10.4749
▁comfort	-10.4749
ison	-10.4761
▁bedroom	-10.4763
▁rep	-10.4763
with	-10.4765
▁everywhere	-10.4765
▁spoken	-10.4767
▁crack	-10.4771
▁mount	-10.4776
▁planet	-10.4776
▁flow	-10.478
▁pool	-10.4786
▁2007	-10.4786
▁ruth	-10.4792
shed	-10.4794
fer	-10.4794
▁com	-10.4801
▁2009	-10.4802
▁yum	-10.4803
▁actress	-10.4809
▁receive	-10.481
▁nineteen	-10.4815
▁closer	-10.4819
▁blind	-10.4823
▁tongue	-10.4828
try	-10.4831
wo	-10.4833
len	-10.4853
▁committee	-10.4858
▁entire	-10.486
▁brand	-10.4868
▁finding	-10.4869
▁sis	-10.4873
▁mill	-10.488
▁strike	-10.4885
peter	-10.4886
▁conf	-10.4892
▁commander	-10.4896
▁chris	-10.4896
⌉.	-10.4897
▁surface	-10.4898
▁sale	-10.4905
▁buck	-10.491
▁tries	-10.492
ify	-10.4925
▁cards	-10.4931
▁tar	-10.4939
▁magnet	-10.4944
▁fence	-10.4949
▁ned	-10.495
▁lights	-10.4953
▁eastern	-10.4964
▁sixty	-10.4966
▁cru	-10.497
ged	-10.4972
18	-10.4973
▁wedding	-10.4974
▁forgotten	-10.4975
▁loss	-10.4976
▁towel	-10.4977
▁blu	-10.4982
▁complete	-10.4984
--"	-10.5007
door	-10.501
▁roger	-10.5013
▁fixed	-10.5015
▁prepared	-10.5019
oon	-10.5024
▁protest	-10.5037
▁orders	-10.504
pri	-10.504
igh	-10.5043
▁sake	-10.5051
▁republic	-10.5053
sighs	-10.5063
▁begins	-10.5063
pose	-10.5064
▁wine	-10.5065
gre	-10.507
▁provide	-10.5071
▁defend	-10.5073
▁youth	-10.5079
▁owner	-10.5087
▁plants	-10.5091
▁shadow	-10.5092
▁medal	-10.5094
▁smaller	-10.5095
▁electric	-10.5101
je	-10.5106
▁africa	-10.5108
▁bon	-10.5109
▁col	-10.5115
▁chest	-10.5121
▁rank	-10.5122
nel	-10.5124
▁desert	-10.5125
glo	-10.5141
▁2006	-10.515
▁chinese	-10.515
▁spain	-10.5153
▁purdie	-10.5153
▁beep	-10.5162
▁mister	-10.5164
fo	-10.5166
▁continue	-10.5167
▁louis	-10.5168
▁spin	-10.5172
▁dere	-10.5179
▁dump	-10.5183
▁treasure	-10.5194
▁thin	-10.5195
▁located	-10.5202
mber	-10.5216
▁generally	-10.522
▁ticket	-10.5223
▁tax	-10.5224
▁managed	-10.5226
lie	-10.5231
▁definitely	-10.5235
ern	-10.5239
▁cabin	-10.5242
ino	-10.5245
jes	-10.5245
▁cave	-10.5256
▁drinking	-10.5258
▁ur	-10.5259
▁50	-10.5262
16	-10.5268
▁founded	-10.5269
▁shown	-10.5279
▁eli	-10.5279
gle	-10.5282
▁quietly	-10.5283
▁mix	-10.5284
rge	-10.5285
pu	-10.5285
▁dick	-10.5288
▁fin	-10.5291
bert	-10.5292
▁greater	-10.5296
▁reaches	-10.5298
▁formula	-10.5299
▁sports	-10.5303
▁cloth	-10.5309
▁sandwich	-10.5312
▁fashion	-10.5322
rop	-10.5323
see	-10.5325
▁disc	-10.5329
lor	-10.533
▁museum	-10.5337
▁dust	-10.5338
▁upset	-10.5349
▁pipe	-10.5349
ory	-10.5356
▁empire	-10.5359
▁twin	-10.5362
▁jumped	-10.5363
▁evil	-10.5366
sie	-10.537
▁contract	-10.5371
▁hay	-10.5375
▁clap	-10.5379
when	-10.538
▁banana	-10.5385
ppy	-10.5395
looking	-10.5397
air	-10.5398
▁sum	-10.5401
▁shout	-10.5403
▁uhuh	-10.5414
▁sword	-10.5418
▁chase	-10.5428
av	-10.5432
▁trail	-10.5432
worth	-10.5436
▁suggest	-10.5437
▁odd	-10.5449
bye	-10.5449
⌋.	-10.545
morrow	-10.5452
▁opportunity	-10.5453
▁possibly	-10.5453
/0	-10.5455
▁est	-10.5457
▁grab	-10.546
babbles	-10.5465
▁harm	-10.5465
▁represent	-10.5466
▁alarm	-10.5475
▁brothers	-10.5485
▁copy	-10.5493
▁novel	-10.5497
pre	-10.5504
▁fellows	-10.5509
▁aged	-10.5511
▁comm	-10.5512
▁relationship	-10.5514
▁gordon	-10.5516
▁carrying	-10.5523
ration	-10.5523
▁bud	-10.5527
▁secretary	-10.5528
▁parliament	-10.553
▁students	-10.5534
▁ray	-10.5536
▁security	-10.5539
▁wheels	-10.5543
24	-10.5546
ever	-10.555
ue	-10.555
▁softly	-10.5551
▁remained	-10.5557
cut	-10.5558
▁airport	-10.5562
▁prevent	-10.5563
kh	-10.5573
▁riding	-10.5579
set	-10.5585
▁victim	-10.5588
dis	-10.5589
▁greatest	-10.5595
▁falls	-10.5603
rit	-10.5612
▁release	-10.5617
sol	-10.5628
▁dec	-10.563
▁opposite	-10.5637
will	-10.5637
▁awake	-10.5639
▁rod	-10.5644
key	-10.5644
▁opinion	-10.5649
▁shock	-10.5653
▁pirate	-10.5665
▁crawl	-10.5667
▁mari	-10.5671
▁leading	-10.568
▁monday	-10.5682
▁percent	-10.5686
▁mag	-10.5686
▁servant	-10.5693
▁eva	-10.5693
▁section	-10.5695
▁coll	-10.5698
▁desk	-10.5704
▁rules	-10.5704
▁julia	-10.571
▁yell	-10.5712
bal	-10.5722
▁suggested	-10.5729
zy	-10.5732
▁yup	-10.5733
▁hol	-10.5747
roz	-10.5747
▁suspect	-10.5749
▁scout	-10.575
▁events	-10.5766
▁hook	-10.5774
▁contact	-10.5781
▁soldier	-10.5784
▁nope	-10.5788
▁ghost	-10.5789
▁sw	-10.579
▁tent	-10.5791
▁plans	-10.5805
▁pray	-10.5806
vic	-10.5807
▁mud	-10.581
▁showing	-10.5811
▁chart	-10.5823
down	-10.5825
▁favor	-10.583
▁sentence	-10.5832
▁microphone	-10.5837
▁file	-10.5839
▁loose	-10.5839
ux	-10.5841
▁bun	-10.5845
▁kim	-10.5857
▁rocks	-10.5858
▁hmm	-10.5859
▁stayed	-10.5863
vol	-10.5864
▁realize	-10.5867
miss	-10.5872
gin	-10.5872
stra	-10.5872
▁bessie	-10.5874
▁wire	-10.5883
▁greek	-10.5888
▁runs	-10.5889
▁champion	-10.5895
▁afterwards	-10.5897
▁guide	-10.5906
ien	-10.5919
ane	-10.5926
▁rob	-10.5927
▁ourselves	-10.5935
▁vol	-10.5939
▁easier	-10.5941
berry	-10.5944
▁switch	-10.5946
cul	-10.5946
▁olympics	-10.5947
▁direct	-10.5949
▁lamb	-10.5955
ban	-10.5962
▁rome	-10.5966
▁scar	-10.597
▁production	-10.597
▁offered	-10.5972
▁discuss	-10.5975
▁hunt	-10.5976
▁squ	-10.5976
yard	-10.5978
▁roar	-10.5981
▁ruin	-10.5981
▁groups	-10.5983
▁fool	-10.5987
▁chain	-10.5987
▁sex	-10.5993
▁rad	-10.5994
cept	-10.5997
▁gil	-10.6011
▁goat	-10.6017
▁tha	-10.602
▁yyy	-10.6023
ett	-10.6023
▁staff	-10.6025
▁records	-10.6035
▁cities	-10.6036
▁scott	-10.6042
▁walks	-10.6043
▁wipe	-10.6051
▁foreign	-10.6056
▁rescue	-10.6062
▁trunk	-10.6068
cker	-10.6069
izing	-10.607
▁willing	-10.6071
▁performance	-10.6081
▁apparently	-10.6086
▁attend	-10.6095
▁opera	-10.6101
▁directly	-10.6106
▁excellent	-10.6107
▁helping	-10.6108
▁glasses	-10.6109
▁carrot	-10.6114
nods	-10.6116
▁drum	-10.6119
▁tour	-10.6119
▁safety	-10.6121
▁element	-10.6125
▁frightened	-10.6126
look	-10.6127
▁critic	-10.613
▁sailor	-10.6133
▁association	-10.6135
▁tank	-10.6136
▁standard	-10.6137
▁brilliant	-10.6138
▁credit	-10.6138
▁map	-10.6141
▁narrow	-10.6144
▁younger	-10.6145
very	-10.6146
hal	-10.615
▁manage	-10.6154
lock	-10.6158
kat	-10.617
▁dutch	-10.6172
▁presently	-10.6175
▁product	-10.6177
▁dozen	-10.6178
25	-10.618
▁text	-10.6182
ctor	-10.6182
▁joseph	-10.6184
▁ladder	-10.6186
▁perfectly	-10.6187
▁pile	-10.6189
▁retired	-10.619
21	-10.6191
▁~	-10.6195
▁knight	-10.6195
▁areas	-10.6196
▁hor	-10.6205
▁tap	-10.621
▁code	-10.6211
year	-10.6212
▁[3	-10.622
▁neat	-10.6223
cher	-10.6227
▁memory	-10.6233
▁surely	-10.6235
cra	-10.6236
▁academy	-10.6236
▁boots	-10.6239
▁2000	-10.624
▁source	-10.6242
▁bringing	-10.6243
▁fancy	-10.6243
▁shopping	-10.6248
▁edward	-10.6253
▁whispered	-10.6256
▁’	-10.6261
▁gru	-10.6265
gy	-10.6265
silence	-10.6266
▁comfortable	-10.6275
▁settled	-10.6277
▁knowledge	-10.6285
▁fortune	-10.6285
▁clown	-10.6286
▁curious	-10.629
▁changes	-10.6296
▁task	-10.6309
serv	-10.631
▁tan	-10.6317
▁var	-10.6321
ked	-10.6322
▁exc	-10.6322
▁biscuit	-10.6341
▁anxious	-10.6343
▁eighty	-10.6344
▁mus	-10.6345
▁horsie	-10.6348
▁pressure	-10.6348
unc	-10.635
ami	-10.6353
▁airplane	-10.6354
ala	-10.6354
`	-10.636
▁awards	-10.6362
▁forever	-10.6365
▁doggie	-10.6366
▁jones	-10.6367
▁buddy	-10.6368
cal	-10.6368
▁nursery	-10.6373
stone	-10.6374
▁elder	-10.638
▁response	-10.6391
▁shouted	-10.6393
▁40	-10.6399
▁flo	-10.6399
▁smiled	-10.6401
▁wondering	-10.6402
filler	-10.6402
▁separate	-10.6407
▁rev	-10.6407
▁chairman	-10.6414
▁bathroom	-10.6415
ening	-10.6418
may	-10.6425
▁cheek	-10.6425
voc	-10.6428
▁carriage	-10.6429
▁glance	-10.6436
▁bush	-10.6437
▁bart	-10.6443
▁mention	-10.6444
▁transport	-10.6452
ew	-10.6453
▁blame	-10.6457
▁chap	-10.6464
▁forced	-10.6466
▁chan	-10.6467
▁yard	-10.6472
▁biggest	-10.6473
▁score	-10.6475
▁mile	-10.6476
▁habit	-10.6477
▁fairy	-10.6479
ola	-10.648
▁bubble	-10.6483
▁soup	-10.6484
ject	-10.6487
▁bid	-10.6488
▁photograph	-10.6489
-19	-10.649
▁proper	-10.6492
▁sport	-10.6497
▁hammer	-10.6498
▁yu	-10.6503
▁medical	-10.6509
▁rub	-10.6513
▁palace	-10.6515
▁poo	-10.6521
▁services	-10.6525
▁pencil	-10.6537
town	-10.6544
▁cute	-10.6553
▁media	-10.6553
bury	-10.6559
cho	-10.6562
shire	-10.6564
▁hanging	-10.6566
▁shell	-10.6568
▁whisper	-10.6573
▁concern	-10.6577
▁culture	-10.6578
▁trial	-10.6588
▁matt	-10.6595
▁photo	-10.6595
tte	-10.6597
▁forces	-10.6598
pet	-10.6602
▁explained	-10.6603
▁mirror	-10.6607
▁dada	-10.6608
▁mentioned	-10.6608
▁particularly	-10.6613
▁islands	-10.6618
rous	-10.662
▁perform	-10.6623
▁wha	-10.6625
▁destroy	-10.6625
▁shook	-10.6626
▁smiling	-10.6629
▁article	-10.6629
▁fairly	-10.663
pper	-10.6639
▁eaten	-10.6644
▁threat	-10.6648
▁upper	-10.6657
bout	-10.6658
▁network	-10.6659
▁tractor	-10.6662
▁q	-10.6664
▁cy	-10.6668
▁tough	-10.6668
▁reply	-10.6668
▁gentle	-10.6671
ification	-10.6675
▁cash	-10.6683
cro	-10.6684
▁waste	-10.669
hel	-10.6692
ann	-10.6695
▁grandpa	-10.6699
▁2005	-10.6711
▁birth	-10.6725
▁powerful	-10.6736
▁included	-10.6736
▁developed	-10.6741
▁jam	-10.6743
▁waited	-10.6745
rah	-10.6754
iz	-10.6755
▁highest	-10.6762
▁pur	-10.6764
▁rings	-10.6765
▁snap	-10.6767
▁arch	-10.677
▁somewhat	-10.6774
▁pilot	-10.6781
▁duh	-10.6787
cast	-10.6789
▁cloud	-10.6789
▁sweetie	-10.6792
▁faster	-10.6798
▁studied	-10.6804
mr	-10.6806
▁penny	-10.681
▁progress	-10.681
▁amazing	-10.6811
lish	-10.6816
▁wings	-10.682
bbing	-10.682
ano	-10.6827
▁larger	-10.683
▁2004	-10.6834
▁neighbor	-10.6839
▁cases	-10.684
▁signed	-10.6841
tti	-10.6849
▁flew	-10.685
▁holy	-10.6851
▁method	-10.686
▁washing	-10.6861
▁drama	-10.6862
▁consist	-10.6865
gn	-10.6867
pha	-10.6868
▁walls	-10.6868
lyn	-10.6871
▁kinda	-10.6878
▁clearly	-10.6882
▁avoid	-10.6886
▁witness	-10.6893
▁faint	-10.6894
awa	-10.6896
▁passing	-10.6904
fu	-10.6907
toy	-10.6911
▁expression	-10.6915
cli	-10.6915
▁owl	-10.6917
▁boom	-10.6918
▁2001	-10.6928
was	-10.6928
▁hoo	-10.693
▁gang	-10.6931
▁dragon	-10.6943
▁improve	-10.6945
▁passenger	-10.6949
▁leap	-10.6953
nia	-10.6958
▁afford	-10.6962
37	-10.6966
mont	-10.6966
▁struggle	-10.6969
hou	-10.697
mond	-10.6971
wait	-10.6974
▁beast	-10.6974
▁splash	-10.6979
wan	-10.6979
▁tribe	-10.6983
▁jar	-10.6994
▁whi	-10.7011
istic	-10.7011
bell	-10.7015
fall	-10.7018
elle	-10.7023
▁properly	-10.7026
▁hearing	-10.7028
▁repeated	-10.7038
▁grape	-10.7046
▁players	-10.7055
▁turtle	-10.7056
▁gain	-10.706
▁railway	-10.7063
▁lara	-10.7069
▁cancer	-10.707
▁recording	-10.7071
▁jan	-10.7074
▁yay	-10.7075
▁hills	-10.7076
▁focus	-10.7083
▁boats	-10.7088
▁justice	-10.7097
▁ships	-10.7099
▁priest	-10.7109
▁florida	-10.7109
▁chicago	-10.7112
▁flu	-10.7118
▁russia	-10.7126
ese	-10.713
▁skill	-10.7133
▁scratch	-10.7136
hum	-10.7146
▁madam	-10.7167
▁library	-10.7183
▁1990	-10.7188
▁australian	-10.7189
▁swa	-10.7203
say	-10.7205
▁temple	-10.7209
▁weird	-10.721
▁complain	-10.7214
▁ted	-10.7219
▁peas	-10.722
az	-10.7226
▁nervous	-10.7231
▁revolution	-10.7231
▁average	-10.7234
▁organization	-10.7235
ounce	-10.7235
hoo	-10.7236
dia	-10.7238
eth	-10.7244
▁spare	-10.7251
nation	-10.7253
▁raise	-10.7253
▁rap	-10.7255
tom	-10.726
ridge	-10.7264
▁related	-10.7265
rap	-10.7269
aries	-10.7275
ear	-10.7276
▁positive	-10.7279
▁bal	-10.728
▁shh	-10.7281
▁acting	-10.7285
▁elected	-10.7287
▁mil	-10.729
▁sc	-10.7293
spect	-10.7293
▁grandmother	-10.7294
▁dim	-10.7298
▁thrown	-10.7299
▁wil	-10.7299
▁commission	-10.7303
▁baseball	-10.7303
▁aid	-10.7308
about	-10.7315
bre	-10.732
▁philip	-10.7321
▁utter	-10.7321
▁concerned	-10.7324
▁keys	-10.7325
▁folks	-10.7329
▁hurried	-10.733
▁property	-10.7336
gging	-10.734
▁attract	-10.7344
▁latter	-10.7344
▁leaf	-10.7351
▁emperor	-10.7351
▁alex	-10.7353
▁available	-10.7354
pla	-10.7358
▁disappeared	-10.7358
non	-10.736
▁wound	-10.7364
▁debut	-10.7371
▁apartment	-10.7372
▁bend	-10.7377
ised	-10.7378
▁doin	-10.7382
cer	-10.7384
▁remarked	-10.7385
▁utterance	-10.7386
▁feather	-10.7389
▁settle	-10.739
▁document	-10.7392
▁sink	-10.7401
▁african	-10.7403
▁secure	-10.7405
▁scream	-10.7406
▁relative	-10.741
▁pushed	-10.7411
▁understood	-10.7413
mmer	-10.7414
▁net	-10.7416
rian	-10.7416
▁steve	-10.7421
▁burst	-10.7429
▁tickle	-10.7435
▁request	-10.7438
▁weekend	-10.7438
▁rare	-10.7438
▁wander	-10.7439
▁garage	-10.7445
▁rear	-10.7445
▁por	-10.7449
▁pale	-10.745
▁worst	-10.7452
spir	-10.7456
ada	-10.7463
▁cliff	-10.7465
fra	-10.7469
▁fought	-10.747
▁wh	-10.7471
boy	-10.7475
▁comb	-10.7478
▁eu	-10.7485
▁function	-10.7486
▁bunch	-10.7487
▁mummie	-10.749
▁route	-10.7491
▁religion	-10.7493
ington	-10.7495
ara	-10.7499
23	-10.7504
▁detective	-10.7504
▁plastic	-10.7508
▁jerry	-10.7516
22	-10.7516
wing	-10.7518
▁fond	-10.7519
▁beg	-10.7524
▁structure	-10.7525
whispers	-10.7525
▁gaze	-10.7535
▁economic	-10.7539
▁cooking	-10.7541
▁seriously	-10.7543
▁chuck	-10.7546
▁soviet	-10.7546
tell	-10.7558
▁shooting	-10.756
▁knocked	-10.7561
▁wagon	-10.7561
talk	-10.7564
▁policy	-10.7567
▁drove	-10.7568
▁aware	-10.7577
▁noble	-10.7581
give	-10.7585
▁competition	-10.7588
▁fishing	-10.7591
▁merry	-10.7596
▁fired	-10.7599
▁ellie	-10.76
▁owe	-10.7602
▁independent	-10.7606
▁butterfly	-10.7609
▁sar	-10.7612
▁lit	-10.7616
▁darkness	-10.7618
▁failed	-10.7626
▁create	-10.7626
▁coal	-10.7627
▁sno	-10.7637
▁span	-10.764
truct	-10.7643
rich	-10.7649
▁advantage	-10.7652
zu	-10.7657
ual	-10.7659
▁doo	-10.766
have	-10.7662
▁theory	-10.7664
▁witch	-10.7666
▁throwing	-10.7672
▁jimmy	-10.7672
yl	-10.7675
▁pole	-10.7677
▁peanut	-10.7684
▁tommy	-10.769
▁gently	-10.7691
▁puppy	-10.7692
▁drawn	-10.7694
▁previous	-10.7696
▁prayer	-10.77
▁remembered	-10.7715
▁sweetheart	-10.7727
▁plus	-10.7727
▁wished	-10.7734
new	-10.7741
▁steam	-10.7746
roll	-10.7746
thank	-10.775
eat	-10.7758
▁indians	-10.7759
▁friendly	-10.7762
▁throughout	-10.777
▁disturb	-10.7774
▁temperature	-10.7781
▁freedom	-10.7781
▁quit	-10.7786
▁delight	-10.7788
▁31	-10.7797
▁nap	-10.7798
ini	-10.78
pit	-10.7808
ella	-10.7812
ckle	-10.7819
▁traffic	-10.782
▁cheap	-10.7822
▁campaign	-10.7824
▁fully	-10.7827
▁grey	-10.7827
▁active	-10.783
▁mayor	-10.7831
▁review	-10.7837
▁1980	-10.784
uc	-10.7846
water	-10.7848
▁staying	-10.7853
▁courage	-10.7857
▁image	-10.7863
▁bullet	-10.7867
▁rum	-10.7868
▁somehow	-10.7874
▁kr	-10.7885
▁hunting	-10.7893
▁mexico	-10.79
▁smooth	-10.79
▁statistics	-10.7908
▁spec	-10.7915
▁benefit	-10.7922
▁activity	-10.7926
▁2003	-10.7927
▁prefer	-10.7945
▁elizabeth	-10.7948
▁aft	-10.7953
▁types	-10.7954
▁familiar	-10.7955
▁hockey	-10.7959
▁entirely	-10.7959
▁tied	-10.796
▁¶	-10.7962
▁nana	-10.7963
▁stir	-10.7967
▁advice	-10.797
▁hidden	-10.797
▁ahhah	-10.7973
▁mixed	-10.7979
▁shark	-10.798
rated	-10.7986
▁daniel	-10.7989
▁nail	-10.7992
▁buried	-10.7992
▁grandfather	-10.7996
▁quack	-10.8
▁screen	-10.8003
▁turkey	-10.8003
▁split	-10.8016
▁jacket	-10.8017
▁sposta	-10.8021
▁fold	-10.8021
▁kar	-10.8024
▁vehicle	-10.8025
fish	-10.8026
▁admit	-10.8049
dar	-10.805
▁candle	-10.8051
▁israel	-10.8051
▁whistle	-10.8057
▁canadian	-10.8062
▁citizen	-10.8066
▁presence	-10.8073
▁shower	-10.8074
▁eric	-10.8076
▁candy	-10.8077
ati	-10.8079
▁becoming	-10.8081
▁conduct	-10.8082
▁socks	-10.8084
ously	-10.8084
▁totally	-10.8088
▁gosh	-10.8092
▁hut	-10.8093
▁majesty	-10.8103
▁data	-10.8105
▁sang	-10.811
▁plum	-10.8111
▁caterpillar	-10.8114
▁tend	-10.8114
hen	-10.8123
▁pulling	-10.8131
▁sheet	-10.8133
▁float	-10.8136
▁brian	-10.8138
▁boxes	-10.8139
ima	-10.8141
▁kat	-10.8141
▁branch	-10.8149
▁reflect	-10.815
▁ireland	-10.815
▁currently	-10.8152
▁2002	-10.8153
lus	-10.8153
▁determined	-10.8156
atory	-10.8158
▁dying	-10.8162
chan	-10.8163
▁chemical	-10.8166
▁realized	-10.8173
▁troops	-10.8175
▁touched	-10.8177
▁rice	-10.8177
▁feelings	-10.8184
ram	-10.8185
▁visitor	-10.819
▁scotland	-10.8192
▁sca	-10.8196
▁seal	-10.8198
▁thunder	-10.8201
▁reported	-10.8202
▁handsome	-10.8203
▁madame	-10.8206
your	-10.8214
▁maria	-10.8215
ency	-10.8217
▁student	-10.8217
▁latin	-10.822
name	-10.822
▁bou	-10.8221
▁jumping	-10.8227
eu	-10.8228
long	-10.8228
▁sauce	-10.8229
▁yummy	-10.8232
▁ly	-10.8234
any	-10.8235
▁occur	-10.8237
▁arthur	-10.8238
▁deer	-10.8238
his	-10.824
▁chat	-10.824
▁repeat	-10.8242
▁families	-10.8245
▁terror	-10.8245
▁pond	-10.8248
▁zzz	-10.8254
cur	-10.827
▁woo	-10.8272
star	-10.8292
▁labour	-10.8295
ä	-10.8302
gger	-10.8306
▁shame	-10.8308
▁gene	-10.8309
▁ash	-10.8311
dale	-10.8313
▁poet	-10.8316
▁instant	-10.8319
▁confess	-10.8321
mad	-10.8321
▁spa	-10.8322
ula	-10.8326
▁cough	-10.8336
▁described	-10.8339
▁reckon	-10.834
▁recently	-10.8342
sound	-10.8343
▁volume	-10.8344
28	-10.8359
▁excitement	-10.8363
▁survive	-10.837
lay	-10.837
pho	-10.8376
▁cutting	-10.8378
father	-10.8379
▁barb	-10.8381
▁exercise	-10.8382
▁fifth	-10.8386
▁interview	-10.8386
rum	-10.8389
▁belt	-10.8393
▁buzz	-10.8399
▁produce	-10.8399
▁locked	-10.84
▁languages	-10.84
▁alien	-10.84
▁representative	-10.8401
ological	-10.8406
stand	-10.841
▁chamber	-10.8417
▁root	-10.8421
▁matches	-10.8424
ically	-10.8433
▁tur	-10.8448
▁paying	-10.8454
▁cookies	-10.8454
▁experiment	-10.8458
▁height	-10.8459
▁stones	-10.8462
▁seventy	-10.8462
▁shin	-10.847
tail	-10.847
▁trap	-10.8474
ick	-10.8482
▁fail	-10.8482
▁dunno	-10.8486
▁sul	-10.8489
▁gay	-10.8495
▁relax	-10.8497
▁doggy	-10.8503
▁km	-10.8504
▁pony	-10.8504
hl	-10.8506
▁knees	-10.8513
▁labor	-10.8521
▁shoulders	-10.8521
▁bone	-10.8522
lies	-10.8523
▁crayons	-10.8526
▁pointing	-10.8528
art	-10.8531
▁increase	-10.8538
▁wore	-10.8542
▁whenever	-10.8544
▁dash	-10.8545
▁instrument	-10.8547
▁iii	-10.8551
▁duke	-10.8555
▁legal	-10.8555
▁evidently	-10.8558
uring	-10.8562
▁catholic	-10.8563
ection	-10.8563
▁picking	-10.8571
▁appreciate	-10.8579
▁arrest	-10.8581
▁aside	-10.8588
▁festival	-10.859
▁irish	-10.8592
▁trace	-10.8593
▁byebye	-10.8599
▁gathered	-10.8602
▁normally	-10.8602
▁icecream	-10.8606
▁sto	-10.8608
▁develop	-10.861
▁chu	-10.8617
▁rifle	-10.8618
▁fund	-10.8618
▁eighteen	-10.8619
26	-10.8625
▁employ	-10.8626
▁authority	-10.8628
boo	-10.8629
▁postman	-10.8635
▁physical	-10.8641
▁pointed	-10.8646
▁maid	-10.8655
▁slightly	-10.8655
oy	-10.8656
▁planning	-10.8675
vocalize	-10.8676
▁target	-10.8677
▁drunk	-10.8677
▁whoo	-10.8681
▁pooh	-10.8683
▁xi	-10.8684
99	-10.8687
▁industry	-10.8688
rick	-10.8694
▁wooden	-10.8695
▁access	-10.8697
rog	-10.8698
▁climate	-10.87
▁jimmie	-10.87
▁wag	-10.8703
▁specific	-10.8704
thing	-10.8704
▁0	-10.8711
ense	-10.8712
ister	-10.8717
▁interrupt	-10.8718
▁ox	-10.8719
iff	-10.8728
▁shelter	-10.8729
▁approach	-10.8729
27	-10.8732
▁advance	-10.8735
▁spill	-10.8735
▁demand	-10.8738
sey	-10.8738
▁sausage	-10.8748
hr	-10.8749
▁stretch	-10.8754
▁musical	-10.8763
▁diamond	-10.8764
▁boston	-10.8766
▁breaking	-10.8768
bon	-10.877
bed	-10.877
▁aim	-10.8772
▁nan	-10.8772
▁eager	-10.8774
▁require	-10.8775
▁waves	-10.8778
▁rolling	-10.8779
▁jigsaw	-10.8783
▁boil	-10.8784
▁statement	-10.8785
▁dem	-10.8788
app	-10.8793
▁lack	-10.8804
▁whee	-10.881
▁drops	-10.8813
▁sho	-10.8818
▁characters	-10.8821
▁gasp	-10.8828
▁includes	-10.8832
▁wing	-10.8842
▁sixteen	-10.8843
▁queer	-10.8844
▁dish	-10.8847
▁observed	-10.8853
▁brook	-10.8857
▁guitar	-10.8859
lp	-10.8861
▁albert	-10.8862
▁lisa	-10.8866
lum	-10.8869
ctu	-10.8889
▁federal	-10.8892
▁tender	-10.8897
▁eventually	-10.89
▁slept	-10.89
▁nina	-10.8904
▁ee	-10.8904
▁cock	-10.8909
▁learning	-10.8911
▁lamp	-10.8913
cor	-10.8919
mbled	-10.892
▁gee	-10.8925
▁scrap	-10.8926
▁eve	-10.8928
▁congress	-10.8936
▁burning	-10.8938
▁tunnel	-10.894
▁piano	-10.8941
▁cruel	-10.8943
▁sticker	-10.8949
▁polly	-10.896
pin	-10.8961
ani	-10.8962
fore	-10.8965
▁fleet	-10.8965
▁scientists	-10.8968
▁purse	-10.8971
▁rent	-10.8971
del	-10.8972
▁lane	-10.8974
▁spite	-10.8977
▁exchange	-10.8977
▁recorder	-10.898
▁pear	-10.8981
even	-10.8985
▁useful	-10.8987
▁victory	-10.8992
▁companies	-10.8993
▁passage	-10.8994
▁stack	-10.8995
stein	-10.9004
▁conference	-10.9009
▁origin	-10.9014
▁deserve	-10.9014
aunt	-10.9021
60	-10.9021
▁scarcely	-10.9021
▁destroyed	-10.9022
▁chew	-10.9022
▁yards	-10.9026
▁severe	-10.9027
▁gla	-10.9027
▁swear	-10.903
45	-10.903
▁canoe	-10.9032
▁cord	-10.9035
▁rug	-10.904
sky	-10.9042
▁1970	-10.9043
▁pillow	-10.9047
▁cri	-10.9051
▁unknown	-10.9064
▁beneath	-10.907
gate	-10.9072
▁angeles	-10.9073
▁bloody	-10.908
▁recorded	-10.908
▁wounded	-10.9081
▁custom	-10.9083
▁tick	-10.9086
▁mainly	-10.9087
▁originally	-10.9089
▁bucket	-10.9093
▁arrow	-10.9093
▁tuesday	-10.9095
▁ky	-10.9097
pur	-10.91
▁semi	-10.91
▁racing	-10.9106
▁established	-10.9115
▁dorothy	-10.9115
▁[4	-10.9119
▁scale	-10.912
turns	-10.9123
▁fourteen	-10.9128
▁link	-10.9136
▁wondered	-10.9139
▁stamp	-10.914
▁stepped	-10.9148
▁soap	-10.9152
▁ji	-10.9154
▁pants	-10.9156
▁robin	-10.9164
▁earn	-10.9164
▁pad	-10.9166
▁clouds	-10.9166
▁democratic	-10.9168
▁pity	-10.9168
▁plot	-10.9173
cycl	-10.9176
▁spoil	-10.9177
▁listened	-10.9181
▁effects	-10.9182
▁potato	-10.9183
▁brief	-10.9185
▁rail	-10.9187
▁bodies	-10.919
▁restaurant	-10.9194
▁craft	-10.9194
cies	-10.9206
▁prisoners	-10.9209
▁lou	-10.9209
▁symbol	-10.9218
most	-10.9223
▁borrow	-10.9223
vie	-10.9226
▁ren	-10.9228
▁stomach	-10.9231
▁weapons	-10.9232
dan	-10.9236
▁speaker	-10.924
making	-10.924
▁cricket	-10.9248
▁fireman	-10.9248
▁collection	-10.9249
▁describe	-10.9253
▁2023	-10.9253
▁folk	-10.9262
▁settlement	-10.9263
▁rapidly	-10.9263
vent	-10.9273
ean	-10.9275
▁feature	-10.9284
▁giraffe	-10.929
▁proved	-10.9293
▁underneath	-10.9294
arian	-10.9295
▁switzerland	-10.9298
music	-10.9299
gon	-10.9301
mag	-10.9301
▁lifted	-10.9306
40	-10.9308
▁features	-10.9308
▁walter	-10.9315
▁auntie	-10.9316
▁comedy	-10.9321
loud	-10.9327
▁lonely	-10.9327
▁enjoyed	-10.9327
▁legend	-10.9329
▁guilty	-10.9332
▁prisoner	-10.9332
▁seek	-10.9333
▁engaged	-10.9334
▁challenge	-10.9344
▁click	-10.9351
▁exciting	-10.9353
▁performed	-10.9358
▁woof	-10.9363
▁discover	-10.9369
▁luc	-10.937
▁fate	-10.9374
▁reveal	-10.9374
▁steady	-10.9382
▁dy	-10.9384
▁warning	-10.9385
▁horrible	-10.9386
▁thursday	-10.9386
▁unusual	-10.9386
fic	-10.939
▁responsible	-10.9391
ggle	-10.9397
▁invited	-10.9401
▁counter	-10.9404
▁removed	-10.9406
▁sim	-10.9407
▁tear	-10.9412
▁oliver	-10.9414
▁producer	-10.9416
▁couch	-10.9416
▁recognize	-10.9417
▁lucy	-10.9419
▁pakistan	-10.9433
▁picnic	-10.9437
▁polish	-10.9439
▁tomato	-10.9439
▁peep	-10.9443
▁senior	-10.9446
▁beans	-10.9452
▁peggy	-10.9455
▁divided	-10.9455
▁delicious	-10.9463
cou	-10.9464
▁uniform	-10.9467
▁steel	-10.9468
▁cage	-10.9472
ular	-10.9483
▁nearer	-10.9486
▁pitch	-10.9489
▁remove	-10.949
▁britain	-10.9498
▁delay	-10.9498
▁ordinary	-10.9505
▁sen	-10.9506
▁comrade	-10.951
▁religious	-10.951
▁concert	-10.9527
}	-10.954
▁owned	-10.954
▁1960	-10.9541
▁lil	-10.9543
▁dawn	-10.9549
▁emotion	-10.955
▁truly	-10.9551
zar	-10.9554
coughs	-10.9555
ila	-10.9557
▁rip	-10.9557
▁incident	-10.9566
▁losing	-10.9567
lou	-10.9572
▁shift	-10.9575
▁poison	-10.9576
giggles	-10.9578
▁mighty	-10.9582
▁rode	-10.9582
▁sergeant	-10.9587
▁jail	-10.9602
bor	-10.9605
▁zi	-10.9607
▁remark	-10.9608
▁kidding	-10.9613
▁client	-10.9617
▁sweat	-10.9618
var	-10.9621
▁location	-10.9626
▁innocent	-10.9626
▁brick	-10.9627
▁difficulty	-10.9632
▁1999	-10.9632
▁closely	-10.9634
▁circus	-10.9635
▁pure	-10.9644
▁zealand	-10.9652
75	-10.9655
eva	-10.9659
⌋	-10.966
▁relief	-10.9661
pointing	-10.9662
▁hunter	-10.9663
▁curtain	-10.9666
▁fed	-10.967
▁frame	-10.9671
▁mont	-10.9677
▁alexander	-10.9678
▁jelly	-10.9678
▁woke	-10.9678
▁bent	-10.9687
▁vice	-10.9689
▁teaching	-10.9693
▁susan	-10.9693
▁donald	-10.9694
▁stroke	-10.9699
▁supply	-10.9709
▁entrance	-10.9717
▁regret	-10.9718
▁que	-10.972
▁winner	-10.9726
▁becky	-10.9727
mark	-10.9728
▁wednesday	-10.973
▁treatment	-10.9735
fire	-10.9738
▁winning	-10.9742
▁bishop	-10.9744
▁temp	-10.9746
poli	-10.9752
▁bones	-10.9762
▁pill	-10.9763
▁competed	-10.9765
▁nicole	-10.9766
▁clip	-10.9773
▁sally	-10.9777
▁chips	-10.9784
▁spark	-10.9784
▁washed	-10.9791
▁jenny	-10.9798
▁dave	-10.9805
round	-10.9815
▁florence	-10.9828
holds	-10.9835
▁badly	-10.9836
▁junior	-10.9849
five	-10.9863
dog	-10.9868
▁scare	-10.9877
▁descend	-10.988
▁generation	-10.9886
▁hoping	-10.9886
char	-10.9889
▁sweep	-10.9889
▁firstname	-10.9893
▁landed	-10.9895
▁multi	-10.9899
▁mmm	-10.9901
▁relation	-10.9906
cap	-10.9908
▁slipped	-10.9908
▁bricks	-10.9922
meter	-10.9925
▁1996	-10.9931
▁changing	-10.9934
▁policeman	-10.9937
▁shouting	-10.9938
ó	-10.9944
▁quality	-10.9947
▁pitcher	-10.9951
▁lorry	-10.9958
▁daily	-10.9961
▁balance	-10.9962
▁killing	-10.9964
▁branches	-10.9965
▁cher	-10.9969
▁circumstances	-10.9974
▁1992	-10.9975
▁treated	-10.9977
▁chop	-10.998
▁fro	-10.9981
▁thirteen	-10.9983
▁nik	-10.9987
▁programme	-10.9987
▁vegetable	-10.9992
▁limit	-10.9994
▁sew	-11.0004
▁greatly	-11.0005
▁caroline	-11.0007
verse	-11.0008
▁pine	-11.001
▁setting	-11.0011
▁annoy	-11.0015
cious	-11.0023
▁andrew	-11.0028
▁nancy	-11.0029
▁consul	-11.0031
▁pattern	-11.0032
▁toilet	-11.0036
mbo	-11.0037
▁temper	-11.0041
▁keen	-11.005
▁swift	-11.0055
▁proof	-11.0066
▁hon	-11.0069
hop	-11.007
▁examine	-11.0078
mine	-11.0081
▁desperate	-11.0082
▁bitter	-11.0082
ata	-11.0088
kf	-11.0089
ré	-11.009
95	-11.0096
▁bond	-11.0101
▁marie	-11.0103
▁uk	-11.0103
▁planned	-11.0103
hor	-11.0104
▁mustn	-11.0109
▁mun	-11.0112
▁1998	-11.0115
▁paw	-11.0121
▁accepted	-11.0123
▁tidy	-11.0124
▁happiness	-11.0128
ache	-11.0128
▁eddie	-11.0129
ologist	-11.0135
▁refused	-11.0136
▁universe	-11.0141
▁colon	-11.0145
▁assume	-11.0149
▁solid	-11.015
▁jer	-11.0151
▁jackson	-11.0156
▁broadcast	-11.0165
▁expensive	-11.0169
▁chosen	-11.0173
▁drown	-11.0173
▁auto	-11.0175
mhm	-11.0177
▁etc	-11.0178
▁creek	-11.0179
án	-11.018
▁divorce	-11.0182
ō	-11.0187
▁sel	-11.0187
▁annie	-11.0192
▁farther	-11.0199
▁oak	-11.02
▁weapon	-11.0204
▁affairs	-11.0204
▁upside	-11.0205
▁minor	-11.0205
▁sid	-11.0209
foot	-11.0209
▁rushed	-11.0215
▁connection	-11.0219
▁pride	-11.022
▁gam	-11.0221
▁chum	-11.0223
boat	-11.0236
▁captured	-11.0237
▁parties	-11.0239
ization	-11.0245
▁lyn	-11.0248
▁flame	-11.025
▁tire	-11.0255
▁lover	-11.0257
▁introduced	-11.0258
▁flip	-11.0258
▁merc	-11.0263
▁crocodile	-11.0265
65	-11.0269
turn	-11.0278
▁favour	-11.0278
▁molly	-11.0281
bird	-11.0283
▁1995	-11.0295
▁matthew	-11.0297
▁devil	-11.0303
ole	-11.0309
▁principal	-11.0316
▁replaced	-11.0317
▁syn	-11.0322
nina	-11.0325
ava	-11.0327
°	-11.033
▁clay	-11.0334
▁trousers	-11.0335
▁brazil	-11.0337
▁required	-11.034
▁display	-11.0346
▁hur	-11.0347
▁savage	-11.0354
▁dee	-11.0354
▁kir	-11.0355
ome	-11.0358
▁arrive	-11.0361
▁distinct	-11.0363
▁engineer	-11.0363
cup	-11.0363
▁actual	-11.0364
tribute	-11.0373
▁1994	-11.0373
cular	-11.0376
▁territory	-11.0377
▁climbing	-11.0377
voice	-11.0382
▁escaped	-11.0383
▁possess	-11.039
▁satisfied	-11.0391
31	-11.0393
▁criminal	-11.0395
▁whale	-11.0397
▁proceed	-11.0398
▁indicate	-11.0399
▁studies	-11.04
hon	-11.0408
dio	-11.0411
▁egypt	-11.0417
▁mcdonald	-11.0419
▁platform	-11.0419
speak	-11.0421
phe	-11.0426
▁intended	-11.0427
▁drag	-11.0429
▁scary	-11.0431
▁tummy	-11.0437
▁stable	-11.0443
▁recognized	-11.0446
▁pepper	-11.0449
pel	-11.0456
▁tropical	-11.0456
▁cooper	-11.0456
▁twist	-11.0456
two	-11.046
▁dishes	-11.0461
▁screw	-11.0461
▁audience	-11.047
wick	-11.048
▁virginia	-11.0482
▁din	-11.0488
shouts	-11.0489
▁splendid	-11.0489
▁device	-11.0489
▁$1	-11.0502
▁wand	-11.0505
▁daisy	-11.0518
▁villa	-11.0518
which	-11.052
▁earnest	-11.0539
▁sara	-11.0544
▁patsy	-11.0548
▁punch	-11.0554
break	-11.0564
▁saving	-11.0565
▁danny	-11.0565
▁instance	-11.057
▁altogether	-11.0575
▁powder	-11.0584
▁disappear	-11.0593
▁attacked	-11.0594
▁oven	-11.0594
▁arrested	-11.0596
▁affair	-11.0599
ability	-11.0601
▁recommend	-11.0603
▁killer	-11.0606
▁cau	-11.0606
▁traditional	-11.0615
aka	-11.0622
▁addition	-11.0624
80	-11.0633
▁basically	-11.0637
▁alter	-11.0638
▁armed	-11.0639
▁provided	-11.0639
▁2020)	-11.0643
▁customer	-11.0646
▁practical	-11.0646
▁hasta	-11.0647
▁household	-11.0652
▁eagerly	-11.0658
▁sooner	-11.0659
comp	-11.0662
▁stole	-11.0664
▁technology	-11.0665
▁dreadful	-11.0667
▁tune	-11.0667
uri	-11.0669
▁obey	-11.0673
▁footnote	-11.0678
▁rolled	-11.0679
▁penguin	-11.0699
▁ron	-11.0705
▁1997	-11.0705
▁demanded	-11.0706
▁possession	-11.0709
▁pushing	-11.071
▁crossed	-11.0711
▁shining	-11.0711
actually	-11.0711
▁gained	-11.0713
▁cottage	-11.0718
uction	-11.072
▁stern	-11.0724
▁ouch	-11.0726
▁mistress	-11.0728
▁rachel	-11.0728
ele	-11.0732
chair	-11.0733
▁jewel	-11.0734
▁wealth	-11.0734
▁fuss	-11.0736
▁baba	-11.0736
bee	-11.074
▁connected	-11.0741
▁sorrow	-11.0743
▁cab	-11.0746
▁mickey	-11.0747
▁bounce	-11.0752
▁reaction	-11.0752
▁hoped	-11.0756
▁delighted	-11.0758
▁flood	-11.0763
▁assistant	-11.0763
▁belief	-11.0767
▁spy	-11.077
▁parish	-11.0772
01	-11.0775
▁entertainment	-11.0778
ua	-11.0785
▁emergency	-11.0786
walk	-11.0788
▁scan	-11.0789
▁pumpkin	-11.0796
▁chip	-11.0807
▁appointed	-11.0811
borough	-11.0811
▁enemies	-11.0815
▁wrestling	-11.0815
▁plea	-11.0816
▁occurred	-11.0822
▁selected	-11.0824
▁designed	-11.0825
▁peekaboo	-11.0825
47	-11.0829
▁rocket	-11.0832
mann	-11.0836
▁useta	-11.0839
▁contest	-11.084
▁navy	-11.0843
▁laughter	-11.0846
▁assembly	-11.085
▁suffering	-11.0852
▁squad	-11.0856
▁protection	-11.0858
under	-11.0859
▁cub	-11.0861
▁wrap	-11.087
▁climbed	-11.0872
▁rick	-11.0877
▁brig	-11.0877
▁sexual	-11.0895
playing	-11.0896
▁margaret	-11.0899
▁squirrel	-11.0899
▁sunshine	-11.0899
▁palm	-11.09
babble	-11.0902
▁johnny	-11.0904
involuntary	-11.0909
▁carpet	-11.0917
▁[$	-11.0918
▁sending	-11.0919
▁scheme	-11.0924
▁dude	-11.093
▁graduate	-11.0933
eh	-11.0933
▁cass	-11.0936
▁cheerful	-11.0939
▁barbara	-11.0943
▁prop	-11.0948
▁coin	-11.0951
▁sacrifice	-11.0953
oli	-11.0954
▁clark	-11.0958
▁comic	-11.0966
ben	-11.0966
▁reference	-11.097
▁grin	-11.0971
▁extremely	-11.0972
▁bold	-11.0974
▁reduce	-11.0975
found	-11.0979
▁oldest	-11.0981
▁basketball	-11.0983
▁description	-11.0988
▁selling	-11.0992
▁60	-11.0994
lip	-11.0995
ato	-11.0998
load	-11.1
▁straw	-11.1
rink	-11.1
⌉	-11.101
hood	-11.1011
ffe	-11.1016
▁hawk	-11.1026
ique	-11.1027
▁cle	-11.1028
▁workers	-11.1031
▁tissue	-11.1032
▁georgia	-11.1034
89	-11.1037
▁ambulance	-11.1037
▁failure	-11.1038
▁increased	-11.1039
▁gotten	-11.104
▁bible	-11.1046
▁mask	-11.1051
▁squeeze	-11.1052
corn	-11.1054
▁appeal	-11.1057
▁praise	-11.1067
▁fiction	-11.1067
tsu	-11.107
▁harder	-11.1076
▁ringing	-11.1078
crib	-11.1079
yeah	-11.1083
pon	-11.1086
▁asia	-11.1093
▁kit	-11.1103
▁victor	-11.1103
▁fierce	-11.1107
▁sandy	-11.1109
een	-11.111
bur	-11.111
▁melt	-11.111
▁tru	-11.1111
▁1991	-11.1114
▁mood	-11.1118
▁reward	-11.1121
▁recent	-11.1122
64	-11.1125
♪	-11.1126
▁seated	-11.1127
▁1988	-11.1129
▁rattle	-11.113
▁factor	-11.1132
▁jess	-11.1144
▁[5	-11.1146
▁ble	-11.1147
▁breast	-11.1148
▁distributed	-11.1148
gun	-11.1152
▁gran	-11.1153
▁grim	-11.1158
▁drawer	-11.1161
▁swallow	-11.1163
▁mystery	-11.1168
▁watches	-11.117
▁distant	-11.1173
face	-11.1174
▁repair	-11.1179
▁potatoes	-11.1187
▁warren	-11.119
▁scholar	-11.1193
▁strawberry	-11.1204
▁argument	-11.1208
▁confidence	-11.1208
▁spr	-11.1209
itude	-11.1214
▁kitten	-11.1214
▁suffered	-11.1217
▁commercial	-11.1218
▁recover	-11.1221
astic	-11.1222
▁mabel	-11.1222
00,000	-11.1223
▁fortunate	-11.1224
▁jealous	-11.1224
▁theatre	-11.123
▁clo	-11.1231
▁peak	-11.1234
▁grateful	-11.1244
▁candidate	-11.1249
66	-11.125
▁kindly	-11.1251
▁complex	-11.1254
▁arranged	-11.1256
conti	-11.1258
open	-11.1263
▁rapid	-11.1264
▁musician	-11.1266
after	-11.1269
▁worm	-11.127
▁nerve	-11.127
▁pee	-11.1276
▁marsh	-11.1278
mouth	-11.1278
ising	-11.1279
▁ker	-11.1282
▁passion	-11.1284
▁suffer	-11.1288
▁tournament	-11.129
▁warrior	-11.1295
▁venture	-11.1296
▁jason	-11.1297
▁wales	-11.1298
▁lor	-11.13
▁disney	-11.1307
body	-11.1307
hol	-11.1315
▁sufficient	-11.1315
▁burned	-11.1316
90	-11.1319
▁stro	-11.132
▁estate	-11.1326
▁highly	-11.1329
98	-11.1333
▁reserve	-11.1333
▁equipment	-11.1341
97	-11.1341
▁sweden	-11.1351
▁false	-11.1351
oma	-11.1365
▁intention	-11.1372
▁murmur	-11.1372
▁hadta	-11.1373
▁blowing	-11.1376
▁rude	-11.138
moves	-11.138
▁unlike	-11.1383
09	-11.139
▁prepare	-11.139
▁pace	-11.1392
▁instruction	-11.1398
▁mir	-11.14
▁epi	-11.1402
▁rang	-11.1409
▁julie	-11.1416
▁grasp	-11.1427
▁fever	-11.1431
▁leo	-11.1432
shakes	-11.1437
▁chess	-11.1439
▁ol	-11.1443
▁driven	-11.1447
▁fee	-11.145
▁groan	-11.1456
▁gall	-11.1456
nar	-11.1458
hear	-11.146
▁sneak	-11.146
▁strain	-11.1464
▁grade	-11.1466
▁emma	-11.1467
▁landing	-11.1468
▁cries	-11.1475
36	-11.1477
▁kate	-11.1477
▁austria	-11.1481
▁celebrate	-11.1486
▁weigh	-11.1497
▁buying	-11.1498
▁institute	-11.1502
▁register	-11.1502
▁slight	-11.1503
▁bare	-11.1503
▁marked	-11.1515
▁worn	-11.1519
▁lang	-11.1523
▁precious	-11.1524
▁encourage	-11.1533
mission	-11.1534
▁muscle	-11.1539
▁painted	-11.154
▁thrill	-11.1544
ú	-11.1549
only	-11.1549
▁kissed	-11.155
▁operate	-11.1551
▁spaghetti	-11.1554
▁anchor	-11.156
▁louise	-11.156
48	-11.1561
▁jungle	-11.1565
▁horror	-11.157
▁cereal	-11.157
▁bass	-11.1571
96	-11.1572
▁raining	-11.1573
▁simon	-11.1574
▁unable	-11.1578
86	-11.1586
▁arrangement	-11.1587
▁financial	-11.1591
34	-11.1595
▁ding	-11.1598
bie	-11.16
04	-11.1602
▁construction	-11.1603
▁bern	-11.1604
▁lately	-11.1609
bin	-11.1622
▁sofa	-11.1627
▁ryan	-11.1629
▁naturally	-11.163
▁breathing	-11.1633
▁jen	-11.1635
▁shan	-11.1638
▁tools	-11.1639
▁silk	-11.164
▁granddad	-11.1644
▁poorly	-11.1645
▁tuck	-11.1647
▁lodge	-11.1648
▁parent	-11.1648
▁kin	-11.1653
92	-11.1654
▁stronger	-11.1658
▁despite	-11.166
▁sylvia	-11.166
▁somethin	-11.167
▁chose	-11.167
agon	-11.167
aun	-11.1671
▁permission	-11.1672
ox	-11.1673
▁anger	-11.1677
▁whit	-11.1683
▁helicopter	-11.1686
▁tramp	-11.1688
overlap	-11.169
▁crisp	-11.1695
▁gina	-11.1698
▁backwards	-11.1699
▁belle	-11.17
▁reign	-11.1703
▁brad	-11.1706
▁1993	-11.1709
▁acid	-11.1711
70	-11.1712
▁pope	-11.1715
master	-11.1716
▁expert	-11.1719
▁ugh	-11.1734
▁nah	-11.1741
03	-11.1743
▁environment	-11.175
▁1989	-11.1752
calais	-11.1753
▁vision	-11.1753
▁whisk	-11.1755
▁sprang	-11.1762
chu	-11.1764
07	-11.1766
▁advise	-11.1778
▁management	-11.1781
▁jeff	-11.1781
55	-11.1784
▁romantic	-11.1785
thy	-11.179
whispered	-11.179
gri	-11.1794
▁advanced	-11.1794
▁stove	-11.1796
▁letting	-11.1797
▁ellen	-11.1806
away	-11.1806
▁affection	-11.1807
▁baker	-11.1808
stitution	-11.1818
ulate	-11.1818
▁noisy	-11.1821
▁hurricane	-11.1826
▁fetch	-11.1827
▁prior	-11.1828
cri	-11.183
gel	-11.1832
▁barrel	-11.1832
▁publish	-11.1834
▁wreck	-11.1842
▁ashamed	-11.1842
▁elect	-11.1844
88	-11.1847
ille	-11.1847
ude	-11.1848
▁poem	-11.1848
▁mode	-11.1849
▁billion	-11.185
point	-11.1851
position	-11.1852
▁solve	-11.1853
▁chick	-11.1858
▁zo	-11.1858
▁christopher	-11.1858
▁netherlands	-11.1858
▁presented	-11.186
85	-11.186
▁cel	-11.1861
▁salad	-11.1861
▁returning	-11.1862
▁violent	-11.1863
02	-11.1873
band	-11.1874
▁dollar	-11.1874
▁basic	-11.188
▁missouri	-11.188
▁defeat	-11.1883
06	-11.1899
print	-11.1902
▁republican	-11.1902
▁label	-11.1903
▁stiff	-11.1904
▁fil	-11.1911
wh	-11.1918
▁von	-11.1919
▁curl	-11.1926
77	-11.1928
87	-11.1931
yan	-11.1931
oph	-11.1932
keeper	-11.1932
vocalization	-11.1936
▁completed	-11.1937
link	-11.1938
moving	-11.1941
▁bomba	-11.1942
▁slice	-11.1943
▁container	-11.1944
▁math	-11.1956
63	-11.1956
▁patch	-11.1963
▁maintain	-11.1969
42	-11.1973
▁gum	-11.1977
▁dub	-11.1977
▁briefly	-11.1979
▁marine	-11.1986
screams	-11.1988
jack	-11.199
▁succeeded	-11.1994
▁breathe	-11.1995
▁factory	-11.1995
roy	-11.1996
▁sleepy	-11.2005
▁glen	-11.2006
▁proposed	-11.201
54	-11.2011
▁package	-11.2019
gor	-11.2028
▁tradition	-11.203
▁tray	-11.203
hur	-11.2041
▁glory	-11.2043
▁sil	-11.2045
utter	-11.2051
▁smash	-11.2061
from	-11.2061
four	-11.2061
▁claus	-11.2062
▁johnson	-11.2062
▁shaking	-11.2066
▁jersey	-11.2066
▁grandad	-11.207
▁senate	-11.2079
▁cupboard	-11.2083
urg	-11.2083
referring	-11.2084
▁ability	-11.2102
▁admitted	-11.2102
▁responsibility	-11.2116
▁sounded	-11.2119
▁builder	-11.2121
▁hun	-11.2121
*	-11.2124
▁korea	-11.2127
▁loving	-11.2138
▁carolina	-11.2138
american	-11.2143
▁replace	-11.2144
▁pushes	-11.2145
▁wool	-11.2155
▁crow	-11.2158
far	-11.2166
▁grunt	-11.2175
▁lois	-11.2178
93	-11.218
▁resource	-11.2182
▁recall	-11.2185
▁carol	-11.2185
▁mental	-11.2191
▁constant	-11.2197
▁franc	-11.2198
▁defense	-11.22
▁abandon	-11.2211
▁angle	-11.2211
▁highway	-11.222
05	-11.2223
08	-11.2225
▁200	-11.2227
▁morgan	-11.2229
▁occupied	-11.2233
▁squeak	-11.2233
▁ranger	-11.2233
lop	-11.2235
june	-11.2239
▁explanation	-11.2239
▁talent	-11.2241
ural	-11.2241
▁expedition	-11.2244
▁triangle	-11.225
▁cotton	-11.225
humming	-11.2252
ivity	-11.2255
▁zero	-11.2262
▁stolen	-11.2262
▁isabel	-11.2263
count	-11.2264
▁seized	-11.2265
▁battery	-11.2275
▁sti	-11.2276
–1	-11.2279
▁agreement	-11.2279
39	-11.2282
▁1950	-11.2287
▁profit	-11.2301
geo	-11.2303
▁jeannine	-11.2306
hmm	-11.2307
▁francis	-11.2307
▁norman	-11.231
▁flour	-11.2314
▁vocalises	-11.2318
▁loyal	-11.2318
▁1984	-11.2319
▁bushes	-11.2326
▁mul	-11.2331
▁chr	-11.234
▁triumph	-11.234
▁geo	-11.2349
▁valuable	-11.2352
▁robber	-11.2354
▁portion	-11.2354
empt	-11.2355
▁stadium	-11.2357
▁headquarters	-11.2357
▁funeral	-11.2357
▁missus	-11.2359
▁sau	-11.236
▁screaming	-11.236
▁costume	-11.2363
▁surrounded	-11.2369
▁tide	-11.2375
▁stopping	-11.2376
▁furniture	-11.2386
dress	-11.2387
▁oop	-11.2387
▁beads	-11.2387
▁disco	-11.2394
▁moral	-11.2395
▁discovery	-11.2395
tree	-11.2396
▁punish	-11.2396
▁mia	-11.24
▁crush	-11.2407
▁clar	-11.2416
▁capture	-11.2416
▁mur	-11.242
▁drift	-11.2421
▁facing	-11.2423
▁lily	-11.2424
▁investigation	-11.2426
▁checked	-11.2428
44	-11.2428
▁cul	-11.243
▁constitution	-11.2434
▁argue	-11.2444
▁chin	-11.2448
38	-11.2448
▁oxford	-11.2449
▁edition	-11.245
▁limited	-11.2452
▁cape	-11.2453
▁merchant	-11.2455
perhaps	-11.2455
▁reality	-11.2456
▁politics	-11.246
▁embarrass	-11.246
▁fc	-11.246
▁joan	-11.2464
▁carbon	-11.2468
▁inhabitants	-11.2472
ground	-11.2478
▁faithful	-11.2479
▁shortly	-11.2483
itz	-11.2486
▁historical	-11.249
▁frost	-11.249
▁diver	-11.2493
gai	-11.2496
▁unfortunately	-11.2498
chen	-11.2501
▁cowboy	-11.2502
▁begun	-11.2505
▁wherever	-11.2507
▁midnight	-11.2508
bob	-11.251
▁fame	-11.251
stick	-11.2512
▁voyage	-11.2512
▁neighborhood	-11.2512
hara	-11.2513
▁meanwhile	-11.2517
▁bench	-11.2526
▁mol	-11.2535
▁polite	-11.2535
▁heavily	-11.2535
▁vacation	-11.2541
▁conscious	-11.2541
▁wy	-11.2543
78	-11.2544
▁healthy	-11.2544
▁meow	-11.2551
▁illinois	-11.2553
▁senator	-11.2554
▁loudly	-11.2554
▁economy	-11.2558
▁executive	-11.2558
94	-11.2559
▁kur	-11.2564
▁communication	-11.2564
46	-11.2568
▁girlfriend	-11.2569
▁shade	-11.2571
▁sixth	-11.2579
84	-11.2579
57	-11.2581
▁worship	-11.2582
known	-11.2589
▁momma	-11.2596
▁typical	-11.2605
▁compared	-11.2611
▁ugly	-11.2611
▁nodded	-11.2623
▁safely	-11.263
▁victoria	-11.2632
▁hind	-11.2633
while	-11.2637
▁growl	-11.2639
▁mono	-11.264
▁1987	-11.2648
▁merely	-11.2649
91	-11.265
49	-11.2651
▁interfere	-11.2653
▁accomplish	-11.2658
▁suggestion	-11.2659
▁affect	-11.2659
▁chatter	-11.2661
▁editor	-11.2664
▁creep	-11.2666
33	-11.2668
▁pete	-11.2668
▁easter	-11.2676
crying	-11.2677
arch	-11.268
▁nonsense	-11.2681
▁refuse	-11.2682
▁defence	-11.2683
▁rio	-11.2685
▁expecting	-11.2685
▁sydney	-11.2687
▁patrick	-11.2688
▁jr	-11.2691
▁launch	-11.2693
▁dur	-11.2695
▁mercy	-11.2705
▁cone	-11.2706
▁wishes	-11.2706
rob	-11.271
pul	-11.2712
jan	-11.2713
▁eagle	-11.2717
▁atlantic	-11.2717
▁principle	-11.2722
▁pacific	-11.2722
68	-11.2725
▁gather	-11.2727
▁neighbour	-11.2728
▁schedule	-11.2728
▁reform	-11.2729
▁blew	-11.2739
▁charlotte	-11.274
▁abd	-11.2743
▁majority	-11.2744
▁yuck	-11.2747
▁arrival	-11.2752
ttering	-11.2752
▁shy	-11.2753
▁anyhow	-11.2754
pass	-11.2754
▁whoever	-11.2755
unnecessary	-11.2758
▁nominated	-11.2758
▁stephen	-11.2759
76	-11.2763
last	-11.2769
▁wilson	-11.2773
▁bernard	-11.2777
▁roy	-11.278
▁poly	-11.2781
▁attached	-11.2784
▁gabriel	-11.2788
▁dull	-11.2796
▁skirt	-11.28
kie	-11.2803
▁distinguish	-11.2805
▁1972	-11.2807
▁raid	-11.281
▁1986	-11.2813
▁clothing	-11.2818
▁poll	-11.282
pie	-11.2823
▁percy	-11.2823
close	-11.2825
▁crab	-11.2827
▁commit	-11.2831
▁internet	-11.2835
▁charm	-11.2836
▁dip	-11.2837
▁charming	-11.2841
▁exception	-11.2841
▁dominic	-11.2842
▁lip	-11.2847
▁kay	-11.2854
▁exhaust	-11.2859
▁mexican	-11.2859
▁significant	-11.2859
▁vain	-11.2863
bul	-11.2866
piece	-11.2868
▁conquer	-11.2871
▁rou	-11.2875
reaches	-11.2876
▁cleaning	-11.2876
▁tele	-11.2877
▁independence	-11.2877
eau	-11.2878
▁umbrella	-11.2883
rov	-11.2886
▁breed	-11.2889
----"	-11.2891
▁liberal	-11.2892
▁pho	-11.2903
▁behave	-11.2907
▁rosa	-11.2909
▁www	-11.2912
67	-11.2913
▁compound	-11.2913
▁geography	-11.2913
▁1981	-11.2915
▁obliged	-11.2919
▁clue	-11.292
▁jake	-11.2921
▁scr	-11.2925
▁consequence	-11.2925
▁insurance	-11.2925
▁nuclear	-11.2931
▁jolly	-11.2931
▁prompt	-11.2931
▁aircraft	-11.2932
▁mau	-11.2933
▁session	-11.2935
▁purchase	-11.2937
▁pursue	-11.2938
▁previously	-11.2942
▁bake	-11.2943
▁stress	-11.2943
▁considerable	-11.2949
▁jewish	-11.2949
▁bride	-11.295
▁flush	-11.2952
▁confirmed	-11.2952
▁tube	-11.2954
▁disappointed	-11.2959
▁seventeen	-11.2961
▁echo	-11.2962
▁exam	-11.2967
▁covid	-11.2973
▁scu	-11.2986
▁estimate	-11.2992
school	-11.3005
▁rubber	-11.3011
▁reaching	-11.3013
─	-11.3016
▁friendship	-11.3022
▁lincoln	-11.3028
▁gym	-11.3029
▁swell	-11.3037
▁script	-11.3038
▁approaching	-11.3041
69	-11.3046
▁confused	-11.3046
bol	-11.3047
rating	-11.3047
▁vast	-11.3047
▁wig	-11.3047
▁nowhere	-11.3051
pol	-11.3058
æ	-11.3058
▁martine	-11.3077
whines	-11.3078
▁ceased	-11.3083
▁provision	-11.309
▁hath	-11.3092
▁adapt	-11.3098
▁budget	-11.3102
▁winnie	-11.3106
east	-11.3106
▁chimney	-11.3107
▁inquired	-11.3107
▁glow	-11.3108
rock	-11.3109
▁importance	-11.3114
lash	-11.3114
▁berlin	-11.3114
▁babe	-11.3128
▁effective	-11.3132
▁infant	-11.3133
▁draft	-11.3138
oop	-11.3144
▁snack	-11.3144
▁pretending	-11.315
61	-11.3152
▁mysterious	-11.3157
▁bah	-11.3159
▁southeast	-11.3164
▁betray	-11.3165
maker	-11.3168
coming	-11.3171
▁foundation	-11.3173
▁hatch	-11.3179
▁application	-11.3181
▁wicked	-11.3181
▁connect	-11.3188
claim	-11.3188
▁goose	-11.3188
▁preparation	-11.32
▁intend	-11.32
▁assist	-11.3203
▁delightful	-11.3204
▁fuel	-11.3211
▁authorities	-11.3213
▁1976	-11.3214
▁negative	-11.3218
▁sunny	-11.322
▁primary	-11.3225
▁mini	-11.3227
▁approached	-11.3234
▁instantly	-11.3234
▁conflict	-11.3237
grunts	-11.3241
▁80	-11.3242
▁earl	-11.3243
▁feeding	-11.3243
▁piggy	-11.3245
▁visited	-11.3255
whispering	-11.3256
aba	-11.3261
▁impression	-11.3262
▁throne	-11.3262
tony	-11.3264
▁cheat	-11.3265
▁amongst	-11.3275
▁mild	-11.3281
▁initial	-11.3281
▁ease	-11.3286
▁glanced	-11.3287
▁retreat	-11.3293
▁verse	-11.3295
▁linda	-11.3297
▁orchestra	-11.3299
▁northwest	-11.33
▁clare	-11.3312
▁crystal	-11.3313
▁pearl	-11.3314
▁pun	-11.3318
▁massachusetts	-11.3318
▁mobile	-11.3318
▁puff	-11.332
▁mah	-11.3323
aging	-11.3325
also	-11.3326
▁knot	-11.3327
▁dining	-11.3333
▁hip	-11.3337
▁generous	-11.3337
▁1979	-11.3345
▁francisco	-11.3345
▁zip	-11.3348
▁scientific	-11.3349
▁supported	-11.335
▁granny	-11.3352
cen	-11.3356
hhh	-11.3356
please	-11.336
▁peach	-11.336
▁lung	-11.336
▁boyfriend	-11.3363
never	-11.3364
56	-11.3364
▁discussion	-11.3367
▁surrounding	-11.3368
▁dirt	-11.3369
▁earned	-11.3372
72	-11.3372
▁thumb	-11.3375
▁classes	-11.3376
▁necklace	-11.3387
▁kansas	-11.3387
script	-11.3388
▁acted	-11.3394
83	-11.3398
▁bicycle	-11.34
▁injured	-11.34
▁tub	-11.3404
▁baa	-11.3407
▁commonly	-11.3414
▁cattle	-11.3415
79	-11.3415
▁limb	-11.3416
▁barry	-11.3421
▁corps	-11.3424
▁karen	-11.3425
▁premier	-11.3425
▁hindu	-11.3427
▁loft	-11.3428
▁sab	-11.3428
▁hood	-11.3431
▁zebra	-11.3433
▁theater	-11.3433
ault	-11.3437
▁solution	-11.3438
35	-11.3441
▁euro	-11.3441
▁1985	-11.3452
▁pressed	-11.3457
▁envelope	-11.3457
▁punishment	-11.3459
path	-11.3463
▁fen	-11.3473
▁resident	-11.3476
▁defeated	-11.3479
▁davis	-11.3481
▁whip	-11.3482
▁confident	-11.3489
list	-11.3489
58	-11.3492
▁tag	-11.3492
because	-11.3495
▁deeply	-11.3512
▁lab	-11.3514
▁bald	-11.3514
kel	-11.3518
▁hail	-11.3526
▁violence	-11.3527
ographic	-11.3534
▁feast	-11.3535
▁pitched	-11.354
▁exact	-11.3543
▁serving	-11.3548
▁introduce	-11.355
43	-11.3554
▁stretched	-11.3555
▁concept	-11.3557
▁rag	-11.3558
view	-11.3562
▁scored	-11.3562
▁vic	-11.3569
74	-11.358
▁bolt	-11.3583
▁pump	-11.3594
▁eliminated	-11.3598
▁strict	-11.3598
▁relieve	-11.3604
59	-11.3604
▁items	-11.3604
▁prospect	-11.3613
▁cwww	-11.3615
▁survey	-11.3617
▁illustrations	-11.3619
▁referred	-11.362
▁react	-11.3621
▁nearest	-11.3623
▁teen	-11.3626
▁separated	-11.3631
▁micro	-11.3632
82	-11.3641
▁lemme	-11.3643
▁variety	-11.3649
▁volunteer	-11.3662
▁resist	-11.3663
▁marvel	-11.3665
▁mechanic	-11.3665
▁solemn	-11.3675
▁seeds	-11.3677
▁needle	-11.368
wee	-11.368
▁officially	-11.3693
▁figured	-11.3695
▁mcc	-11.3696
▁alongside	-11.3703
▁honestly	-11.3708
▁multiple	-11.3708
ident	-11.3712
▁attitude	-11.3715
▁olympic	-11.3715
▁wrestle	-11.3721
▁illness	-11.3725
▁1983	-11.3729
▁glue	-11.373
▁debt	-11.373
▁observe	-11.3732
81	-11.3743
▁rustling	-11.3753
▁approve	-11.3754
▁bol	-11.3759
leg	-11.3761
▁presidential	-11.3761
▁committed	-11.3762
▁nar	-11.3763
▁entertain	-11.3779
kan	-11.3785
▁cigarette	-11.3786
▁steamer	-11.3791
â	-11.3793
▁lecture	-11.3793
62	-11.3797
▁remaining	-11.3802
▁responded	-11.3802
▁sailing	-11.3806
▁satisfaction	-11.3806
▁closing	-11.3814
▁foolish	-11.3815
▁ballet	-11.3816
▁taxi	-11.3825
▁deputy	-11.3826
self	-11.3827
▁promote	-11.3831
▁ceremony	-11.3832
▁invitation	-11.3832
▁attended	-11.3837
ggy	-11.3837
▁harbor	-11.3846
▁90	-11.3849
▁wu	-11.385
29	-11.3851
▁nearby	-11.3853
would	-11.3855
still	-11.386
continues	-11.3862
▁1982	-11.3867
every	-11.387
▁respond	-11.3875
▁thoroughly	-11.3878
▁insect	-11.3878
▁appointment	-11.3878
▁starring	-11.3881
▁inspector	-11.3885
▁thrust	-11.3885
▁formal	-11.3888
▁detect	-11.3888
▁invite	-11.3893
▁lewis	-11.3899
▁represented	-11.3901
▁liquid	-11.3905
▁pennsylvania	-11.3912
▁fantastic	-11.3912
range	-11.3918
▁awarded	-11.3926
baby	-11.3929
▁admire	-11.3932
pretend	-11.3935
▁murdered	-11.3943
▁drill	-11.3946
▁numerous	-11.3952
▁widow	-11.3952
▁kan	-11.3952
▁1974	-11.3953
73	-11.3954
▁sacred	-11.3958
▁muslim	-11.3958
▁cathy	-11.3958
▁austrian	-11.3964
▁zorg	-11.3965
▁achieve	-11.3968
▁kevin	-11.398
▁interrupted	-11.3981
▁vietnam	-11.3985
wise	-11.3989
▁surgery	-11.3992
71	-11.4005
▁strawberries	-11.4012
▁regiment	-11.4012
uous	-11.4034
▁larry	-11.4039
bear	-11.4041
▁literature	-11.4052
▁occasionally	-11.4054
▁dancer	-11.4062
▁thirsty	-11.4064
▁bruce	-11.4064
▁growth	-11.4068
▁lightning	-11.407
▁apologize	-11.4072
▁intelligence	-11.4072
heim	-11.4084
▁ridge	-11.4087
cord	-11.4099
▁clan	-11.4099
▁ashore	-11.41
▁paused	-11.4101
▁northeast	-11.4108
▁buffalo	-11.412
▁michigan	-11.4127
▁guardian	-11.4128
▁bail	-11.4129
▁belonged	-11.4132
▁gimme	-11.4133
▁rival	-11.4139
▁cartoon	-11.414
hall	-11.4143
▁yeh	-11.4143
▁liberty	-11.4149
▁cruise	-11.4154
▁peculiar	-11.4154
laughter	-11.4156
▁loan	-11.4161
▁column	-11.4161
gene	-11.4167
▁intense	-11.4169
▁graham	-11.4178
▁sample	-11.4184
▁zone	-11.4185
▁anxiety	-11.4188
▁kelly	-11.4188
▁digger	-11.4193
▁pregnant	-11.4195
▁hannah	-11.4195
ñ	-11.4202
▁stupid	-11.4208
▁bloom	-11.4208
cell	-11.4209
▁slope	-11.4209
▁counsel	-11.4215
▁1968	-11.4224
▁lawn	-11.4225
hole	-11.4233
though	-11.4234
▁conservative	-11.4236
▁helmet	-11.4236
▁raymond	-11.4236
▁hugh	-11.4246
▁slid	-11.4246
parent	-11.4247
▁hired	-11.425
51	-11.4253
▁beef	-11.4256
▁conclusion	-11.4257
▁oink	-11.4258
▁korean	-11.4263
▁1978	-11.4265
▁sack	-11.4267
▁hesitate	-11.4272
life	-11.4274
ulation	-11.4279
▁tremendous	-11.4284
▁unhappy	-11.4284
▁capable	-11.4289
▁mock	-11.4293
bag	-11.4294
▁involve	-11.4297
▁extent	-11.4298
▁belly	-11.43
▁anthony	-11.4312
▁breeze	-11.4312
▁composer	-11.4312
▁1975	-11.4321
▁gradually	-11.4326
bla	-11.4326
▁marble	-11.4327
▁fanny	-11.433
▁egyptian	-11.4335
▁taylor	-11.4339
▁consent	-11.4341
▁website	-11.4346
▁tang	-11.4352
▁innit	-11.4352
state	-11.4352
ography	-11.4355
▁enjoying	-11.4356
▁steep	-11.4365
▁annual	-11.4369
▁critical	-11.4373
▁preserve	-11.4376
▁brazilian	-11.4377
▁32	-11.4378
▁✿	-11.4381
▁meters	-11.4388
▁peasant	-11.4391
▁sought	-11.4394
▁dallas	-11.4395
▁joey	-11.4396
▁hollow	-11.4398
▁convinced	-11.4398
▁sniff	-11.4402
stead	-11.441
▁ry	-11.4412
▁bio	-11.4416
scope	-11.4416
▁activities	-11.4416
▁1969	-11.4418
▁poke	-11.442
▁cracker	-11.4421
mail	-11.4421
▁1977	-11.4425
ón	-11.4428
▁jay	-11.4438
▁amanda	-11.4438
▁cabinet	-11.4441
▁statue	-11.4444
▁cuddle	-11.4445
three	-11.4447
▁jon	-11.445
▁incredible	-11.4451
aire	-11.4454
▁basis	-11.4458
▁depth	-11.4465
cca	-11.4466
nik	-11.4468
▁2021)	-11.4468
▁alphabet	-11.4472
▁gorgeous	-11.4472
▁journalist	-11.4475
▁sailed	-11.4475
▁skip	-11.4478
▁ignore	-11.4479
▁packed	-11.4481
teacher	-11.4482
▁impact	-11.4482
▁rainbow	-11.4486
▁swept	-11.4486
burn	-11.4491
▁railroad	-11.4493
▁technical	-11.4493
▁leslie	-11.4493
▁golf	-11.4495
▁studying	-11.45
▁animated	-11.45
▁mice	-11.45
▁churches	-11.4501
▁jordan	-11.4507
▁extreme	-11.4508
rang	-11.4508
▁scottish	-11.451
▁parrot	-11.4514
▁pinch	-11.4516
▁lawrence	-11.4521
▁1973	-11.453
▁flies	-11.4533
▁35	-11.4533
▁diana	-11.4535
▁monsieur	-11.4536
▁delicate	-11.4543
▁manchester	-11.4553
▁restore	-11.4556
▁miller	-11.4558
▁robinson	-11.456
matic	-11.4564
▁transfer	-11.4571
▁todd	-11.4576
▁additional	-11.4577
▁congratulations	-11.4578
▁suspicion	-11.4578
▁lwww	-11.4582
▁touches	-11.4586
▁ruler	-11.4587
▁blake	-11.4596
▁70	-11.4596
eur	-11.4598
psych	-11.4599
▁administration	-11.4599
▁(18	-11.4601
kov	-11.4614
▁raw	-11.4617
gasp	-11.462
▁loire	-11.4622
▁dropping	-11.4624
vision	-11.4627
200	-11.4632
▁sleeve	-11.4642
▁kenneth	-11.4642
▁explosion	-11.4649
▁viv	-11.4655
▁option	-11.466
▁cherry	-11.466
high	-11.4662
▁composed	-11.4664
▁harold	-11.4666
▁extended	-11.4668
53	-11.4673
▁tennis	-11.4679
▁unexpected	-11.4692
elia	-11.4704
▁compete	-11.4706
5,000	-11.4709
▁adopted	-11.4714
▁dried	-11.4715
▁poland	-11.4716
girl	-11.4727
▁clam	-11.4728
▁regional	-11.4732
▁lemon	-11.4739
▁orbit	-11.4746
▁cancel	-11.4747
▁awfully	-11.4756
▁convert	-11.4759
▁1971	-11.4759
▁panda	-11.476
▁alcohol	-11.4765
▁threatened	-11.4765
▁loo	-11.4768
▁cannon	-11.4768
▁jury	-11.4768
▁emily	-11.477
▁virus	-11.477
▁kong	-11.477
▁waving	-11.477
front	-11.4775
▁flesh	-11.4779
▁rider	-11.478
woman	-11.4787
▁peg	-11.4789
▁essential	-11.4794
▁vine	-11.4801
▁peek	-11.4804
▁1930	-11.4806
▁avenue	-11.4808
▁graeme	-11.4808
▁vow	-11.4817
home	-11.4819
▁cable	-11.4821
▁behavior	-11.4823
▁disaster	-11.4823
▁saddle	-11.4827
▁terribly	-11.483
fur	-11.4838
▁horizon	-11.4845
ought	-11.4845
▁bundle	-11.4852
▁collar	-11.4854
▁stout	-11.4861
▁monk	-11.4866
▁industrial	-11.4866
▁nickname	-11.4867
▁mole	-11.4869
▁heath	-11.4869
▁launched	-11.4874
▁ginger	-11.4875
▁jaw	-11.4875
▁howard	-11.4884
▁insisted	-11.4889
wind	-11.4895
▁kindness	-11.4902
taking	-11.4909
▁——	-11.491
▁sandwiches	-11.4915
▁spear	-11.4919
▁succeed	-11.4925
▁recovered	-11.4926
▁skate	-11.494
▁electricity	-11.4945
▁potential	-11.4947
▁revenge	-11.4947
▁particle	-11.4947
▁bib	-11.495
▁cole	-11.4952
▁barely	-11.4952
▁sav	-11.4954
▁esp	-11.4954
▁reception	-11.4955
glass	-11.4955
refers	-11.4958
▁plug	-11.496
▁disgust	-11.4969
▁jacob	-11.4969
▁favourite	-11.497
▁pickle	-11.4974
▁blast	-11.4976
▁childsname	-11.4977
▁freeze	-11.4981
▁superior	-11.4984
▁oxygen	-11.4992
▁atmosphere	-11.4999
▁“‘	-11.5001
▁hippo	-11.5001
▁disagree	-11.5006
▁assured	-11.5007
500	-11.501
▁scissors	-11.5014
pher	-11.5014
▁associated	-11.5027
made	-11.5027
▁increasing	-11.5029
▁agency	-11.5029
▁tokyo	-11.5029
▁proceeded	-11.5031
▁crane	-11.5033
▁ribbon	-11.5036
▁baron	-11.5036
32	-11.5038
▁cj	-11.5038
▁distress	-11.5043
▁engineering	-11.5047
▁lib	-11.5051
▁seth	-11.5056
▁enormous	-11.5058
▁blank	-11.5067
▁childhood	-11.5068
▁burden	-11.5071
▁ferr	-11.5071
▁absence	-11.5073
▁wink	-11.5087
sail	-11.5094
▁vocal	-11.5102
▁personally	-11.5106
▁franklin	-11.511
▁monarch	-11.5111
▁clara	-11.5117
▁aeroplane	-11.5118
▁evolution	-11.5118
▁visible	-11.5118
▁poetry	-11.5122
▁insist	-11.5133
▁assistance	-11.5134
▁1964	-11.5136
▁patty	-11.5139
▁1967	-11.5143
▁sank	-11.5149
▁jonathan	-11.5156
▁domestic	-11.5156
▁leather	-11.5163
hir	-11.5167
▁quote	-11.5172
▁catherine	-11.5178
▁attorney	-11.5178
▁wrapped	-11.5179
ession	-11.5179
▁communist	-11.5186
▁louder	-11.5186
▁summon	-11.5188
▁applied	-11.5194
hang	-11.5204
▁smoking	-11.5209
ograph	-11.5213
▁suicide	-11.5216
▁swiss	-11.5216
▁status	-11.5224
▁grief	-11.5225
▁thorn	-11.5228
▁kisses	-11.5229
▁zoe	-11.5238
▁permanent	-11.5239
▁oscar	-11.524
little	-11.5245
▁useless	-11.5252
▁shine	-11.5253
▁fridge	-11.526
▁miserable	-11.5262
▁interpret	-11.5262
▁jill	-11.5266
▁dread	-11.5272
▁flor	-11.5275
▁gathering	-11.5275
▁illustrated	-11.5277
▁decent	-11.5277
▁affected	-11.5285
▁gap	-11.5298
▁samuel	-11.53
▁whilst	-11.5307
▁bavaria	-11.5308
▁centuries	-11.5315
▁cushion	-11.5315
case	-11.5322
▁morris	-11.5329
fresh	-11.5331
▁douglas	-11.5338
▁crept	-11.5338
communi	-11.5342
▁convention	-11.5346
▁nevertheless	-11.5346
▁electronic	-11.5351
▁mourn	-11.5354
▁num	-11.5355
▁obtain	-11.5356
▁boring	-11.5359
▁brow	-11.5362
▁helpless	-11.5367
tape	-11.5368
▁alligator	-11.5369
▁ranch	-11.5371
▁employee	-11.5379
▁organized	-11.5386
smith	-11.5386
▁apply	-11.5389
▁autumn	-11.54
▁luke	-11.5403
▁firing	-11.5406
▁supreme	-11.5407
▁batteries	-11.5409
▁fake	-11.5417
▁encounter	-11.5419
▁ralph	-11.5423
▁pupil	-11.5423
▁kangaroo	-11.543
▁biography	-11.5439
▁gear	-11.5441
▁timber	-11.5443
▁demon	-11.5445
▁awesome	-11.5454
guard	-11.5454
▁1940	-11.5457
▁mistaken	-11.5457
▁olive	-11.5457
▁brass	-11.5457
▁frequently	-11.5462
▁genus	-11.5462
▁existence	-11.5465
▁underground	-11.5466
chris	-11.5467
▁proposal	-11.5469
▁expense	-11.547
both	-11.5475
▁calendar	-11.5477
▁sympathy	-11.5485
▁yourselves	-11.5485
▁bronze	-11.5485
▁possibility	-11.5493
▁predict	-11.5494
▁duties	-11.5495
▁kha	-11.5496
▁peel	-11.5496
▁constantly	-11.5504
▁thief	-11.5508
billboard	-11.5511
▁clerk	-11.5517
▁obvious	-11.5518
▁dynasty	-11.5532
▁dragged	-11.5532
▁illegal	-11.5539
▁khan	-11.554
▁nasty	-11.554
▁rib	-11.5547
▁phrase	-11.5547
▁soccer	-11.5547
▁lace	-11.5549
▁spray	-11.5549
▁squash	-11.5555
whining	-11.5566
▁remarkable	-11.5566
▁abuse	-11.557
▁fog	-11.5571
▁trailer	-11.5571
▁rage	-11.5574
lift	-11.5575
▁corporation	-11.5579
▁grain	-11.5579
jw	-11.5585
▁broom	-11.5586
▁guinea	-11.5587
▁vest	-11.5589
▁rig	-11.5595
▁remi	-11.5596
▁copper	-11.5596
▁kite	-11.5597
▁accused	-11.5602
▁priscilla	-11.5602
▁surrender	-11.561
▁dug	-11.5615
▁persuade	-11.5618
▁pistol	-11.5618
▁literally	-11.5634
▁philadelphia	-11.5634
▁rebel	-11.5634
▁assault	-11.5635
▁troop	-11.5635
▁gloom	-11.5637
▁impatient	-11.5642
▁conceal	-11.5642
▁1966	-11.5644
free	-11.5647
▁nephew	-11.5649
▁cheeky	-11.5653
page	-11.5654
▁tumble	-11.5656
▁copies	-11.5657
▁unconscious	-11.5657
▁warned	-11.5665
▁skipper	-11.5683
mount	-11.5684
power	-11.5689
▁swung	-11.5691
▁edna	-11.5693
▁alternative	-11.5697
▁quarrel	-11.5697
▁shield	-11.5697
▁moses	-11.5702
▁haul	-11.5704
▁leak	-11.5708
▁global	-11.5714
▁patrol	-11.5715
▁creation	-11.5717
ā	-11.5721
▁gross	-11.5723
▁sponge	-11.5729
enberg	-11.573
untranscribed	-11.5737
grand	-11.5738
▁mast	-11.5756
▁deposit	-11.5761
▁invest	-11.5762
▁miracle	-11.5769
think	-11.5772
etta	-11.5773
▁monte	-11.5779
lick	-11.5779
keep	-11.5784
▁appropriate	-11.5789
maybe	-11.5789
▁mississippi	-11.5793
▁packet	-11.5798
▁obtained	-11.58
▁jessie	-11.5813
▁drank	-11.5817
▁debate	-11.5819
▁nazi	-11.5824
▁admiral	-11.5825
▁burton	-11.583
▁archer	-11.5847
▁arnold	-11.5849
▁sheriff	-11.5849
▁comin	-11.5855
▁panic	-11.5865
▁arkansas	-11.5865
▁chasing	-11.587
▁500	-11.5872
▁pierre	-11.5874
▁bureau	-11.5874
▁license	-11.5882
▁withdraw	-11.5883
▁observation	-11.589
▁goddess	-11.589
▁persian	-11.5891
▁disorder	-11.5898
▁southwest	-11.5898
horn	-11.59
▁hint	-11.5902
▁depression	-11.5906
▁careless	-11.5915
▁resolved	-11.5918
▁unique	-11.5919
▁personality	-11.5922
▁ridiculous	-11.5922
▁resume	-11.5931
▁resistance	-11.594
▁bacon	-11.5941
▁kang	-11.5942
▁evident	-11.5949
▁1945	-11.595
▁kh	-11.5951
▁accompanied	-11.5955
▁daylight	-11.5955
hearted	-11.5963
▁swamp	-11.5967
▁porch	-11.597
▁suspicious	-11.5971
▁manufacture	-11.5979
▁administrative	-11.5987
▁classic	-11.5994
▁moscow	-11.5995
▁roast	-11.5997
{	-11.6004
▁wendy	-11.6005
▁software	-11.6012
▁chef	-11.6012
hello	-11.6026
▁concluded	-11.6028
▁rhyme	-11.6028
▁transform	-11.603
▁memories	-11.6037
▁suburb	-11.6037
▁peaceful	-11.6039
▁enable	-11.6041
squeals	-11.6043
craft	-11.6051
▁fossil	-11.6053
▁extend	-11.6065
▁parcel	-11.6067
▁dennis	-11.607
▁urban	-11.607
▁patience	-11.6078
▁midst	-11.6082
▁viii	-11.6084
▁messenger	-11.6086
▁tourist	-11.6091
▁instinct	-11.6094
▁potty	-11.6095
▁waist	-11.6099
▁expand	-11.6105
▁combat	-11.6106
▁karl	-11.6108
▁massive	-11.6111
▁juan	-11.6114
▁cultural	-11.6119
▁drain	-11.6121
▁beaten	-11.6124
▁virgin	-11.6131
▁gettin	-11.6136
▁objection	-11.6136
▁stool	-11.6137
▁acquaintance	-11.6144
▁swedish	-11.6144
poor	-11.6146
▁extraordinary	-11.6152
▁submarine	-11.6152
▁robot	-11.6155
▁happily	-11.6161
▁damn	-11.6163
▁alabama	-11.6169
▁anxiously	-11.6172
▁crop	-11.618
▁columbia	-11.6186
▁outfit	-11.6195
class	-11.6203
▁insult	-11.6212
▁technique	-11.6227
▁thread	-11.6234
ancy	-11.6236
▁mischief	-11.6244
▁austin	-11.6244
▁referring	-11.6247
▁suitcase	-11.6253
▁confusion	-11.6254
▁liber	-11.6269
▁curse	-11.6274
▁despair	-11.6278
▁participate	-11.6278
▁error	-11.6279
▁painful	-11.6284
▁circuit	-11.6295
▁housing	-11.6295
▁cinema	-11.6295
▁gulf	-11.63
▁hastily	-11.6304
▁meadow	-11.6304
nothing	-11.6309
▁joking	-11.6318
▁gau	-11.632
▁complicated	-11.632
▁confirm	-11.6324
▁hong	-11.6326
▁colleague	-11.6328
▁reputation	-11.6328
▁genera	-11.6332
songwriter	-11.6337
babbling	-11.6338
▁curiosity	-11.6345
▁1956	-11.6348
▁jackie	-11.6348
▁holland	-11.635
court	-11.6359
▁invented	-11.6363
▁digging	-11.6367
▁norway	-11.6372
western	-11.6378
▁diploma	-11.6379
first	-11.6388
▁naval	-11.6393
▁preparing	-11.6397
▁jews	-11.6397
▁govern	-11.6403
▁lest	-11.641
▁tech	-11.6412
▁bash	-11.6413
▁guarantee	-11.6413
▁impressed	-11.6413
▁blade	-11.6415
▁reasonable	-11.642
▁hooray	-11.6423
▁genius	-11.644
media	-11.6447
▁destruction	-11.6448
▁procedure	-11.6448
ô	-11.6448
▁arrange	-11.6453
▁frozen	-11.6456
▁greece	-11.6456
▁katie	-11.6462
wash	-11.6467
▁shu	-11.6472
▁lego	-11.6473
▁trump	-11.6473
▁1965	-11.6494
▁evelyn	-11.65
ç	-11.6508
▁operating	-11.6513
▁causing	-11.6518
lect	-11.6521
shirt	-11.6521
▁crisis	-11.6522
▁benjamin	-11.6525
▁inclined	-11.6525
▁abroad	-11.6525
▁accent	-11.6534
▁wolves	-11.6542
nick	-11.6548
▁lump	-11.6556
▁pension	-11.6561
▁coke	-11.6564
▁lick	-11.6569
▁furious	-11.658
black	-11.658
member	-11.6581
▁digital	-11.6586
▁stanley	-11.659
▁raising	-11.6591
▁melissa	-11.6594
▁terrific	-11.6594
▁dessert	-11.6594
▁forehead	-11.6595
▁accustomed	-11.6603
▁beloved	-11.6603
▁precise	-11.6603
▁scattered	-11.6603
▁fright	-11.6606
▁ruff	-11.6608
▁metropolitan	-11.6612
▁hitting	-11.6613
▁awkward	-11.662
▁hamburger	-11.662
▁startled	-11.6628
▁perceive	-11.6629
▁iowa	-11.6631
▁refuge	-11.6638
▁foe	-11.6645
coat	-11.6646
ective	-11.6656
▁automobile	-11.6664
▁minnesota	-11.6664
▁harris	-11.6672
▁ceiling	-11.6673
▁colony	-11.6674
▁realise	-11.6674
▁latest	-11.6683
▁payment	-11.6687
▁liz	-11.6704
▁?[	-11.6709
▁1961	-11.671
▁flock	-11.6712
▁swan	-11.6721
zzle	-11.6724
▁divide	-11.6732
▁maiden	-11.6734
▁pancake	-11.6743
▁gerald	-11.6743
▁orphan	-11.6743
▁boris	-11.6751
▁wrist	-11.6752
▁alaska	-11.6752
▁birdie	-11.6758
▁hose	-11.6765
▁greg	-11.6765
▁absorb	-11.677
▁philippine	-11.677
▁substance	-11.6779
▁greeting	-11.6779
▁consideration	-11.6792
▁sophie	-11.6796
▁claire	-11.6797
▁hank	-11.6798
▁unfortunate	-11.6801
▁muttered	-11.6805
▁earthquake	-11.6814
▁napkin	-11.6834
▁1963	-11.6834
▁imagination	-11.6841
▁cuba	-11.6846
▁imperial	-11.685
▁yield	-11.685
▁emerge	-11.6852
▁violin	-11.6859
▁300	-11.686
hush	-11.6862
okay	-11.6864
▁alert	-11.6864
▁symptoms	-11.6876
▁vienna	-11.6876
▁nappie	-11.6877
bound	-11.6882
▁examination	-11.6885
▁elbow	-11.6885
▁collapse	-11.6885
▁1947	-11.6888
▁chalk	-11.6896
▁1959	-11.6897
▁judy	-11.6899
▁travelling	-11.6899
▁raven	-11.6901
▁cycle	-11.6905
▁attractive	-11.6912
▁shepherd	-11.6912
▁judgment	-11.693
▁bbc	-11.6931
▁adjust	-11.6941
▁historian	-11.6948
▁snail	-11.6948
▁conductor	-11.6957
――	-11.6957
▁universal	-11.6957
▁martha	-11.6967
▁alfred	-11.6975
▁construct	-11.6982
▁injury	-11.6984
▁torture	-11.6985
▁sultan	-11.6986
▁1962	-11.6996
▁journal	-11.6999
▁handkerchief	-11.7002
▁kettle	-11.7002
▁antonio	-11.7002
▁turk	-11.7006
▁worldwide	-11.7011
▁decade	-11.7013
▁rebecca	-11.702
----------------	-11.7023
▁1948	-11.7023
▁characteristic	-11.7031
▁investment	-11.7032
▁flung	-11.7036
▁selfish	-11.7037
arrondissement	-11.7039
▁environmental	-11.7049
▁xxi	-11.705
▁headache	-11.7056
▁malcolm	-11.7057
▁glorious	-11.7057
▁opposition	-11.7057
flower	-11.7059
▁electron	-11.707
▁parade	-11.707
style	-11.7074
▁investigator	-11.7084
▁humor	-11.7096
▁vroom	-11.7101
▁ancestor	-11.7102
▁infection	-11.7103
▁retain	-11.711
▁pajamas	-11.7112
help	-11.7114
▁disappointment	-11.7122
▁lucia	-11.7123
▁whirl	-11.7123
▁phase	-11.7132
▁crumb	-11.714
▁pep	-11.7146
▁blossom	-11.7148
▁nanny	-11.7156
▁stuart	-11.7158
▁twinkle	-11.7167
▁activist	-11.7176
▁michelle	-11.7178
▁supplies	-11.7185
▁install	-11.7187
step	-11.7193
▁assassin	-11.7194
▁identity	-11.7204
▁pudding	-11.7204
▁permit	-11.7211
▁combination	-11.7213
▁1958	-11.7215
▁fastened	-11.7218
grm	-11.722
▁skull	-11.7222
▁1952	-11.7231
istan	-11.7233
▁1957	-11.7234
whimper	-11.7241
▁loop	-11.7246
▁nelson	-11.725
integr	-11.7251
color	-11.726
▁naked	-11.7264
▁debbie	-11.7268
▁smack	-11.7269
—”	-11.7271
▁elevator	-11.7278
▁magnificent	-11.7278
▁devoted	-11.7278
malley	-11.7286
▁accompany	-11.7287
▁escort	-11.7287
fold	-11.7291
▁charity	-11.7294
▁athletic	-11.7296
▁valentine	-11.7296
▁gesture	-11.7296
▁poop	-11.7297
▁urged	-11.7298
▁shiver	-11.7298
▁ambassador	-11.7306
▁furnish	-11.7306
suit	-11.7324
▁monitor	-11.7334
▁necessarily	-11.7343
▁concentrate	-11.7343
▁classical	-11.7348
▁shriek	-11.7352
▁mortal	-11.7355
▁sector	-11.7358
▁identify	-11.7362
▁automatic	-11.7362
▁internal	-11.7362
▁spl	-11.7364
▁recognise	-11.7371
▁runner	-11.7374
▁scrub	-11.7383
▁immense	-11.739
idae	-11.74
▁kra	-11.7404
▁clasp	-11.7419
▁romance	-11.7422
▁chapel	-11.7425
▁syria	-11.7435
▁preach	-11.7435
~	-11.7439
▁motorcycle	-11.7447
▁stake	-11.7448
▁genetic	-11.7449
▁hopefully	-11.7455
▁plunge	-11.7466
▁stoop	-11.7479
▁physics	-11.7494
▁sharing	-11.7495
something	-11.7498
touches	-11.7506
▁slim	-11.7513
▁opposed	-11.7513
▁discipline	-11.7523
▁uncomfortable	-11.7523
▁conscience	-11.7532
▁athlete	-11.7532
white	-11.7536
▁immediate	-11.7538
▁coward	-11.7542
▁aaron	-11.7546
▁scramble	-11.7552
▁squeal	-11.7554
▁cathedral	-11.7561
fast	-11.7563
▁brooklyn	-11.7571
▁caesar	-11.758
▁controlled	-11.7581
clears	-11.7582
▁bracelet	-11.759
▁combined	-11.759
▁remote	-11.759
▁counties	-11.759
▁kennedy	-11.7609
▁seldom	-11.7609
april	-11.7612
▁advertise	-11.7618
▁compliment	-11.7618
▁robbie	-11.7619
▁nothin	-11.7629
▁compass	-11.7629
▁jamie	-11.7637
▁municipalities	-11.7638
▁snatch	-11.7647
▁terry	-11.7648
š	-11.7657
▁satellite	-11.7657
▁1946	-11.766
▁petrol	-11.7675
word	-11.7677
▁merged	-11.7677
pushes	-11.7679
▁frighten	-11.7682
▁turkish	-11.7688
▁correspond	-11.7696
▁receiving	-11.7696
▁dustbin	-11.7696
▁amusement	-11.7706
▁georg	-11.7712
▁shone	-11.7715
▁interior	-11.7725
▁inspired	-11.7726
▁dispute	-11.7727
total	-11.7728
▁haunt	-11.7729
▁explorer	-11.7736
▁philosophy	-11.7744
▁louisiana	-11.7744
▁vanished	-11.7745
▁jazz	-11.7748
▁harrison	-11.7749
nese	-11.7753
▁saxon	-11.7754
▁prefecture	-11.7764
▁nomination	-11.7774
▁circum	-11.7784
▁rotten	-11.7784
▁consume	-11.7785
▁haut	-11.7791
£	-11.7793
▁neglect	-11.7793
▁foster	-11.7798
▁lobster	-11.7803
▁niece	-11.7803
▁pioneer	-11.7813
ć	-11.7823
▁opponent	-11.7823
▁vet	-11.7824
▁bleeding	-11.7833
▁fifa	-11.7838
▁minus	-11.7841
▁intelligent	-11.7842
▁portugal	-11.7842
▁starred	-11.7848
▁dimitra	-11.7852
▁singapore	-11.7852
▁memorial	-11.7852
▁departure	-11.7852
||1||	-11.7856
silver	-11.7857
▁armenian	-11.7858
▁wheat	-11.7863
▁1920	-11.7864
▁1949	-11.7865
▁panel	-11.7866
course	-11.7869
▁spike	-11.787
▁permitted	-11.7874
▁snip	-11.7877
▁potter	-11.7879
▁dramatic	-11.7881
▁extinct	-11.7882
▁gallop	-11.7883
née	-11.7884
▁1942	-11.7895
▁trembling	-11.7902
▁hypo	-11.7921
▁distract	-11.7922
▁shovel	-11.7922
▁bargain	-11.7932
▁renew	-11.7935
▁cupcake	-11.7941
▁nepal	-11.7942
▁hydro	-11.7942
▁volleyball	-11.7951
world	-11.7955
▁harmon	-11.7962
children	-11.7968
direct	-11.7969
▁farewell	-11.7981
▁uncertain	-11.7982
▁adopt	-11.7997
▁fearful	-11.8001
▁welsh	-11.8002
▁1954	-11.8004
▁exhibition	-11.8006
▁suitable	-11.8013
▁propose	-11.8019
▁surgeon	-11.8021
▁axe	-11.8025
▁jose	-11.8028
bank	-11.8038
--------------	-11.8052
horse	-11.8063
▁slam	-11.8063
▁pub	-11.8069
▁sensible	-11.8072
▁shakespeare	-11.8082
▁wisdom	-11.8082
▁trigger	-11.8083
▁lettuce	-11.8102
▁decline	-11.8107
▁chemistry	-11.8113
▁1955	-11.8115
▁dialect	-11.8122
▁investigate	-11.8132
▁russell	-11.8142
▁1939	-11.8145
▁submit	-11.8153
▁alliance	-11.8153
▁slap	-11.8157
▁modest	-11.8157
▁historic	-11.8162
▁execution	-11.8163
▁cunning	-11.8163
▁metres	-11.8163
▁alec	-11.8165
▁flee	-11.8167
indistinct	-11.8173
▁scientist	-11.8173
▁anderson	-11.8179
blows	-11.818
▁jennifer	-11.8183
▁forbidden	-11.8193
▁harp	-11.8195
▁batter	-11.8199
▁sensation	-11.8204
▁acknowledge	-11.8214
▁surprising	-11.8214
▁striking	-11.8214
▁councillor	-11.8216
▁resolution	-11.8224
▁deliberate	-11.8234
▁molecule	-11.8234
▁pigeon	-11.8234
▁pursuit	-11.8234
▁volcano	-11.8238
▁explore	-11.8244
▁visual	-11.8244
▁warrant	-11.8245
▁yorkshire	-11.8247
▁brenda	-11.8255
▁sneeze	-11.8259
▁absolute	-11.8262
▁ministry	-11.8265
moans	-11.8272
▁dakota	-11.8275
▁rhode	-11.8275
▁pluck	-11.8275
people	-11.8279
▁paddle	-11.8281
▁hollywood	-11.8285
▁lengthened	-11.8287
▁trapped	-11.829
▁ultimate	-11.8296
▁indonesia	-11.8296
▁canvas	-11.8309
▁scarlet	-11.8309
▁mushroom	-11.8316
▁privilege	-11.8316
▁medium	-11.8327
▁lantern	-11.8337
cloth	-11.8342
▁belgium	-11.8347
▁beaver	-11.8348
▁waffle	-11.8358
▁globe	-11.8363
▁creating	-11.8373
▁entry	-11.8374
▁dolphin	-11.8378
great	-11.8381
▁1943	-11.8381
▁scoop	-11.8393
▁analysis	-11.8399
▁octopus	-11.8399
▁knit	-11.84
▁retirement	-11.8401
▁struggling	-11.841
▁temporary	-11.841
▁discharge	-11.841
▁essay	-11.842
▁humble	-11.8421
▁popped	-11.8423
▁irene	-11.8427
▁behaviour	-11.8431
▁capacity	-11.8431
could	-11.8436
▁blaze	-11.8437
▁pilgrim	-11.8441
▁abraham	-11.8441
▁fulfil	-11.8441
▁confederate	-11.8451
▁1941	-11.8472
▁1944	-11.8475
▁introduction	-11.8483
▁exposed	-11.8483
▁imitate	-11.849
pulls	-11.849
▁joyce	-11.8492
▁peninsula	-11.8493
woo	-11.8498
▁invasion	-11.8504
▁absent	-11.8504
▁harvey	-11.8504
▁rhythm	-11.8514
▁identified	-11.8525
à	-11.8525
▁distribution	-11.8536
▁nellie	-11.8536
▁invade	-11.8539
▁enterprise	-11.8546
▁earliest	-11.8546
footnote	-11.855
▁architect	-11.8556
▁occupation	-11.8557
▁rural	-11.8559
▁wives	-11.8561
watch	-11.8579
▁hermit	-11.8596
▁specimen	-11.8599
▁crunch	-11.8601
grf	-11.8623
active	-11.8624
▁uefa	-11.8631
▁1951	-11.8634
▁sensitive	-11.8642
▁dollhouse	-11.8647
▁brew	-11.8659
▁select	-11.8663
▁crust	-11.8663
▁stump	-11.8667
▁hamilton	-11.8674
▁casual	-11.8674
▁ernest	-11.8674
▁properties	-11.8675
▁taperecorder	-11.8684
▁bangladesh	-11.8695
▁bradford	-11.8696
▁slightest	-11.8699
▁resort	-11.8706
▁oklahoma	-11.8717
▁architecture	-11.8717
▁harvest	-11.8717
▁clinic	-11.8719
starts	-11.8734
▁freak	-11.8744
▁solomon	-11.8749
▁gleam	-11.8749
▁dizzy	-11.876
▁sentiment	-11.876
▁associate	-11.8763
▁steadily	-11.877
▁1953	-11.8773
▁ukraine	-11.8792
▁promotion	-11.8793
▁halloween	-11.8803
▁tennessee	-11.8803
▁exhibit	-11.8808
▁appetite	-11.8814
▁lloyd	-11.8814
▁marshall	-11.8816
▁cardinal	-11.8825
▁contrary	-11.8836
▁explode	-11.8847
▁accord	-11.8851
▁iraq	-11.8857
▁engagement	-11.8859
listen	-11.8869
▁cambridge	-11.8879
▁thanksgiving	-11.8879
▁disgrace	-11.8879
▁popcorn	-11.8881
▁aisne	-11.8881
▁argentina	-11.8901
▁sustain	-11.8901
▁banner	-11.8916
knock	-11.8917
▁sequence	-11.8923
."--_	-11.8923
▁restrict	-11.8924
▁frederick	-11.8934
▁1936	-11.8937
▁ledge	-11.8945
▁sketch	-11.8945
▁rosie	-11.8949
▁rosy	-11.8952
▁narrator	-11.8956
▁dignity	-11.8956
edinburgh	-11.8967
▁divine	-11.8968
▁torch	-11.897
▁chorus	-11.897
▁errand	-11.8978
▁basin	-11.8986
▁contribution	-11.8989
▁glimpse	-11.8989
▁samantha	-11.8989
▁unpleasant	-11.8989
▁spiritual	-11.9002
|	-11.9011
▁johann	-11.9011
▁sunset	-11.9017
▁1938	-11.9025
▁tyler	-11.9026
▁1934	-11.9037
▁gail	-11.904
▁hydrogen	-11.9045
▁gilbert	-11.9046
▁cemetery	-11.9055
▁dwarf	-11.9078
▁declare	-11.9083
▁subsid	-11.9092
ibility	-11.91
▁tremble	-11.9122
▁spinning	-11.9125
▁spencer	-11.9134
▁rosalie	-11.9145
▁phillip	-11.9146
▁vega	-11.9148
▁finance	-11.9149
picture	-11.915
▁amused	-11.9157
throws	-11.9167
▁violet	-11.9167
“	-11.9173
▁contrast	-11.919
▁abc	-11.92
▁academic	-11.9212
▁paralympic	-11.9212
▁sponsor	-11.9212
▁leonard	-11.9212
▁moonlight	-11.9228
▁scold	-11.9228
▁vital	-11.9231
witch	-11.9235
▁1933	-11.9238
▁vincent	-11.9246
▁selection	-11.925
manchester	-11.9252
▁ragged	-11.9253
▁portuguese	-11.9258
▁czech	-11.9269
▁gazing	-11.9269
tropic	-11.9279
▁pronounced	-11.928
simultaneous	-11.9292
▁disguise	-11.9292
▁yacht	-11.9293
▁ornament	-11.9303
▁restrain	-11.9303
▁raft	-11.9304
▁admiration	-11.9314
▁exclamation	-11.9314
▁jessica	-11.9327
▁achievement	-11.933
▁bacteria	-11.9337
▁landscape	-11.9337
▁heritage	-11.9338
fashioned	-11.9339
truck	-11.9339
▁polar	-11.9345
▁federation	-11.9349
▁harbour	-11.9349
▁monument	-11.9349
▁nigeria	-11.9349
trust	-11.9352
▁pandemic	-11.936
▁transferred	-11.9362
▁napoleon	-11.9372
▁translation	-11.9372
▁comedian	-11.9373
▁frown	-11.9373
▁geoffrey	-11.9395
▁ladybird	-11.9398
▁fifi	-11.9403
stream	-11.9404
▁constituency	-11.9406
▁decoration	-11.9406
▁mixture	-11.9408
▁signature	-11.9429
▁clatter	-11.943
▁jennie	-11.9442
▁gallant	-11.9445
▁routine	-11.9452
▁employment	-11.9459
▁fragment	-11.9464
▁stewart	-11.9464
▁keith	-11.9464
▁kentucky	-11.9475
▁astonishment	-11.9487
▁maisie	-11.9487
▁convey	-11.9488
groans	-11.9491
▁bloke	-11.9499
▁accurate	-11.951
▁prophet	-11.9511
▁gallery	-11.9511
▁residence	-11.9522
▁enthusiasm	-11.9534
▁grammy	-11.9534
▁drake	-11.9534
▁grabbed	-11.9534
▁proportion	-11.9545
▁urgent	-11.9545
▁ronald	-11.9546
▁pierce	-11.9557
▁nightmare	-11.9558
▁communicate	-11.9569
▁dedicated	-11.958
▁gratitude	-11.958
▁sequel	-11.958
▁context	-11.9592
▁genuine	-11.9592
▁regulation	-11.9593
▁trumpet	-11.9594
▁slug	-11.9597
▁invisible	-11.9604
▁flavor	-11.9604
▁edith	-11.9604
osaurus	-11.9606
▁bruise	-11.9606
ovich	-11.9617
▁oars	-11.9632
→	-11.9634
▁clutch	-11.9639
▁arizona	-11.9651
▁calculate	-11.9651
▁oath	-11.9651
▁barrier	-11.9663
▁lollipop	-11.9675
▁carrier	-11.9675
▁deaf	-11.9687
▁resent	-11.969
▁communities	-11.9698
▁ethan	-11.9699
▁nigel	-11.9724
▁nowadays	-11.9734
▁gracious	-11.9736
▁snapped	-11.9736
▁approval	-11.9746
▁philosopher	-11.9746
▁telegraph	-11.9746
▁utah	-11.9758
▁decorate	-11.9759
▁organisation	-11.977
▁hawaii	-11.977
▁salute	-11.9777
▁entitled	-11.9782
▁mathematics	-11.9782
▁jeremy	-11.9782
▁horrid	-11.9782
▁animation	-11.9794
▁objective	-11.9794
▁esc	-11.9798
▁survivor	-11.9805
▁happier	-11.9805
▁civilization	-11.9818
▁descent	-11.9833
▁convince	-11.9836
▁raisin	-11.9837
▁ethnic	-11.9854
▁portrait	-11.9854
▁connecticut	-11.9866
▁schooner	-11.9866
▁alexandr	-11.987
▁continuous	-11.9878
ø	-11.989
▁revolver	-11.9902
▁poverty	-11.9902
▁democrat	-11.9906
▁anniversary	-11.9914
▁1929	-11.9917
▁preferred	-11.9917
general	-11.9922
▁convenient	-11.9926
▁rooster	-11.9926
▁muffin	-11.9926
▁lauren	-11.9932
change	-11.9936
▁1935	-11.9941
▁apron	-11.9952
▁ankle	-11.9955
mumbles	-11.9959
france	-11.9961
▁attach	-11.9966
▁category	-11.9975
▁definition	-11.9975
▁nursing	-11.9975
▁radiation	-11.9987
▁caravan	-11.9987
•	-11.9999
▁rattling	-11.9999
▁random	-11.9999
▁impressive	-12.0011
▁screwdriver	-12.0011
▁caution	-12.0013
write	-12.0022
▁bathtub	-12.0024
▁nicola	-12.0024
▁cloak	-12.0026
▁fountain	-12.0036
▁elegant	-12.0048
▁paradise	-12.0048
▁reagan	-12.0048
▁thompson	-12.006
comune	-12.0061
hsl	-12.0067
▁colombia	-12.0073
2,000	-12.0074
▁1932	-12.0075
blue	-12.0081
▁educated	-12.0085
▁summit	-12.0085
▁approximately	-12.0097
▁denmark	-12.0099
ū	-12.036
\	-12.0449
ê	-12.0462
ã	-12.0578
↗	-12.0629
ł	-12.0933
↫	-12.1233
@	-12.1499
ë	-12.1542
å	-12.1613
$	-12.2451
č	-12.2609
#	-12.3162
î	-12.3556
♫	-12.3679
ß	-12.4002
ă	-12.4799
ş	-12.5059
§	-12.5451
¶	-12.5498
ï	-12.5621
⁄	-12.5686
œ	-12.5816
ı	-12.6851
ì	-12.7272
	-12.7323
ī	-12.74
×	-12.7554
ž	-12.7818
¡	-12.9007
¿	-12.9438
©	-12.9822
·	-12.9854
ý	-13.0323
ð	-13.0602
ș	-13.078
ń	-13.122
€	-13.1879
‘	-13.2054
ò	-13.2082
−	-13.2082
^	-13.2671
ś	-13.3344
	-13.3531
¤	-13.4066
′	-13.4421
∆	-13.4577
ř	-13.5117
þ	-13.5172
∙	-13.5455
⌈	-13.5553
đ	-13.5628
û	-13.5804
­	-13.6934
ğ	-13.6934
ː	-13.6934
ˈ	-13.7001
õ	-13.7068
ù	-13.7341
ě	-13.7341
⁎	-13.7693
ə	-13.8437
ē	-13.8437
―	-13.9157
	-13.9157
ț	-13.9409
ż	-13.9934
ő	-14.0487
İ	-14.0582
ę	-14.1173
¢	-14.1275
ą	-14.1483
±	-14.1802
ţ	-14.2131
ʻ	-14.2825
ʼ	-14.3966
„	-14.3966
‡	-14.4238
η	-14.4377
ṯ	-14.4377
ả	-14.4805
ṭ	-14.4805
ḥ	-14.4952
ệ	-14.5102
ɪ	-14.6047
ー	-14.6047
ɛ	-14.6214
÷	-14.6383
ė	-14.6731
	-14.6731
ư	-14.691
ź	-14.691
®	-14.7277
>	-14.7466
ĕ	-14.8054
†	-14.8679
»	-14.8679
ʿ	-14.8897
ṉ	-14.9346
ɑ	-14.9346
ṣ	-14.9346
«	-14.9346
ň	-14.9817
ọ	-15.0061
ÿ	-15.0311
¦	-15.0311
ů	-15.0311
	-15.11
ǎ	-15.11
་	-15.1378
¬	-15.1958
ŋ	-15.1958
॥	-15.2261
ɔ	-15.2574
▔	-15.2574
ʊ	-15.2896
←	-15.2896
ạ	-15.3229
	-15.3574
ʾ	-15.3931
ũ	-15.4302
ế	-15.4302
¥	-15.4686
ṇ	-15.5086
∇	-15.5086
・	-15.5086
ứ	-15.5503
♭	-15.5938
ŭ	-15.6392
ʃ	-15.6392
⟩	-15.6392
	-15.6869
ộ	-15.6869
ŵ	-15.6869
ơ	-15.7369
ố	-15.7369
‐	-15.7369
ʒ	-15.7895
ν	-15.7895
।	-15.7895
ṃ	-15.7895
ˌ	-15.845
∞	-15.9039
█	-15.9664
○	-15.9664
ġ	-15.9664
₹	-15.9664
ŏ	-16.033
ε	-16.033
٤	-16.033
ề	-16.033
ị	-16.033
	-16.1045
<	-16.1045
ƒ	-16.1045
‚	-16.1045
ĭ	-16.1814
ǫ	-16.1814
ʔ	-16.1814
ο	-16.1814
؟	-16.1814
١	-16.1814
ḍ	-16.1814
∴	-16.1814
į	-16.2647
ť	-16.2647
ǔ	-16.2647
ʌ	-16.2647
ľ	-16.2647
ŷ	-16.2647
	-16.3556
	-16.3556
ɐ	-16.3556
ɡ	-16.3556
ɣ	-16.3556
↑	-16.3556
₤	-16.4556
٥	-16.4556
≤	-16.4556
ɾ	-16.4556
ĩ	-16.5667
٢	-16.5667
٨	-16.5667
♯	-16.5667
ʁ	-16.5667
٧	-16.5667
ẓ	-16.5667
ɫ	-16.5667
	-16.6917
	-16.6917
	-16.6917
	-16.6917
ď	-16.6917
ĝ	-16.6917
ḻ	-16.6917
ớ	-16.6917
ļ	-16.6917
≥	-16.6917
☆	-16.6917
√	-16.6917
⬄	-16.6917
ʋ	-16.8346
ɦ	-16.8346
	-16.8346
ĥ	-16.8346
ǁ	-16.8346
ǐ	-16.8346
ɒ	-16.8346
ˆ	-16.8346
٦	-16.8346
१	-16.8346
ẻ	-16.8346
ụ	-16.8346
ữ	-16.8346
⁂	-16.8346
	-17.0012
	-17.0012
ŝ	-17.0013
ĉ	-17.0013
ű	-17.0013
ɕ	-17.0013
ủ	-17.0013
ỹ	-17.0013
⁠	-17.0013
✡	-17.0013
ħ	-17.0013
ǒ	-17.0013
ǝ	-17.0013
★	-17.0013
☺	-17.0013
	-17.2012
ɹ	-17.2013
٩	-17.2013
ḷ	-17.2013
	-17.2013
ɯ	-17.2013
ɲ	-17.2013
ʏ	-17.2013
ṓ	-17.2013
ậ	-17.2013
ắ	-17.2013
ẹ	-17.2013
∘	-17.2013
≈	-17.2013
⋅	-17.2013
	-17.4512
˧	-17.4513
	-17.4513
ḫ	-17.4513
ɩ	-17.4513
ĵ	-17.4513
ǚ	-17.4513
ɨ	-17.4513
ව	-17.4513
ṅ	-17.4513
ầ	-17.4513
ổ	-17.4513
ỳ	-17.4513
‖	-17.4513
※	-17.4513
₱	-17.4513
₵	-17.4513
≠	-17.4513
●	-17.4513
♥	-17.4513
、	-17.4513
ẽ	-17.4513
ǂ	-17.4513
ɜ	-17.7846
ằ	-17.7846
ử	-17.7846
ƌ	-17.7846
ȝ	-17.7846
ɘ	-17.7846
ʇ	-17.7846
ʕ	-17.7846
ˊ	-17.7846
ˋ	-17.7846
״	-17.7846
ỉ	-17.7846
‬	-17.7846
‰	-17.7846
∂	-17.7846
∗	-17.7846
∝	-17.7846
≡	-17.7846
「	-17.7846
」	-17.7846
ấ	-17.7846
ṛ	-17.7846
∈	-17.7846
⌊	-18.2829
✿	-18.2829
	-18.2845
ở	-18.2846
ƿ	-18.2846
ǣ	-18.2846
ɂ	-18.2846
ɳ	-18.2846
ʈ	-18.2846
ʎ	-18.2846
ʐ	-18.2846
ʹ	-18.2846
ˇ	-18.2846
а	-18.2846
б	-18.2846
३	-18.2846
४	-18.2846
५	-18.2846
ය	-18.2846
ා	-18.2846
ේ	-18.2846
၁	-18.2846
ḿ	-18.2846
ṙ	-18.2846
ể	-18.2846
ự	-18.2846
⊙	-18.2846
☃	-18.2846
☻	-18.2846
✅	-18.2846
✙	-18.2846
ꜧ	-18.2846
ꞯ	-18.2846
ʂ	-18.2846
с	-18.2846
◉	-18.2846
❌	-18.2846
ǧ	-18.2846
ẏ	-18.2846
〜	-18.2846
ṁ	-18.2846
	-18.2847
ǩ	-19.2824
ŧ	-19.2825
ǵ	-19.2826
‍	-19.2827
ـ	-19.2828
τ	-19.2829
ʘ	-19.283
₩	-19.2831
υ	-19.2832
།	-19.2833
ј	-19.2834
ķ	-19.2835
ņ	-19.2836
⟨	-19.2837
α	-19.2838
ễ	-19.2839
ờ	-19.284
ẩ	-19.2841
‭	-19.2842
ồ	-19.2843
̶	-19.2844
	-19.2844
ṟ	-19.2845
ɝ	-19.2846
ʝ	-19.2846
˥	-19.2846
˩	-19.2846
៧	-19.2846
ḡ	-19.2846
ḩ	-19.2846
ĺ	-19.2846
ŕ	-19.2846
ų	-19.2846
ƅ	-19.2846
ǃ	-19.2846
ǹ	-19.2846
ȃ	-19.2846
ɖ	-19.2846
ɟ	-19.2846
ɥ	-19.2846
ɶ	-19.2846
ɷ	-19.2846
ɸ	-19.2846
ɺ	-19.2846
ʙ	-19.2846
ʟ	-19.2846
ʧ	-19.2846
ʽ	-19.2846
ˀ	-19.2846
˦	-19.2846
β	-19.2846
й	-19.2846
к	-19.2846
м	-19.2846
о	-19.2846
у	-19.2846
ш	-19.2846
я	-19.2846
־	-19.2846
۞	-19.2846
۰	-19.2846
०	-19.2846
६	-19.2846
७	-19.2846
८	-19.2846
९	-19.2846
ආ	-19.2846
ජ	-19.2846
බ	-19.2846
ු	-19.2846
ෝ	-19.2846
၀	-19.2846
၃	-19.2846
၄	-19.2846
၅	-19.2846
၆	-19.2846
၇	-19.2846
၈	-19.2846
၉	-19.2846
᚛	-19.2846
᚜	-19.2846
០	-19.2846
១	-19.2846
២	-19.2846
៣	-19.2846
៤	-19.2846
៥	-19.2846
៦	-19.2846
៨	-19.2846
៩	-19.2846
ḋ	-19.2846
ḏ	-19.2846
ḗ	-19.2846
ḱ	-19.2846
ḵ	-19.2846
ṫ	-19.2846
ṳ	-19.2846
ṹ	-19.2846
ặ	-19.2846
ỏ	-19.2846
ỗ	-19.2846
ợ	-19.2846
⁣	-19.2846
₣	-19.2846
₿	-19.2846
↊	-19.2846
↋	-19.2846
∉	-19.2846
∼	-19.2846
≒	-19.2846
▼	-19.2846
☉	-19.2846
☐	-19.2846
☚	-19.2846
☛	-19.2846
☣	-19.2846
☭	-19.2846
☯	-19.2846
♄	-19.2846
♑	-19.2846
♒	-19.2846
♠	-19.2846
♮	-19.2846
✚	-19.2846
❤	-19.2846
ⱡ	-19.2846
。	-19.2846
〉	-19.2846
ģ	-19.2846
ȁ	-19.2846
ɗ	-19.2846
̈	-19.2846
ṗ	-19.2846
ẵ	-19.2846
♡	-19.2846
⬱	-19.2846
ʑ	-19.2846
ɮ	-19.2846
́	-19.2846
‿	-19.2846
