<unk>	0
<s>	0
</s>	0
<pad>	0
<0x00>	0
<0x01>	0
<0x02>	0
<0x03>	0
<0x04>	0
<0x05>	0
<0x06>	0
<0x07>	0
<0x08>	0
<0x09>	0
<0x0A>	0
<0x0B>	0
<0x0C>	0
<0x0D>	0
<0x0E>	0
<0x0F>	0
<0x10>	0
<0x11>	0
<0x12>	0
<0x13>	0
<0x14>	0
<0x15>	0
<0x16>	0
<0x17>	0
<0x18>	0
<0x19>	0
<0x1A>	0
<0x1B>	0
<0x1C>	0
<0x1D>	0
<0x1E>	0
<0x1F>	0
<0x20>	0
<0x21>	0
<0x22>	0
<0x23>	0
<0x24>	0
<0x25>	0
<0x26>	0
<0x27>	0
<0x28>	0
<0x29>	0
<0x2A>	0
<0x2B>	0
<0x2C>	0
<0x2D>	0
<0x2E>	0
<0x2F>	0
<0x30>	0
<0x31>	0
<0x32>	0
<0x33>	0
<0x34>	0
<0x35>	0
<0x36>	0
<0x37>	0
<0x38>	0
<0x39>	0
<0x3A>	0
<0x3B>	0
<0x3C>	0
<0x3D>	0
<0x3E>	0
<0x3F>	0
<0x40>	0
<0x41>	0
<0x42>	0
<0x43>	0
<0x44>	0
<0x45>	0
<0x46>	0
<0x47>	0
<0x48>	0
<0x49>	0
<0x4A>	0
<0x4B>	0
<0x4C>	0
<0x4D>	0
<0x4E>	0
<0x4F>	0
<0x50>	0
<0x51>	0
<0x52>	0
<0x53>	0
<0x54>	0
<0x55>	0
<0x56>	0
<0x57>	0
<0x58>	0
<0x59>	0
<0x5A>	0
<0x5B>	0
<0x5C>	0
<0x5D>	0
<0x5E>	0
<0x5F>	0
<0x60>	0
<0x61>	0
<0x62>	0
<0x63>	0
<0x64>	0
<0x65>	0
<0x66>	0
<0x67>	0
<0x68>	0
<0x69>	0
<0x6A>	0
<0x6B>	0
<0x6C>	0
<0x6D>	0
<0x6E>	0
<0x6F>	0
<0x70>	0
<0x71>	0
<0x72>	0
<0x73>	0
<0x74>	0
<0x75>	0
<0x76>	0
<0x77>	0
<0x78>	0
<0x79>	0
<0x7A>	0
<0x7B>	0
<0x7C>	0
<0x7D>	0
<0x7E>	0
<0x7F>	0
<0x80>	0
<0x81>	0
<0x82>	0
<0x83>	0
<0x84>	0
<0x85>	0
<0x86>	0
<0x87>	0
<0x88>	0
<0x89>	0
<0x8A>	0
<0x8B>	0
<0x8C>	0
<0x8D>	0
<0x8E>	0
<0x8F>	0
<0x90>	0
<0x91>	0
<0x92>	0
<0x93>	0
<0x94>	0
<0x95>	0
<0x96>	0
<0x97>	0
<0x98>	0
<0x99>	0
<0x9A>	0
<0x9B>	0
<0x9C>	0
<0x9D>	0
<0x9E>	0
<0x9F>	0
<0xA0>	0
<0xA1>	0
<0xA2>	0
<0xA3>	0
<0xA4>	0
<0xA5>	0
<0xA6>	0
<0xA7>	0
<0xA8>	0
<0xA9>	0
<0xAA>	0
<0xAB>	0
<0xAC>	0
<0xAD>	0
<0xAE>	0
<0xAF>	0
<0xB0>	0
<0xB1>	0
<0xB2>	0
<0xB3>	0
<0xB4>	0
<0xB5>	0
<0xB6>	0
<0xB7>	0
<0xB8>	0
<0xB9>	0
<0xBA>	0
<0xBB>	0
<0xBC>	0
<0xBD>	0
<0xBE>	0
<0xBF>	0
<0xC0>	0
<0xC1>	0
<0xC2>	0
<0xC3>	0
<0xC4>	0
<0xC5>	0
<0xC6>	0
<0xC7>	0
<0xC8>	0
<0xC9>	0
<0xCA>	0
<0xCB>	0
<0xCC>	0
<0xCD>	0
<0xCE>	0
<0xCF>	0
<0xD0>	0
<0xD1>	0
<0xD2>	0
<0xD3>	0
<0xD4>	0
<0xD5>	0
<0xD6>	0
<0xD7>	0
<0xD8>	0
<0xD9>	0
<0xDA>	0
<0xDB>	0
<0xDC>	0
<0xDD>	0
<0xDE>	0
<0xDF>	0
<0xE0>	0
<0xE1>	0
<0xE2>	0
<0xE3>	0
<0xE4>	0
<0xE5>	0
<0xE6>	0
<0xE7>	0
<0xE8>	0
<0xE9>	0
<0xEA>	0
<0xEB>	0
<0xEC>	0
<0xED>	0
<0xEE>	0
<0xEF>	0
<0xF0>	0
<0xF1>	0
<0xF2>	0
<0xF3>	0
<0xF4>	0
<0xF5>	0
<0xF6>	0
<0xF7>	0
<0xF8>	0
<0xF9>	0
<0xFA>	0
<0xFB>	0
<0xFC>	0
<0xFD>	0
<0xFE>	0
<0xFF>	0
.	-2.85051
:	-3.33034
▁*	-3.38001
,	-3.46533
s	-3.55093
▁the	-3.57633
'	-3.79752
▁a	-4.16354
mot	-4.18585
▁you	-4.23618
▁and	-4.24735
▁i	-4.26547
▁to	-4.29103
?	-4.30437
chi	-4.38337
▁it	-4.49999
▁of	-4.52068
▁in	-4.63642
▁that	-4.72336
t	-4.72508
▁he	-5.10985
▁is	-5.11718
▁was	-5.20495
▁=	-5.30489
▁on	-5.34262
▁[	-5.37611
▁what	-5.39505
▁for	-5.44245
▁we	-5.50135
▁"	-5.53342
]	-5.59382
▁this	-5.60155
!	-5.61275
▁with	-5.6584
▁do	-5.67985
▁no	-5.70463
▁they	-5.72187
▁there	-5.76616
▁have	-5.76856
▁be	-5.7757
▁-	-5.80456
▁me	-5.8112
▁not	-5.82594
-	-5.83959
▁she	-5.84284
m	-5.84324
▁at	-5.87293
▁one	-5.87401
▁are	-5.8775
▁can	-5.90157
d	-5.91045
▁but	-5.91757
re	-5.93074
▁his	-5.94733
ed	-5.95407
ing	-5.99573
▁so	-6.01253
▁as	-6.03938
▁all	-6.04581
▁her	-6.07067
▁oh	-6.07637
▁yeah	-6.07984
▁my	-6.09587
▁don	-6.10512
▁know	-6.11965
▁your	-6.13324
...	-6.13393
▁had	-6.15465
▁go	-6.17556
▁up	-6.17824
▁like	-6.18007
ll	-6.26441
inv	-6.27841
▁from	-6.29842
i	-6.31877
▁out	-6.32033
▁here	-6.34746
▁him	-6.39397
▁get	-6.42045
▁by	-6.4281
▁if	-6.43192
▁just	-6.43824
▁were	-6.44638
▁now	-6.44701
▁right	-6.45997
▁	-6.47497
▁see	-6.47498
▁well	-6.47685
▁an	-6.48429
ve	-6.51039
▁about	-6.52294
▁when	-6.52964
▁then	-6.53658
▁or	-6.54603
a	-6.58259
▁them	-6.59937
▁think	-6.60224
▁got	-6.6066
▁did	-6.62864
▁who	-6.63292
▁said	-6.63996
▁some	-6.65704
fat	-6.66577
y	-6.67609
▁where	-6.69164
ly	-6.69348
▁come	-6.7066
▁look	-6.72681
▁will	-6.72712
▁would	-6.72771
;	-6.73279
▁yes	-6.73586
▁good	-6.74516
▁want	-6.77245
er	-6.79879
▁how	-6.80691
e	-6.81704
▁xxx	-6.81833
▁(	-6.81967
▁okay	-6.82646
▁little	-6.85005
▁“	-6.85266
▁down	-6.85851
▁time	-6.86359
].	-6.86403
▁going	-6.88382
▁more	-6.89178
▁put	-6.89637
▁been	-6.89726
▁back	-6.90153
’	-6.92043
▁two	-6.92405
▁very	-6.92518
"	-6.92558
."	-6.93088
▁which	-6.93317
▁over	-6.93688
▁has	-6.9534
▁their	-6.9676
▁'	-6.99776
▁could	-7.02413
n	-7.02492
▁let	-7.03299
)	-7.03301
▁b	-7.05888
▁say	-7.08447
r	-7.11737
▁other	-7.15023
▁why	-7.16586
▁make	-7.18282
▁man	-7.18429
▁take	-7.18655
,"	-7.18941
▁into	-7.20084
▁way	-7.21554
▁people	-7.23327
in	-7.23571
▁too	-7.26211
▁because	-7.28789
▁off	-7.29474
▁first	-7.29797
▁tell	-7.29827
▁us	-7.30778
▁gonna	-7.32217
▁after	-7.34088
o	-7.34495
▁these	-7.3608
▁only	-7.36449
▁any	-7.3682
▁our	-7.3992
es	-7.41051
▁uh	-7.41302
▁didn	-7.43333
▁something	-7.46308
▁really	-7.46709
▁again	-7.47053
c	-7.4719
▁much	-7.48787
▁er	-7.48932
al	-7.51105
--	-7.51323
▁made	-7.52254
▁before	-7.55277
▁than	-7.56752
▁new	-7.57013
par	-7.57901
▁big	-7.58835
▁day	-7.59154
▁should	-7.59278
▁away	-7.59534
▁three	-7.62057
▁does	-7.63682
▁went	-7.63946
▁never	-7.64226
▁need	-7.64468
▁home	-7.64977
▁car	-7.65262
▁those	-7.65301
▁um	-7.65552
▁house	-7.65828
▁give	-7.66801
l	-7.67787
▁long	-7.67907
▁mean	-7.68666
▁play	-7.70169
▁came	-7.70421
▁also	-7.70826
▁wanna	-7.70942
▁work	-7.7196
▁another	-7.7283
▁old	-7.73127
▁thought	-7.73311
▁doing	-7.73341
▁many	-7.73641
it	-7.75204
the	-7.75436
▁s	-7.75612
▁mr	-7.75659
▁thing	-7.7567
th	-7.7568
p	-7.7651
b	-7.77112
▁still	-7.7797
▁must	-7.77984
▁things	-7.79528
?"	-7.79622
▁last	-7.80361
▁may	-7.80977
▁re	-7.81313
exp	-7.81483
▁won	-7.82051
g	-7.82406
▁am	-7.8244
▁great	-7.82549
▁through	-7.82658
▁head	-7.82816
▁even	-7.83013
▁find	-7.83403
▁boy	-7.83534
▁de	-7.83794
▁night	-7.86115
▁baby	-7.86885
k	-7.87411
_	-7.87451
▁isn	-7.87807
▁help	-7.88633
▁name	-7.89157
/	-7.89178
▁o	-7.89311
▁done	-7.89782
f	-7.89835
▁please	-7.90314
▁called	-7.90672
▁%	-7.90781
▁mother	-7.92375
▁mm	-7.92665
h	-7.92817
▁water	-7.93921
▁thank	-7.94121
▁love	-7.95387
▁hand	-7.95512
▁bit	-7.95517
▁might	-7.9596
▁around	-7.96495
▁mhm	-7.96725
w	-7.96963
le	-7.97243
▁book	-7.97528
▁girl	-7.9779
▁better	-7.98025
▁found	-7.98072
▁sure	-7.98284
.”	-7.98813
▁life	-7.99613
▁nice	-8.00215
▁hey	-8.00528
▁place	-8.00942
on	-8.01196
na	-8.01786
▁most	-8.01905
▁while	-8.01945
▁eat	-8.01964
▁anything	-8.03221
▁ah	-8.03308
▁school	-8.04708
▁erm	-8.052
▁e	-8.05686
man	-8.06143
or	-8.06837
▁doesn	-8.07101
▁years	-8.07633
▁such	-8.07866
▁keep	-8.08139
▁being	-8.0828
▁un	-8.08769
▁used	-8.08769
en	-8.0885
▁next	-8.08877
▁father	-8.08968
▁shall	-8.09153
▁same	-8.1047
▁lot	-8.10804
,”	-8.11238
▁room	-8.11522
▁under	-8.1206
▁else	-8.13891
▁world	-8.13997
!"	-8.14006
▁four	-8.14248
laughs	-8.14544
add	-8.14708
▁mummy	-8.15122
▁own	-8.15333
▁part	-8.1586
▁talk	-8.15887
▁men	-8.16053
▁always	-8.16549
▁kind	-8.16599
▁looks	-8.16929
▁saw	-8.17157
▁left	-8.17161
▁told	-8.17162
▁end	-8.17536
▁nothing	-8.17757
▁p	-8.19527
ers	-8.20663
▁ever	-8.20744
▁d	-8.21353
▁door	-8.21977
▁every	-8.22006
and	-8.22072
no	-8.22131
▁chi	-8.22519
▁use	-8.23477
▁show	-8.23539
▁huh	-8.2361
▁sorry	-8.24161
▁five	-8.25154
▁daddy	-8.25401
▁c	-8.25535
▁gone	-8.26401
an	-8.26769
▁open	-8.26921
ation	-8.27501
▁money	-8.27898
▁sit	-8.27947
▁coming	-8.27988
▁though	-8.28681
▁took	-8.28954
▁red	-8.2909
▁enough	-8.29187
▁face	-8.29263
▁maybe	-8.29464
to	-8.29487
la	-8.29523
▁wait	-8.29692
▁call	-8.30304
▁stop	-8.30507
de	-8.31164
▁side	-8.31944
▁morning	-8.32302
▁once	-8.32664
▁goes	-8.32698
sis	-8.32755
▁remember	-8.33022
▁turn	-8.33392
▁until	-8.33671
▁sir	-8.33862
▁leave	-8.3466
▁hear	-8.35269
▁best	-8.35289
▁course	-8.35728
▁try	-8.35797
you	-8.3601
▁_	-8.36187
▁dear	-8.36253
▁quite	-8.36527
ne	-8.36948
▁god	-8.37047
ra	-8.37196
▁year	-8.37424
▁eyes	-8.37496
tea	-8.37915
▁la	-8.37985
▁feel	-8.38131
▁both	-8.38164
u	-8.38175
as	-8.38203
▁today	-8.39139
▁city	-8.39341
▁looking	-8.3941
ie	-8.39567
▁hm	-8.39792
▁box	-8.39822
▁yet	-8.39937
▁hi	-8.40168
▁seen	-8.40656
▁each	-8.41076
ch	-8.41293
▁asked	-8.41363
▁ball	-8.4139
▁ma	-8.41595
▁few	-8.42023
▁round	-8.42024
▁young	-8.42298
▁together	-8.42441
ro	-8.42683
▁different	-8.42925
▁blue	-8.43406
▁read	-8.43832
us	-8.444
▁mind	-8.44427
▁says	-8.44445
▁fire	-8.4447
▁hard	-8.44502
▁number	-8.44647
li	-8.45218
▁t	-8.4566
▁children	-8.46148
▁getting	-8.46246
▁miss	-8.46281
▁m	-8.46315
we	-8.46549
▁second	-8.46567
▁without	-8.4665
▁♪	-8.46818
bro	-8.47311
▁everything	-8.47538
ion	-8.47848
▁far	-8.48008
mch	-8.48539
▁ready	-8.48853
▁heard	-8.49357
em	-8.49515
▁later	-8.4954
▁soon	-8.49851
▁known	-8.49921
▁mommy	-8.50021
▁between	-8.50211
▁g	-8.51041
▁bed	-8.51083
▁light	-8.51281
ar	-8.51482
▁since	-8.51895
▁black	-8.52307
do	-8.52457
▁half	-8.52786
▁haven	-8.53078
▁upon	-8.53095
he	-8.53214
is	-8.5355
▁story	-8.53614
▁white	-8.53636
▁set	-8.53703
▁hold	-8.53795
▁high	-8.54046
▁bad	-8.54066
▁live	-8.54204
▁having	-8.54251
▁mrs	-8.54406
▁himself	-8.54512
▁small	-8.54712
▁hafta	-8.54728
ter	-8.54737
ton	-8.5533
▁stay	-8.55649
▁happened	-8.55724
▁wanted	-8.56179
▁war	-8.5631
▁alright	-8.56321
▁watch	-8.56479
ma	-8.56759
ling	-8.5684
▁american	-8.57042
x	-8.57094
z	-8.57135
▁run	-8.57247
▁table	-8.57461
yes	-8.57561
v	-8.57954
▁pretty	-8.58094
se	-8.58224
▁ask	-8.58381
▁dog	-8.58418
ry	-8.58521
cause	-8.58539
▁18	-8.58544
gma	-8.58665
▁matter	-8.58792
▁looked	-8.58887
able	-8.59069
el	-8.59097
ic	-8.59306
co	-8.59802
▁sort	-8.60115
▁friend	-8.6022
▁knew	-8.60333
▁talking	-8.60359
▁green	-8.60581
▁dis	-8.60714
▁hello	-8.60857
me	-8.60891
▁top	-8.60896
ia	-8.61406
ah	-8.61451
lo	-8.62029
▁hands	-8.62752
▁six	-8.62837
▁believe	-8.63392
▁heart	-8.64023
1:	-8.64057
▁1	-8.64288
▁united	-8.64332
▁mot	-8.64439
il	-8.64543
▁moment	-8.64557
▁making	-8.64578
▁child	-8.64797
▁ha	-8.64799
▁care	-8.65096
ment	-8.65225
▁bring	-8.65248
▁family	-8.6528
▁against	-8.65402
▁along	-8.6552
▁close	-8.65779
▁air	-8.65834
▁town	-8.65876
▁actually	-8.66011
▁boys	-8.66071
▁king	-8.66508
▁gave	-8.66711
▁party	-8.66941
".	-8.67571
▁fine	-8.67619
ity	-8.67664
▁con	-8.6767
▁cat	-8.68171
▁wasn	-8.68376
▁real	-8.6842
▁son	-8.68496
▁2	-8.68529
▁during	-8.69144
▁train	-8.69153
ted	-8.69941
ha	-8.7004
▁noise	-8.70203
est	-8.70641
ta	-8.70779
▁co	-8.71017
▁move	-8.71233
▁whole	-8.71348
▁ten	-8.71584
▁born	-8.71656
▁days	-8.71854
▁voice	-8.72061
▁game	-8.72066
▁died	-8.72171
go	-8.72276
ting	-8.7228
▁start	-8.7248
ent	-8.72947
▁wouldn	-8.73033
ine	-8.73183
mar	-8.73432
▁person	-8.73466
ty	-8.73518
▁cup	-8.73694
▁bear	-8.73901
ness	-8.73954
?”	-8.74047
▁food	-8.74251
▁state	-8.74635
▁almost	-8.74928
+	-8.74983
oh	-8.75023
▁started	-8.75042
▁states	-8.75085
▁happy	-8.75359
▁dad	-8.75361
▁3	-8.75506
but	-8.75607
▁trying	-8.75732
be	-8.75797
▁sea	-8.7592
▁sleep	-8.7629
▁word	-8.76382
▁k	-8.76525
▁saying	-8.77108
▁john	-8.77198
da	-8.77504
id	-8.77505
▁floor	-8.77887
▁n	-8.78491
ant	-8.78736
2	-8.78798
▁wrong	-8.79105
▁playing	-8.79236
▁minute	-8.79242
j	-8.79433
▁already	-8.7969
ian	-8.79833
▁probably	-8.80267
▁job	-8.80342
▁guess	-8.80364
▁chair	-8.80501
▁hair	-8.80575
▁country	-8.8065
▁rest	-8.80792
▁mine	-8.80812
▁feet	-8.81104
▁mom	-8.81432
),	-8.81689
▁hope	-8.81798
▁near	-8.82417
▁drink	-8.82446
▁al	-8.82594
▁woman	-8.82776
▁paper	-8.83203
ck	-8.83507
▁jack	-8.83527
▁idea	-8.83853
▁north	-8.83911
▁understand	-8.84157
▁picture	-8.84346
▁point	-8.84439
▁lost	-8.84501
▁became	-8.84829
▁cut	-8.84953
ies	-8.84971
▁team	-8.85217
ir	-8.85332
▁thomas	-8.85384
▁began	-8.85522
▁f	-8.85784
▁u	-8.85885
▁front	-8.8604
nan	-8.86143
▁l	-8.86159
▁aren	-8.86525
what	-8.86698
▁line	-8.86772
▁doctor	-8.86777
▁gotta	-8.86821
▁sometimes	-8.87416
▁friends	-8.87587
▁brother	-8.8764
ri	-8.87812
ul	-8.88369
▁behind	-8.88618
▁hundred	-8.88623
▁music	-8.88709
ga	-8.88938
▁ta	-8.88978
int	-8.89005
▁full	-8.89295
▁listen	-8.89377
▁sec	-8.89502
—	-8.89938
▁played	-8.90118
▁week	-8.90529
▁lady	-8.90587
ce	-8.90617
▁19	-8.90853
▁–	-8.90897
▁hot	-8.91295
gra	-8.91302
▁outside	-8.91344
▁ya	-8.91544
▁captain	-8.91616
ba	-8.91849
▁4	-8.92379
▁brought	-8.92465
▁couldn	-8.9254
▁dead	-8.92665
▁r	-8.92688
▁movie	-8.9275
▁sound	-8.9296
▁county	-8.93022
▁per	-8.93059
▁girls	-8.93296
that	-8.93431
vi	-8.93474
",	-8.93574
land	-8.93702
▁stuff	-8.94036
▁stand	-8.94062
▁mar	-8.94162
▁age	-8.94207
▁sister	-8.94208
▁hat	-8.94232
▁horse	-8.94363
▁national	-8.94401
▁road	-8.94586
▁poor	-8.94639
well	-8.94651
▁pro	-8.94652
▁pay	-8.9482
1	-8.94822
ke	-8.95164
mo	-8.95301
▁river	-8.95493
▁short	-8.959
am	-8.95912
▁turned	-8.95957
▁south	-8.96366
▁seemed	-8.96671
▁walk	-8.9673
son	-8.96851
▁hurt	-8.96874
ful	-8.96904
cha	-8.9705
ca	-8.97088
ate	-8.97118
up	-8.97153
te	-8.97177
▁color	-8.97194
tic	-8.97388
▁guy	-8.97447
▁land	-8.9747
▁song	-8.97501
▁business	-8.97905
▁however	-8.98012
▁often	-8.98046
▁death	-8.98271
un	-8.98324
ish	-8.98415
ary	-8.98446
▁someone	-8.98488
▁piece	-8.98525
et	-8.98759
▁ho	-8.99145
▁able	-8.99154
▁en	-8.99277
▁da	-8.99277
ci	-8.99382
▁beautiful	-8.99674
▁taken	-8.99684
ist	-9.00097
▁le	-9.00208
).	-9.01136
▁taking	-9.01136
▁tree	-9.01221
▁tea	-9.01233
▁na	-9.01291
▁fish	-9.01432
▁sun	-9.01487
▁early	-9.01562
▁case	-9.01644
▁twenty	-9.01845
▁myself	-9.01891
▁ra	-9.01899
▁fell	-9.02236
▁times	-9.0239
▁inside	-9.02696
ki	-9.03593
▁large	-9.03645
▁comes	-9.03906
per	-9.04044
▁page	-9.04108
▁st	-9.04113
dy	-9.04121
▁cold	-9.04126
!”	-9.042
▁yourself	-9.04411
▁fall	-9.04799
dad	-9.048
▁means	-9.04831
▁rather	-9.05001
age	-9.05487
▁order	-9.05657
▁yellow	-9.05667
▁fun	-9.05765
”	-9.05874
▁till	-9.06029
▁seven	-9.06074
▁words	-9.06269
▁true	-9.06282
▁makes	-9.06481
▁perhaps	-9.06546
▁boat	-9.06588
▁ago	-9.06749
▁change	-9.06951
▁w	-9.06976
▁late	-9.07055
▁eight	-9.07185
▁minutes	-9.07257
▁wife	-9.07314
▁bo	-9.07634
▁pick	-9.07813
▁fact	-9.0788
▁sent	-9.07882
▁present	-9.07976
▁felt	-9.08164
▁brown	-9.08288
▁speak	-9.08316
pat	-9.08386
▁alone	-9.08441
3	-9.08444
less	-9.08859
▁march	-9.08939
▁!	-9.09044
▁5	-9.0922
▁power	-9.09305
▁funny	-9.09332
ver	-9.094
▁wish	-9.09474
▁trouble	-9.09603
▁either	-9.09995
▁group	-9.1001
▁bar	-9.10057
▁mo	-9.1074
▁milk	-9.11028
▁dr	-9.11057
▁given	-9.11269
▁women	-9.11413
▁mum	-9.11488
▁company	-9.11513
▁bag	-9.11536
▁break	-9.1155
at	-9.11578
▁hit	-9.11977
▁ran	-9.12015
▁france	-9.12178
by	-9.12296
▁english	-9.12794
▁meet	-9.12895
▁street	-9.13214
▁buy	-9.13538
▁become	-9.1361
2:	-9.13654
▁past	-9.13662
bi	-9.13743
▁bob	-9.13777
▁somebody	-9.13786
pe	-9.13971
▁vi	-9.14053
▁toys	-9.14057
▁wind	-9.14097
▁ground	-9.14181
▁body	-9.14212
if	-9.14612
▁chance	-9.14621
▁important	-9.14853
5	-9.14918
um	-9.15086
huh	-9.15189
sh	-9.15252
▁park	-9.1533
▁deal	-9.15525
▁question	-9.15553
||	-9.15707
▁several	-9.15869
car	-9.15942
born	-9.16188
▁write	-9.16401
▁v	-9.16526
▁phone	-9.16617
▁ba	-9.16652
é	-9.16679
▁across	-9.16714
▁working	-9.16758
rs	-9.17128
▁glad	-9.17373
▁h	-9.17381
▁least	-9.17964
▁free	-9.17995
▁star	-9.18273
led	-9.184
▁dinner	-9.18767
ley	-9.18786
men	-9.18944
va	-9.19176
▁area	-9.19241
▁dark	-9.19392
pa	-9.19565
ge	-9.1976
▁y	-9.19776
▁answer	-9.20167
▁di	-9.20744
▁uhhuh	-9.20947
0	-9.20953
▁10	-9.21048
▁thanks	-9.21144
▁foot	-9.21262
▁fit	-9.21278
po	-9.21701
▁6	-9.21831
ni	-9.21955
▁guys	-9.22252
▁bus	-9.22402
▁finished	-9.22981
▁fast	-9.23055
▁throw	-9.23141
▁sing	-9.23227
▁animals	-9.23253
▁darling	-9.23271
▁cos	-9.23372
▁general	-9.23377
mi	-9.23407
ated	-9.23672
▁everybody	-9.23749
▁living	-9.23875
▁pa	-9.24001
▁rock	-9.24147
▁tomorrow	-9.24276
▁french	-9.24284
▁government	-9.24442
▁special	-9.25039
▁hour	-9.25157
▁sha	-9.25187
▁wants	-9.25381
▁ca	-9.25744
min	-9.25779
▁tried	-9.25903
ka	-9.26142
▁clear	-9.26245
▁ship	-9.26968
▁lay	-9.27001
▁ka	-9.27137
▁mouth	-9.27185
loi	-9.2719
▁west	-9.27272
my	-9.27323
▁president	-9.27431
▁wow	-9.27482
ad	-9.27523
▁frog	-9.27538
▁herself	-9.27694
▁club	-9.27798
▁arm	-9.27946
▁pre	-9.27975
▁thinking	-9.28087
▁mark	-9.28197
▁daughter	-9.28387
ance	-9.28569
▁york	-9.28609
les	-9.29111
▁cried	-9.29224
▁uncle	-9.29324
▁j	-9.29367
▁#	-9.29395
4	-9.29616
ur	-9.29618
▁building	-9.29727
▁wonder	-9.29839
▁camp	-9.29862
▁anyway	-9.29888
▁usually	-9.3
▁nine	-9.30068
▁police	-9.30108
der	-9.30289
▁history	-9.3034
▁bye	-9.30346
00	-9.30413
▁el	-9.30454
▁strong	-9.30581
▁main	-9.30614
▁football	-9.30731
way	-9.30747
▁human	-9.30896
▁clean	-9.30909
one	-9.30932
▁fight	-9.30999
▁po	-9.31009
▁afraid	-9.31032
▁running	-9.31061
▁letter	-9.31079
di	-9.31217
▁window	-9.31283
▁system	-9.3146
▁...	-9.31476
▁eye	-9.31659
▁win	-9.31704
▁sat	-9.31707
▁ar	-9.31899
▁summer	-9.32003
▁sitting	-9.32051
▁held	-9.32064
▁sa	-9.32317
▁stick	-9.32425
▁seat	-9.32513
▁less	-9.32765
ard	-9.33093
▁7	-9.33095
▁others	-9.33109
▁truck	-9.33127
▁forget	-9.33184
▁lu	-9.33184
bo	-9.33359
▁station	-9.33475
▁reason	-9.33548
▁thousand	-9.33687
▁series	-9.33937
▁bird	-9.33944
▁joe	-9.3399
▁ice	-9.34052
▁suppose	-9.34087
▁kept	-9.34161
▁sweet	-9.34271
▁draw	-9.34342
7	-9.34439
▁office	-9.3463
▁lived	-9.34964
▁birthday	-9.34986
let	-9.35003
ho	-9.35245
▁catch	-9.35291
ous	-9.35416
▁snow	-9.35526
▁duck	-9.35651
▁married	-9.3607
▁8	-9.36139
▁band	-9.36147
▁easy	-9.36193
▁happen	-9.36194
adu	-9.36207
▁master	-9.3623
▁frank	-9.36231
▁single	-9.36672
▁department	-9.36706
▁among	-9.36856
▁problem	-9.36858
of	-9.37162
▁books	-9.37209
cds	-9.37321
▁th	-9.37406
6	-9.37528
den	-9.37609
▁shot	-9.37655
▁ne	-9.37675
▁stood	-9.37713
▁li	-9.37784
▁board	-9.37837
qui	-9.37968
▁se	-9.38061
ff	-9.38343
au	-9.38432
ja	-9.38474
gu	-9.38561
▁peter	-9.38692
▁church	-9.38694
▁ooh	-9.38795
▁university	-9.38973
▁june	-9.39073
▁tonight	-9.39085
▁ben	-9.39092
ru	-9.39134
▁ok	-9.39238
▁law	-9.39282
▁seems	-9.39297
▁whatever	-9.39495
for	-9.39526
don	-9.39704
▁pull	-9.3975
▁send	-9.40008
hi	-9.40131
▁january	-9.40248
ow	-9.40257
ee	-9.40306
▁earth	-9.40367
▁17	-9.40557
▁toy	-9.40623
▁orange	-9.40854
▁post	-9.40872
▁region	-9.4088
▁return	-9.40887
▁whether	-9.40894
▁member	-9.41
▁bill	-9.41087
▁garden	-9.41279
▁tired	-9.4128
▁gu	-9.4139
▁hours	-9.4149
line	-9.41556
▁tu	-9.42009
▁20	-9.4209
▁lovely	-9.4216
8	-9.42183
so	-9.4225
▁village	-9.42311
▁wall	-9.42348
▁wear	-9.42487
▁lo	-9.42494
ac	-9.42521
▁lord	-9.42529
▁drive	-9.42578
▁check	-9.42673
▁cause	-9.42721
▁sounds	-9.42722
▁clothes	-9.42837
ner	-9.43071
all	-9.43095
▁sign	-9.43165
▁ring	-9.43203
▁class	-9.43235
▁art	-9.43351
▁killed	-9.43361
▁15	-9.43518
▁pen	-9.43546
ran	-9.4366
▁nose	-9.43743
▁couple	-9.43781
▁kids	-9.43969
▁waiting	-9.43969
▁cake	-9.43991
▁list	-9.44076
▁eh	-9.44283
ex	-9.44303
ence	-9.44434
▁million	-9.44453
que	-9.44562
bu	-9.44802
▁named	-9.44848
▁excuse	-9.44882
▁season	-9.44976
▁low	-9.4506
▁rose	-9.45117
▁replied	-9.45169
▁themselves	-9.45333
▁careful	-9.45364
ring	-9.45562
▁quick	-9.45577
▁within	-9.45597
ward	-9.45971
os	-9.45984
▁[1	-9.46102
▁cool	-9.46139
▁released	-9.46141
▁album	-9.46226
▁em	-9.46266
▁su	-9.46278
▁pop	-9.46354
she	-9.46479
▁follow	-9.4692
▁lots	-9.46922
▁ju	-9.46963
▁career	-9.47059
▁forward	-9.47069
▁12	-9.47131
makes	-9.47155
▁eating	-9.47199
▁district	-9.47359
▁island	-9.4741
ding	-9.47496
▁east	-9.47559
▁cow	-9.47576
▁answered	-9.47609
▁shoes	-9.47688
ism	-9.47856
lin	-9.47943
▁warm	-9.47971
▁evening	-9.48074
▁instead	-9.48092
▁shop	-9.48101
▁months	-9.48257
fch	-9.48315
▁husband	-9.48343
▁ri	-9.48381
▁possible	-9.48552
▁gold	-9.48734
▁points	-9.48801
▁touch	-9.48865
how	-9.48928
▁gun	-9.4893
ial	-9.48933
▁2020	-9.49065
▁wood	-9.49082
▁british	-9.49092
▁christmas	-9.49163
ger	-9.49177
▁middle	-9.49366
▁pe	-9.49482
▁juice	-9.49661
▁film	-9.4976
ster	-9.49776
ten	-9.50005
▁august	-9.50129
red	-9.50191
▁ain	-9.50212
▁third	-9.50272
▁exactly	-9.50282
▁nor	-9.50342
▁plan	-9.50386
▁aunt	-9.50453
▁pass	-9.50511
ng	-9.50551
▁passed	-9.50874
▁space	-9.51029
▁cannot	-9.51076
▁apple	-9.51115
▁putting	-9.51256
▁worked	-9.51284
▁moved	-9.51339
▁act	-9.51372
▁quickly	-9.51444
▁lives	-9.51456
▁above	-9.51459
▁x	-9.5147
▁tape	-9.51532
▁straight	-9.51685
▁broken	-9.51742
▁although	-9.52025
▁tom	-9.5203
kin	-9.5206
▁hall	-9.52229
time	-9.52231
▁seem	-9.52279
▁certain	-9.52303
▁kid	-9.52612
▁toward	-9.52712
▁fa	-9.52777
▁quiet	-9.52807
▁german	-9.52846
▁cover	-9.52913
ber	-9.52932
▁honey	-9.53028
▁pat	-9.53074
▁ride	-9.53123
▁worry	-9.53134
▁save	-9.53184
▁finish	-9.53341
▁cross	-9.53471
lu	-9.53656
▁ex	-9.53666
ship	-9.53717
che	-9.53892
▁longer	-9.53948
▁indeed	-9.54003
▁die	-9.54291
▁16	-9.54292
▁everyone	-9.54293
▁whose	-9.54315
▁television	-9.54331
▁bank	-9.54375
▁april	-9.54402
▁strange	-9.54448
▁feeling	-9.5456
▁england	-9.54606
▁public	-9.54692
▁takes	-9.54836
▁9	-9.54926
wa	-9.5494
▁race	-9.54941
▁service	-9.55309
▁count	-9.55424
▁ni	-9.55608
▁anyone	-9.55638
childes	-9.55653
▁deep	-9.55695
▁nearly	-9.55864
ron	-9.56014
▁court	-9.56024
▁grand	-9.56037
▁childes	-9.56056
ak	-9.56095
▁mi	-9.56109
▁october	-9.5613
ey	-9.56283
lan	-9.56317
▁arms	-9.56389
▁shape	-9.56547
tion	-9.5679
▁jump	-9.56974
▁position	-9.5706
▁towards	-9.57356
▁example	-9.57379
▁mama	-9.57514
▁attack	-9.57561
▁spot	-9.57594
▁caught	-9.57596
▁store	-9.57715
▁visit	-9.57804
▁plate	-9.57815
▁dream	-9.57967
▁chief	-9.57992
▁learn	-9.58082
▁sight	-9.58142
▁nobody	-9.5827
▁safe	-9.58335
con	-9.58421
val	-9.58483
▁broke	-9.58587
▁november	-9.58592
▁wild	-9.58594
▁standing	-9.58615
▁roll	-9.5865
bb	-9.58816
▁]	-9.5886
▁dance	-9.58877
▁bright	-9.58879
▁doll	-9.59074
▁reached	-9.59087
▁rain	-9.59098
▁pardon	-9.59196
im	-9.592
▁farm	-9.59358
vo	-9.59395
▁july	-9.59497
▁player	-9.59548
▁sta	-9.59584
3:	-9.59647
▁ahead	-9.59657
▁chapter	-9.597
▁former	-9.59777
▁september	-9.59913
▁met	-9.6011
▁david	-9.60162
▁noises	-9.60174
▁fair	-9.60472
▁tri	-9.6058
▁track	-9.60606
ya	-9.60691
▁push	-9.60719
▁fellow	-9.60721
▁fear	-9.60727
▁paul	-9.60828
▁hungry	-9.60865
▁ti	-9.60958
▁miles	-9.60968
▁certainly	-9.61014
▁teacher	-9.61184
our	-9.61373
▁army	-9.6143
▁yesterday	-9.61538
▁view	-9.61643
▁ro	-9.61701
▁blood	-9.61707
▁december	-9.61968
▁pan	-9.61983
▁mary	-9.6199
unk	-9.62226
day	-9.62268
▁breakfast	-9.62475
▁hospital	-9.62611
▁george	-9.62635
read	-9.62781
▁sub	-9.62803
▁news	-9.6284
▁ru	-9.6291
▁telling	-9.63034
▁returned	-9.63159
nie	-9.63198
▁report	-9.63279
▁kitchen	-9.63326
▁changed	-9.63418
▁hu	-9.63436
▁february	-9.6353
▁wee	-9.63691
▁chicken	-9.63703
▁yep	-9.63725
ler	-9.63801
ud	-9.63826
▁bottle	-9.63869
▁afternoon	-9.63917
▁super	-9.63982
▁queen	-9.64171
jo	-9.64212
za	-9.6423
▁field	-9.64242
▁carry	-9.6432
▁helen	-9.64339
▁stopped	-9.64379
ble	-9.64421
▁following	-9.64547
▁london	-9.6457
there	-9.64878
▁bread	-9.64918
ally	-9.64932
▁major	-9.65058
▁lie	-9.65133
▁heavy	-9.65311
nce	-9.65542
▁built	-9.65724
▁secret	-9.65775
▁engine	-9.65838
▁supposed	-9.65964
ham	-9.66086
▁dress	-9.66086
▁trees	-9.66218
9	-9.66273
▁dat	-9.66334
▁form	-9.66408
mon	-9.6644
▁suddenly	-9.66472
▁trust	-9.66543
")	-9.66548
ut	-9.66626
▁decided	-9.66703
▁anybody	-9.66738
▁inter	-9.66746
▁control	-9.66773
▁san	-9.66886
▁bath	-9.66897
▁language	-9.66962
king	-9.66994
▁common	-9.67217
▁sad	-9.67337
▁written	-9.67379
▁cor	-9.67553
tor	-9.67721
mp	-9.68021
▁(19	-9.68061
▁indian	-9.68123
▁lake	-9.68139
▁opened	-9.6815
▁sam	-9.68354
ko	-9.68361
▁mess	-9.68447
▁sick	-9.68606
▁truth	-9.68667
▁test	-9.68713
%	-9.68785
▁fix	-9.68879
▁ga	-9.68909
▁hang	-9.69158
▁va	-9.69207
▁followed	-9.69218
friend	-9.69303
ving	-9.69599
▁using	-9.69624
▁games	-9.6967
nd	-9.70118
▁fraser	-9.70181
▁bridge	-9.70351
▁thirty	-9.7039
▁tv	-9.70637
her	-9.70772
▁sense	-9.70797
▁cry	-9.70948
▁lead	-9.70951
▁11	-9.71056
ph	-9.71208
▁hurry	-9.71268
ite	-9.71276
▁somewhere	-9.71306
ating	-9.71365
▁sand	-9.71462
▁figure	-9.71479
▁hasn	-9.71489
▁bunny	-9.71718
▁coffee	-9.71727
why	-9.71826
▁giving	-9.71908
▁bought	-9.71939
gi	-9.72172
▁lunch	-9.72261
▁ko	-9.72333
▁imp	-9.72376
▁carl	-9.72379
▁holding	-9.72387
▁doubt	-9.72413
▁step	-9.72532
▁mad	-9.72619
▁stuck	-9.72626
▁wa	-9.72634
▁leaving	-9.72636
▁jo	-9.73166
▁added	-9.73227
▁corner	-9.73242
fe	-9.73343
▁bottom	-9.73426
tra	-9.7363
▁support	-9.73684
▁gets	-9.73689
ol	-9.73775
oo	-9.73902
att	-9.73913
▁ja	-9.73958
▁level	-9.73978
▁battle	-9.74085
▁ye	-9.74129
▁weeks	-9.74347
▁pictures	-9.74354
▁watching	-9.74491
▁meeting	-9.74564
▁places	-9.74648
▁pretend	-9.74666
▁whom	-9.74671
▁moon	-9.74673
▁stone	-9.74688
▁smile	-9.74767
▁interest	-9.74866
▁tail	-9.74901
singing	-9.7495
▁elephant	-9.75116
▁fly	-9.75195
▁college	-9.7522
▁busy	-9.75227
ig	-9.75241
▁14	-9.75295
▁pink	-9.75413
▁bro	-9.75492
mb	-9.7557
▁wrote	-9.75572
▁fifty	-9.75598
they	-9.75626
▁charge	-9.75658
á	-9.75673
▁led	-9.75698
out	-9.75709
▁13	-9.75728
▁fi	-9.75754
▁beat	-9.75837
▁pet	-9.76017
ned	-9.76049
000	-9.76071
▁hill	-9.76074
ugh	-9.76196
▁bow	-9.76264
▁cook	-9.76364
▁machine	-9.76507
▁amy	-9.7656
not	-9.76615
ning	-9.76692
▁laugh	-9.76883
▁silver	-9.76996
▁grow	-9.77077
▁sky	-9.77152
▁happens	-9.77223
▁du	-9.77271
ab	-9.77273
▁van	-9.77295
▁bell	-9.77318
▁league	-9.77392
▁force	-9.77396
▁soft	-9.77417
ps	-9.77468
▁population	-9.77473
▁moving	-9.77507
▁pieces	-9.77595
▁minister	-9.77662
box	-9.7776
▁rabbit	-9.77779
▁welcome	-9.77779
ina	-9.77929
▁lose	-9.78001
op	-9.7811
▁ought	-9.78148
▁commune	-9.78152
▁hole	-9.78364
▁turns	-9.78621
▁cheese	-9.78693
▁animal	-9.7875
▁port	-9.78755
▁spring	-9.78818
▁ver	-9.78835
▁america	-9.78877
od	-9.78946
ric	-9.78963
▁rich	-9.7897
room	-9.7904
▁flowers	-9.79068
ice	-9.79082
▁roman	-9.79135
▁council	-9.79202
▁international	-9.79245
▁build	-9.79255
▁finally	-9.79311
▁further	-9.79371
now	-9.7948
mer	-9.79486
▁anymore	-9.79537
▁needs	-9.79539
tur	-9.79594
▁wonderful	-9.79658
▁spoke	-9.79692
▁works	-9.79754
▁cap	-9.79808
▁month	-9.79862
▁local	-9.8001
▁‘	-9.80437
▁legs	-9.805
▁kill	-9.80505
ator	-9.80577
▁tall	-9.80603
ub	-9.80748
▁laughs	-9.80779
▁except	-9.80813
▁si	-9.81007
▁grandma	-9.81007
▁cost	-9.81061
▁reach	-9.81195
▁parents	-9.81227
▁wi	-9.81309
▁beginning	-9.81387
▁circle	-9.81674
▁received	-9.81787
mother	-9.81797
▁exclaimed	-9.81813
▁dry	-9.81952
▁gi	-9.82026
20	-9.8203
▁including	-9.82071
▁michael	-9.82103
▁officer	-9.8211
▁none	-9.82137
▁robert	-9.82181
gasps	-9.82238
▁winter	-9.82322
gar	-9.82467
▁rising	-9.82525
ile	-9.82559
can	-9.82615
▁dan	-9.82658
uk	-9.82743
▁trip	-9.82776
tri	-9.82777
noise	-9.83146
illustration	-9.83181
▁james	-9.83285
▁mu	-9.83319
▁action	-9.83342
▁nin	-9.83501
▁30	-9.8354
▁square	-9.83598
end	-9.83924
▁attention	-9.8405
▁hide	-9.84088
▁carried	-9.84121
▁type	-9.84192
iv	-9.84236
child	-9.84374
▁walking	-9.84415
▁weren	-9.8442
nu	-9.84445
side	-9.84449
ily	-9.84499
▁video	-9.84549
laugh	-9.84549
▁leader	-9.84571
▁distance	-9.84835
▁fat	-9.84847
ical	-9.85116
▁meant	-9.85153
▁william	-9.85167
▁bi	-9.85207
▁members	-9.85207
ized	-9.85242
lic	-9.85382
▁shut	-9.85495
▁record	-9.85561
–	-9.85872
ier	-9.85899
▁direction	-9.85968
▁lion	-9.86063
ious	-9.86066
▁role	-9.86127
▁century	-9.86246
▁card	-9.86273
▁join	-9.86517
nt	-9.86547
▁drop	-9.86627
▁appeared	-9.86699
▁choo	-9.86765
▁object	-9.86876
▁knock	-9.86891
▁ow	-9.87178
▁wash	-9.87182
▁worth	-9.87212
ping	-9.87334
▁silence	-9.87435
▁jim	-9.87481
▁writing	-9.87552
ther	-9.87596
▁leg	-9.87606
▁key	-9.87626
▁popular	-9.87629
▁crying	-9.87631
▁cha	-9.87832
▁capital	-9.87833
▁pocket	-9.87877
▁harry	-9.88043
▁te	-9.88096
cat	-9.88128
io	-9.88521
points	-9.88621
▁match	-9.88773
▁har	-9.88797
▁camera	-9.8893
▁promise	-9.88976
▁shouldn	-9.89026
▁dropped	-9.89041
▁billy	-9.89178
▁spirit	-9.892
▁kiss	-9.89217
▁gate	-9.89244
▁egg	-9.89321
▁account	-9.89366
▁gar	-9.8945
▁information	-9.89628
▁allowed	-9.897
▁spoon	-9.89795
▁trans	-9.90024
▁due	-9.90139
fa	-9.90203
▁walked	-9.9036
▁favorite	-9.90379
sings	-9.90426
▁coat	-9.90449
▁pounds	-9.90505
▁expect	-9.90513
▁experience	-9.90558
▁seeing	-9.90607
▁taste	-9.90618
▁wake	-9.90682
▁laughing	-9.90688
come	-9.9078
▁puzzle	-9.90802
▁teeth	-9.90819
tle	-9.90858
▁province	-9.90862
▁bang	-9.90988
lt	-9.91255
▁difficult	-9.91257
ze	-9.91371
▁continued	-9.91499
ded	-9.915
▁character	-9.91523
▁based	-9.91543
▁sh	-9.91584
▁especially	-9.91633
ium	-9.9165
br	-9.91701
▁stage	-9.91838
ju	-9.9186
rn	-9.92003
▁cream	-9.92003
▁interesting	-9.92056
▁fresh	-9.92057
▁surprise	-9.9208
this	-9.92121
▁share	-9.92163
▁wide	-9.92212
amp	-9.92264
▁protect	-9.92306
clock	-9.92337
▁monkey	-9.92352
▁quarter	-9.92364
▁grass	-9.92403
▁term	-9.92475
▁gra	-9.92483
▁base	-9.92485
▁yo	-9.92486
then	-9.92496
▁horses	-9.92497
=	-9.92585
▁pi	-9.92701
ign	-9.92721
house	-9.92886
▁command	-9.92922
▁guard	-9.93234
▁press	-9.93345
▁famous	-9.93469
ip	-9.93472
▁teddy	-9.93694
▁reading	-9.93752
▁row	-9.93765
▁comp	-9.93848
▁min	-9.9387
▁block	-9.93944
▁letters	-9.94024
▁travel	-9.94172
▁speed	-9.94254
fi	-9.94393
act	-9.94497
du	-9.94647
▁je	-9.94752
▁allow	-9.94759
ise	-9.9485
▁bobby	-9.94982
▁scene	-9.95093
▁honor	-9.95143
▁ear	-9.95271
▁according	-9.95398
▁itself	-9.95412
▁created	-9.95427
▁period	-9.95458
▁cho	-9.9561
▁button	-9.95626
▁mountain	-9.95635
▁final	-9.9571
▁boo	-9.95727
▁japan	-9.95795
▁forest	-9.95926
▁future	-9.95972
▁finger	-9.96076
▁kitty	-9.96136
ries	-9.96141
ok	-9.96232
cy	-9.96235
om	-9.96259
▁conversation	-9.96274
▁center	-9.9659
gen	-9.96669
wi	-9.9667
looks	-9.96943
rk	-9.97055
▁prince	-9.97064
▁chocolate	-9.97081
▁plant	-9.9713
▁brush	-9.97208
▁forgot	-9.9733
▁laughed	-9.97345
field	-9.97564
▁perfect	-9.97668
▁clever	-9.97737
▁stars	-9.97751
▁smell	-9.97766
▁eggs	-9.97774
▁lower	-9.97832
ang	-9.9786
▁germany	-9.97861
▁uhoh	-9.97924
▁tower	-9.97943
▁ed	-9.98009
ji	-9.9807
í	-9.98137
▁union	-9.98137
sha	-9.98247
pped	-9.98361
▁twelve	-9.9837
▁tiger	-9.98397
▁interested	-9.98397
▁serious	-9.98398
ny	-9.98433
▁mor	-9.98513
▁crayon	-9.9853
▁glass	-9.9854
urs	-9.98575
▁explain	-9.98607
▁luck	-9.98684
▁flat	-9.98686
▁grew	-9.98726
▁paid	-9.98795
▁ears	-9.98955
▁alive	-9.99255
▁singing	-9.99358
▁slowly	-9.99385
▁radio	-9.99527
dic	-9.99548
ville	-9.99655
▁wheel	-9.99661
▁storm	-9.99759
▁shake	-9.9978
▁suit	-9.99868
▁director	-9.99899
▁pain	-10.0004
▁jane	-10.001
▁bri	-10.002
▁health	-10.0025
▁breath	-10.0027
▁plane	-10.0032
▁sheep	-10.0046
▁magic	-10.0047
▁mouse	-10.0047
▁birds	-10.0048
▁betty	-10.0054
▁picks	-10.0063
ku	-10.0067
ide	-10.0075
gg	-10.0087
ney	-10.009
▁below	-10.0104
▁price	-10.0114
▁lying	-10.0124
▁self	-10.0143
▁snake	-10.0149
▁respect	-10.0164
shi	-10.0168
▁cast	-10.0173
▁ge	-10.0186
tro	-10.0197
pi	-10.02
▁bra	-10.0201
▁blow	-10.0207
▁inv	-10.0234
▁adult	-10.0249
▁puts	-10.025
▁pot	-10.025
▁size	-10.0254
▁date	-10.0254
▁25	-10.0261
nic	-10.0264
▁add	-10.0265
▁whoa	-10.0269
▁coast	-10.027
pro	-10.0272
▁mc	-10.0274
▁situation	-10.0278
▁terrible	-10.0278
els	-10.0279
▁loved	-10.0285
▁scared	-10.0288
www	-10.0295
▁accident	-10.0297
ford	-10.0298
hu	-10.0303
▁neck	-10.0307
▁attempt	-10.0314
▁closed	-10.0332
med	-10.0332
▁hate	-10.0339
▁christian	-10.035
▁skin	-10.0351
▁computer	-10.0354
tan	-10.0356
▁showed	-10.0356
▁lee	-10.0367
like	-10.0391
▁sell	-10.0392
▁needed	-10.0394
▁actor	-10.0396
▁politician	-10.0399
▁phil	-10.04
ong	-10.0404
▁cal	-10.0407
▁unless	-10.0423
▁corn	-10.0423
▁drawing	-10.0424
ot	-10.044
10	-10.0445
▁bigger	-10.0448
▁danger	-10.0451
▁ate	-10.046
ped	-10.0463
▁california	-10.0463
▁cars	-10.0465
▁subject	-10.0466
▁ste	-10.0467
▁⌊	-10.0481
ations	-10.0485
▁bet	-10.0486
▁sleeping	-10.0507
ez	-10.0513
▁cell	-10.0518
▁⌈	-10.0518
▁jwww	-10.0519
▁shore	-10.0521
use	-10.0531
▁holds	-10.0544
▁bert	-10.055
▁pin	-10.056
▁(20	-10.0562
light	-10.0569
▁..	-10.0586
▁henry	-10.0587
▁kingdom	-10.0592
ative	-10.0593
ii	-10.0593
▁den	-10.0593
▁stories	-10.0596
▁richard	-10.06
▁host	-10.0602
▁questions	-10.0606
▁asking	-10.0617
▁thus	-10.0618
vin	-10.0628
▁difference	-10.0638
▁sharp	-10.0638
sta	-10.0639
▁joy	-10.064
▁success	-10.0648
▁gas	-10.0648
▁asleep	-10.065
▁driver	-10.0651
oth	-10.0652
▁sue	-10.0652
ung	-10.0659
▁hardly	-10.0674
▁trick	-10.0679
▁simple	-10.069
aw	-10.0691
11	-10.07
▁bowl	-10.0707
ach	-10.0709
▁india	-10.0712
gan	-10.0712
nder	-10.0715
▁handle	-10.072
▁forty	-10.0721
com	-10.0725
▁species	-10.073
▁hotel	-10.0737
▁smart	-10.0743
▁)	-10.0743
▁iron	-10.0747
▁manner	-10.0755
▁pig	-10.0756
▁countries	-10.0802
▁imagine	-10.0805
wood	-10.0806
▁edge	-10.0816
ified	-10.0823
▁bur	-10.0824
▁val	-10.0827
▁fruit	-10.0848
▁leaves	-10.0852
▁championship	-10.0865
▁beach	-10.0872
▁similar	-10.0874
▁trade	-10.0882
▁z	-10.0885
▁2019	-10.0885
▁liked	-10.0886
▁turning	-10.0915
▁peace	-10.0929
▁path	-10.094
▁sunday	-10.0943
▁central	-10.0947
▁natural	-10.0959
▁butter	-10.0977
▁enjoy	-10.0992
▁anne	-10.0993
▁crash	-10.1005
▁picked	-10.1016
▁aye	-10.1035
right	-10.1046
▁mis	-10.1046
▁soul	-10.1055
cing	-10.106
ging	-10.1064
▁24	-10.1071
▁education	-10.1074
fad	-10.1077
ag	-10.1083
▁bat	-10.1089
▁served	-10.1089
▁pie	-10.1091
fri	-10.1096
▁market	-10.1098
▁loud	-10.1101
▁starts	-10.1102
▁agree	-10.1105
▁judge	-10.1114
▁issue	-10.1123
▁lift	-10.1123
▁therefore	-10.1125
▁ob	-10.1127
ev	-10.1129
▁lock	-10.1134
oc	-10.1136
▁meat	-10.115
har	-10.1152
▁title	-10.1162
▁plays	-10.1167
▁include	-10.1179
▁spent	-10.118
▁result	-10.1185
▁election	-10.1191
▁professional	-10.1192
▁pleasure	-10.1194
▁slow	-10.1201
▁older	-10.1207
▁process	-10.1215
▁2018	-10.1218
▁bound	-10.1222
▁problems	-10.123
▁native	-10.1234
▁spread	-10.1236
▁cousin	-10.1241
▁upstairs	-10.1241
ana	-10.1244
▁helped	-10.1245
▁search	-10.1245
uh	-10.1245
▁speaking	-10.1248
▁vote	-10.1248
sib	-10.1255
▁sal	-10.1266
laughing	-10.1269
wn	-10.1272
▁puppet	-10.128
▁movement	-10.1282
▁brave	-10.1282
han	-10.1283
▁study	-10.1284
lon	-10.1293
▁purpose	-10.1294
▁ce	-10.1294
▁nature	-10.1305
head	-10.1309
▁calling	-10.131
▁western	-10.1311
▁2017	-10.1323
▁learned	-10.1325
▁talked	-10.133
▁shoot	-10.1331
▁bu	-10.1341
mu	-10.1342
▁double	-10.1342
lea	-10.1344
▁christ	-10.1357
▁covered	-10.1358
▁lad	-10.1362
▁beyond	-10.1362
tu	-10.1364
▁fingers	-10.1365
▁social	-10.1366
▁angel	-10.1369
▁royal	-10.1374
▁cheer	-10.1383
▁amount	-10.139
▁program	-10.139
ize	-10.1397
▁("	-10.1413
off	-10.1424
▁spend	-10.1442
low	-10.1442
who	-10.1446
▁feed	-10.1451
▁bite	-10.1454
rus	-10.1461
▁tro	-10.147
▁dar	-10.1472
▁oops	-10.1477
▁worse	-10.1478
▁tin	-10.1493
▁joined	-10.1506
▁artist	-10.1508
▁private	-10.1509
board	-10.1529
▁paris	-10.1529
▁professor	-10.153
▁ch	-10.1532
▁&	-10.1541
▁shoe	-10.1543
zz	-10.1549
nor	-10.1555
▁ken	-10.1581
▁message	-10.1581
▁parts	-10.1585
ap	-10.1594
▁paint	-10.1596
▁governor	-10.1597
uff	-10.1598
van	-10.1601
▁monster	-10.1601
▁shirt	-10.1606
pping	-10.1609
▁deck	-10.1609
▁japanese	-10.1611
fully	-10.1612
und	-10.1613
ably	-10.1618
▁adam	-10.1625
▁caused	-10.1634
▁cl	-10.1637
▁charles	-10.1638
▁fighting	-10.1642
▁rough	-10.1643
ita	-10.1645
▁particular	-10.1647
▁fox	-10.1652
▁grave	-10.1653
▁driving	-10.1653
▁silly	-10.166
▁sarah	-10.1663
ose	-10.1664
▁notice	-10.1664
ste	-10.1673
▁fe	-10.1676
▁21	-10.1687
ai	-10.1698
▁escape	-10.17
▁heaven	-10.1701
ren	-10.171
▁tiny	-10.171
some	-10.1712
▁beside	-10.1721
▁length	-10.173
▁spanish	-10.1741
▁bay	-10.1752
▁weather	-10.1752
▁flying	-10.1754
ö	-10.1756
▁mistake	-10.1758
over	-10.176
▁clock	-10.1761
▁eleanor	-10.1768
▁enemy	-10.177
▁project	-10.1779
▁sch	-10.1784
ris	-10.1784
▁mac	-10.1784
▁dollars	-10.1791
rate	-10.1791
bar	-10.1797
▁calm	-10.1797
▁personal	-10.1803
▁mass	-10.1808
▁cookie	-10.182
▁tony	-10.1821
rd	-10.1826
ix	-10.1844
▁political	-10.1848
▁award	-10.1854
▁extra	-10.1858
▁smoke	-10.1858
rri	-10.186
▁wo	-10.1862
port	-10.1867
place	-10.1876
▁modern	-10.1889
▁various	-10.1897
▁burn	-10.1898
▁background	-10.1904
▁missing	-10.1904
uch	-10.1911
▁begin	-10.1911
▁entered	-10.1919
▁europe	-10.1925
▁lucky	-10.1932
▁hy	-10.1933
▁nurse	-10.1945
▁tra	-10.1955
▁proud	-10.1957
▁declared	-10.197
▁agreed	-10.1991
▁che	-10.1997
▁address	-10.2006
▁dogs	-10.2007
▁sin	-10.2008
▁hiding	-10.2019
▁fan	-10.2026
▁mike	-10.2031
▁ladies	-10.2033
▁op	-10.2036
▁oo	-10.2037
▁effect	-10.204
▁pair	-10.2042
▁directed	-10.2062
▁crime	-10.2068
▁tight	-10.2082
▁slip	-10.2083
▁arrived	-10.2088
▁bin	-10.2092
▁crazy	-10.2096
▁offer	-10.2097
▁dressed	-10.2099
▁likely	-10.2102
▁drew	-10.2109
ld	-10.2109
su	-10.2114
▁absolutely	-10.2119
▁angry	-10.2123
▁flower	-10.2129
▁spell	-10.2132
▁2010	-10.2132
▁lid	-10.2139
▁pleasant	-10.215
work	-10.2152
▁bee	-10.217
▁starting	-10.2173
▁del	-10.2203
▁russian	-10.2211
ions	-10.2216
▁fur	-10.2218
▁original	-10.2219
▁saint	-10.2241
▁science	-10.2243
row	-10.2249
▁falling	-10.2252
▁dangerous	-10.2253
▁australia	-10.2254
▁jesus	-10.226
▁strength	-10.2268
▁vo	-10.2269
▁happening	-10.227
▁cre	-10.2279
lf	-10.2282
▁dolly	-10.2286
▁note	-10.2286
▁regular	-10.2292
▁sugar	-10.2297
▁census	-10.2298
▁gro	-10.2299
▁thou	-10.23
▁23	-10.2301
▁fred	-10.2303
dge	-10.2305
rac	-10.2307
▁names	-10.2308
▁soldiers	-10.2315
ep	-10.2316
▁ham	-10.2317
▁2021	-10.2327
▁largest	-10.2329
ker	-10.233
law	-10.2332
▁cop	-10.2335
▁choice	-10.2338
▁singer	-10.2343
nk	-10.2346
rr	-10.2355
▁ke	-10.2355
▁steps	-10.2356
▁apart	-10.236
▁considered	-10.2361
▁accept	-10.2367
▁brain	-10.237
▁northern	-10.2371
▁mid	-10.2375
▁cro	-10.2375
▁laid	-10.2379
▁design	-10.2387
12	-10.239
▁slide	-10.2394
gh	-10.2398
▁version	-10.2399
▁fu	-10.241
▁companion	-10.2412
▁wal	-10.2416
▁anywhere	-10.2417
▁hum	-10.2421
▁centre	-10.2422
▁thick	-10.2429
▁patient	-10.2431
▁basket	-10.2438
▁sold	-10.2444
ities	-10.2452
▁han	-10.2452
▁crew	-10.2465
uck	-10.2465
▁coach	-10.2471
night	-10.2471
zi	-10.2474
▁military	-10.248
▁babies	-10.2484
▁hal	-10.2485
bby	-10.2486
▁besides	-10.2491
▁castle	-10.2492
▁tone	-10.2494
▁saturday	-10.2495
ened	-10.2503
▁discovered	-10.2515
ack	-10.252
▁ann	-10.2534
▁plain	-10.2536
▁immediately	-10.2538
▁neither	-10.2542
▁wave	-10.2543
▁forth	-10.2545
▁threw	-10.2549
▁dinosaur	-10.2557
▁meaning	-10.2565
▁holiday	-10.2579
tes	-10.2583
▁female	-10.2583
▁woods	-10.2595
▁easily	-10.2596
▁ocean	-10.2596
▁european	-10.2601
▁climb	-10.2608
▁100	-10.2611
▁research	-10.2624
▁surprised	-10.263
▁meal	-10.263
▁knee	-10.2632
▁farmer	-10.2633
▁missed	-10.2634
▁qua	-10.264
▁cra	-10.264
nny	-10.2642
ek	-10.2645
▁cur	-10.2646
▁murder	-10.2648
▁blocks	-10.2648
▁completely	-10.2649
▁prize	-10.2651
▁bother	-10.2665
▁energy	-10.267
▁naughty	-10.267
▁purple	-10.267
▁correct	-10.2672
▁wearing	-10.2674
ible	-10.2677
▁journey	-10.2685
▁anna	-10.2689
▁kick	-10.2697
▁fault	-10.2701
▁effort	-10.2703
▁→	-10.2703
▁china	-10.2706
30	-10.2717
▁watched	-10.2723
nch	-10.2725
▁twice	-10.2731
▁exist	-10.2732
▁placed	-10.2743
▁spider	-10.2753
▁marry	-10.2754
▁roof	-10.2765
▁goal	-10.2768
▁society	-10.2768
▁duty	-10.2769
ky	-10.2772
hand	-10.2778
▁ski	-10.2779
ered	-10.2782
▁bomb	-10.2782
▁martin	-10.2782
▁empty	-10.2784
▁goodness	-10.279
▁fill	-10.2792
▁max	-10.28
▁municipality	-10.2808
▁shows	-10.281
gie	-10.281
ama	-10.2815
ming	-10.2815
▁current	-10.2822
▁windows	-10.2824
▁pulled	-10.2826
▁22	-10.2828
▁fri	-10.2838
▁mal	-10.2839
▁zoo	-10.286
▁raised	-10.2864
vocalizes	-10.287
▁fl	-10.2873
▁2011	-10.2876
▁lieutenant	-10.2881
ken	-10.2887
▁model	-10.2908
▁medicine	-10.291
▁ki	-10.2911
▁anti	-10.292
burg	-10.2924
▁stra	-10.2925
▁higher	-10.2927
▁serve	-10.2929
▁barn	-10.293
▁aw	-10.2937
▁flight	-10.2939
▁lines	-10.2947
▁supper	-10.2951
▁simply	-10.2953
ica	-10.2956
▁stream	-10.296
▁plenty	-10.2962
▁boss	-10.2963
▁movies	-10.2964
▁ven	-10.2972
mat	-10.2978
zo	-10.2995
▁ci	-10.2999
▁onto	-10.3006
▁produced	-10.3016
▁italian	-10.302
▁filled	-10.3022
▁balloon	-10.3027
hy	-10.3027
▁charlie	-10.3027
▁prove	-10.3029
▁unit	-10.3041
top	-10.3055
sure	-10.3056
▁2016	-10.3059
▁ter	-10.3089
▁goin	-10.3095
▁lin	-10.3096
cc	-10.3097
▁huge	-10.3101
kar	-10.3106
▁formed	-10.311
▁para	-10.3113
bra	-10.3117
▁flag	-10.3123
▁rate	-10.3126
▁risk	-10.3129
pl	-10.3132
▁fifteen	-10.3134
▁gentlemen	-10.3134
ure	-10.3137
▁division	-10.3139
run	-10.3139
ition	-10.314
▁hadn	-10.3149
▁tre	-10.3153
just	-10.3158
▁ram	-10.3161
▁studio	-10.3162
▁def	-10.3163
gro	-10.3165
kay	-10.3167
▁vessel	-10.3168
▁fallen	-10.317
▁princess	-10.3171
▁teach	-10.3183
▁nu	-10.3193
▁stan	-10.3197
▁flash	-10.32
▁tip	-10.3201
▁telephone	-10.3202
▁opening	-10.3204
▁range	-10.3232
▁ancient	-10.3235
▁pu	-10.3245
▁eleven	-10.3247
cla	-10.3248
▁non	-10.3256
▁practice	-10.3258
▁excited	-10.3258
▁decision	-10.326
▁appearance	-10.3261
▁prime	-10.3262
▁mission	-10.3268
▁shi	-10.3269
▁total	-10.3275
ple	-10.328
▁pound	-10.329
▁evidence	-10.329
▁whoops	-10.3294
▁choose	-10.3296
▁expected	-10.3299
▁()	-10.3299
▁southern	-10.3305
gue	-10.3316
vy	-10.3318
duc	-10.3318
▁tie	-10.3321
▁partner	-10.3323
▁maggie	-10.3327
▁mate	-10.3333
rya	-10.3349
▁degree	-10.3351
▁$	-10.3352
col	-10.3356
▁com	-10.3358
▁steven	-10.336
▁ser	-10.3376
tis	-10.3379
▁channel	-10.3381
picks	-10.3385
where	-10.339
▁male	-10.3391
▁necessary	-10.3395
▁cu	-10.3397
brother	-10.3402
[	-10.3403
▁tale	-10.3407
▁announced	-10.3411
▁za	-10.3417
ec	-10.3419
▁pleased	-10.342
▁pause	-10.3428
▁songs	-10.3429
▁1,	-10.343
_,	-10.3432
▁gives	-10.3435
▁needta	-10.3435
▁gift	-10.3442
▁promised	-10.3449
▁swimming	-10.3452
▁mostly	-10.346
▁gentleman	-10.3461
▁colors	-10.3461
▁ended	-10.3466
ture	-10.3473
bel	-10.3474
▁fla	-10.3475
▁official	-10.3478
ven	-10.3487
▁app	-10.3489
▁sp	-10.3494
▁gre	-10.3502
▁bla	-10.3504
ay	-10.3507
ug	-10.3508
▁prison	-10.3509
15	-10.3513
▁content	-10.3513
ette	-10.3516
▁refer	-10.3527
▁sail	-10.3531
▁usual	-10.3534
▁fra	-10.3538
▁rope	-10.3538
▁painting	-10.3538
17	-10.3547
▁26	-10.3548
▁believed	-10.3549
▁oil	-10.3551
▁string	-10.3559
,--	-10.356
ax	-10.3561
back	-10.3562
▁ger	-10.357
▁community	-10.3582
here	-10.3585
▁awful	-10.3585
chuckles	-10.3595
14	-10.3595
▁faith	-10.3602
▁salt	-10.3608
▁continues	-10.3612
▁rule	-10.3618
▁pack	-10.3623
▁gen	-10.363
▁par	-10.3636
▁papa	-10.3637
▁rid	-10.3641
▁earlier	-10.3651
▁dare	-10.3658
▁bump	-10.3668
▁ban	-10.367
ock	-10.3683
ius	-10.3694
▁episode	-10.3707
bling	-10.3718
ties	-10.3719
▁measure	-10.3721
▁saved	-10.3722
lia	-10.3724
▁grown	-10.3731
▁2014	-10.3734
▁tim	-10.3742
▁numbers	-10.3743
▁crowd	-10.3747
▁marriage	-10.375
▁laura	-10.3758
▁remain	-10.3762
ef	-10.3763
ela	-10.3763
▁gray	-10.3767
fl	-10.377
▁heat	-10.3771
▁qui	-10.3775
▁writer	-10.3778
▁pour	-10.378
aft	-10.3787
▁der	-10.3788
▁creature	-10.3804
mor	-10.3811
▁27	-10.3812
are	-10.3824
▁motion	-10.3834
▁ku	-10.3841
old	-10.3844
soa	-10.3846
▁material	-10.3858
counter	-10.3863
▁haha	-10.3876
▁2012	-10.3886
▁civil	-10.3888
▁carefully	-10.3889
puts	-10.3897
▁knife	-10.3897
▁stu	-10.3898
vis	-10.3906
jen	-10.3908
▁ty	-10.3909
(	-10.3914
▁2013	-10.3915
take	-10.3915
bble	-10.392
▁treat	-10.3924
▁mat	-10.3946
rie	-10.3947
▁border	-10.3949
▁event	-10.395
▁hug	-10.3956
ü	-10.3959
▁lap	-10.3963
▁fer	-10.397
▁fo	-10.398
▁enter	-10.3982
▁golden	-10.3989
cle	-10.3989
▁friday	-10.3989
▁toast	-10.3993
▁jean	-10.3996
▁silent	-10.4004
▁dancing	-10.4004
▁blanket	-10.4014
ology	-10.4014
▁value	-10.4019
▁tears	-10.4019
▁style	-10.402
▁load	-10.4023
▁bike	-10.4025
▁santa	-10.4037
takes	-10.405
get	-10.405
▁dirty	-10.4051
▁texas	-10.4051
▁sy	-10.4056
▁weight	-10.4059
▁fourth	-10.4059
▁listening	-10.4063
▁mountains	-10.4063
cries	-10.4065
▁author	-10.4066
▁metal	-10.4073
▁sudden	-10.4081
ston	-10.4084
▁[2	-10.4089
▁wolf	-10.4092
▁nest	-10.4095
▁growing	-10.4101
ell	-10.4103
▁speech	-10.4104
▁forgive	-10.411
ight	-10.4115
▁pit	-10.4119
▁rise	-10.4122
▁shoulder	-10.4126
▁noticed	-10.4131
▁bonnet	-10.4136
▁site	-10.4145
▁bug	-10.4147
▁obviously	-10.415
▁successful	-10.4158
ches	-10.416
▁28	-10.4162
▁bull	-10.4166
▁development	-10.4175
ou	-10.4181
ball	-10.4189
ura	-10.4193
▁newspaper	-10.4197
▁downstairs	-10.4199
▁ordered	-10.42
▁officers	-10.4209
▁2015	-10.4213
cu	-10.4217
book	-10.422
ged	-10.4224
▁keeping	-10.4227
▁gri	-10.4232
ari	-10.4236
til	-10.4241
▁colonel	-10.4243
pan	-10.4245
▁ross	-10.4246
▁hero	-10.4248
▁sco	-10.4264
▁struck	-10.4264
▁valley	-10.4265
▁hop	-10.4267
▁remind	-10.4275
▁desire	-10.4281
13	-10.4282
did	-10.4285
din	-10.4285
▁smith	-10.4286
▁2008	-10.4297
q	-10.4298
▁signal	-10.4305
▁consider	-10.4307
▁thy	-10.4308
▁manager	-10.4312
▁2022	-10.4321
▁ze	-10.4324
▁involved	-10.4324
▁pal	-10.4325
mel	-10.433
dor	-10.434
▁joke	-10.4345
▁lawyer	-10.4356
▁damage	-10.4357
▁alice	-10.4362
▁pra	-10.4362
▁otherwise	-10.4364
▁motor	-10.4385
▁horn	-10.4397
▁appear	-10.4405
▁stairs	-10.4407
▁stock	-10.4412
▁impossible	-10.4415
war	-10.4419
▁rat	-10.4423
▁goodbye	-10.4426
sie	-10.4427
▁swing	-10.4441
▁pizza	-10.4441
ov	-10.4442
▁terms	-10.4446
▁mail	-10.4454
▁washington	-10.4456
▁29	-10.4456
▁agent	-10.4458
▁colour	-10.4476
▁lips	-10.4477
▁taught	-10.4478
▁published	-10.4484
▁moves	-10.4486
▁decide	-10.4491
▁guns	-10.4492
▁magazine	-10.4493
▁rep	-10.4495
▁wan	-10.4499
yo	-10.4501
more	-10.4501
▁individual	-10.4504
▁wise	-10.451
▁gal	-10.4511
tive	-10.4513
▁mon	-10.4516
50	-10.4522
log	-10.4524
▁training	-10.4526
ae	-10.4526
dra	-10.454
▁char	-10.4542
▁log	-10.4546
good	-10.455
oon	-10.4553
▁stranger	-10.4554
▁glo	-10.4561
▁worried	-10.4564
▁beauty	-10.4567
▁italy	-10.4577
ery	-10.4588
▁nut	-10.4591
▁influence	-10.4596
▁normal	-10.46
▁comment	-10.4605
▁giant	-10.4607
19	-10.4608
▁throat	-10.4617
▁canada	-10.462
▁occasion	-10.4622
è	-10.4622
▁crown	-10.4623
eg	-10.4624
play	-10.4628
▁disease	-10.4635
▁operation	-10.4641
▁sis	-10.4646
▁tar	-10.4647
&	-10.4647
▁ninety	-10.4649
▁honest	-10.4658
▁honour	-10.466
▁comfort	-10.466
▁crack	-10.4674
▁bedroom	-10.4674
ye	-10.4674
▁everywhere	-10.4676
with	-10.4676
▁spoken	-10.4676
▁planet	-10.4683
▁pool	-10.4693
▁flow	-10.4694
▁ruth	-10.4695
▁2007	-10.4697
▁mill	-10.4701
▁yum	-10.4711
mal	-10.4713
▁2009	-10.4714
▁actress	-10.4721
mate	-10.4721
▁receive	-10.4723
▁closer	-10.4725
▁finding	-10.4726
▁nineteen	-10.4726
fo	-10.4729
▁lights	-10.473
▁blind	-10.4734
▁tongue	-10.474
▁bon	-10.4758
▁swim	-10.4766
▁committee	-10.4769
▁entire	-10.4773
▁contain	-10.4778
▁brand	-10.4778
sen	-10.4781
▁ned	-10.4787
peter	-10.4793
▁buck	-10.4795
▁strike	-10.4796
hal	-10.4796
▁chris	-10.4799
▁commander	-10.4804
nes	-10.4806
⌉.	-10.4809
▁surface	-10.481
▁fre	-10.4811
▁regard	-10.4812
▁organ	-10.4812
▁cards	-10.4821
▁slave	-10.4824
▁moo	-10.4826
▁pla	-10.4827
▁tries	-10.4833
▁youth	-10.4841
▁fence	-10.4858
▁eastern	-10.4875
▁sixty	-10.4877
▁wedding	-10.4886
▁forgotten	-10.4887
▁towel	-10.4888
▁claim	-10.4891
▁orders	-10.4898
▁complete	-10.4898
▁fixed	-10.4918
▁roger	-10.4923
door	-10.4923
▁spin	-10.4928
▁prepared	-10.4929
fin	-10.4931
--"	-10.4935
sighs	-10.4938
▁protest	-10.4948
▁sur	-10.4957
ik	-10.4958
▁begins	-10.4959
▁sake	-10.496
▁republic	-10.4964
▁wine	-10.4965
▁plants	-10.4971
▁owner	-10.4972
mic	-10.4976
▁dig	-10.4983
▁provide	-10.4984
▁defend	-10.4984
igh	-10.4991
▁smaller	-10.4996
▁shadow	-10.5003
▁medal	-10.5005
see	-10.5016
18	-10.502
▁africa	-10.5021
▁rank	-10.5028
▁desert	-10.5036
▁weak	-10.5043
▁beep	-10.5055
ade	-10.5057
▁thin	-10.5057
▁nick	-10.5061
▁2006	-10.5062
▁chinese	-10.5062
▁spain	-10.5062
▁purdie	-10.5064
pen	-10.5067
▁mister	-10.5073
kh	-10.5076
▁louis	-10.508
je	-10.5084
▁continue	-10.5091
set	-10.5093
▁dump	-10.5093
rge	-10.5103
glo	-10.5105
▁treasure	-10.5105
▁loss	-10.5111
▁located	-10.5117
▁broad	-10.5121
qu	-10.5122
jes	-10.5126
▁generally	-10.5127
▁founded	-10.5129
▁dia	-10.5131
▁tax	-10.5132
▁ticket	-10.5134
▁managed	-10.5135
▁rush	-10.5141
▁definitely	-10.5147
▁drinking	-10.5149
▁cabin	-10.5153
lar	-10.5172
▁50	-10.5175
ob	-10.5176
▁shown	-10.5178
pri	-10.5179
▁ur	-10.5183
▁greater	-10.5184
16	-10.5185
shed	-10.5188
▁quietly	-10.5191
▁dick	-10.5192
bert	-10.5196
▁mix	-10.5196
tain	-10.5198
▁sports	-10.5204
▁reaches	-10.5206
▁formula	-10.5208
▁sum	-10.5212
▁sandwich	-10.5225
▁cloth	-10.5229
▁dust	-10.5235
▁fashion	-10.5238
▁condition	-10.5246
▁museum	-10.5248
▁upset	-10.5261
▁jumped	-10.5263
▁empire	-10.5271
▁evil	-10.5277
▁hay	-10.5277
▁contract	-10.5282
ray	-10.5282
when	-10.5294
▁banana	-10.5296
dis	-10.5303
looking	-10.5307
▁chase	-10.5312
▁eli	-10.5315
▁shout	-10.5315
▁uhuh	-10.5326
▁brothers	-10.5328
▁sword	-10.5329
ern	-10.5334
▁trail	-10.5343
worth	-10.5349
▁grab	-10.5352
▁suggest	-10.5353
ever	-10.5354
bye	-10.5355
▁odd	-10.5359
▁harm	-10.536
morrow	-10.5362
pp	-10.5363
▁opportunity	-10.5364
▁possibly	-10.5364
⌋.	-10.5365
babbles	-10.5371
▁represent	-10.5382
▁disc	-10.5384
▁alarm	-10.5385
▁fellows	-10.539
press	-10.5392
ched	-10.5397
rit	-10.5398
▁copy	-10.5402
▁novel	-10.5411
▁aged	-10.5416
▁ray	-10.5419
▁carrying	-10.5425
▁relationship	-10.5425
bil	-10.5425
▁gordon	-10.5427
▁wheels	-10.5432
ory	-10.5433
▁students	-10.5437
▁secretary	-10.5439
▁parliament	-10.5442
roz	-10.5442
▁remained	-10.5446
▁security	-10.545
▁falls	-10.5456
▁softly	-10.546
▁grace	-10.5461
bri	-10.5462
▁dec	-10.5464
▁rod	-10.5467
▁airport	-10.5473
▁prevent	-10.5474
▁riding	-10.5485
▁rules	-10.5498
▁victim	-10.5499
▁greatest	-10.5501
▁mamma	-10.5509
▁comm	-10.5521
ify	-10.5521
berg	-10.5526
▁release	-10.553
▁opposite	-10.5548
▁awake	-10.555
▁opinion	-10.556
▁shock	-10.5563
▁kim	-10.557
▁pirate	-10.5576
▁crawl	-10.5578
▁pipe	-10.5582
▁leading	-10.5583
▁ph	-10.5589
/0	-10.5592
▁bud	-10.5593
▁monday	-10.5593
▁percent	-10.5596
ria	-10.5604
▁servant	-10.5604
▁section	-10.5605
▁rocks	-10.561
▁yup	-10.5614
▁desk	-10.5614
▁yell	-10.5623
▁chest	-10.5624
air	-10.5631
▁suggested	-10.5636
▁file	-10.5649
▁bun	-10.5658
▁scout	-10.5661
▁events	-10.5664
▁tent	-10.5665
▁mud	-10.5671
▁equal	-10.5677
▁plans	-10.5677
▁nope	-10.5678
▁hook	-10.5679
gy	-10.568
▁showing	-10.5681
▁contact	-10.5692
▁runs	-10.5695
fer	-10.5697
▁chart	-10.5698
▁ghost	-10.5701
▁julia	-10.5704
▁soldier	-10.5707
phone	-10.5709
stra	-10.5713
▁pray	-10.5715
▁favor	-10.5742
▁sentence	-10.5743
▁stayed	-10.5744
▁microphone	-10.575
miss	-10.5754
▁loose	-10.5759
▁hmm	-10.576
▁wire	-10.5766
▁exp	-10.5777
▁realize	-10.578
down	-10.5784
▁bessie	-10.5785
qua	-10.5787
▁willing	-10.5793
▁greek	-10.5799
▁afterwards	-10.5808
▁champion	-10.5808
▁guide	-10.5816
cept	-10.5827
▁pri	-10.5835
▁squ	-10.5837
▁groups	-10.5839
gin	-10.5843
▁ourselves	-10.5846
▁easier	-10.5852
▁olympics	-10.5853
▁switch	-10.5857
▁lamb	-10.5857
cul	-10.5861
▁direct	-10.5862
▁offered	-10.5868
▁walks	-10.5875
yard	-10.5877
▁production	-10.5881
▁roar	-10.5885
▁discuss	-10.5887
▁chain	-10.5895
▁fool	-10.5897
kat	-10.5897
▁hunt	-10.5899
▁sex	-10.59
rop	-10.5902
nel	-10.5903
▁goat	-10.5916
▁records	-10.5921
▁wipe	-10.5924
▁tour	-10.593
▁staff	-10.5933
▁yyy	-10.5934
▁rome	-10.5941
▁cities	-10.5947
▁scott	-10.5955
ddle	-10.5956
▁mus	-10.5959
▁helping	-10.5961
▁foreign	-10.5967
ino	-10.5969
▁rescue	-10.5973
izing	-10.5975
▁trunk	-10.5979
av	-10.5985
▁performance	-10.5992
lock	-10.5996
▁apparently	-10.5997
▁tap	-10.5998
▁attend	-10.601
▁pile	-10.6012
▁map	-10.6014
▁directly	-10.6016
▁glasses	-10.6018
▁excellent	-10.6018
lau	-10.6024
win	-10.6025
nods	-10.6026
▁drum	-10.603
▁safety	-10.6032
▁frightened	-10.6036
▁element	-10.6037
▁younger	-10.6038
▁areas	-10.6039
▁sailor	-10.6044
▁association	-10.6046
▁tank	-10.6046
▁standard	-10.6047
▁brilliant	-10.6049
▁credit	-10.6049
▁hor	-10.6051
▁narrow	-10.6055
ctor	-10.6058
very	-10.6065
▁manage	-10.6065
pu	-10.6066
look	-10.6067
▁presently	-10.6081
▁dutch	-10.6083
▁tan	-10.6084
▁product	-10.6088
lk	-10.609
▁[3	-10.609
▁text	-10.6093
ala	-10.6095
▁joseph	-10.6096
▁ladder	-10.6097
▁perfectly	-10.6097
len	-10.6099
▁code	-10.61
▁retired	-10.6101
▁cave	-10.6101
▁dozen	-10.6104
▁’	-10.6105
▁~	-10.6106
▁knight	-10.6106
year	-10.612
▁seconds	-10.6122
▁bringing	-10.6127
▁surely	-10.613
▁neat	-10.6131
▁rec	-10.6134
▁memory	-10.6144
▁changes	-10.6147
▁academy	-10.6147
bal	-10.6148
21	-10.6148
▁2000	-10.6149
ute	-10.6149
▁source	-10.6153
▁fancy	-10.6155
▁shopping	-10.6158
▁whispered	-10.6162
die	-10.6162
▁edward	-10.6164
ue	-10.617
▁gru	-10.6175
silence	-10.6179
▁comfortable	-10.6186
▁settled	-10.6187
▁knowledge	-10.6197
▁fortune	-10.6197
▁clown	-10.6197
gged	-10.62
▁curious	-10.6201
▁task	-10.622
pose	-10.6225
▁40	-10.6236
▁eighty	-10.6247
cus	-10.625
▁biscuit	-10.6253
▁bart	-10.6255
▁anxious	-10.6256
▁awards	-10.6258
▁horsie	-10.6259
▁pressure	-10.626
25	-10.6263
stone	-10.6264
▁airplane	-10.6265
▁doggie	-10.6277
▁forever	-10.6277
▁jones	-10.6278
▁buddy	-10.6279
▁nursery	-10.6284
ering	-10.6287
voc	-10.6287
▁elder	-10.6291
▁wondering	-10.6299
▁shouted	-10.63
▁response	-10.6303
▁smiled	-10.6308
ists	-10.6308
filler	-10.6312
▁collect	-10.6315
▁separate	-10.632
▁chairman	-10.6325
▁bathroom	-10.6326
▁chap	-10.6329
ett	-10.633
▁boots	-10.6334
cher	-10.6338
▁carriage	-10.634
▁glance	-10.6348
▁mention	-10.6358
▁bush	-10.6362
rah	-10.6362
▁transport	-10.6363
▁soup	-10.6367
▁chan	-10.6367
▁blame	-10.6371
▁forced	-10.6373
▁mile	-10.6374
▁mag	-10.6378
pha	-10.6378
▁poo	-10.6381
▁rub	-10.6382
▁fairy	-10.6382
▁score	-10.6382
▁biggest	-10.6384
▁yard	-10.6392
tte	-10.6392
▁shell	-10.6394
may	-10.6399
▁services	-10.64
▁photograph	-10.64
▁proper	-10.6402
-19	-10.6407
▁hammer	-10.6409
ace	-10.641
▁sport	-10.6417
▁flo	-10.6419
▁medical	-10.642
▁palace	-10.6426
▁bid	-10.6436
▁cute	-10.6443
▁pencil	-10.6448
▁media	-10.6456
▁hanging	-10.6468
shire	-10.6472
▁forces	-10.6481
▁culture	-10.6489
▁islands	-10.649
▁concern	-10.6493
ject	-10.6493
▁trial	-10.6496
▁photo	-10.6496
ux	-10.6503
▁waste	-10.6505
ane	-10.6506
▁explained	-10.6507
▁dada	-10.6514
▁mentioned	-10.6515
▁mirror	-10.6518
▁particularly	-10.6522
▁col	-10.6524
▁belong	-10.6525
▁whisper	-10.653
▁fairly	-10.6534
was	-10.6535
▁snap	-10.6535
mr	-10.6537
▁perform	-10.6537
▁shook	-10.6538
▁smiling	-10.654
▁article	-10.654
▁destroy	-10.6541
▁matt	-10.6542
▁twin	-10.6544
▁eaten	-10.6545
▁upper	-10.6548
▁q	-10.6549
ese	-10.6558
▁threat	-10.6559
▁tough	-10.656
bout	-10.6563
town	-10.6563
▁network	-10.657
▁tractor	-10.6573
ara	-10.6576
▁reply	-10.6578
▁depend	-10.658
▁gentle	-10.6582
▁cash	-10.6591
▁eva	-10.6596
cho	-10.6604
gle	-10.6605
▁yu	-10.6606
wan	-10.6608
▁waited	-10.6613
▁grandpa	-10.6614
▁jam	-10.6615
▁2005	-10.6622
cker	-10.6624
▁rings	-10.6636
▁birth	-10.6637
ew	-10.6644
lyn	-10.6644
▁included	-10.6645
▁powerful	-10.6647
▁developed	-10.6649
▁bal	-10.6655
▁highest	-10.6671
▁walls	-10.6671
ening	-10.6684
▁cases	-10.6684
▁somewhat	-10.6686
▁duh	-10.6692
▁pilot	-10.6692
▁sweetie	-10.6696
▁faster	-10.6702
▁express	-10.6706
▁rev	-10.6709
▁cloud	-10.6712
▁studied	-10.6715
▁wha	-10.6717
▁penny	-10.6721
▁wings	-10.6721
▁amazing	-10.6722
cent	-10.6728
ann	-10.673
▁larger	-10.6736
▁signed	-10.6738
▁2004	-10.6746
▁holy	-10.6747
mont	-10.6748
▁neighbor	-10.675
▁flew	-10.6761
▁washing	-10.6764
▁method	-10.6771
lie	-10.6772
▁drama	-10.6774
▁consist	-10.6776
toy	-10.6778
▁clearly	-10.6782
▁kinda	-10.6786
▁vol	-10.6788
▁boom	-10.6788
▁passing	-10.6791
▁avoid	-10.6797
▁witness	-10.6805
▁faint	-10.6806
illa	-10.6806
▁expression	-10.6824
▁jar	-10.6828
▁owl	-10.6831
▁2001	-10.6839
nation	-10.6839
▁gang	-10.684
▁jan	-10.6851
▁dragon	-10.6853
▁leap	-10.6864
wait	-10.6868
▁afford	-10.6873
ena	-10.6876
▁struggle	-10.688
▁hung	-10.6881
▁firm	-10.6884
▁beast	-10.6885
▁splash	-10.689
▁tribe	-10.6893
▁rad	-10.6894
lor	-10.6896
eth	-10.6899
▁hearing	-10.6899
sol	-10.6899
mond	-10.6905
▁arch	-10.6915
fall	-10.6921
dia	-10.6923
▁players	-10.6924
ien	-10.6931
▁properly	-10.6936
tz	-10.6937
yl	-10.6943
▁aid	-10.6945
▁repeated	-10.6946
▁boats	-10.6953
ration	-10.6953
▁yay	-10.6959
▁ships	-10.6961
▁gain	-10.6966
▁turtle	-10.6967
▁lara	-10.6968
▁swa	-10.697
▁recording	-10.6973
▁railway	-10.6974
▁cancer	-10.6976
ison	-10.6978
▁focus	-10.6994
▁hills	-10.6996
bre	-10.7002
▁justice	-10.7003
mber	-10.7008
▁hoo	-10.701
▁bru	-10.701
▁priest	-10.7019
▁florida	-10.702
▁chicago	-10.7024
ick	-10.7027
▁reg	-10.7028
iz	-10.7029
put	-10.7036
▁russia	-10.7039
▁skill	-10.7042
▁ted	-10.7043
▁scratch	-10.7047
hum	-10.706
▁strip	-10.7061
pre	-10.7076
▁madam	-10.7078
nia	-10.7092
▁library	-10.7095
▁australian	-10.7098
▁1990	-10.7099
bell	-10.7112
▁temple	-10.712
ounce	-10.712
▁weird	-10.7122
▁complain	-10.7125
lish	-10.7129
▁peas	-10.7129
▁spare	-10.7137
▁papers	-10.714
▁nervous	-10.7142
hoo	-10.7144
▁average	-10.7146
▁organization	-10.7146
▁calls	-10.7149
will	-10.7153
▁shh	-10.7166
▁raise	-10.7166
▁doin	-10.7169
▁acting	-10.7184
▁related	-10.7187
▁elected	-10.7188
▁positive	-10.719
say	-10.7196
ised	-10.7198
spir	-10.7198
gging	-10.7204
▁thrown	-10.7205
▁keys	-10.7205
▁grandmother	-10.7205
ual	-10.721
▁doo	-10.7212
ano	-10.7212
spect	-10.7214
▁baseball	-10.7215
uc	-10.7221
▁stands	-10.7228
about	-10.7229
▁concerned	-10.7231
▁folks	-10.7231
▁philip	-10.7232
▁hurried	-10.7241
▁property	-10.7247
▁latter	-10.7255
▁bend	-10.7257
▁emperor	-10.7262
▁leaf	-10.7263
▁alex	-10.7263
▁available	-10.7266
▁disappeared	-10.7267
▁wound	-10.7279
▁eu	-10.7279
▁debut	-10.7281
▁apartment	-10.7282
▁est	-10.7288
tom	-10.7292
▁remarked	-10.7293
cli	-10.7296
▁utterance	-10.7297
▁feather	-10.73
▁settle	-10.7302
▁document	-10.7304
▁steve	-10.7308
▁sink	-10.7309
▁pushed	-10.731
▁african	-10.7312
▁gil	-10.7314
▁secure	-10.7315
▁scream	-10.7316
▁beg	-10.7321
▁relative	-10.7324
▁understood	-10.7324
▁var	-10.7327
▁rare	-10.7329
▁burst	-10.7335
▁sar	-10.7338
gn	-10.7339
▁tickle	-10.7341
▁grant	-10.7342
▁rear	-10.7344
fra	-10.7346
▁weekend	-10.7349
▁request	-10.7349
cra	-10.735
ini	-10.735
▁garage	-10.7355
mmer	-10.7359
▁worst	-10.7364
▁lit	-10.7367
boy	-10.7371
▁bunch	-10.7378
▁fought	-10.7381
▁nap	-10.7382
▁cliff	-10.7386
▁clap	-10.7391
▁function	-10.7399
▁route	-10.74
▁mummie	-10.7402
▁religion	-10.7405
▁detective	-10.7415
▁plastic	-10.7419
▁fond	-10.7426
▁owe	-10.7426
▁jerry	-10.7427
▁cooking	-10.7428
▁span	-10.7432
▁structure	-10.7436
whispers	-10.7441
▁chuck	-10.7442
▁economic	-10.745
have	-10.7451
▁seriously	-10.7452
aries	-10.7452
▁magnet	-10.7457
▁soviet	-10.7457
▁knocked	-10.7462
▁shooting	-10.7464
▁print	-10.7467
23	-10.7469
▁tha	-10.7471
▁wagon	-10.7472
give	-10.7475
▁fishing	-10.7477
▁policy	-10.7478
▁drove	-10.7479
▁noble	-10.7489
▁fired	-10.7491
▁comb	-10.7495
▁sides	-10.7496
▁competition	-10.7499
▁dam	-10.7503
▁merry	-10.7507
▁ellie	-10.7511
▁independent	-10.7517
▁coal	-10.7521
▁butterfly	-10.7521
rated	-10.7521
▁sigh	-10.7521
▁cru	-10.7524
▁darkness	-10.7528
ada	-10.7533
▁failed	-10.7534
▁create	-10.7538
non	-10.7546
bury	-10.7561
▁advantage	-10.7563
roll	-10.7564
▁pole	-10.7564
▁throwing	-10.7566
▁theory	-10.7567
ppy	-10.7569
▁aware	-10.7575
▁remembered	-10.758
▁jimmy	-10.7583
22	-10.7591
▁peanut	-10.7595
▁drawn	-10.76
▁tommy	-10.7601
▁sw	-10.7601
▁gently	-10.7603
▁puppy	-10.7603
▁wh	-10.7604
try	-10.7607
▁prayer	-10.7607
▁previous	-10.7608
▁sc	-10.7611
new	-10.7616
rich	-10.7621
▁wished	-10.7624
▁los	-10.7634
▁indians	-10.7636
▁plus	-10.7638
▁sweetheart	-10.7638
▁31	-10.7641
▁witch	-10.7644
unc	-10.765
▁steam	-10.7652
ella	-10.766
▁friendly	-10.7663
thank	-10.7663
▁len	-10.7677
▁dere	-10.768
pla	-10.7681
▁throughout	-10.7682
▁quit	-10.7688
▁temperature	-10.7692
▁freedom	-10.7692
▁delight	-10.7701
cro	-10.7716
▁ideas	-10.7718
▁fully	-10.7722
▁staying	-10.7729
▁traffic	-10.7732
▁grey	-10.7733
▁cheap	-10.7733
▁kar	-10.7734
▁mayor	-10.7735
▁campaign	-10.7735
▁active	-10.7741
▁review	-10.7748
▁1980	-10.7751
▁bark	-10.7751
water	-10.7758
▁spec	-10.7758
wo	-10.7765
▁courage	-10.7768
▁image	-10.7773
▁steal	-10.7776
▁bullet	-10.7777
elle	-10.7786
▁somehow	-10.7786
▁hunting	-10.7796
▁mexico	-10.7812
▁smooth	-10.7812
▁statistics	-10.7819
lus	-10.7822
hold	-10.7823
▁types	-10.7833
▁benefit	-10.7833
hen	-10.7836
▁activity	-10.7838
▁2003	-10.7838
▁kat	-10.784
▁tied	-10.7841
wing	-10.7841
▁prefer	-10.7853
▁aft	-10.7854
▁elizabeth	-10.7859
▁ly	-10.7859
▁familiar	-10.7866
▁entirely	-10.7869
▁hockey	-10.787
▁nana	-10.7871
▁¶	-10.7873
▁advice	-10.7881
▁hidden	-10.7882
▁ahhah	-10.7885
▁mixed	-10.7885
▁shark	-10.789
▁nail	-10.7894
istic	-10.7895
▁daniel	-10.79
"]	-10.7902
▁buried	-10.7903
▁grandfather	-10.7907
pet	-10.7908
▁quack	-10.791
ola	-10.791
▁screen	-10.7914
▁turkey	-10.7915
▁dun	-10.7916
ect	-10.7926
▁jacket	-10.7927
▁split	-10.7927
rum	-10.793
▁fold	-10.793
▁sposta	-10.7933
▁vehicle	-10.7936
fu	-10.794
▁pale	-10.7946
dar	-10.795
fish	-10.7953
chan	-10.7953
ula	-10.7956
▁admit	-10.796
▁gosh	-10.796
▁hut	-10.7961
▁shower	-10.7961
▁candle	-10.7961
▁israel	-10.7962
uring	-10.7968
▁whistle	-10.7968
▁canadian	-10.7973
▁citizen	-10.7977
▁candy	-10.798
▁presence	-10.7984
▁becoming	-10.7992
▁conduct	-10.7993
▁totally	-10.7997
▁pulling	-10.8002
▁ash	-10.8006
▁data	-10.8012
▁majesty	-10.8014
▁tend	-10.8018
▁sheet	-10.8019
▁plum	-10.8021
▁caterpillar	-10.8025
▁sang	-10.8026
▁adventure	-10.8029
24	-10.803
▁sul	-10.8039
▁boxes	-10.8039
▁eric	-10.8046
▁brian	-10.8046
oy	-10.8052
▁feelings	-10.8052
avi	-10.8055
▁touched	-10.8058
▁branch	-10.8061
▁currently	-10.8061
▁ireland	-10.8061
▁seal	-10.8062
▁2002	-10.8064
▁determined	-10.8067
▁dying	-10.8067
▁pur	-10.8072
▁chemical	-10.8077
tell	-10.8081
▁troops	-10.8081
▁realized	-10.8082
▁rice	-10.8086
▁reported	-10.8089
▁deer	-10.809
your	-10.8097
▁visitor	-10.8099
▁scotland	-10.8104
▁pond	-10.8108
▁thunder	-10.8112
▁handsome	-10.8112
▁chat	-10.8114
▁madame	-10.8116
long	-10.8122
▁jumping	-10.8125
hel	-10.8125
name	-10.8126
mad	-10.8127
▁latin	-10.8131
▁sauce	-10.8136
▁student	-10.814
▁yummy	-10.8143
▁arthur	-10.8149
pit	-10.8151
cut	-10.8156
▁families	-10.8156
star	-10.8161
▁zzz	-10.8165
▁repeat	-10.8171
his	-10.8173
iff	-10.8177
▁socks	-10.8181
py	-10.8184
cur	-10.819
▁labour	-10.8206
▁net	-10.8206
▁woo	-10.8209
ä	-10.8213
▁electric	-10.8217
▁shame	-10.8218
▁poet	-10.8224
▁instant	-10.8231
ami	-10.8238
▁cough	-10.8239
tti	-10.824
▁trap	-10.8242
▁described	-10.8249
▁reckon	-10.8251
▁recently	-10.8253
▁volume	-10.8255
sound	-10.8256
▁languages	-10.8273
▁excitement	-10.8274
art	-10.8275
sey	-10.8276
▁mari	-10.8279
▁survive	-10.8282
▁cutting	-10.8287
▁pages	-10.8288
father	-10.8293
▁exercise	-10.8293
▁fifth	-10.8297
▁wag	-10.8303
▁locked	-10.8303
▁interview	-10.8306
awa	-10.8309
▁buzz	-10.831
ological	-10.8311
▁alien	-10.8311
▁representative	-10.8313
ati	-10.8314
stand	-10.8314
▁gene	-10.8317
▁knowing	-10.8317
gger	-10.832
▁tur	-10.8322
▁chamber	-10.8328
▁produce	-10.833
▁matches	-10.8333
▁height	-10.8335
▁teams	-10.8335
▁stones	-10.8337
▁paying	-10.834
▁cookies	-10.8342
bed	-10.8351
▁experiment	-10.837
▁seventy	-10.8372
ister	-10.8373
lies	-10.8373
tail	-10.8376
▁gay	-10.839
phi	-10.8393
▁knees	-10.8395
▁fail	-10.8395
▁dunno	-10.8396
▁km	-10.8396
yn	-10.8404
▁belt	-10.8404
▁relax	-10.8408
▁pointing	-10.8408
▁root	-10.8408
▁shoulders	-10.8409
▁crayons	-10.8409
▁dem	-10.841
▁doggy	-10.8414
▁pony	-10.8414
tel	-10.8431
▁critic	-10.845
▁increase	-10.8451
▁wore	-10.8452
▁whenever	-10.8456
▁legal	-10.8456
zy	-10.8456
▁bone	-10.8458
▁instrument	-10.8459
▁picking	-10.8459
▁duke	-10.8464
ously	-10.8466
▁evidently	-10.8469
▁iii	-10.8469
▁catholic	-10.8474
thing	-10.8478
▁aside	-10.8481
▁rap	-10.8481
▁rob	-10.8488
▁appreciate	-10.849
▁arrest	-10.8496
▁trace	-10.8501
▁festival	-10.8502
▁irish	-10.8503
az	-10.8505
▁deliver	-10.8511
▁gathered	-10.8511
▁byebye	-10.8511
lay	-10.8511
▁normally	-10.8512
▁fund	-10.8515
▁icecream	-10.8517
▁chu	-10.8523
▁develop	-10.8525
▁pointed	-10.8526
▁rifle	-10.8529
▁eighteen	-10.853
▁aim	-10.8538
▁authority	-10.8539
▁cy	-10.8544
▁postman	-10.8546
▁mil	-10.8552
▁whi	-10.8552
▁physical	-10.8552
▁maid	-10.8561
▁slightly	-10.8566
▁progress	-10.8572
▁mount	-10.8575
▁planning	-10.8586
▁drunk	-10.8588
▁target	-10.8588
▁0	-10.8592
▁pooh	-10.8593
▁nan	-10.8595
vocalize	-10.8599
▁industry	-10.86
▁wooden	-10.8602
▁xi	-10.8608
▁access	-10.8608
▁climate	-10.8612
▁jimmie	-10.8612
99	-10.8623
▁ox	-10.8625
▁spill	-10.8633
▁interrupt	-10.8633
▁shelter	-10.864
▁sho	-10.8645
▁advance	-10.8648
▁approach	-10.8648
▁demand	-10.8653
▁opera	-10.8654
▁breaking	-10.8658
▁waves	-10.8658
▁sausage	-10.8659
▁lies	-10.8661
▁ee	-10.8662
▁stretch	-10.8669
▁musical	-10.8671
▁diamond	-10.8675
▁rolling	-10.8676
▁boston	-10.8677
▁boil	-10.8684
▁dish	-10.8686
▁eager	-10.8686
▁drops	-10.8692
▁statement	-10.8694
▁jigsaw	-10.8695
sur	-10.8699
▁wil	-10.87
▁characters	-10.8701
▁lack	-10.8707
serv	-10.8713
lum	-10.8713
▁whee	-10.8717
▁includes	-10.8718
▁wing	-10.8721
ington	-10.8749
▁gasp	-10.8753
▁queer	-10.8755
▁sixteen	-10.8755
▁observed	-10.8763
▁cock	-10.8767
▁brook	-10.8768
▁nation	-10.8769
▁guitar	-10.8771
▁albert	-10.8773
▁rug	-10.8775
▁objects	-10.8776
▁lisa	-10.8777
▁sticker	-10.8788
del	-10.879
even	-10.8794
▁federal	-10.8803
pin	-10.8803
▁tender	-10.8807
▁learning	-10.8808
▁eventually	-10.8811
▁slept	-10.8811
▁eve	-10.8811
▁nina	-10.8811
▁figures	-10.8811
aunt	-10.8813
▁scrap	-10.8818
rog	-10.882
▁lamp	-10.882
▁que	-10.8824
▁gee	-10.8829
ection	-10.883
▁exc	-10.8833
▁burning	-10.8841
▁congress	-10.8847
▁cruel	-10.8851
▁tunnel	-10.8851
▁piano	-10.8852
ero	-10.8864
▁polly	-10.887
▁scientists	-10.8875
▁fleet	-10.8877
▁purse	-10.8879
▁pear	-10.8882
▁stack	-10.8884
▁recorder	-10.8886
▁rent	-10.8888
▁exchange	-10.8888
sky	-10.8888
▁lane	-10.8888
▁spite	-10.8892
▁useful	-10.8897
▁victory	-10.8902
▁companies	-10.8904
▁passage	-10.8905
gate	-10.8914
▁conference	-10.892
▁yards	-10.8923
▁deserve	-10.8925
▁origin	-10.8926
▁destroyed	-10.8928
▁pad	-10.8932
▁scarcely	-10.8932
▁chew	-10.8935
▁severe	-10.8938
▁swear	-10.8941
▁canoe	-10.8941
▁cord	-10.8943
▁ren	-10.8943
▁semi	-10.8944
▁1970	-10.8954
▁pillow	-10.8958
mbled	-10.8962
ically	-10.8973
▁dreams	-10.8974
▁unknown	-10.8975
▁cent	-10.8979
▁recorded	-10.898
▁beneath	-10.8981
▁angeles	-10.8983
▁bloody	-10.8985
▁arab	-10.8986
▁wounded	-10.8987
▁lou	-10.8987
▁mainly	-10.8993
gon	-10.8997
▁custom	-10.8998
▁originally	-10.8998
▁tick	-10.8999
ular	-10.9003
▁arrow	-10.9004
▁bucket	-10.9004
▁tuesday	-10.9006
sung	-10.9015
▁racing	-10.9017
turns	-10.9018
▁scale	-10.9022
▁established	-10.9027
▁dorothy	-10.9027
ked	-10.9029
▁wondered	-10.903
▁fourteen	-10.9039
net	-10.9043
▁soap	-10.9044
▁link	-10.9044
▁stamp	-10.905
▁stepped	-10.9058
▁pants	-10.9061
▁listened	-10.9062
▁bou	-10.9062
▁clouds	-10.9063
▁pity	-10.9069
▁effects	-10.907
▁robin	-10.9071
▁[4	-10.9079
▁democratic	-10.908
bon	-10.9083
▁plot	-10.9085
▁hol	-10.9087
▁spoil	-10.909
▁rail	-10.9091
▁potato	-10.9095
cycl	-10.9097
▁brief	-10.9098
cor	-10.9101
▁bodies	-10.9102
gre	-10.9104
▁craft	-10.9105
▁restaurant	-10.9105
dan	-10.9107
▁earn	-10.9108
▁prisoners	-10.9108
eu	-10.9111
▁lil	-10.9114
ification	-10.9119
most	-10.9127
▁symbol	-10.9128
▁speaker	-10.9132
ila	-10.9133
▁weapons	-10.9133
▁borrow	-10.9134
▁stomach	-10.9142
making	-10.9151
▁collection	-10.9157
▁fireman	-10.9159
▁cricket	-10.9159
▁qu	-10.9159
▁seek	-10.916
▁2023	-10.9164
▁describe	-10.9165
▁rapidly	-10.9173
▁settlement	-10.9174
▁folk	-10.9185
60	-10.9198
▁giraffe	-10.9201
▁proved	-10.9202
▁features	-10.9202
iness	-10.9204
▁guest	-10.9205
▁underneath	-10.9205
▁lifted	-10.9208
▁switzerland	-10.9209
▁feature	-10.9212
▁auntie	-10.9226
▁walter	-10.9226
▁comedy	-10.9229
▁enjoyed	-10.923
truct	-10.9232
loud	-10.9233
rous	-10.9237
▁lonely	-10.9239
▁legend	-10.924
▁engaged	-10.9245
▁guilty	-10.9246
music	-10.9249
▁prisoner	-10.9251
40	-10.9255
▁challenge	-10.9255
▁click	-10.9263
▁performed	-10.9264
▁exciting	-10.9264
▁drug	-10.9266
▁fate	-10.9271
▁woof	-10.9274
zar	-10.9276
▁reasons	-10.9276
bbing	-10.9278
ggle	-10.9281
▁discover	-10.9285
▁counter	-10.9287
▁steady	-10.9293
var	-10.9294
▁horrible	-10.9298
▁thursday	-10.9298
▁unusual	-10.9298
▁responsible	-10.9302
▁warning	-10.9309
▁invited	-10.9311
▁removed	-10.9316
▁habit	-10.9317
▁oliver	-10.9325
▁lucy	-10.9325
▁producer	-10.9327
▁recognize	-10.933
▁spi	-10.9331
vent	-10.9332
▁couch	-10.9337
▁peep	-10.9338
▁tear	-10.9339
▁steel	-10.9341
▁pakistan	-10.9344
▁picnic	-10.9349
▁polish	-10.935
▁senior	-10.9357
▁beans	-10.9362
▁scar	-10.9365
▁divided	-10.9366
▁peggy	-10.9366
▁suspect	-10.9366
▁delicious	-10.9374
▁uniform	-10.9378
▁cage	-10.9379
▁nearer	-10.9385
▁owned	-10.9385
▁pitch	-10.939
▁remove	-10.9401
▁britain	-10.9409
▁delay	-10.9409
lp	-10.9412
▁ordinary	-10.9417
▁dim	-10.942
▁comrade	-10.9421
▁religious	-10.9421
▁concert	-10.9438
any	-10.9444
ram	-10.9446
}	-10.9451
zu	-10.9451
▁1960	-10.9452
▁mont	-10.9454
▁dawn	-10.9458
▁mighty	-10.946
▁truly	-10.9462
▁fed	-10.9466
coughs	-10.9474
▁incident	-10.9477
▁bless	-10.9478
▁shift	-10.9486
▁poison	-10.9487
▁rode	-10.9495
▁sergeant	-10.9498
giggles	-10.9504
bus	-10.9505
▁losing	-10.9506
▁jail	-10.9509
▁pure	-10.9511
▁remark	-10.9522
▁kidding	-10.9523
▁bent	-10.9527
▁client	-10.9529
▁difficulty	-10.9533
▁closely	-10.9534
▁location	-10.9537
▁innocent	-10.9537
▁1999	-10.9543
▁brick	-10.9545
▁circus	-10.9546
▁zealand	-10.9563
⌋	-10.9567
▁hunter	-10.9569
▁relief	-10.9572
pointing	-10.9572
▁curtain	-10.9577
cap	-10.9577
▁frame	-10.958
ency	-10.9586
▁vice	-10.9589
▁alexander	-10.9589
▁jelly	-10.9589
ale	-10.9591
holds	-10.9592
▁woke	-10.9595
▁teaching	-10.9597
▁sen	-10.9597
▁susan	-10.9604
▁donald	-10.9605
▁maria	-10.9606
▁stroke	-10.9609
▁forms	-10.961
eva	-10.9617
▁supply	-10.962
mark	-10.9624
▁entrance	-10.9629
▁regret	-10.9629
fire	-10.9637
▁winner	-10.9637
▁becky	-10.9638
▁pill	-10.9642
▁wednesday	-10.9642
▁temp	-10.9643
▁treatment	-10.9645
▁multi	-10.9647
▁winning	-10.9654
▁bishop	-10.9655
ense	-10.9656
poli	-10.9658
▁bones	-10.9661
bor	-10.9665
▁sally	-10.9667
▁pulls	-10.9675
▁competed	-10.9676
▁chips	-10.9676
▁nicole	-10.9677
▁washed	-10.9689
▁spark	-10.9695
▁jenny	-10.9709
▁chop	-10.9709
▁fields	-10.9714
cer	-10.9716
ban	-10.9721
round	-10.9728
▁badly	-10.9729
▁din	-10.9736
▁florence	-10.9739
ava	-10.9757
▁junior	-10.9761
five	-10.9771
dog	-10.9774
▁landed	-10.9777
cies	-10.9777
▁results	-10.9781
ache	-10.9787
▁hoping	-10.9789
▁mmm	-10.9791
mus	-10.9791
▁descend	-10.9792
▁paw	-10.9794
vol	-10.9796
▁generation	-10.9797
▁sweep	-10.9801
▁firstname	-10.9804
▁lean	-10.9817
▁relation	-10.9818
▁slipped	-10.9819
berry	-10.9821
▁revolution	-10.9821
▁bricks	-10.9822
▁1996	-10.9842
▁changing	-10.9846
▁shouting	-10.9847
meter	-10.9848
▁policeman	-10.9849
▁occur	-10.9849
▁coll	-10.9855
▁quality	-10.9858
ó	-10.9859
▁lesson	-10.986
▁pitcher	-10.986
▁killing	-10.9863
▁treated	-10.9866
mine	-10.9868
▁flu	-10.9869
▁lorry	-10.9869
▁daily	-10.9871
▁balance	-10.9873
▁branches	-10.9875
▁cher	-10.9875
▁fork	-10.9881
▁kir	-10.9884
▁programme	-10.9886
▁1992	-10.9886
▁greatly	-10.9888
▁sew	-10.9889
▁thirteen	-10.9894
▁pine	-10.9897
▁rip	-10.99
▁vegetable	-10.9903
▁limit	-10.9909
cal	-10.9911
▁caroline	-10.9918
▁conf	-10.9919
▁setting	-10.992
▁nik	-10.9921
▁annoy	-10.9926
▁circumstances	-10.9931
hor	-10.9934
▁andrew	-10.9938
▁consul	-10.9939
▁nancy	-10.9941
aka	-10.9943
▁pattern	-10.9944
ata	-10.9944
▁toilet	-10.9946
▁temper	-10.9951
kf	-10.9961
▁sim	-10.9967
▁marie	-10.9972
▁sto	-10.9973
late	-10.9977
▁proof	-10.9977
▁keen	-10.9979
▁bitter	-10.9987
ani	-10.9987
▁examine	-10.9987
▁mustn	-10.9989
▁desperate	-10.9993
form	-10.9994
ole	-10.9995
▁gam	-11.0004
▁uk	-11.0009
▁sno	-11.0009
▁planned	-11.0014
▁bond	-11.0017
cious	-11.0017
talk	-11.0019
▁accepted	-11.0026
▁1998	-11.0026
▁tidy	-11.0035
▁happiness	-11.0039
▁eddie	-11.004
▁rum	-11.0041
95	-11.0042
▁refused	-11.0046
▁universe	-11.0053
▁assume	-11.006
▁solid	-11.006
▁jackson	-11.0065
▁etc	-11.0069
▁broadcast	-11.0076
▁expensive	-11.008
rick	-11.0082
ima	-11.0082
mhm	-11.0083
▁chosen	-11.0084
▁ruin	-11.0084
▁sid	-11.0085
án	-11.0086
boo	-11.0088
▁creek	-11.009
▁auto	-11.0091
▁divorce	-11.0094
ō	-11.0098
▁annie	-11.0098
▁rushed	-11.0105
▁affairs	-11.0105
▁oak	-11.0107
▁farther	-11.0109
▁minor	-11.0114
▁upside	-11.0116
lou	-11.0117
▁chum	-11.0118
wick	-11.0118
foot	-11.0122
ré	-11.0122
▁weapon	-11.0127
▁pride	-11.0128
▁flip	-11.0128
▁connection	-11.0129
ome	-11.0133
uri	-11.0134
fic	-11.0141
▁sca	-11.0141
▁flame	-11.0142
`	-11.0143
▁parties	-11.0144
▁blo	-11.0146
▁tire	-11.0147
▁captured	-11.0147
boat	-11.0148
ization	-11.0153
▁lover	-11.0165
▁merc	-11.0167
▁introduced	-11.0168
dale	-11.0172
▁holes	-11.0174
▁crocodile	-11.0176
▁syn	-11.0184
▁favour	-11.019
▁molly	-11.0192
bird	-11.0195
▁clip	-11.0202
▁hur	-11.0204
▁1995	-11.0205
▁matthew	-11.0209
▁devil	-11.0217
▁replaced	-11.0227
▁principal	-11.0227
rian	-11.0229
▁improve	-11.023
nina	-11.0234
▁required	-11.024
°	-11.0241
▁clay	-11.0245
▁trousers	-11.0246
▁brazil	-11.0249
pon	-11.0253
een	-11.0259
▁$1	-11.026
▁display	-11.0261
▁savage	-11.0265
▁engineer	-11.0269
hr	-11.027
▁arrive	-11.0273
▁distinct	-11.0274
▁actual	-11.0277
▁climbing	-11.028
▁1994	-11.0284
▁territory	-11.0288
▁escaped	-11.0291
voice	-11.0294
ctu	-11.0301
▁satisfied	-11.0302
ei	-11.0304
▁whale	-11.0304
▁criminal	-11.0306
01	-11.0309
▁indicate	-11.031
▁studies	-11.0311
▁proceed	-11.0314
▁whoo	-11.0316
▁egypt	-11.0328
▁platform	-11.033
ean	-11.0333
▁scary	-11.0333
▁intended	-11.0335
turn	-11.0336
▁kr	-11.0342
▁tummy	-11.0349
▁stable	-11.0352
▁recognized	-11.0355
▁dee	-11.0355
eh	-11.0359
▁pepper	-11.0359
oli	-11.0363
▁tropical	-11.0367
▁twist	-11.0368
▁cooper	-11.0368
▁dishes	-11.0371
▁screw	-11.0372
▁audience	-11.0382
▁virginia	-11.0392
two	-11.0397
▁splendid	-11.04
▁device	-11.04
▁ron	-11.0409
shouts	-11.0411
▁wand	-11.0415
▁cau	-11.0426
stein	-11.0427
▁daisy	-11.0429
65	-11.043
which	-11.0433
▁(;	-11.0448
▁earnest	-11.045
▁punch	-11.045
▁patsy	-11.0459
▁cab	-11.0464
▁saving	-11.0473
▁danny	-11.0476
break	-11.0477
▁sara	-11.0478
▁instance	-11.0481
▁altogether	-11.0486
▁attacked	-11.0488
▁ji	-11.0489
ato	-11.0494
▁powder	-11.0495
▁arrested	-11.0503
▁oven	-11.0503
▁disappear	-11.0508
▁killer	-11.051
▁armed	-11.0514
▁recommend	-11.0514
ability	-11.0514
▁traditional	-11.0522
▁affair	-11.0522
▁drugs	-11.0526
80	-11.0534
▁addition	-11.054
▁alter	-11.0545
▁belongs	-11.0546
▁provided	-11.0548
▁basically	-11.0548
▁hasta	-11.0549
▁sooner	-11.055
▁customer	-11.0553
▁2020)	-11.0554
▁household	-11.0562
dies	-11.0564
▁eagerly	-11.0568
▁rolled	-11.0572
▁cub	-11.0574
▁stole	-11.0575
▁technology	-11.0577
▁tune	-11.0577
▁dreadful	-11.0579
▁crossed	-11.0583
▁obey	-11.0583
uction	-11.0587
▁footnote	-11.0589
▁pushing	-11.0605
▁shining	-11.0607
▁penguin	-11.061
▁demanded	-11.0613
▁1997	-11.0616
▁possession	-11.0617
▁gained	-11.0618
under	-11.0621
▁hoped	-11.0623
actually	-11.0624
nal	-11.0624
▁lads	-11.0629
▁cottage	-11.063
mann	-11.0632
▁stern	-11.0634
lip	-11.0638
▁mistress	-11.0639
▁rachel	-11.0639
▁stir	-11.0641
▁jewel	-11.0641
▁baba	-11.0643
chair	-11.0643
▁fuss	-11.0644
▁wealth	-11.0645
▁connected	-11.065
▁sorrow	-11.0654
▁mickey	-11.0659
▁bounce	-11.0662
▁reaction	-11.0663
▁delighted	-11.0664
▁conditions	-11.0666
▁dy	-11.067
▁spy	-11.0672
▁ouch	-11.0674
key	-11.0674
▁flood	-11.0674
▁assistant	-11.0674
▁belief	-11.0678
▁lessons	-11.0681
▁entertainment	-11.0689
▁emergency	-11.0697
37	-11.0699
▁pumpkin	-11.0708
▁parish	-11.071
▁appointed	-11.0722
▁plea	-11.0727
▁designed	-11.0727
▁enemies	-11.0727
▁wrestling	-11.0727
▁occurred	-11.0732
▁selected	-11.0734
▁peekaboo	-11.0736
▁rocket	-11.0742
▁useta	-11.0747
▁contest	-11.0751
▁navy	-11.0754
▁laughter	-11.0755
▁suffering	-11.076
walk	-11.076
eat	-11.0761
▁assembly	-11.0761
▁protection	-11.0768
hop	-11.0771
▁grin	-11.0773
▁climbed	-11.0775
ben	-11.0777
▁rick	-11.0778
▁wrap	-11.0779
▁spr	-11.078
▁notes	-11.0782
tim	-11.0782
▁palm	-11.0783
▁clo	-11.0794
playing	-11.0799
babble	-11.0804
ele	-11.0805
▁cheerful	-11.0806
▁sexual	-11.0806
pur	-11.0806
▁margaret	-11.081
▁squirrel	-11.081
▁sunshine	-11.081
▁sending	-11.081
hou	-11.081
47	-11.0813
▁johnny	-11.0815
▁remains	-11.0816
▁cass	-11.082
involuntary	-11.082
▁carpet	-11.0827
bur	-11.0829
▁[$	-11.0829
▁coin	-11.0831
▁kit	-11.0832
▁scheme	-11.0835
▁sale	-11.0836
▁pee	-11.0836
▁tam	-11.0837
▁dude	-11.0837
▁clark	-11.0839
ising	-11.0842
▁cri	-11.0854
▁barbara	-11.0855
▁sacrifice	-11.0864
▁bold	-11.0868
▁chip	-11.0875
▁gla	-11.0878
▁reference	-11.0881
▁oldest	-11.0882
▁extremely	-11.0883
▁selling	-11.0892
▁60	-11.0894
▁basketball	-11.0895
found	-11.0896
▁description	-11.0899
▁straw	-11.0904
load	-11.0907
cast	-11.0909
▁comic	-11.091
⌉	-11.0919
hood	-11.092
▁workers	-11.0933
▁georgia	-11.0935
▁hawk	-11.0936
▁gotten	-11.0941
▁tissue	-11.0944
ique	-11.0946
▁mood	-11.0948
▁increased	-11.0948
▁ambulance	-11.0949
▁failure	-11.0949
▁dave	-11.0953
▁bible	-11.0954
▁mask	-11.096
▁squeeze	-11.0964
▁harder	-11.0964
▁appeal	-11.0969
▁ringing	-11.0969
gun	-11.0972
▁ble	-11.0974
▁praise	-11.0976
▁appears	-11.0977
▁zi	-11.099
▁melt	-11.0992
ox	-11.0994
▁[5	-11.0994
yeah	-11.0995
89	-11.0995
▁grim	-11.1001
nar	-11.1006
▁seated	-11.1008
▁sandy	-11.1013
▁fierce	-11.1019
▁1991	-11.1025
zer	-11.1027
▁reward	-11.1029
▁recent	-11.103
▁victor	-11.1034
▁jess	-11.1036
rap	-11.1038
▁tru	-11.1038
▁1988	-11.104
▁rattle	-11.1041
▁factor	-11.1042
▁drawer	-11.1056
▁guests	-11.1058
▁breast	-11.1059
▁distributed	-11.1059
▁watches	-11.1068
▁spa	-11.1072
▁swallow	-11.1074
▁commission	-11.1075
▁mystery	-11.1079
ua	-11.1083
▁distant	-11.1084
▁repair	-11.109
astic	-11.1091
▁potatoes	-11.1097
▁warren	-11.11
ear	-11.1108
▁strawberry	-11.1115
▁details	-11.1119
▁argument	-11.112
▁confidence	-11.112
▁suffered	-11.1125
▁kitten	-11.1126
▁commercial	-11.113
▁mabel	-11.1131
▁ker	-11.1132
▁jealous	-11.1135
▁recover	-11.1136
▁kindly	-11.114
00,000	-11.1141
▁theatre	-11.1141
66	-11.1144
▁peak	-11.1144
▁detail	-11.1145
▁grateful	-11.1155
▁candidate	-11.116
▁adventures	-11.116
▁marsh	-11.1165
▁complex	-11.1165
▁passengers	-11.1165
▁arranged	-11.1166
▁shan	-11.117
▁musician	-11.1174
▁rapid	-11.1176
▁nations	-11.118
▁worm	-11.1181
▁nerve	-11.1181
mouth	-11.1191
▁passion	-11.1191
▁tournament	-11.1201
▁ol	-11.1205
▁wales	-11.1205
▁warrior	-11.1206
▁jason	-11.1207
▁suffer	-11.1207
▁venture	-11.1207
98	-11.1207
90	-11.1212
▁gran	-11.1213
▁burned	-11.1216
▁disney	-11.1217
body	-11.1221
▁highly	-11.1225
▁sufficient	-11.1227
face	-11.1232
▁asia	-11.1233
▁estate	-11.1236
▁reserve	-11.1244
09	-11.1247
▁cents	-11.1249
02	-11.125
after	-11.1252
▁equipment	-11.1252
▁hadta	-11.1258
▁blowing	-11.126
ulate	-11.1261
▁sweden	-11.1263
▁false	-11.1263
97	-11.1264
▁stro	-11.1266
▁leo	-11.1279
▁intention	-11.1283
▁rude	-11.1286
▁pace	-11.1291
▁unlike	-11.1292
moves	-11.1295
oma	-11.1299
lop	-11.1302
▁prepare	-11.1303
▁epi	-11.1304
▁instruction	-11.1309
dio	-11.1314
▁fee	-11.1316
▁kin	-11.132
hear	-11.1325
▁bare	-11.1326
▁julie	-11.1331
▁operate	-11.1334
▁grasp	-11.1335
open	-11.1339
ologist	-11.1341
▁fever	-11.1341
▁grade	-11.1344
▁landing	-11.1345
▁chess	-11.1347
▁rang	-11.135
▁driven	-11.1352
▁groan	-11.1362
▁marked	-11.1364
▁strain	-11.1368
▁sneak	-11.1371
▁whit	-11.1372
▁cries	-11.1376
64	-11.138
▁buying	-11.1381
▁kate	-11.1382
▁ding	-11.1383
▁boot	-11.1385
▁nat	-11.1386
92	-11.1389
▁grapes	-11.1394
▁austria	-11.1394
▁celebrate	-11.1397
▁weigh	-11.1406
▁bel	-11.1408
▁lang	-11.1412
▁slight	-11.1413
▁institute	-11.1413
▁register	-11.1413
pel	-11.1414
96	-11.1416
aun	-11.1419
▁labor	-11.1424
▁painted	-11.1424
▁kissed	-11.1429
ffe	-11.143
▁worn	-11.143
▁precious	-11.1435
mbo	-11.1438
▁encourage	-11.1444
mission	-11.1446
▁muscle	-11.145
03	-11.1454
▁thrill	-11.1455
▁scare	-11.1456
ú	-11.146
▁spaghetti	-11.1465
▁raining	-11.1466
▁louise	-11.1469
▁lt	-11.1471
▁anchor	-11.1471
▁bern	-11.1472
▁jen	-11.1475
ene	-11.1477
▁jungle	-11.1478
04	-11.1479
▁horror	-11.1481
▁cereal	-11.1481
▁mir	-11.1482
▁unable	-11.1484
bin	-11.1486
▁simon	-11.1488
pol	-11.1493
▁confess	-11.1494
▁arrangement	-11.1498
▁financial	-11.1502
yan	-11.1504
▁lately	-11.1511
86	-11.1512
▁brad	-11.1513
▁construction	-11.1514
only	-11.1518
▁sofa	-11.1528
48	-11.153
▁awww	-11.1532
▁breathing	-11.1532
wh	-11.1532
▁naturally	-11.1538
shakes	-11.1538
▁terror	-11.1539
▁ryan	-11.1541
▁tools	-11.1541
▁mol	-11.1541
▁poorly	-11.1545
▁stronger	-11.1551
▁wander	-11.1555
ira	-11.1556
▁granddad	-11.1556
▁lodge	-11.1558
▁parent	-11.1568
▁despite	-11.1571
▁sylvia	-11.1571
▁silk	-11.1576
▁anger	-11.158
▁chose	-11.1581
▁somethin	-11.1582
▁permission	-11.1583
70	-11.1587
overlap	-11.1589
▁tramp	-11.1597
▁helicopter	-11.1597
▁gina	-11.1602
▁crisp	-11.1606
▁nah	-11.1607
▁canton	-11.161
▁backwards	-11.161
master	-11.161
▁reign	-11.1611
▁gram	-11.1617
07	-11.162
▁1993	-11.162
kie	-11.1621
▁acid	-11.1621
06	-11.1622
▁ugh	-11.1629
▁expert	-11.163
▁sil	-11.1645
▁whisk	-11.1651
▁bass	-11.1655
▁bubbles	-11.1661
▁1989	-11.1663
▁environment	-11.1663
▁vision	-11.1663
away	-11.1663
calais	-11.1664
▁sprang	-11.1673
▁advise	-11.1689
▁jeff	-11.169
▁management	-11.1691
▁letting	-11.1695
▁romantic	-11.1696
hur	-11.1699
whispered	-11.1702
▁stove	-11.1703
▁mode	-11.1703
▁advanced	-11.1703
▁baker	-11.1704
▁fin	-11.1704
thy	-11.1714
band	-11.1714
▁ellen	-11.1717
▁gum	-11.1723
▁barb	-11.1725
▁prior	-11.1729
▁patch	-11.1731
▁noisy	-11.1732
pper	-11.1734
▁prop	-11.1736
▁hurricane	-11.1737
▁zo	-11.1737
▁fetch	-11.1737
▁presented	-11.1738
tsu	-11.1741
▁barrel	-11.1743
▁returning	-11.175
▁belle	-11.1751
▁wreck	-11.1753
▁ashamed	-11.1753
ille	-11.1754
▁chick	-11.1755
▁poem	-11.1756
▁reflect	-11.1756
▁billion	-11.1758
position	-11.176
point	-11.1763
▁solve	-11.1765
▁salad	-11.1769
▁christopher	-11.1769
▁netherlands	-11.1769
▁specific	-11.1772
roy	-11.1773
▁dub	-11.1773
▁violent	-11.1775
▁basic	-11.1791
▁missouri	-11.1791
▁dollar	-11.1795
▁soil	-11.1797
cri	-11.1806
▁label	-11.1813
▁republican	-11.1813
▁defeat	-11.1814
▁stiff	-11.1815
▁von	-11.1815
▁emma	-11.182
ori	-11.1824
▁container	-11.1834
keeper	-11.1837
▁bomba	-11.184
▁math	-11.184
▁breathe	-11.1844
85	-11.1845
▁completed	-11.1845
vocalization	-11.1849
print	-11.185
88	-11.1852
moving	-11.1852
▁slice	-11.1853
▁marine	-11.1861
app	-11.1874
▁maintain	-11.188
55	-11.1885
▁briefly	-11.1889
▁rot	-11.1893
▁wit	-11.1896
▁sleepy	-11.1898
jack	-11.1899
ckle	-11.1902
▁succeeded	-11.1903
▁factory	-11.1905
gri	-11.1907
▁fil	-11.191
screams	-11.1911
▁glen	-11.1916
▁proposed	-11.192
77	-11.1924
▁tray	-11.1927
▁package	-11.193
▁scan	-11.1933
link	-11.1934
▁tradition	-11.1946
▁glory	-11.1953
four	-11.1965
▁johnson	-11.1971
▁smash	-11.1972
▁claus	-11.1973
from	-11.1974
▁shaking	-11.1976
▁jersey	-11.1977
▁grandad	-11.1981
▁senate	-11.199
▁sounded	-11.199
87	-11.1991
▁cupboard	-11.1993
hon	-11.2001
referring	-11.2002
▁ability	-11.2011
▁admitted	-11.2013
93	-11.2021
▁lor	-11.2021
▁builder	-11.2022
▁responsibility	-11.2027
urg	-11.2028
▁cle	-11.2036
*	-11.2036
▁korea	-11.2041
▁steer	-11.2042
▁loving	-11.2047
▁carolina	-11.205
▁pushes	-11.205
▁replace	-11.2056
american	-11.2056
▁wool	-11.2062
cular	-11.2067
cou	-11.2074
ural	-11.2076
▁grunt	-11.2077
▁lois	-11.2079
05	-11.2079
–1	-11.2081
▁resource	-11.2094
▁crow	-11.2095
hara	-11.2097
▁mental	-11.2099
▁constant	-11.2109
▁defense	-11.2111
▁rou	-11.2111
▁hun	-11.2113
▁angle	-11.2117
▁carol	-11.212
▁highway	-11.2129
▁200	-11.2137
▁morgan	-11.2141
▁ranger	-11.2142
▁occupied	-11.2144
june	-11.2148
▁squeak	-11.2149
▁explanation	-11.215
▁talent	-11.2153
▁expedition	-11.2155
▁triangle	-11.2161
▁cotton	-11.2161
ivity	-11.2164
▁mur	-11.2167
▁stolen	-11.2171
▁zero	-11.2173
count	-11.2173
08	-11.2174
▁isabel	-11.2175
▁disturb	-11.2175
▁seized	-11.2176
▁fro	-11.2176
54	-11.2177
post	-11.2182
▁battery	-11.2185
▁agreement	-11.2189
char	-11.219
▁depends	-11.2194
▁1950	-11.2198
▁profit	-11.2212
▁cul	-11.2212
far	-11.2216
▁francis	-11.2217
▁jeannine	-11.2218
▁norman	-11.2219
hmm	-11.2222
▁leans	-11.2224
▁flour	-11.2225
▁/	-11.2226
▁diver	-11.2228
eau	-11.2228
▁vocalises	-11.2229
▁loyal	-11.2229
▁1984	-11.223
ude	-11.2231
▁chr	-11.2234
▁bushes	-11.2235
ich	-11.224
▁triumph	-11.2252
▁sales	-11.2254
▁chin	-11.2259
▁handed	-11.226
▁portion	-11.226
▁valuable	-11.2263
▁screaming	-11.2264
▁missus	-11.2264
▁robber	-11.2264
▁stadium	-11.2269
▁headquarters	-11.2269
▁funeral	-11.2269
▁costume	-11.2274
▁tide	-11.2279
▁surrounded	-11.228
dress	-11.2283
tree	-11.2284
▁sau	-11.2285
▁stopping	-11.2285
▁oop	-11.2289
mag	-11.2297
▁furniture	-11.2297
▁cape	-11.2297
▁beads	-11.2298
▁bench	-11.2299
▁sock	-11.2302
▁discovery	-11.2304
▁punish	-11.2308
gel	-11.231
▁lily	-11.2313
▁checked	-11.2315
▁dip	-11.2315
▁crush	-11.2316
▁joint	-11.232
utter	-11.2328
▁capture	-11.2329
▁pope	-11.2329
▁cone	-11.2332
▁facing	-11.2334
▁drift	-11.2335
▁investigation	-11.2337
39	-11.234
▁clar	-11.2343
▁constitution	-11.2343
▁gall	-11.2347
▁fc	-11.2348
▁moral	-11.2352
pot	-11.2353
▁argue	-11.2353
46	-11.2355
▁limited	-11.2358
26	-11.236
▁recall	-11.236
gai	-11.236
▁oxford	-11.2361
▁edition	-11.2361
▁reality	-11.2365
▁merchant	-11.2366
▁joan	-11.2368
perhaps	-11.2368
▁embarrass	-11.2372
▁politics	-11.2372
▁carbon	-11.2378
▁shortly	-11.2382
▁inhabitants	-11.2383
63	-11.2384
ground	-11.239
▁faithful	-11.2393
arch	-11.2393
▁historical	-11.2398
▁frost	-11.2399
bob	-11.2402
pho	-11.2403
27	-11.2404
▁wherever	-11.2404
91	-11.2405
▁unfortunately	-11.2408
28	-11.2409
▁cowboy	-11.2413
▁begun	-11.2416
▁meow	-11.2418
▁midnight	-11.2419
chen	-11.242
▁fame	-11.2423
▁voyage	-11.2423
▁neighborhood	-11.2424
▁cheeks	-11.2424
▁kur	-11.2427
▁meanwhile	-11.2428
rov	-11.2434
stick	-11.2434
78	-11.2436
▁polite	-11.2447
▁heavily	-11.2447
▁healthy	-11.2449
▁shade	-11.2452
▁hind	-11.2452
▁vacation	-11.2452
▁dur	-11.2461
▁loudly	-11.2462
▁illinois	-11.2464
▁senator	-11.2465
38	-11.2465
▁economy	-11.247
▁executive	-11.247
▁communication	-11.2476
▁require	-11.2476
bie	-11.2478
▁girlfriend	-11.248
▁sixth	-11.2488
▁worship	-11.2493
▁momma	-11.2505
known	-11.2512
▁ward	-11.2515
▁typical	-11.2516
▁victoria	-11.2522
▁ugly	-11.2522
94	-11.2524
jan	-11.2532
▁compared	-11.2534
▁nodded	-11.2534
▁safely	-11.2535
rating	-11.2537
▁rio	-11.2546
chu	-11.2547
while	-11.255
▁conc	-11.2552
▁carrots	-11.2555
▁1987	-11.2559
▁merely	-11.2559
bol	-11.2562
▁interfere	-11.2564
▁chatter	-11.2567
▁suggestion	-11.2568
▁accomplish	-11.2569
▁pete	-11.257
▁aboard	-11.2571
▁affect	-11.2572
▁abd	-11.2572
▁editor	-11.2575
▁creep	-11.2576
▁easter	-11.2579
76	-11.2581
▁jr	-11.2581
▁expecting	-11.2582
▁nonsense	-11.2592
▁defence	-11.2594
▁refuse	-11.2595
▁sti	-11.2595
▁sydney	-11.2598
▁patrick	-11.2599
▁launch	-11.2608
crying	-11.2608
▁wishes	-11.2609
▁roy	-11.261
bul	-11.2611
▁mercy	-11.2614
last	-11.2615
▁mun	-11.2615
conti	-11.2622
rob	-11.2624
▁atlantic	-11.2628
▁eagle	-11.2628
ike	-11.2632
▁reform	-11.2633
▁principle	-11.2634
▁pacific	-11.2634
geo	-11.2638
▁neighbour	-11.2639
▁schedule	-11.264
▁shy	-11.2641
▁gather	-11.2645
▁poly	-11.2648
84	-11.2649
▁blew	-11.265
▁charlotte	-11.2651
45	-11.2654
▁majority	-11.2654
▁yuck	-11.2657
57	-11.2659
atory	-11.2659
▁dil	-11.266
▁arrival	-11.2663
▁anyhow	-11.2665
▁whoever	-11.2668
unnecessary	-11.2669
▁nominated	-11.2669
▁stephen	-11.267
crib	-11.2675
68	-11.2677
▁www	-11.2681
▁wilson	-11.2683
▁crab	-11.2684
▁dull	-11.2684
▁kay	-11.2686
▁poll	-11.2686
49	-11.2687
▁bernard	-11.2688
▁attached	-11.2693
▁gabriel	-11.2699
▁skirt	-11.2711
▁raid	-11.2715
▁distinguish	-11.2717
▁1972	-11.2718
▁clothing	-11.2721
▁1986	-11.2724
▁growl	-11.2729
▁percy	-11.2734
▁chill	-11.2734
▁inform	-11.2739
▁lip	-11.2741
▁commit	-11.2742
▁bearing	-11.2745
▁asian	-11.2747
▁internet	-11.2748
▁charming	-11.2748
▁exception	-11.275
-1	-11.275
▁dominic	-11.2753
▁vain	-11.2758
▁cleaning	-11.276
▁mau	-11.2764
▁bake	-11.2765
▁significant	-11.277
▁mexican	-11.277
phe	-11.2771
vie	-11.2776
reaches	-11.278
piece	-11.278
▁conquer	-11.2783
▁beam	-11.2783
▁tele	-11.2787
▁independence	-11.2788
wee	-11.2794
▁charm	-11.2794
▁mono	-11.2794
▁umbrella	-11.2794
▁breed	-11.2799
----"	-11.2801
▁liberal	-11.2802
▁behave	-11.2819
▁compound	-11.2824
▁geography	-11.2825
▁1981	-11.2826
▁jake	-11.2828
▁obliged	-11.283
▁clue	-11.2831
▁scr	-11.2833
aba	-11.2834
▁consequence	-11.2836
▁insurance	-11.2836
▁scu	-11.2838
▁nuclear	-11.2842
▁jolly	-11.2843
▁mini	-11.2843
▁aircraft	-11.2844
▁session	-11.2846
▁purchase	-11.2848
▁pursue	-11.2849
pass	-11.2851
▁previously	-11.2851
▁curl	-11.2853
▁stress	-11.2855
oph	-11.2856
▁considerable	-11.2859
▁flush	-11.2859
comp	-11.286
▁jewish	-11.286
▁confirmed	-11.2861
▁tube	-11.2865
▁bride	-11.2866
▁disappointed	-11.2869
▁seventeen	-11.2873
▁echo	-11.2873
67	-11.288
44	-11.2884
▁covid	-11.2885
▁estimate	-11.2903
▁colored	-11.2906
▁reaching	-11.2907
▁blu	-11.2917
school	-11.2918
▁rubber	-11.2922
─	-11.2927
▁zip	-11.2931
▁friendship	-11.2932
aging	-11.2934
▁lincoln	-11.2939
▁gym	-11.294
▁script	-11.294
▁swell	-11.2941
▁nowhere	-11.2945
▁approaching	-11.2947
▁vast	-11.2949
▁confused	-11.2958
cen	-11.2962
▁babe	-11.2964
æ	-11.297
▁hath	-11.2982
▁ceased	-11.2994
▁hatch	-11.2997
61	-11.3001
▁provision	-11.3001
east	-11.3002
▁adapt	-11.3008
▁glow	-11.3011
▁budget	-11.3013
▁martine	-11.3015
▁winnie	-11.3017
▁chimney	-11.3019
▁inquired	-11.3019
▁vic	-11.3023
▁berlin	-11.3025
▁importance	-11.3025
▁income	-11.3036
▁pretending	-11.3043
▁effective	-11.3043
▁whip	-11.3045
69	-11.3048
▁draft	-11.3049
▁snack	-11.3056
▁wy	-11.306
▁bah	-11.3063
coming	-11.3063
▁mysterious	-11.3068
▁foundation	-11.3072
▁cel	-11.3072
whispering	-11.3073
▁southeast	-11.3075
▁betray	-11.3076
maker	-11.3078
tony	-11.3084
▁goose	-11.3092
▁application	-11.3093
▁wicked	-11.3093
▁shin	-11.3097
claim	-11.31
▁connect	-11.3104
▁mah	-11.3108
▁preparation	-11.3111
▁assist	-11.3112
▁intend	-11.3114
▁delightful	-11.3116
iya	-11.3116
▁fuel	-11.312
ridge	-11.3123
▁authorities	-11.3124
▁1976	-11.3125
fore	-11.3125
▁negative	-11.313
▁sunny	-11.313
tries	-11.3133
arian	-11.3136
▁primary	-11.3136
▁earl	-11.3137
▁approached	-11.3139
▁feeding	-11.3142
▁instantly	-11.3144
▁visited	-11.3144
▁conflict	-11.3148
▁convict	-11.3149
gal	-11.3151
▁80	-11.3151
▁piggy	-11.3156
aki	-11.3159
▁verse	-11.3162
▁hip	-11.3162
grunts	-11.3163
hl	-11.3164
72	-11.3169
cup	-11.3173
▁impression	-11.3173
▁throne	-11.3173
▁hon	-11.3176
▁mild	-11.3181
▁northwest	-11.3181
▁amongst	-11.3185
▁initial	-11.3192
▁partly	-11.3194
▁ease	-11.3195
▁glanced	-11.3195
▁retreat	-11.3204
ault	-11.3205
▁linda	-11.3208
▁orchestra	-11.3211
▁bol	-11.3213
▁clare	-11.3214
also	-11.3218
▁fen	-11.322
▁crystal	-11.3224
▁pearl	-11.3227
▁puff	-11.3229
▁sab	-11.3229
▁cheat	-11.3229
▁massachusetts	-11.3229
▁mobile	-11.3229
▁ky	-11.3234
▁knot	-11.3237
▁dining	-11.324
▁supported	-11.3241
▁generous	-11.3249
▁baa	-11.3256
▁1979	-11.3256
▁francisco	-11.3257
▁scientific	-11.3261
▁granny	-11.3263
never	-11.3264
▁lung	-11.3266
▁tub	-11.3267
▁peach	-11.327
please	-11.3272
▁boyfriend	-11.3275
▁dey	-11.3276
▁earned	-11.3276
▁discussion	-11.3277
▁classes	-11.3278
▁surrounding	-11.328
▁acted	-11.328
▁dirt	-11.3281
▁understanding	-11.3284
och	-11.3286
▁thumb	-11.3286
▁tag	-11.3297
▁necklace	-11.3299
▁kansas	-11.3299
▁limb	-11.3301
▁rag	-11.3303
35	-11.3307
▁bicycle	-11.3311
▁injured	-11.3311
▁commonly	-11.3319
▁nar	-11.3322
▁cattle	-11.3325
▁barry	-11.3328
pul	-11.3332
▁karen	-11.3334
▁hood	-11.3334
▁corps	-11.3335
▁sel	-11.3335
▁hindu	-11.3336
▁premier	-11.3337
▁loft	-11.3338
▁theater	-11.3341
▁zebra	-11.3344
79	-11.3345
▁lab	-11.3349
▁solution	-11.3349
▁pressed	-11.3352
▁euro	-11.3353
56	-11.3355
▁1985	-11.3363
▁gli	-11.3366
▁envelope	-11.3368
▁hid	-11.3368
▁nicely	-11.3369
▁punishment	-11.337
itude	-11.3371
▁carrot	-11.3377
ware	-11.3382
▁defeated	-11.3385
hol	-11.3386
▁resident	-11.3387
▁davis	-11.3391
▁confident	-11.34
because	-11.3403
▁mcdonalds	-11.3407
83	-11.341
▁deeply	-11.3416
▁hail	-11.3417
▁violence	-11.3438
▁pitched	-11.3445
▁feast	-11.3446
▁exact	-11.3454
▁serving	-11.3459
▁stretched	-11.346
▁introduce	-11.3463
82	-11.3464
▁concept	-11.3468
▁scored	-11.347
ographic	-11.3479
▁mcc	-11.3491
▁bore	-11.3498
▁pump	-11.3504
▁bolt	-11.3505
▁eliminated	-11.3509
▁strict	-11.3509
▁items	-11.3515
bee	-11.3518
▁bald	-11.3519
▁cwww	-11.3519
list	-11.352
▁prospect	-11.3525
▁needle	-11.3527
▁survey	-11.3528
▁react	-11.3529
▁nearest	-11.353
▁illustrations	-11.353
▁referred	-11.353
▁kan	-11.3531
▁float	-11.3533
▁teen	-11.3533
▁separated	-11.3538
58	-11.354
▁formal	-11.354
lian	-11.3542
▁micro	-11.3542
kan	-11.355
▁figured	-11.3552
▁lemme	-11.3554
▁variety	-11.3561
▁cam	-11.3566
▁resist	-11.3573
▁volunteer	-11.3573
▁marvel	-11.3576
▁seeds	-11.3576
▁mechanic	-11.3577
▁solemn	-11.3586
43	-11.3588
leg	-11.3591
74	-11.36
▁inches	-11.36
▁officially	-11.3601
▁luc	-11.3607
59	-11.3612
▁alongside	-11.3614
81	-11.3615
▁honestly	-11.3617
▁multiple	-11.3619
mie	-11.3622
▁attitude	-11.3626
uous	-11.363
▁illness	-11.3636
▁olympic	-11.3637
▁coloring	-11.3638
▁1983	-11.364
▁glue	-11.364
▁debt	-11.3641
▁observe	-11.3645
▁rustling	-11.3665
▁approve	-11.3665
▁remaining	-11.3665
▁mit	-11.3669
▁jer	-11.367
▁presidential	-11.3671
▁committed	-11.3673
▁promote	-11.3675
▁heap	-11.3675
▁trained	-11.3678
lash	-11.3681
71	-11.3689
▁entertain	-11.369
ika	-11.3692
62	-11.3693
75	-11.3694
▁cigarette	-11.3698
▁steamer	-11.3699
â	-11.3704
▁lecture	-11.3704
▁sailing	-11.3706
ident	-11.3707
self	-11.3707
▁responded	-11.371
▁counting	-11.3717
▁satisfaction	-11.3717
agon	-11.3722
▁—	-11.3724
▁ballet	-11.3725
▁closing	-11.3725
▁foolish	-11.3726
▁taxi	-11.3735
range	-11.3737
▁deputy	-11.3737
▁attended	-11.3739
73	-11.3743
▁ceremony	-11.3743
▁invitation	-11.3744
rid	-11.3756
▁harbor	-11.3757
▁nearby	-11.3764
▁90	-11.3766
would	-11.3768
hall	-11.3773
▁dressing	-11.3774
continues	-11.3775
every	-11.3777
▁1982	-11.3778
bear	-11.378
▁insect	-11.3786
▁thoroughly	-11.3789
▁appointment	-11.379
▁starring	-11.379
▁respond	-11.3791
▁inspector	-11.3796
▁thrust	-11.3796
▁detect	-11.3801
▁represented	-11.3802
▁invite	-11.3806
▁lewis	-11.381
▁liquid	-11.3816
▁murdered	-11.3821
▁fantastic	-11.3823
▁pennsylvania	-11.3823
▁awarded	-11.3824
wal	-11.384
baby	-11.3841
▁admire	-11.3843
pretend	-11.3848
▁drill	-11.3857
vic	-11.386
▁numerous	-11.3863
▁widow	-11.3863
▁1974	-11.3864
shing	-11.3869
▁cathy	-11.3869
▁muslim	-11.387
▁sacred	-11.387
hey	-11.387
ttering	-11.3871
▁austrian	-11.3874
▁zorg	-11.3876
▁achieve	-11.3881
▁interrupted	-11.3886
29	-11.3888
▁gaze	-11.3888
oop	-11.3889
▁clan	-11.3891
▁kevin	-11.3891
wise	-11.3893
▁vietnam	-11.3896
▁ul	-11.3902
▁surgery	-11.3903
▁drag	-11.3915
▁strawberries	-11.3923
▁regiment	-11.3923
still	-11.3946
▁larry	-11.395
▁literature	-11.3963
▁occasionally	-11.3965
▁belonged	-11.397
▁dash	-11.397
heim	-11.3972
▁dancer	-11.3974
▁bruce	-11.3974
cell	-11.3974
▁thirsty	-11.3975
▁growth	-11.3979
▁lightning	-11.3981
▁ridge	-11.3981
▁apologize	-11.3984
▁intelligence	-11.3984
▁ferr	-11.3987
stead	-11.4002
▁bail	-11.4006
▁paused	-11.4007
▁ashore	-11.4011
▁northeast	-11.4019
going	-11.4027
▁buffalo	-11.4031
▁guardian	-11.4038
▁michigan	-11.4038
▁yeh	-11.404
ulation	-11.4044
▁gimme	-11.4045
▁rival	-11.4049
▁cartoon	-11.4052
41	-11.4052
hole	-11.4053
▁geo	-11.4056
▁liberty	-11.406
▁loan	-11.406
▁cruise	-11.4062
▁32	-11.4063
bla	-11.4063
▁peculiar	-11.4065
kel	-11.4065
laughter	-11.4067
▁column	-11.4072
▁intense	-11.408
pie	-11.4082
▁graham	-11.4088
▁sample	-11.4095
▁tomato	-11.4096
▁zone	-11.4097
▁anxiety	-11.4099
▁digger	-11.4103
▁mia	-11.4105
though	-11.4106
▁pregnant	-11.4106
▁hannah	-11.4106
▁kelly	-11.4107
▁poke	-11.411
ñ	-11.4113
51	-11.4115
▁stupid	-11.412
▁slope	-11.412
▁bloom	-11.4121
▁lawn	-11.4124
▁ry	-11.4124
▁counsel	-11.4127
▁1968	-11.4135
cord	-11.4135
parent	-11.414
▁emotion	-11.4144
▁touching	-11.4145
▁conservative	-11.4147
▁raymond	-11.4148
▁helmet	-11.4148
▁wu	-11.4157
▁hired	-11.4157
▁beef	-11.4158
▁jon	-11.4164
▁slid	-11.4166
▁conclusion	-11.4168
kov	-11.4168
▁oink	-11.4169
▁hugh	-11.4169
▁dart	-11.4169
▁crossing	-11.4171
▁korean	-11.4172
▁sack	-11.4172
▁1978	-11.4176
life	-11.4179
▁skip	-11.4182
hhh	-11.4183
▁hesitate	-11.4183
▁mock	-11.4184
bag	-11.4184
▁reader	-11.4187
▁tremendous	-11.4195
▁unhappy	-11.4195
▁capable	-11.4198
osh	-11.4202
▁extent	-11.4209
▁involve	-11.421
▁cheek	-11.4211
eur	-11.4212
▁belly	-11.4215
▁anthony	-11.4223
▁breeze	-11.4223
▁composer	-11.4223
gor	-11.4231
▁1975	-11.4231
▁gradually	-11.4237
▁marble	-11.4237
▁critical	-11.4239
▁fanny	-11.4241
▁egyptian	-11.4246
state	-11.4247
▁taylor	-11.4251
▁consent	-11.4252
▁enjoying	-11.4253
▁employ	-11.4257
▁website	-11.4258
scope	-11.4259
▁innit	-11.4262
ography	-11.4264
▁tang	-11.4272
▁steep	-11.4274
▁annual	-11.428
▁preserve	-11.4286
▁brazilian	-11.4288
▁joey	-11.4292
▁✿	-11.4292
▁meters	-11.4293
▁peasant	-11.4302
▁sought	-11.4304
▁dallas	-11.4306
aire	-11.4308
▁hollow	-11.4308
▁convinced	-11.4308
▁sniff	-11.431
▁viv	-11.4316
▁jay	-11.4317
mail	-11.4318
▁cracker	-11.4321
▁activities	-11.4327
▁1969	-11.4329
ón	-11.4334
▁1977	-11.4336
▁loo	-11.4347
▁amanda	-11.4349
▁cabinet	-11.4352
▁statue	-11.4355
▁35	-11.4356
▁cuddle	-11.4356
three	-11.4359
▁incredible	-11.4362
▁basis	-11.4364
ggy	-11.4368
had	-11.4368
▁bio	-11.4371
▁sav	-11.4372
▁todd	-11.4372
▁sailed	-11.4375
▁depth	-11.4376
▁2021)	-11.4379
▁golf	-11.438
▁packed	-11.4381
▁alphabet	-11.4383
▁gorgeous	-11.4383
burn	-11.4384
▁journalist	-11.4388
▁ignore	-11.4391
▁impact	-11.4393
teacher	-11.4395
▁pinch	-11.4396
▁studying	-11.4397
▁rainbow	-11.4397
▁swept	-11.4397
▁nord	-11.44
▁mice	-11.4401
▁churches	-11.4404
▁railroad	-11.4404
▁technical	-11.4405
▁leslie	-11.4405
hir	-11.4405
gene	-11.4407
▁animated	-11.4412
▁cleared	-11.4417
▁jordan	-11.4419
▁extreme	-11.442
▁scottish	-11.4422
elia	-11.4425
▁parrot	-11.4426
▁dock	-11.4428
uz	-11.4431
▁lawrence	-11.4433
▁diana	-11.444
▁flies	-11.444
▁1973	-11.4441
▁spending	-11.4445
▁monsieur	-11.4447
▁delicate	-11.4454
▁pun	-11.4459
▁restore	-11.446
▁miller	-11.4464
▁manchester	-11.447
▁robinson	-11.447
▁ruler	-11.4479
▁additional	-11.4482
▁touches	-11.4482
▁transfer	-11.4483
▁70	-11.4485
▁lwww	-11.4488
▁congratulations	-11.4489
▁suspicion	-11.4489
▁disco	-11.4497
▁sticking	-11.4502
matic	-11.4503
▁blake	-11.4506
▁administration	-11.4511
▁(18	-11.4511
high	-11.4521
▁loire	-11.4533
▁dropping	-11.4535
vision	-11.4537
gasp	-11.4547
▁squad	-11.4548
▁kenneth	-11.4554
▁sleeve	-11.4554
▁raw	-11.4554
▁explosion	-11.4561
▁option	-11.457
▁cherry	-11.4571
▁composed	-11.4575
lio	-11.4575
▁extended	-11.4576
▁harold	-11.4576
▁tennis	-11.459
▁clam	-11.4599
▁compete	-11.46
▁unexpected	-11.4604
5,000	-11.4606
▁staring	-11.4608
nik	-11.4617
▁catching	-11.4618
▁poland	-11.4622
▁adopted	-11.4622
▁dried	-11.4626
▁institution	-11.4629
▁peg	-11.4632
▁regional	-11.4637
mom	-11.4638
girl	-11.4639
enne	-11.4646
rink	-11.4647
fla	-11.4648
▁lemon	-11.4649
eating	-11.4654
▁orbit	-11.4657
verse	-11.466
▁awfully	-11.4664
▁cooked	-11.4664
▁convert	-11.4669
▁1971	-11.467
▁panda	-11.4672
▁jury	-11.4675
▁alcohol	-11.4676
▁threatened	-11.4677
▁cannon	-11.4677
rock	-11.4678
▁waving	-11.4679
▁kong	-11.468
▁sticky	-11.468
▁emily	-11.468
▁rider	-11.4683
▁virus	-11.4686
▁quo	-11.4687
▁cancel	-11.4689
▁flesh	-11.469
fur	-11.4693
woman	-11.4698
▁por	-11.4699
▁essential	-11.4705
▁mole	-11.4708
▁1930	-11.4717
▁peek	-11.4717
▁avenue	-11.4719
▁graeme	-11.4719
▁vow	-11.4724
▁cable	-11.4728
▁behavior	-11.4734
▁disaster	-11.4734
rang	-11.4737
▁saddle	-11.4737
ér	-11.4739
▁terribly	-11.4741
▁rein	-11.4742
▁sting	-11.4745
home	-11.4746
▁jaw	-11.4747
▁sometime	-11.4749
wind	-11.4755
▁horizon	-11.4756
▁collar	-11.4756
▁beating	-11.4757
▁cole	-11.4759
▁monk	-11.4763
▁bundle	-11.4764
pher	-11.477
▁stout	-11.4771
53	-11.4773
▁industrial	-11.4778
▁nickname	-11.4778
▁launched	-11.478
▁howard	-11.4786
▁ginger	-11.4786
hill	-11.4789
▁esp	-11.4794
▁insisted	-11.4796
taking	-11.4799
▁kindness	-11.4807
▁regarded	-11.481
▁vine	-11.4811
rio	-11.4818
▁fled	-11.4818
▁ruled	-11.4823
▁——	-11.4823
▁sandwiches	-11.4823
▁lyn	-11.4825
▁spear	-11.483
▁recovered	-11.4831
▁succeed	-11.484
▁pickle	-11.4846
▁charged	-11.4849
▁skate	-11.485
▁bib	-11.485
zen	-11.4853
▁electricity	-11.4854
made	-11.4855
▁potential	-11.4858
▁revenge	-11.4858
▁particle	-11.4859
west	-11.4861
▁barely	-11.4862
▁reception	-11.4866
▁plug	-11.4869
hang	-11.4876
refers	-11.4878
▁disgust	-11.4881
▁jacob	-11.4881
▁favourite	-11.4882
▁blast	-11.4883
▁childsname	-11.4888
▁spit	-11.4888
▁superior	-11.4895
▁oxygen	-11.4903
▁atmosphere	-11.491
▁cure	-11.4911
▁“‘	-11.4912
▁hippo	-11.4912
whines	-11.4912
▁disagree	-11.4918
▁assured	-11.4918
▁poured	-11.4921
▁scissors	-11.4925
▁baron	-11.4925
▁crane	-11.4931
itz	-11.4933
▁proceeded	-11.4936
▁associated	-11.4937
▁camel	-11.4938
▁brig	-11.4939
36	-11.494
▁increasing	-11.494
▁agency	-11.494
▁tokyo	-11.494
▁ribbon	-11.4948
▁cj	-11.4951
▁engineering	-11.4951
▁distress	-11.4955
▁seth	-11.4957
▁fighter	-11.4963
500	-11.4968
▁enormous	-11.497
▁blank	-11.4978
▁childhood	-11.498
▁burden	-11.4981
▁absence	-11.4985
▁tal	-11.4992
does	-11.4992
▁flor	-11.4999
sail	-11.5
42	-11.5004
▁vocal	-11.5011
▁personally	-11.5011
▁heath	-11.5015
▁shared	-11.5018
▁franklin	-11.5021
▁monarch	-11.5022
▁shine	-11.5023
▁wink	-11.5027
▁clara	-11.5027
▁aeroplane	-11.5029
▁evolution	-11.5029
▁visible	-11.503
▁poetry	-11.5033
▁insist	-11.5035
▁pho	-11.5045
▁assistance	-11.5046
▁1964	-11.5046
lav	-11.5048
▁patty	-11.505
▁1967	-11.5054
▁sank	-11.506
▁num	-11.5063
▁jonathan	-11.5067
▁domestic	-11.5067
lick	-11.5071
ograph	-11.5072
▁leather	-11.5075
32	-11.5077
▁catherine	-11.509
▁attorney	-11.509
▁wrapped	-11.509
▁louder	-11.5091
corn	-11.5096
▁communist	-11.5097
▁summon	-11.5099
▁sweat	-11.5105
▁applied	-11.5105
▁smoking	-11.512
hard	-11.5123
▁suicide	-11.5127
▁swiss	-11.5128
▁kisses	-11.5129
▁status	-11.5135
▁grief	-11.5136
tribute	-11.5137
▁gap	-11.5139
▁thorn	-11.5139
▁rig	-11.5139
▁zoe	-11.5139
▁permanent	-11.515
▁oscar	-11.5151
path	-11.5154
main	-11.5157
little	-11.5158
▁useless	-11.5158
▁fridge	-11.5168
▁jill	-11.5171
▁miserable	-11.5173
▁interpret	-11.5173
▁dread	-11.518
▁gathering	-11.5182
▁decent	-11.5185
▁rocky	-11.5187
▁illustrated	-11.5188
▁affected	-11.5191
▁nesting	-11.5203
▁samuel	-11.5212
▁whilst	-11.5219
▁bavaria	-11.5219
▁stared	-11.5226
▁centuries	-11.5226
▁cushion	-11.5226
case	-11.5227
communi	-11.5227
200	-11.5232
▁mul	-11.5235
▁morris	-11.5239
▁scholar	-11.5241
fresh	-11.5245
▁carter	-11.5248
▁douglas	-11.5249
▁crept	-11.5249
▁vin	-11.5251
▁convention	-11.5257
▁nevertheless	-11.5257
tape	-11.5258
▁ranch	-11.5259
▁mourn	-11.5266
▁electronic	-11.5266
▁boring	-11.5267
▁helpless	-11.527
▁obtain	-11.5271
▁brow	-11.5272
▁printed	-11.5274
▁offering	-11.5278
▁alligator	-11.528
▁apply	-11.5282
billboard	-11.5286
▁employee	-11.5289
▁kh	-11.529
▁rib	-11.5291
▁organized	-11.5297
▁fog	-11.5297
smith	-11.5299
▁feared	-11.5308
▁expressed	-11.531
▁luke	-11.531
▁autumn	-11.5311
▁firing	-11.5316
▁supreme	-11.5319
▁batteries	-11.532
▁fake	-11.532
▁bubble	-11.5329
▁encounter	-11.533
▁ralph	-11.5334
▁pupil	-11.5334
▁kangaroo	-11.5342
▁rosa	-11.5345
▁gear	-11.5345
▁demon	-11.5349
▁biography	-11.535
▁brass	-11.5352
▁timber	-11.5353
▁quote	-11.5355
▁warn	-11.5358
▁mistaken	-11.5363
▁awesome	-11.5365
guard	-11.5365
▁1940	-11.5367
▁olive	-11.537
ession	-11.5372
▁frequently	-11.5372
▁genus	-11.5373
▁existence	-11.5376
chris	-11.5377
▁underground	-11.5377
both	-11.538
▁proposal	-11.5381
▁expense	-11.5381
▁calendar	-11.5388
▁sympathy	-11.5396
▁yourselves	-11.5396
▁bronze	-11.5396
cry	-11.5401
▁possibility	-11.5404
▁predict	-11.5405
▁duties	-11.5406
▁constantly	-11.5413
▁thief	-11.5419
▁clerk	-11.5428
▁peel	-11.543
▁obvious	-11.543
▁swift	-11.5431
uv	-11.5439
▁dynasty	-11.5443
▁dragged	-11.5443
▁remi	-11.5443
▁lace	-11.5447
▁khan	-11.5448
▁illegal	-11.5451
▁nasty	-11.5451
▁marker	-11.5451
whining	-11.5452
▁crowded	-11.5456
▁grain	-11.5458
▁phrase	-11.5458
▁soccer	-11.5459
▁spray	-11.546
close	-11.5462
▁rage	-11.5463
▁squash	-11.5467
▁trailer	-11.5477
▁remarkable	-11.5478
▁shelf	-11.5485
▁spo	-11.5487
▁corporation	-11.549
▁dug	-11.549
jw	-11.5491
▁vest	-11.5493
▁kite	-11.5493
▁broom	-11.5496
▁guinea	-11.5498
▁copper	-11.5504
▁delivered	-11.551
▁accused	-11.5513
▁priscilla	-11.5513
▁claimed	-11.5517
▁ohio	-11.5518
▁surrender	-11.5521
▁kicked	-11.5527
▁persuade	-11.5529
▁pistol	-11.5529
▁mou	-11.5538
page	-11.5542
▁cheeky	-11.5543
▁literally	-11.5545
▁philadelphia	-11.5545
▁assault	-11.5546
▁gloom	-11.5547
free	-11.5553
▁impatient	-11.5553
▁conceal	-11.5553
▁1966	-11.5555
▁troop	-11.5556
▁rebel	-11.5556
▁abuse	-11.5561
▁nephew	-11.5561
▁freeze	-11.5561
▁copies	-11.5567
▁tumble	-11.5568
▁unconscious	-11.5569
▁stall	-11.5576
mount	-11.559
▁rom	-11.5591
▁skipper	-11.5594
▁warned	-11.5599
▁swung	-11.5601
power	-11.5602
▁edna	-11.5603
▁haul	-11.5608
▁alternative	-11.5608
▁quarrel	-11.5608
▁shield	-11.5608
▁moses	-11.5611
▁layer	-11.5613
▁roo	-11.5614
▁leak	-11.5615
▁creation	-11.5623
▁global	-11.5625
▁patrol	-11.5626
ui	-11.5631
ā	-11.5632
▁gross	-11.5633
▁sponge	-11.564
▁mast	-11.5643
▁kha	-11.5643
enberg	-11.5644
lift	-11.5646
grand	-11.5648
untranscribed	-11.5648
▁invest	-11.5669
▁deposit	-11.5679
▁miracle	-11.568
think	-11.5681
▁wig	-11.5687
▁cou	-11.5689
gli	-11.5695
keep	-11.5696
▁appropriate	-11.57
maybe	-11.5701
▁mississippi	-11.5704
▁obtained	-11.5707
horn	-11.5708
▁packet	-11.5709
34	-11.5714
▁jessie	-11.5724
etta	-11.5728
▁drank	-11.5729
▁debate	-11.573
▁deny	-11.5733
▁nazi	-11.5734
▁til	-11.5735
▁admiral	-11.5736
▁burton	-11.5737
▁southwest	-11.5745
▁archer	-11.5748
31	-11.5759
▁begged	-11.576
▁arnold	-11.576
▁sheriff	-11.5761
▁comin	-11.5763
▁panic	-11.5767
▁pap	-11.5771
▁500	-11.5771
▁cli	-11.5773
▁pel	-11.5775
▁arkansas	-11.5777
▁dna	-11.5777
▁chasing	-11.5781
▁45	-11.5781
▁neu	-11.5782
▁gary	-11.5785
▁ew	-11.5785
▁bureau	-11.5785
▁covering	-11.5788
▁license	-11.5793
▁observation	-11.5801
▁goddess	-11.5801
view	-11.5801
▁persian	-11.5801
▁hint	-11.5807
▁disorder	-11.5809
▁pierre	-11.5811
▁depression	-11.5817
▁careless	-11.5823
▁resolved	-11.5829
▁withdraw	-11.5829
▁unique	-11.583
▁personality	-11.5832
▁searching	-11.5833
▁ridiculous	-11.5833
▁resume	-11.5842
▁kal	-11.5847
▁bacon	-11.585
▁resistance	-11.5851
▁blessed	-11.5858
♪	-11.5859
▁1945	-11.586
▁kang	-11.5861
▁evident	-11.5862
▁moore	-11.5862
▁daylight	-11.5865
▁accompanied	-11.5866
▁collected	-11.5867
▁shu	-11.587
▁seventh	-11.587
hearted	-11.5872
▁vir	-11.5872
▁swamp	-11.5877
▁suspicious	-11.5882
▁manufacture	-11.589
▁villa	-11.5893
▁administrative	-11.5899
▁classic	-11.5901
ility	-11.5903
▁moscow	-11.5907
▁gazed	-11.5907
▁roast	-11.5907
▁porch	-11.591
▁wendy	-11.5916
▁chef	-11.5921
▁software	-11.5924
▁overall	-11.593
▁rhyme	-11.594
▁lend	-11.5941
▁transform	-11.5941
▁monte	-11.5944
▁concluded	-11.5948
▁memories	-11.5948
▁suburb	-11.5948
▁enable	-11.5948
▁passes	-11.595
aff	-11.5954
▁peaceful	-11.5957
squeals	-11.5964
craft	-11.5964
▁fossil	-11.5964
▁fiction	-11.5975
▁kissing	-11.5976
▁parcel	-11.5979
▁extend	-11.598
▁revealed	-11.598
▁dennis	-11.5981
▁urban	-11.5981
▁curse	-11.5986
▁patience	-11.5989
▁midst	-11.5991
▁viii	-11.5994
▁messenger	-11.5997
▁tourist	-11.6002
▁waist	-11.6002
▁ideal	-11.6003
▁pier	-11.6005
▁instinct	-11.6005
▁potty	-11.6006
▁juan	-11.6011
won	-11.6012
▁expand	-11.6013
▁combat	-11.6017
▁mounted	-11.6018
▁massive	-11.6022
▁beaten	-11.6029
33	-11.6029
▁objection	-11.603
▁cultural	-11.603
▁damn	-11.6032
hello	-11.6038
▁crop	-11.6038
▁sung	-11.6042
▁drain	-11.6045
▁gettin	-11.6046
▁virgin	-11.6046
▁dive	-11.6047
▁stool	-11.6048
▁acquaintance	-11.6055
▁swedish	-11.6055
▁karl	-11.6061
▁gau	-11.6062
▁extraordinary	-11.6064
▁submarine	-11.6064
▁robot	-11.6066
▁happily	-11.6072
▁anxiously	-11.608
▁alabama	-11.608
▁nee	-11.6086
▁thankful	-11.6092
▁columbia	-11.6097
▁worthy	-11.6101
▁outfit	-11.6106
class	-11.6112
▁belonging	-11.6119
▁insult	-11.6123
loo	-11.6133
▁marky	-11.6137
▁technique	-11.6139
▁thread	-11.6145
pop	-11.6146
▁mischief	-11.6155
▁austin	-11.6155
▁referring	-11.6156
▁suitcase	-11.6164
▁liber	-11.6164
▁confusion	-11.6165
cio	-11.6186
ancy	-11.6186
▁sean	-11.6189
▁despair	-11.6189
▁participate	-11.6189
▁error	-11.619
▁painful	-11.6195
▁circuit	-11.6206
▁housing	-11.6206
▁cinema	-11.6207
▁gulf	-11.6209
▁hong	-11.6213
nothing	-11.6214
▁hastily	-11.6215
▁meadow	-11.6215
poor	-11.622
▁joking	-11.6227
▁entering	-11.623
▁complicated	-11.6231
▁confirm	-11.624
▁colleague	-11.624
▁reputation	-11.624
chester	-11.6241
court	-11.6246
▁strongly	-11.6246
▁youngest	-11.6247
▁sharply	-11.6248
aya	-11.6248
songwriter	-11.6248
babbling	-11.6249
▁lest	-11.6249
▁jackie	-11.6254
▁donkey	-11.6255
▁blessing	-11.6255
▁curiosity	-11.6257
▁1956	-11.6258
▁holland	-11.6259
▁pip	-11.6261
▁govern	-11.6268
▁invented	-11.6274
▁solar	-11.6275
▁digging	-11.6277
▁norway	-11.6282
▁diploma	-11.6291
▁exam	-11.6291
bach	-11.6299
▁naval	-11.63
first	-11.6301
▁lib	-11.6307
▁preparing	-11.6308
▁jews	-11.6308
▁tech	-11.632
asse	-11.6323
▁guarantee	-11.6325
▁impressed	-11.6325
▁reasonable	-11.6326
▁blade	-11.6328
▁gb	-11.6331
istan	-11.6333
▁hooray	-11.6334
▁bash	-11.6334
eous	-11.6347
▁genius	-11.6352
media	-11.6355
ô	-11.6359
▁destruction	-11.6359
▁procedure	-11.6359
▁arrange	-11.6366
▁greece	-11.6367
▁frozen	-11.6368
▁lego	-11.6369
▁footballer	-11.637
▁swinging	-11.6372
▁katie	-11.6373
▁trump	-11.6384
▁coke	-11.6391
hh	-11.6397
▁1965	-11.6404
western	-11.6404
▁bully	-11.641
▁evelyn	-11.6411
▁foe	-11.6412
speaking	-11.6416
ç	-11.6419
lov	-11.6422
▁operating	-11.6423
▁jin	-11.6424
▁prey	-11.6424
▁causing	-11.6429
▁crisis	-11.6432
shirt	-11.6434
▁bumper	-11.6434
▁benjamin	-11.6436
▁inclined	-11.6436
▁abroad	-11.6437
▁hah	-11.6438
▁genera	-11.644
▁accent	-11.6445
ride	-11.6452
▁wolves	-11.6454
▁lick	-11.6457
▁topic	-11.6459
▁reveal	-11.6463
▁lump	-11.6464
▁coo	-11.6471
hush	-11.6472
▁pension	-11.6472
nick	-11.6475
holding	-11.6488
▁furious	-11.6491
member	-11.6491
black	-11.6493
▁digital	-11.6497
▁stanley	-11.6501
▁raising	-11.6502
▁dessert	-11.6506
▁melissa	-11.6506
▁terrific	-11.6506
▁forehead	-11.6506
▁spl	-11.6507
▁considering	-11.651
▁stealing	-11.6512
▁fright	-11.6513
▁floating	-11.6514
▁precise	-11.6514
▁accustomed	-11.6514
▁beloved	-11.6514
▁ruff	-11.6514
zzle	-11.652
▁hitting	-11.652
ello	-11.6521
▁amid	-11.6522
▁metropolitan	-11.6523
▁scattered	-11.6524
▁awkward	-11.6532
▁hamburger	-11.6532
▁liz	-11.6532
▁greg	-11.6533
▁startled	-11.6534
▁perceive	-11.654
▁iowa	-11.6541
▁dashed	-11.6543
▁refuge	-11.6549
coat	-11.6553
ask	-11.6567
▁colony	-11.6567
▁automobile	-11.6575
▁minnesota	-11.6575
▁harris	-11.6583
▁ceiling	-11.6584
wash	-11.6586
▁ruined	-11.659
▁latest	-11.6592
▁payment	-11.6593
▁meantime	-11.6605
▁swan	-11.6608
▁mario	-11.6614
▁firmly	-11.6617
fil	-11.6618
▁flock	-11.662
▁?[	-11.662
▁1961	-11.6621
▁painter	-11.6627
▁contained	-11.6632
▁realise	-11.6633
▁rushing	-11.6636
▁maiden	-11.6644
zan	-11.6652
▁birdie	-11.6653
▁pancake	-11.6654
▁gerald	-11.6655
▁orphan	-11.6655
▁boris	-11.666
▁wrist	-11.6663
▁alaska	-11.6663
▁gill	-11.6664
▁36	-11.6665
▁hose	-11.6671
▁divide	-11.6671
▁philippine	-11.6681
▁absorb	-11.6681
ective	-11.6682
▁substance	-11.669
▁greeting	-11.669
▁consideration	-11.6697
▁sophie	-11.6708
▁claire	-11.6708
▁unfortunate	-11.6713
▁cuba	-11.6716
▁muttered	-11.6716
▁hank	-11.6719
▁graduated	-11.672
▁2022)	-11.6723
▁earthquake	-11.6725
▁informed	-11.6728
▁affection	-11.673
▁widely	-11.6734
▁napkin	-11.6745
▁1963	-11.6745
cade	-11.675
▁imagination	-11.6752
▁300	-11.6755
▁barking	-11.6759
▁imperial	-11.6761
▁yield	-11.6761
▁mason	-11.6761
▁emerge	-11.6763
okay	-11.6763
▁violin	-11.677
▁alert	-11.6773
▁leaning	-11.6783
▁berry	-11.6783
▁symptoms	-11.6788
▁vienna	-11.6788
▁nappie	-11.6788
bound	-11.6795
▁elbow	-11.6797
▁examination	-11.6797
▁collapse	-11.6797
▁1947	-11.6799
▁lucia	-11.6805
▁curve	-11.6806
▁chalk	-11.6807
▁1959	-11.6807
▁travelling	-11.6808
▁judy	-11.6808
▁drown	-11.6808
▁raven	-11.681
▁cycle	-11.6816
▁haste	-11.6819
▁attractive	-11.6824
▁shepherd	-11.6824
ín	-11.6834
▁judgment	-11.6841
▁bbc	-11.6842
▁granted	-11.6848
▁adjust	-11.6852
▁employed	-11.6856
▁snail	-11.6859
▁historian	-11.6859
▁conductor	-11.6867
――	-11.6868
▁universal	-11.6868
▁martha	-11.6879
▁loaded	-11.6879
▁alfred	-11.6887
▁dah	-11.689
▁construct	-11.6893
▁injury	-11.6896
▁torture	-11.6896
▁sultan	-11.6897
▁peril	-11.69
▁1962	-11.6906
▁journal	-11.6908
▁tuck	-11.6913
▁handkerchief	-11.6914
▁kettle	-11.6914
▁antonio	-11.6914
▁sighed	-11.6916
▁worldwide	-11.6923
uel	-11.6924
▁turk	-11.6927
▁decade	-11.6928
▁rebecca	-11.6932
----------------	-11.6933
▁1948	-11.6934
▁mug	-11.6935
▁characteristic	-11.6942
▁investment	-11.6943
▁flung	-11.6944
▁selfish	-11.6948
arrondissement	-11.695
▁practical	-11.6956
▁environmental	-11.6956
▁pep	-11.6957
▁xxi	-11.6961
▁2018)	-11.6963
▁headache	-11.6968
▁malcolm	-11.6968
▁glorious	-11.6968
▁opposition	-11.6969
▁parade	-11.6972
flower	-11.6973
style	-11.6984
▁electron	-11.6989
▁bored	-11.6994
▁investigator	-11.6994
dear	-11.7
help	-11.7002
▁humor	-11.7005
▁vroom	-11.7012
▁ancestor	-11.7014
▁infection	-11.7014
▁dra	-11.7014
▁retain	-11.7018
▁pajamas	-11.7023
▁equally	-11.7025
▁disappointment	-11.7033
▁whirl	-11.7034
▁crumb	-11.7034
▁possessed	-11.7038
▁phase	-11.7043
▁blossom	-11.706
▁kra	-11.7062
hv	-11.7062
▁blackie	-11.7063
▁nanny	-11.7066
▁stuart	-11.707
▁twinkle	-11.7078
▁bury	-11.7086
▁activist	-11.7087
▁longest	-11.7088
▁michelle	-11.7089
step	-11.7094
▁supplies	-11.7096
▁install	-11.7098
fold	-11.7104
▁assassin	-11.7106
grm	-11.7106
▁identity	-11.7115
▁pudding	-11.7115
▁holly	-11.7115
▁permit	-11.7122
▁combination	-11.7124
▁1958	-11.7126
▁fel	-11.7128
▁fastened	-11.7129
▁exhausted	-11.7129
▁skull	-11.7133
know	-11.7134
▁pic	-11.7135
▁ou	-11.7136
▁1952	-11.7143
▁1957	-11.7145
whimper	-11.7149
integr	-11.7151
color	-11.7153
▁loop	-11.7157
▁nelson	-11.7161
▁unto	-11.7162
▁naked	-11.7174
▁cheering	-11.7178
▁debbie	-11.718
▁smack	-11.718
—”	-11.7181
▁elevator	-11.7189
▁magnificent	-11.7189
▁devoted	-11.7189
▁accompany	-11.7198
▁escort	-11.7198
▁blown	-11.7199
▁charity	-11.7204
▁athletic	-11.7208
▁valentine	-11.7208
▁gesture	-11.7208
▁urged	-11.7209
▁shiver	-11.721
▁ambassador	-11.7217
▁furnish	-11.7217
▁poop	-11.7221
▁grape	-11.7223
malley	-11.7224
▁reporter	-11.7226
▁zu	-11.7232
▁drowned	-11.7234
suit	-11.7243
▁monitor	-11.7245
▁gab	-11.7246
▁necessarily	-11.7254
▁concentrate	-11.7254
▁buff	-11.7255
▁33	-11.7256
▁classical	-11.7257
▁shriek	-11.7264
own	-11.7266
▁mortal	-11.7266
▁syria	-11.7268
▁sector	-11.7268
▁sled	-11.7273
▁identify	-11.7273
▁automatic	-11.7273
▁internal	-11.7275
▁recognise	-11.7282
▁runner	-11.7284
▁treaty	-11.7285
▁scrub	-11.7291
▁75	-11.7298
▁immense	-11.7301
▁kil	-11.7303
borough	-11.7305
▁stake	-11.7325
▁clasp	-11.733
▁romance	-11.7332
▁doorway	-11.7332
▁preach	-11.7348
▁chapel	-11.7348
idae	-11.7349
~	-11.7352
▁motorcycle	-11.7358
▁genetic	-11.736
▁fry	-11.7364
▁hopefully	-11.7365
▁passenger	-11.7367
▁plunge	-11.7377
▁suspected	-11.7386
▁stoop	-11.739
▁murmured	-11.7398
nova	-11.7401
▁physics	-11.7405
▁sharing	-11.7405
something	-11.741
▁34	-11.7411
▁plainly	-11.7412
touches	-11.7419
fast	-11.742
▁slim	-11.7421
▁execute	-11.7424
▁opposed	-11.7424
▁discipline	-11.7434
▁uncomfortable	-11.7434
▁grip	-11.7437
note	-11.744
▁attract	-11.744
▁murderer	-11.744
▁possess	-11.7442
▁conscience	-11.7443
▁athlete	-11.7443
▁coward	-11.7448
white	-11.7449
▁immediate	-11.745
▁squeal	-11.7454
▁aaron	-11.7456
big	-11.7458
▁scramble	-11.7463
▁remote	-11.7465
▁cathedral	-11.7472
▁robe	-11.7473
▁formation	-11.7476
▁brooklyn	-11.7482
▁delivery	-11.7483
▁reduced	-11.7488
▁controlled	-11.749
▁caesar	-11.7491
▁bedtime	-11.7492
clears	-11.7493
▁counties	-11.7495
▁haut	-11.7497
▁combined	-11.7501
▁bracelet	-11.7502
called	-11.7502
▁fig	-11.7506
april	-11.7516
▁kennedy	-11.752
▁seldom	-11.752
cca	-11.7522
▁compliment	-11.753
▁advertise	-11.753
▁robbie	-11.753
▁compass	-11.7541
▁nothin	-11.7542
▁jamie	-11.7548
▁municipalities	-11.7549
▁badge	-11.7552
▁terry	-11.7557
▁abandoned	-11.7558
▁snatch	-11.7559
š	-11.7568
▁satellite	-11.7568
igan	-11.7569
▁1946	-11.7571
▁utter	-11.7585
▁petrol	-11.7586
▁merged	-11.7588
word	-11.7589
pushes	-11.7592
eye	-11.7593
▁turkish	-11.7599
▁frighten	-11.76
lect	-11.7601
▁correspond	-11.7607
▁receiving	-11.7607
▁dustbin	-11.7608
▁amusement	-11.7617
▁shone	-11.7622
▁fist	-11.7631
▁interior	-11.7636
total	-11.7636
▁inspired	-11.7637
▁dispute	-11.7637
▁`	-11.7639
▁haunt	-11.7641
▁georg	-11.7647
▁explorer	-11.7647
▁vet	-11.7649
▁philosophy	-11.7656
▁louisiana	-11.7656
▁vanished	-11.7656
▁moss	-11.7658
▁jazz	-11.7659
▁harrison	-11.7659
▁straighten	-11.7664
rrr	-11.7665
▁saxon	-11.7666
▁prefecture	-11.7675
▁relieved	-11.7679
▁nomination	-11.7685
▁everyday	-11.7689
▁consume	-11.7696
▁rotten	-11.7696
▁neglect	-11.7705
▁foster	-11.7708
▁snip	-11.7711
▁harp	-11.7714
▁lobster	-11.7714
▁niece	-11.7714
||1||	-11.7718
▁pioneer	-11.7724
▁opponent	-11.7734
▁bleeding	-11.7744
▁fifa	-11.7748
▁minus	-11.775
▁carries	-11.7753
▁intelligent	-11.7754
▁portugal	-11.7754
▁spike	-11.7755
▁starred	-11.7755
▁dimitra	-11.7764
▁singapore	-11.7764
▁memorial	-11.7764
course	-11.7764
▁departure	-11.7764
▁franc	-11.7767
▁armenian	-11.7768
silver	-11.7769
▁panel	-11.777
▁1920	-11.7773
▁wheat	-11.7774
▁gallop	-11.7776
▁1949	-11.7776
▁cutter	-11.778
▁potter	-11.7784
▁permitted	-11.7785
▁dramatic	-11.7793
▁extinct	-11.7793
▁conscious	-11.7802
née	-11.7803
▁1942	-11.7805
▁trembling	-11.7813
▁fortunately	-11.7825
▁dresses	-11.7826
▁hypo	-11.7829
▁distract	-11.7833
▁shovel	-11.7833
▁bargain	-11.7843
▁renew	-11.7845
▁sap	-11.7849
▁cupcake	-11.7853
▁nepal	-11.7853
▁hydro	-11.7854
▁fearful	-11.7857
▁disturbed	-11.7858
▁volleyball	-11.7863
world	-11.7867
▁curly	-11.7869
▁pence	-11.787
▁harmon	-11.787
children	-11.788
direct	-11.7881
▁42	-11.7884
▁verb	-11.7886
▁axe	-11.7891
▁farewell	-11.7893
▁uncertain	-11.7896
▁hunger	-11.7906
▁jose	-11.791
▁adopt	-11.791
▁welsh	-11.7913
▁1954	-11.7915
▁exhibition	-11.7917
▁suitable	-11.7924
▁propose	-11.7931
▁surgeon	-11.7933
bank	-11.7935
psych	-11.7948
▁dale	-11.7952
▁electrical	-11.7965
--------------	-11.7966
horse	-11.7973
▁slam	-11.7974
▁sensible	-11.7983
▁moor	-11.7987
▁shakespeare	-11.7993
▁wisdom	-11.7993
▁pub	-11.7994
▁trigger	-11.7995
woo	-11.7996
▁homework	-11.8006
▁lettuce	-11.8013
▁polo	-11.8017
▁decline	-11.8017
▁borough	-11.8019
▁wandering	-11.802
▁chemistry	-11.8024
▁slap	-11.8025
▁1955	-11.8026
▁dialect	-11.8034
▁alec	-11.8039
▁stripes	-11.8042
▁investigate	-11.8043
▁shiny	-11.8046
▁berg	-11.8048
▁dame	-11.8051
▁russell	-11.8054
▁sweater	-11.8054
▁1939	-11.8056
▁practically	-11.8057
▁attracted	-11.806
▁fries	-11.8061
▁submit	-11.8064
▁alliance	-11.8064
▁modest	-11.8068
▁publish	-11.8069
▁promptly	-11.8072
▁metres	-11.8074
▁execution	-11.8074
▁cunning	-11.8074
▁flee	-11.8076
blows	-11.8077
▁historic	-11.808
indistinct	-11.8084
▁anderson	-11.8089
▁wax	-11.8094
▁jennifer	-11.8094
▁scientist	-11.8095
▁batter	-11.8099
▁forbidden	-11.8104
▁perch	-11.8111
▁sensation	-11.8115
rhin	-11.8122
▁acknowledge	-11.8125
▁striking	-11.8125
▁surprising	-11.8125
▁councillor	-11.8127
▁resolution	-11.8135
▁moan	-11.8138
▁deliberate	-11.8145
▁molecule	-11.8145
▁pigeon	-11.8145
▁pursuit	-11.8146
▁reduce	-11.8149
▁volcano	-11.815
▁explore	-11.8154
▁visual	-11.8156
▁warrant	-11.8156
▁yorkshire	-11.8159
▁sneeze	-11.8162
▁brenda	-11.8166
▁absolute	-11.8174
▁ministry	-11.8176
▁humming	-11.8182
▁dakota	-11.8186
▁pluck	-11.8186
▁rhode	-11.8186
▁paddle	-11.8191
people	-11.8192
▁hollywood	-11.8197
speak	-11.8198
▁lengthened	-11.8199
▁trapped	-11.82
▁uttered	-11.8203
▁ultimate	-11.8207
▁indonesia	-11.8207
gold	-11.8209
▁canvas	-11.8218
▁scarlet	-11.8219
▁erect	-11.8225
▁mushroom	-11.8228
▁privilege	-11.8228
▁medium	-11.8239
▁flap	-11.8239
▁lantern	-11.8248
▁marian	-11.8255
cloth	-11.8255
▁belgium	-11.8259
▁beaver	-11.826
▁waffle	-11.8269
▁globe	-11.827
nese	-11.8277
▁creating	-11.8282
▁entry	-11.8283
ought	-11.8284
▁dolphin	-11.829
great	-11.8291
▁1943	-11.8292
glass	-11.8297
▁hopeless	-11.8303
▁scoop	-11.8303
▁exit	-11.8307
▁octopus	-11.8311
▁analysis	-11.8311
▁knit	-11.8311
▁retirement	-11.8312
▁fortunate	-11.8319
▁colin	-11.8319
▁struggling	-11.8321
▁temporary	-11.8321
▁discharge	-11.8321
▁heroes	-11.8329
▁humble	-11.8329
▁popped	-11.8331
▁essay	-11.8332
▁irene	-11.8333
▁hack	-11.8337
▁behaviour	-11.8342
▁capacity	-11.8342
could	-11.8348
▁pilgrim	-11.8352
▁abraham	-11.8352
▁fulfil	-11.8352
▁confederate	-11.8363
▁imitate	-11.8385
▁1941	-11.8386
▁1944	-11.8386
▁introduction	-11.8394
▁exposed	-11.8394
▁wah	-11.8399
▁blaze	-11.84
▁joyce	-11.8402
▁peninsula	-11.8405
▁invasion	-11.8415
▁absent	-11.8415
▁harvey	-11.8415
▁rhythm	-11.8426
▁identified	-11.8436
à	-11.8436
▁invade	-11.8442
▁distribution	-11.8447
▁nellie	-11.8447
▁cellar	-11.8449
▁enterprise	-11.8457
▁earliest	-11.8457
footnote	-11.8464
active	-11.8467
▁architect	-11.8468
▁occupation	-11.8468
▁dislike	-11.8469
▁rural	-11.8471
▁wives	-11.8471
watch	-11.8478
▁scarf	-11.8485
beat	-11.849
pulls	-11.8498
shot	-11.85
▁hermit	-11.8507
▁specimen	-11.851
▁crunch	-11.8512
illo	-11.8534
grf	-11.8534
▁uefa	-11.8542
▁1951	-11.8544
▁sensitive	-11.8553
▁dollhouse	-11.8558
▁select	-11.8566
▁crust	-11.8567
▁brew	-11.8569
agne	-11.8572
▁stump	-11.8578
took	-11.8579
▁missile	-11.8581
▁gha	-11.8584
▁hamilton	-11.8585
▁casual	-11.8585
▁properties	-11.8586
▁ernest	-11.8587
▁taperecorder	-11.8596
gio	-11.8604
▁spotted	-11.8604
▁commissioner	-11.8606
▁bangladesh	-11.8606
▁bradford	-11.8607
▁slightest	-11.861
▁resort	-11.8617
ić	-11.862
▁swiftly	-11.8623
▁oklahoma	-11.8628
▁architecture	-11.8628
▁harvest	-11.8628
▁clinic	-11.8631
starts	-11.8647
grade	-11.865
▁freak	-11.8654
▁solomon	-11.866
▁gleam	-11.866
▁finn	-11.8669
▁dizzy	-11.8671
▁sentiment	-11.8671
▁associate	-11.8676
▁steadily	-11.8682
▁1953	-11.8684
▁wwe	-11.8691
phon	-11.8697
▁reverse	-11.8702
▁ukraine	-11.8703
▁promotion	-11.8704
▁halloween	-11.8714
▁tennessee	-11.8714
▁campus	-11.872
▁exhibit	-11.872
▁appetite	-11.8725
▁lloyd	-11.8725
▁marshall	-11.8727
based	-11.8735
▁cardinal	-11.8736
wyn	-11.8743
▁contrary	-11.8747
▁derek	-11.875
▁warner	-11.8753
▁swww	-11.8755
▁explode	-11.8758
▁accord	-11.8766
▁iraq	-11.8766
▁engagement	-11.877
▁torch	-11.8774
▁damp	-11.878
▁thanksgiving	-11.879
▁disgrace	-11.879
▁cambridge	-11.8791
▁popcorn	-11.8792
▁aisne	-11.8792
icia	-11.8798
▁strap	-11.8804
▁argentina	-11.8812
▁sustain	-11.8812
▁gail	-11.8824
▁banner	-11.8827
knock	-11.883
▁restrict	-11.8831
▁sequence	-11.8834
."--_	-11.8835
▁fitted	-11.884
▁frederick	-11.8845
▁1936	-11.8847
▁fairies	-11.8849
▁rosie	-11.8855
▁sketch	-11.8856
▁rosy	-11.886
▁ledge	-11.8861
▁narrator	-11.8867
▁dignity	-11.8867
▁basin	-11.8872
▁punk	-11.8874
▁kel	-11.8875
edinburgh	-11.8878
▁chorus	-11.8881
▁errand	-11.889
▁brake	-11.8894
▁divine	-11.8897
▁contribution	-11.89
▁glimpse	-11.89
▁samantha	-11.89
▁unpleasant	-11.89
▁spiritual	-11.8913
|	-11.8922
▁johann	-11.8923
▁elect	-11.8925
▁sunset	-11.8928
▁1938	-11.8936
▁tyler	-11.8937
▁1934	-11.8946
listen	-11.8947
▁hydrogen	-11.8956
▁gilbert	-11.8957
▁idle	-11.8959
▁graduate	-11.8962
▁cemetery	-11.8967
▁dwarf	-11.8989
▁tremble	-11.8992
▁declare	-11.8996
empt	-11.8999
▁subsid	-11.9008
ibility	-11.9019
▁spinning	-11.9036
▁utterly	-11.9037
▁spencer	-11.9045
▁vega	-11.9054
▁rosalie	-11.9056
▁phillip	-11.9057
▁finance	-11.9058
picture	-11.9063
▁amused	-11.9069
▁violet	-11.9079
▁elsewhere	-11.9081
throws	-11.9084
“	-11.9086
▁tomatoes	-11.9089
▁steak	-11.9094
▁contrast	-11.9101
▁villain	-11.9102
▁murmur	-11.9109
▁abc	-11.911
person	-11.9111
▁harsh	-11.9117
wich	-11.9117
▁paralympic	-11.9124
▁sponsor	-11.9124
▁academic	-11.9124
▁leonard	-11.9124
▁vel	-11.9131
▁scold	-11.9138
▁moonlight	-11.9139
▁vital	-11.9141
▁$2	-11.9141
witch	-11.9145
▁1933	-11.9148
▁yawn	-11.9148
▁vincent	-11.9158
▁selection	-11.9161
▁ragged	-11.9162
▁portuguese	-11.9169
manchester	-11.9169
▁czech	-11.918
▁gazing	-11.918
▁pronounced	-11.9192
▁interval	-11.9198
shima	-11.92
simultaneous	-11.9203
▁disguise	-11.9203
▁yacht	-11.9204
▁infant	-11.9213
▁ornament	-11.9214
▁restrain	-11.9215
▁raft	-11.9219
▁colon	-11.9221
▁admiration	-11.9226
▁exclamation	-11.9226
fashioned	-11.923
▁jessica	-11.9238
▁achievement	-11.924
▁civilian	-11.9244
humming	-11.9248
▁bacteria	-11.9249
▁landscape	-11.9249
▁heritage	-11.9249
▁polar	-11.9253
truck	-11.9254
▁parson	-11.9256
▁federation	-11.926
▁harbour	-11.926
▁monument	-11.926
▁nigeria	-11.9261
trust	-11.9262
▁pandemic	-11.9271
▁transferred	-11.9273
▁napoleon	-11.9283
▁translation	-11.9283
▁comedian	-11.9284
▁frown	-11.9284
▁heartily	-11.9286
ppen	-11.9301
▁emotional	-11.9306
▁geoffrey	-11.9306
▁£	-11.9309
▁ladybird	-11.9309
▁nickel	-11.931
▁motive	-11.9312
▁fifi	-11.9313
▁tucker	-11.9316
stream	-11.9316
wow	-11.9317
▁constituency	-11.9317
▁decoration	-11.9317
▁mixture	-11.9319
▁attraction	-11.9326
green	-11.9327
▁signature	-11.934
▁clatter	-11.9341
dorf	-11.9351
▁jennie	-11.9353
paper	-11.9354
▁gallant	-11.9355
▁dense	-11.936
▁publisher	-11.9363
▁routine	-11.9364
▁employment	-11.9367
▁improvement	-11.9368
▁doubtless	-11.9374
▁fragment	-11.9375
▁stewart	-11.9375
▁keith	-11.9375
▁kentucky	-11.9387
▁astonishment	-11.9398
▁maisie	-11.9398
▁convey	-11.9399
▁barbie	-11.9408
groans	-11.9412
▁restless	-11.9413
▁bloke	-11.9413
▁accurate	-11.9422
▁prophet	-11.9422
▁gallery	-11.9422
▁residence	-11.9433
▁enthusiasm	-11.9445
▁grabbed	-11.9446
▁grammy	-11.9447
▁drake	-11.9454
▁proportion	-11.9457
▁urgent	-11.9457
▁ronald	-11.9457
▁nightmare	-11.9469
▁maryland	-11.947
type	-11.9471
▁pierce	-11.9473
▁esc	-11.9473
▁bruise	-11.9476
bang	-11.9479
▁communicate	-11.948
▁sammy	-11.949
▁dedicated	-11.9492
▁gratitude	-11.9492
▁sequel	-11.9492
▁emmy	-11.9492
▁rover	-11.9497
▁ewww	-11.9501
▁context	-11.9503
▁genuine	-11.9503
▁regulation	-11.9504
▁trumpet	-11.9505
▁slug	-11.9506
▁flavor	-11.9515
▁invisible	-11.9515
▁edith	-11.9515
osaurus	-11.9517
final	-11.9518
▁scent	-11.9527
▁dumb	-11.9535
▁oars	-11.9542
→	-11.9547
▁clutch	-11.955
▁pomp	-11.9558
▁arizona	-11.9562
▁calculate	-11.9562
▁oath	-11.9563
▁bandage	-11.9568
▁barrier	-11.9574
moans	-11.9582
▁lollipop	-11.9586
▁carrier	-11.9586
▁wrestler	-11.9587
▁deaf	-11.9598
▁magnetic	-11.9601
▁resent	-11.9601
▁prick	-11.9607
▁difficulties	-11.9609
▁communities	-11.9609
▁ethan	-11.961
ovich	-11.9621
▁nigel	-11.9635
organ	-11.9641
▁nowadays	-11.9645
▁gracious	-11.9646
▁snapped	-11.9647
▁approval	-11.9657
▁philosopher	-11.9657
▁telegraph	-11.9657
▁utah	-11.9669
▁decorate	-11.967
▁hawaii	-11.9681
▁organisation	-11.9681
▁salute	-11.9685
▁socialist	-11.9686
▁entitled	-11.9693
▁mathematics	-11.9693
▁jeremy	-11.9693
▁horrid	-11.9693
▁roland	-11.9695
▁lazy	-11.97
▁animation	-11.9705
▁objective	-11.9705
▁waking	-11.9711
▁jock	-11.9714
▁happier	-11.9717
▁survivor	-11.9717
▁civilization	-11.973
▁stalk	-11.9733
▁scorn	-11.9739
▁descent	-11.9745
▁{	-11.9748
▁raisin	-11.9749
▁convince	-11.9749
▁ethnic	-11.9765
▁portrait	-11.9765
bridge	-11.9767
▁applause	-11.9777
▁connecticut	-11.9777
▁schooner	-11.9777
▁tackle	-11.978
▁alexandr	-11.9782
▁continuous	-11.9789
▁hitler	-11.9789
weight	-11.9796
▁arabic	-11.9796
ø	-11.9801
▁reflection	-11.9812
▁democrat	-11.9813
▁revolver	-11.9813
▁poverty	-11.9813
▁wade	-11.9813
▁marcus	-11.9819
▁anniversary	-11.9825
▁1929	-11.9828
▁preferred	-11.9828
general	-11.9835
▁convenient	-11.9837
▁muffin	-11.9837
▁slate	-11.9838
▁rooster	-11.9839
▁mule	-11.9839
change	-11.9841
▁lauren	-11.9842
▁spur	-11.9842
▁burger	-11.9843
▁relate	-11.9845
▁1935	-11.9852
▁contribute	-11.9852
▁armour	-11.986
▁apron	-11.9863
▁ankle	-11.9865
▁viola	-11.987
france	-11.9873
mumbles	-11.9874
▁attach	-11.9878
▁category	-11.9886
▁definition	-11.9886
▁nursing	-11.9886
▁milan	-11.9896
▁radiation	-11.9898
▁caravan	-11.9898
hsl	-11.9904
▁diego	-11.9904
•	-11.991
▁rattling	-11.991
▁random	-11.991
▁impressive	-11.9923
▁screwdriver	-11.9923
▁caution	-11.9924
write	-11.9927
▁salary	-11.9931
▁bathtub	-11.9935
▁nicola	-11.9935
before	-11.9935
▁cloak	-11.9937
▁josh	-11.9938
▁nhl	-11.9938
▁fountain	-11.9947
▁leadership	-11.9953
▁elegant	-11.9959
▁paradise	-11.9959
▁reagan	-11.9959
▁thompson	-11.9972
comune	-11.9972
▁endure	-11.9975
▁1937	-11.9975
▁lucas	-11.9978
▁colombia	-11.9984
▁1932	-11.9986
blue	-11.9994
▁mansion	-11.9995
▁educated	-11.9996
▁summit	-11.9996
▁trading	-12.0001
▁ripped	-12.0003
▁approximately	-12.0009
▁denmark	-12.001
▁trevor	-12.0021
▁helm	-12.0026
▁kyle	-12.0029
▁barney	-12.0033
▁penalty	-12.0033
▁amateur	-12.0034
▁grinned	-12.0035
▁tracy	-12.0036
▁tasty	-12.0047
▁divi	-12.0049
▁nintendo	-12.0058
▁basement	-12.006
▁concentration	-12.007
▁protein	-12.007
2,000	-12.0071
▁craig	-12.0076
▁foam	-12.0078
▁burglar	-12.0083
▁surf	-12.0086
▁patriot	-12.0096
▁habitat	-12.0101
▁slavery	-12.0104
▁skeleton	-12.0108
▁felix	-12.0108
▁adele	-12.0112
▁jingle	-12.0122
▁pork	-12.0126
▁travelled	-12.0141
▁policies	-12.0145
▁strategy	-12.0145
▁prix	-12.0153
▁laundry	-12.0158
▁nicholas	-12.017
▁providing	-12.017
▁cocoa	-12.0171
▁logic	-12.018
▁narrative	-12.0183
▁enforce	-12.0183
▁clyde	-12.0196
▁organism	-12.0199
▁pont	-12.02
▁corridor	-12.0208
▁sovereign	-12.0208
▁1931	-12.021
▁honk	-12.0211
▁mercury	-12.0221
▁microsoft	-12.0221
▁simpson	-12.0221
▁whistling	-12.0246
▁hastened	-12.0248
▁dentist	-12.0259
▁requirement	-12.0262
ū	-12.0271
▁astonished	-12.0271
▁butterflies	-12.0271
▁apparent	-12.0272
▁vague	-12.0275
▁galaxy	-12.0284
▁agnes	-12.0288
▁traveller	-12.029
▁champ	-12.0295
▁electoral	-12.0296
▁footsteps	-12.0296
▁rhine	-12.0297
natural	-12.0307
▁maurice	-12.0309
▁spade	-12.0313
john	-12.0316
▁fictional	-12.0318
▁destination	-12.0322
▁landlord	-12.0322
▁regain	-12.0322
▁lizard	-12.0323
▁lynn	-12.0331
▁collie	-12.0333
▁prairie	-12.0335
▁predator	-12.0335
hawk	-12.0342
▁nathaniel	-12.0347
▁toronto	-12.0348
▁stirring	-12.035
▁idol	-12.0354
▁foul	-12.0356
\	-12.036
▁vacuum	-12.036
▁scandal	-12.0361
▁determine	-12.0372
ê	-12.0373
▁islamic	-12.0386
beep	-12.0394
▁margot	-12.0399
morph	-12.04
▁weakness	-12.0406
▁recruit	-12.0411
▁transmit	-12.0412
udge	-12.0423
▁utmost	-12.0424
▁1928	-12.0427
ratner	-12.0434
▁rumor	-12.0437
▁equation	-12.0437
▁leisure	-12.0437
▁esther	-12.044
▁brace	-12.0448
▁oswald	-12.045
▁amendment	-12.045
▁colorado	-12.045
▁marcel	-12.0451
▁portray	-12.0453
▁refrigerator	-12.0463
▁frequent	-12.0463
▁snug	-12.0471
brush	-12.0474
▁harvard	-12.0476
imitating	-12.0477
▁wallace	-12.0479
▁limp	-12.0483
ã	-12.0489
▁graphic	-12.0489
▁captive	-12.0492
▁confession	-12.051
▁fantasy	-12.0515
▁maximum	-12.0515
▁vigorous	-12.0515
50,000	-12.052
▁democracy	-12.0528
▁fuzzy	-12.0528
▁awoke	-12.0528
▁composition	-12.0528
▁junk	-12.0532
▁flutter	-12.0534
↗	-12.0541
▁invention	-12.0541
▁annabel	-12.0546
▁countenance	-12.0567
▁dusk	-12.0568
▁franco	-12.0576
▁effie	-12.058
▁injuries	-12.058
▁mammy	-12.058
▁ethel	-12.0582
▁isaac	-12.0583
▁emphasis	-12.0593
▁liverpool	-12.0619
▁tsar	-12.0623
pause	-12.0626
▁mineral	-12.063
▁embrace	-12.0632
▁[$=1	-12.0632
▁graceful	-12.0633
▁telegram	-12.0645
▁terrorist	-12.0647
▁storage	-12.0659
▁telescope	-12.0659
▁cluster	-12.0672
▁gravity	-12.0672
▁universities	-12.0672
▁detroit	-12.0672
putting	-12.0677
▁jerk	-12.0682
▁playgroup	-12.0685
▁mythology	-12.0698
script	-12.071
screaming	-12.071
▁amazement	-12.0711
▁audrey	-12.0711
▁josé	-12.0712
braunwald	-12.0725
▁knives	-12.0725
▁##	-12.0725
▁rubbed	-12.0726
▁burial	-12.073
▁shrine	-12.0738
▁franz	-12.0738
▁ambition	-12.0738
▁compare	-12.0741
▁rejoice	-12.0751
▁announcement	-12.0751
▁mwww	-12.0755
undercurrent	-12.0764
▁physician	-12.0764
▁recognition	-12.0764
▁timid	-12.0776
▁bachelor	-12.0778
▁demonstrate	-12.0778
▁vanilla	-12.078
▁galley	-12.0785
sexual	-12.0789
▁absurd	-12.0791
▁marjorie	-12.0791
▁ontario	-12.0804
▁infantry	-12.0807
▁fortnight	-12.0807
▁edmund	-12.0818
▁siege	-12.0819
▁abandon	-12.0819
▁hungary	-12.0836
ł	-12.0845
▁abbey	-12.0845
▁trifle	-12.0845
▁cadet	-12.0845
▁fluid	-12.0851
imitates	-12.0856
▁assigned	-12.0858
▁clinton	-12.0858
▁arabia	-12.0863
▁cavalry	-12.0871
▁parallel	-12.0871
▁pippin	-12.0872
▁shaft	-12.0873
▁norwegian	-12.0885
▁receipt	-12.0885
▁velvet	-12.0885
▁amazed	-12.0898
picking	-12.091
▁destiny	-12.0912
▁stockings	-12.0915
pool	-12.0922
▁mitten	-12.0927
▁operator	-12.0928
▁jung	-12.0937
▁hampshire	-12.0939
▁jeffrey	-12.0939
▁parlor	-12.094
▁ascend	-12.094
▁recess	-12.0952
▁prominent	-12.0952
▁mechanism	-12.0952
▁seesaw	-12.0956
▁harriet	-12.0966
▁henri	-12.0969
▁celebration	-12.098
▁tragedy	-12.098
▁dissolve	-12.098
▁neighbourhood	-12.098
▁erase	-12.0986
▁frock	-12.0986
▁nathalie	-12.0993
▁cradle	-12.0993
▁jasper	-12.0994
▁ammunition	-12.1007
▁retire	-12.1019
▁indulge	-12.102
▁shilling	-12.1021
▁giggle	-12.103
▁affectionate	-12.1036
▁plaster	-12.1038
▁wright	-12.1056
▁michel	-12.106
▁psycho	-12.1062
▁fiddle	-12.1064
▁producing	-12.1075
movie	-12.1077
▁ensure	-12.1083
▁extract	-12.1099
▁vein	-12.1106
shaped	-12.1109
▁stepping	-12.1111
▁gig	-12.1112
▁artificial	-12.113
▁oregon	-12.113
▁iranian	-12.1131
▁cease	-12.1131
▁neuro	-12.1139
↫	-12.1144
▁franchise	-12.1144
▁playdough	-12.1144
▁update	-12.1144
▁musket	-12.1144
▁collins	-12.1145
▁tamil	-12.1149
▁trent	-12.1153
▁acquainted	-12.1158
▁literary	-12.1158
▁rascal	-12.1158
▁qualified	-12.1172
▁elliot	-12.1172
▁reindeer	-12.1172
▁wilderness	-12.1172
feld	-12.1177
▁satisfy	-12.1186
▁renamed	-12.1186
▁denied	-12.12
▁madison	-12.1202
▁1926	-12.1203
▁ponies	-12.1214
▁murray	-12.1214
▁whine	-12.1226
▁vitamin	-12.1227
▁lyrics	-12.1227
▁teapot	-12.1231
▁toothbrush	-12.1241
▁roxy	-12.1241
▁carpenter	-12.1255
▁veteran	-12.1255
▁tobacco	-12.1255
▁disposed	-12.1255
▁eldest	-12.1255
▁finland	-12.1259
▁electro	-12.1266
▁azerbaijan	-12.1269
▁subsequent	-12.1269
▁twilight	-12.1269
▁contempt	-12.1269
▁slender	-12.1269
▁consciousness	-12.1272
▁profession	-12.1272
▁glitter	-12.1274
indeed	-12.1283
▁jerusalem	-12.1283
▁mediterranean	-12.1283
▁confront	-12.1285
▁differ	-12.1295
▁fascinating	-12.1297
▁salmon	-12.1309
▁señor	-12.1311
▁scotch	-12.1326
▁gregory	-12.1326
▁impulse	-12.1354
▁dwelling	-12.1354
▁wizard	-12.1368
▁freezing	-12.1368
▁robbed	-12.1369
▁cinderella	-12.1382
▁muhammad	-12.1382
▁programming	-12.1385
▁broadway	-12.1386
▁stitch	-12.1388
▁virtue	-12.1396
▁sleigh	-12.1396
@	-12.141
▁fabric	-12.141
▁advertising	-12.1424
▁jeep	-12.1428
▁pennies	-12.1439
▁fritz	-12.144
▁1927	-12.1442
ë	-12.1453
▁cornflakes	-12.1453
▁lemonade	-12.1453
▁virtual	-12.1467
▁watson	-12.1467
▁slack	-12.1482
▁countess	-12.1484
▁placing	-12.1498
▁jefferson	-12.151
▁condemn	-12.151
▁skating	-12.151
▁rubbing	-12.1512
▁miami	-12.1515
å	-12.1524
▁maisy	-12.1525
▁squire	-12.1525
▁colonies	-12.1526
▁pottie	-12.1527
▁creak	-12.1531
▁eternal	-12.1539
▁pedro	-12.1539
▁classification	-12.1542
▁orleans	-12.1553
▁import	-12.1555
▁duncan	-12.1555
▁criticism	-12.1556
covered	-12.1561
▁gorilla	-12.1568
▁basil	-12.1576
▁doughnut	-12.1582
▁recollect	-12.1582
▁swarm	-12.1583
▁freight	-12.1584
▁thorough	-12.1584
designated	-12.1596
▁exclusive	-12.1596
▁blunt	-12.1598
▁boast	-12.1599
▁agricultural	-12.1611
▁establishment	-12.1611
▁marvellous	-12.1611
▁darwin	-12.1613
front	-12.1614
▁bulk	-12.1614
▁humphrey	-12.1625
▁angrily	-12.1625
▁{\	-12.1626
▁revolutionary	-12.1629
▁facilities	-12.164
▁necessity	-12.164
▁ursula	-12.164
▁wharf	-12.164
▁definite	-12.1642
▁rapper	-12.1648
▁wrestle	-12.1653
▁cocoon	-12.1655
▁blush	-12.1665
▁indignant	-12.1669
▁recipe	-12.1669
▁manifest	-12.1684
▁terminal	-12.1684
▁console	-12.1685
▁spice	-12.1696
discards	-12.1697
▁wisconsin	-12.1698
▁hungarian	-12.1713
▁specifically	-12.1715
begins	-12.1727
▁traitor	-12.1727
▁punjab	-12.1727
▁trolley	-12.1742
▁streak	-12.1742
▁dimple	-12.1744
▁picardie	-12.1757
▁deceive	-12.1757
▁brute	-12.1764
▁ritual	-12.1772
▁swimmer	-12.1775
bourne	-12.1777
▁diagnosed	-12.1786
▁inspection	-12.1786
▁merrily	-12.1787
▁nathan	-12.1788
▁bengal	-12.179
dynamite	-12.1801
▁rubbish	-12.1801
▁theodore	-12.1801
▁neutral	-12.1816
▁clapping	-12.1818
▁2024	-12.1819
▁houston	-12.1831
▁loaf	-12.1831
▁brigade	-12.1831
▁prompt	-12.1834
▁circum	-12.1845
▁industries	-12.1845
▁yoghurt	-12.1845
▁baltimore	-12.186
▁miguel	-12.186
▁revenue	-12.1875
▁venezuela	-12.189
engine	-12.1891
▁opportunities	-12.192
▁frantic	-12.192
▁amusing	-12.1922
▁screech	-12.1935
▁scholarship	-12.1936
▁madrid	-12.1936
▁yonder	-12.1938
▁luggage	-12.195
▁mortgage	-12.195
▁therapy	-12.1951
▁laboratory	-12.1965
nonspeech	-12.1965
▁inventor	-12.1967
▁slipping	-12.1969
▁believing	-12.198
▁hebrew	-12.198
▁apollo	-12.1995
sneezes	-12.2001
sniffs	-12.2001
▁pineapple	-12.201
▁beetle	-12.2016
▁belgian	-12.2025
▁quantity	-12.204
▁racket	-12.204
▁spectacle	-12.204
▁minimum	-12.204
▁champagne	-12.204
control	-12.2052
▁afghanistan	-12.2055
▁facility	-12.2055
▁bouncing	-12.2055
▁concrete	-12.2055
▁luxury	-12.207
▁yankee	-12.207
▁rebellion	-12.207
gunshot	-12.2082
▁compelled	-12.2085
▁stirred	-12.2088
▁macdonald	-12.2101
▁shrub	-12.2101
▁holmes	-12.2101
$	-12.2364
č	-12.252
#	-12.3075
î	-12.3467
♫	-12.359
ß	-12.3913
ă	-12.471
ş	-12.497
§	-12.5362
¶	-12.5411
ï	-12.5533
⁄	-12.5597
œ	-12.5727
ı	-12.6763
ì	-12.7184
	-12.7234
ī	-12.7311
{	-12.7373
×	-12.7466
ž	-12.7729
¡	-12.8919
¿	-12.9349
©	-12.9733
·	-12.9766
ý	-13.0235
ð	-13.0513
ș	-13.0691
ń	-13.1131
€	-13.179
‘	-13.1967
ò	-13.1993
−	-13.1993
^	-13.2583
ś	-13.3255
	-13.3443
¤	-13.3977
′	-13.4332
∆	-13.4489
ř	-13.5028
þ	-13.5083
∙	-13.5366
⌈	-13.5466
đ	-13.5539
û	-13.5716
£	-13.683
­	-13.6845
ğ	-13.6845
ː	-13.6845
ˈ	-13.6912
õ	-13.6979
ù	-13.7252
ě	-13.7252
⁎	-13.7604
ē	-13.8348
ə	-13.8348
―	-13.9069
	-13.9069
ț	-13.9321
ż	-13.9845
ő	-14.0398
İ	-14.0493
ę	-14.1084
¢	-14.1187
ą	-14.1394
±	-14.1713
ţ	-14.2043
ć	-14.2469
ʻ	-14.2737
ʼ	-14.3877
„	-14.3877
‡	-14.4149
η	-14.4288
ṯ	-14.4288
ṭ	-14.4717
ả	-14.4717
ḥ	-14.4864
ệ	-14.5013
ɪ	-14.5959
ー	-14.5959
ɛ	-14.6125
÷	-14.6295
	-14.6643
ė	-14.6643
ź	-14.6821
ư	-14.6821
®	-14.7188
>	-14.7377
ĕ	-14.7965
»	-14.859
†	-14.859
ʿ	-14.8808
«	-14.9257
ṉ	-14.9257
ṣ	-14.9257
ɑ	-14.9257
ň	-14.9728
ọ	-14.9972
ÿ	-15.0222
ů	-15.0222
¦	-15.0222
	-15.1012
ǎ	-15.1012
་	-15.1289
ŋ	-15.1869
¬	-15.1869
॥	-15.2172
ɔ	-15.2485
▔	-15.2485
ʊ	-15.2807
←	-15.2807
ạ	-15.3141
	-15.3486
ʾ	-15.3843
ế	-15.4213
ũ	-15.4213
¥	-15.4598
∇	-15.4998
ṇ	-15.4998
・	-15.4998
ứ	-15.5414
♭	-15.5849
ŭ	-15.6304
ʃ	-15.6304
⟩	-15.6304
ŵ	-15.678
ộ	-15.678
	-15.678
ơ	-15.728
ố	-15.728
‐	-15.728
ʒ	-15.7806
।	-15.7806
ṃ	-15.7806
ν	-15.7806
ˌ	-15.8362
∞	-15.895
₹	-15.9575
ġ	-15.9575
█	-15.9575
○	-15.9575
ŏ	-16.0242
ề	-16.0242
ị	-16.0242
ε	-16.0242
٤	-16.0242
	-16.0956
<	-16.0956
ƒ	-16.0956
‚	-16.0956
١	-16.1725
ĭ	-16.1725
ǫ	-16.1725
ʔ	-16.1725
ο	-16.1725
؟	-16.1725
ḍ	-16.1725
∴	-16.1725
ŷ	-16.2558
ʌ	-16.2558
į	-16.2558
ľ	-16.2558
ť	-16.2558
ǔ	-16.2558
	-16.3467
	-16.3467
ɐ	-16.3468
ɡ	-16.3468
ɣ	-16.3468
↑	-16.3468
ɾ	-16.4468
٥	-16.4468
₤	-16.4468
≤	-16.4468
٧	-16.5579
ʁ	-16.5579
ĩ	-16.5579
٢	-16.5579
٨	-16.5579
ẓ	-16.5579
ɫ	-16.5579
♯	-16.5579
	-16.6828
	-16.6828
	-16.6829
	-16.6829
ď	-16.6829
ĝ	-16.6829
ļ	-16.6829
ḻ	-16.6829
ớ	-16.6829
≥	-16.6829
√	-16.6829
☆	-16.6829
⬄	-16.6829
ɦ	-16.8257
٦	-16.8257
१	-16.8257
	-16.8257
ĥ	-16.8257
ǐ	-16.8257
ɒ	-16.8257
ˆ	-16.8257
ẻ	-16.8257
ụ	-16.8257
ữ	-16.8257
⁂	-16.8257
ʋ	-16.8257
ǁ	-16.8257
	-16.9924
ű	-16.9924
ỹ	-16.9924
⁠	-16.9924
☺	-16.9924
	-16.9924
ĉ	-16.9924
ħ	-16.9924
ŝ	-16.9924
ǝ	-16.9924
ɕ	-16.9924
ủ	-16.9924
★	-16.9924
✡	-16.9924
ǒ	-16.9924
	-17.1924
ɲ	-17.1924
ḷ	-17.1924
≈	-17.1924
⋅	-17.1924
	-17.1924
ɯ	-17.1924
ɹ	-17.1924
ʏ	-17.1924
٩	-17.1924
ṓ	-17.1924
ậ	-17.1924
ắ	-17.1924
∘	-17.1924
ẹ	-17.1924
	-17.4424
	-17.4424
ɨ	-17.4424
ṅ	-17.4424
ỳ	-17.4424
ĵ	-17.4424
ǂ	-17.4424
ǚ	-17.4424
ɩ	-17.4424
˧	-17.4424
ầ	-17.4424
ổ	-17.4424
‖	-17.4424
※	-17.4424
₱	-17.4424
₵	-17.4424
≠	-17.4424
●	-17.4424
♥	-17.4424
、	-17.4424
ḫ	-17.4424
ẽ	-17.4424
ව	-17.4424
ʕ	-17.7757
ấ	-17.7757
ỉ	-17.7757
ƌ	-17.7757
ȝ	-17.7757
ɘ	-17.7757
ʇ	-17.7757
ˊ	-17.7757
ˋ	-17.7757
״	-17.7757
ṛ	-17.7757
ằ	-17.7757
‬	-17.7757
‰	-17.7757
∂	-17.7757
∈	-17.7757
∗	-17.7757
∝	-17.7757
≡	-17.7757
「	-17.7757
」	-17.7757
ử	-17.7757
ɜ	-17.7757
⌊	-18.2742
✿	-18.2742
	-18.2757
ɳ	-18.2757
ʹ	-18.2757
ƿ	-18.2757
ǧ	-18.2757
ɂ	-18.2757
ʂ	-18.2757
ʈ	-18.2757
ˇ	-18.2757
а	-18.2757
б	-18.2757
३	-18.2757
४	-18.2757
५	-18.2757
ය	-18.2757
ා	-18.2757
ේ	-18.2757
၁	-18.2757
ḿ	-18.2757
ṙ	-18.2757
ể	-18.2757
ở	-18.2757
ự	-18.2757
◉	-18.2757
☃	-18.2757
☻	-18.2757
✅	-18.2757
✙	-18.2757
❌	-18.2757
ꜧ	-18.2757
ꞯ	-18.2757
ǣ	-18.2757
с	-18.2757
ṁ	-18.2757
〜	-18.2757
ʎ	-18.2757
ẏ	-18.2757
⊙	-18.2757
ʐ	-18.2757
	-18.2758
ǩ	-19.2736
ŧ	-19.2737
ǵ	-19.2738
‍	-19.2739
ـ	-19.274
τ	-19.2741
ʘ	-19.2742
₩	-19.2743
υ	-19.2744
།	-19.2745
ј	-19.2746
ķ	-19.2747
ņ	-19.2748
⟨	-19.2749
α	-19.275
ễ	-19.2751
ờ	-19.2752
ẩ	-19.2753
‭	-19.2754
ồ	-19.2755
̶	-19.2756
	-19.2756
ṟ	-19.2757
ɖ	-19.2757
ු	-19.2757
ǃ	-19.2757
ɸ	-19.2757
ḗ	-19.2757
☛	-19.2757
ģ	-19.2757
ĺ	-19.2757
ŕ	-19.2757
ų	-19.2757
ƅ	-19.2757
ǹ	-19.2757
ȁ	-19.2757
ȃ	-19.2757
ɗ	-19.2757
ɝ	-19.2757
ɟ	-19.2757
ɥ	-19.2757
ɮ	-19.2757
ɶ	-19.2757
ɷ	-19.2757
ʙ	-19.2757
ʝ	-19.2757
ʟ	-19.2757
ʧ	-19.2757
ʽ	-19.2757
˥	-19.2757
˦	-19.2757
˩	-19.2757
̈	-19.2757
к	-19.2757
м	-19.2757
о	-19.2757
у	-19.2757
ш	-19.2757
я	-19.2757
־	-19.2757
۰	-19.2757
०	-19.2757
६	-19.2757
७	-19.2757
८	-19.2757
९	-19.2757
ආ	-19.2757
ජ	-19.2757
බ	-19.2757
ෝ	-19.2757
၀	-19.2757
၃	-19.2757
၄	-19.2757
၅	-19.2757
၆	-19.2757
၇	-19.2757
၈	-19.2757
၉	-19.2757
᚛	-19.2757
᚜	-19.2757
៨	-19.2757
៩	-19.2757
ḋ	-19.2757
ḏ	-19.2757
ḩ	-19.2757
ḱ	-19.2757
ḵ	-19.2757
ṗ	-19.2757
ṫ	-19.2757
ṳ	-19.2757
ṹ	-19.2757
ẵ	-19.2757
ặ	-19.2757
ỏ	-19.2757
ỗ	-19.2757
ợ	-19.2757
‿	-19.2757
⁣	-19.2757
₣	-19.2757
₿	-19.2757
↊	-19.2757
↋	-19.2757
∉	-19.2757
≒	-19.2757
▼	-19.2757
☉	-19.2757
☚	-19.2757
☣	-19.2757
☭	-19.2757
☯	-19.2757
♄	-19.2757
♑	-19.2757
♒	-19.2757
♠	-19.2757
♡	-19.2757
♮	-19.2757
❤	-19.2757
⬱	-19.2757
ⱡ	-19.2757
。	-19.2757
〉	-19.2757
β	-19.2757
й	-19.2757
۞	-19.2757
ḡ	-19.2757
✚	-19.2757
ɺ	-19.2757
ʑ	-19.2757
ˀ	-19.2757
∼	-19.2757
☐	-19.2757
០	-19.2757
១	-19.2757
២	-19.2757
៧	-19.2757
́	-19.2758
៣	-19.2758
៤	-19.2758
៥	-19.2758
៦	-19.2758
