<unk>	0
<s>	0
</s>	0
<pad>	0
<0x00>	0
<0x01>	0
<0x02>	0
<0x03>	0
<0x04>	0
<0x05>	0
<0x06>	0
<0x07>	0
<0x08>	0
<0x09>	0
<0x0A>	0
<0x0B>	0
<0x0C>	0
<0x0D>	0
<0x0E>	0
<0x0F>	0
<0x10>	0
<0x11>	0
<0x12>	0
<0x13>	0
<0x14>	0
<0x15>	0
<0x16>	0
<0x17>	0
<0x18>	0
<0x19>	0
<0x1A>	0
<0x1B>	0
<0x1C>	0
<0x1D>	0
<0x1E>	0
<0x1F>	0
<0x20>	0
<0x21>	0
<0x22>	0
<0x23>	0
<0x24>	0
<0x25>	0
<0x26>	0
<0x27>	0
<0x28>	0
<0x29>	0
<0x2A>	0
<0x2B>	0
<0x2C>	0
<0x2D>	0
<0x2E>	0
<0x2F>	0
<0x30>	0
<0x31>	0
<0x32>	0
<0x33>	0
<0x34>	0
<0x35>	0
<0x36>	0
<0x37>	0
<0x38>	0
<0x39>	0
<0x3A>	0
<0x3B>	0
<0x3C>	0
<0x3D>	0
<0x3E>	0
<0x3F>	0
<0x40>	0
<0x41>	0
<0x42>	0
<0x43>	0
<0x44>	0
<0x45>	0
<0x46>	0
<0x47>	0
<0x48>	0
<0x49>	0
<0x4A>	0
<0x4B>	0
<0x4C>	0
<0x4D>	0
<0x4E>	0
<0x4F>	0
<0x50>	0
<0x51>	0
<0x52>	0
<0x53>	0
<0x54>	0
<0x55>	0
<0x56>	0
<0x57>	0
<0x58>	0
<0x59>	0
<0x5A>	0
<0x5B>	0
<0x5C>	0
<0x5D>	0
<0x5E>	0
<0x5F>	0
<0x60>	0
<0x61>	0
<0x62>	0
<0x63>	0
<0x64>	0
<0x65>	0
<0x66>	0
<0x67>	0
<0x68>	0
<0x69>	0
<0x6A>	0
<0x6B>	0
<0x6C>	0
<0x6D>	0
<0x6E>	0
<0x6F>	0
<0x70>	0
<0x71>	0
<0x72>	0
<0x73>	0
<0x74>	0
<0x75>	0
<0x76>	0
<0x77>	0
<0x78>	0
<0x79>	0
<0x7A>	0
<0x7B>	0
<0x7C>	0
<0x7D>	0
<0x7E>	0
<0x7F>	0
<0x80>	0
<0x81>	0
<0x82>	0
<0x83>	0
<0x84>	0
<0x85>	0
<0x86>	0
<0x87>	0
<0x88>	0
<0x89>	0
<0x8A>	0
<0x8B>	0
<0x8C>	0
<0x8D>	0
<0x8E>	0
<0x8F>	0
<0x90>	0
<0x91>	0
<0x92>	0
<0x93>	0
<0x94>	0
<0x95>	0
<0x96>	0
<0x97>	0
<0x98>	0
<0x99>	0
<0x9A>	0
<0x9B>	0
<0x9C>	0
<0x9D>	0
<0x9E>	0
<0x9F>	0
<0xA0>	0
<0xA1>	0
<0xA2>	0
<0xA3>	0
<0xA4>	0
<0xA5>	0
<0xA6>	0
<0xA7>	0
<0xA8>	0
<0xA9>	0
<0xAA>	0
<0xAB>	0
<0xAC>	0
<0xAD>	0
<0xAE>	0
<0xAF>	0
<0xB0>	0
<0xB1>	0
<0xB2>	0
<0xB3>	0
<0xB4>	0
<0xB5>	0
<0xB6>	0
<0xB7>	0
<0xB8>	0
<0xB9>	0
<0xBA>	0
<0xBB>	0
<0xBC>	0
<0xBD>	0
<0xBE>	0
<0xBF>	0
<0xC0>	0
<0xC1>	0
<0xC2>	0
<0xC3>	0
<0xC4>	0
<0xC5>	0
<0xC6>	0
<0xC7>	0
<0xC8>	0
<0xC9>	0
<0xCA>	0
<0xCB>	0
<0xCC>	0
<0xCD>	0
<0xCE>	0
<0xCF>	0
<0xD0>	0
<0xD1>	0
<0xD2>	0
<0xD3>	0
<0xD4>	0
<0xD5>	0
<0xD6>	0
<0xD7>	0
<0xD8>	0
<0xD9>	0
<0xDA>	0
<0xDB>	0
<0xDC>	0
<0xDD>	0
<0xDE>	0
<0xDF>	0
<0xE0>	0
<0xE1>	0
<0xE2>	0
<0xE3>	0
<0xE4>	0
<0xE5>	0
<0xE6>	0
<0xE7>	0
<0xE8>	0
<0xE9>	0
<0xEA>	0
<0xEB>	0
<0xEC>	0
<0xED>	0
<0xEE>	0
<0xEF>	0
<0xF0>	0
<0xF1>	0
<0xF2>	0
<0xF3>	0
<0xF4>	0
<0xF5>	0
<0xF6>	0
<0xF7>	0
<0xF8>	0
<0xF9>	0
<0xFA>	0
<0xFB>	0
<0xFC>	0
<0xFD>	0
<0xFE>	0
<0xFF>	0
.	-3.12399
s	-3.1921
:	-3.59878
▁*	-3.65663
,	-3.73102
▁the	-3.82337
t	-3.90741
'	-4.06414
▁a	-4.14012
mot	-4.44299
▁to	-4.45274
▁i	-4.4832
▁you	-4.48626
n	-4.49552
▁and	-4.52687
?	-4.56808
d	-4.57686
chi	-4.59879
▁	-4.62029
ing	-4.77333
ed	-4.77966
m	-4.79212
▁it	-4.79241
y	-4.80017
▁of	-4.80714
▁in	-4.83145
a	-5.0002
▁that	-5.00903
e	-5.03247
i	-5.17104
g	-5.21787
r	-5.22003
▁he	-5.25465
re	-5.32707
▁is	-5.35588
c	-5.35772
u	-5.3938
p	-5.41774
er	-5.43648
▁was	-5.45199
ll	-5.48517
▁be	-5.53535
▁=	-5.53835
▁for	-5.54408
o	-5.55604
▁on	-5.62883
▁we	-5.63583
▁[	-5.63691
▁what	-5.65719
le	-5.65969
in	-5.71907
▁do	-5.72902
▁me	-5.73716
ly	-5.75478
▁"	-5.80342
al	-5.81923
▁s	-5.83108
!	-5.84671
b	-5.8502
▁no	-5.8614
▁this	-5.88992
]	-5.89018
l	-5.89182
k	-5.89464
f	-5.90128
w	-5.90537
▁so	-5.94976
▁with	-5.95526
▁have	-5.97734
ve	-5.98003
▁there	-6.05182
▁she	-6.05682
ar	-6.06199
or	-6.06352
-	-6.07349
▁not	-6.07368
▁re	-6.07381
▁can	-6.08509
h	-6.10535
▁they	-6.10581
▁b	-6.11967
▁-	-6.12733
▁are	-6.12904
ck	-6.13601
ch	-6.14785
v	-6.15554
▁at	-6.15579
▁but	-6.15674
▁go	-6.15891
▁one	-6.16888
ri	-6.17174
▁c	-6.17316
▁as	-6.21118
▁his	-6.22429
th	-6.2653
▁de	-6.27512
▁e	-6.2817
an	-6.28637
on	-6.28758
▁know	-6.30379
▁all	-6.30553
▁up	-6.32762
▁oh	-6.32939
ne	-6.33062
▁yeah	-6.33941
ur	-6.35156
li	-6.36247
...	-6.37223
▁my	-6.37571
▁her	-6.38478
ter	-6.39491
en	-6.40277
▁don	-6.40356
se	-6.41832
▁your	-6.42337
▁like	-6.42823
▁had	-6.4472
ra	-6.4553
▁p	-6.46647
ent	-6.47631
ce	-6.48983
▁pa	-6.49218
te	-6.4927
▁see	-6.50226
inv	-6.516
il	-6.52283
ng	-6.5408
▁look	-6.55454
▁out	-6.56939
la	-6.56998
▁f	-6.57051
ro	-6.57268
▁from	-6.57984
▁an	-6.58073
▁or	-6.58442
es	-6.59416
it	-6.60048
ir	-6.60928
▁just	-6.63642
▁by	-6.64257
ad	-6.652
▁here	-6.65551
▁who	-6.65995
▁get	-6.66137
1	-6.66311
at	-6.66792
ge	-6.68364
ic	-6.68878
▁him	-6.69173
▁ma	-6.6979
▁t	-6.70142
z	-6.72452
▁co	-6.72557
▁right	-6.7302
▁if	-6.73274
lo	-6.73574
▁were	-6.75274
▁now	-6.76206
▁about	-6.78426
▁when	-6.78545
▁well	-6.78633
el	-6.79282
▁some	-6.79338
▁g	-6.79834
▁po	-6.79928
▁got	-6.80017
▁mo	-6.80203
▁think	-6.81764
▁bo	-6.82208
"	-6.82576
▁la	-6.83181
▁want	-6.83236
is	-6.83377
▁said	-6.8371
ke	-6.84159
de	-6.84338
▁ho	-6.85312
ma	-6.85458
▁o	-6.85598
ry	-6.86395
▁come	-6.87002
me	-6.87735
▁ba	-6.88253
▁did	-6.89064
▁k	-6.89691
▁would	-6.89753
▁ca	-6.90232
mp	-6.90981
ow	-6.91471
)	-6.9158
▁ha	-6.9206
ion	-6.92188
▁where	-6.92346
▁ro	-6.92577
fat	-6.9293
▁mi	-6.93238
▁will	-6.93675
▁(	-6.93933
pe	-6.95162
▁them	-6.954
un	-6.9634
co	-6.96529
et	-6.96542
▁then	-6.97303
▁yes	-6.98233
▁ra	-6.98517
x	-6.98998
▁le	-6.99262
▁con	-6.99555
ta	-6.99904
▁how	-6.99967
sh	-7.00907
0	-7.01114
ation	-7.01137
▁say	-7.01537
2	-7.01721
▁good	-7.01835
;	-7.02594
as	-7.03254
▁“	-7.05538
ie	-7.05797
▁sp	-7.05943
ver	-7.06384
▁time	-7.06464
▁su	-7.07512
▁put	-7.07943
us	-7.08195
”	-7.0849
▁back	-7.08768
ight	-7.09433
].	-7.10313
’	-7.10419
▁down	-7.105
no	-7.11404
▁fa	-7.12022
▁lo	-7.12255
▁okay	-7.13169
▁let	-7.14472
▁fe	-7.14824
▁little	-7.15338
▁has	-7.16165
▁da	-7.16816
."	-7.17158
▁pro	-7.17628
pp	-7.18002
▁over	-7.18434
▁been	-7.18993
na	-7.19033
▁very	-7.20063
▁more	-7.20247
▁dr	-7.20378
▁xxx	-7.20435
vi	-7.20521
▁could	-7.21752
ol	-7.22404
▁going	-7.22509
▁which	-7.22533
ul	-7.22957
5	-7.23242
▁li	-7.23252
▁two	-7.23561
▁take	-7.2371
▁bu	-7.24047
▁any	-7.25709
▁sa	-7.26313
▁man	-7.27078
ru	-7.27109
▁car	-7.27168
les	-7.27398
▁other	-7.28678
▁off	-7.2899
▁play	-7.30118
▁w	-7.30236
▁make	-7.30588
▁di	-7.30936
▁se	-7.31494
▁19	-7.32921
tion	-7.33483
4	-7.34798
am	-7.34861
ive	-7.34962
id	-7.35289
ci	-7.36289
▁their	-7.36736
7	-7.36861
ers	-7.37576
6	-7.37863
▁st	-7.38949
ca	-7.38967
j	-7.3934
ff	-7.40247
▁sh	-7.40501
▁1	-7.40513
9	-7.40585
ok	-7.40746
,"	-7.41373
8	-7.41911
▁uh	-7.42184
▁pu	-7.42279
3	-7.42282
ate	-7.42664
par	-7.42691
▁ex	-7.42761
per	-7.42886
▁20	-7.42958
▁why	-7.43189
▁ru	-7.43233
to	-7.43353
ty	-7.44397
▁mar	-7.45239
age	-7.45285
▁after	-7.45381
ant	-7.45409
op	-7.4571
▁us	-7.46161
▁si	-7.46238
end	-7.4638
ance	-7.46706
▁ri	-7.4721
▁un	-7.47343
ment	-7.47496
▁'	-7.4788
▁hu	-7.48166
ard	-7.4892
▁dis	-7.49855
▁fi	-7.49895
▁pe	-7.50188
mo	-7.50451
and	-7.50494
▁into	-7.50581
ha	-7.51025
▁too	-7.51704
▁tell	-7.51704
▁people	-7.52314
ld	-7.52815
▁cr	-7.52866
--	-7.52922
_	-7.53377
▁ga	-7.53677
est	-7.54296
▁way	-7.54651
one	-7.5489
ies	-7.55023
▁ki	-7.55128
ted	-7.5515
ine	-7.55226
▁because	-7.55276
he	-7.56188
ho	-7.56596
▁ta	-7.57164
po	-7.58068
▁mean	-7.58417
▁work	-7.58663
▁mr	-7.58839
▁th	-7.58926
▁jo	-7.5894
ure	-7.59096
▁first	-7.59437
ist	-7.60169
▁day	-7.60301
nk	-7.61396
ish	-7.61857
ian	-7.62106
▁gonna	-7.62204
▁give	-7.62692
▁hi	-7.63033
der	-7.63694
man	-7.63694
oo	-7.63922
▁our	-7.64155
day	-7.65438
▁only	-7.66046
▁sta	-7.66526
▁ti	-7.67051
▁need	-7.67103
ster	-7.67125
ph	-7.67616
▁sc	-7.68085
▁part	-7.68207
ence	-7.68274
bo	-7.68486
▁hand	-7.68489
▁col	-7.68896
▁these	-7.69003
land	-7.6945
▁gu	-7.6949
the	-7.70132
mb	-7.70476
ia	-7.70981
▁should	-7.71236
ther	-7.72203
▁big	-7.72666
▁something	-7.73306
▁again	-7.7335
▁new	-7.74741
ful	-7.74995
▁really	-7.7555
▁ju	-7.75622
ni	-7.76988
able	-7.77197
▁pre	-7.7732
▁tra	-7.77337
um	-7.78023
▁boy	-7.78314
▁didn	-7.78321
▁mu	-7.7867
▁hear	-7.78865
▁vi	-7.79223
▁er	-7.79866
exp	-7.80603
▁te	-7.8064
▁al	-7.80945
▁much	-7.8111
▁pi	-7.8245
▁even	-7.82617
▁na	-7.82669
ice	-7.83056
▁wi	-7.8306
▁came	-7.83198
▁name	-7.83398
ten	-7.83457
▁made	-7.84115
▁2	-7.85697
im	-7.85848
▁du	-7.85889
ous	-7.86478
▁before	-7.86834
▁year	-7.87014
for	-7.87589
▁than	-7.87884
▁ne	-7.88093
▁long	-7.882
▁does	-7.88506
▁home	-7.89276
▁thank	-7.8953
▁three	-7.89562
ze	-7.89839
▁house	-7.90643
▁talk	-7.90797
▁girl	-7.91262
ity	-7.91637
/	-7.91731
▁great	-7.92046
▁ar	-7.92675
▁cha	-7.92873
▁love	-7.92902
▁old	-7.93056
go	-7.93625
we	-7.93811
be	-7.94255
▁count	-7.94292
▁never	-7.94701
▁away	-7.94764
ba	-7.94872
bb	-7.953
▁comp	-7.95729
▁went	-7.95946
▁another	-7.9606
▁fl	-7.96296
tic	-7.96845
▁turn	-7.97053
▁gra	-7.97527
▁um	-7.97867
ward	-7.97908
son	-7.97959
▁those	-7.98044
▁read	-7.98655
▁che	-7.98694
▁wa	-7.98798
cu	-7.99203
ton	-7.99417
▁thought	-7.99753
▁help	-7.99754
und	-7.99854
▁wanna	-8.00069
▁also	-8.00091
▁won	-8.00919
▁eat	-8.01775
▁head	-8.02075
ated	-8.03173
▁still	-8.03191
low	-8.0321
▁comm	-8.03594
ake	-8.04037
▁through	-8.04068
▁must	-8.04394
?"	-8.04565
▁doing	-8.04668
▁thing	-8.05462
port	-8.0562
▁place	-8.0568
lu	-8.06471
▁find	-8.07168
▁many	-8.07707
▁book	-8.08071
▁may	-8.0815
add	-8.0846
▁things	-8.08635
▁show	-8.08802
▁mm	-8.08819
▁last	-8.08923
laugh	-8.09036
▁sit	-8.0955
▁tea	-8.09644
▁start	-8.09973
▁found	-8.10315
▁bit	-8.10482
▁stu	-8.10564
▁ye	-8.1075
▁ear	-8.11576
▁fr	-8.12409
00	-8.1257
▁night	-8.12613
▁happen	-8.12972
if	-8.1317
▁baby	-8.13174
▁va	-8.133
▁sha	-8.13549
ber	-8.13914
▁open	-8.13956
▁per	-8.14727
pa	-8.16087
▁please	-8.16124
▁lot	-8.16714
▁every	-8.16948
▁miss	-8.17115
che	-8.1763
▁nice	-8.19361
▁ni	-8.19917
ries	-8.19977
▁called	-8.20109
gra	-8.20172
▁under	-8.20328
▁sure	-8.2034
▁friend	-8.2042
▁wait	-8.20425
▁done	-8.20995
hi	-8.21173
▁end	-8.21178
▁better	-8.21522
▁tri	-8.21563
▁try	-8.21816
▁ste	-8.21827
▁%	-8.21829
▁might	-8.21917
▁sw	-8.22571
▁mother	-8.22938
▁water	-8.22974
▁care	-8.23493
▁wh	-8.23998
▁most	-8.2417
▁war	-8.24315
▁lu	-8.24418
▁eye	-8.24715
ious	-8.2521
▁school	-8.26006
▁around	-8.26009
▁keep	-8.26228
▁life	-8.26235
ever	-8.26466
▁sea	-8.26915
▁win	-8.26997
ctor	-8.27348
ey	-8.27436
▁ja	-8.27479
▁str	-8.28535
▁stop	-8.28701
▁erm	-8.2891
▁kind	-8.2897
▁live	-8.29016
▁anything	-8.29382
▁je	-8.29456
▁bri	-8.29806
▁watch	-8.30075
oh	-8.30734
que	-8.30771
▁sec	-8.31461
▁four	-8.31743
ary	-8.32044
▁doesn	-8.32934
▁state	-8.33053
our	-8.33445
▁while	-8.33582
▁cla	-8.34429
▁mhm	-8.34537
ness	-8.34982
ical	-8.3538
▁next	-8.35507
▁far	-8.36061
▁room	-8.36213
|	-8.64638
–	-8.78573
—	-8.96992
é	-8.98806
+	-9.11996
#	-9.36088
á	-9.53461
q	-9.69482
‘	-9.74498
í	-9.85851
⌈	-9.9147
⌉	-9.9147
&	-10.0117
%	-10.0681
=	-10.1682
→	-10.3231
ö	-10.3952
[	-10.4238
⌋	-10.4333
`	-10.6735
ü	-10.7242
(	-10.741
ó	-10.7505
~	-10.7775
ä	-10.8053
ā	-10.9571
è	-10.9904
ú	-11.0606
}	-11.2613
š	-11.3067
ù	-11.3067
ç	-11.3543
{	-11.4043
à	-11.4043
ô	-11.457
*	-11.5031
â	-11.5713
ø	-11.5713
♪	-11.6244
å	-11.6338
°	-11.7005
æ	-11.7005
ō	-11.8489
\	-11.9322
─	-11.9322
£	-12.0231
ì	-12.0231
↗	-12.0231
“	-12.1137
↫	-12.1231
ł	-12.1231
ã	-12.2342
č	-12.3592
ū	-12.3592
@	-12.5021
¿	-12.5021
ò	-12.5021
ß	-12.5021
ē	-12.5021
ś	-12.6687
ž	-12.6687
′	-12.6687
♫	-12.6687
ș	-12.6687
×	-12.8687
ş	-12.8687
î	-12.8687
ï	-12.8687
ı	-12.8687
ê	-13.1187
⁎	-13.1187
ë	-13.1187
œ	-13.1187
ī	-13.4521
∞	-13.4521
✿	-13.4521
∙	-13.4521
ð	-13.4521
‐	-13.9521
^	-13.9521
	-13.9521
ě	-13.9521
ń	-13.9521
ņ	-13.9521
ố	-13.9521
ồ	-13.9521
▔	-13.9521
ą	-14.9504
ă	-14.9505
¡	-14.9506
	-14.9507
	-14.9508
đ	-14.9509
§	-14.951
•	-14.9511
ř	-14.9512
⁄	-14.9513
་	-14.9514
́	-14.9515
―	-14.9516
ñ	-14.9517
ć	-14.9518
¶	-14.9519
⌊	-14.952
й	-14.9521
>	-14.9521
	-14.9521
©	-14.9521
·	-14.9521
þ	-14.9521
ĕ	-14.9521
ġ	-14.9521
ĭ	-14.9521
ő	-14.9521
ũ	-14.9521
ź	-14.9521
ż	-14.9521
ư	-14.9521
ǎ	-14.9521
ǫ	-14.9521
ɑ	-14.9521
ɪ	-14.9521
ʊ	-14.9521
ː	-14.9521
̶	-14.9521
η	-14.9521
ν	-14.9521
ј	-14.9521
॥	-14.9521
ṉ	-14.9521
ṛ	-14.9521
ṣ	-14.9521
ṯ	-14.9521
ả	-14.9521
ắ	-14.9521
ề	-14.9521
ệ	-14.9521
ọ	-14.9521
ớ	-14.9521
ờ	-14.9521
‡	-14.9521
‰	-14.9521
€	-14.9521
<	-14.9521
ý	-14.9521
İ	-14.9521
ʃ	-14.9521
$	-14.9521
ʾ	-14.9521
ṭ	-14.9521
