<unk>	0
<s>	0
</s>	0
<pad>	0
<0x00>	0
<0x01>	0
<0x02>	0
<0x03>	0
<0x04>	0
<0x05>	0
<0x06>	0
<0x07>	0
<0x08>	0
<0x09>	0
<0x0A>	0
<0x0B>	0
<0x0C>	0
<0x0D>	0
<0x0E>	0
<0x0F>	0
<0x10>	0
<0x11>	0
<0x12>	0
<0x13>	0
<0x14>	0
<0x15>	0
<0x16>	0
<0x17>	0
<0x18>	0
<0x19>	0
<0x1A>	0
<0x1B>	0
<0x1C>	0
<0x1D>	0
<0x1E>	0
<0x1F>	0
<0x20>	0
<0x21>	0
<0x22>	0
<0x23>	0
<0x24>	0
<0x25>	0
<0x26>	0
<0x27>	0
<0x28>	0
<0x29>	0
<0x2A>	0
<0x2B>	0
<0x2C>	0
<0x2D>	0
<0x2E>	0
<0x2F>	0
<0x30>	0
<0x31>	0
<0x32>	0
<0x33>	0
<0x34>	0
<0x35>	0
<0x36>	0
<0x37>	0
<0x38>	0
<0x39>	0
<0x3A>	0
<0x3B>	0
<0x3C>	0
<0x3D>	0
<0x3E>	0
<0x3F>	0
<0x40>	0
<0x41>	0
<0x42>	0
<0x43>	0
<0x44>	0
<0x45>	0
<0x46>	0
<0x47>	0
<0x48>	0
<0x49>	0
<0x4A>	0
<0x4B>	0
<0x4C>	0
<0x4D>	0
<0x4E>	0
<0x4F>	0
<0x50>	0
<0x51>	0
<0x52>	0
<0x53>	0
<0x54>	0
<0x55>	0
<0x56>	0
<0x57>	0
<0x58>	0
<0x59>	0
<0x5A>	0
<0x5B>	0
<0x5C>	0
<0x5D>	0
<0x5E>	0
<0x5F>	0
<0x60>	0
<0x61>	0
<0x62>	0
<0x63>	0
<0x64>	0
<0x65>	0
<0x66>	0
<0x67>	0
<0x68>	0
<0x69>	0
<0x6A>	0
<0x6B>	0
<0x6C>	0
<0x6D>	0
<0x6E>	0
<0x6F>	0
<0x70>	0
<0x71>	0
<0x72>	0
<0x73>	0
<0x74>	0
<0x75>	0
<0x76>	0
<0x77>	0
<0x78>	0
<0x79>	0
<0x7A>	0
<0x7B>	0
<0x7C>	0
<0x7D>	0
<0x7E>	0
<0x7F>	0
<0x80>	0
<0x81>	0
<0x82>	0
<0x83>	0
<0x84>	0
<0x85>	0
<0x86>	0
<0x87>	0
<0x88>	0
<0x89>	0
<0x8A>	0
<0x8B>	0
<0x8C>	0
<0x8D>	0
<0x8E>	0
<0x8F>	0
<0x90>	0
<0x91>	0
<0x92>	0
<0x93>	0
<0x94>	0
<0x95>	0
<0x96>	0
<0x97>	0
<0x98>	0
<0x99>	0
<0x9A>	0
<0x9B>	0
<0x9C>	0
<0x9D>	0
<0x9E>	0
<0x9F>	0
<0xA0>	0
<0xA1>	0
<0xA2>	0
<0xA3>	0
<0xA4>	0
<0xA5>	0
<0xA6>	0
<0xA7>	0
<0xA8>	0
<0xA9>	0
<0xAA>	0
<0xAB>	0
<0xAC>	0
<0xAD>	0
<0xAE>	0
<0xAF>	0
<0xB0>	0
<0xB1>	0
<0xB2>	0
<0xB3>	0
<0xB4>	0
<0xB5>	0
<0xB6>	0
<0xB7>	0
<0xB8>	0
<0xB9>	0
<0xBA>	0
<0xBB>	0
<0xBC>	0
<0xBD>	0
<0xBE>	0
<0xBF>	0
<0xC0>	0
<0xC1>	0
<0xC2>	0
<0xC3>	0
<0xC4>	0
<0xC5>	0
<0xC6>	0
<0xC7>	0
<0xC8>	0
<0xC9>	0
<0xCA>	0
<0xCB>	0
<0xCC>	0
<0xCD>	0
<0xCE>	0
<0xCF>	0
<0xD0>	0
<0xD1>	0
<0xD2>	0
<0xD3>	0
<0xD4>	0
<0xD5>	0
<0xD6>	0
<0xD7>	0
<0xD8>	0
<0xD9>	0
<0xDA>	0
<0xDB>	0
<0xDC>	0
<0xDD>	0
<0xDE>	0
<0xDF>	0
<0xE0>	0
<0xE1>	0
<0xE2>	0
<0xE3>	0
<0xE4>	0
<0xE5>	0
<0xE6>	0
<0xE7>	0
<0xE8>	0
<0xE9>	0
<0xEA>	0
<0xEB>	0
<0xEC>	0
<0xED>	0
<0xEE>	0
<0xEF>	0
<0xF0>	0
<0xF1>	0
<0xF2>	0
<0xF3>	0
<0xF4>	0
<0xF5>	0
<0xF6>	0
<0xF7>	0
<0xF8>	0
<0xF9>	0
<0xFA>	0
<0xFB>	0
<0xFC>	0
<0xFD>	0
<0xFE>	0
<0xFF>	0
.	-2.87686
:	-3.35268
▁*	-3.40195
s	-3.46423
,	-3.49794
▁the	-3.5946
'	-3.81547
▁a	-4.17388
mot	-4.19138
▁you	-4.25614
▁and	-4.27189
▁i	-4.30145
▁to	-4.31198
?	-4.3268
chi	-4.40673
▁it	-4.52898
▁of	-4.56338
t	-4.63685
▁in	-4.68718
▁that	-4.75432
▁he	-5.15088
▁is	-5.15924
▁was	-5.2453
▁=	-5.2836
▁on	-5.374
▁[	-5.4105
▁what	-5.42203
▁for	-5.45675
ed	-5.46914
ing	-5.49075
▁we	-5.52419
▁"	-5.54609
▁this	-5.63504
]	-5.64002
!	-5.65289
d	-5.67094
▁do	-5.71882
▁with	-5.71913
▁no	-5.73162
m	-5.73559
▁be	-5.74991
▁have	-5.79008
▁there	-5.79132
▁they	-5.79211
▁	-5.81494
▁she	-5.82399
re	-5.82771
▁me	-5.82815
▁not	-5.82935
-	-5.83447
▁-	-5.86289
▁can	-5.89308
▁one	-5.90304
▁at	-5.91506
▁are	-5.93455
▁but	-5.94094
▁his	-5.97154
▁so	-6.00103
▁all	-6.07109
▁oh	-6.07219
▁yeah	-6.08475
▁as	-6.08696
▁go	-6.12803
▁my	-6.13148
▁her	-6.13936
▁don	-6.1414
▁your	-6.1434
▁know	-6.15408
e	-6.18698
...	-6.18726
ll	-6.18768
i	-6.20224
▁up	-6.20307
▁had	-6.20367
▁like	-6.20771
y	-6.29407
inv	-6.29895
▁out	-6.32312
▁from	-6.32518
▁here	-6.38595
▁just	-6.3973
▁get	-6.40589
ly	-6.4119
▁an	-6.43327
▁him	-6.43426
▁by	-6.44368
▁if	-6.45563
▁see	-6.46428
▁right	-6.47563
a	-6.50248
▁now	-6.50458
▁were	-6.52205
ve	-6.52207
▁then	-6.52316
▁well	-6.5244
n	-6.52763
▁about	-6.52983
er	-6.53524
▁or	-6.53674
▁when	-6.54394
▁said	-6.58197
▁who	-6.62124
▁got	-6.62676
▁think	-6.62749
▁them	-6.6338
▁did	-6.63931
▁where	-6.6676
fat	-6.70314
▁some	-6.71345
▁come	-6.71633
▁will	-6.71774
▁look	-6.73627
▁would	-6.76923
;	-6.77126
▁yes	-6.77445
r	-6.77749
▁want	-6.79336
▁“	-6.80065
▁good	-6.81248
▁(	-6.81587
▁how	-6.85187
c	-6.86664
’	-6.8747
▁okay	-6.87704
▁down	-6.87793
▁put	-6.8783
▁back	-6.88366
].	-6.89017
▁little	-6.89874
."	-6.90512
▁time	-6.92192
o	-6.92655
▁been	-6.92774
▁over	-6.93991
▁more	-6.94134
▁very	-6.94605
▁xxx	-6.94967
▁has	-6.95056
▁going	-6.95523
▁which	-6.9707
"	-6.97867
in	-6.98033
▁two	-6.98099
▁b	-6.99611
▁let	-7.00222
g	-7.00383
)	-7.05677
▁'	-7.05695
▁their	-7.07302
al	-7.08516
p	-7.09014
▁could	-7.10888
▁say	-7.12576
es	-7.13853
,"	-7.15226
▁other	-7.16648
▁why	-7.17404
▁make	-7.19774
l	-7.20511
▁take	-7.21059
▁man	-7.21787
le	-7.22505
▁into	-7.24681
▁people	-7.2685
▁too	-7.27678
▁way	-7.28424
▁because	-7.29721
▁us	-7.32771
▁after	-7.33184
▁tell	-7.34617
▁off	-7.36311
▁gonna	-7.36732
▁these	-7.36909
▁first	-7.37671
▁any	-7.38412
▁only	-7.39371
h	-7.39383
b	-7.40895
▁uh	-7.42014
▁our	-7.432
k	-7.43528
w	-7.4433
▁de	-7.45189
▁something	-7.47839
▁again	-7.47934
it	-7.48261
th	-7.48855
▁er	-7.49042
--	-7.49128
f	-7.49781
▁really	-7.50141
or	-7.5044
▁didn	-7.50548
▁car	-7.54665
▁much	-7.55429
▁give	-7.55725
▁name	-7.57751
▁s	-7.5871
▁made	-7.59197
en	-7.59209
▁big	-7.59754
▁day	-7.61174
▁before	-7.6137
▁than	-7.62378
▁should	-7.62649
▁does	-7.63176
▁home	-7.63532
par	-7.63999
▁three	-7.64089
▁re	-7.64401
on	-7.64563
an	-7.64761
▁came	-7.65321
▁new	-7.67054
▁need	-7.67384
▁away	-7.68888
▁mean	-7.69455
▁house	-7.69654
▁play	-7.69744
▁went	-7.69959
▁another	-7.70589
▁mr	-7.71342
▁never	-7.71426
na	-7.72229
▁those	-7.72574
li	-7.72623
▁work	-7.72654
▁am	-7.72932
▁um	-7.73508
▁thought	-7.73742
▁doing	-7.73987
exp	-7.74008
ne	-7.74561
▁wanna	-7.74602
▁also	-7.74606
▁old	-7.74837
▁won	-7.75143
▁great	-7.76309
▁even	-7.76437
▁long	-7.77608
/	-7.77677
▁still	-7.77724
_	-7.7812
?"	-7.7857
▁o	-7.79316
▁thing	-7.79719
the	-7.80603
▁many	-7.80734
ation	-7.80772
ra	-7.81688
▁head	-7.81861
▁things	-7.82103
ar	-7.82675
▁e	-7.8287
▁through	-7.82947
ck	-7.83099
▁last	-7.83178
▁mm	-7.83351
ch	-7.83495
▁must	-7.83756
▁may	-7.8613
se	-7.86237
▁p	-7.87339
▁baby	-7.87704
▁help	-7.88422
▁night	-7.89505
▁c	-7.89603
▁boy	-7.89604
▁find	-7.89877
ro	-7.90101
▁thank	-7.9064
▁done	-7.91244
la	-7.91744
ion	-7.91997
el	-7.92273
▁girl	-7.92435
▁isn	-7.92455
v	-7.92555
u	-7.93297
▁found	-7.93701
▁nice	-7.93736
ma	-7.93737
▁hand	-7.94206
▁called	-7.94232
ie	-7.95526
▁better	-7.96004
.”	-7.96083
▁love	-7.96221
▁%	-7.9625
▁might	-7.96429
▁un	-7.96973
▁bit	-7.97067
▁mother	-7.97328
▁water	-7.99025
▁sure	-7.99261
▁d	-7.99507
▁please	-7.99537
▁school	-8.00546
▁around	-8.00634
▁life	-8.00763
▁part	-8.00827
▁keep	-8.00884
to	-8.01479
▁book	-8.01849
▁erm	-8.02522
man	-8.02684
ers	-8.03329
▁anything	-8.03914
▁hey	-8.04264
▁eat	-8.0459
ry	-8.04872
▁place	-8.0511
▁doesn	-8.05974
,”	-8.05987
de	-8.06041
us	-8.06102
il	-8.0615
▁ah	-8.06162
▁while	-8.08118
▁lot	-8.08197
▁end	-8.08954
▁mhm	-8.09086
▁ma	-8.09194
no	-8.09875
laughs	-8.09998
▁next	-8.10036
▁room	-8.10346
▁most	-8.10639
▁such	-8.11033
▁door	-8.11629
and	-8.11865
▁nothing	-8.12016
▁same	-8.1216
▁under	-8.12279
▁father	-8.12515
▁being	-8.12941
▁men	-8.13441
▁chi	-8.13597
as	-8.136
▁world	-8.14263
▁kind	-8.1483
▁19	-8.15084
▁shall	-8.15101
ton	-8.15204
▁always	-8.15274
▁told	-8.15543
ul	-8.15653
z	-8.1587
▁mummy	-8.16309
ri	-8.16795
add	-8.17803
1	-8.17864
▁years	-8.18412
▁ever	-8.18539
▁remember	-8.18662
▁left	-8.18664
ter	-8.19024
▁open	-8.19168
▁show	-8.19253
!"	-8.19551
▁four	-8.20222
▁side	-8.20367
7	-8.20466
ta	-8.21121
▁used	-8.21585
ia	-8.21846
▁own	-8.21936
▁maybe	-8.22207
▁saw	-8.22469
▁call	-8.22629
is	-8.22649
ce	-8.22973
▁talk	-8.23003
▁every	-8.23456
ic	-8.23566
▁once	-8.23742
▁else	-8.23844
3	-8.24262
sh	-8.24589
lo	-8.24603
sis	-8.25282
▁la	-8.25823
▁g	-8.25931
▁ha	-8.26562
▁k	-8.27147
▁sit	-8.27154
ur	-8.27212
co	-8.27347
▁looks	-8.28442
▁co	-8.28602
▁gone	-8.28921
te	-8.29253
ment	-8.29471
ent	-8.29891
▁stop	-8.30174
▁sir	-8.30189
▁wait	-8.30549
me	-8.31
▁enough	-8.31056
▁sorry	-8.31655
▁huh	-8.31803
▁goes	-8.31868
▁course	-8.31956
▁five	-8.32057
▁took	-8.32127
▁coming	-8.32607
x	-8.3264
tea	-8.32707
ted	-8.32849
ba	-8.32968
▁until	-8.3318
able	-8.33389
2	-8.33426
6	-8.33806
un	-8.34383
▁face	-8.3442
ian	-8.35099
▁red	-8.35405
▁morning	-8.35657
▁miss	-8.35879
▁best	-8.36154
▁light	-8.36689
▁use	-8.36737
▁second	-8.36919
em	-8.37053
be	-8.37117
▁seen	-8.37307
do	-8.37389
▁eyes	-8.37444
▁m	-8.37461
▁turn	-8.37513
▁money	-8.37561
▁hi	-8.37581
he	-8.37637
▁dear	-8.38303
▁young	-8.38444
▁watch	-8.39322
▁t	-8.39979
ist	-8.40061
▁bad	-8.401
▁though	-8.4017
▁quite	-8.40172
▁yet	-8.40379
▁daddy	-8.40822
0	-8.40967
▁says	-8.41789
▁_	-8.42043
▁god	-8.42071
you	-8.42091
▁mommy	-8.42149
▁ball	-8.42303
▁leave	-8.42369
▁hm	-8.42386
▁box	-8.42464
▁asked	-8.42518
▁hear	-8.42575
5	-8.43466
▁today	-8.43643
ha	-8.43697
▁together	-8.43829
▁haven	-8.44135
▁blue	-8.44536
▁city	-8.44554
ine	-8.44844
▁year	-8.44879
▁high	-8.45039
▁di	-8.45414
▁war	-8.45893
▁con	-8.46353
est	-8.46538
▁each	-8.46593
we	-8.46736
▁heard	-8.47368
▁mar	-8.4742
▁read	-8.47583
▁mo	-8.47588
▁getting	-8.47815
▁vi	-8.48031
▁mind	-8.48146
4	-8.48284
▁try	-8.48391
▁both	-8.48622
▁mrs	-8.48694
▁since	-8.48728
▁without	-8.48804
▁small	-8.48928
▁different	-8.49075
▁half	-8.49075
ity	-8.49238
da	-8.49926
mch	-8.49927
▁dog	-8.50075
▁hard	-8.50401
▁known	-8.50583
vi	-8.50584
ness	-8.50771
am	-8.50796
8	-8.51142
▁looked	-8.5191
▁f	-8.5201
ant	-8.52285
▁move	-8.52328
▁far	-8.52577
bro	-8.52781
▁child	-8.53295
▁looking	-8.53389
▁between	-8.53479
▁few	-8.53505
ah	-8.5361
▁close	-8.53794
son	-8.53851
at	-8.53978
ies	-8.53999
ge	-8.54573
▁ask	-8.54622
▁run	-8.54933
▁fire	-8.55143
▁friend	-8.55274
▁feel	-8.55738
▁children	-8.55763
▁green	-8.5577
▁soon	-8.56235
▁bed	-8.56741
▁alright	-8.56922
▁l	-8.57048
ty	-8.57064
▁w	-8.57147
▁everything	-8.57312
▁black	-8.57314
▁bring	-8.57417
▁round	-8.57735
▁real	-8.5813
▁ba	-8.58178
▁himself	-8.58491
id	-8.5859
▁hafta	-8.58876
▁american	-8.58974
▁color	-8.5931
▁table	-8.59311
ir	-8.59523
▁pretty	-8.59671
▁moment	-8.60122
▁having	-8.60473
▁movie	-8.60885
▁♪	-8.60895
▁happened	-8.6108
go	-8.61145
▁train	-8.61307
po	-8.61364
▁heart	-8.61496
ol	-8.61607
▁wanted	-8.61858
▁start	-8.61861
▁ten	-8.61993
gma	-8.62102
▁story	-8.62107
▁al	-8.6215
▁later	-8.62224
▁ho	-8.62243
▁dis	-8.62365
▁party	-8.62441
▁hold	-8.62466
▁rest	-8.62509
▁stay	-8.62569
dy	-8.62707
▁ready	-8.62721
▁ra	-8.62885
▁knew	-8.62917
▁believe	-8.63396
▁1	-8.63553
▁point	-8.63953
▁six	-8.64166
▁3	-8.64294
▁boys	-8.64479
?”	-8.64657
▁whole	-8.65165
".	-8.65376
▁ta	-8.65392
▁white	-8.65436
et	-8.65449
▁idea	-8.6561
▁talking	-8.66055
▁live	-8.66149
▁top	-8.66694
▁sort	-8.66725
▁matter	-8.66744
▁making	-8.66748
▁pro	-8.6677
mar	-8.66949
▁gave	-8.67672
cause	-8.67787
▁dr	-8.68588
ting	-8.68595
ary	-8.68667
ng	-8.69351
▁born	-8.69527
▁set	-8.69589
▁chair	-8.69716
▁li	-8.70066
▁game	-8.70177
▁feet	-8.70192
ive	-8.70546
yes	-8.70553
▁number	-8.70609
▁family	-8.70629
▁hands	-8.70818
▁paper	-8.7109
ga	-8.71158
ka	-8.71161
▁week	-8.712
but	-8.71246
▁care	-8.71281
pe	-8.71293
▁ya	-8.71353
▁john	-8.715
▁against	-8.71629
▁sea	-8.71743
▁dad	-8.71945
▁brother	-8.72027
tic	-8.72061
▁upon	-8.72125
▁stand	-8.72154
ow	-8.72675
▁mom	-8.728
▁days	-8.72846
▁short	-8.72882
▁na	-8.72915
▁fine	-8.73055
▁king	-8.7329
ling	-8.73304
ke	-8.73669
▁during	-8.73809
▁actually	-8.73832
wa	-8.7403
oh	-8.74275
▁voice	-8.74287
▁wasn	-8.74326
per	-8.74486
▁u	-8.74514
int	-8.74675
▁wrong	-8.74721
cha	-8.75024
j	-8.75054
ance	-8.75068
▁18	-8.75277
9	-8.75331
ous	-8.75394
▁team	-8.75431
▁sound	-8.75448
▁cup	-8.75624
▁food	-8.75653
▁sleep	-8.75704
▁air	-8.75773
▁north	-8.75992
mp	-8.76227
pp	-8.76455
land	-8.76581
▁le	-8.7681
▁south	-8.7754
▁floor	-8.77551
▁state	-8.77598
▁bear	-8.77636
▁wouldn	-8.77649
▁hope	-8.77787
▁town	-8.78005
▁jack	-8.78007
ish	-8.78148
▁hello	-8.78512
▁sometimes	-8.78524
▁outside	-8.78594
led	-8.78863
age	-8.78988
▁county	-8.79113
▁near	-8.79168
▁guess	-8.79475
▁country	-8.79494
▁along	-8.79711
▁united	-8.80028
▁died	-8.80245
▁word	-8.80333
childes	-8.80345
▁noise	-8.80504
▁sec	-8.80524
▁pick	-8.80538
ster	-8.80571
▁ca	-8.80636
▁mine	-8.80638
▁sp	-8.80643
ni	-8.80755
▁r	-8.80895
ver	-8.80966
▁land	-8.80998
▁per	-8.8131
▁st	-8.81835
mi	-8.82299
ard	-8.82385
▁ka	-8.82538
well	-8.82619
▁j	-8.82692
▁gotta	-8.83198
▁front	-8.83462
▁walk	-8.83705
ho	-8.83726
▁pa	-8.83821
▁picture	-8.83872
▁hair	-8.83989
▁poor	-8.84021
▁drink	-8.84043
▁order	-8.84652
gra	-8.84842
nan	-8.85048
▁understand	-8.85494
hi	-8.85496
▁job	-8.85535
▁trying	-8.85572
▁able	-8.85617
▁cat	-8.8568
▁son	-8.85891
1:	-8.86222
),	-8.86222
▁states	-8.86291
▁h	-8.8638
che	-8.8641
+	-8.86528
▁brought	-8.8653
▁lo	-8.86613
▁n	-8.86648
▁group	-8.87056
ate	-8.87289
▁saying	-8.87315
▁almost	-8.8758
▁minute	-8.87621
what	-8.87683
ca	-8.8778
▁behind	-8.88107
▁happy	-8.88107
ki	-8.88127
▁sun	-8.88134
▁person	-8.8836
im	-8.88411
▁friends	-8.88713
▁bo	-8.88872
▁2	-8.89093
▁already	-8.89174
▁lady	-8.89303
▁page	-8.89347
▁late	-8.89447
▁fun	-8.8946
by	-8.89479
▁seemed	-8.89944
▁change	-8.90026
▁probably	-8.90252
mo	-8.90272
▁national	-8.90285
▁woman	-8.90823
▁began	-8.90909
▁4	-8.9136
um	-8.91418
▁wish	-8.9146
▁–	-8.91481
▁thomas	-8.91891
bb	-8.92243
ja	-8.92455
▁ga	-8.92621
ci	-8.93065
less	-8.9309
▁mark	-8.93482
▁da	-8.9351
▁seven	-8.93537
▁lost	-8.93591
▁doctor	-8.93631
bi	-8.93742
▁till	-8.93826
▁playing	-8.93865
up	-8.93951
pat	-8.94179
ner	-8.94354
▁boat	-8.95879
ley	-8.96019
▁wa	-8.96103
▁couldn	-8.96157
▁rock	-8.96232
▁present	-8.96233
▁guy	-8.96299
▁fall	-8.96438
▁someone	-8.96475
▁arm	-8.96608
▁reason	-8.96977
▁hundred	-8.97558
▁star	-8.97883
▁music	-8.97938
▁window	-8.98156
▁stuff	-8.98157
▁sa	-8.98354
▁taken	-8.98398
ud	-8.98443
▁piece	-8.98583
ated	-8.98731
▁beautiful	-8.98732
▁however	-8.98756
▁listen	-8.991
▁twenty	-8.99323
▁started	-8.99373
di	-8.99373
▁ro	-8.99453
▁line	-8.99543
▁cold	-8.99614
▁played	-8.99684
ph	-8.99929
▁po	-9.00173
▁fish	-9.00222
▁true	-9.00265
ya	-9.00271
—	-9.00492
ny	-9.00534
mon	-9.0063
",	-9.00745
▁hot	-9.00826
▁se	-9.0089
▁pay	-9.00892
that	-9.00941
▁became	-9.0112
▁fell	-9.01324
▁cut	-9.01441
▁full	-9.01594
”	-9.01639
▁5	-9.0169
▁myself	-9.01748
way	-9.01897
op	-9.01977
▁touch	-9.01999
if	-9.02055
▁inside	-9.02314
▁brown	-9.02338
▁throw	-9.0282
▁aren	-9.02938
bo	-9.02943
▁street	-9.02949
▁uhhuh	-9.02999
les	-9.03077
pa	-9.03084
▁ran	-9.03137
lu	-9.03218
ful	-9.0323
ey	-9.0342
▁makes	-9.03488
▁bar	-9.03574
▁death	-9.03583
▁dead	-9.03619
▁age	-9.03843
▁glad	-9.04272
▁ti	-9.04308
for	-9.04315
▁fact	-9.04423
▁ri	-9.045
my	-9.04591
▁sister	-9.04825
▁early	-9.04926
▁sent	-9.04935
▁turned	-9.05017
▁v	-9.05064
!”	-9.05177
▁visit	-9.05445
▁taking	-9.05458
▁wonder	-9.055
our	-9.05545
ger	-9.05617
▁du	-9.05741
▁times	-9.0579
va	-9.06058
▁captain	-9.06077
▁road	-9.06086
▁break	-9.06104
é	-9.06258
ee	-9.06444
min	-9.06698
▁su	-9.07039
▁deal	-9.07139
car	-9.07343
▁french	-9.07352
▁several	-9.07352
tion	-9.07371
▁cla	-9.07721
▁mum	-9.07735
▁river	-9.08013
▁ring	-9.08134
so	-9.08168
▁toward	-9.08299
▁7	-9.08301
▁wife	-9.08652
▁perhaps	-9.08691
▁tea	-9.08734
▁question	-9.0877
▁means	-9.08841
▁6	-9.09084
born	-9.09211
▁across	-9.093
▁hit	-9.094
▁va	-9.09819
▁hat	-9.09824
dad	-9.09912
▁funny	-9.09973
▁yourself	-9.09982
ber	-9.10032
▁en	-9.10187
▁mu	-9.10481
00	-9.10502
▁trouble	-9.1062
▁el	-9.10752
▁eight	-9.11118
▁large	-9.11157
▁either	-9.11287
▁girls	-9.11454
▁song	-9.11455
ence	-9.11641
▁pre	-9.11755
▁minutes	-9.11903
▁meet	-9.12052
▁lu	-9.12368
▁rather	-9.12642
▁stick	-9.12687
king	-9.12709
▁sc	-9.13145
▁th	-9.1325
).	-9.13315
▁special	-9.13316
▁foot	-9.13347
▁horse	-9.13617
▁eye	-9.13647
▁given	-9.14006
▁ground	-9.1401
▁free	-9.14056
▁words	-9.14253
▁ne	-9.14333
▁yellow	-9.14691
▁france	-9.14697
▁hurt	-9.1495
▁tree	-9.15076
▁win	-9.15308
▁mi	-9.15489
▁cos	-9.16065
▁ex	-9.16072
▁#	-9.16098
▁ben	-9.1615
▁phone	-9.16158
ial	-9.16546
que	-9.1674
▁living	-9.16787
▁buy	-9.16882
▁gu	-9.16934
▁past	-9.17003
▁area	-9.1707
▁working	-9.17121
val	-9.17154
▁hu	-9.17314
▁sha	-9.17614
▁count	-9.17799
▁thanks	-9.17918
ler	-9.17937
▁bob	-9.18002
ru	-9.18045
▁comes	-9.18103
rs	-9.18107
www	-9.18202
▁lay	-9.18345
gu	-9.18348
bu	-9.18665
▁hour	-9.18739
▁animals	-9.18943
▁club	-9.18953
ad	-9.1898
▁milk	-9.19004
▁!	-9.19034
▁ju	-9.19318
▁lead	-9.19377
▁toys	-9.19609
▁business	-9.19654
▁clean	-9.19655
▁alone	-9.19673
▁among	-9.19677
▁8	-9.19785
▁catch	-9.19822
▁nor	-9.20019
▁write	-9.20206
▁company	-9.20384
▁body	-9.20452
▁ago	-9.20559
▁answer	-9.20695
▁jo	-9.20698
▁bag	-9.20764
▁march	-9.20775
▁plan	-9.20916
sa	-9.20969
▁speak	-9.20989
▁important	-9.2112
▁peter	-9.21347
huh	-9.21578
▁bird	-9.21749
▁case	-9.2176
oo	-9.22266
men	-9.22503
▁camp	-9.2265
red	-9.22831
▁wall	-9.23189
ure	-9.2327
▁figure	-9.23359
▁felt	-9.23365
▁chance	-9.23365
▁somebody	-9.23377
▁uncle	-9.23383
▁cool	-9.23405
▁sat	-9.23408
fa	-9.23501
▁20	-9.23797
▁fast	-9.24008
ally	-9.24044
|	-9.24115
▁english	-9.24116
▁women	-9.24119
▁send	-9.24173
▁dark	-9.24238
ten	-9.24743
▁west	-9.24748
▁york	-9.24879
▁class	-9.24883
▁wind	-9.25132
▁often	-9.25225
▁si	-9.2523
ship	-9.25373
▁ok	-9.25682
▁10	-9.25733
ran	-9.25918
▁seat	-9.26282
2:	-9.26329
qui	-9.26433
▁shop	-9.26444
ut	-9.26462
▁ship	-9.26539
ff	-9.26625
▁guys	-9.26765
▁others	-9.26835
▁dinner	-9.27209
▁everybody	-9.27209
▁fellow	-9.27227
all	-9.27505
▁sing	-9.2751
▁fight	-9.27587
os	-9.27606
don	-9.27713
▁drive	-9.2788
▁series	-9.28014
io	-9.28111
▁pull	-9.28168
adu	-9.28208
▁bye	-9.28399
▁kep	-9.28433
▁tu	-9.28547
▁afraid	-9.28786
▁daughter	-9.28786
▁indian	-9.28834
▁push	-9.28901
▁become	-9.28992
loi	-9.2922
uff	-9.29232
▁fit	-9.29572
▁president	-9.29586
▁strong	-9.29588
▁wow	-9.29636
ries	-9.29775
fi	-9.29832
mb	-9.30177
▁usually	-9.30437
▁sitting	-9.30452
▁island	-9.30651
ham	-9.30707
▁bus	-9.3073
▁ice	-9.30757
▁tomorrow	-9.30774
let	-9.30902
▁sam	-9.31075
▁form	-9.31093
▁power	-9.31194
▁darling	-9.31215
▁park	-9.31472
▁held	-9.3157
▁2020	-9.31903
▁birthday	-9.32027
▁least	-9.32028
con	-9.32278
▁return	-9.32445
▁cover	-9.32485
▁sw	-9.32685
▁clear	-9.32689
▁garden	-9.32857
▁region	-9.32866
▁running	-9.3287
▁wants	-9.32899
▁mouth	-9.32915
▁pass	-9.33029
ric	-9.33095
▁finished	-9.33182
▁ru	-9.33284
▁art	-9.33356
▁joe	-9.33622
▁village	-9.33707
▁report	-9.33709
▁em	-9.33735
▁human	-9.33742
der	-9.33806
▁whatever	-9.33829
▁pen	-9.3388
▁happen	-9.33912
▁thinking	-9.34036
▁[1	-9.34081
▁check	-9.34558
▁record	-9.34765
▁letter	-9.3508
au	-9.35117
▁hill	-9.35146
▁feeling	-9.3544
▁history	-9.35453
▁ooh	-9.35544
▁field	-9.35554
pi	-9.35583
▁career	-9.35721
▁cr	-9.35849
▁15	-9.35882
▁wi	-9.35995
▁football	-9.36036
▁general	-9.36061
▁bell	-9.36061
▁hall	-9.36096
▁summer	-9.3623
▁duck	-9.36279
▁cross	-9.36306
▁station	-9.36312
mer	-9.36334
▁cause	-9.36486
▁noises	-9.36551
▁law	-9.36662
ned	-9.36792
▁cried	-9.37091
▁herself	-9.37121
▁board	-9.3728
ig	-9.3728
▁east	-9.37315
▁sh	-9.37434
▁lie	-9.37574
▁points	-9.37708
ung	-9.37816
of	-9.37863
▁dream	-9.37959
▁married	-9.37959
▁thousand	-9.3796
▁church	-9.37965
tra	-9.38077
▁pi	-9.38116
▁doll	-9.38143
▁killed	-9.38205
▁tried	-9.38276
time	-9.3869
ak	-9.38692
▁x	-9.38806
▁seems	-9.38992
▁waiting	-9.39179
▁act	-9.39464
▁army	-9.40022
ious	-9.40029
▁suppose	-9.40267
rus	-9.40291
▁kid	-9.40521
▁tonight	-9.4056
▁cake	-9.40661
cds	-9.40751
▁fi	-9.40913
▁ja	-9.41136
▁te	-9.41472
▁wear	-9.41514
▁master	-9.41573
lt	-9.41574
▁rose	-9.41678
ex	-9.41915
gi	-9.4194
ac	-9.42115
▁eating	-9.42274
▁sweet	-9.42279
▁possible	-9.42424
▁whether	-9.42424
▁attack	-9.42426
▁department	-9.42427
▁imp	-9.42429
▁truck	-9.42435
▁november	-9.42442
▁aunt	-9.42459
▁safe	-9.426
▁fo	-9.4285
▁comp	-9.43079
▁pat	-9.43084
▁lovely	-9.43138
▁lived	-9.4317
ward	-9.4323
▁fa	-9.43283
▁system	-9.43342
▁government	-9.43345
▁forget	-9.43563
▁building	-9.43571
one	-9.44013
day	-9.44262
▁district	-9.44268
▁object	-9.44268
▁space	-9.44304
how	-9.44444
▁ar	-9.44488
ning	-9.44491
▁lots	-9.44582
▁post	-9.44605
▁cor	-9.4469
▁sad	-9.44805
▁tape	-9.45196
▁frank	-9.45199
▁follow	-9.45302
▁rain	-9.45431
▁draw	-9.45433
▁pe	-9.4548
nk	-9.4548
makes	-9.45513
▁quiet	-9.45985
▁couple	-9.46146
▁court	-9.46148
▁tired	-9.46162
▁million	-9.46163
▁decided	-9.46259
▁cow	-9.46383
ap	-9.46511
▁nose	-9.46567
lin	-9.467
▁ni	-9.46766
friend	-9.46802
▁less	-9.46833
▁member	-9.46894
end	-9.47067
▁excuse	-9.47098
▁husband	-9.47098
▁christmas	-9.47098
▁deep	-9.47113
▁sta	-9.47238
▁key	-9.47408
▁race	-9.47436
▁dance	-9.47503
▁har	-9.47643
▁dress	-9.47703
▁sounds	-9.47768
▁german	-9.47889
▁bill	-9.48017
tu	-9.48066
▁je	-9.48144
▁wee	-9.48155
▁stone	-9.48177
side	-9.48251
▁frog	-9.48274
ris	-9.48343
▁evening	-9.48427
▁die	-9.48661
▁careful	-9.4889
ft	-9.48947
▁z	-9.48952
▁office	-9.4897
▁easy	-9.49031
▁straight	-9.49034
▁track	-9.49069
▁beat	-9.49501
▁quick	-9.49857
▁nine	-9.49956
▁grand	-9.49972
▁police	-9.49977
▁service	-9.50011
▁university	-9.50011
▁april	-9.50011
▁worry	-9.50018
▁y	-9.50108
▁force	-9.5026
▁...	-9.504
lic	-9.50618
ana	-9.50881
ag	-9.50996
▁january	-9.51001
▁public	-9.51001
▁spot	-9.51004
▁juice	-9.51012
▁trust	-9.51032
▁fear	-9.51043
ors	-9.51086
▁eh	-9.51087
▁anyway	-9.51104
▁earth	-9.51122
▁ko	-9.51136
▁nearly	-9.51339
▁9	-9.5159
▁warm	-9.51675
▁12	-9.51746
▁17	-9.51814
▁august	-9.52001
▁yesterday	-9.52001
▁replied	-9.52001
▁chief	-9.52001
ens	-9.52088
▁snow	-9.52098
▁gold	-9.52127
▁che	-9.524
▁kids	-9.52512
▁award	-9.52689
tur	-9.52745
ju	-9.52839
▁ride	-9.52955
▁british	-9.53011
▁shot	-9.53013
▁chicken	-9.5303
▁plate	-9.53066
nie	-9.5311
▁list	-9.53117
▁returned	-9.53533
▁learn	-9.53606
▁band	-9.53736
now	-9.5378
▁carry	-9.53846
▁hole	-9.53988
▁character	-9.54031
▁england	-9.54031
▁support	-9.54031
▁sense	-9.54033
▁chapter	-9.54039
▁kiss	-9.54055
á	-9.54133
▁tra	-9.54251
▁cannot	-9.54291
▁ve	-9.54342
▁grow	-9.54395
▁ki	-9.54482
she	-9.54548
ice	-9.54628
ron	-9.54632
▁met	-9.54727
▁former	-9.54767
▁pan	-9.54783
▁tom	-9.54896
ily	-9.54931
▁problem	-9.55029
▁language	-9.55062
▁above	-9.55066
▁single	-9.55204
▁jump	-9.55282
ring	-9.55305
▁putting	-9.55366
▁cl	-9.55422
▁reached	-9.55455
▁sign	-9.55519
den	-9.55916
▁type	-9.56114
▁super	-9.56131
line	-9.56138
▁pretend	-9.56156
▁bright	-9.56198
▁quickly	-9.5628
▁lad	-9.56397
ko	-9.56402
▁books	-9.56452
▁instead	-9.57157
▁news	-9.57162
▁seem	-9.57165
▁11	-9.57171
▁exactly	-9.57184
▁drop	-9.57186
▁nobody	-9.57224
▁broken	-9.5727
▁wheel	-9.57325
▁apple	-9.57436
▁lives	-9.57551
ating	-9.57605
▁laugh	-9.57608
▁gun	-9.57676
▁finish	-9.57803
▁although	-9.5822
▁television	-9.5822
▁third	-9.5822
read	-9.58274
▁lord	-9.58316
ite	-9.58468
ew	-9.58479
▁min	-9.5872
right	-9.58799
▁happens	-9.59005
▁gra	-9.59069
▁longer	-9.59114
▁secret	-9.59288
▁lunch	-9.59296
▁february	-9.59296
▁example	-9.59297
▁indeed	-9.59314
▁everyone	-9.59327
▁bread	-9.5939
▁june	-9.59391
▁shape	-9.59395
▁billy	-9.59505
aw	-9.5973
▁answered	-9.59921
▁mama	-9.60001
▁moon	-9.60052
ub	-9.60081
br	-9.60083
▁fly	-9.60099
house	-9.60118
there	-9.60135
unk	-9.60143
illustration	-9.60373
▁middle	-9.60383
▁caught	-9.60392
▁season	-9.60434
▁cookie	-9.60592
▁mor	-9.60658
▁bang	-9.6076
singing	-9.60871
cu	-9.60984
▁roll	-9.61012
▁mary	-9.61171
room	-9.6121
like	-9.61267
▁main	-9.61277
▁strange	-9.61304
▁toy	-9.61352
▁standing	-9.61391
▁hospital	-9.61481
▁store	-9.61499
▁anymore	-9.61509
▁sand	-9.61592
▁charge	-9.61594
▁teacher	-9.61722
▁months	-9.61792
▁forward	-9.61999
▁mad	-9.6208
▁control	-9.62593
▁difficult	-9.62593
▁monkey	-9.62596
▁honey	-9.62603
▁spring	-9.6261
▁grandma	-9.62634
▁reach	-9.62781
▁pet	-9.62832
gle	-9.62967
▁arms	-9.6316
▁shoes	-9.63303
fe	-9.63377
fch	-9.63504
ough	-9.63592
▁climb	-9.63716
▁pardon	-9.63721
▁hungry	-9.63731
▁december	-9.63731
▁truth	-9.63736
▁october	-9.63742
▁clothes	-9.63752
▁belong	-9.63833
▁test	-9.63973
▁card	-9.63987
▁13	-9.64035
▁following	-9.64216
▁passed	-9.64296
▁pop	-9.64363
▁meeting	-9.64419
light	-9.64584
▁cur	-9.64585
▁bottom	-9.64853
▁stopped	-9.64854
▁sub	-9.64863
▁holding	-9.64865
▁common	-9.64879
▁george	-9.64904
▁paul	-9.64922
▁player	-9.64989
gen	-9.65042
▁takes	-9.651
▁pot	-9.65206
▁fl	-9.65211
▁hours	-9.65269
▁wide	-9.65404
▁farm	-9.65502
not	-9.65595
▁bi	-9.6569
▁changed	-9.65707
uc	-9.65715
▁leg	-9.65818
put	-9.65858
3:	-9.65869
com	-9.6599
▁council	-9.66002
▁enjoy	-9.66002
▁stood	-9.66002
▁afternoon	-9.66002
▁gar	-9.66003
▁exclaimed	-9.66003
ise	-9.66024
av	-9.66157
▁16	-9.66188
")	-9.66221
▁members	-9.66313
▁ow	-9.66351
ps	-9.66416
▁supposed	-9.66451
urs	-9.66582
▁sy	-9.66597
▁worked	-9.66616
▁bath	-9.66708
▁cho	-9.66828
kin	-9.66844
▁flowers	-9.67093
▁ahead	-9.67142
▁leaving	-9.67165
▁doubt	-9.67169
▁beginning	-9.6717
▁tri	-9.67221
▁‘	-9.67223
▁anyone	-9.67244
▁inter	-9.6736
▁wild	-9.67374
▁ab	-9.67521
gr	-9.67657
use	-9.67832
vo	-9.67847
▁include	-9.67991
–	-9.68041
▁ain	-9.68155
20	-9.6834
▁lift	-9.68366
they	-9.68367
▁giving	-9.68372
▁sick	-9.68401
▁interest	-9.68711
iz	-9.68747
▁shi	-9.68973
▁personal	-9.69015
▁cost	-9.69186
▁gr	-9.69203
▁cha	-9.69365
▁certain	-9.69367
▁van	-9.69524
▁college	-9.69532
▁orange	-9.69533
▁murder	-9.69536
▁tiger	-9.69554
▁written	-9.69559
▁breath	-9.69563
▁position	-9.6959
▁sky	-9.69592
▁within	-9.69693
ical	-9.69725
und	-9.69893
▁join	-9.69917
▁cap	-9.69918
▁mess	-9.70057
▁low	-9.70091
▁loud	-9.70104
▁sight	-9.70279
▁fe	-9.70326
vis	-9.70407
▁spoke	-9.70592
í	-9.70737
▁heavy	-9.70738
▁battle	-9.70744
▁rob	-9.70833
▁somewhere	-9.70837
▁save	-9.70892
▁press	-9.70906
▁appeared	-9.70961
ble	-9.70988
▁pu	-9.71004
lie	-9.71025
▁moo	-9.71025
ade	-9.71336
child	-9.71525
ang	-9.71563
▁fix	-9.71573
pped	-9.71575
▁hop	-9.71653
wi	-9.71727
▁wood	-9.71747
▁bur	-9.71865
▁nin	-9.71926
▁accept	-9.71956
▁film	-9.71957
ky	-9.71959
act	-9.71961
▁bow	-9.71964
rit	-9.71969
▁⌈	-9.71973
▁winter	-9.72009
▁lake	-9.72036
▁boo	-9.72079
▁released	-9.72116
▁tail	-9.72136
▁pictures	-9.72146
▁certainly	-9.72153
▁cook	-9.72564
▁opened	-9.72689
▁fair	-9.72854
▁engine	-9.72869
▁wash	-9.73103
▁robert	-9.73204
▁yep	-9.73263
▁commune	-9.73264
ren	-9.73363
▁paint	-9.73398
ier	-9.7344
ible	-9.73456
jo	-9.73635
▁]	-9.73661
bel	-9.73712
▁mc	-9.73842
come	-9.73972
gue	-9.74009
▁ear	-9.74043
▁miles	-9.74114
▁amy	-9.74327
▁century	-9.74441
nder	-9.74451
▁pink	-9.74536
▁30	-9.74554
▁sharp	-9.74614
▁corner	-9.74652
ism	-9.74718
▁telling	-9.7523
▁remain	-9.75278
▁using	-9.75355
▁gi	-9.7538
▁hasn	-9.75544
▁whom	-9.75553
▁cast	-9.75582
▁travel	-9.75694
▁london	-9.75706
▁account	-9.75707
▁hurry	-9.75717
▁ought	-9.75748
▁14	-9.76229
mu	-9.76286
▁needs	-9.7653
▁breakfast	-9.76989
▁teeth	-9.76989
▁japan	-9.76993
du	-9.77031
cer	-9.7705
▁wake	-9.77104
uk	-9.77537
ile	-9.77666
▁dry	-9.7774
▁parents	-9.77806
▁rabbit	-9.78287
▁major	-9.78287
▁video	-9.78287
▁local	-9.78296
▁col	-9.78305
▁view	-9.78311
▁crayon	-9.78337
▁taste	-9.78339
▁char	-9.7838
▁helen	-9.78446
▁tv	-9.78475
ste	-9.7848
▁trip	-9.78538
▁added	-9.7854
▁wh	-9.78588
▁watching	-9.78642
can	-9.78688
▁row	-9.78709
ii	-9.79087
▁turns	-9.79303
nd	-9.79327
why	-9.79351
▁san	-9.79581
▁distance	-9.79604
▁scene	-9.79604
▁further	-9.79607
▁suddenly	-9.79681
▁yo	-9.79844
ze	-9.79921
▁hang	-9.8011
▁leader	-9.80198
▁bu	-9.80648
▁dan	-9.80674
mother	-9.80847
▁moved	-9.80847
▁september	-9.80936
▁themselves	-9.80936
▁cheese	-9.80937
▁opera	-9.80987
▁button	-9.81007
▁worth	-9.81082
▁fr	-9.81143
▁driver	-9.81181
▁july	-9.81244
sure	-9.81293
▁feed	-9.81414
▁places	-9.81607
ina	-9.81961
▁america	-9.82004
▁dat	-9.82183
ji	-9.82204
▁broke	-9.82214
▁led	-9.82263
▁circle	-9.82288
▁coffee	-9.82288
▁including	-9.82288
▁kitchen	-9.82288
▁upstairs	-9.82288
▁cloud	-9.82288
▁bridge	-9.82288
▁speed	-9.82291
▁cream	-9.82303
▁anybody	-9.82305
▁michael	-9.82323
▁reading	-9.82525
▁bank	-9.82608
▁shut	-9.82654
ened	-9.82665
▁blow	-9.8279
▁trees	-9.82988
ld	-9.83051
gar	-9.83224
▁month	-9.83342
clock	-9.83394
▁blood	-9.83468
▁elephant	-9.83658
▁project	-9.83658
▁thirty	-9.83658
▁escape	-9.83658
out	-9.83658
▁dropped	-9.83658
▁bottle	-9.83663
▁health	-9.83663
▁bought	-9.83671
▁harry	-9.83704
old	-9.8375
▁port	-9.83889
lan	-9.83914
ight	-9.84335
▁burn	-9.84487
▁step	-9.84621
▁carl	-9.84707
▁rich	-9.84752
▁fur	-9.84843
▁dar	-9.84845
her	-9.84864
▁spirit	-9.85046
▁pocket	-9.85046
▁forgot	-9.85051
▁fraser	-9.85051
▁shake	-9.85109
ized	-9.85139
then	-9.85147
▁brush	-9.85203
his	-9.8562
ray	-9.85933
ville	-9.8607
▁bro	-9.86124
field	-9.86162
nor	-9.86225
pl	-9.86233
▁den	-9.86386
▁hate	-9.86448
▁attention	-9.86455
▁protect	-9.86455
▁welcome	-9.86455
▁popular	-9.86458
▁david	-9.86462
▁betty	-9.86467
▁games	-9.86543
▁received	-9.86728
points	-9.86872
pr	-9.86899
▁fred	-9.86949
▁ob	-9.86957
▁bru	-9.86998
▁ste	-9.87032
▁bla	-9.87116
▁size	-9.87151
▁ye	-9.87301
lyn	-9.87338
night	-9.87527
▁surprise	-9.87535
za	-9.87708
11	-9.87767
▁fra	-9.8784
▁smell	-9.87884
nu	-9.87987
▁pla	-9.88
▁hide	-9.88097
▁below	-9.88182
▁bowl	-9.88344
▁pieces	-9.88346
▁fat	-9.8912
▁accident	-9.89333
▁respect	-9.89333
▁wrote	-9.89333
▁famous	-9.89333
▁kitty	-9.89333
▁serious	-9.89339
▁bunny	-9.8934
fri	-9.89372
▁base	-9.89374
▁action	-9.89397
▁finally	-9.89464
▁tr	-9.89674
tie	-9.89738
▁wonderful	-9.89782
▁expect	-9.89953
▁ears	-9.90082
where	-9.90297
kay	-9.90343
▁fan	-9.90515
noise	-9.90542
ev	-9.90585
▁command	-9.90648
▁rule	-9.90702
rid	-9.90771
▁weeks	-9.90801
▁writing	-9.90803
▁built	-9.90804
▁2018	-9.90808
▁sheep	-9.90814
▁sunday	-9.90826
▁silver	-9.9086
▁james	-9.9086
▁soft	-9.91055
▁union	-9.91059
▁gate	-9.91082
▁busy	-9.91153
▁25	-9.91186
▁allowed	-9.91204
▁crying	-9.91289
ide	-9.91346
laugh	-9.91658
▁tall	-9.91904
hu	-9.91928
▁smile	-9.91947
▁wave	-9.92
▁cal	-9.92012
▁soul	-9.92241
▁except	-9.92258
▁fifty	-9.92296
▁minister	-9.92296
▁level	-9.92296
▁conversation	-9.92302
▁monster	-9.92305
▁share	-9.92314
▁phil	-9.92318
▁rising	-9.92328
cent	-9.92496
▁cry	-9.9252
nic	-9.92604
▁plays	-9.92609
ple	-9.92629
▁ver	-9.92687
this	-9.92697
▁based	-9.92706
who	-9.9272
▁hol	-9.928
▁interesting	-9.92823
▁kill	-9.92955
▁shoulder	-9.9306
su	-9.93224
gh	-9.93616
▁population	-9.93811
▁machine	-9.93815
▁guard	-9.9382
▁knee	-9.9382
▁study	-9.93825
▁information	-9.93826
▁direction	-9.93837
▁rec	-9.93906
▁egg	-9.93912
▁mouse	-9.9392
30	-9.94029
▁directed	-9.94116
▁host	-9.94144
han	-9.94257
just	-9.94267
▁leaves	-9.94295
▁forest	-9.94318
▁choo	-9.94321
dic	-9.94606
▁legs	-9.9493
low	-9.95072
cher	-9.95108
▁spoon	-9.95111
▁cheer	-9.95163
▁none	-9.95248
▁finger	-9.95317
▁animal	-9.95322
▁effect	-9.95332
▁international	-9.95349
▁babies	-9.9535
▁weather	-9.9535
▁carried	-9.95351
▁tower	-9.95409
▁officer	-9.95478
▁roman	-9.95481
▁grass	-9.95491
▁lower	-9.95603
▁flat	-9.95812
▁rush	-9.9587
▁corn	-9.95978
▁gas	-9.96228
▁joy	-9.96275
▁ge	-9.96286
sha	-9.96497
board	-9.96633
▁teach	-9.96901
▁california	-9.96912
▁beach	-9.96923
▁charles	-9.96929
▁contain	-9.96933
▁stuck	-9.96942
▁adam	-9.96957
▁moving	-9.96968
gan	-9.97135
head	-9.97183
▁germany	-9.97217
▁allow	-9.97342
▁fle	-9.97388
▁mis	-9.97445
mic	-9.97458
▁offer	-9.97523
▁laughed	-9.97544
ec	-9.97633
van	-9.9773
▁laughing	-9.97737
▁stra	-9.97941
▁mass	-9.9798
▁mat	-9.98026
▁ce	-9.98196
ker	-9.98285
▁bra	-9.98373
▁twelve	-9.98499
▁capital	-9.98499
▁crash	-9.985
▁square	-9.98504
▁grew	-9.98509
▁imagine	-9.9851
pen	-9.98524
▁sail	-9.9853
ab	-9.98537
▁laughs	-9.98813
▁weren	-9.98824
bra	-9.99185
▁mountain	-9.99207
▁ter	-9.99403
att	-9.99582
▁works	-9.99615
▁explain	-9.99683
▁oo	-9.99728
az	-9.99756
box	-9.99874
▁pin	-9.99941
▁league	-10.0011
▁province	-10.0011
▁result	-10.0011
▁william	-10.0012
tain	-10.0012
▁governor	-10.0013
▁bobby	-10.0014
ai	-10.0018
▁russian	-10.0019
▁neck	-10.002
wn	-10.0024
▁bigger	-10.0024
▁pack	-10.0025
▁flower	-10.0033
ign	-10.0041
▁cell	-10.0075
▁due	-10.0102
▁qu	-10.0113
hold	-10.0163
cla	-10.0168
▁luck	-10.0172
▁treat	-10.0175
▁election	-10.0175
▁honor	-10.0178
▁declared	-10.0191
ition	-10.0207
▁ate	-10.0209
▁bert	-10.0218
▁pounds	-10.0227
▁pour	-10.0232
rd	-10.0251
▁build	-10.0252
hy	-10.0273
burg	-10.0291
▁inv	-10.0297
▁promise	-10.0307
ncy	-10.0313
▁prince	-10.032
▁original	-10.0331
▁puppet	-10.0342
▁puzzle	-10.0342
▁situation	-10.0342
▁depend	-10.0342
▁center	-10.0342
▁simple	-10.0342
▁shirt	-10.0348
▁alive	-10.0352
▁unless	-10.0353
▁sla	-10.0354
▁aye	-10.0356
▁plane	-10.0374
▁lose	-10.0377
▁continued	-10.0381
▁op	-10.0382
▁ze	-10.0384
,000	-10.0395
▁lines	-10.0397
▁trade	-10.0398
ept	-10.0403
▁sell	-10.0403
▁horses	-10.0442
cy	-10.0451
▁dam	-10.0473
▁easter	-10.0474
▁agree	-10.0477
fully	-10.05
▁mid	-10.0502
▁bat	-10.0503
▁glass	-10.0506
amp	-10.0508
%	-10.0511
▁chocolate	-10.0511
▁quarter	-10.0511
▁student	-10.0511
▁championship	-10.0512
▁title	-10.0513
place	-10.0513
▁fox	-10.0516
▁thou	-10.0516
▁exist	-10.0517
ified	-10.0517
▁eggs	-10.0521
zi	-10.0552
10	-10.0552
ught	-10.0571
▁mountains	-10.0607
▁program	-10.0616
▁ci	-10.062
▁blocks	-10.0643
pro	-10.0644
ita	-10.0681
→	-10.0684
▁division	-10.0684
▁future	-10.0684
▁condition	-10.0684
▁pleasant	-10.0684
▁length	-10.0684
▁queen	-10.0684
▁purpose	-10.0684
▁address	-10.0684
▁2022	-10.0684
qua	-10.0689
babble	-10.0695
har	-10.0703
▁jane	-10.0713
port	-10.0715
▁rid	-10.0719
▁created	-10.0721
tz	-10.0721
▁tony	-10.0725
▁birds	-10.0725
▁scared	-10.0727
▁28	-10.0734
▁design	-10.074
gged	-10.0741
ong	-10.0759
ford	-10.0761
ium	-10.0773
▁needed	-10.0802
▁meant	-10.0826
▁walked	-10.083
▁picked	-10.0835
▁fer	-10.0842
mor	-10.0851
▁medicine	-10.0859
▁cousin	-10.0859
▁adult	-10.0859
▁search	-10.0859
▁favorite	-10.086
▁2016	-10.086
▁jim	-10.0863
▁stage	-10.087
▁slowly	-10.0871
▁coat	-10.0872
▁yu	-10.0885
▁official	-10.0886
rat	-10.0892
lor	-10.0894
▁scream	-10.0899
▁block	-10.0907
▁ke	-10.0908
▁grave	-10.0915
▁missing	-10.0918
▁meal	-10.0921
▁path	-10.0933
▁24	-10.0959
▁vo	-10.0964
▁vote	-10.097
▁loved	-10.0971
▁29	-10.0972
▁sal	-10.098
je	-10.0984
▁arch	-10.0992
▁ser	-10.0997
ria	-10.0997
▁lid	-10.1004
▁success	-10.1008
12	-10.1008
▁bal	-10.1009
▁announced	-10.1038
▁asleep	-10.1038
▁attempt	-10.1038
▁computer	-10.1038
▁experience	-10.1038
▁cre	-10.1038
▁2021	-10.1038
▁hiding	-10.1039
▁gift	-10.1039
▁gro	-10.1041
▁fingers	-10.1043
▁problems	-10.1043
▁tax	-10.105
pick	-10.1056
▁notice	-10.1059
▁uhoh	-10.1062
▁pain	-10.1078
gasps	-10.108
▁turning	-10.1092
▁interested	-10.1102
▁)	-10.1105
ov	-10.111
▁happening	-10.1127
▁stan	-10.1131
▁ham	-10.1138
oth	-10.1148
▁peace	-10.1161
▁whoa	-10.1168
▁hero	-10.1174
▁knock	-10.1182
▁bri	-10.1182
ek	-10.1193
▁tone	-10.1202
▁complete	-10.1204
▁shouldn	-10.121
win	-10.1213
▁india	-10.1214
▁2017	-10.122
▁crazy	-10.122
▁smoke	-10.122
▁anxious	-10.122
▁patient	-10.122
▁danger	-10.122
▁maggie	-10.122
▁judge	-10.122
▁regard	-10.1221
▁colour	-10.1221
▁coast	-10.1222
▁date	-10.1231
▁arrived	-10.1232
▁director	-10.1242
ration	-10.1251
▁needta	-10.1253
▁magic	-10.1262
▁suit	-10.1272
mat	-10.1285
glo	-10.1286
▁singer	-10.1288
lon	-10.1294
top	-10.13
▁woods	-10.1314
▁asking	-10.1314
▁covered	-10.1314
▁handle	-10.133
▁sue	-10.1341
▁starts	-10.1354
col	-10.1359
rac	-10.1363
▁tan	-10.137
▁walking	-10.1371
▁lap	-10.1371
fad	-10.1399
▁extra	-10.1399
aft	-10.1399
ö	-10.1405
▁beyond	-10.1405
▁professional	-10.1405
▁approach	-10.1405
▁driving	-10.1405
▁snake	-10.1405
▁nature	-10.1405
▁period	-10.1405
▁social	-10.1405
▁clever	-10.1405
▁edge	-10.1406
▁sugar	-10.1406
▁match	-10.1407
▁laura	-10.1407
▁roof	-10.1407
▁crack	-10.1413
ann	-10.1414
▁score	-10.1415
▁self	-10.1417
▁martin	-10.1417
▁ken	-10.1422
▁signal	-10.144
▁plain	-10.144
berg	-10.1441
ched	-10.1444
▁clock	-10.1448
dor	-10.1457
▁ph	-10.1457
▁role	-10.1464
▁sch	-10.1469
▁ty	-10.1478
▁drawing	-10.1488
▁opening	-10.151
▁bin	-10.1513
looks	-10.1519
▁weak	-10.1522
▁holds	-10.1527
▁hy	-10.1528
▁mostly	-10.1532
▁para	-10.1553
▁questions	-10.1558
play	-10.1562
wood	-10.1563
=	-10.1563
hand	-10.1564
▁cop	-10.157
fer	-10.1572
▁closed	-10.1578
▁lock	-10.1582
▁census	-10.1593
▁constant	-10.1593
▁difference	-10.1593
▁eleanor	-10.1593
▁album	-10.1593
▁civil	-10.1593
▁kingdom	-10.1593
▁model	-10.1594
▁trans	-10.1594
▁spell	-10.1594
▁tight	-10.1597
▁bedroom	-10.1597
▁paid	-10.1604
▁comb	-10.1604
▁silence	-10.1608
get	-10.1616
▁huge	-10.1618
▁camera	-10.1643
ug	-10.1649
▁begin	-10.1661
▁shoe	-10.1664
▁("	-10.167
ther	-10.1676
▁lee	-10.1689
▁pulled	-10.1697
name	-10.1699
▁bite	-10.17
▁meaning	-10.1703
over	-10.1704
▁showed	-10.1706
ok	-10.171
▁papa	-10.1711
▁term	-10.1726
▁letters	-10.1731
--"	-10.1733
air	-10.1741
[	-10.1756
illa	-10.176
▁natural	-10.1769
▁final	-10.1776
▁advance	-10.1786
▁central	-10.1786
▁subject	-10.1786
⌋	-10.1786
▁background	-10.1786
▁jesus	-10.1786
▁blanket	-10.1786
▁price	-10.1786
▁forgotten	-10.1787
▁richard	-10.1788
▁bound	-10.1788
▁spread	-10.1788
▁absolutely	-10.179
▁kick	-10.1793
▁trick	-10.1794
▁anna	-10.1794
▁issue	-10.1796
▁butter	-10.1799
▁laid	-10.18
▁reaches	-10.1811
▁yard	-10.1811
▁crew	-10.1813
cat	-10.1825
▁agreed	-10.1825
/0	-10.183
▁lion	-10.1834
▁calm	-10.1842
▁dun	-10.1852
▁apart	-10.1852
▁stars	-10.1861
▁caused	-10.1865
▁youth	-10.1867
▁followed	-10.1874
▁wearing	-10.1878
▁mac	-10.1883
▁stu	-10.1924
▁actor	-10.1931
▁soldiers	-10.1942
▁anne	-10.1942
▁nu	-10.1957
▁particular	-10.1965
rate	-10.1981
▁fault	-10.1982
▁teddy	-10.1982
▁fresh	-10.1982
▁therefore	-10.1982
▁gentleman	-10.1984
▁spend	-10.1985
▁bump	-10.1986
▁speech	-10.1987
▁steven	-10.1991
▁western	-10.1994
uh	-10.2001
▁forty	-10.2022
▁bull	-10.2025
⌉.	-10.2034
chuckles	-10.2034
drew	-10.2036
▁watched	-10.2042
ities	-10.2049
▁joined	-10.2052
▁flying	-10.2058
▁learned	-10.2064
orn	-10.2069
▁dare	-10.2071
ari	-10.2093
▁speaking	-10.2094
▁artist	-10.2129
ake	-10.213
oc	-10.2133
▁shoot	-10.214
▁mont	-10.2143
▁singing	-10.2146
pic	-10.2166
▁perfect	-10.2166
▁africa	-10.2167
▁collect	-10.2178
▁education	-10.2182
▁effort	-10.2182
▁lieutenant	-10.2182
▁vessel	-10.2182
▁royal	-10.2182
▁spain	-10.2182
▁silly	-10.2182
▁pleasure	-10.2182
▁monday	-10.2182
▁2014	-10.2183
▁washington	-10.2184
▁dangerous	-10.2184
▁message	-10.2185
▁correct	-10.2185
▁according	-10.2186
▁wolf	-10.2188
▁saint	-10.2188
▁thus	-10.2192
▁crowd	-10.2198
▁tiny	-10.2204
▁mill	-10.2206
▁cy	-10.2217
▁itself	-10.2219
▁tim	-10.222
▁dolly	-10.2228
sses	-10.223
▁bone	-10.2235
▁gil	-10.225
▁missed	-10.2255
ix	-10.2263
▁ger	-10.2275
▁hug	-10.2276
ern	-10.2286
▁besides	-10.2293
▁christ	-10.2299
ette	-10.2316
▁beside	-10.2342
q	-10.2348
ku	-10.2362
▁tie	-10.2368
▁dig	-10.237
▁easily	-10.2386
▁victim	-10.2386
▁slide	-10.2386
▁centre	-10.2386
▁appearance	-10.2387
▁christian	-10.2388
▁roger	-10.239
▁lying	-10.2392
til	-10.2393
▁prepared	-10.2395
▁brick	-10.2398
▁brain	-10.2398
▁manner	-10.2415
▁bark	-10.2424
▁log	-10.2424
hood	-10.2424
▁continues	-10.2453
▁farmer	-10.2456
▁hum	-10.2463
▁bomb	-10.2483
▁pig	-10.2483
▁(19	-10.2486
mate	-10.249
▁likely	-10.249
pose	-10.2491
▁swing	-10.2491
▁calling	-10.2494
▁fighting	-10.2496
▁plant	-10.2534
▁ski	-10.254
oy	-10.254
▁ku	-10.2542
ack	-10.2548
▁serve	-10.2555
▁pit	-10.2557
▁enter	-10.2563
▁tro	-10.2573
▁sigh	-10.2574
▁range	-10.2578
▁wise	-10.258
▁companion	-10.2594
▁decision	-10.2594
▁especially	-10.2594
▁holiday	-10.2594
▁terrible	-10.2594
▁fruit	-10.2594
▁science	-10.2594
▁enemy	-10.2594
▁double	-10.2594
▁deliver	-10.2595
▁firm	-10.2595
▁attend	-10.2595
▁charlie	-10.2595
▁japanese	-10.2598
▁jwww	-10.2599
▁radio	-10.26
ology	-10.2602
▁delight	-10.2604
▁lesson	-10.2605
▁smith	-10.2607
▁worse	-10.2608
▁comm	-10.2611
▁choose	-10.2622
▁qua	-10.2626
here	-10.2631
▁doo	-10.2633
14	-10.2655
ory	-10.2657
▁liked	-10.2678
▁bother	-10.2685
war	-10.269
▁falls	-10.2691
▁placed	-10.27
ett	-10.2703
bert	-10.2706
▁shown	-10.2708
▁meat	-10.2713
▁direct	-10.2717
▁dust	-10.2732
off	-10.2749
▁oops	-10.2757
ob	-10.2758
▁ended	-10.2758
▁()	-10.276
ney	-10.2786
▁pie	-10.2787
▁hadn	-10.2787
▁journey	-10.2807
▁plenty	-10.2807
▁politician	-10.2807
▁professor	-10.2807
▁conduct	-10.2807
▁spider	-10.2807
▁drama	-10.2807
▁dozen	-10.2807
▁whoops	-10.2809
▁ladies	-10.2811
▁storm	-10.2814
▁spent	-10.2818
▁castle	-10.2821
sings	-10.2822
▁lucky	-10.2832
▁skin	-10.2833
▁discovered	-10.2846
▁flag	-10.2855
coming	-10.2856
▁surprised	-10.2859
▁prisoner	-10.2865
▁21	-10.2868
▁reg	-10.2877
ize	-10.2892
▁site	-10.2892
▁hardly	-10.2906
▁talked	-10.2923
ela	-10.2931
▁tin	-10.2936
▁grant	-10.2945
▁cu	-10.2958
▁rate	-10.2959
ark	-10.2963
ath	-10.2983
very	-10.2987
mark	-10.301
64	-10.301
▁mistake	-10.3013
▁louis	-10.3018
▁border	-10.3024
▁honest	-10.3024
▁coach	-10.3025
▁angry	-10.3025
▁various	-10.3025
▁countries	-10.3027
▁twin	-10.3028
▁ram	-10.3028
▁immediately	-10.3029
▁market	-10.3032
▁santa	-10.3032
▁numbers	-10.3034
▁hotel	-10.3038
▁golden	-10.304
▁flash	-10.3044
▁drug	-10.3046
▁sports	-10.3066
take	-10.3075
▁runs	-10.3078
▁rank	-10.311
▁gen	-10.3129
▁consider	-10.3149
▁planet	-10.3161
ace	-10.3162
▁rub	-10.3165
▁za	-10.318
▁older	-10.3215
work	-10.3217
▁squ	-10.3227
▁sandwich	-10.3238
▁mal	-10.3242
▁europe	-10.3242
▁adventure	-10.3247
▁excited	-10.3247
▁interrupt	-10.3247
▁political	-10.3247
▁similar	-10.3247
▁smiling	-10.3247
▁female	-10.3247
▁crime	-10.3247
▁prize	-10.3247
▁swimming	-10.3247
▁airplane	-10.3247
▁slip	-10.3248
▁choice	-10.3248
▁northern	-10.3249
▁southern	-10.3249
▁horn	-10.3249
▁desk	-10.325
▁everywhere	-10.3251
▁trail	-10.3255
back	-10.3256
▁starting	-10.3259
▁pair	-10.326
▁movement	-10.3262
▁founded	-10.3263
sib	-10.3264
▁awful	-10.3265
▁&	-10.3269
▁served	-10.3284
▁pur	-10.3285
▁entered	-10.3292
▁writer	-10.3302
turn	-10.3306
rin	-10.3321
▁nut	-10.3334
▁fu	-10.3338
▁ven	-10.3345
▁add	-10.3356
▁22	-10.3377
▁fin	-10.3389
gon	-10.3402
▁ann	-10.3404
▁falling	-10.3411
ome	-10.3413
▁appear	-10.343
elle	-10.3433
bl	-10.3441
▁flu	-10.3442
ear	-10.345
pan	-10.3462
▁2013	-10.3474
▁community	-10.3474
▁independent	-10.3474
▁ourselves	-10.3474
▁saturday	-10.3474
▁twice	-10.3474
▁knowledge	-10.3474
▁process	-10.3474
▁heaven	-10.3474
▁memory	-10.3474
▁henry	-10.3475
▁buddy	-10.3475
▁julia	-10.3475
▁2011	-10.3475
shed	-10.3479
takes	-10.348
▁nick	-10.3484
will	-10.3485
▁haha	-10.3491
▁max	-10.3499
▁ban	-10.3505
laughing	-10.3508
▁yum	-10.3518
▁cro	-10.3522
▁sin	-10.3526
24	-10.353
▁thy	-10.3542
▁deck	-10.3545
▁iron	-10.3565
ez	-10.3568
▁slave	-10.3571
sighs	-10.3595
▁lean	-10.3597
ica	-10.3604
▁tha	-10.3608
key	-10.3631
▁snap	-10.3633
zo	-10.3652
▁br	-10.3663
riv	-10.3695
▁discover	-10.37
▁paris	-10.3701
shire	-10.3705
▁association	-10.3706
▁naughty	-10.3706
▁previous	-10.3706
▁throat	-10.3706
▁2007	-10.3706
▁empire	-10.3706
▁worried	-10.3706
▁located	-10.3706
▁stories	-10.3706
▁version	-10.3707
▁regular	-10.3707
▁formula	-10.3707
▁2012	-10.3708
▁bathroom	-10.3708
▁pressure	-10.3708
▁taught	-10.3709
▁image	-10.3709
▁duty	-10.3714
▁risk	-10.3716
▁jean	-10.3719
▁fill	-10.372
▁bun	-10.3727
▁forth	-10.3727
▁finding	-10.3729
▁dick	-10.3734
▁considered	-10.3752
▁sold	-10.3761
▁expected	-10.3775
000	-10.3781
▁spin	-10.3789
nia	-10.3791
lou	-10.3795
some	-10.3796
80	-10.3802
▁weight	-10.3803
▁jam	-10.3817
▁26	-10.3818
dding	-10.384
bed	-10.3841
▁pleased	-10.3847
▁dollars	-10.3849
▁formed	-10.385
with	-10.3861
▁gene	-10.389
ux	-10.3895
▁pound	-10.3896
af	-10.3901
iff	-10.3914
when	-10.3915
▁guns	-10.3936
▁slow	-10.3937
looking	-10.3939
▁nurse	-10.3941
▁amount	-10.3945
▁arrange	-10.3945
▁committee	-10.3945
▁nervous	-10.3945
▁pizza	-10.3945
▁recognize	-10.3945
▁society	-10.3945
▁2008	-10.3945
▁empty	-10.3945
▁brief	-10.3945
▁evil	-10.3945
▁telephone	-10.3945
▁critic	-10.3945
▁separate	-10.3945
▁municipality	-10.3945
rah	-10.3946
▁spanish	-10.3946
▁native	-10.3946
die	-10.3946
▁operation	-10.3947
▁apparently	-10.3948
▁giant	-10.3949
▁microphone	-10.3949
▁flight	-10.395
▁nation	-10.3956
▁motion	-10.3958
▁metal	-10.3974
titude	-10.3978
yo	-10.3985
▁stranger	-10.3988
▁china	-10.3993
▁fourth	-10.3995
▁roar	-10.4006
▁toast	-10.4015
▁saved	-10.4033
▁thin	-10.4049
ably	-10.4059
ino	-10.4061
▁par	-10.4062
▁poo	-10.4064
▁100	-10.4072
▁tur	-10.4075
▁tip	-10.4078
▁bay	-10.4095
75	-10.4104
▁goin	-10.4118
▁songs	-10.412
▁prison	-10.4127
▁barn	-10.4141
▁drinking	-10.4144
▁pause	-10.4156
book	-10.4168
▁proper	-10.4179
▁lin	-10.4182
▁republic	-10.4183
0,000	-10.4184
`	-10.4188
▁caterpillar	-10.4188
▁military	-10.4188
▁thick	-10.4189
▁earlier	-10.4189
▁gentlemen	-10.4189
▁stock	-10.419
▁medal	-10.4192
▁select	-10.4193
▁angel	-10.4194
▁dirty	-10.4195
vocalizes	-10.4195
▁flow	-10.4198
▁largest	-10.42
▁published	-10.4204
▁fallen	-10.421
law	-10.4213
▁duh	-10.4217
▁total	-10.4219
fu	-10.4223
▁lara	-10.4224
▁eva	-10.4229
▁mate	-10.4231
▁noticed	-10.4238
▁gal	-10.4243
aid	-10.4244
ctor	-10.4255
▁goodness	-10.4264
ella	-10.4284
▁[2	-10.4295
cap	-10.4314
▁continue	-10.435
▁wondering	-10.4352
▁q	-10.4386
ock	-10.4389
16	-10.4392
ax	-10.4396
▁fla	-10.44
▁pool	-10.4401
▁current	-10.4422
did	-10.4431
▁author	-10.4436
▁occasion	-10.4437
▁episode	-10.4438
▁marriage	-10.4438
▁museum	-10.4438
▁private	-10.4438
▁research	-10.4438
▁opinion	-10.4438
▁photograph	-10.4438
▁dancing	-10.4439
▁arrest	-10.4439
▁tongue	-10.4439
▁pirate	-10.444
▁odd	-10.4441
▁percent	-10.4441
▁production	-10.4441
▁grace	-10.4446
▁hung	-10.4447
▁mister	-10.4449
soa	-10.4449
▁drum	-10.4449
▁gang	-10.4452
▁partner	-10.4454
▁completely	-10.4461
▁rules	-10.4463
▁ur	-10.4475
▁helped	-10.4481
▁raised	-10.4484
▁han	-10.4486
cal	-10.4497
▁cases	-10.4501
▁steps	-10.4507
▁luc	-10.4528
▁higher	-10.4547
▁chu	-10.4553
▁glance	-10.4553
▁wal	-10.4556
▁boss	-10.4572
▁plants	-10.4583
21	-10.4585
cul	-10.4586
more	-10.4601
▁terms	-10.4603
▁bend	-10.4611
▁str	-10.462
▁smart	-10.466
▁sleeping	-10.4666
▁23	-10.4673
▁players	-10.4692
▁biscuit	-10.4695
▁chicago	-10.4695
▁disease	-10.4695
▁downstairs	-10.4695
▁necessary	-10.4695
▁neither	-10.4695
▁statistics	-10.4695
▁struck	-10.4695
▁silent	-10.4695
▁bonnet	-10.4695
▁launch	-10.4695
▁actress	-10.4695
▁forgive	-10.4695
▁limit	-10.4695
▁afterwards	-10.4695
calais	-10.4696
▁2015	-10.4696
▁2010	-10.4696
ograph	-10.4697
cries	-10.4698
▁swim	-10.4699
▁quack	-10.47
▁proud	-10.4702
▁officers	-10.4707
▁nest	-10.473
▁50	-10.4734
▁grown	-10.4735
▁quietly	-10.4741
miss	-10.4766
say	-10.4773
200	-10.4789
izing	-10.4795
ura	-10.4815
▁wine	-10.4827
▁mil	-10.4828
▁rep	-10.4894
▁receive	-10.4899
▁kinda	-10.49
jes	-10.4912
▁suffer	-10.4915
▁believed	-10.4916
▁sport	-10.4918
▁release	-10.4923
gro	-10.4927
(	-10.4928
brother	-10.4931
aun	-10.4947
ever	-10.4954
▁excellent	-10.4958
▁possibly	-10.4958
▁suspect	-10.4958
▁2004	-10.4958
▁friday	-10.4958
▁contact	-10.4958
▁defend	-10.4958
▁text	-10.4958
▁buried	-10.4958
▁blind	-10.4958
▁carrot	-10.4959
▁shock	-10.4959
▁development	-10.4959
▁valley	-10.4959
▁curious	-10.496
zy	-10.4961
▁obviously	-10.4961
▁detail	-10.4962
▁boots	-10.4965
▁italy	-10.4976
▁chairman	-10.4978
▁mike	-10.498
▁chain	-10.498
40	-10.4981
▁softly	-10.4988
▁settled	-10.4994
ball	-10.4996
▁suggested	-10.4998
▁maid	-10.4998
59	-10.5004
▁prove	-10.5024
uring	-10.5028
roz	-10.5035
▁hanging	-10.5042
▁claim	-10.5046
▁eaten	-10.5052
▁kim	-10.5083
▁male	-10.5092
▁rod	-10.5098
▁mud	-10.5108
▁anti	-10.5113
▁brad	-10.5135
▁eve	-10.5146
jen	-10.5179
▁del	-10.5179
▁chase	-10.5186
mond	-10.5187
▁observ	-10.5193
music	-10.5198
good	-10.5199
▁create	-10.5216
▁cloth	-10.5221
▁express	-10.5225
▁channel	-10.5228
▁dinosaur	-10.5228
▁feature	-10.5228
▁fifteen	-10.5228
▁influence	-10.5228
▁security	-10.5228
▁colonel	-10.5228
▁pillow	-10.5228
▁pepper	-10.5228
▁temple	-10.5228
▁complain	-10.5228
▁fortune	-10.5228
▁lawyer	-10.5228
▁shore	-10.5229
▁magnet	-10.5229
▁purple	-10.5229
▁2019	-10.5229
▁species	-10.5229
▁rough	-10.5232
▁secretary	-10.5233
▁leap	-10.5233
▁european	-10.5234
have	-10.5244
▁load	-10.5247
▁perfectly	-10.5251
▁kar	-10.5253
-19	-10.5253
▁doin	-10.5259
▁tries	-10.5262
▁pitch	-10.5266
ouch	-10.5267
▁chew	-10.5274
▁larger	-10.5275
▁refer	-10.5279
▁generally	-10.5282
berry	-10.529
▁hay	-10.5291
▁smiled	-10.5292
▁matt	-10.5293
▁offered	-10.5305
▁gran	-10.5324
hou	-10.5339
run	-10.534
tory	-10.5344
bon	-10.5346
bye	-10.5346
35	-10.5348
▁dressed	-10.5351
▁gay	-10.5356
▁younger	-10.5356
▁tale	-10.5358
▁brave	-10.5383
▁lamp	-10.5385
▁begins	-10.5407
▁ray	-10.5411
▁aged	-10.5411
set	-10.5417
▁27	-10.5423
▁bart	-10.5426
west	-10.5428
⌉	-10.5432
▁salt	-10.5448
▁pray	-10.5449
ano	-10.545
▁strip	-10.5453
▁lips	-10.5474
▁sur	-10.5481
▁sudden	-10.549
vid	-10.5491
▁val	-10.5501
▁discuss	-10.5502
▁harm	-10.5503
▁comfort	-10.5504
▁champion	-10.5505
▁represent	-10.5506
ä	-10.5506
ü	-10.5506
▁advice	-10.5506
▁joseph	-10.5506
▁opposite	-10.5506
▁prevent	-10.5506
▁2003	-10.5506
▁2006	-10.5506
▁splash	-10.5506
▁supper	-10.5506
▁attract	-10.5506
▁bessie	-10.5506
▁edward	-10.5506
▁desert	-10.5507
▁mamma	-10.5507
▁transport	-10.5507
▁mount	-10.5507
▁switch	-10.5507
▁novel	-10.5508
▁zoo	-10.5508
▁leaf	-10.5508
▁shift	-10.5508
▁beep	-10.5508
▁damage	-10.5509
▁comment	-10.551
stro	-10.5513
▁rope	-10.5514
▁honour	-10.5521
▁compete	-10.5522
▁rice	-10.5523
▁retired	-10.5525
▁bike	-10.5533
▁mentioned	-10.5535
▁commander	-10.554
bility	-10.5541
▁cock	-10.5549
▁successful	-10.5553
▁wipe	-10.5556
▁string	-10.5557
ken	-10.5558
▁gray	-10.556
rick	-10.5564
▁’	-10.5575
star	-10.5582
▁yup	-10.5588
▁painting	-10.5605
▁seal	-10.5618
▁growing	-10.5621
▁chris	-10.5623
ou	-10.5624
▁grab	-10.563
morrow	-10.5657
▁wan	-10.5658
▁showing	-10.5664
▁scar	-10.5694
▁whisper	-10.5696
18	-10.5702
▁din	-10.572
▁tears	-10.5721
▁mur	-10.5742
▁suggest	-10.5745
▁landed	-10.5754
▁remark	-10.5756
▁decide	-10.5757
counter	-10.577
late	-10.5774
▁entire	-10.5775
▁normal	-10.5775
▁wha	-10.5775
▁branch	-10.5783
▁culture	-10.5792
▁electric	-10.5792
▁eleven	-10.5792
▁emperor	-10.5792
▁impossible	-10.5792
▁opportunity	-10.5792
▁sausage	-10.5792
▁strength	-10.5792
▁greek	-10.5792
▁simply	-10.5792
▁stream	-10.5792
▁whistle	-10.5792
▁doggie	-10.5792
▁pilot	-10.5792
▁gordon	-10.5792
▁average	-10.5792
▁refuse	-10.5792
▁stairs	-10.5792
▁content	-10.5792
▁creature	-10.5792
▁shook	-10.5792
▁desire	-10.5792
▁consist	-10.5793
▁brook	-10.5793
▁scout	-10.5794
▁cheap	-10.5795
▁apartment	-10.5796
▁definitely	-10.5796
▁grape	-10.5797
▁tough	-10.5799
▁sarah	-10.5799
▁guest	-10.5801
▁style	-10.5805
▁sake	-10.5809
ius	-10.5812
▁trap	-10.5825
▁shouted	-10.5832
▁joke	-10.584
▁favor	-10.5843
▁mon	-10.585
▁promised	-10.5852
▁der	-10.5854
ative	-10.5857
▁bare	-10.5859
fall	-10.5865
▁explained	-10.5869
▁net	-10.587
yard	-10.5877
▁cooking	-10.589
15	-10.5899
▁jumped	-10.5912
▁rosa	-10.5924
▁bug	-10.593
peter	-10.5931
54	-10.5935
two	-10.5961
itch	-10.5971
▁listening	-10.5999
▁hunt	-10.6006
▁heat	-10.6013
mr	-10.6042
▁gather	-10.6045
▁realize	-10.6053
&	-10.6056
phone	-10.6061
▁usual	-10.6069
▁basket	-10.6086
▁scratch	-10.6086
▁confess	-10.6086
▁equal	-10.6086
▁improve	-10.6086
▁studied	-10.6086
▁horsie	-10.6086
▁modern	-10.6086
▁request	-10.6086
▁canadian	-10.6086
▁positive	-10.6086
▁polish	-10.6086
▁rifle	-10.6086
▁shopping	-10.6086
▁measure	-10.6086
▁reveal	-10.6086
▁purdie	-10.6086
▁value	-10.6087
▁banana	-10.6087
▁curtain	-10.6087
▁utterance	-10.6087
▁grandmother	-10.6088
▁cheek	-10.6088
▁academy	-10.609
▁fool	-10.609
▁sentence	-10.6091
voc	-10.6092
▁tribe	-10.6092
▁fold	-10.6092
▁canoe	-10.6092
▁fence	-10.6095
▁dump	-10.6095
▁manager	-10.6098
▁goodbye	-10.6098
▁anywhere	-10.6099
▁sixty	-10.6101
▁uhuh	-10.6102
▁steve	-10.6104
▁cash	-10.6104
▁steal	-10.6105
▁spare	-10.6107
▁rail	-10.6108
▁managed	-10.6113
33	-10.6113
25	-10.6114
nods	-10.612
▁spoken	-10.6122
▁lamb	-10.6122
▁princess	-10.6125
▁debut	-10.6126
▁remarked	-10.613
▁justice	-10.6137
▁carefully	-10.614
▁mail	-10.6144
▁engineer	-10.6174
▁rear	-10.6175
▁bon	-10.6178
hall	-10.619
▁fixed	-10.6191
ify	-10.6193
elect	-10.6208
kar	-10.6226
▁holy	-10.6244
▁folks	-10.6258
▁yay	-10.6264
▁map	-10.6302
▁nope	-10.631
▁sum	-10.6331
▁rat	-10.6341
▁faith	-10.6342
▁fail	-10.6355
▁eric	-10.6355
86	-10.6367
town	-10.637
▁russia	-10.6375
vocalize	-10.6381
▁scott	-10.6387
66	-10.6388
▁access	-10.6389
▁evidence	-10.6389
▁magazine	-10.6389
▁passenger	-10.6389
▁understood	-10.6389
▁2009	-10.6389
▁powder	-10.6389
script	-10.6389
▁caroline	-10.6389
▁clown	-10.6389
▁crawl	-10.6389
▁stretch	-10.6389
▁federal	-10.6389
▁alarm	-10.6389
▁delay	-10.6389
▁split	-10.6389
▁latter	-10.6389
▁polly	-10.6389
▁tractor	-10.639
▁italian	-10.639
▁performance	-10.639
▁ladder	-10.6392
▁weekend	-10.6394
▁cities	-10.6395
▁buck	-10.6396
▁involved	-10.6399
▁leo	-10.64
▁wings	-10.6401
▁wo	-10.6402
▁rise	-10.6406
▁bud	-10.6407
▁motor	-10.6407
▁section	-10.6408
▁developed	-10.6412
▁robin	-10.6414
toy	-10.6417
▁produced	-10.6418
29	-10.6418
▁ned	-10.6422
▁ruin	-10.6427
▁tank	-10.6436
▁shout	-10.6444
▁jess	-10.6445
whispers	-10.6445
pin	-10.6448
▁clearly	-10.6451
▁code	-10.6454
rio	-10.6464
▁unit	-10.6467
ada	-10.6472
▁rap	-10.6473
istic	-10.6478
▁mayor	-10.6479
▁fed	-10.648
▁cute	-10.6499
mad	-10.6506
▁smaller	-10.6516
▁arab	-10.6524
▁provide	-10.6524
▁fully	-10.654
long	-10.6551
kh	-10.6603
▁chest	-10.6644
▁tru	-10.6645
worth	-10.6671
▁mix	-10.6673
bin	-10.6684
about	-10.6686
▁australia	-10.6687
▁neighbor	-10.6701
▁frightened	-10.6701
▁knife	-10.6701
▁mirror	-10.6701
▁penguin	-10.6701
▁response	-10.6701
▁revolution	-10.6701
▁stomach	-10.6701
▁sixteen	-10.6701
▁chinese	-10.6701
▁jerry	-10.6701
▁spoil	-10.6701
▁threw	-10.6701
▁witness	-10.6701
▁merry	-10.6702
▁daniel	-10.6702
▁philip	-10.6703
▁bucket	-10.6703
▁sword	-10.6704
▁towel	-10.6704
▁fancy	-10.6704
▁whiskers	-10.6704
▁garage	-10.6706
▁broad	-10.6706
▁penny	-10.6706
▁agent	-10.6708
▁firstname	-10.6712
▁stir	-10.6714
▁candle	-10.6714
▁hmm	-10.6715
▁remind	-10.6717
▁owner	-10.6729
▁copy	-10.6733
▁repeated	-10.6738
▁gain	-10.6738
non	-10.674
▁greatest	-10.6743
▁mixed	-10.6745
▁whispered	-10.6749
▁sim	-10.6754
▁ross	-10.6754
▁filled	-10.676
▁prayer	-10.6775
▁bush	-10.6782
bur	-10.6785
rum	-10.679
▁included	-10.6796
▁closer	-10.6799
▁remained	-10.6809
28	-10.681
▁prim	-10.6814
▁rome	-10.6815
▁charm	-10.6823
▁upper	-10.6844
call	-10.6872
coughs	-10.6879
mel	-10.6925
▁fishing	-10.6926
bie	-10.6937
▁disc	-10.6947
fra	-10.6954
▁boom	-10.6966
▁bou	-10.6981
▁increase	-10.6989
▁quot	-10.7002
▁instant	-10.7007
▁gentle	-10.702
▁brazil	-10.7024
▁progress	-10.7024
ā	-10.7024
▁borrow	-10.7024
▁practice	-10.7024
▁respond	-10.7024
▁treasure	-10.7024
▁2002	-10.7024
▁degree	-10.7024
▁pencil	-10.7024
▁texas	-10.7024
▁accus	-10.7024
▁ancient	-10.7024
▁freedom	-10.7024
▁balloon	-10.7024
▁surface	-10.7024
▁turtle	-10.7024
▁priest	-10.7024
▁print	-10.7024
▁defeat	-10.7024
▁photo	-10.7024
▁strike	-10.7025
▁irish	-10.7026
▁1992	-10.7026
▁authority	-10.7027
▁worst	-10.7027
▁aware	-10.7028
▁nursery	-10.7028
▁cliff	-10.7031
▁peas	-10.7034
▁training	-10.7034
▁postman	-10.7036
▁poet	-10.7039
▁bless	-10.7039
▁reply	-10.7046
▁fireman	-10.7053
▁canada	-10.7056
▁merc	-10.7058
▁utter	-10.706
▁shri	-10.7062
▁dish	-10.7065
▁shouting	-10.7068
▁failed	-10.707
ular	-10.7071
▁ruth	-10.7078
uch	-10.7084
▁locked	-10.7098
boy	-10.7103
▁dave	-10.7113
▁shin	-10.7121
▁sink	-10.716
▁waited	-10.7167
▁owe	-10.7183
▁cough	-10.7184
▁31	-10.7185
▁recording	-10.7187
▁affairs	-10.7203
eva	-10.7206
▁uk	-10.7206
▁fashion	-10.7216
▁olympics	-10.7224
▁oil	-10.7226
▁gasp	-10.7236
▁prime	-10.7243
37	-10.7261
▁surely	-10.7278
▁picking	-10.7307
▁jar	-10.7318
22	-10.7321
90	-10.7326
▁fired	-10.7333
stitute	-10.7357
è	-10.7357
▁confirm	-10.7357
▁exercise	-10.7357
▁individual	-10.7357
▁instrument	-10.7357
▁majesty	-10.7357
▁peanut	-10.7357
▁bubble	-10.7357
▁circumstance	-10.7357
▁congress	-10.7357
▁beauty	-10.7357
▁butterfly	-10.7357
▁chemical	-10.7357
▁deserve	-10.7357
▁matthew	-10.7357
▁session	-10.7357
▁disturb	-10.7357
▁steady	-10.7357
▁method	-10.7357
▁soviet	-10.7357
▁eighteen	-10.7357
▁proceed	-10.7357
▁source	-10.7357
filler	-10.7357
▁credit	-10.7357
▁jelly	-10.7358
▁screen	-10.7358
▁plot	-10.7358
year	-10.7358
▁peggy	-10.7358
▁boston	-10.7358
▁worship	-10.7358
▁sauce	-10.7358
▁narrow	-10.7359
▁achieve	-10.7359
▁awake	-10.736
▁stole	-10.736
posta	-10.7361
▁wander	-10.7362
▁powerful	-10.7362
▁examine	-10.7363
▁jones	-10.7364
▁buzz	-10.7364
▁duke	-10.7366
▁comic	-10.7368
▁secure	-10.737
stand	-10.7373
▁staff	-10.7376
▁african	-10.7382
▁trial	-10.7385
▁particularly	-10.7386
▁removed	-10.7389
▁upset	-10.7393
▁sale	-10.7395
▁iii	-10.7401
▁hunting	-10.7405
▁nana	-10.7408
▁etc	-10.7411
▁wedding	-10.7415
▁gaze	-10.7416
▁scare	-10.7423
▁verse	-10.7435
▁hearing	-10.7446
▁pal	-10.7452
tell	-10.7477
19	-10.7489
▁pale	-10.7493
bury	-10.7499
▁nap	-10.7503
▁troops	-10.7507
pol	-10.7523
▁span	-10.7528
▁pulling	-10.754
▁tam	-10.7543
▁bomba	-10.7549
▁woo	-10.7549
▁dash	-10.7557
▁grandpa	-10.7581
boo	-10.7593
ré	-10.76
▁gee	-10.7606
▁disco	-10.7627
▁ordered	-10.7643
ural	-10.7685
▁victor	-10.7686
▁guitar	-10.77
▁advantage	-10.7702
▁campaign	-10.7702
▁feather	-10.7702
▁hockey	-10.7702
▁newspaper	-10.7702
▁squirrel	-10.7702
▁structure	-10.7702
▁switzerland	-10.7702
▁underneath	-10.7702
▁1970	-10.7702
▁cruel	-10.7702
▁parliament	-10.7702
▁reaction	-10.7702
▁ahhah	-10.7702
▁biggest	-10.7702
▁weapon	-10.7702
▁elected	-10.7702
▁presence	-10.7702
▁arthur	-10.7702
▁greet	-10.7702
▁gently	-10.7702
▁turkey	-10.7703
▁inspect	-10.7703
▁grandfather	-10.7703
▁sweat	-10.7703
▁rattle	-10.7705
▁chuck	-10.7705
▁toilet	-10.7708
▁crane	-10.7708
▁alien	-10.7708
▁alex	-10.771
▁~	-10.771
▁losing	-10.7711
▁stayed	-10.7716
▁invited	-10.7718
▁crown	-10.772
▁highest	-10.7725
▁properly	-10.7726
stone	-10.7727
▁arrow	-10.7729
▁lucy	-10.7731
▁alter	-10.7735
▁pitcher	-10.7736
▁brand	-10.7738
last	-10.7757
▁sweetie	-10.7758
▁ee	-10.7763
uz	-10.7764
▁eighty	-10.7801
▁presently	-10.7804
82	-10.7805
▁washing	-10.7823
round	-10.7825
▁dada	-10.7826
▁wire	-10.7828
▁friendly	-10.7856
pur	-10.7865
▁qui	-10.787
▁rode	-10.7891
▁paying	-10.795
▁listened	-10.7961
▁vol	-10.7977
▁describe	-10.8024
walk	-10.8032
ttle	-10.8032
draw	-10.8033
▁mag	-10.8055
▁product	-10.8056
▁execut	-10.8058
▁birth	-10.8059
vocalization	-10.8059
▁assembly	-10.8059
▁available	-10.8059
▁competition	-10.8059
▁economic	-10.8059
▁headquarter	-10.8059
▁restaurant	-10.8059
▁temperature	-10.8059
▁citizen	-10.8059
▁servant	-10.8059
▁studio	-10.8059
▁amazing	-10.8059
▁article	-10.8059
▁snack	-10.8059
▁plastic	-10.8059
▁squash	-10.8059
▁internet	-10.8059
▁dutch	-10.806
▁occurred	-10.806
▁shelter	-10.806
▁israel	-10.806
▁graduat	-10.806
▁savage	-10.806
▁thunder	-10.806
▁meanwhile	-10.8061
▁attach	-10.8062
▁airport	-10.8063
▁ellie	-10.8063
▁planning	-10.8063
▁spite	-10.8065
▁cub	-10.8065
▁hook	-10.8065
——	-10.8067
▁pony	-10.8067
▁ninety	-10.8067
▁alice	-10.8069
▁household	-10.8069
▁tender	-10.807
▁chosen	-10.8071
▁pants	-10.8073
▁jacket	-10.8074
▁setting	-10.8077
▁burst	-10.8079
▁entirely	-10.808
▁currently	-10.8083
▁established	-10.8084
▁woke	-10.8086
▁directly	-10.8088
▁skill	-10.8096
▁settle	-10.8102
▁brig	-10.8103
▁mainly	-10.8115
fect	-10.8116
▁observed	-10.8116
rog	-10.812
▁shower	-10.8121
bout	-10.8136
▁riding	-10.8149
▁pile	-10.8167
▁bond	-10.8168
▁nearer	-10.8171
▁whale	-10.8177
▁spy	-10.8198
▁forced	-10.8201
▁rolled	-10.8203
▁signed	-10.821
▁musical	-10.8213
▁soup	-10.8226
▁quit	-10.823
▁chan	-10.8242
▁pushed	-10.8258
tti	-10.8283
your	-10.8284
▁pee	-10.8323
verse	-10.8342
▁mustn	-10.8344
▁rais	-10.8353
▁goat	-10.8367
▁earl	-10.8372
▁referr	-10.838
▁produce	-10.8382
▁lou	-10.8385
▁repeat	-10.8387
▁wound	-10.8387
lock	-10.8388
bird	-10.8403
▁40	-10.8412
▁greatly	-10.8415
▁batter	-10.8419
▁potato	-10.8421
▁arrival	-10.843
▁circus	-10.843
▁companies	-10.843
▁energy	-10.843
▁florence	-10.843
▁icecream	-10.843
▁pakistan	-10.843
▁tournament	-10.843
▁austria	-10.843
▁neighbour	-10.843
▁policy	-10.843
▁slept	-10.843
▁smooth	-10.843
▁2001	-10.843
▁courage	-10.843
▁hurried	-10.843
▁material	-10.843
▁supply	-10.843
▁fifth	-10.843
▁document	-10.843
▁ocean	-10.843
▁bodies	-10.843
▁mummie	-10.843
▁protest	-10.843
▁rescue	-10.843
▁habit	-10.843
▁adopt	-10.843
▁palace	-10.843
▁medical	-10.843
▁nerve	-10.843
▁detective	-10.8431
▁railway	-10.8431
▁hammer	-10.8432
▁latin	-10.8432
▁ireland	-10.8433
▁comfortable	-10.8433
▁covid	-10.8433
▁remove	-10.8434
venue	-10.8436
▁bruce	-10.8437
▁steam	-10.8437
▁cabin	-10.8437
▁2000	-10.8438
▁darkness	-10.844
▁shame	-10.8443
▁stepp	-10.8443
▁craft	-10.8444
▁glu	-10.8447
▁pooh	-10.8449
▁glasses	-10.8449
▁victory	-10.845
▁whenever	-10.8451
▁frame	-10.8453
▁rent	-10.8459
▁customer	-10.8462
▁marry	-10.8465
pointing	-10.8482
▁sew	-10.849
▁link	-10.8492
▁tele	-10.8501
itive	-10.8504
▁drove	-10.8518
▁media	-10.8526
▁expecting	-10.8538
▁legal	-10.8583
▁jumping	-10.8583
▁carrying	-10.8586
▁radi	-10.8595
▁acting	-10.8612
gate	-10.8613
▁clap	-10.8648
▁belt	-10.8678
▁pok	-10.8679
lau	-10.8719
wan	-10.8748
▁destroy	-10.8771
án	-10.8776
▁sticker	-10.8797
fish	-10.8806
▁admit	-10.8812
arrow	-10.8813
▁benefit	-10.8814
▁distribute	-10.8814
▁fortunate	-10.8814
▁industry	-10.8814
▁squeeze	-10.8814
▁carriage	-10.8814
▁universe	-10.8814
▁earnest	-10.8814
▁sweetheart	-10.8814
▁hidden	-10.8814
▁widow	-10.8814
▁occupied	-10.8814
▁focus	-10.8814
▁organization	-10.8814
▁afford	-10.8814
▁strawberry	-10.8815
▁click	-10.8815
▁representative	-10.8815
▁basketball	-10.8815
▁2023	-10.8815
▁prefer	-10.8816
footnote	-10.8816
▁wagon	-10.8817
▁management	-10.8817
▁witch	-10.8817
▁display	-10.8818
▁jeff	-10.8818
▁grey	-10.8819
▁grandad	-10.882
▁elder	-10.8821
▁passage	-10.8822
▁warren	-10.8822
▁fever	-10.8822
▁manage	-10.8823
▁warning	-10.8824
▁weird	-10.8825
▁recently	-10.8826
▁straw	-10.883
▁determined	-10.883
▁nearest	-10.8832
▁related	-10.8836
▁trace	-10.8839
▁baba	-10.884
▁beans	-10.884
▁parish	-10.8843
▁nail	-10.8844
▁saving	-10.8845
▁performed	-10.8851
▁disappeared	-10.8856
▁owl	-10.886
▁0	-10.8861
▁pipe	-10.8865
rou	-10.8866
bob	-10.8869
▁gathered	-10.8871
▁chat	-10.8872
▁fairy	-10.8874
▁soldier	-10.8896
door	-10.89
five	-10.8905
▁thrown	-10.8907
under	-10.8907
▁tap	-10.8908
hoo	-10.8915
▁pole	-10.892
▁lil	-10.8924
▁sooner	-10.8967
▁sar	-10.8975
▁sara	-10.9007
▁blo	-10.9037
bell	-10.9047
▁hur	-10.9056
▁shar	-10.9059
▁jan	-10.9085
whine	-10.9098
▁ker	-10.9103
▁chang	-10.9111
▁urge	-10.9125
cut	-10.9146
▁limb	-10.9171
▁disappear	-10.9171
silence	-10.9185
▁file	-10.9187
▁shan	-10.9188
down	-10.9191
▁origin	-10.9205
overlap	-10.9212
▁inform	-10.9213
▁centuries	-10.9214
▁conference	-10.9214
▁elizabeth	-10.9214
▁excitement	-10.9214
▁spaghetti	-10.9214
▁territory	-10.9214
▁tunnel	-10.9214
▁1950	-10.9214
▁alexander	-10.9214
▁gloves	-10.9214
▁nicole	-10.9214
▁scarcely	-10.9214
▁dragon	-10.9214
▁meadow	-10.9214
▁explore	-10.9214
▁shadow	-10.9214
▁contract	-10.9214
▁eagle	-10.9214
▁terror	-10.9214
▁devil	-10.9214
▁expert	-10.9214
▁insect	-10.9214
▁barrel	-10.9214
▁foreign	-10.9215
▁oven	-10.9215
▁plum	-10.9215
▁loose	-10.9215
▁dragg	-10.9216
▁byebye	-10.9216
▁ticket	-10.9216
▁kidding	-10.9216
▁festival	-10.9217
▁fond	-10.9217
▁trunk	-10.9217
saxon	-10.9218
▁property	-10.9218
▁illustrations	-10.9218
▁zip	-10.9218
▁dawn	-10.9218
▁guide	-10.9218
▁flame	-10.9222
▁winner	-10.9223
▁extremely	-10.9223
▁safety	-10.9224
▁assum	-10.9225
▁rapidly	-10.9227
▁invent	-10.9227
▁keen	-10.9228
▁ballet	-10.924
▁blame	-10.9244
look	-10.9251
▁rug	-10.9259
cast	-10.9264
▁var	-10.9266
▁fairly	-10.927
▁ox	-10.927
▁shining	-10.9272
95	-10.9272
▁wore	-10.9275
▁mission	-10.9281
87	-10.9286
▁fate	-10.9305
▁recorder	-10.9306
count	-10.9311
▁seeds	-10.9319
55	-10.9324
var	-10.9333
▁burning	-10.9342
▁oop	-10.9362
▁rolling	-10.9372
▁height	-10.9389
talk	-10.9394
▁wil	-10.9427
rrie	-10.9458
▁tar	-10.95
▁187	-10.9506
vol	-10.9541
giggles	-10.9545
▁organ	-10.9586
known	-10.96
which	-10.9601
mhm	-10.9605
▁mention	-10.9609
▁eager	-10.9614
▁actual	-10.9615
▁korea	-10.9617
42	-10.9619
making	-10.9625
▁egypt	-10.9628
▁brilliant	-10.9631
▁despite	-10.9631
▁easier	-10.9631
▁expensive	-10.9631
▁florida	-10.9631
▁giraffe	-10.9631
▁mistress	-10.9631
▁participat	-10.9631
▁review	-10.9631
▁francis	-10.9631
▁puppy	-10.9631
▁triumph	-10.9631
▁composed	-10.9631
▁consult	-10.9631
▁temper	-10.9631
▁belief	-10.9631
▁affect	-10.9631
▁stroke	-10.9631
▁avoid	-10.9631
▁broadcast	-10.9631
▁profit	-10.9631
▁transfer	-10.9632
▁relative	-10.9632
▁constitution	-10.9632
▁emotion	-10.9632
▁becky	-10.9632
▁piano	-10.9632
▁backwards	-10.9632
▁yummy	-10.9633
▁solid	-10.9633
▁harold	-10.9633
▁1999	-10.9634
▁salad	-10.9634
▁armenia	-10.9634
▁peak	-10.9635
▁slice	-10.9635
▁stern	-10.9635
▁beads	-10.9637
▁breed	-10.9638
▁auto	-10.964
▁dishes	-10.9644
▁throughout	-10.9644
▁standard	-10.9645
▁brian	-10.9647
▁compare	-10.9649
▁bunch	-10.965
▁julie	-10.965
▁chap	-10.9652
▁engaged	-10.966
63	-10.9662
▁wounded	-10.968
▁wooden	-10.9681
▁gained	-10.9689
▁paused	-10.9692
▁virginia	-10.9692
▁yell	-10.9693
▁forever	-10.9703
▁flip	-10.9703
▁upside	-10.9723
▁knocked	-10.9732
▁peep	-10.9735
▁noble	-10.9745
fire	-10.9757
▁comedy	-10.9761
ook	-10.9775
▁tear	-10.9779
▁sno	-10.9779
▁reaching	-10.9792
▁hasta	-10.9793
pher	-10.9802
▁wor	-10.9827
38	-10.9845
lves	-10.9855
shouts	-10.987
▁clip	-10.9916
▁rag	-10.9923
oid	-10.9928
lop	-10.9932
▁chop	-10.9979
▁blu	-10.9982
23	-11.0017
▁crow	-11.0022
▁demand	-11.0023
perhaps	-11.0036
▁descend	-11.0051
}	-11.0066
▁audience	-11.0066
▁corporation	-11.0066
▁cricket	-11.0066
▁desperate	-11.0066
▁entrance	-11.0066
▁hurricane	-11.0066
▁ordinary	-11.0066
▁peekaboo	-11.0066
▁principal	-11.0066
▁resident	-11.0066
▁satisfied	-11.0066
▁sydney	-11.0066
▁tuesday	-11.0066
▁vehicle	-11.0066
▁wednesday	-11.0066
▁zzz	-11.0066
▁1994	-11.0066
▁1998	-11.0066
▁climate	-11.0066
▁nineteen	-11.0066
▁swallow	-11.0066
▁barbara	-11.0066
▁commission	-11.0066
▁zealand	-11.0066
▁otherwise	-11.0066
▁vacation	-11.0066
▁glory	-11.0066
▁kitten	-11.0066
▁reckon	-11.0066
▁crisp	-11.0066
▁false	-11.0066
▁particle	-11.0066
▁punch	-11.0066
▁resign	-11.0066
▁network	-11.0066
▁racing	-11.0067
most	-11.0067
▁susan	-11.0067
▁construction	-11.0067
▁obtain	-11.0067
▁plus	-11.0067
▁recover	-11.0067
▁advise	-11.0068
▁severe	-11.0068
▁legend	-11.0069
▁agency	-11.0069
▁seized	-11.007
▁cents	-11.007
▁walter	-11.0071
▁dunno	-11.0073
▁faint	-11.0074
▁tommy	-11.0075
after	-11.0079
father	-11.008
▁unlike	-11.008
▁neat	-11.008
▁lisa	-11.0081
▁cutting	-11.0081
▁label	-11.0082
▁seventy	-11.0082
▁steel	-11.0085
▁succeeded	-11.0086
▁oak	-11.0088
tail	-11.0089
▁statement	-11.009
▁tune	-11.0091
▁stable	-11.0092
▁required	-11.0092
▁connected	-11.0094
▁barb	-11.0104
▁concerned	-11.0105
▁sailor	-11.0105
▁kisses	-11.0106
▁tickle	-11.0109
▁chess	-11.011
▁originally	-11.0111
▁pul	-11.0119
▁somehow	-11.0126
▁faithful	-11.0134
▁drawn	-11.0135
▁2020)	-11.0136
▁suffered	-11.0138
▁sally	-11.0144
▁lor	-11.0154
▁shooting	-11.0159
▁faster	-11.016
▁somewhat	-11.0171
▁peg	-11.0173
▁boxes	-11.0183
▁killing	-11.0191
▁coal	-11.02
▁flo	-11.0204
bol	-11.0218
▁mia	-11.0236
▁counter	-11.0262
▁gla	-11.03
▁coin	-11.0301
▁provid	-11.0322
▁whip	-11.0386
▁shh	-11.0392
▁mile	-11.0418
▁mood	-11.0434
utter	-11.0444
▁introduce	-11.0449
▁continu	-11.0449
ability	-11.0466
▁perform	-11.0476
mouth	-11.049
99	-11.0509
ological	-11.0515
▁whisk	-11.0518
▁detect	-11.052
ú	-11.052
▁continent	-11.052
š	-11.052
▁accompani	-11.052
▁acquaintance	-11.052
▁confident	-11.052
▁embarrass	-11.052
▁experiment	-11.052
▁familiar	-11.052
▁illinois	-11.052
▁library	-11.052
▁mexico	-11.052
▁responsible	-11.052
▁scotland	-11.052
▁thirteen	-11.052
▁tissue	-11.052
▁traffic	-11.052
▁quality	-11.052
▁scholar	-11.052
▁volume	-11.052
▁deputy	-11.052
▁replaced	-11.052
▁survey	-11.052
▁lonely	-11.052
▁pattern	-11.052
▁retreat	-11.052
▁slipped	-11.052
▁destin	-11.052
▁anchor	-11.052
▁emergency	-11.0521
▁eddie	-11.0521
▁nepal	-11.0521
▁relationship	-11.0521
▁piggy	-11.0521
▁fetch	-11.0521
▁addition	-11.0521
▁britain	-11.0521
▁feast	-11.0522
▁shove	-11.0522
▁maintain	-11.0522
▁task	-11.0522
▁fought	-11.0522
▁wilson	-11.0523
▁foolish	-11.0523
▁patsy	-11.0523
▁donald	-11.0524
▁danny	-11.0525
▁draft	-11.0525
▁scale	-11.0525
▁thread	-11.0525
▁winnie	-11.0525
▁winning	-11.0526
▁(201	-11.0527
▁flour	-11.0528
▁fuel	-11.0528
▁woof	-11.0529
▁handsome	-11.0531
▁isabel	-11.0532
▁tramp	-11.0535
▁madame	-11.0536
▁billion	-11.0538
▁useful	-11.0538
▁chips	-11.0539
▁tuck	-11.0545
▁doggy	-11.0551
▁anyhow	-11.0553
▁worm	-11.0556
groans	-11.0562
▁dreadful	-11.0571
▁fuss	-11.058
▁blessing	-11.0581
▁hunter	-11.0582
▁chick	-11.0594
▁andrew	-11.0595
▁hip	-11.0601
▁footballer	-11.0627
▁nina	-11.0636
uzz	-11.0639
▁drawer	-11.0641
▁soap	-11.0648
▁bern	-11.0649
hara	-11.0655
▁cab	-11.0657
▁fc	-11.0661
▁rocky	-11.0674
rich	-11.0685
▁programme	-11.0703
wick	-11.0736
▁pear	-11.075
cie	-11.0753
▁cass	-11.0779
minated	-11.0825
▁ron	-11.0827
▁curl	-11.0896
▁bib	-11.0898
udge	-11.0925
▁concern	-11.0953
hmm	-11.097
▁kha	-11.0973
because	-11.0993
ologist	-11.0995
pronounce	-11.0996
▁$1	-11.0996
▁anthony	-11.0996
▁communication	-11.0996
▁convince	-11.0996
▁distinct	-11.0996
▁exciting	-11.0996
▁families	-11.0996
▁horror	-11.0996
▁incident	-11.0996
▁lincoln	-11.0996
▁sergeant	-11.0996
▁splendid	-11.0996
▁unusual	-11.0996
▁ghost	-11.0996
▁jealous	-11.0996
▁jeannine	-11.0996
▁squeak	-11.0996
▁survive	-11.0996
▁violent	-11.0996
cultural	-11.0996
▁2005	-11.0996
▁nucle	-11.0996
▁sneak	-11.0996
▁congratulations	-11.0996
▁jungle	-11.0996
▁flood	-11.0997
▁injured	-11.0997
▁studies	-11.0997
▁daisy	-11.0997
▁senate	-11.0997
▁cartoon	-11.0997
▁nodded	-11.0997
▁reef	-11.0997
▁wrapp	-11.0997
▁target	-11.0997
▁neighborhood	-11.0997
▁carpet	-11.0997
▁regret	-11.0997
▁molly	-11.0997
▁budget	-11.0997
▁aircraft	-11.0997
▁plea	-11.0998
▁creek	-11.0998
▁grasp	-11.0998
▁swear	-11.0999
▁vocalises	-11.0999
▁1984	-11.0999
▁dying	-11.1
▁settlement	-11.1
borough	-11.1
▁chose	-11.1001
▁reduce	-11.1004
▁treatment	-11.1004
▁exam	-11.1005
▁knight	-11.1005
▁proof	-11.1007
▁knot	-11.1008
ón	-11.1008
▁portion	-11.101
ization	-11.1014
▁jail	-11.1014
▁auntie	-11.1016
▁jackson	-11.1018
▁matches	-11.102
▁battery	-11.1021
▁captured	-11.1027
▁totally	-11.1038
▁described	-11.1044
▁demanded	-11.1044
▁grade	-11.1046
▁sex	-11.105
▁destroyed	-11.1051
▁realized	-11.1061
▁proved	-11.1062
▁bloody	-11.1064
nina	-11.1065
▁bitter	-11.1065
▁ranger	-11.107
▁patch	-11.1072
mail	-11.1075
▁von	-11.1076
▁data	-11.108
▁cries	-11.109
stein	-11.1104
▁democrati	-11.1107
▁lest	-11.1156
make	-11.117
▁parent	-11.119
omed	-11.124
dress	-11.1261
▁cheerful	-11.1273
500	-11.1297
franc	-11.1301
▁speaker	-11.1328
▁bake	-11.1359
92	-11.1375
▁maria	-11.1376
▁claus	-11.1399
▁palm	-11.1419
body	-11.1428
▁engage	-11.1461
▁retire	-11.1462
▁arrive	-11.1462
would	-11.1467
voice	-11.147
▁tick	-11.1478
▁punish	-11.1494
||0||	-11.1496
à	-11.1496
▁activity	-11.1496
▁apologize	-11.1496
▁appreciate	-11.1496
▁assistant	-11.1496
▁carolina	-11.1496
▁challenge	-11.1496
▁convention	-11.1496
▁delicious	-11.1496
▁enemies	-11.1496
▁expedition	-11.1496
▁fantastic	-11.1496
▁happiness	-11.1496
▁helicopter	-11.1496
▁historical	-11.1496
▁impressed	-11.1496
▁independence	-11.1496
▁jigsaw	-11.1496
▁jonathan	-11.1496
▁mexican	-11.1496
▁physical	-11.1496
▁practical	-11.1496
▁provision	-11.1496
▁reception	-11.1496
▁senator	-11.1496
▁sorrow	-11.1496
▁specific	-11.1496
▁symbol	-11.1496
▁unfortunate	-11.1496
▁variety	-11.1496
▁muttered	-11.1496
▁reflect	-11.1496
▁seventeen	-11.1496
▁thumb	-11.1496
▁divided	-11.1496
▁thirst	-11.1496
▁tummy	-11.1496
▁chamber	-11.1496
▁gimme	-11.1496
▁location	-11.1497
▁peach	-11.1497
▁cereal	-11.1497
▁extend	-11.1497
▁concert	-11.1497
grunts	-11.1497
▁pumpkin	-11.1497
▁organized	-11.1497
tropical	-11.1497
▁generation	-11.1497
▁goddess	-11.1497
▁labor	-11.1498
▁dried	-11.1498
▁betray	-11.1498
manchester	-11.1498
▁punishment	-11.1499
▁albert	-11.1503
▁1980	-11.1503
▁planned	-11.1503
▁fleet	-11.1503
▁starring	-11.1503
▁daily	-11.1503
▁mental	-11.1506
▁purse	-11.1508
▁couch	-11.1508
▁karen	-11.1513
▁korean	-11.1514
▁kong	-11.1514
▁angeles	-11.1515
▁louise	-11.1517
▁spec	-11.1517
▁useless	-11.1519
▁australian	-11.152
▁johnson	-11.1521
ttering	-11.1522
▁producer	-11.1524
▁normally	-11.1526
▁idol	-11.1529
never	-11.154
▁cannon	-11.1545
▁parties	-11.1546
▁kate	-11.1549
▁increased	-11.1552
▁ouch	-11.1561
ggy	-11.1571
▁flush	-11.158
▁hail	-11.1585
▁plug	-11.1587
▁amos	-11.1588
▁annie	-11.159
▁wool	-11.1595
▁pity	-11.1612
▁skip	-11.1618
▁mau	-11.1618
▁float	-11.1641
hush	-11.1641
hop	-11.1645
elli	-11.1648
▁shy	-11.165
▁popp	-11.166
▁mou	-11.1661
scot	-11.1695
▁olympic	-11.1701
▁dollar	-11.1727
▁sang	-11.173
▁paw	-11.1732
▁baker	-11.1754
84	-11.1771
▁pine	-11.1776
western	-11.1802
▁baron	-11.1886
▁60	-11.1959
▁custom	-11.1976
ripped	-11.1978
piece	-11.1993
girl	-11.1993
foot	-11.1994
speak	-11.1997
▁rapid	-11.201
boat	-11.2011
▁altogether	-11.2023
▁ambulance	-11.2023
▁appointed	-11.2023
▁architect	-11.2023
▁catholic	-11.2023
▁charlotte	-11.2023
▁despair	-11.2023
▁eventually	-11.2023
▁geography	-11.2023
▁interview	-11.2023
▁license	-11.2023
▁literature	-11.2023
▁nephew	-11.2023
▁religion	-11.2023
▁sufficient	-11.2023
▁thursday	-11.2023
▁uniform	-11.2023
▁valuable	-11.2023
ô	-11.2023
▁1985	-11.2023
▁1993	-11.2023
▁1996	-11.2023
▁function	-11.2023
▁junior	-11.2023
▁picnic	-11.2023
▁1960	-11.2023
▁heavily	-11.2023
▁preparation	-11.2023
▁device	-11.2023
▁disaster	-11.2023
▁labour	-11.2023
▁sexual	-11.2023
▁suprem	-11.2023
▁swedish	-11.2023
▁slightly	-11.2023
▁client	-11.2023
▁admire	-11.2023
▁scatter	-11.2023
▁basic	-11.2023
▁lewis	-11.2023
▁conquer	-11.2023
▁interfere	-11.2023
▁distant	-11.2023
▁permit	-11.2023
▁pierre	-11.2023
▁queer	-11.2023
▁exchange	-11.2023
▁oxford	-11.2023
▁ashamed	-11.2024
instruct	-11.2024
▁baseball	-11.2024
▁pursue	-11.2024
▁outfit	-11.2024
▁hawk	-11.2025
▁executive	-11.2025
▁connection	-11.2026
▁lodge	-11.2027
▁responsibility	-11.2027
▁clark	-11.2028
▁bullet	-11.2028
▁package	-11.2028
▁indicate	-11.2028
▁farther	-11.2029
▁effective	-11.2029
▁suggestion	-11.203
▁oliver	-11.2031
▁airline	-11.2032
▁collection	-11.2033
▁consideration	-11.2033
▁shark	-11.2033
▁merely	-11.2033
▁honk	-11.2034
▁beast	-11.2037
▁jenny	-11.2041
▁rocket	-11.2041
▁lend	-11.2042
▁highway	-11.2042
▁poem	-11.2045
▁yeh	-11.2047
▁(18	-11.2049
▁instantly	-11.2051
▁whoever	-11.2051
▁truly	-11.2052
▁minor	-11.2055
▁wales	-11.2056
▁helpful	-11.2057
▁mask	-11.2059
▁helpless	-11.2062
▁naturally	-11.207
▁useta	-11.2073
▁lemm	-11.2079
▁raise	-11.2104
▁lack	-11.2104
▁cage	-11.2105
▁lane	-11.211
▁jon	-11.2115
hear	-11.2121
▁steer	-11.2124
▁killer	-11.2136
▁considerabl	-11.2146
▁builder	-11.2181
▁jaw	-11.2192
▁pickle	-11.2196
▁georgia	-11.2197
▁sav	-11.2255
▁folk	-11.2257
▁creat	-11.2332
cumb	-11.2335
▁remi	-11.2337
moves	-11.2353
shakes	-11.2367
▁whee	-11.2508
▁develop	-11.2533
▁dread	-11.2536
▁capture	-11.2543
member	-11.2543
▁fro	-11.2546
continues	-11.2548
*	-11.2548
sound	-11.2555
▁neu	-11.2563
▁environment	-11.257
▁tomato	-11.2571
▁administration	-11.2578
▁appeal	-11.2578
▁appointment	-11.2578
▁colleague	-11.2578
▁conflict	-11.2578
▁contribut	-11.2578
▁encourage	-11.2578
▁evidently	-11.2578
▁intelligence	-11.2578
▁journal	-11.2578
▁mcdonald	-11.2578
▁minnesota	-11.2578
▁pregnant	-11.2578
▁proposal	-11.2578
▁sacrifice	-11.2578
▁strawberries	-11.2578
▁surrounded	-11.2578
▁wrestling	-11.2578
▁bleeding	-11.2578
▁guilty	-11.2578
▁memorial	-11.2578
▁mickey	-11.2578
▁precious	-11.2578
▁1972	-11.2578
▁1989	-11.2578
▁abandon	-11.2578
▁criminal	-11.2578
▁diamond	-11.2578
▁proposed	-11.2578
▁regiment	-11.2578
▁defence	-11.2578
▁senior	-11.2578
▁beneath	-11.2578
▁closing	-11.2578
▁madison	-11.2578
▁rachel	-11.2578
▁relax	-11.2578
▁jimmie	-11.2578
▁voyage	-11.2578
▁relieve	-11.2578
▁pride	-11.2578
▁warrior	-11.2578
▁larry	-11.2578
▁kelly	-11.2579
▁berlin	-11.2579
▁euro	-11.2579
▁threatened	-11.2579
▁crystal	-11.2579
▁smash	-11.2579
▁talent	-11.2579
▁beetle	-11.2579
▁wendy	-11.258
▁eliminate	-11.258
▁wages	-11.258
▁skipper	-11.258
▁occasionally	-11.2581
▁squad	-11.2581
▁route	-11.2581
▁jenn	-11.2583
▁lorry	-11.2583
▁unknown	-11.2583
▁copper	-11.2583
▁glen	-11.2584
▁balance	-11.2584
▁hermit	-11.2584
▁mansion	-11.2585
▁discussion	-11.2586
▁environmental	-11.2587
▁guardian	-11.2587
▁drunk	-11.2588
▁flock	-11.2588
▁recent	-11.259
▁missile	-11.2591
▁bacon	-11.2591
▁potatoes	-11.2592
▁theatre	-11.2592
▁jake	-11.2593
▁johnny	-11.2594
▁branches	-11.2596
▁hindu	-11.2596
▁enable	-11.26
▁sandwiches	-11.2601
▁rude	-11.2601
▁hollow	-11.2604
▁stack	-11.2607
▁reward	-11.2609
▁gina	-11.2611
▁mercy	-11.2612
▁ease	-11.2613
▁mistaken	-11.2616
▁lois	-11.2623
▁scary	-11.2631
▁sack	-11.2635
▁rip	-11.2654
▁introduc	-11.2667
▁traditional	-11.2685
rug	-11.2691
▁tube	-11.2844
▁affair	-11.2845
▁painful	-11.2857
keeper	-11.2865
▁hatch	-11.288
mmed	-11.2886
tree	-11.2962
self	-11.3012
ndra	-11.3072
▁multi	-11.3082
▁require	-11.3131
reaches	-11.3136
pretend	-11.3136
‘	-11.3136
crying	-11.3138
pull	-11.3138
from	-11.3138
▁declare	-11.3143
little	-11.3144
ó	-11.3152
▁madam	-11.3158
▁occup	-11.3166
appropriate	-11.3167
â	-11.3167
ø	-11.3167
▁accomplish	-11.3167
▁application	-11.3167
▁argument	-11.3167
▁associate	-11.3167
▁christopher	-11.3167
▁confused	-11.3167
▁cushion	-11.3167
▁description	-11.3167
▁dorothy	-11.3167
▁douglas	-11.3167
▁equipment	-11.3167
▁hamilton	-11.3167
▁massachusetts	-11.3167
▁monsieur	-11.3167
▁religious	-11.3167
▁sylvia	-11.3167
▁terribly	-11.3167
▁tremendous	-11.3167
▁universal	-11.3167
▁1956	-11.3167
▁1988	-11.3167
▁1991	-11.3167
▁convict	-11.3167
▁fiction	-11.3167
▁relief	-11.3167
▁sunshine	-11.3167
▁trousers	-11.3167
▁1967	-11.3167
▁1976	-11.3167
▁incredibl	-11.3167
▁leather	-11.3167
▁miserable	-11.3167
▁solemn	-11.3167
▁wheat	-11.3167
▁twist	-11.3167
▁stephen	-11.3167
▁thrill	-11.3167
▁ceased	-11.3167
▁cherry	-11.3167
▁inquired	-11.3167
▁smack	-11.3167
▁screw	-11.3167
▁sweden	-11.3167
▁accur	-11.3167
▁zoe	-11.3167
▁duties	-11.3167
▁wolves	-11.3167
▁reform	-11.3167
▁scrub	-11.3167
▁stove	-11.3167
▁creep	-11.3167
▁stopping	-11.3167
▁drift	-11.3167
▁genius	-11.3167
▁cruis	-11.3167
▁dominic	-11.3167
▁begun	-11.3168
▁basically	-11.3168
▁spill	-11.3168
▁michel	-11.3168
▁gym	-11.3168
▁wealth	-11.3168
▁root	-11.3168
▁midnight	-11.3168
▁failure	-11.3169
▁vision	-11.3169
▁goose	-11.3169
▁morgan	-11.317
▁timber	-11.317
▁burden	-11.317
▁earned	-11.3171
▁tamil	-11.3173
▁romantic	-11.3173
▁jessie	-11.3174
▁frequently	-11.3175
▁alongside	-11.3176
▁boring	-11.3177
▁glow	-11.3177
▁flesh	-11.3178
▁flies	-11.3178
▁active	-11.3178
water	-11.3179
▁leak	-11.318
▁jason	-11.3181
▁poland	-11.3183
▁stamp	-11.3184
▁bushes	-11.3184
▁policeman	-11.3187
▁decent	-11.319
▁eagerly	-11.3191
▁musician	-11.3192
▁payment	-11.3193
▁passion	-11.3194
umbling	-11.3197
▁raid	-11.32
▁inclin	-11.3201
whining	-11.3204
sail	-11.3205
▁crop	-11.3206
▁pace	-11.3211
▁boil	-11.3214
▁chatter	-11.3225
ulous	-11.3246
tumble	-11.3272
▁organis	-11.3286
▁struggle	-11.3385
▁peel	-11.3389
▁squeal	-11.3417
point	-11.3436
▁babe	-11.3468
▁brass	-11.3471
position	-11.3475
pple	-11.3519
▁45	-11.3601
▁merri	-11.3627
▁democrat	-11.3648
▁semi	-11.366
▁establish	-11.3749
♪	-11.3762
break	-11.3762
thank	-11.3762
▁exact	-11.3781
▁somethin	-11.3783
load	-11.3787
▁expos	-11.3789
unnecessary	-11.3792
▁argentin	-11.3792
▁assistance	-11.3792
▁behalf	-11.3792
▁defense	-11.3792
▁employed	-11.3792
▁estimate	-11.3792
▁horrible	-11.3792
▁illustrated	-11.3792
▁interpret	-11.3792
▁investigation	-11.3792
▁kentucky	-11.3792
▁lantern	-11.3792
▁literally	-11.3792
▁margaret	-11.3792
▁melissa	-11.3792
▁netherlands	-11.3792
▁platform	-11.3792
▁potential	-11.3792
▁prairie	-11.3792
▁principle	-11.3792
▁reject	-11.3792
▁revenge	-11.3792
▁surrounding	-11.3792
▁1979	-11.3792
▁complex	-11.3792
▁composition	-11.3792
▁domestic	-11.3792
▁muscle	-11.3792
▁candidate	-11.3792
▁register	-11.3792
▁sultan	-11.3792
▁composer	-11.3792
▁reserve	-11.3792
▁antonio	-11.3792
▁globe	-11.3792
▁intended	-11.3792
▁mechanic	-11.3792
▁missouri	-11.3792
▁ceiling	-11.3792
▁poison	-11.3792
▁random	-11.3792
▁intention	-11.3792
▁thrust	-11.3792
▁grateful	-11.3792
▁dropping	-11.3792
▁loving	-11.3792
▁ignore	-11.3792
▁yyy	-11.3792
▁breast	-11.3792
▁gallop	-11.3792
▁mystery	-11.3792
▁fierce	-11.3792
▁drill	-11.3792
▁departure	-11.3792
▁pension	-11.3792
▁ashore	-11.3793
▁venture	-11.3793
▁scrap	-11.3793
▁solar	-11.3793
▁patrick	-11.3794
▁bernard	-11.3794
▁reference	-11.3794
▁jill	-11.3795
arctic	-11.3795
▁resist	-11.3795
▁oink	-11.3795
▁rubber	-11.3795
▁cattle	-11.3795
▁bloom	-11.3796
▁sector	-11.3796
▁jimmy	-11.3796
▁fastened	-11.3797
▁1990	-11.3798
▁hopefully	-11.3798
▁percy	-11.3798
▁nancy	-11.3798
▁moses	-11.3799
▁fifa	-11.3799
▁granddad	-11.3799
▁stout	-11.3799
▁metres	-11.38
▁travelling	-11.38
▁grim	-11.3801
▁shaking	-11.3802
▁corps	-11.3802
▁republican	-11.3805
▁cancel	-11.3806
▁frost	-11.3807
▁laughter	-11.381
same	-11.3812
▁startled	-11.3818
▁theater	-11.383
▁vest	-11.3847
▁surf	-11.3879
▁smartie	-11.3882
▁peek	-11.3955
▁stake	-11.3999
hhh	-11.4028
lapping	-11.404
state	-11.4095
heim	-11.4128
tification	-11.4139
▁pearl	-11.4167
squeals	-11.4181
▁govern	-11.4283
screams	-11.4306
5%	-11.4339
ficial	-11.4358
▁hind	-11.4368
▁connect	-11.4411
▁publish	-11.4415
people	-11.4428
first	-11.4428
yeah	-11.4429
mission	-11.4436
high	-11.4441
plane	-11.4446
▁villa	-11.4448
bank	-11.4456
▁favour	-11.4457
æ	-11.4458
ç	-11.4458
songwriter	-11.4458
temporary	-11.4458
°	-11.4458
▁acknowledg	-11.4458
▁alcohol	-11.4458
▁alphabet	-11.4458
▁catherine	-11.4458
▁communist	-11.4458
▁complicated	-11.4458
▁compound	-11.4458
▁conclude	-11.4458
▁endeavour	-11.4458
▁enormous	-11.4458
▁explanation	-11.4458
▁furniture	-11.4458
▁guarantee	-11.4458
▁handkerchief	-11.4458
▁instructions	-11.4458
▁lollipop	-11.4458
▁magnificent	-11.4458
▁orchestra	-11.4458
▁pennsylvania	-11.4458
▁persuade	-11.4458
▁pilgrim	-11.4458
▁politics	-11.4458
▁procedure	-11.4458
▁quarrel	-11.4458
▁scissors	-11.4458
▁surgeon	-11.4458
▁unexpected	-11.4458
▁vegetable	-11.4458
▁1997	-11.4458
▁blossom	-11.4458
▁grief	-11.4458
▁horizon	-11.4458
▁kansas	-11.4458
▁kennedy	-11.4458
▁opposed	-11.4458
▁playground	-11.4458
▁surgery	-11.4458
▁column	-11.4458
▁delicate	-11.4458
▁flavor	-11.4458
▁atlantic	-11.4458
▁fourteen	-11.4458
▁mysterious	-11.4458
▁parallel	-11.4458
▁patrol	-11.4458
▁polite	-11.4458
▁alaska	-11.4458
▁austin	-11.4458
▁pioneer	-11.4458
▁praise	-11.4458
▁harbor	-11.4458
▁parcel	-11.4458
▁unique	-11.4458
▁gerald	-11.4458
▁superior	-11.4458
▁innocent	-11.4458
▁wreck	-11.4458
▁jacob	-11.4458
▁loyal	-11.4458
▁depth	-11.4458
▁abroad	-11.4459
▁crush	-11.4459
▁intense	-11.4459
▁status	-11.4459
▁drain	-11.4459
▁prior	-11.4459
▁blew	-11.4459
▁initial	-11.4459
▁authorities	-11.4459
▁bundle	-11.4459
▁franco	-11.4459
▁nickname	-11.4459
▁permission	-11.446
▁fried	-11.446
▁consent	-11.446
née	-11.446
▁preferred	-11.446
▁relation	-11.4461
▁bloke	-11.4461
▁summon	-11.4461
▁possession	-11.4461
▁cabinet	-11.4462
▁hedge	-11.4462
▁delightful	-11.4462
▁organic	-11.4463
▁stiff	-11.4463
▁1987	-11.4463
▁admitted	-11.4463
▁spear	-11.4463
▁1995	-11.4463
▁iowa	-11.4464
▁fanny	-11.4464
▁disney	-11.4465
▁parson	-11.4465
▁thorn	-11.4466
▁linda	-11.4466
▁expression	-11.4468
style	-11.4469
▁tomatoes	-11.4469
▁fairies	-11.447
▁midst	-11.4471
▁bride	-11.4473
▁recall	-11.4474
▁exception	-11.4475
▁receiv	-11.4478
▁monk	-11.4487
▁blade	-11.4627
▁northwest	-11.4712
nsky	-11.4715
gasp	-11.4833
▁glanc	-11.4844
▁troop	-11.4857
azz	-11.4921
woman	-11.5143
watch	-11.5144
smith	-11.5145
▁numero	-11.5149
▁dirt	-11.5157
▁municipal	-11.517
▁autumn	-11.5173
▁1939	-11.5173
▁1968	-11.5173
▁[$=	-11.5173
▁administrative	-11.5173
▁appetite	-11.5173
▁arkansas	-11.5173
▁birmingham	-11.5173
▁celebrate	-11.5173
▁chronic	-11.5173
▁comrade	-11.5173
▁confidence	-11.5173
▁disappointed	-11.5173
▁electronic	-11.5173
▁entertainment	-11.5173
▁essential	-11.5173
▁exhibit	-11.5173
▁explode	-11.5173
▁extinct	-11.5173
▁fridge	-11.5173
▁increasing	-11.5173
▁lecture	-11.5173
▁lemonade	-11.5173
▁molecul	-11.5173
▁moscow	-11.5173
▁necklace	-11.5173
▁oxygen	-11.5173
▁pacific	-11.5173
▁perceive	-11.5173
▁simpson	-11.5173
▁sleeve	-11.5173
▁suspicious	-11.5173
▁technology	-11.5173
▁caliph	-11.5173
▁imagination	-11.5173
▁muslim	-11.5173
▁slightest	-11.5173
▁stupid	-11.5173
▁underground	-11.5173
▁vietnam	-11.5173
▁1983	-11.5173
▁acquire	-11.5173
▁fulfil	-11.5173
▁herakles	-11.5173
▁bureau	-11.5173
▁nevertheless	-11.5173
▁ralph	-11.5173
▁terminal	-11.5173
▁electora	-11.5173
▁sentiment	-11.5173
▁graeme	-11.5173
▁michigan	-11.5173
▁serving	-11.5173
▁throne	-11.5173
▁drank	-11.5173
▁nanny	-11.5173
▁navy	-11.5173
▁swift	-11.5173
▁casual	-11.5173
▁extensi	-11.5173
▁absence	-11.5173
▁dennis	-11.5173
▁chalk	-11.5173
▁wicked	-11.5173
▁tempt	-11.5173
▁annual	-11.5173
▁calculat	-11.5173
▁predict	-11.5173
▁paddle	-11.5173
▁ryan	-11.5173
▁skirt	-11.5173
▁hastily	-11.5173
▁costume	-11.5173
▁kettle	-11.5173
▁promotion	-11.5173
▁repair	-11.5174
▁otto	-11.5174
▁napkin	-11.5174
▁noisy	-11.5175
▁zebra	-11.5175
▁apron	-11.5175
▁arose	-11.5175
▁stress	-11.5175
▁erect	-11.5176
▁debt	-11.5176
▁scottish	-11.5176
▁factory	-11.5177
▁digger	-11.5177
▁estate	-11.5177
▁peasant	-11.5177
▁guitarist	-11.5177
▁orbit	-11.5178
▁franklin	-11.5179
▁chapel	-11.5179
▁adj	-11.518
▁childhood	-11.518
▁rosy	-11.518
▁cupboard	-11.518
▁pump	-11.5182
▁depart	-11.5184
▁flora	-11.5185
▁freeze	-11.5185
▁entit	-11.5197
still	-11.5226
roach	-11.5234
humming	-11.527
kov	-11.5487
abad	-11.5503
▁swam	-11.5515
▁nothin	-11.564
▁georg	-11.5655
▁esp	-11.5756
keep	-11.5898
▁prepare	-11.5907
▁invite	-11.5912
section	-11.5912
crayon	-11.5912
actually	-11.5912
american	-11.5912
sometimes	-11.5912
before	-11.5912
shirt	-11.5912
▁relat	-11.5912
horse	-11.5913
crack	-11.5913
nothing	-11.5913
silver	-11.5913
free	-11.5915
▁extreme	-11.5925
▁immediate	-11.5925
▁olive	-11.5931
▁possess	-11.5938
▁occur	-11.5941
▁recommend	-11.5942
incorporate	-11.5942
ō	-11.5942
▁ammunition	-11.5942
▁atmosphere	-11.5942
▁benjamin	-11.5942
▁bicycle	-11.5942
▁calendar	-11.5942
▁cigarette	-11.5942
▁commercial	-11.5942
▁counsel	-11.5942
▁crocodile	-11.5942
▁curiosity	-11.5942
▁dakota	-11.5942
▁disappointment	-11.5942
▁discharge	-11.5942
▁distinguished	-11.5942
▁distribution	-11.5942
▁dynasty	-11.5942
▁efficien	-11.5942
▁equivalent	-11.5942
▁exhaust	-11.5942
▁financial	-11.5942
▁gradually	-11.5942
▁hungarian	-11.5942
▁impression	-11.5942
▁jerusalem	-11.5942
▁kangaroo	-11.5942
▁messenger	-11.5942
▁peculiar	-11.5942
▁reindeer	-11.5942
▁resolve	-11.5942
▁rhyme	-11.5942
▁scientist	-11.5942
▁scramble	-11.5942
▁skeleton	-11.5942
▁strategy	-11.5942
▁triangle	-11.5942
▁umbrella	-11.5942
▁verstappen	-11.5942
▁volcano	-11.5942
▁wisdom	-11.5942
▁1945	-11.5942
▁arnold	-11.5942
▁editor	-11.5942
▁1974	-11.5942
▁cunning	-11.5942
▁phrase	-11.5942
▁tobacco	-11.5942
▁transform	-11.5942
▁vincent	-11.5942
▁disgust	-11.5942
▁educate	-11.5942
▁mobile	-11.5942
▁rooster	-11.5942
▁chimney	-11.5942
▁grammy	-11.5942
▁pupil	-11.5942
▁typical	-11.5942
▁generous	-11.5942
▁synthe	-11.5942
▁bishop	-11.5942
▁conceal	-11.5942
▁premier	-11.5942
▁patricia	-11.5942
▁headache	-11.5942
▁parrot	-11.5942
▁porch	-11.5942
▁adapt	-11.5942
▁funeral	-11.5942
▁presum	-11.5942
▁hymn	-11.5942
▁murmur	-11.5942
▁pennies	-11.5942
▁urban	-11.5942
▁emerge	-11.5942
▁leslie	-11.5942
▁brenda	-11.5942
▁extent	-11.5942
▁dimple	-11.5942
▁expand	-11.5942
▁contest	-11.5942
▁thanksgiving	-11.5943
▁ellen	-11.5943
▁favourite	-11.5943
▁atoms	-11.5943
sneeze	-11.5943
▁tennis	-11.5943
▁comedian	-11.5943
▁altar	-11.5943
▁roast	-11.5943
▁southeast	-11.5943
▁shriek	-11.5943
▁cowboy	-11.5944
▁encounter	-11.5945
▁interven	-11.5945
▁hesitate	-11.5945
▁slope	-11.5946
hearted	-11.5946
▁commence	-11.5946
▁apply	-11.5946
▁egyptian	-11.5946
▁delhi	-11.5946
▁skate	-11.5947
▁1963	-11.5947
▁1955	-11.5948
▁salut	-11.5948
▁classical	-11.5949
▁blond	-11.5949
▁obey	-11.5949
▁emily	-11.5949
▁decade	-11.595
▁brake	-11.5952
▁acid	-11.5953
proving	-11.5965
▁marvel	-11.6014
▁mitt	-11.6041
front	-11.6087
▁alleg	-11.6116
▁pond	-11.6196
▁peaceful	-11.6205
▁invad	-11.6232
▁identifi	-11.6326
▁(199	-11.6398
east	-11.6566
school	-11.6745
maybe	-11.6745
moving	-11.6746
engine	-11.6746
green	-11.6747
total	-11.6768
▁threat	-11.6775
edinburgh	-11.6775
▁collapse	-11.6775
▁consequence	-11.6775
▁volunteer	-11.6775
---------------	-11.6775
transcribed	-11.6775
─	-11.6775
▁$2	-11.6775
▁activist	-11.6775
▁advertising	-11.6775
▁alternative	-11.6775
▁aspect	-11.6775
▁athletic	-11.6775
▁bacteria	-11.6775
▁category	-11.6775
▁cemetery	-11.6775
▁chemistry	-11.6775
▁connecticut	-11.6775
▁conscience	-11.6775
▁coyote	-11.6775
▁evolution	-11.6775
▁explosion	-11.6775
▁fantasy	-11.6775
▁gloom	-11.6775
▁halloween	-11.6775
▁historian	-11.6775
▁illegal	-11.6775
▁mississippi	-11.6775
▁nathalie	-11.6775
▁neglect	-11.6775
▁pandemic	-11.6775
▁rebellion	-11.6775
▁satisfact	-11.6775
▁sensible	-11.6775
▁sequel	-11.6775
▁significant	-11.6775
▁submarine	-11.6775
▁suburb	-11.6775
▁suitcase	-11.6775
▁surprising	-11.6775
▁technical	-11.6775
▁teletubbies	-11.6775
▁ukraine	-11.6775
▁unhappy	-11.6775
simultaneous	-11.6775
▁1946	-11.6775
▁buttercup	-11.6775
▁concept	-11.6775
▁fabric	-11.6775
▁jersey	-11.6775
▁kenneth	-11.6775
▁merchant	-11.6775
▁ministry	-11.6775
▁rubbish	-11.6775
▁tweet	-11.6775
▁constable	-11.6775
▁distract	-11.6775
▁invasion	-11.6775
▁liberal	-11.6775
▁snatch	-11.6775
▁worldwide	-11.6775
▁animated	-11.6775
▁debbie	-11.6775
▁freight	-11.6775
▁kevin	-11.6775
▁rattling	-11.6775
▁zorg	-11.6775
▁bavaria	-11.6775
▁distress	-11.6775
▁prix	-11.6775
▁vanished	-11.6775
▁nhl	-11.6775
▁interior	-11.6775
▁scheme	-11.6775
▁summit	-11.6775
▁eldest	-11.6775
▁crunch	-11.6775
▁dentist	-11.6775
▁visual	-11.6775
▁leima	-11.6775
▁barrier	-11.6775
spiration	-11.6775
▁sheriff	-11.6775
▁clyde	-11.6775
▁crumb	-11.6775
▁warrant	-11.6776
▁housing	-11.6776
▁opposition	-11.6776
▁jolly	-11.6776
▁absent	-11.6776
▁saddle	-11.6776
▁prompt	-11.6776
▁nightmare	-11.6776
▁cotton	-11.6776
▁steep	-11.6776
▁frown	-11.6776
grunting	-11.6776
▁denied	-11.6776
▁gorgeous	-11.6776
▁consume	-11.6777
▁sponge	-11.6777
▁northeast	-11.6777
▁beaver	-11.6777
▁ginger	-11.6777
▁phase	-11.6777
▁resistance	-11.6777
/020	-11.6778
▁prettie	-11.6778
▁crook	-11.6778
▁blank	-11.6779
▁crab	-11.678
▁ellis	-11.6783
▁devot	-11.6785
stick	-11.6881
kirk	-11.7038
▁imitate	-11.7052
pushes	-11.7096
||3	-11.7236
1.5	-11.7306
blows	-11.7503
▁tradition	-11.7509
▁virgin	-11.7548
▁succeed	-11.7641
word	-11.765
craft	-11.7652
uncle	-11.7654
storm	-11.7656
referr	-11.7657
space	-11.766
stitution	-11.7682
£	-11.7684
▁admiral	-11.7684
▁compassionat	-11.7684
▁investigate	-11.7684
▁pancake	-11.7684
▁refuge	-11.7684
involuntary	-11.7684
↗	-11.7684
▁$5	-11.7684
▁anniversary	-11.7684
▁anxiety	-11.7684
▁artillery	-11.7684
▁automobile	-11.7684
▁awkward	-11.7684
▁confusion	-11.7684
▁cottage	-11.7684
▁diploma	-11.7684
▁doughnut	-11.7684
▁echoed	-11.7684
▁economy	-11.7684
▁envelope	-11.7684
▁exclamation	-11.7684
▁exclusive	-11.7684
▁expense	-11.7684
▁gabriel	-11.7684
▁greece	-11.7684
▁humphrey	-11.7684
▁impressive	-11.7684
▁inhabitants	-11.7684
▁lancaster	-11.7684
▁nitrogen	-11.7684
▁nonsense	-11.7684
▁oatmeal	-11.7684
▁octopus	-11.7684
▁oklahoma	-11.7684
▁pharaoh	-11.7684
▁philadelphia	-11.7684
▁plunged	-11.7684
▁priscilla	-11.7684
▁raccoon	-11.7684
▁revelation	-11.7684
▁rhode	-11.7684
▁scheduled	-11.7684
▁screwdriver	-11.7684
▁singapore	-11.7684
▁steadily	-11.7684
▁suicide	-11.7684
▁suspicion	-11.7684
▁sympathy	-11.7684
▁ultimate	-11.7684
▁virtual	-11.7684
▁volleyball	-11.7684
▁yoghurt	-11.7684
▁approximate	-11.7684
▁breeze	-11.7684
▁circula	-11.7684
▁committed	-11.7684
▁czech	-11.7684
▁disorder	-11.7684
▁embrace	-11.7684
▁examination	-11.7684
▁fuzzy	-11.7684
▁humpty	-11.7684
▁jewish	-11.7684
▁paradise	-11.7684
▁prospect	-11.7684
▁specimen	-11.7684
▁website	-11.7684
▁1978	-11.7684
▁1981	-11.7684
▁athlete	-11.7684
▁bounce	-11.7684
▁cloak	-11.7684
▁felix	-11.7684
▁jacque	-11.7684
▁lobster	-11.7684
▁permanent	-11.7684
▁portrait	-11.7684
▁stadium	-11.7684
▁taylor	-11.7684
▁trolley	-11.7684
▁1931	-11.7684
▁1973	-11.7684
▁bumble	-11.7684
▁monroe	-11.7684
▁sensation	-11.7684
osaurus	-11.7684
▁baptis	-11.7684
▁hebrew	-11.7684
▁manipur	-11.7684
▁waffle	-11.7684
▁clutch	-11.7684
▁scandal	-11.7684
▁sprang	-11.7684
▁vocals	-11.7684
▁guinea	-11.7684
▁purchase	-11.7684
▁infection	-11.7684
▁slug	-11.7684
▁farewell	-11.7684
▁captive	-11.7684
▁awesome	-11.7684
hausen	-11.7684
▁dismay	-11.7684
▁stuart	-11.7684
▁niece	-11.7684
footsteps	-11.7684
▁disabled	-11.7684
gutenberg	-11.7684
▁johann	-11.7684
▁ornament	-11.7684
▁cornflakes	-11.7684
▁phillip	-11.7684
▁ethel	-11.7684
▁collar	-11.7684
▁waving	-11.7684
▁cuddl	-11.7685
▁ascend	-11.7685
▁nibble	-11.7685
▁ugly	-11.7685
▁instance	-11.7685
▁naked	-11.7685
▁multiple	-11.7685
▁martha	-11.7685
▁edition	-11.7685
▁welsh	-11.7685
▁golf	-11.7685
▁raven	-11.7685
▁define	-11.7686
▁grind	-11.7686
possum	-11.7687
arrington	-11.7707
▁reviv	-11.7711
mumbles	-11.7738
▁corona	-11.7777
growls	-11.7814
think	-11.803
boris	-11.806
fashioned	-11.8092
5||	-11.8154
blanc	-11.8177
arabic	-11.825
“	-11.8654
↫	-11.8684
{	-11.8684
å	-11.8684
ã	-11.9795
~	-12.1015
#	-12.1015
č	-12.1045
ū	-12.1045
@	-12.2474
ē	-12.2474
ł	-12.2474
¿	-12.2474
ß	-12.2474
ò	-12.2474
ś	-12.4141
ș	-12.4141
′	-12.4141
♫	-12.4141
ž	-12.4141
⌈	-12.611
ı	-12.614
ş	-12.614
ï	-12.6141
×	-12.6141
î	-12.6141
ì	-12.6141
ë	-12.8641
œ	-12.8641
ù	-12.8641
ê	-12.8641
⁎	-12.8641
ī	-13.1974
∙	-13.1974
∞	-13.1974
✿	-13.1974
ð	-13.1974
▔	-13.6974
^	-13.6974
	-13.6974
ě	-13.6974
ņ	-13.6974
ồ	-13.6974
ố	-13.6974
ń	-13.6974
‐	-13.6974
\	-13.6974
ą	-14.6957
ă	-14.6958
¡	-14.6959
	-14.696
	-14.6961
đ	-14.6962
§	-14.6963
•	-14.6964
ř	-14.6965
⁄	-14.6966
་	-14.6967
́	-14.6968
―	-14.6969
ñ	-14.697
ć	-14.6971
¶	-14.6972
⌊	-14.6973
	-14.6974
>	-14.6974
©	-14.6974
·	-14.6974
ý	-14.6974
þ	-14.6974
ġ	-14.6974
ĭ	-14.6974
İ	-14.6974
ő	-14.6974
ũ	-14.6974
ź	-14.6974
ż	-14.6974
ư	-14.6974
ǎ	-14.6974
ǫ	-14.6974
ɑ	-14.6974
ɪ	-14.6974
ʃ	-14.6974
ʊ	-14.6974
ʾ	-14.6974
ː	-14.6974
̶	-14.6974
η	-14.6974
ν	-14.6974
ј	-14.6974
॥	-14.6974
ṛ	-14.6974
ṭ	-14.6974
ṯ	-14.6974
ả	-14.6974
ắ	-14.6974
ề	-14.6974
ệ	-14.6974
ọ	-14.6974
ớ	-14.6974
ờ	-14.6974
‡	-14.6974
‰	-14.6974
€	-14.6974
ĕ	-14.6974
й	-14.6974
ṉ	-14.6974
$	-14.6974
<	-14.6974
ṣ	-14.6974
