<unk>	0
<s>	0
</s>	0
<pad>	0
<0x00>	0
<0x01>	0
<0x02>	0
<0x03>	0
<0x04>	0
<0x05>	0
<0x06>	0
<0x07>	0
<0x08>	0
<0x09>	0
<0x0A>	0
<0x0B>	0
<0x0C>	0
<0x0D>	0
<0x0E>	0
<0x0F>	0
<0x10>	0
<0x11>	0
<0x12>	0
<0x13>	0
<0x14>	0
<0x15>	0
<0x16>	0
<0x17>	0
<0x18>	0
<0x19>	0
<0x1A>	0
<0x1B>	0
<0x1C>	0
<0x1D>	0
<0x1E>	0
<0x1F>	0
<0x20>	0
<0x21>	0
<0x22>	0
<0x23>	0
<0x24>	0
<0x25>	0
<0x26>	0
<0x27>	0
<0x28>	0
<0x29>	0
<0x2A>	0
<0x2B>	0
<0x2C>	0
<0x2D>	0
<0x2E>	0
<0x2F>	0
<0x30>	0
<0x31>	0
<0x32>	0
<0x33>	0
<0x34>	0
<0x35>	0
<0x36>	0
<0x37>	0
<0x38>	0
<0x39>	0
<0x3A>	0
<0x3B>	0
<0x3C>	0
<0x3D>	0
<0x3E>	0
<0x3F>	0
<0x40>	0
<0x41>	0
<0x42>	0
<0x43>	0
<0x44>	0
<0x45>	0
<0x46>	0
<0x47>	0
<0x48>	0
<0x49>	0
<0x4A>	0
<0x4B>	0
<0x4C>	0
<0x4D>	0
<0x4E>	0
<0x4F>	0
<0x50>	0
<0x51>	0
<0x52>	0
<0x53>	0
<0x54>	0
<0x55>	0
<0x56>	0
<0x57>	0
<0x58>	0
<0x59>	0
<0x5A>	0
<0x5B>	0
<0x5C>	0
<0x5D>	0
<0x5E>	0
<0x5F>	0
<0x60>	0
<0x61>	0
<0x62>	0
<0x63>	0
<0x64>	0
<0x65>	0
<0x66>	0
<0x67>	0
<0x68>	0
<0x69>	0
<0x6A>	0
<0x6B>	0
<0x6C>	0
<0x6D>	0
<0x6E>	0
<0x6F>	0
<0x70>	0
<0x71>	0
<0x72>	0
<0x73>	0
<0x74>	0
<0x75>	0
<0x76>	0
<0x77>	0
<0x78>	0
<0x79>	0
<0x7A>	0
<0x7B>	0
<0x7C>	0
<0x7D>	0
<0x7E>	0
<0x7F>	0
<0x80>	0
<0x81>	0
<0x82>	0
<0x83>	0
<0x84>	0
<0x85>	0
<0x86>	0
<0x87>	0
<0x88>	0
<0x89>	0
<0x8A>	0
<0x8B>	0
<0x8C>	0
<0x8D>	0
<0x8E>	0
<0x8F>	0
<0x90>	0
<0x91>	0
<0x92>	0
<0x93>	0
<0x94>	0
<0x95>	0
<0x96>	0
<0x97>	0
<0x98>	0
<0x99>	0
<0x9A>	0
<0x9B>	0
<0x9C>	0
<0x9D>	0
<0x9E>	0
<0x9F>	0
<0xA0>	0
<0xA1>	0
<0xA2>	0
<0xA3>	0
<0xA4>	0
<0xA5>	0
<0xA6>	0
<0xA7>	0
<0xA8>	0
<0xA9>	0
<0xAA>	0
<0xAB>	0
<0xAC>	0
<0xAD>	0
<0xAE>	0
<0xAF>	0
<0xB0>	0
<0xB1>	0
<0xB2>	0
<0xB3>	0
<0xB4>	0
<0xB5>	0
<0xB6>	0
<0xB7>	0
<0xB8>	0
<0xB9>	0
<0xBA>	0
<0xBB>	0
<0xBC>	0
<0xBD>	0
<0xBE>	0
<0xBF>	0
<0xC0>	0
<0xC1>	0
<0xC2>	0
<0xC3>	0
<0xC4>	0
<0xC5>	0
<0xC6>	0
<0xC7>	0
<0xC8>	0
<0xC9>	0
<0xCA>	0
<0xCB>	0
<0xCC>	0
<0xCD>	0
<0xCE>	0
<0xCF>	0
<0xD0>	0
<0xD1>	0
<0xD2>	0
<0xD3>	0
<0xD4>	0
<0xD5>	0
<0xD6>	0
<0xD7>	0
<0xD8>	0
<0xD9>	0
<0xDA>	0
<0xDB>	0
<0xDC>	0
<0xDD>	0
<0xDE>	0
<0xDF>	0
<0xE0>	0
<0xE1>	0
<0xE2>	0
<0xE3>	0
<0xE4>	0
<0xE5>	0
<0xE6>	0
<0xE7>	0
<0xE8>	0
<0xE9>	0
<0xEA>	0
<0xEB>	0
<0xEC>	0
<0xED>	0
<0xEE>	0
<0xEF>	0
<0xF0>	0
<0xF1>	0
<0xF2>	0
<0xF3>	0
<0xF4>	0
<0xF5>	0
<0xF6>	0
<0xF7>	0
<0xF8>	0
<0xF9>	0
<0xFA>	0
<0xFB>	0
<0xFC>	0
<0xFD>	0
<0xFE>	0
<0xFF>	0
.	-2.81945
:	-3.29849
▁*	-3.34758
,	-3.44683
▁the	-3.54587
s	-3.72776
'	-3.76547
mot	-4.15433
▁a	-4.16344
▁you	-4.20417
▁and	-4.21588
▁i	-4.24602
▁to	-4.26591
?	-4.27195
chi	-4.35325
▁it	-4.46641
▁of	-4.48847
▁in	-4.61948
▁that	-4.69092
t	-4.82774
▁is	-5.0767
▁he	-5.09421
▁was	-5.1737
▁=	-5.27246
▁on	-5.3147
▁[	-5.35491
▁what	-5.36331
▁for	-5.41731
▁we	-5.47905
▁"	-5.50091
▁this	-5.56916
]	-5.58437
!	-5.58689
▁with	-5.62551
▁do	-5.6722
▁they	-5.68584
▁no	-5.69165
▁there	-5.7327
▁have	-5.73642
▁-	-5.77621
▁be	-5.79184
▁not	-5.79859
▁me	-5.80919
▁she	-5.8158
-	-5.82816
▁at	-5.84042
▁one	-5.84052
▁are	-5.84429
▁can	-5.87726
▁but	-5.8897
▁his	-5.915
m	-5.97494
▁as	-5.99162
re	-6.00819
▁so	-6.02372
▁all	-6.03571
▁oh	-6.0439
▁her	-6.04444
▁yeah	-6.04741
▁my	-6.07104
▁don	-6.07321
▁know	-6.08834
▁your	-6.09868
...	-6.10953
▁had	-6.12247
▁like	-6.15108
▁up	-6.15537
▁go	-6.16594
inv	-6.24632
▁from	-6.26599
▁out	-6.3068
ll	-6.314
▁here	-6.31419
d	-6.31817
▁him	-6.36144
▁get	-6.39156
▁by	-6.3957
▁if	-6.39804
▁just	-6.40582
▁were	-6.4137
▁now	-6.41436
▁right	-6.42752
▁well	-6.44647
▁see	-6.4474
ing	-6.45481
▁an	-6.47684
▁about	-6.4905
▁then	-6.49809
ed	-6.5
▁when	-6.50049
i	-6.51433
▁or	-6.52247
▁them	-6.56042
ve	-6.57006
▁think	-6.57069
▁got	-6.57352
▁did	-6.59759
▁said	-6.60754
▁who	-6.61227
fat	-6.63477
▁some	-6.63937
▁where	-6.66811
▁come	-6.67826
▁would	-6.69559
▁yes	-6.70291
;	-6.70719
▁good	-6.71601
▁look	-6.71825
▁will	-6.71872
▁want	-6.75423
▁how	-6.77448
▁	-6.77571
▁xxx	-6.7859
▁okay	-6.79403
▁(	-6.81623
▁little	-6.81762
▁“	-6.82023
▁time	-6.83495
].	-6.83508
▁down	-6.83882
▁going	-6.84951
a	-6.85739
▁been	-6.86443
▁more	-6.86578
▁put	-6.86905
▁back	-6.88075
’	-6.88837
▁two	-6.89162
▁very	-6.89269
▁which	-6.90073
"	-6.90536
."	-6.9067
▁has	-6.91949
▁their	-6.93273
▁over	-6.93836
▁'	-6.95636
▁could	-6.99202
▁let	-6.9999
)	-7.03815
▁say	-7.05723
y	-7.09662
▁other	-7.12195
▁why	-7.13338
,"	-7.15714
▁take	-7.1585
▁b	-7.16455
▁make	-7.16844
ly	-7.17393
▁into	-7.17473
▁people	-7.20084
▁man	-7.20143
e	-7.20671
▁way	-7.22554
▁too	-7.23637
▁because	-7.25544
▁first	-7.26555
▁off	-7.27599
▁tell	-7.27677
er	-7.282
▁gonna	-7.28974
▁us	-7.29058
▁after	-7.31923
▁these	-7.32348
▁only	-7.32852
▁any	-7.3408
▁our	-7.36665
▁uh	-7.38789
▁didn	-7.4002
▁something	-7.43062
▁really	-7.4345
▁again	-7.43817
▁much	-7.45543
▁made	-7.49308
--	-7.49969
n	-7.51299
▁er	-7.51437
▁before	-7.52034
▁than	-7.53524
▁big	-7.55585
▁should	-7.56116
▁away	-7.56193
▁day	-7.57093
▁new	-7.57988
▁three	-7.58814
in	-7.58852
par	-7.59913
▁does	-7.60285
▁never	-7.60981
▁went	-7.61344
▁those	-7.6206
r	-7.62679
▁um	-7.62707
▁need	-7.63353
▁give	-7.63977
▁long	-7.64712
▁home	-7.6488
▁mean	-7.65982
o	-7.6618
▁also	-7.67581
▁wanna	-7.67699
▁house	-7.68507
▁came	-7.68747
▁play	-7.69289
▁doing	-7.69382
▁another	-7.69603
▁old	-7.69928
▁many	-7.70317
▁work	-7.70704
▁mr	-7.72831
▁thing	-7.72847
▁still	-7.74725
▁thought	-7.75523
▁things	-7.75816
?"	-7.76438
▁must	-7.76606
▁car	-7.76859
▁may	-7.77712
exp	-7.78432
the	-7.79261
▁won	-7.79289
▁great	-7.79402
▁through	-7.79417
▁even	-7.79936
▁find	-7.80245
▁last	-7.80616
▁boy	-7.80714
▁am	-7.82912
▁night	-7.83321
▁isn	-7.84027
▁baby	-7.85062
_	-7.85323
▁done	-7.86232
▁name	-7.86407
▁please	-7.87157
▁help	-7.87316
▁called	-7.87356
▁%	-7.87531
▁mother	-7.89125
▁mm	-7.89341
▁thank	-7.91107
▁water	-7.91725
es	-7.92018
▁head	-7.92042
▁might	-7.92758
▁around	-7.93239
▁mhm	-7.93481
/	-7.94041
▁better	-7.9478
▁book	-7.94849
▁girl	-7.94994
▁sure	-7.95029
.”	-7.95181
▁hey	-7.9652
▁found	-7.9759
▁bit	-7.97802
▁place	-7.98207
▁love	-7.98219
▁nice	-7.9852
▁while	-7.98697
▁most	-7.98701
▁hand	-7.98721
▁eat	-7.98818
▁life	-7.99333
▁anything	-7.99978
▁ah	-8.01025
▁erm	-8.0207
al	-8.02134
▁doesn	-8.03809
c	-8.03874
▁years	-8.04056
▁being	-8.04085
it	-8.04541
▁such	-8.04614
▁used	-8.05204
▁next	-8.05636
▁father	-8.05721
▁o	-8.06649
▁school	-8.07059
▁same	-8.07217
,”	-8.07749
▁shall	-8.07947
l	-8.0854
▁lot	-8.08751
▁else	-8.10643
▁world	-8.10753
!"	-8.10789
▁four	-8.11013
laughs	-8.11255
th	-8.1157
▁looks	-8.11687
▁mummy	-8.11879
▁own	-8.12242
▁keep	-8.12727
▁always	-8.13308
▁room	-8.13398
add	-8.13646
▁told	-8.1384
▁s	-8.13846
▁saw	-8.13897
▁left	-8.1392
▁under	-8.14105
▁nothing	-8.145
▁part	-8.14592
▁men	-8.1554
▁every	-8.18719
▁ever	-8.19068
▁huh	-8.20312
▁kind	-8.20609
▁sorry	-8.20929
▁show	-8.20994
▁talk	-8.21216
▁chi	-8.21634
▁five	-8.2189
▁daddy	-8.22154
▁de	-8.22753
▁gone	-8.23069
b	-8.23833
and	-8.24074
▁money	-8.24655
▁coming	-8.24719
▁though	-8.25521
▁took	-8.25567
▁enough	-8.25946
▁maybe	-8.26189
▁door	-8.26451
▁end	-8.26906
▁wait	-8.2749
▁call	-8.27631
▁use	-8.28143
w	-8.28759
p	-8.28879
▁morning	-8.2906
▁goes	-8.2923
▁once	-8.29279
▁red	-8.29441
▁remember	-8.29884
no	-8.30207
▁until	-8.30426
g	-8.30605
▁open	-8.30744
▁turn	-8.30764
▁leave	-8.31854
▁side	-8.32084
▁hear	-8.32299
▁course	-8.32484
▁sir	-8.32626
▁_	-8.32888
sis	-8.32985
▁best	-8.33134
na	-8.33175
▁quite	-8.33282
▁stop	-8.33424
▁eyes	-8.34053
man	-8.34515
▁year	-8.34628
▁dear	-8.35001
tea	-8.35063
you	-8.35142
▁try	-8.35336
▁both	-8.35346
▁looking	-8.35679
▁today	-8.3586
h	-8.35976
▁sit	-8.36047
▁city	-8.36091
▁hm	-8.36416
▁yet	-8.36632
▁seen	-8.37182
▁god	-8.37503
▁each	-8.37829
▁asked	-8.38021
▁re	-8.38429
▁face	-8.3864
▁few	-8.38778
▁d	-8.38824
▁together	-8.39199
▁box	-8.39348
▁says	-8.3951
▁un	-8.39515
▁blue	-8.4015
▁round	-8.4033
on	-8.40361
▁mind	-8.41154
▁number	-8.41831
▁young	-8.4203
k	-8.4267
▁children	-8.42901
▁getting	-8.42947
▁miss	-8.43012
▁different	-8.43244
▁without	-8.43382
▁feel	-8.4373
▁everything	-8.44296
▁ball	-8.45013
mch	-8.45237
▁read	-8.45503
▁ready	-8.45564
▁♪	-8.45858
▁heard	-8.45901
▁later	-8.46285
▁known	-8.46336
▁bed	-8.46422
▁soon	-8.46514
▁mommy	-8.46779
▁second	-8.46837
▁between	-8.46969
▁far	-8.47091
▁fire	-8.4903
▁hard	-8.49166
▁haven	-8.4934
▁upon	-8.49741
bro	-8.5006
▁mrs	-8.50192
▁white	-8.50364
▁story	-8.50372
to	-8.50543
▁since	-8.50882
▁having	-8.51004
▁himself	-8.51268
▁e	-8.51321
▁hafta	-8.51486
or	-8.51854
▁half	-8.51856
▁wanted	-8.52298
▁happened	-8.52434
▁stay	-8.52569
▁alright	-8.53077
▁hold	-8.53246
▁watch	-8.53455
▁bad	-8.54036
▁table	-8.54213
yes	-8.54358
▁pretty	-8.54853
▁looked	-8.54953
▁dog	-8.55235
▁ask	-8.55331
cause	-8.55343
gma	-8.55406
f	-8.55451
▁small	-8.55923
▁top	-8.56805
▁talking	-8.56963
▁knew	-8.57089
▁war	-8.57127
▁black	-8.57272
▁friend	-8.57466
▁hello	-8.57617
en	-8.57829
▁c	-8.58057
▁live	-8.58138
▁run	-8.58289
ers	-8.58379
▁hands	-8.584
▁hi	-8.59145
1:	-8.59788
▁set	-8.60119
▁believe	-8.60238
▁green	-8.60556
le	-8.60614
▁mot	-8.60718
we	-8.60796
▁six	-8.6098
▁united	-8.61059
em	-8.61084
▁making	-8.61331
▁american	-8.61561
▁high	-8.6175
▁boys	-8.61813
as	-8.61908
▁family	-8.62036
▁against	-8.62142
▁along	-8.62261
▁light	-8.62313
▁actually	-8.62761
▁18	-8.63221
▁t	-8.6342
▁gave	-8.63446
▁party	-8.63624
▁child	-8.63865
▁wasn	-8.64125
▁care	-8.64233
▁1	-8.64586
".	-8.64742
▁m	-8.64874
▁p	-8.65751
▁during	-8.65892
▁matter	-8.66309
he	-8.66987
▁days	-8.67196
u	-8.67264
▁noise	-8.67363
an	-8.67664
▁sort	-8.67715
▁close	-8.67872
▁whole	-8.67978
▁fine	-8.68256
▁move	-8.68458
▁died	-8.68773
▁real	-8.69072
▁game	-8.69226
▁moment	-8.69521
▁wouldn	-8.69561
▁start	-8.69677
▁bring	-8.70134
?”	-8.70617
▁food	-8.71008
▁states	-8.71238
▁king	-8.71419
▁started	-8.71684
▁almost	-8.71685
▁born	-8.71933
▁happy	-8.72119
oh	-8.72133
ie	-8.72305
▁trying	-8.72355
▁heart	-8.73008
▁sleep	-8.73181
▁saying	-8.73386
▁word	-8.73587
▁air	-8.73639
▁son	-8.73919
▁ten	-8.73966
▁town	-8.74555
▁2	-8.74592
▁floor	-8.74642
▁dad	-8.7541
▁playing	-8.75716
▁wrong	-8.75863
▁already	-8.76448
▁minute	-8.76453
us	-8.76649
▁la	-8.76706
but	-8.76862
▁mine	-8.76933
▁probably	-8.77023
▁john	-8.77346
▁feet	-8.7783
mar	-8.7806
▁mom	-8.78073
▁state	-8.78679
▁ma	-8.79022
▁near	-8.79265
▁person	-8.79519
▁woman	-8.79526
▁cat	-8.79682
▁train	-8.80254
▁jack	-8.80323
▁voice	-8.80354
▁paper	-8.80374
▁country	-8.80482
▁hope	-8.80638
▁understand	-8.81001
▁idea	-8.8105
▁lost	-8.8124
+	-8.81248
▁hair	-8.81293
▁guess	-8.81501
▁picture	-8.81547
▁became	-8.81594
▁point	-8.81832
x	-8.82107
▁thomas	-8.82144
▁cup	-8.82217
▁began	-8.82239
▁team	-8.8234
▁aren	-8.82421
what	-8.83493
▁gotta	-8.83543
▁line	-8.83601
▁friends	-8.83753
▁sometimes	-8.84138
▁brother	-8.84821
▁ha	-8.84967
▁sea	-8.85134
▁behind	-8.85382
▁music	-8.85474
ton	-8.85528
▁full	-8.86071
),	-8.86145
▁bear	-8.86228
▁front	-8.86237
ch	-8.86266
▁listen	-8.86318
▁played	-8.86517
▁drink	-8.86813
▁north	-8.86915
▁job	-8.8711
▁–	-8.8764
nan	-8.87959
▁sec	-8.88026
▁outside	-8.88077
▁cut	-8.88101
▁captain	-8.88376
▁chair	-8.88403
—	-8.88813
▁girls	-8.88908
▁couldn	-8.89086
▁brought	-8.89222
la	-8.89266
▁lady	-8.89547
▁county	-8.89752
▁movie	-8.89944
▁hot	-8.89963
do	-8.9002
that	-8.90304
",	-8.90378
▁g	-8.90915
▁national	-8.91159
ma	-8.91193
▁stand	-8.91301
▁poor	-8.91437
▁u	-8.91526
▁rest	-8.91586
is	-8.91608
▁week	-8.91775
▁3	-8.91973
ta	-8.92338
de	-8.92413
▁turned	-8.92519
▁sound	-8.92665
▁doctor	-8.92671
▁seemed	-8.93343
z	-8.93458
▁horse	-8.93999
▁dead	-8.9439
▁hundred	-8.94439
▁color	-8.94576
▁guy	-8.94598
▁song	-8.94605
▁often	-8.94629
▁however	-8.94762
▁l	-8.95009
▁death	-8.9503
▁someone	-8.95226
▁able	-8.95364
▁piece	-8.95719
▁times	-8.95813
▁taken	-8.96252
▁comes	-8.96514
▁south	-8.97494
▁taking	-8.97888
▁stuff	-8.97975
well	-8.98237
▁early	-8.98297
▁tree	-8.98378
gra	-8.98507
▁twenty	-8.98604
▁myself	-8.98645
▁case	-8.98802
▁hat	-8.98954
▁inside	-8.99311
▁dis	-8.99515
ling	-8.99564
▁short	-8.99836
▁means	-8.99886
▁pay	-9.00052
▁makes	-9.00364
▁road	-9.00539
ra	-9.00584
▁n	-9.00613
▁walk	-9.00775
▁cold	-9.00853
!”	-9.00886
▁beautiful	-9.00982
cha	-9.01032
ic	-9.01127
▁yourself	-9.01166
▁page	-9.01257
int	-9.01632
▁river	-9.01726
▁rather	-9.01754
▁age	-9.01933
▁fall	-9.02035
▁words	-9.0242
▁yellow	-9.02423
▁till	-9.02778
ness	-9.02801
▁seven	-9.02849
▁order	-9.02909
▁true	-9.02993
▁perhaps	-9.033
ation	-9.03412
▁minutes	-9.03421
▁late	-9.03459
▁boat	-9.03791
▁wife	-9.04075
dad	-9.04075
ion	-9.04175
▁change	-9.04241
▁!	-9.04576
▁fact	-9.04689
▁business	-9.04771
▁felt	-9.04902
▁sister	-9.04949
▁alone	-9.05192
▁pick	-9.05255
v	-9.05505
▁large	-9.0551
▁funny	-9.06089
▁land	-9.06293
▁ago	-9.0664
▁fun	-9.06728
▁either	-9.06753
▁r	-9.06941
▁ya	-9.06963
▁group	-9.07204
▁milk	-9.07763
▁given	-9.07873
▁tea	-9.08117
▁women	-9.08171
2:	-9.08175
▁company	-9.0827
▁fish	-9.09059
pat	-9.09171
▁sun	-9.09198
ter	-9.09326
ar	-9.09346
▁meet	-9.09678
).	-9.097
▁sent	-9.09891
ty	-9.10335
▁toys	-9.10342
▁buy	-9.10387
▁mum	-9.10429
▁fell	-9.10497
▁somebody	-9.10534
▁eight	-9.1054
▁brown	-9.10557
▁ground	-9.10925
▁body	-9.10948
ne	-9.1153
▁important	-9.11612
▁wish	-9.1163
▁break	-9.11677
▁bob	-9.12091
▁ran	-9.12169
able	-9.12214
▁several	-9.12628
▁hurt	-9.12898
born	-9.12921
▁working	-9.13126
▁k	-9.13199
▁english	-9.13241
▁write	-9.13278
▁phone	-9.1335
▁across	-9.13566
huh	-9.14046
▁least	-9.14722
go	-9.15407
ro	-9.15513
▁dinner	-9.15524
▁area	-9.15539
▁al	-9.16183
▁thanks	-9.16357
▁wants	-9.17164
▁france	-9.17185
ted	-9.1736
▁trouble	-9.17656
▁uhhuh	-9.17705
▁guys	-9.18432
▁speak	-9.18569
j	-9.18624
▁march	-9.18674
▁power	-9.19502
▁f	-9.19586
▁finished	-9.19643
▁animals	-9.1975
▁darling	-9.20024
▁chance	-9.20031
ment	-9.20137
▁general	-9.20173
co	-9.20427
▁dark	-9.20445
▁everybody	-9.20506
li	-9.20579
ity	-9.2074
▁tomorrow	-9.20984
me	-9.2103
▁french	-9.21044
▁government	-9.212
▁foot	-9.21421
ah	-9.21595
car	-9.22284
▁hour	-9.22365
▁tried	-9.22523
▁glad	-9.23153
son	-9.23371
▁thinking	-9.23571
▁w	-9.23819
▁present	-9.23901
be	-9.2395
▁president	-9.24196
▁wow	-9.24225
ting	-9.24344
▁4	-9.24359
▁herself	-9.24447
▁club	-9.24553
ry	-9.24591
▁cos	-9.2477
▁bag	-9.24845
▁st	-9.24944
▁york	-9.25365
▁past	-9.25538
▁living	-9.25668
loi	-9.2567
▁hit	-9.25726
▁cried	-9.25956
▁h	-9.26058
am	-9.26062
if	-9.26067
▁others	-9.26265
▁free	-9.26288
▁bye	-9.26497
▁anyway	-9.26625
▁usually	-9.26744
▁wonder	-9.26762
▁nine	-9.26774
▁question	-9.26932
▁become	-9.26946
▁dr	-9.27024
▁history	-9.27098
▁street	-9.27115
▁con	-9.2715
▁mouth	-9.27182
el	-9.27328
▁...	-9.27479
▁football	-9.27541
▁afraid	-9.27789
▁running	-9.27818
▁deal	-9.2784
▁fight	-9.27961
▁letter	-9.28207
da	-9.28321
ga	-9.28474
▁window	-9.28479
▁west	-9.28523
▁fast	-9.28527
ine	-9.28659
▁held	-9.28711
▁summer	-9.28762
▁sitting	-9.28788
▁ship	-9.29037
”	-9.29124
▁v	-9.29174
▁park	-9.29483
▁less	-9.29592
land	-9.29646
▁#	-9.29803
▁police	-9.30619
▁eye	-9.30652
▁series	-9.30692
▁kept	-9.30921
▁suppose	-9.30932
▁bird	-9.31183
▁clear	-9.3122
▁uncle	-9.31224
▁office	-9.3141
▁lived	-9.31503
▁sat	-9.31645
▁birthday	-9.31743
▁toy	-9.31992
▁rock	-9.32485
adu	-9.32541
▁married	-9.32828
▁strong	-9.32933
▁easy	-9.32954
by	-9.33025
▁books	-9.33052
▁bus	-9.33086
ia	-9.33459
▁department	-9.33464
▁happen	-9.336
▁reason	-9.33603
▁among	-9.3361
up	-9.33871
▁problem	-9.34062
▁lay	-9.34412
▁stood	-9.3447
▁special	-9.34556
▁co	-9.34593
cds	-9.34638
▁band	-9.34981
▁throw	-9.35339
▁j	-9.35482
▁ooh	-9.35538
▁seems	-9.35571
▁master	-9.35624
▁answer	-9.35721
▁tonight	-9.35728
▁university	-9.3573
▁joe	-9.35756
▁june	-9.35823
▁daughter	-9.35838
▁ice	-9.35854
▁ho	-9.35951
▁whatever	-9.36207
▁send	-9.36787
▁january	-9.37004
▁pull	-9.37101
▁earth	-9.37163
▁ok	-9.37163
▁da	-9.37271
▁forget	-9.37511
ist	-9.37529
▁orange	-9.37608
▁whether	-9.37652
▁hours	-9.37716
▁17	-9.37733
▁fit	-9.37879
▁tired	-9.3801
▁10	-9.38083
ha	-9.38282
0	-9.3843
il	-9.38434
▁wind	-9.38439
▁sounds	-9.38664
2	-9.38664
▁lovely	-9.38696
▁catch	-9.39075
▁lord	-9.39265
▁arm	-9.3927
▁drive	-9.39402
▁peter	-9.39433
▁5	-9.39555
▁clothes	-9.39586
▁nose	-9.39917
men	-9.39917
▁killed	-9.40044
▁kids	-9.40176
ian	-9.40181
▁ring	-9.40199
▁waiting	-9.40444
rs	-9.40496
don	-9.40522
▁couple	-9.40546
▁wear	-9.40699
▁bill	-9.40709
▁eh	-9.40877
▁main	-9.41001
▁per	-9.41052
▁camp	-9.41141
▁named	-9.41177
▁within	-9.41416
▁excuse	-9.41643
▁star	-9.41713
1	-9.41817
▁lots	-9.41908
▁board	-9.41909
▁replied	-9.41927
▁y	-9.41976
▁draw	-9.42011
▁themselves	-9.42091
my	-9.42141
▁careful	-9.42167
▁church	-9.42221
▁station	-9.42256
ley	-9.42364
▁ain	-9.42588
▁ta	-9.42593
ba	-9.42775
▁released	-9.42869
▁cool	-9.42875
▁na	-9.43043
at	-9.43363
▁member	-9.43461
se	-9.43527
▁forward	-9.43555
▁eating	-9.43555
▁career	-9.43703
▁single	-9.4376
▁pro	-9.43798
▁tom	-9.43921
makes	-9.44176
▁answered	-9.44194
▁shoes	-9.44207
▁island	-9.44278
▁evening	-9.44369
ish	-9.44505
▁months	-9.44558
▁mark	-9.44624
▁truck	-9.44667
▁points	-9.44682
3	-9.44769
▁instead	-9.44809
▁sweet	-9.4485
fch	-9.45017
ful	-9.45058
ant	-9.45075
▁husband	-9.45103
▁possible	-9.4531
▁touch	-9.45461
▁clean	-9.45643
▁british	-9.45854
▁christmas	-9.4592
▁sing	-9.46111
▁middle	-9.46122
▁juice	-9.46415
▁wall	-9.46874
▁august	-9.46884
▁snow	-9.46923
▁building	-9.47012
▁exactly	-9.47034
▁third	-9.47036
all	-9.47043
est	-9.47198
▁takes	-9.47339
▁worked	-9.47396
ies	-9.47424
▁passed	-9.47507
un	-9.47799
▁cannot	-9.47832
▁moved	-9.47896
▁putting	-9.47908
▁tape	-9.48047
▁east	-9.48111
▁quickly	-9.48146
▁above	-9.48219
▁frog	-9.48309
ka	-9.48435
▁broken	-9.48469
▁lives	-9.48546
▁low	-9.48665
▁although	-9.48782
▁stick	-9.4891
▁toward	-9.49031
ca	-9.49054
▁quick	-9.49087
▁certain	-9.49107
▁shot	-9.49109
▁system	-9.49152
less	-9.49184
um	-9.49248
so	-9.49376
▁quiet	-9.49612
▁region	-9.49716
▁ride	-9.49831
▁save	-9.49847
▁frank	-9.50209
▁gun	-9.50431
▁longer	-9.50435
▁vi	-9.50663
▁indeed	-9.50752
▁bar	-9.50758
▁village	-9.50836
▁whose	-9.50867
▁check	-9.5087
▁thousand	-9.51022
▁everyone	-9.51042
▁television	-9.51089
age	-9.51111
▁straight	-9.51114
▁april	-9.51155
▁ben	-9.51225
for	-9.51314
▁england	-9.51364
lo	-9.51422
▁feeling	-9.51434
▁seem	-9.51917
one	-9.51972
▁class	-9.52073
▁arms	-9.52153
4	-9.52166
▁anyone	-9.52377
childes	-9.52429
▁win	-9.52507
▁service	-9.5251
▁nearly	-9.52524
▁rose	-9.52699
▁childes	-9.52709
▁return	-9.52719
▁seat	-9.52827
▁october	-9.52885
mo	-9.53001
▁human	-9.53002
▁pop	-9.53145
▁]	-9.53358
te	-9.53439
▁en	-9.53596
▁towards	-9.53623
▁position	-9.53797
▁mama	-9.54186
3:	-9.54279
▁caught	-9.54354
▁duck	-9.54499
▁gold	-9.54519
▁chief	-9.54749
▁sight	-9.54756
ent	-9.54835
ke	-9.54842
▁nobody	-9.54984
▁honey	-9.55004
▁standing	-9.55205
▁cross	-9.55293
▁november	-9.55347
▁broke	-9.55351
é	-9.55412
▁hall	-9.55523
▁news	-9.55707
▁reached	-9.55759
she	-9.55805
▁noises	-9.55864
▁20	-9.55932
▁pardon	-9.55953
5	-9.56026
▁ahead	-9.56134
id	-9.56176
▁july	-9.56176
▁cause	-9.56201
ul	-9.56246
▁season	-9.56287
▁ka	-9.56321
▁cake	-9.5644
▁chapter	-9.56459
▁player	-9.56463
ri	-9.56526
▁september	-9.56668
▁david	-9.56929
▁district	-9.57091
▁kid	-9.57139
▁garden	-9.57229
▁fair	-9.57316
▁pen	-9.57421
▁album	-9.57457
▁plan	-9.57489
▁worry	-9.57539
▁miles	-9.57611
▁hungry	-9.57619
▁strange	-9.5767
▁push	-9.57695
▁certainly	-9.57718
▁million	-9.5776
▁fellow	-9.58027
▁list	-9.58071
▁army	-9.58107
▁yesterday	-9.58295
▁aunt	-9.58311
▁mary	-9.5851
▁wood	-9.58571
▁met	-9.58595
▁december	-9.58723
▁mar	-9.58795
▁telling	-9.58869
how	-9.59064
▁6	-9.59214
▁breakfast	-9.59232
▁george	-9.5935
▁nor	-9.59459
▁space	-9.59613
▁blood	-9.59753
▁returned	-9.5976
▁changed	-9.60025
▁kitchen	-9.60083
ated	-9.60257
ate	-9.60277
▁february	-9.60286
▁yep	-9.60459
ism	-9.60605
▁afternoon	-9.60674
there	-9.60977
▁gets	-9.61024
ce	-9.61055
▁carry	-9.61093
▁stopped	-9.61125
▁following	-9.61154
▁law	-9.61173
▁london	-9.61328
▁field	-9.61394
▁art	-9.61413
▁pass	-9.6142
▁film	-9.61468
▁bread	-9.61647
▁helen	-9.61717
▁major	-9.61825
▁trees	-9.62099
▁fear	-9.62161
▁safe	-9.62246
▁warm	-9.62357
▁built	-9.62484
▁supposed	-9.62599
▁german	-9.62987
▁dress	-9.6305
▁race	-9.63112
▁suddenly	-9.63207
▁mo	-9.63228
led	-9.63394
▁anybody	-9.63486
▁12	-9.63712
▁post	-9.63884
▁shop	-9.63926
▁common	-9.64009
▁court	-9.64093
▁written	-9.64135
▁language	-9.64159
▁hospital	-9.64179
▁public	-9.6429
▁learn	-9.64406
▁opened	-9.64434
▁count	-9.64603
let	-9.64666
▁bo	-9.64763
▁lake	-9.64856
▁15	-9.65193
▁games	-9.65281
▁using	-9.6539
▁truth	-9.6542
▁heavy	-9.6543
▁hang	-9.65688
▁wee	-9.65719
▁followed	-9.658
of	-9.65882
ger	-9.65884
▁jump	-9.65896
7	-9.66077
friend	-9.66098
▁queen	-9.66251
▁former	-9.6628
den	-9.66429
▁cow	-9.665
▁wild	-9.66915
▁fraser	-9.66937
▁bridge	-9.67097
▁thirty	-9.67151
▁finish	-9.67265
▁tv	-9.67363
▁sense	-9.67535
▁farm	-9.67686
et	-9.67692
▁hasn	-9.67726
▁16	-9.6778
▁visit	-9.678
▁ca	-9.67974
▁somewhere	-9.68065
▁deep	-9.68156
▁sam	-9.68312
▁form	-9.68338
||	-9.68406
▁sign	-9.68453
▁bunny	-9.68473
▁coffee	-9.68484
why	-9.68596
les	-9.68596
▁dance	-9.6864
▁giving	-9.68671
▁bought	-9.68765
▁figure	-9.68773
▁holding	-9.68835
▁(19	-9.6888
▁places	-9.69011
▁rain	-9.691
way	-9.69303
▁bank	-9.69337
▁stuck	-9.69372
▁leaving	-9.69394
▁7	-9.69403
▁step	-9.69586
ho	-9.69631
▁decided	-9.69659
▁weeks	-9.69863
▁lie	-9.69867
▁added	-9.69877
▁di	-9.69894
va	-9.69909
▁corner	-9.69919
▁secret	-9.70111
▁bottom	-9.70184
val	-9.70187
▁act	-9.7037
▁control	-9.70515
▁whom	-9.70609
▁bath	-9.70621
▁view	-9.70692
day	-9.70713
▁battle	-9.7084
tic	-9.70849
▁watching	-9.70959
▁follow	-9.70972
▁meeting	-9.71154
▁apple	-9.71162
▁2020	-9.71242
▁example	-9.71276
▁moon	-9.7133
▁led	-9.71379
▁pre	-9.71482
singing	-9.71545
▁interest	-9.71811
▁stone	-9.71835
▁busy	-9.71892
▁college	-9.71977
pa	-9.72022
they	-9.72036
▁pink	-9.72091
▁wrote	-9.7233
▁fifty	-9.72358
▁needs	-9.72525
▁amy	-9.72552
▁cry	-9.72663
▁dat	-9.72704
▁le	-9.72756
▁cover	-9.7277
▁happens	-9.73303
%	-9.73354
▁pieces	-9.73375
▁trust	-9.7353
▁turns	-9.73532
▁silver	-9.73744
▁die	-9.73774
bo	-9.73973
▁sick	-9.74051
▁indian	-9.74089
▁league	-9.74154
▁force	-9.74177
▁soft	-9.74214
▁population	-9.7423
▁moving	-9.74239
▁laugh	-9.74247
▁minister	-9.74418
▁lunch	-9.74519
not	-9.74561
▁lu	-9.74643
▁lose	-9.74652
▁chicken	-9.74705
▁ought	-9.74896
▁commune	-9.74907
▁paul	-9.75201
▁fly	-9.75412
▁cheese	-9.75449
▁hole	-9.7545
▁flowers	-9.75518
▁america	-9.75625
ary	-9.75631
▁bottle	-9.75632
▁pictures	-9.75639
▁bright	-9.7566
▁council	-9.75961
▁animal	-9.75967
▁international	-9.76003
▁spot	-9.76017
▁finally	-9.76028
▁lo	-9.76111
▁build	-9.76184
▁anymore	-9.7629
▁hill	-9.76344
▁hurry	-9.76378
▁wonderful	-9.76434
▁spoke	-9.7648
▁sky	-9.76502
ten	-9.76508
▁th	-9.7655
▁legs	-9.76677
▁laughs	-9.76873
gu	-9.76966
▁‘	-9.77193
pe	-9.77376
▁kill	-9.77452
▁except	-9.77583
▁tail	-9.77715
▁parents	-9.77864
ad	-9.77917
▁fix	-9.78055
▁beginning	-9.78143
▁reach	-9.78154
▁none	-9.78165
gasps	-9.78468
▁received	-9.78481
▁doubt	-9.78547
▁exclaimed	-9.78571
▁dry	-9.78634
▁attack	-9.78686
▁including	-9.78827
▁michael	-9.78858
▁robert	-9.78936
▁pat	-9.79014
▁winter	-9.79061
ance	-9.791
▁8	-9.79182
▁officer	-9.79266
▁rising	-9.79274
di	-9.79475
▁report	-9.79718
▁spring	-9.79847
noise	-9.79941
▁grand	-9.79942
illustration	-9.79955
▁ra	-9.79978
▁james	-9.8003
▁weren	-9.80126
ring	-9.80137
▁further	-9.80252
▁square	-9.80354
▁store	-9.80406
▁pretend	-9.80551
▁carl	-9.80722
▁works	-9.80725
time	-9.80762
▁cook	-9.80765
▁meant	-9.80804
▁attention	-9.80807
child	-9.80817
▁teacher	-9.80881
▁carried	-9.80896
▁walking	-9.80932
now	-9.80997
▁se	-9.81036
▁members	-9.81093
att	-9.81121
ur	-9.81251
▁video	-9.81285
ir	-9.81304
▁mad	-9.81485
▁rich	-9.81531
▁distance	-9.81596
lin	-9.81633
▁doll	-9.81664
▁track	-9.81686
sh	-9.81756
per	-9.81879
laugh	-9.81882
▁dream	-9.81888
ner	-9.81903
▁em	-9.8193
▁plate	-9.8194
▁po	-9.82027
▁local	-9.82333
▁van	-9.8242
der	-9.82492
▁welcome	-9.8276
▁century	-9.83001
▁record	-9.83009
▁engine	-9.83221
▁wa	-9.83292
▁lead	-9.83307
▁appeared	-9.83381
▁super	-9.83539
ya	-9.83546
ko	-9.83803
▁drop	-9.8384
–	-9.83958
▁grandma	-9.83967
▁worth	-9.83971
▁object	-9.84101
ja	-9.84108
▁x	-9.84136
▁silence	-9.84173
▁jim	-9.84223
▁crying	-9.84264
▁writing	-9.8431
mother	-9.844
▁capital	-9.84594
▁month	-9.8461
ni	-9.84712
▁seeing	-9.84716
▁harry	-9.84791
▁[1	-9.84898
▁type	-9.85102
▁san	-9.85274
▁shouldn	-9.85469
▁match	-9.85576
▁camera	-9.85601
▁wash	-9.85629
▁beat	-9.85644
▁ba	-9.85753
points	-9.85769
▁dropped	-9.85796
▁promise	-9.85823
▁billy	-9.85888
▁ne	-9.85906
▁kiss	-9.86179
▁jo	-9.86189
▁allowed	-9.86302
▁due	-9.8637
▁information	-9.86381
▁hide	-9.86436
▁egg	-9.86444
ak	-9.8648
▁walked	-9.86823
▁shape	-9.86857
▁pounds	-9.86966
▁sad	-9.87054
▁coat	-9.87107
▁favorite	-9.87136
ard	-9.87178
ous	-9.87219
mi	-9.87252
▁laughing	-9.87313
▁wake	-9.87435
▁expect	-9.87465
▁teeth	-9.87589
▁province	-9.8762
tur	-9.87917
vi	-9.88064
▁difficult	-9.88065
▁bow	-9.88129
▁continued	-9.88207
▁based	-9.88232
cat	-9.88299
▁level	-9.88346
▁especially	-9.88389
6	-9.88417
▁stage	-9.88554
che	-9.88593
▁interesting	-9.88707
this	-9.88709
▁share	-9.88721
▁character	-9.88731
▁cream	-9.88761
▁fresh	-9.88794
▁surprise	-9.88927
▁grass	-9.89106
▁monkey	-9.89109
clock	-9.8911
▁bro	-9.89268
=	-9.8938
▁charge	-9.89384
sings	-9.89501
▁base	-9.89616
▁roll	-9.89685
▁11	-9.89821
▁letters	-9.8994
▁reading	-9.90091
▁ye	-9.90172
▁famous	-9.90232
▁row	-9.90344
▁teddy	-9.90449
▁el	-9.90613
read	-9.90663
wa	-9.90816
▁card	-9.90818
▁trip	-9.90926
▁puts	-9.91026
uk	-9.91088
▁sand	-9.91275
▁pan	-9.91419
▁bobby	-9.91734
▁cap	-9.9178
dy	-9.91838
á	-9.91873
▁key	-9.9199
▁itself	-9.92129
▁created	-9.9214
▁period	-9.92215
▁leg	-9.92249
▁stars	-9.92313
▁elephant	-9.92376
▁final	-9.92504
▁japan	-9.92553
▁ar	-9.92617
▁support	-9.92705
▁future	-9.92728
▁pet	-9.92809
▁li	-9.92816
▁smile	-9.92818
▁kitty	-9.92891
▁ear	-9.93002
▁grow	-9.93012
▁mess	-9.93018
▁conversation	-9.93034
▁rabbit	-9.93171
▁center	-9.93319
▁ju	-9.93368
looks	-9.93404
▁roman	-9.93635
unk	-9.93726
▁chocolate	-9.93839
▁prince	-9.9385
▁laughed	-9.93972
ster	-9.94003
▁horses	-9.94012
▁eggs	-9.94051
ac	-9.94054
▁14	-9.94057
▁forgot	-9.94187
▁popular	-9.94481
▁clever	-9.94491
▁germany	-9.94536
▁uhoh	-9.94684
▁union	-9.94787
▁circle	-9.94886
▁tower	-9.94902
▁interested	-9.95021
▁twelve	-9.95127
▁tiger	-9.95161
▁serious	-9.95199
▁ears	-9.9526
▁glass	-9.95303
▁grew	-9.95467
▁paid	-9.95533
▁crayon	-9.95729
room	-9.95782
▁singing	-9.95795
▁alive	-9.96046
▁slowly	-9.96096
▁13	-9.96162
▁picks	-9.96239
▁mountain	-9.96248
▁birds	-9.96393
▁pain	-9.96513
▁storm	-9.96522
▁cars	-9.96593
ex	-9.96616
▁tall	-9.96625
▁director	-9.96645
▁9	-9.96699
▁ro	-9.96702
ge	-9.96893
▁ate	-9.96907
▁health	-9.97052
▁sheep	-9.97118
")	-9.97199
▁mouse	-9.972
▁term	-9.97234
▁betty	-9.97285
▁sa	-9.97326
con	-9.97336
▁pot	-9.97554
▁fat	-9.97647
ver	-9.9769
▁choo	-9.97714
▁below	-9.9772
ham	-9.97762
ler	-9.97812
line	-9.97851
▁finger	-9.97907
▁lying	-9.97917
▁nin	-9.9806
▁tu	-9.98109
▁self	-9.98167
ki	-9.98256
▁whoa	-9.98489
▁ex	-9.98534
▁ow	-9.98788
que	-9.988
▁loved	-9.98837
8	-9.98975
▁bet	-9.98978
▁wide	-9.99095
▁size	-9.99163
ci	-9.99323
▁boo	-9.99369
▁scared	-9.99531
▁needed	-9.99532
▁situation	-9.9954
▁terrible	-9.9954
▁machine	-9.99578
▁speed	-9.99596
▁join	-9.99619
▁showed	-9.99677
▁closed	-9.99682
urs	-9.99771
▁neck	-9.99805
▁holds	-9.99993
▁..	-10.0002
▁radio	-10.0044
then	-10.0047
▁cost	-10.0048
au	-10.005
▁sub	-10.0054
▁politician	-10.0075
▁drawing	-10.0079
▁inv	-10.0088
▁unless	-10.0094
▁questions	-10.01
▁gas	-10.0118
▁bigger	-10.0122
▁danger	-10.0128
po	-10.0129
▁california	-10.0139
▁liked	-10.015
▁sleeping	-10.015
▁⌊	-10.0157
▁mi	-10.0162
▁knock	-10.0184
▁shore	-10.0193
▁jwww	-10.0194
▁⌈	-10.0194
▁sue	-10.0202
▁lee	-10.0207
▁account	-10.0208
ric	-10.022
ville	-10.0232
▁asking	-10.0234
can	-10.0234
box	-10.0238
▁direction	-10.0244
ier	-10.0247
▁henry	-10.0263
▁kingdom	-10.0268
▁perfect	-10.027
▁stories	-10.0271
▁richard	-10.0275
▁block	-10.028
▁leaves	-10.0287
▁)	-10.029
▁thus	-10.0291
▁ko	-10.0304
▁shut	-10.0306
▁spoon	-10.0308
▁sell	-10.0311
▁difference	-10.0314
▁driver	-10.032
▁hardly	-10.0323
▁asleep	-10.0335
▁forty	-10.0339
▁press	-10.0346
▁plays	-10.0355
ze	-10.0363
▁simple	-10.0366
▁action	-10.0385
▁leader	-10.0393
▁species	-10.0405
▁hotel	-10.0408
▁30	-10.044
▁wheel	-10.0441
ber	-10.0453
▁fa	-10.046
hi	-10.0461
í	-10.0465
▁countries	-10.0477
▁edge	-10.0486
▁luck	-10.0487
ized	-10.0508
00	-10.0511
▁trade	-10.0514
▁phil	-10.052
▁fruit	-10.0526
▁hate	-10.0528
▁beach	-10.0531
▁turning	-10.0539
▁similar	-10.0549
▁india	-10.0555
▁puzzle	-10.0561
▁explain	-10.0561
▁port	-10.0564
ey	-10.0567
▁peace	-10.0594
▁butter	-10.0596
▁starts	-10.0601
za	-10.0607
ship	-10.0616
▁sunday	-10.0619
▁central	-10.0622
▁bang	-10.0625
▁pa	-10.0636
▁natural	-10.0638
▁picked	-10.0662
▁according	-10.0686
os	-10.0686
▁du	-10.0695
▁soul	-10.0701
▁anne	-10.0712
out	-10.0713
▁lion	-10.0727
▁aye	-10.0728
▁command	-10.0746
▁served	-10.0755
fad	-10.0762
▁lower	-10.0776
▁yo	-10.0776
▁loud	-10.0777
▁judge	-10.0789
▁meat	-10.0799
gi	-10.0799
▁therefore	-10.0801
▁problems	-10.0811
▁helped	-10.082
min	-10.0823
ina	-10.0829
▁older	-10.0836
mon	-10.0852
▁spent	-10.0855
▁professional	-10.0867
▁pleasure	-10.087
▁cor	-10.087
▁speaking	-10.0892
▁coast	-10.09
▁include	-10.0909
▁upstairs	-10.0917
▁parts	-10.0922
▁talked	-10.0922
▁calling	-10.0928
laughing	-10.0937
▁flat	-10.095
▁puppet	-10.0955
▁path	-10.0963
▁study	-10.0967
▁purpose	-10.097
▁fingers	-10.0976
▁learned	-10.098
▁nature	-10.0981
▁western	-10.0984
▁breath	-10.0992
▁covered	-10.1008
▁cast	-10.101
▁double	-10.1017
jo	-10.1018
▁ga	-10.1018
▁pie	-10.1025
▁bell	-10.1029
▁bite	-10.1037
▁beyond	-10.1038
▁social	-10.1046
▁royal	-10.105
▁amount	-10.105
▁("	-10.1085
who	-10.109
▁su	-10.1096
▁forest	-10.1097
house	-10.1102
▁feed	-10.1112
▁accident	-10.1113
▁spend	-10.1126
▁oops	-10.1133
come	-10.1134
▁gate	-10.1141
▁worse	-10.1154
▁sharp	-10.1162
▁joined	-10.1165
ford	-10.1175
▁pocket	-10.1178
▁private	-10.1185
▁paris	-10.1199
bi	-10.1202
▁professor	-10.1206
▁&	-10.1214
▁pi	-10.1241
▁handle	-10.1248
▁ni	-10.1249
field	-10.1251
▁deck	-10.1251
ating	-10.1255
▁shoe	-10.126
▁skin	-10.1264
▁dan	-10.1271
▁governor	-10.1273
▁shirt	-10.1281
▁caused	-10.1285
▁japanese	-10.1287
▁paint	-10.1287
▁fighting	-10.1297
fri	-10.1308
▁charles	-10.1314
▁lad	-10.1326
▁fox	-10.1326
▁particular	-10.1327
▁driving	-10.1329
▁smell	-10.1332
▁notice	-10.1333
▁silly	-10.1333
▁sarah	-10.1338
▁gu	-10.1358
▁iron	-10.1371
▁tiny	-10.1379
▁bowl	-10.1381
▁escape	-10.1384
▁award	-10.139
ste	-10.1398
▁length	-10.1405
▁imp	-10.1407
ding	-10.1408
▁flying	-10.1415
▁spanish	-10.1416
red	-10.142
our	-10.1425
▁beside	-10.1427
▁weather	-10.1429
▁clock	-10.143
lu	-10.143
op	-10.1434
▁mistake	-10.1436
▁eleanor	-10.1444
▁enemy	-10.1446
ck	-10.1448
▁tony	-10.1448
▁dollars	-10.145
▁project	-10.1454
▁dogs	-10.1465
bu	-10.1472
▁personal	-10.1474
▁william	-10.1479
▁pe	-10.1491
20	-10.1491
▁role	-10.1493
▁price	-10.1499
▁plane	-10.15
ff	-10.1506
ron	-10.1519
▁political	-10.1524
▁likely	-10.1525
▁missing	-10.153
▁smoke	-10.1534
▁cookie	-10.154
▁modern	-10.1565
▁names	-10.1567
uh	-10.1568
▁various	-10.1572
▁background	-10.1578
▁ti	-10.1578
▁entered	-10.1584
▁europe	-10.1601
▁lucky	-10.1602
▁begin	-10.1621
▁nurse	-10.1624
▁date	-10.1626
▁declared	-10.1644
ee	-10.1652
▁agreed	-10.1655
▁cha	-10.166
ut	-10.167
her	-10.1673
▁hiding	-10.1689
io	-10.1699
▁ladies	-10.1708
▁mike	-10.1712
▁pair	-10.1714
▁honor	-10.1716
▁directed	-10.1731
amp	-10.1733
▁suit	-10.1738
▁slow	-10.1754
▁dressed	-10.1757
▁lid	-10.176
▁arrived	-10.176
▁effect	-10.1761
▁enjoy	-10.1769
like	-10.1769
▁crazy	-10.1772
▁quarter	-10.1775
▁drew	-10.1785
ise	-10.1787
▁market	-10.179
▁computer	-10.1791
▁absolutely	-10.1794
▁angry	-10.1799
▁z	-10.1799
▁taste	-10.1806
▁starting	-10.1806
ning	-10.1823
▁agree	-10.1829
ig	-10.1833
wood	-10.1836
▁flower	-10.1837
▁ed	-10.1848
▁jane	-10.1861
▁adult	-10.1873
▁russian	-10.1886
ng	-10.1888
cy	-10.1892
ow	-10.1894
▁original	-10.1898
▁falling	-10.1899
▁spirit	-10.1912
▁saint	-10.1916
▁science	-10.192
gen	-10.192
▁happening	-10.1925
▁dangerous	-10.1927
▁australia	-10.1932
▁jesus	-10.1936
▁test	-10.1941
▁dolly	-10.1949
▁soldiers	-10.1958
▁steps	-10.1961
▁sugar	-10.1972
▁census	-10.1973
▁thou	-10.1976
▁scene	-10.1987
▁singer	-10.1993
▁bay	-10.1997
▁apart	-10.1998
▁2021	-10.2003
▁largest	-10.2003
▁choice	-10.2014
▁considered	-10.2026
▁brain	-10.2041
▁den	-10.2043
▁northern	-10.2046
▁slide	-10.2046
▁laid	-10.205
▁title	-10.2071
▁actor	-10.209
▁anywhere	-10.2093
▁centre	-10.2094
▁forth	-10.2101
sib	-10.2104
▁education	-10.2105
▁sold	-10.2107
▁basket	-10.2114
▁besides	-10.2118
▁shoot	-10.2121
▁meal	-10.2122
▁crew	-10.2125
▁meaning	-10.2126
▁military	-10.2156
▁babies	-10.216
▁castle	-10.2164
▁shows	-10.2167
▁saturday	-10.2171
▁discovered	-10.2184
▁result	-10.2199
side	-10.2208
▁immediately	-10.2213
▁neither	-10.2218
9	-10.2218
▁threw	-10.2224
▁blocks	-10.2225
▁subject	-10.2239
▁missed	-10.2246
▁easily	-10.2272
▁ocean	-10.2272
▁european	-10.2276
han	-10.2279
fa	-10.2279
▁surprised	-10.2293
vo	-10.2296
bb	-10.23
▁mor	-10.2302
▁climb	-10.2303
▁snake	-10.2313
▁completely	-10.2321
▁wearing	-10.2327
▁prize	-10.2328
ji	-10.2334
▁placed	-10.2334
▁spread	-10.2335
ice	-10.2337
▁watched	-10.234
▁murder	-10.2341
▁energy	-10.2346
▁purple	-10.2346
▁naughty	-10.2346
▁imagine	-10.2354
▁journey	-10.2361
▁joy	-10.2373
▁plant	-10.2373
▁china	-10.2375
▁fault	-10.2376
▁→	-10.2378
▁woods	-10.2381
▁windows	-10.2383
▁twice	-10.2407
▁fi	-10.241
▁extra	-10.2414
▁spider	-10.2429
▁magic	-10.2437
▁roof	-10.2439
▁lines	-10.2439
▁duty	-10.2443
▁society	-10.2444
▁add	-10.2447
▁19	-10.2447
▁martin	-10.245
ence	-10.2452
▁goodness	-10.2452
end	-10.2453
▁empty	-10.246
▁bi	-10.2463
▁movies	-10.247
▁mu	-10.2472
▁pulled	-10.2476
▁municipality	-10.2484
▁current	-10.2503
▁experience	-10.2506
vocalizes	-10.2521
▁raised	-10.2533
▁note	-10.2546
▁gives	-10.2554
▁respect	-10.2555
▁lieutenant	-10.2558
▁higher	-10.2575
▁barn	-10.2576
▁model	-10.2577
▁brush	-10.2581
▁medicine	-10.2586
du	-10.2588
▁ru	-10.2605
▁onto	-10.2609
▁non	-10.261
▁flight	-10.2614
▁boss	-10.2621
▁oo	-10.2624
▁supper	-10.2626
▁simply	-10.2628
▁hadn	-10.2629
▁stream	-10.2634
▁corn	-10.2635
▁guard	-10.2636
▁rate	-10.2637
▁plenty	-10.2637
▁goin	-10.2638
▁manner	-10.2647
▁mc	-10.2652
ran	-10.2655
▁lift	-10.2664
▁lock	-10.2676
ub	-10.2683
▁filled	-10.2683
▁produced	-10.2687
▁search	-10.2688
▁plain	-10.2691
▁italian	-10.2696
▁blow	-10.2697
▁charlie	-10.2703
▁formed	-10.2739
▁pin	-10.2755
rd	-10.2756
▁huge	-10.2768
▁flag	-10.2778
▁risk	-10.2793
▁tie	-10.2796
ana	-10.28
▁opening	-10.2803
▁shake	-10.2806
▁fifteen	-10.2809
▁gentlemen	-10.281
▁division	-10.2814
▁ja	-10.2818
fi	-10.2828
od	-10.2834
▁studio	-10.2837
▁fallen	-10.2842
▁princess	-10.2843
▁brave	-10.2847
▁anna	-10.2848
are	-10.2848
rya	-10.2853
▁stan	-10.2862
ical	-10.2871
▁telephone	-10.2879
▁smart	-10.2885
▁pleasant	-10.2889
▁mac	-10.289
▁button	-10.2898
▁range	-10.2905
ang	-10.2912
▁ancient	-10.2912
▁proud	-10.2919
▁calm	-10.2931
▁practice	-10.2933
▁songs	-10.2935
▁appearance	-10.2936
▁()	-10.2943
ally	-10.2944
kar	-10.2944
▁cousin	-10.2945
▁expected	-10.2958
▁colors	-10.2965
▁evidence	-10.2966
ol	-10.2967
▁choose	-10.2967
▁prime	-10.2975
▁southern	-10.298
▁accept	-10.2989
▁pleased	-10.2995
▁bat	-10.2997
▁25	-10.3
▁maggie	-10.3003
000	-10.3011
▁pound	-10.3012
aft	-10.3015
▁steven	-10.3033
im	-10.3034
10	-10.3034
▁ended	-10.3035
▁total	-10.3039
▁whoops	-10.3039
lt	-10.3043
▁channel	-10.3057
▁thick	-10.3064
where	-10.3066
▁necessary	-10.3071
brother	-10.3079
picks	-10.3085
ita	-10.3086
▁mostly	-10.3088
_,	-10.3089
▁announced	-10.3089
ny	-10.3097
▁needta	-10.3105
▁success	-10.3106
▁promised	-10.3111
▁pause	-10.3111
▁swimming	-10.3127
sha	-10.313
▁numbers	-10.3131
▁gentleman	-10.3136
▁official	-10.3158
▁message	-10.3166
▁believed	-10.3175
▁salt	-10.3178
fe	-10.3178
ial	-10.3183
▁christ	-10.3186
▁prison	-10.319
▁rope	-10.3192
▁oil	-10.3194
30	-10.3208
ite	-10.321
▁gar	-10.3212
▁usual	-10.3212
ku	-10.3221
▁tip	-10.3228
▁string	-10.3233
▁election	-10.3236
▁tone	-10.3237
tri	-10.3239
,--	-10.3241
off	-10.3244
▁bound	-10.3247
▁continues	-10.3247
king	-10.3255
▁community	-10.3257
▁faith	-10.3261
▁awful	-10.3266
bar	-10.327
▁papa	-10.3283
hu	-10.3285
▁100	-10.3286
ph	-10.3324
▁earlier	-10.3327
nic	-10.334
▁rule	-10.3348
▁saved	-10.3371
▁coach	-10.3384
▁monster	-10.3395
▁te	-10.3397
▁grown	-10.34
▁movement	-10.34
▁rough	-10.34
mer	-10.3402
▁process	-10.3403
▁mate	-10.3418
▁offer	-10.3425
▁marriage	-10.3426
▁crowd	-10.3428
▁gray	-10.3428
▁laura	-10.3435
▁christian	-10.3496
ju	-10.3503
▁ri	-10.3515
▁strength	-10.3516
col	-10.3519
puts	-10.3521
nd	-10.3521
qui	-10.3536
med	-10.3536
soa	-10.3544
counter	-10.3544
▁haha	-10.3546
▁carefully	-10.3552
▁mass	-10.3562
ities	-10.3566
▁event	-10.357
iv	-10.3572
▁knife	-10.3574
just	-10.3587
pro	-10.3596
▁adam	-10.361
work	-10.3627
ned	-10.3629
▁tears	-10.3639
▁toast	-10.3655
▁mountains	-10.3657
▁golden	-10.3661
▁mid	-10.3662
▁friday	-10.3665
▁aw	-10.3672
▁dancing	-10.368
takes	-10.3685
▁travel	-10.3686
▁style	-10.3694
▁value	-10.3694
▁bike	-10.3695
▁listening	-10.3698
ii	-10.3698
▁weight	-10.3701
▁jean	-10.3704
▁24	-10.3706
▁wi	-10.371
▁marry	-10.3711
▁santa	-10.3714
▁fourth	-10.3723
▁dirty	-10.3725
▁texas	-10.3727
cries	-10.3737
▁author	-10.3744
▁heat	-10.3746
har	-10.3752
▁growing	-10.3754
▁ver	-10.3754
▁sudden	-10.3762
▁wolf	-10.3768
▁shoulder	-10.3781
▁metal	-10.3786
▁noticed	-10.3795
▁keeping	-10.38
(	-10.3801
▁officers	-10.3802
▁bonnet	-10.3812
▁har	-10.3822
▁obviously	-10.3825
▁crime	-10.3834
▁ordered	-10.3835
▁regular	-10.3845
mp	-10.3846
▁mis	-10.3848
▁development	-10.385
light	-10.3851
▁research	-10.3856
pi	-10.3856
▁downstairs	-10.3874
▁fred	-10.3884
ai	-10.3898
▁eleven	-10.3898
▁ger	-10.3899
▁allow	-10.39
[	-10.3911
▁ross	-10.3915
▁moves	-10.3916
▁bert	-10.3918
▁colonel	-10.3919
low	-10.3932
▁2018	-10.3939
▁struck	-10.3939
▁valley	-10.394
▁val	-10.3945
see	-10.3947
▁tin	-10.3947
▁lights	-10.3948
▁thy	-10.3957
▁smith	-10.396
▁signal	-10.397
▁2008	-10.3973
▁manager	-10.3985
▁involved	-10.3995
q	-10.3996
▁2022	-10.3997
▁sis	-10.4001
old	-10.4004
▁joke	-10.4012
ru	-10.4015
▁terms	-10.4016
▁protect	-10.4028
▁teach	-10.4031
ium	-10.4031
▁lawyer	-10.4032
▁sin	-10.4032
▁guns	-10.4035
▁alice	-10.4036
▁otherwise	-10.4038
ious	-10.4039
▁cell	-10.4043
ble	-10.4046
▁program	-10.4049
▁serve	-10.4053
kay	-10.4064
ong	-10.4068
▁native	-10.4075
ving	-10.4082
ek	-10.4082
▁stock	-10.4088
▁impossible	-10.4091
▁anti	-10.41
▁goodbye	-10.4102
▁stairs	-10.4107
▁championship	-10.4109
▁si	-10.4109
▁swing	-10.4109
▁pizza	-10.4117
jen	-10.4119
▁washington	-10.4131
▁wise	-10.4135
▁training	-10.4138
tu	-10.4145
▁taught	-10.4153
▁published	-10.4155
▁lips	-10.416
ide	-10.4168
▁magazine	-10.4169
▁decide	-10.4175
ize	-10.4214
▁[2	-10.4219
back	-10.4224
▁bin	-10.4228
▁design	-10.4231
good	-10.4232
▁worried	-10.424
▁beauty	-10.4243
▁min	-10.4244
▁italy	-10.4247
tor	-10.4256
ach	-10.4261
▁version	-10.4265
ov	-10.4268
▁finding	-10.4279
▁giant	-10.428
▁normal	-10.4281
▁throat	-10.4293
▁canada	-10.4295
▁crown	-10.4296
ius	-10.43
▁inter	-10.4308
▁disease	-10.4311
▁lap	-10.4316
some	-10.4318
▁ninety	-10.4323
▁ned	-10.4329
▁honest	-10.4338
▁ruth	-10.4339
▁planet	-10.434
nt	-10.4342
▁pool	-10.4342
▁civil	-10.4345
▁spoken	-10.4347
▁bedroom	-10.4349
▁everywhere	-10.4352
▁prove	-10.4357
▁yum	-10.4372
▁2007	-10.4373
▁closer	-10.438
▁cards	-10.4381
▁shi	-10.4382
▁21	-10.4385
▁mat	-10.4387
▁2009	-10.4389
▁orders	-10.4391
▁chris	-10.4394
▁actress	-10.4396
▁nineteen	-10.4402
ip	-10.4402
▁blind	-10.441
▁tongue	-10.4415
▁female	-10.4428
▁bull	-10.443
oo	-10.4431
lan	-10.4437
▁swim	-10.4441
▁committee	-10.4445
▁ge	-10.4446
▁lin	-10.4449
ab	-10.445
▁entire	-10.4453
peter	-10.4461
▁commander	-10.4467
▁strike	-10.4472
▁plants	-10.4478
▁surface	-10.4485
⌉.	-10.449
▁tries	-10.4493
ily	-10.4494
▁1,	-10.4494
ping	-10.4496
ward	-10.4497
▁fence	-10.4529
▁tar	-10.4541
▁bra	-10.4545
▁eastern	-10.4549
▁sixty	-10.4549
bra	-10.4553
▁dare	-10.456
night	-10.4561
▁forgotten	-10.4562
tra	-10.4563
▁wedding	-10.4563
▁fixed	-10.4566
▁crash	-10.4572
▁begins	-10.4572
▁complete	-10.4588
▁towel	-10.459
▁roger	-10.4597
▁prepared	-10.46
▁wine	-10.4601
▁heaven	-10.4621
▁sake	-10.4632
--"	-10.4635
▁par	-10.4636
▁smaller	-10.464
▁republic	-10.4641
zi	-10.4648
▁founded	-10.4671
▁medal	-10.4677
▁2010	-10.468
▁africa	-10.47
▁zoo	-10.4703
▁farmer	-10.4719
▁spain	-10.4737
▁2006	-10.4737
▁chinese	-10.4737
▁purdie	-10.4739
▁nick	-10.474
▁motion	-10.4741
▁mister	-10.4748
▁excited	-10.4756
sighs	-10.4758
over	-10.476
▁louis	-10.4765
▁max	-10.4766
com	-10.4768
▁drinking	-10.477
▁brothers	-10.478
▁treasure	-10.4781
▁generally	-10.4786
▁50	-10.479
els	-10.479
▁located	-10.4792
▁broad	-10.4797
▁greater	-10.4798
▁managed	-10.4804
law	-10.482
▁tight	-10.4822
▁definitely	-10.4822
▁continue	-10.4822
▁shown	-10.4822
▁cabin	-10.4828
▁trick	-10.483
▁rush	-10.4833
▁sports	-10.4839
head	-10.4846
▁quietly	-10.4854
ok	-10.4855
▁youth	-10.4873
▁mal	-10.4875
▁reaches	-10.4875
nie	-10.4881
tro	-10.4882
▁fill	-10.4882
here	-10.4884
▁rid	-10.4889
▁formula	-10.49
▁sandwich	-10.4903
▁kick	-10.4907
▁jumped	-10.4907
▁cloth	-10.4914
▁speech	-10.4922
▁museum	-10.4924
▁fellows	-10.4926
▁upset	-10.493
▁falls	-10.4945
▁aged	-10.4945
▁empire	-10.4946
▁evil	-10.4955
▁contract	-10.4963
when	-10.4965
▁condition	-10.4968
looking	-10.4977
port	-10.4983
ez	-10.4994
oth	-10.4995
▁runs	-10.4997
▁uhuh	-10.5
▁wheels	-10.5003
▁sword	-10.5004
▁pig	-10.501
▁treat	-10.5013
▁trail	-10.5024
▁ray	-10.5024
bye	-10.5026
▁op	-10.5027
▁mission	-10.5032
▁rocks	-10.5036
▁fur	-10.5038
▁opportunity	-10.504
▁possibly	-10.5041
▁odd	-10.5043
▁remain	-10.5064
▁wave	-10.507
▁wan	-10.5076
▁students	-10.5078
▁carrying	-10.5078
▁spell	-10.5084
▁hero	-10.5094
▁relationship	-10.51
▁gordon	-10.5103
▁bee	-10.5105
▁remained	-10.5106
mu	-10.5108
kin	-10.511
&	-10.5111
▁secretary	-10.5113
▁rules	-10.5117
▁security	-10.5126
▁grace	-10.5127
▁softly	-10.5128
tle	-10.5136
▁riding	-10.5145
ap	-10.5146
▁airport	-10.5148
▁greatest	-10.5164
▁plans	-10.5165
▁je	-10.5166
▁vote	-10.5173
▁mamma	-10.5185
▁decision	-10.5202
▁motor	-10.5208
ev	-10.521
▁release	-10.5216
▁opposite	-10.5224
shi	-10.5224
▁leading	-10.5232
▁opinion	-10.5236
▁rise	-10.5246
play	-10.5256
▁showing	-10.5266
▁monday	-10.5268
▁walks	-10.527
wi	-10.5272
▁pack	-10.5276
▁section	-10.5277
▁events	-10.5278
babbles	-10.5278
▁yup	-10.5278
▁holiday	-10.5286
▁ke	-10.5289
▁nope	-10.529
▁desk	-10.5292
▁fan	-10.5294
ela	-10.5295
▁grave	-10.5297
▁suggested	-10.5298
▁hum	-10.5302
▁balloon	-10.5308
lic	-10.5309
▁groups	-10.5325
▁stayed	-10.5341
▁gi	-10.5356
▁contact	-10.5368
▁ghost	-10.5376
mel	-10.5393
▁ch	-10.5393
▁sch	-10.5398
▁dick	-10.54
▁seconds	-10.5401
▁male	-10.5405
sta	-10.5405
▁hay	-10.5409
use	-10.541
▁hmm	-10.5416
▁microphone	-10.5425
ps	-10.5426
▁loose	-10.5427
▁soldier	-10.5428
ified	-10.5439
▁2011	-10.545
with	-10.5452
▁bessie	-10.546
aw	-10.5462
▁realize	-10.5464
▁$	-10.5471
▁greek	-10.5474
▁areas	-10.5478
▁guide	-10.5496
▁helping	-10.5502
▁records	-10.5503
▁olympics	-10.5508
▁23	-10.551
▁mail	-10.5512
▁beep	-10.5513
jes	-10.5516
▁knee	-10.5518
▁offered	-10.552
▁ku	-10.5521
▁ourselves	-10.5522
▁easier	-10.5528
ken	-10.5532
▁afterwards	-10.5551
▁direct	-10.5552
▁production	-10.5554
▁goat	-10.556
▁chain	-10.5563
▁patient	-10.5565
▁fool	-10.5573
▁painting	-10.5576
▁owner	-10.5584
▁staff	-10.5596
tion	-10.5597
din	-10.5603
▁yyy	-10.5609
lon	-10.5614
▁cities	-10.5621
▁changes	-10.5622
▁consider	-10.5625
▁rome	-10.5628
▁scott	-10.5629
▁’	-10.5636
▁foreign	-10.5643
fully	-10.5646
br	-10.5653
▁trunk	-10.5655
▁performance	-10.5667
▁apparently	-10.5672
berg	-10.5672
▁ann	-10.5674
▁younger	-10.5674
ible	-10.5676
▁directly	-10.5687
▁glasses	-10.5689
▁che	-10.5693
▁excellent	-10.5694
▁sail	-10.5694
▁safety	-10.5706
▁frightened	-10.5708
▁tank	-10.5714
▁host	-10.5715
▁weak	-10.5717
▁thin	-10.5721
▁standard	-10.5721
▁association	-10.5722
▁brilliant	-10.5725
▁credit	-10.5726
▁presently	-10.5729
▁narrow	-10.5731
▁bringing	-10.5732
▁manage	-10.5739
▁surely	-10.5742
▁dinosaur	-10.5748
▁dutch	-10.5759
▁tri	-10.576
▁perfectly	-10.5762
right	-10.5766
▁joseph	-10.5771
ney	-10.5771
▁ladder	-10.5772
▁retired	-10.5775
▁dozen	-10.5778
sen	-10.5786
year	-10.5794
chuckles	-10.5799
▁whispered	-10.5818
▁sal	-10.582
▁memory	-10.582
more	-10.582
▁2000	-10.5821
▁academy	-10.5823
▁fancy	-10.583
ö	-10.5831
▁shopping	-10.5833
▁edward	-10.5839
▁honour	-10.5844
▁sta	-10.5845
▁successful	-10.5847
ball	-10.5849
▁settled	-10.5851
silence	-10.5858
▁awards	-10.5858
▁comfortable	-10.5861
▁del	-10.5861
▁bump	-10.5862
▁col	-10.5863
▁code	-10.5871
▁knowledge	-10.5872
▁fortune	-10.5873
▁clown	-10.5874
cing	-10.588
▁task	-10.5896
▁lamb	-10.5898
▁writer	-10.59
▁eighty	-10.5901
▁mon	-10.5902
▁moo	-10.5911
▁chap	-10.5922
▁tent	-10.5928
▁bomb	-10.593
▁horsie	-10.5935
▁pressure	-10.5935
▁anxious	-10.5936
▁forever	-10.5939
▁wondering	-10.5941
▁airplane	-10.5941
▁services	-10.5946
▁sha	-10.5947
gan	-10.5948
▁doggie	-10.5952
▁jones	-10.5953
▁smiled	-10.5954
▁silent	-10.5955
▁buddy	-10.5955
▁nursery	-10.5958
▁shouted	-10.5959
ren	-10.5961
▁fashion	-10.5967
▁boots	-10.597
very	-10.5974
filler	-10.5976
▁response	-10.5978
did	-10.5978
▁chairman	-10.5995
▁soup	-10.5998
▁bathroom	-10.6001
▁pipe	-10.6006
▁waste	-10.601
▁carriage	-10.6016
▁islands	-10.6021
was	-10.6024
▁comfort	-10.6024
▁tough	-10.6025
▁forced	-10.6025
nods	-10.6026
▁brand	-10.6036
▁bother	-10.6037
▁mention	-10.6039
▁score	-10.6042
▁fairy	-10.6046
▁mile	-10.6046
oc	-10.6055
▁cute	-10.6059
▁biggest	-10.606
▁tim	-10.6065
▁forces	-10.607
▁proper	-10.6074
-19	-10.6076
/0	-10.6079
▁hug	-10.608
▁hammer	-10.6085
▁provide	-10.6089
▁medical	-10.6096
▁yard	-10.61
▁palace	-10.6102
▁media	-10.6109
▁log	-10.6112
▁2017	-10.6112
▁hanging	-10.612
▁pencil	-10.6124
▁houses	-10.6126
▁sport	-10.6134
▁cases	-10.6137
▁walls	-10.6141
▁explained	-10.6159
▁trial	-10.616
▁dada	-10.616
▁rings	-10.6162
▁culture	-10.6165
50	-10.6165
▁enter	-10.6169
▁upper	-10.6175
▁waited	-10.6177
▁sum	-10.6177
▁mentioned	-10.618
ries	-10.6182
ud	-10.6184
ile	-10.6185
▁22	-10.6186
▁particularly	-10.619
▁mirror	-10.6194
ative	-10.6196
▁fairly	-10.6196
ot	-10.6201
▁eaten	-10.6206
▁nest	-10.6207
take	-10.6208
▁forgive	-10.6209
▁va	-10.6213
▁shook	-10.6214
▁smiling	-10.6216
▁2014	-10.6218
zo	-10.6219
▁loss	-10.6226
▁dig	-10.6241
▁reply	-10.6243
▁network	-10.6245
▁tractor	-10.6249
▁gift	-10.625
▁gentle	-10.6258
▁cash	-10.626
▁tap	-10.6262
▁belong	-10.6263
▁border	-10.6265
ator	-10.6278
▁bart	-10.6279
▁appear	-10.6281
▁novel	-10.6287
11	-10.6287
▁hop	-10.6289
des	-10.6295
ions	-10.6296
▁2005	-10.6297
▁included	-10.6305
▁grandpa	-10.6309
⌋.	-10.631
▁developed	-10.6312
▁birth	-10.6315
▁site	-10.6317
▁powerful	-10.6319
▁kim	-10.6323
▁blanket	-10.6337
▁highest	-10.6338
rie	-10.635
pped	-10.635
war	-10.6352
▁sweetie	-10.6353
voc	-10.6355
▁faster	-10.6356
▁wings	-10.6359
▁duh	-10.636
▁somewhat	-10.6363
▁signed	-10.6365
▁aid	-10.6366
▁pilot	-10.6368
▁pour	-10.6372
▁ii	-10.6374
▁ways	-10.6377
▁holy	-10.6379
▁calls	-10.6384
▁studied	-10.6391
▁express	-10.6393
▁larger	-10.6395
▁amazing	-10.6398
▁penny	-10.6398
kat	-10.6404
▁kinda	-10.6412
▁ships	-10.6417
▁washing	-10.6418
▁2004	-10.6421
▁2012	-10.6424
▁willing	-10.6425
▁crack	-10.6428
▁cloud	-10.6432
▁passing	-10.6432
▁artist	-10.6433
▁clearly	-10.6436
▁flew	-10.6437
▁favor	-10.6439
▁boom	-10.6439
▁episode	-10.6443
▁players	-10.6449
▁drama	-10.6449
▁equal	-10.6452
▁owl	-10.6453
▁avoid	-10.6473
gar	-10.6474
▁receive	-10.6476
bout	-10.6476
▁jar	-10.6481
▁hearing	-10.6482
15	-10.6486
▁bush	-10.6497
▁correct	-10.6498
▁expression	-10.6498
▁bal	-10.6509
▁dust	-10.6512
▁2001	-10.6514
▁ted	-10.6522
pan	-10.6527
▁gang	-10.6527
▁dragon	-10.6528
▁papers	-10.654
▁spin	-10.6544
▁afford	-10.6549
▁hung	-10.6551
▁parliament	-10.6558
▁heads	-10.6566
look	-10.6571
▁attempt	-10.6578
▁doin	-10.6581
nce	-10.659
▁ham	-10.6592
▁firm	-10.6595
▁ste	-10.6595
▁yay	-10.6598
ened	-10.6605
▁properly	-10.6607
▁gra	-10.6618
▁lara	-10.6628
▁recording	-10.6629
▁cancer	-10.6641
▁turtle	-10.6642
▁influence	-10.6644
ming	-10.6647
▁copy	-10.6647
▁railway	-10.6649
▁stands	-10.6652
▁justice	-10.6665
▁sides	-10.6684
▁harm	-10.6693
▁priest	-10.6693
▁florida	-10.6696
▁desire	-10.6698
morrow	-10.6699
▁chicago	-10.6699
]!	-10.6708
▁russia	-10.6718
▁han	-10.6719
▁[3	-10.6725
▁ban	-10.6733
dis	-10.6736
12	-10.6737
▁angel	-10.675
oon	-10.6754
▁madam	-10.6756
▁mill	-10.6762
▁keys	-10.6764
▁australian	-10.6769
▁library	-10.677
▁cu	-10.6772
pping	-10.6773
▁1990	-10.6774
▁hu	-10.6787
▁temple	-10.679
▁damage	-10.679
▁para	-10.6791
▁suggest	-10.6794
▁weird	-10.6796
▁shh	-10.681
▁nervous	-10.6818
▁acting	-10.6819
▁effort	-10.682
▁average	-10.6821
▁organization	-10.6821
▁map	-10.683
ign	-10.683
▁hills	-10.6834
▁poo	-10.684
▁raise	-10.685
▁material	-10.6852
tal	-10.6855
▁related	-10.6859
▁elected	-10.686
▁companion	-10.6862
▁thrown	-10.6863
▁tra	-10.6866
▁folks	-10.6874
▁grandmother	-10.6882
mb	-10.6884
▁vessel	-10.6887
▁baseball	-10.689
▁concerned	-10.6891
ama	-10.6892
set	-10.6898
▁hook	-10.6905
▁agent	-10.6913
book	-10.6914
down	-10.6914
je	-10.6916
▁peas	-10.6917
▁property	-10.6922
▁latter	-10.6931
▁disappeared	-10.6933
▁40	-10.6934
▁address	-10.6935
▁alex	-10.6935
▁emperor	-10.6938
▁available	-10.6942
▁awake	-10.6943
▁pushed	-10.6953
▁tour	-10.6954
▁remarked	-10.6955
▁apartment	-10.6957
ack	-10.696
▁wound	-10.6965
▁steve	-10.6971
▁percent	-10.6972
▁african	-10.6983
ala	-10.6985
glo	-10.6987
ix	-10.699
stone	-10.6995
ag	-10.6995
ou	-10.6998
▁understood	-10.7
▁tickle	-10.7004
▁burst	-10.7004
▁grant	-10.7012
▁weekend	-10.7023
pu	-10.7025
▁garage	-10.7029
ky	-10.7029
▁bu	-10.7033
▁los	-10.7038
▁worst	-10.7039
▁26	-10.7041
▁bunch	-10.7043
mat	-10.7043
yo	-10.7049
▁individual	-10.705
▁wire	-10.7053
ered	-10.7053
▁fought	-10.7056
▁route	-10.7064
▁fired	-10.7066
▁ob	-10.7071
▁cooking	-10.7077
▁mummie	-10.7077
ica	-10.7079
ay	-10.7079
▁religion	-10.708
▁detective	-10.7091
▁fishing	-10.7093
▁theory	-10.7094
▁plastic	-10.7095
▁fond	-10.7098
vin	-10.7102
▁jerry	-10.7102
▁ideas	-10.7105
19	-10.7105
▁knocked	-10.7107
▁fe	-10.7112
▁noble	-10.7113
▁seriously	-10.7118
▁shooting	-10.712
▁indians	-10.7123
▁economic	-10.7126
▁structure	-10.7127
▁horn	-10.7128
▁soviet	-10.7133
▁alarm	-10.7133
▁ki	-10.7134
▁remembered	-10.7138
▁knowing	-10.7141
▁wagon	-10.7145
ture	-10.7149
▁policy	-10.7154
▁dere	-10.7154
▁drove	-10.7159
▁31	-10.717
gg	-10.7172
▁jam	-10.7173
▁competition	-10.7175
▁~	-10.718
▁ellie	-10.7186
ations	-10.7189
▁throwing	-10.7191
▁independent	-10.7193
▁merry	-10.7196
▁failed	-10.7196
▁butterfly	-10.7197
▁snap	-10.7199
▁unit	-10.72
roz	-10.7201
▁darkness	-10.7202
▁q	-10.7204
▁aware	-10.7219
▁create	-10.7223
▁quit	-10.7224
▁wha	-10.723
▁cro	-10.7232
▁advantage	-10.7239
▁wished	-10.7239
whispers	-10.7241
om	-10.7241
su	-10.7242
▁pole	-10.7243
gue	-10.7246
▁sex	-10.7259
▁jimmy	-10.7259
▁prevent	-10.726
▁comp	-10.726
▁drawn	-10.7262
▁peanut	-10.7271
kh	-10.7273
▁tommy	-10.7276
▁cho	-10.7278
▁gently	-10.7278
▁puppy	-10.7278
tis	-10.7281
▁previous	-10.7288
▁friendly	-10.7298
lyn	-10.7299
▁plus	-10.7312
▁sweetheart	-10.7314
row	-10.7314
▁staying	-10.7324
▁steam	-10.7332
▁bark	-10.7332
▁cave	-10.7339
san	-10.7341
thank	-10.7343
▁mud	-10.7345
▁rub	-10.7346
gie	-10.7354
▁throughout	-10.7354
▁fully	-10.7356
▁temperature	-10.7368
▁freedom	-10.7368
▁chase	-10.7371
▁ram	-10.7375
▁types	-10.7378
▁delight	-10.738
▁mayor	-10.7389
▁burn	-10.7393
▁cur	-10.7395
▁grey	-10.7396
▁traffic	-10.7407
▁boats	-10.7409
▁campaign	-10.7411
▁active	-10.7414
▁sh	-10.7419
▁27	-10.742
ery	-10.7421
▁partner	-10.7421
ology	-10.7424
▁1980	-10.7426
▁newspaper	-10.7429
▁doo	-10.7429
▁pale	-10.7431
▁courage	-10.7444
▁hunting	-10.7445
▁tied	-10.7451
▁za	-10.7455
▁somehow	-10.7456
▁hell	-10.7459
ada	-10.7473
▁mexico	-10.7487
▁smooth	-10.7487
▁uses	-10.7489
▁faces	-10.7489
▁fla	-10.749
▁statistics	-10.7495
▁2016	-10.7496
gh	-10.7499
nes	-10.7505
▁aft	-10.7508
▁pal	-10.7512
▁2003	-10.7514
tan	-10.7514
ld	-10.7515
▁activity	-10.7515
▁stranger	-10.7519
▁pit	-10.7527
▁pile	-10.7528
▁drum	-10.7532
▁elizabeth	-10.7535
▁entirely	-10.7538
▁degree	-10.754
▁mixed	-10.7541
▁familiar	-10.7542
▁fo	-10.7544
▁hockey	-10.7546
▁nana	-10.7548
ches	-10.7549
▁sentence	-10.7552
▁advice	-10.7557
▁hidden	-10.7557
▁candy	-10.7561
▁ahhah	-10.7561
"]	-10.7563
▁separate	-10.7564
▁shower	-10.7565
▁feelings	-10.7571
▁net	-10.7572
will	-10.7572
▁daniel	-10.7576
▁gosh	-10.7576
▁buried	-10.7579
▁quack	-10.7583
▁grandfather	-10.7584
▁deer	-10.7588
▁turkey	-10.759
▁julia	-10.7599
hand	-10.7602
▁split	-10.7602
▁jacket	-10.7604
18	-10.7606
▁neat	-10.7606
▁sposta	-10.7608
▁tale	-10.761
▁eric	-10.7613
▁admit	-10.7637
▁sang	-10.764
▁pulling	-10.7642
▁whistle	-10.7643
▁hunt	-10.7648
▁canadian	-10.765
▁presence	-10.766
▁doors	-10.7662
ria	-10.7663
▁totally	-10.7663
▁becoming	-10.7667
▁data	-10.767
▁cal	-10.7682
ung	-10.7685
▁troops	-10.7685
▁boxes	-10.7686
pl	-10.7689
▁majesty	-10.769
▁touched	-10.7694
your	-10.7698
▁caterpillar	-10.7701
▁qua	-10.7702
pri	-10.7705
▁teams	-10.7713
▁pages	-10.7713
▁reported	-10.7722
▁pond	-10.7722
▁brian	-10.7725
▁currently	-10.7729
▁dying	-10.7731
▁bur	-10.7736
▁ireland	-10.7736
▁determined	-10.774
▁2002	-10.7742
▁branch	-10.7743
▁realized	-10.7746
▁desert	-10.7746
▁adventure	-10.7748
▁chemical	-10.7753
▁blame	-10.7756
▁rice	-10.7763
▁jumping	-10.7764
▁wil	-10.7765
uff	-10.7766
▁slip	-10.7772
▁scotland	-10.7779
▁shock	-10.7785
▁handsome	-10.7785
▁madame	-10.7788
put	-10.7795
ik	-10.7797
▁latin	-10.7806
▁languages	-10.7809
▁yummy	-10.7818
▁ken	-10.7819
▁socks	-10.7824
▁arthur	-10.7825
▁wo	-10.7828
ker	-10.7832
▁families	-10.7832
▁text	-10.7838
▁zzz	-10.784
▁loves	-10.7853
▁student	-10.7862
ised	-10.7863
ep	-10.7865
▁switch	-10.7867
say	-10.7873
ew	-10.7875
▁labour	-10.7881
▁stones	-10.7883
▁knees	-10.7886
hy	-10.7891
▁poet	-10.7898
▁electric	-10.7899
die	-10.7901
▁woo	-10.7901
▁curious	-10.7904
▁shadow	-10.7908
▁instant	-10.7912
tte	-10.7913
▁shame	-10.7915
▁described	-10.7917
▁recently	-10.7925
ü	-10.7925
▁reckon	-10.7927
▁cookies	-10.793
▁volume	-10.7931
▁rear	-10.7932
▁hut	-10.7939
gy	-10.7947
▁paying	-10.7948
▁excitement	-10.795
▁locked	-10.7952
mm	-10.7953
dic	-10.7955
▁cutting	-10.7957
und	-10.7966
▁exercise	-10.7969
ette	-10.7972
▁fifth	-10.7973
▁km	-10.7976
▁height	-10.7979
▁claim	-10.798
▁crayons	-10.7981
▁interview	-10.7981
▁tax	-10.7983
▁shoulders	-10.7991
▁aside	-10.7998
▁matches	-10.8002
▁load	-10.8005
▁pointing	-10.8015
▁produce	-10.8017
mor	-10.8018
▁dump	-10.8021
pin	-10.8022
▁leaf	-10.8023
▁28	-10.8035
▁0	-10.804
▁faint	-10.8041
lia	-10.8044
▁seventy	-10.8045
ye	-10.8048
▁gay	-10.805
▁kinds	-10.8067
21	-10.8069
▁29	-10.8071
▁dunno	-10.8074
▁iii	-10.8074
▁operation	-10.8081
▁doggy	-10.8081
▁picking	-10.8081
ara	-10.8082
board	-10.8083
▁steal	-10.8084
▁pony	-10.8089
▁legal	-10.8091
▁issue	-10.8099
▁lies	-10.8101
▁wore	-10.8102
▁chest	-10.8112
▁pointed	-10.8124
▁whenever	-10.8126
ari	-10.813
▁philip	-10.8131
▁increase	-10.8136
▁duke	-10.8137
▁evidently	-10.8142
▁bone	-10.8145
▁catholic	-10.815
▁waves	-10.8153
▁appreciate	-10.8166
▁grab	-10.8166
▁repeated	-10.8167
▁cre	-10.8172
▁trace	-10.8172
lau	-10.8173
phone	-10.8175
▁festival	-10.8177
▁gathered	-10.8179
▁irish	-10.818
▁normally	-10.8181
▁arrest	-10.8182
▁byebye	-10.8186
lar	-10.8189
▁icecream	-10.8193
▁strip	-10.8193
ight	-10.8195
▁ty	-10.8197
▁deliver	-10.8201
▁rifle	-10.8205
▁eighteen	-10.8205
▁authority	-10.8214
mad	-10.8214
▁postman	-10.8216
▁sits	-10.8217
▁ze	-10.8222
▁gal	-10.8228
▁maid	-10.8233
til	-10.8235
▁slightly	-10.8238
▁progress	-10.8248
▁drops	-10.8251
▁belt	-10.8253
▁mount	-10.8257
25	-10.826
▁planning	-10.8261
▁characters	-10.8262
▁pooh	-10.8264
▁target	-10.8265
▁ce	-10.8268
▁wooden	-10.827
▁rob	-10.8272
▁industry	-10.8275
▁breaking	-10.8279
▁access	-10.8283
▁climate	-10.8287
▁nan	-10.8289
van	-10.8297
▁includes	-10.8299
▁feels	-10.8303
▁rolling	-10.8303
▁dreams	-10.8309
▁shelter	-10.8315
▁yu	-10.8316
vocalize	-10.832
sung	-10.8322
▁musical	-10.8325
▁cats	-10.8327
▁objects	-10.8331
av	-10.8331
▁wing	-10.8332
▁advance	-10.8333
ably	-10.8334
▁demand	-10.8338
▁figures	-10.8346
▁splash	-10.8347
▁diamond	-10.8351
▁boston	-10.8351
▁matters	-10.8362
▁statement	-10.8362
▁rescue	-10.8368
▁lack	-10.8369
▁2015	-10.837
▁jigsaw	-10.8371
ä	-10.8374
▁shout	-10.838
place	-10.8387
▁queer	-10.8423
▁tha	-10.8426
▁observed	-10.8429
▁sixteen	-10.8431
▁eve	-10.8434
▁whee	-10.8435
ped	-10.844
▁function	-10.8445
▁learning	-10.8446
▁albert	-10.8448
▁lisa	-10.8452
▁gen	-10.8453
▁nina	-10.8458
▁nation	-10.8466
▁cliff	-10.8475
▁federal	-10.8479
▁burning	-10.8484
▁eventually	-10.8487
▁slept	-10.8487
▁transport	-10.849
▁mix	-10.8492
▁wipe	-10.8494
▁lamp	-10.8497
▁bits	-10.8497
rk	-10.8501
sure	-10.8506
▁rent	-10.8508
▁ter	-10.8514
▁2,	-10.8517
▁congress	-10.8523
door	-10.8525
▁tunnel	-10.8527
▁piano	-10.8527
▁scientists	-10.8533
▁fu	-10.8536
▁clap	-10.854
▁yards	-10.8541
▁polly	-10.8543
▁lane	-10.8544
▁recorder	-10.8549
▁purse	-10.8549
▁fleet	-10.855
dor	-10.8551
zy	-10.8555
ae	-10.8564
▁spite	-10.8565
▁victory	-10.8572
ever	-10.8574
▁organ	-10.8576
▁passage	-10.8578
▁companies	-10.858
▁banana	-10.8584
▁destroyed	-10.8585
▁coal	-10.8586
have	-10.8594
▁owe	-10.8595
▁conference	-10.8596
turns	-10.8602
nu	-10.8605
qua	-10.8606
▁tan	-10.8609
▁scarcely	-10.861
▁colour	-10.8611
▁nu	-10.8616
▁swear	-10.8616
▁recorded	-10.8626
▁1970	-10.8629
▁canoe	-10.8629
rus	-10.8631
▁gain	-10.8632
▁pillow	-10.8633
▁der	-10.8634
ded	-10.8639
▁mainly	-10.8641
▁bloody	-10.8645
▁cop	-10.8646
▁angeles	-10.8649
▁wounded	-10.865
▁unknown	-10.8651
▁wondered	-10.8653
tive	-10.8654
▁effects	-10.8655
nor	-10.8655
▁beneath	-10.8657
▁listened	-10.8658
▁originally	-10.8664
▁ci	-10.8665
boy	-10.8666
▁bucket	-10.8679
▁clouds	-10.8681
▁tuesday	-10.8682
▁scale	-10.8687
▁racing	-10.8691
▁nap	-10.8692
▁soap	-10.8701
▁dorothy	-10.8702
▁keeps	-10.8705
▁established	-10.8707
▁reasons	-10.871
”.	-10.8713
▁pity	-10.8715
▁fourteen	-10.8716
▁useful	-10.8716
▁pants	-10.8724
▁speaker	-10.8727
▁positive	-10.8728
▁stepped	-10.8732
▁jan	-10.8735
▁prisoners	-10.8738
may	-10.8741
▁features	-10.8742
▁robin	-10.8745
▁¶	-10.8753
▁spare	-10.8753
iz	-10.8756
▁chamber	-10.8756
▁democratic	-10.8758
long	-10.8759
▁ur	-10.876
fer	-10.8763
▁rail	-10.8765
▁goal	-10.8767
▁weapons	-10.8768
ties	-10.8771
ray	-10.8773
▁potato	-10.8773
▁craft	-10.8776
▁bodies	-10.8777
▁restaurant	-10.8781
▁fri	-10.8781
▁creature	-10.8782
▁plot	-10.8785
▁symbol	-10.8792
town	-10.8796
▁trans	-10.8801
rr	-10.8811
tain	-10.8816
mic	-10.8817
▁stomach	-10.8818
▁fireman	-10.8823
making	-10.8826
▁collection	-10.8829
▁com	-10.8833
▁fed	-10.8833
▁2023	-10.884
▁rapidly	-10.8845
▁settlement	-10.8848
▁flash	-10.885
▁describe	-10.885
len	-10.8851
▁lifted	-10.8854
▁proved	-10.8855
▁comedy	-10.8856
▁sar	-10.8857
bel	-10.8858
▁rod	-10.8858
ugh	-10.8869
▁giraffe	-10.8877
▁enjoyed	-10.8878
▁prefer	-10.8878
▁underneath	-10.8881
▁switzerland	-10.8885
▁owned	-10.8893
▁fate	-10.8894
▁auntie	-10.8897
▁walter	-10.8903
▁folk	-10.8905
ther	-10.8906
▁lonely	-10.8916
▁performed	-10.8917
▁beg	-10.8918
▁engaged	-10.8919
▁guest	-10.892
▁guilty	-10.8921
music	-10.8926
cent	-10.8928
▁challenge	-10.8931
▁screen	-10.8938
▁exciting	-10.894
▁thunder	-10.894
▁woof	-10.895
13	-10.8954
▁trap	-10.8964
▁prisoner	-10.8965
▁steady	-10.8971
▁horrible	-10.8973
▁thursday	-10.8973
▁warning	-10.8978
▁responsible	-10.8978
▁invited	-10.8981
▁removed	-10.8983
ven	-10.8985
▁drug	-10.8985
▁content	-10.899
▁steel	-10.8992
▁lucy	-10.8997
▁oliver	-10.8997
▁producer	-10.8998
▁cups	-10.9005
▁opera	-10.9008
▁couch	-10.901
father	-10.9014
fo	-10.9015
▁recognize	-10.9015
▁habit	-10.9019
▁pakistan	-10.902
▁picnic	-10.9024
▁nearer	-10.9026
▁maria	-10.9026
▁polish	-10.9029
▁forms	-10.903
▁senior	-10.9033
▁divided	-10.9037
▁rode	-10.9039
▁peggy	-10.9042
▁cage	-10.9043
his	-10.9045
▁voices	-10.9049
▁trains	-10.9049
▁app	-10.9049
▁delicious	-10.905
▁suspect	-10.9052
▁mighty	-10.9053
▁uniform	-10.9054
▁fre	-10.9059
eth	-10.9062
▁hurried	-10.9072
▁def	-10.9077
▁britain	-10.9084
ade	-10.9085
rn	-10.9086
▁fl	-10.9092
▁pitch	-10.9092
▁ordinary	-10.9092
▁pure	-10.9093
▁religious	-10.9097
▁remove	-10.9104
▁ph	-10.9104
▁tend	-10.9105
▁pur	-10.9112
▁settle	-10.9113
▁concert	-10.9114
holds	-10.9118
cus	-10.9121
▁1960	-10.9127
▁source	-10.9128
coughs	-10.9131
▁beans	-10.9131
▁truly	-10.9131
▁matt	-10.9135
▁glance	-10.914
ock	-10.9141
▁pulls	-10.9142
▁dawn	-10.9143
▁bless	-10.9145
▁incident	-10.9153
▁closely	-10.916
▁shift	-10.9162
uring	-10.9167
▁losing	-10.9169
▁sergeant	-10.9174
▁arab	-10.9176
ec	-10.9176
ens	-10.9177
▁jail	-10.918
ering	-10.9182
▁pla	-10.9189
▁protest	-10.9189
get	-10.9192
tell	-10.9195
▁difficulty	-10.9197
▁kidding	-10.9197
60	-10.9197
giggles	-10.9203
▁struggle	-10.9204
▁client	-10.9205
▁occasion	-10.9212
▁location	-10.9213
▁innocent	-10.9213
▁1999	-10.9218
14	-10.9219
▁circus	-10.9222
▁hunter	-10.9222
vy	-10.9223
▁fields	-10.9227
gle	-10.9231
▁zealand	-10.9239
▁woke	-10.9244
sk	-10.9246
▁relief	-10.9248
▁pray	-10.9248
▁brick	-10.9253
▁teaching	-10.9253
▁schools	-10.9257
top	-10.9259
ister	-10.926
▁alexander	-10.9266
▁bend	-10.9268
nny	-10.9273
▁beer	-10.9274
▁bones	-10.9278
ino	-10.9279
▁donald	-10.9279
▁susan	-10.928
▁stroke	-10.9282
▁chips	-10.9284
▁plum	-10.9285
hal	-10.9285
▁results	-10.9285
▁supply	-10.9296
cla	-10.93
▁entrance	-10.9304
▁regret	-10.9305
▁winner	-10.9311
▁sally	-10.9313
▁becky	-10.9317
▁wednesday	-10.9317
▁treatment	-10.9319
ula	-10.9326
▁washed	-10.9329
▁winning	-10.933
▁bishop	-10.9331
star	-10.9343
▁competed	-10.9346
⌋	-10.9348
▁badly	-10.9349
▁nicole	-10.9353
▁landed	-10.9362
▁hal	-10.9375
▁vice	-10.9384
▁jenny	-10.9385
▁dam	-10.9386
▁cra	-10.9388
kf	-10.9389
▁bon	-10.9394
▁cheer	-10.9395
elle	-10.9402
lies	-10.9404
▁tre	-10.9413
▁florence	-10.9414
five	-10.9434
▁junior	-10.9436
▁hoping	-10.9442
40	-10.9443
worth	-10.9447
▁chat	-10.945
▁(20	-10.9451
▁witch	-10.9454
▁greatly	-10.9456
▁bricks	-10.9456
▁sisters	-10.9457
ue	-10.9458
▁fork	-10.9461
▁buildings	-10.9464
ists	-10.9468
▁hy	-10.9471
▁generation	-10.9473
▁pine	-10.9474
▁firstname	-10.9477
▁streets	-10.948
sur	-10.9485
▁bid	-10.9491
▁bent	-10.9494
▁slipped	-10.9494
▁revolution	-10.9498
▁mmm	-10.9498
pointing	-10.9498
▁regard	-10.9499
▁shouting	-10.9501
16	-10.9505
▁killing	-10.9509
▁1996	-10.9517
▁treated	-10.9518
▁policeman	-10.952
pp	-10.9523
▁changing	-10.9524
▁opens	-10.953
▁pitcher	-10.953
▁programme	-10.9531
▁quality	-10.9534
▁2020,	-10.9536
▁lorry	-10.9544
▁daily	-10.9547
▁branches	-10.9548
▁balance	-10.9548
▁dar	-10.9551
▁mus	-10.9552
▁pu	-10.9552
▁1992	-10.9561
▁thirteen	-10.957
▁uk	-10.9571
▁experiment	-10.9571
▁lit	-10.9574
▁lesson	-10.9576
▁mustn	-10.9584
bed	-10.9585
▁setting	-10.9586
ux	-10.9592
▁caroline	-10.9593
▁limit	-10.9596
▁circumstances	-10.9599
▁request	-10.96
mr	-10.9603
▁marie	-10.9612
▁andrew	-10.9612
▁nancy	-10.9616
▁toilet	-10.9617
ify	-10.9618
▁focus	-10.9618
▁pattern	-10.9619
▁bond	-10.9627
duc	-10.9643
az	-10.965
ets	-10.9655
ks	-10.9663
▁sink	-10.967
▁drunk	-10.9674
vis	-10.9674
bert	-10.9675
▁accepted	-10.9676
▁mag	-10.9688
▁planned	-10.9689
▁holes	-10.9693
ura	-10.9693
gro	-10.9696
▁1998	-10.9701
▁bun	-10.9702
▁concern	-10.9702
▁happiness	-10.9715
▁refused	-10.9715
▁eddie	-10.9715
rum	-10.9715
▁frogs	-10.9717
▁lou	-10.9718
uch	-10.9719
▁seal	-10.9721
dan	-10.9726
▁keen	-10.9728
▁universe	-10.9728
▁lover	-10.9734
▁solid	-10.9734
▁affairs	-10.9737
▁jackson	-10.9737
▁annie	-10.9738
▁tro	-10.9743
▁dish	-10.9749
tel	-10.975
▁file	-10.975
▁ruin	-10.9752
▁expensive	-10.9756
▁chosen	-10.9756
▁rushed	-10.9762
▁creek	-10.9765
▁marks	-10.9766
▁upside	-10.977
ō	-10.9774
▁oak	-10.9775
▁clip	-10.9779
▁counter	-10.978
▁farther	-10.9781
▁cab	-10.9781
▁comb	-10.9784
ena	-10.9795
▁pride	-10.9795
▁flip	-10.9797
▁connection	-10.9804
uck	-10.9805
▁becomes	-10.9806
▁parties	-10.9807
▁aah	-10.981
bell	-10.981
▁captured	-10.9816
ila	-10.9817
ization	-10.982
boat	-10.9822
`	-10.9822
uc	-10.9824
▁introduced	-10.9837
▁pas	-10.984
▁weapon	-10.9848
▁crocodile	-10.9852
▁notes	-10.9853
▁destroy	-10.9856
tes	-10.9858
▁molly	-10.9859
▁bears	-10.9861
▁favour	-10.9865
▁thousands	-10.9868
water	-10.9869
art	-10.9871
cho	-10.9872
nina	-10.9872
bird	-10.9873
rac	-10.988
▁1995	-10.988
▁matthew	-10.9885
▁replaced	-10.9891
▁engineer	-10.9895
bus	-10.9901
▁principal	-10.9903
▁required	-10.9908
▁talks	-10.9908
▁devil	-10.9915
ug	-10.9915
▁clay	-10.9918
ini	-10.9921
▁trousers	-10.9922
▁kat	-10.9923
▁brazil	-10.9925
▁bri	-10.9926
ose	-10.9936
▁climbing	-10.9937
▁savage	-10.9941
▁bug	-10.9944
boo	-10.9944
▁ji	-10.9944
▁escaped	-10.9945
▁vo	-10.9948
▁victim	-10.9952
lie	-10.9956
▁actual	-10.9956
▁arrive	-10.9958
▁1994	-10.9959
▁territory	-10.9964
▁ash	-10.9969
voice	-10.9972
▁whale	-10.9974
▁satisfied	-10.9979
▁[4	-10.998
▁criminal	-10.9982
▁hol	-10.9986
▁studies	-10.9987
mhm	-10.999
▁rat	-10.9991
▁relax	-10.9995
▁scary	-10.9999
▁nut	-11.0002
▁intended	-11.0003
▁egypt	-11.0004
▁fund	-11.0004
▁platform	-11.0006
mus	-11.0006
▁recognized	-11.0021
▁stable	-11.0024
▁tummy	-11.0025
▁debut	-11.0025
▁etc	-11.0025
▁pepper	-11.0035
▁dishes	-11.0043
▁tropical	-11.0043
▁dolls	-11.0043
tz	-11.0045
illa	-11.005
▁seek	-11.0051
▁laws	-11.0055
two	-11.0057
▁audience	-11.0058
▁beast	-11.0072
▁splendid	-11.0076
▁device	-11.0078
ob	-11.0084
▁virginia	-11.0085
ging	-11.01
▁attacked	-11.0103
▁daisy	-11.0105
▁brief	-11.0106
pet	-11.0111
▁wand	-11.0112
which	-11.0113
▁armed	-11.0115
▁buzz	-11.0116
▁approach	-11.0118
▁punch	-11.0118
▁(;	-11.0119
bble	-11.012
ane	-11.0125
▁patsy	-11.0136
▁saving	-11.0138
▁danny	-11.0149
▁drugs	-11.015
▁shell	-11.0151
▁belongs	-11.0155
▁instance	-11.0157
lou	-11.0159
▁altogether	-11.0162
▁tune	-11.0164
▁killer	-11.0164
▁arrested	-11.0166
▁lads	-11.0167
eg	-11.0167
▁sooner	-11.0171
▁powder	-11.0171
▁oven	-11.0175
▁jimmie	-11.0176
▁chop	-11.0176
▁signs	-11.0177
ification	-11.0183
▁rolled	-11.0184
▁traditional	-11.0185
▁hoped	-11.0186
▁lil	-11.0186
▁des	-11.0189
▁ee	-11.0191
ere	-11.0192
▁fer	-11.0197
▁rare	-11.0198
sey	-11.0199
▁hasta	-11.0201
sc	-11.0203
▁provided	-11.0204
▁dun	-11.0206
▁crossed	-11.0207
oy	-11.0215
▁2020)	-11.0217
▁chairs	-11.022
▁basically	-11.0224
air	-11.0225
▁addition	-11.0227
▁ticket	-11.0229
▁eagerly	-11.0236
shouts	-11.0237
ration	-11.024
▁pushing	-11.0242
▁affair	-11.0243
▁stole	-11.025
▁ser	-11.025
▁champion	-11.0251
▁technology	-11.0252
▁ski	-11.0254
▁origin	-11.0255
▁footnote	-11.0263
▁conditions	-11.0265
▁fra	-11.027
▁gained	-11.0275
▁shining	-11.0275
▁demanded	-11.0275
yl	-11.0277
▁hen	-11.0284
▁stir	-11.0286
▁cent	-11.0289
▁household	-11.0289
▁1997	-11.0291
▁possession	-11.0292
▁aim	-11.0294
▁reg	-11.0297
new	-11.0301
actually	-11.0304
▁cottage	-11.0305
ei	-11.0306
wait	-11.0308
▁lessons	-11.0308
▁rachel	-11.0315
shire	-11.0316
▁mistress	-11.0316
▁connected	-11.0317
ava	-11.0321
net	-11.0322
▁delighted	-11.0325
▁spy	-11.0326
▁bounce	-11.0329
ann	-11.0334
▁mickey	-11.0335
▁$1	-11.0336
▁method	-11.0337
▁reaction	-11.0337
▁cheap	-11.0338
▁remains	-11.0338
▁repeat	-11.0339
▁ouch	-11.0344
▁assistant	-11.0349
▁rev	-11.0354
▁belief	-11.0354
▁baba	-11.0359
▁entertainment	-11.0364
▁refer	-11.0365
▁slave	-11.0366
▁designed	-11.0372
▁emergency	-11.0373
▁bags	-11.0374
stra	-11.0375
▁pumpkin	-11.0384
▁physical	-11.0385
▁conf	-11.0393
▁parish	-11.0397
▁rap	-11.0398
▁appointed	-11.04
▁enemies	-11.0402
▁wrestling	-11.0402
▁sale	-11.0403
▁selected	-11.0404
ston	-11.0405
▁chart	-11.0407
gged	-11.0407
▁occurred	-11.0408
▁vol	-11.0409
▁peekaboo	-11.0412
▁useta	-11.0417
▁rocket	-11.042
▁magnet	-11.042
▁laughter	-11.0422
rri	-11.0423
▁climbed	-11.0426
▁suffering	-11.0427
▁navy	-11.0428
playing	-11.0434
sky	-11.0436
▁assembly	-11.0437
▁sending	-11.0439
▁sticks	-11.0439
▁protection	-11.0439
▁tender	-11.0441
▁fuss	-11.0446
ris	-11.0452
shed	-11.0454
▁kit	-11.0466
▁eager	-11.0467
▁remind	-11.0467
rate	-11.0475
dale	-11.0477
▁comic	-11.0479
▁sexual	-11.0479
del	-11.0484
▁margaret	-11.0486
▁squirrel	-11.0486
▁sunshine	-11.0486
▁appears	-11.0487
▁johnny	-11.0489
involuntary	-11.0496
▁hearts	-11.0496
▁carpet	-11.05
▁[$	-11.0506
▁dude	-11.0507
dies	-11.0513
▁scheme	-11.0515
▁sc	-11.0518
▁3,	-11.0518
ó	-11.0519
▁jelly	-11.0525
▁barbara	-11.053
most	-11.0532
▁oldest	-11.0533
▁brook	-11.0538
▁sacrifice	-11.054
▁selling	-11.0542
▁bel	-11.0544
eva	-11.0545
23	-11.0545
key	-11.055
▁mood	-11.0552
nch	-11.0555
▁reference	-11.0555
▁extremely	-11.0555
ick	-11.0557
▁georgia	-11.0557
ero	-11.0562
▁frame	-11.0565
▁photo	-11.0569
▁straw	-11.0569
▁basketball	-11.057
▁harder	-11.0571
▁sailor	-11.0571
▁cows	-11.0572
▁dave	-11.0572
▁description	-11.0575
ben	-11.0578
hood	-11.0582
▁systems	-11.0584
⌉	-11.0585
▁towns	-11.0591
▁seated	-11.0592
zu	-11.0594
▁ringing	-11.0597
ddle	-11.0599
▁cruel	-11.0601
▁bla	-11.0602
▁sigh	-11.0603
ell	-11.0604
▁fail	-11.0611
▁increased	-11.0613
▁gotten	-11.0617
▁tissue	-11.0619
▁bible	-11.0619
▁cough	-11.062
▁sara	-11.0621
▁ambulance	-11.0624
▁failure	-11.0625
▁wal	-11.0629
ola	-11.063
▁mask	-11.063
▁leap	-11.0631
bury	-11.0633
▁squeeze	-11.0639
▁appeal	-11.0644
▁exist	-11.0651
mann	-11.0654
▁sandy	-11.0662
▁drawer	-11.0665
▁ends	-11.0667
eh	-11.0671
yeah	-11.0672
▁details	-11.0674
▁workers	-11.0675
▁guests	-11.068
▁cart	-11.0681
bri	-11.0682
ates	-11.0684
▁reward	-11.0689
▁1991	-11.07
▁recent	-11.0705
▁ren	-11.0706
fire	-11.0706
▁watches	-11.0712
▁1988	-11.0715
▁rattle	-11.0716
aunt	-11.0717
▁kindly	-11.0718
▁ol	-11.072
▁temper	-11.0725
about	-11.0726
ory	-11.0729
▁distributed	-11.0735
▁breast	-11.0735
▁discover	-11.0736
▁ding	-11.0741
▁toes	-11.0744
▁sp	-11.0748
▁mystery	-11.0755
▁commission	-11.0757
▁distant	-11.076
ale	-11.0766
▁potatoes	-11.077
any	-11.0771
▁warren	-11.0773
▁adventures	-11.0779
▁semi	-11.0779
sel	-11.0782
▁suffered	-11.079
▁nations	-11.079
▁strawberry	-11.079
▁argument	-11.0795
▁confidence	-11.0795
▁kitten	-11.0801
án	-11.0802
ged	-11.0803
▁kin	-11.0804
▁mabel	-11.0804
▁len	-11.0804
▁2013	-11.0805
▁commercial	-11.0805
serv	-11.0813
▁theatre	-11.0815
▁passengers	-11.0817
▁kate	-11.082
ese	-11.0825
▁cents	-11.0825
▁--	-11.0829
▁highly	-11.0829
▁60	-11.083
▁candidate	-11.0836
▁arranged	-11.0837
▁pirate	-11.0837
▁peak	-11.0838
▁grateful	-11.0839
▁complex	-11.0841
▁awww	-11.0842
▁knight	-11.0843
▁asia	-11.0845
ata	-11.0846
▁burned	-11.0847
hel	-11.0848
bby	-11.0852
▁rapid	-11.0855
▁gre	-11.0858
▁musician	-11.0862
▁roar	-11.0867
▁wales	-11.0868
run	-11.0876
▁tournament	-11.0877
cher	-11.0877
▁jason	-11.0879
▁hadta	-11.0882
after	-11.0883
▁presents	-11.0887
▁disney	-11.0889
▁blowing	-11.0897
▁suffer	-11.0903
▁estate	-11.091
▁stops	-11.0911
nar	-11.0917
▁williams	-11.0923
▁equipment	-11.0928
▁stack	-11.0928
▁landing	-11.0929
▁grade	-11.093
▁exchange	-11.0931
▁legend	-11.0934
▁sweden	-11.0939
▁rude	-11.094
▁lt	-11.0941
only	-11.0949
▁crawl	-11.0951
▁false	-11.0952
▁arts	-11.0954
▁marked	-11.0955
▁scout	-11.0958
▁intention	-11.096
▁stamp	-11.0962
▁buttons	-11.0966
fall	-11.0976
▁prepare	-11.0988
ett	-11.0991
▁buying	-11.0991
▁gri	-11.0993
▁skill	-11.0998
win	-11.0999
▁julie	-11.1001
▁driven	-11.101
▁chess	-11.1011
▁fever	-11.1013
ré	-11.1015
▁measure	-11.1016
ano	-11.1023
}	-11.1031
▁cries	-11.1035
ira	-11.1041
▁grapes	-11.1045
sie	-11.1045
▁secure	-11.1046
▁sneak	-11.1047
dra	-11.1049
▁rang	-11.1052
▁stra	-11.1061
ien	-11.1061
▁tracks	-11.1064
▁kissed	-11.1068
gn	-11.1069
▁painted	-11.107
▁austria	-11.1073
▁scare	-11.1085
▁slight	-11.1087
▁institute	-11.1089
▁raining	-11.1091
▁stretch	-11.1095
▁chu	-11.1096
▁worn	-11.1105
▁fin	-11.1106
▁exp	-11.1107
▁precious	-11.111
▁gil	-11.1116
tha	-11.1129
▁louise	-11.113
▁poison	-11.1131
ú	-11.1136
▁unable	-11.1137
▁fold	-11.1139
▁spaghetti	-11.1141
▁gum	-11.1142
▁print	-11.1143
▁unusual	-11.1144
▁strain	-11.1145
▁anchor	-11.1147
▁lately	-11.115
▁jungle	-11.1153
▁simon	-11.1156
▁horror	-11.1157
▁cereal	-11.1157
▁kar	-11.116
▁gro	-11.1169
▁collect	-11.1174
▁tire	-11.1176
aun	-11.1176
▁breathing	-11.1176
▁financial	-11.1178
▁sofa	-11.1178
▁roles	-11.1179
▁poorly	-11.1179
▁canton	-11.1182
▁cord	-11.1185
gon	-11.1185
▁construction	-11.1189
▁israel	-11.1189
▁click	-11.1193
▁bomba	-11.1193
▁nah	-11.1194
▁silk	-11.1196
▁stronger	-11.1198
▁naturally	-11.12
cu	-11.1212
▁jobs	-11.1215
▁ryan	-11.1215
▁terror	-11.1215
▁tear	-11.1227
var	-11.1228
tie	-11.1228
▁granddad	-11.123
▁lodge	-11.1232
bre	-11.1233
▁anger	-11.1236
▁tur	-11.1237
17	-11.124
▁despite	-11.1247
▁sylvia	-11.1247
▁spirits	-11.1251
▁chose	-11.1254
▁permission	-11.1258
▁ugh	-11.1258
▁cricket	-11.1261
▁somethin	-11.1264
▁scratch	-11.1269
▁gina	-11.1272
▁helicopter	-11.1273
▁reign	-11.1277
▁proof	-11.128
▁baker	-11.1284
▁acid	-11.1284
▁parent	-11.1293
▁1993	-11.1295
ure	-11.1296
▁bubbles	-11.1299
▁expert	-11.1305
mark	-11.1307
▁presented	-11.1308
▁guitar	-11.131
shakes	-11.1311
2.	-11.1312
▁sid	-11.1314
▁soil	-11.1316
cc	-11.1324
▁letting	-11.1324
▁shark	-11.1327
▁americans	-11.133
▁vision	-11.1332
▁1989	-11.1338
calais	-11.1338
▁benefit	-11.1339
▁environment	-11.1344
▁cock	-11.1347
▁sim	-11.1347
round	-11.1348
▁sprang	-11.1348
cept	-11.135
▁powers	-11.135
hoo	-11.135
▁breathe	-11.1355
▁returning	-11.1362
has	-11.1364
▁stove	-11.1366
▁management	-11.1366
▁jeff	-11.1366
▁advanced	-11.1367
▁romantic	-11.1368
▁tools	-11.137
▁backwards	-11.137
▁sauce	-11.1376
▁4,	-11.1377
▁hurts	-11.1378
whispered	-11.1378
▁pace	-11.1382
bal	-11.1385
▁2019	-11.1389
▁ellen	-11.1392
▁speaks	-11.1393
▁servant	-11.1399
▁chick	-11.1404
izing	-11.1405
ition	-11.1405
▁noisy	-11.1407
ening	-11.141
▁abe	-11.1412
▁hurricane	-11.1413
▁fetch	-11.1413
lus	-11.1415
▁barrel	-11.1422
▁billion	-11.1426
▁ashamed	-11.1429
ear	-11.143
▁tick	-11.1437
▁gee	-11.1439
è	-11.144
▁salad	-11.1443
▁deserve	-11.1443
bin	-11.1444
▁christopher	-11.1445
▁netherlands	-11.1445
▁humans	-11.1446
▁specific	-11.1448
▁web	-11.1451
▁wit	-11.1456
▁eu	-11.1462
iff	-11.1464
aid	-11.1464
▁missouri	-11.1467
▁basic	-11.1468
▁von	-11.1468
▁container	-11.1473
▁mont	-11.148
py	-11.1481
▁label	-11.1481
▁marine	-11.1483
▁dem	-11.1483
▁republican	-11.1487
▁stiff	-11.1491
▁defeat	-11.1497
▁completed	-11.1503
▁throws	-11.1505
▁dollar	-11.1512
▁cone	-11.1515
▁sleepy	-11.1526
▁slice	-11.1527
vocalization	-11.1529
▁cells	-11.1532
24	-11.1536
▁lang	-11.1537
28	-11.1539
gt	-11.1543
▁chin	-11.1545
fra	-11.1545
chan	-11.1545
sound	-11.1551
▁briefly	-11.1557
▁sounded	-11.1561
cur	-11.1562
▁depends	-11.1563
▁wh	-11.1565
jack	-11.1566
▁succeeded	-11.157
▁sore	-11.1571
▁factory	-11.1573
▁comment	-11.1575
▁[5	-11.158
▁tray	-11.158
▁teachers	-11.1582
▁spa	-11.1582
▁bass	-11.1582
▁plates	-11.1584
▁article	-11.1589
▁sorts	-11.1589
tom	-11.1589
▁proposed	-11.1592
▁dee	-11.1595
▁kings	-11.1595
▁bud	-11.1598
▁product	-11.1601
▁package	-11.1606
▁witness	-11.1613
ami	-11.1614
four	-11.1616
▁flo	-11.1617
22	-11.1626
▁glory	-11.1626
▁tradition	-11.1637
▁pad	-11.1641
▁johnson	-11.1642
▁shaking	-11.1651
▁handed	-11.1651
▁jersey	-11.1653
▁grandad	-11.1654
▁cl	-11.166
form	-11.166
▁senate	-11.1665
▁cupboard	-11.1666
▁builder	-11.1668
from	-11.1672
gin	-11.1674
referring	-11.1675
▁bullet	-11.1675
▁ability	-11.168
▁ducks	-11.1684
▁gene	-11.1686
▁admitted	-11.1688
▁mur	-11.1694
act	-11.1702
▁responsibility	-11.1703
af	-11.1708
▁pushes	-11.1711
oma	-11.1711
▁issues	-11.1713
*	-11.1714
▁rep	-11.1715
▁wool	-11.1717
▁korea	-11.172
▁loving	-11.1721
▁leans	-11.1722
▁carolina	-11.1725
screams	-11.1726
ple	-11.173
american	-11.1741
▁conduct	-11.1743
▁lois	-11.1745
▁crow	-11.1752
▁es	-11.1753
ching	-11.1764
▁chip	-11.1764
▁mental	-11.1773
▁spots	-11.1774
▁companions	-11.1776
▁belle	-11.1778
▁angle	-11.1782
▁defense	-11.1786
▁char	-11.1789
▁constant	-11.179
▁buck	-11.1791
▁highway	-11.18
▁whoo	-11.1801
▁apples	-11.1802
▁threat	-11.1804
▁labor	-11.1807
▁200	-11.1813
non	-11.1814
▁morgan	-11.1816
fish	-11.1821
▁occupied	-11.1822
▁explanation	-11.1826
june	-11.1827
▁talent	-11.1827
▁brings	-11.1827
▁aha	-11.183
▁expedition	-11.1831
▁triangle	-11.1837
▁cotton	-11.1838
▁stolen	-11.1843
roll	-11.1844
▁zero	-11.1845
ax	-11.185
▁boot	-11.1851
▁sock	-11.1852
▁seized	-11.1856
▁battery	-11.1858
dr	-11.186
ib	-11.1861
▁agreement	-11.1862
▁sales	-11.1864
aries	-11.1867
▁image	-11.1868
▁1950	-11.1871
ising	-11.1875
▁cape	-11.188
tail	-11.1889
▁profit	-11.1893
▁francis	-11.1893
▁jeannine	-11.1893
pre	-11.1894
wn	-11.1902
▁1984	-11.1905
▁thoughts	-11.1905
▁vocalises	-11.1905
▁bushes	-11.1906
▁screaming	-11.1911
▁tribe	-11.1913
▁joint	-11.1913
yan	-11.1914
▁checked	-11.1917
▁bench	-11.1917
ima	-11.192
▁develop	-11.1924
▁portion	-11.1926
▁dur	-11.1927
▁lily	-11.1929
tree	-11.1931
▁missus	-11.1932
▁valuable	-11.1939
▁tide	-11.1939
▁stadium	-11.1944
▁funeral	-11.1944
▁headquarters	-11.1944
▁discuss	-11.1945
rob	-11.1949
▁iv	-11.1949
▁costume	-11.195
▁pope	-11.1951
▁fc	-11.1953
▁earn	-11.1954
▁stopping	-11.1955
▁cy	-11.1959
▁surrounded	-11.1959
▁tam	-11.1963
ability	-11.1971
27	-11.1971
▁furniture	-11.1973
▁discovery	-11.1973
▁shops	-11.1977
▁peep	-11.1982
hmm	-11.1989
▁nat	-11.1991
▁din	-11.1991
gai	-11.1992
ella	-11.1995
pur	-11.1996
▁oop	-11.1997
▁meow	-11.1999
mont	-11.1999
▁shade	-11.2
45	-11.2003
▁seats	-11.2006
▁shortly	-11.2008
▁facing	-11.2008
cal	-11.2012
cut	-11.2012
▁capture	-11.2013
▁investigation	-11.2013
▁scar	-11.2016
ram	-11.2018
▁limited	-11.2021
▁hind	-11.2022
▁wherever	-11.2022
▁reality	-11.2031
▁aboard	-11.2031
▁edition	-11.2036
▁merchant	-11.2042
▁politics	-11.2047
perhaps	-11.2047
▁auto	-11.2048
▁moral	-11.2049
master	-11.205
▁fame	-11.2058
▁inhabitants	-11.2059
▁cheeks	-11.2062
▁historical	-11.2064
–1	-11.2065
▁frost	-11.2071
▁2019,	-11.2072
▁stu	-11.2075
▁rec	-11.2079
▁begun	-11.2081
▁unfortunately	-11.2081
▁beads	-11.2085
▁cowboy	-11.2089
▁mini	-11.2091
▁sheet	-11.2091
▁beth	-11.2094
▁midnight	-11.2094
▁ages	-11.2096
▁voyage	-11.2099
▁neighborhood	-11.2099
mate	-11.2101
▁meanwhile	-11.2101
fu	-11.2104
▁faithful	-11.2109
▁healthy	-11.211
▁victoria	-11.2112
▁www	-11.2112
▁heavily	-11.2122
▁loudly	-11.2123
▁vacation	-11.2129
lea	-11.2131
▁perform	-11.2138
▁illinois	-11.214
▁senator	-11.214
▁economy	-11.2146
▁executive	-11.2146
▁sixth	-11.2146
▁communication	-11.2151
qu	-11.2152
▁girlfriend	-11.2156
bie	-11.216
▁require	-11.2161
▁5,	-11.2165
▁momma	-11.2174
▁elder	-11.2175
▁safely	-11.2183
known	-11.2189
babble	-11.2189
▁carrots	-11.2189
fl	-11.2193
▁ugly	-11.2198
▁sy	-11.22
yard	-11.2201
▁pete	-11.2202
▁link	-11.2205
▁compared	-11.2206
▁crab	-11.2207
▁minor	-11.2209
▁nodded	-11.221
▁arch	-11.2211
26	-11.2211
▁jr	-11.2218
istic	-11.2221
▁expecting	-11.2223
▁emma	-11.2224
▁flow	-11.223
▁merely	-11.2231
▁easter	-11.2233
▁1987	-11.2233
under	-11.2234
▁suggestion	-11.224
95	-11.2248
▁attend	-11.2249
▁swa	-11.225
▁editor	-11.2251
▁roy	-11.2251
▁affect	-11.2255
▁wishes	-11.226
▁defence	-11.2269
▁sons	-11.227
▁nonsense	-11.227
ect	-11.2273
▁sydney	-11.2274
▁patrick	-11.2275
▁hawk	-11.2278
▁mercy	-11.2279
▁refuse	-11.228
crying	-11.2281
▁bearing	-11.2283
▁sur	-11.2284
▁ali	-11.2285
dog	-11.2294
▁launch	-11.2295
bit	-11.2301
▁alan	-11.2302
▁atlantic	-11.2304
▁eagle	-11.2304
▁charm	-11.2306
▁reform	-11.2306
▁principle	-11.2309
▁goals	-11.231
▁pacific	-11.2311
▁asian	-11.2312
▁bare	-11.2315
▁shy	-11.2321
mond	-11.2323
▁blew	-11.2323
▁majority	-11.2326
▁charlotte	-11.2327
▁prayer	-11.2327
▁dull	-11.2332
▁whoever	-11.2335
▁anyhow	-11.2337
▁gather	-11.2339
▁arrival	-11.2339
99	-11.234
ox	-11.234
▁6,	-11.2341
▁nominated	-11.2345
▁stephen	-11.2345
▁screw	-11.2348
wing	-11.2348
▁scrap	-11.2349
▁cleaning	-11.2355
▁gran	-11.2355
▁beam	-11.2355
▁wilson	-11.2358
▁chew	-11.236
▁creatures	-11.2362
▁bernard	-11.2363
▁attached	-11.2364
hl	-11.2364
ean	-11.2366
even	-11.2372
▁clothing	-11.2378
▁raid	-11.238
▁skirt	-11.2387
▁zi	-11.2388
▁sings	-11.2392
▁1972	-11.2393
▁7,	-11.2395
▁vain	-11.2397
▁1986	-11.2399
▁mari	-11.2401
rge	-11.2402
cast	-11.2407
▁percy	-11.2407
▁severe	-11.2407
▁tidy	-11.2408
▁charming	-11.2414
▁review	-11.2417
ual	-11.2418
reaches	-11.2419
▁internet	-11.2423
▁borrow	-11.2425
▁palm	-11.2429
ati	-11.243
▁significant	-11.2446
▁mexican	-11.2446
ologist	-11.2446
▁flu	-11.245
ski	-11.2455
met	-11.2456
▁rug	-11.2456
far	-11.2464
▁independence	-11.2464
gging	-11.2464
▁liberal	-11.2469
▁eva	-11.247
▁umbrella	-11.247
▁vehicle	-11.2476
----"	-11.2479
▁colored	-11.2479
name	-11.2483
▁rot	-11.2487
pen	-11.2488
wo	-11.2493
▁survive	-11.2494
▁bah	-11.2496
▁spoil	-11.2498
▁jake	-11.2499
▁gr	-11.25
▁geography	-11.25
▁1981	-11.25
▁tramp	-11.2501
09	-11.2505
▁clue	-11.2506
▁obliged	-11.2508
▁insurance	-11.2512
▁20,	-11.2513
▁nuclear	-11.2518
▁jolly	-11.2518
▁aircraft	-11.2519
▁previously	-11.2519
▁session	-11.2519
▁dreadful	-11.2523
▁confirmed	-11.2526
▁sen	-11.253
▁stress	-11.253
▁considerable	-11.2532
▁jewish	-11.2536
▁disappointed	-11.2541
gre	-11.2546
▁reaching	-11.2548
▁seventeen	-11.2549
▁delay	-11.2554
mmer	-11.2558
▁covid	-11.2561
break	-11.2562
▁disappear	-11.2563
▁moments	-11.2566
stand	-11.2567
▁rag	-11.2572
▁spill	-11.2579
▁championships	-11.258
▁pee	-11.2585
▁hath	-11.2591
▁dim	-11.2595
ched	-11.2597
▁rubber	-11.2598
lor	-11.2598
▁swell	-11.2598
─	-11.2603
▁friendship	-11.2603
▁approaching	-11.2605
rid	-11.2605
▁lincoln	-11.2615
▁nowhere	-11.2617
▁sorrow	-11.2619
▁ward	-11.2621
▁slaves	-11.2629
▁confused	-11.2633
▁efforts	-11.2635
▁income	-11.2635
35	-11.264
▁shin	-11.2646
90	-11.2647
miss	-11.2648
▁poll	-11.2652
▁ker	-11.2654
▁clark	-11.2655
98	-11.2659
▁sausage	-11.2662
▁ceased	-11.2666
▁vast	-11.2668
▁pretending	-11.267
ani	-11.2673
▁shapes	-11.2673
▁causes	-11.2673
▁foundation	-11.2687
▁budget	-11.2689
coming	-11.2689
ington	-11.2689
▁winnie	-11.269
▁paw	-11.2692
▁chimney	-11.2694
▁balls	-11.2697
▁berlin	-11.2698
▁hatch	-11.2698
▁inquired	-11.2699
▁importance	-11.2701
▁babe	-11.2705
▁doctors	-11.2707
▁hip	-11.2712
▁martine	-11.2712
▁dey	-11.272
▁sno	-11.2724
▁contains	-11.2726
-1	-11.2728
▁snack	-11.2731
▁utterances	-11.2733
▁goose	-11.2735
▁mysterious	-11.2744
▁stern	-11.2744
▁tag	-11.2747
▁flood	-11.2748
▁visited	-11.275
▁math	-11.2752
▁headed	-11.2752
▁sets	-11.2756
▁disc	-11.2757
▁partly	-11.2758
▁application	-11.2768
lock	-11.2768
▁biscuits	-11.2769
▁contest	-11.2774
ked	-11.2776
▁wicked	-11.2776
▁verse	-11.2782
▁fuel	-11.2787
▁feeding	-11.2788
▁earl	-11.2789
▁approached	-11.2794
rat	-11.2796
▁delightful	-11.2796
▁1976	-11.28
▁authorities	-11.28
▁sunny	-11.2803
80	-11.2804
ato	-11.2805
▁negative	-11.2805
mie	-11.281
▁tube	-11.281
▁instantly	-11.2812
ban	-11.2812
▁primary	-11.2812
▁quarters	-11.2818
never	-11.2819
ute	-11.2822
▁pearl	-11.2823
▁conflict	-11.2824
▁piggy	-11.2831
▁trucks	-11.2833
▁bolt	-11.2834
grunts	-11.2834
give	-11.2839
▁artists	-11.2844
▁glanced	-11.2844
▁throne	-11.2849
fore	-11.2849
▁impression	-11.285
▁intend	-11.285
rin	-11.2851
▁nail	-11.2851
▁supported	-11.2851
tries	-11.2852
ection	-11.2855
▁bitter	-11.2855
▁understanding	-11.2855
▁amongst	-11.2856
▁baa	-11.2857
▁twin	-11.2858
▁mel	-11.2865
▁ease	-11.2869
▁acted	-11.2872
▁units	-11.2874
▁connect	-11.2877
▁broadcast	-11.2877
▁retreat	-11.2881
also	-11.2881
maker	-11.2883
try	-11.2885
▁linda	-11.2886
▁orchestra	-11.2886
▁chuck	-11.2889
▁dining	-11.2892
▁crystal	-11.29
▁massachusetts	-11.2905
▁mobile	-11.2908
▁knot	-11.2911
▁dec	-11.2911
▁nicely	-11.2913
▁desperate	-11.2916
▁puff	-11.2921
toys	-11.2922
▁generous	-11.2924
▁earned	-11.2929
▁1979	-11.293
▁francisco	-11.2931
▁classes	-11.2934
▁scientific	-11.2937
▁granny	-11.2937
▁tub	-11.2941
▁pra	-11.2944
▁discussion	-11.2946
ern	-11.2947
rick	-11.2947
▁boyfriend	-11.2951
▁tales	-11.2952
point	-11.2953
▁biscuit	-11.2955
bling	-11.2958
▁surrounding	-11.2959
▁dirt	-11.296
▁thumb	-11.2962
▁yell	-11.2962
▁bore	-11.2963
▁commonly	-11.297
sol	-11.2973
▁kansas	-11.2974
▁necklace	-11.2974
mouth	-11.2976
▁hood	-11.2976
▁pressed	-11.2977
▁whisper	-11.2979
▁sticker	-11.2981
▁bicycle	-11.2987
▁injured	-11.2987
▁rank	-11.299
dar	-11.2996
▁cattle	-11.2997
▁barry	-11.2998
▁dia	-11.2999
▁jealous	-11.3004
▁karen	-11.3005
▁candle	-11.3006
▁hundreds	-11.3006
▁theater	-11.3008
▁rolls	-11.301
geo	-11.3014
▁zebra	-11.3019
pers	-11.302
ency	-11.3021
▁solution	-11.3025
▁banks	-11.3026
▁bees	-11.3027
oli	-11.3027
▁cheers	-11.3028
▁cher	-11.3028
▁90	-11.3028
▁follows	-11.3035
▁1985	-11.3038
▁hid	-11.304
▁covers	-11.304
▁envelope	-11.3044
▁punishment	-11.3044
▁dora	-11.3046
jan	-11.3047
▁defeated	-11.3049
pos	-11.3057
▁deeply	-11.3057
▁hail	-11.3059
▁poly	-11.3063
▁davis	-11.3064
ui	-11.3065
▁mcdonalds	-11.3066
because	-11.3073
los	-11.3077
table	-11.3077
print	-11.3085
cli	-11.3088
▁carrot	-11.3098
▁servants	-11.3098
ians	-11.3103
▁needle	-11.3104
▁pitched	-11.3108
▁stretched	-11.3113
▁violence	-11.3114
▁feast	-11.3121
▁kan	-11.3124
▁scored	-11.3125
37	-11.3128
▁serving	-11.3134
▁patch	-11.3137
▁exact	-11.3138
▁lor	-11.3141
▁concept	-11.3141
▁engines	-11.3142
▁introduce	-11.3147
▁9,	-11.3149
mal	-11.315
▁gasp	-11.3151
rated	-11.3153
▁degrees	-11.3155
▁80	-11.3156
▁ron	-11.316
▁sel	-11.317
chu	-11.3173
▁items	-11.3175
▁pump	-11.3177
▁trained	-11.318
▁figured	-11.3181
75	-11.3182
▁cwww	-11.3186
▁mah	-11.3188
▁eliminated	-11.3188
▁inches	-11.319
▁separated	-11.3191
..."	-11.3193
▁nearest	-11.3195
▁grim	-11.3196
▁prospect	-11.3198
▁survey	-11.3204
▁nar	-11.3204
▁seeds	-11.3204
▁referred	-11.3205
▁illustrations	-11.3205
▁ly	-11.3216
▁coloring	-11.3217
▁andy	-11.3224
nder	-11.3229
▁lemme	-11.323
ces	-11.3232
▁bold	-11.3236
▁variety	-11.3236
▁scan	-11.3237
▁arrow	-11.3244
▁resist	-11.3245
wh	-11.3252
▁officially	-11.3264
▁rivers	-11.3264
▁cam	-11.3272
▁heap	-11.3275
65	-11.3277
walk	-11.3278
▁honestly	-11.3281
▁alongside	-11.3287
▁luc	-11.3289
hol	-11.3294
▁multiple	-11.3299
▁attitude	-11.3301
ike	-11.3304
▁illness	-11.331
▁remaining	-11.3311
▁1983	-11.3315
hen	-11.3322
nk	-11.3326
▁counting	-11.3327
zz	-11.3337
66	-11.3338
▁rustling	-11.3341
▁presidential	-11.3343
▁shan	-11.3348
▁committed	-11.3348
▁sailing	-11.3348
▁—	-11.3352
▁taxi	-11.3355
aka	-11.3357
▁olympic	-11.3358
▁steamer	-11.3363
bla	-11.3368
▁cakes	-11.3371
▁qu	-11.3372
▁cigarette	-11.3373
▁responded	-11.3375
▁attended	-11.3377
▁reports	-11.3378
▁shed	-11.3379
▁lecture	-11.338
▁clo	-11.3382
ison	-11.3384
dem	-11.3386
▁debt	-11.3387
▁satisfaction	-11.3393
cri	-11.3397
▁ballet	-11.3399
▁closing	-11.34
▁dressing	-11.3401
▁foolish	-11.3401
▁rooms	-11.3406
▁online	-11.3408
▁deputy	-11.3413
ctor	-11.3414
▁ceremony	-11.3419
▁invitation	-11.3419
ral	-11.3426
▁represented	-11.3432
▁harbor	-11.3433
▁northwest	-11.3433
▁8,	-11.3434
▁32	-11.3437
▁nearby	-11.3437
would	-11.3449
sar	-11.3452
▁1982	-11.3453
▁noon	-11.3453
▁roads	-11.346
▁thoroughly	-11.3462
▁starring	-11.3463
▁awarded	-11.3463
▁murdered	-11.3465
▁appointment	-11.3466
▁thrust	-11.3472
▁inspector	-11.3473
continues	-11.3476
▁respond	-11.3477
gun	-11.3481
▁gates	-11.3485
▁lewis	-11.3485
stein	-11.3487
▁invite	-11.349
▁scu	-11.3491
▁liquid	-11.3492
▁tele	-11.3493
going	-11.3499
▁fantastic	-11.3499
▁pennsylvania	-11.3499
97	-11.3503
aki	-11.3504
baby	-11.3505
lf	-11.3515
▁var	-11.3517
ole	-11.352
▁tickets	-11.3526
▁interrupted	-11.3529
▁actions	-11.3532
cro	-11.3533
uri	-11.3536
zar	-11.3537
▁numerous	-11.3539
▁widow	-11.3539
▁1974	-11.3539
ggle	-11.354
▁cathy	-11.3542
▁drill	-11.3542
▁fierce	-11.3544
▁muslim	-11.3545
▁sacred	-11.3545
▁austrian	-11.3546
▁zorg	-11.3552
▁10,	-11.3554
mes	-11.3554
bag	-11.3556
hey	-11.3566
▁kevin	-11.3566
▁returns	-11.3567
▁gaze	-11.3575
▁surgery	-11.3579
▁drag	-11.358
▁/	-11.3581
foot	-11.3596
02	-11.3596
▁allen	-11.3597
▁strawberries	-11.3599
▁regiment	-11.3599
▁document	-11.36
dge	-11.3603
▁repair	-11.3604
▁costs	-11.3607
heim	-11.3611
▁dancer	-11.3611
▁11,	-11.3612
gger	-11.3617
▁visitors	-11.3622
hole	-11.3623
▁belonged	-11.3623
▁bas	-11.3624
▁larry	-11.3627
29	-11.363
▁sho	-11.3633
▁spec	-11.3634
▁30,	-11.3635
▁literature	-11.3639
▁occasionally	-11.3643
▁growth	-11.3645
▁ridge	-11.3647
▁bruce	-11.3647
▁thirsty	-11.3649
89	-11.3651
▁lightning	-11.3652
kan	-11.3655
47	-11.3655
▁paused	-11.3658
cra	-11.3659
▁glo	-11.3659
▁citizens	-11.3659
▁apologize	-11.3659
▁intelligence	-11.3659
▁hor	-11.3662
▁instrument	-11.3663
eau	-11.3663
▁nik	-11.3666
æ	-11.3666
bur	-11.3682
wick	-11.3685
▁factor	-11.3685
▁yeh	-11.3686
96	-11.3688
▁lab	-11.3691
tv	-11.3699
▁smiles	-11.3699
▁occur	-11.37
▁bride	-11.3704
▁glue	-11.3707
▁buffalo	-11.3707
▁guardian	-11.3712
▁michigan	-11.3714
▁12,	-11.3716
▁gimme	-11.372
▁70	-11.3722
▁rival	-11.3723
roy	-11.3724
▁loan	-11.3726
hm	-11.3726
▁cartoon	-11.3728
high	-11.3732
▁liberty	-11.3735
▁scream	-11.3737
▁peculiar	-11.3741
▁pirates	-11.3741
hop	-11.3742
▁nuts	-11.3746
▁column	-11.3748
▁fits	-11.375
▁intense	-11.3755
▁ashore	-11.3757
▁touching	-11.376
▁beef	-11.3762
▁graham	-11.3762
▁display	-11.3767
▁zone	-11.3768
▁sample	-11.3769
gate	-11.3772
▁tomato	-11.3773
▁norman	-11.3775
▁anxiety	-11.3775
▁digger	-11.3777
▁scouts	-11.3777
utter	-11.3779
▁kelly	-11.3779
▁pregnant	-11.3782
▁hannah	-11.3782
▁crossing	-11.3783
▁gla	-11.3784
cul	-11.3785
stop	-11.3795
▁stupid	-11.3795
▁slope	-11.3796
▁dock	-11.3801
▁counsel	-11.3802
rich	-11.3804
48	-11.3808
▁1968	-11.381
70	-11.381
▁whip	-11.3814
band	-11.3816
hr	-11.3816
lk	-11.3822
▁conservative	-11.3823
▁raymond	-11.3823
▁helmet	-11.3824
▁critical	-11.3828
▁hugh	-11.383
▁rip	-11.3831
▁emotion	-11.3835
▁hired	-11.3836
pose	-11.384
▁sack	-11.3841
▁korean	-11.3843
▁conclusion	-11.3844
▁oxford	-11.3844
▁cub	-11.3845
▁oink	-11.3847
▁belly	-11.385
▁1978	-11.3851
▁vessels	-11.3856
▁pear	-11.3857
▁lands	-11.3863
▁feathers	-11.3869
▁capable	-11.3869
▁stores	-11.3871
▁tremendous	-11.3871
▁unhappy	-11.3872
▁nord	-11.3874
toy	-11.3877
▁extent	-11.3885
▁enjoying	-11.3889
▁fro	-11.3891
▁anthony	-11.3899
▁composer	-11.3899
▁breeze	-11.3899
▁examples	-11.3899
▁1975	-11.3906
▁hoo	-11.3907
▁marble	-11.3907
▁blows	-11.3908
▁gradually	-11.3913
though	-11.3914
▁fanny	-11.3914
▁bern	-11.3916
still	-11.3918
92	-11.3922
▁egyptian	-11.3923
away	-11.3923
nik	-11.3925
▁taylor	-11.3926
▁consent	-11.3927
▁cops	-11.3927
▁joey	-11.3929
▁innit	-11.3932
▁br	-11.3933
▁website	-11.3933
▁products	-11.3936
▁cheek	-11.3936
sia	-11.3944
▁sweep	-11.3946
▁steep	-11.3948
▁clare	-11.3948
▁feather	-11.395
▁meters	-11.3951
▁natives	-11.3951
▁annual	-11.3955
▁era	-11.3956
▁jon	-11.3957
▁unlike	-11.3961
▁brazilian	-11.3963
yer	-11.3966
▁✿	-11.3968
bon	-11.3973
had	-11.3974
▁peasant	-11.3977
▁sought	-11.3977
▁leaders	-11.3978
▁convinced	-11.3979
burn	-11.3981
▁dallas	-11.3982
ique	-11.3983
▁hollow	-11.3983
▁jay	-11.3984
▁sm	-11.3987
▁cleared	-11.3991
▁multi	-11.3992
▁stated	-11.3992
▁gon	-11.3994
▁guards	-11.3995
hhh	-11.3997
▁carbon	-11.3998
ón	-11.3998
tim	-11.4001
▁activities	-11.4003
▁1969	-11.4003
▁13,	-11.4004
▁sailed	-11.401
▁1977	-11.401
▁35	-11.401
nis	-11.4012
▁golf	-11.4013
burg	-11.4016
yn	-11.4017
▁packed	-11.4018
dia	-11.4021
▁amanda	-11.4025
▁cabinet	-11.4027
rm	-11.4027
▁basis	-11.4031
▁statue	-11.4031
lav	-11.4031
▁cuddle	-11.4031
▁weigh	-11.4032
three	-11.4037
▁incredible	-11.4038
▁studying	-11.404
55	-11.4043
▁elephants	-11.4045
▁depth	-11.4052
▁2021)	-11.4054
▁pinch	-11.4057
▁hans	-11.4058
▁churches	-11.4058
▁tooth	-11.4059
▁worship	-11.4059
▁gorgeous	-11.4059
▁fee	-11.4059
▁alphabet	-11.4059
▁journalist	-11.4062
got	-11.4063
▁15,	-11.4065
▁impact	-11.4069
rog	-11.4071
teacher	-11.4072
hard	-11.4073
▁swept	-11.4073
▁rainbow	-11.4074
▁raw	-11.408
▁railroad	-11.408
▁leslie	-11.408
▁sticking	-11.4081
gal	-11.4086
▁animated	-11.4087
▁spending	-11.4088
gor	-11.4092
▁jordan	-11.4094
▁scottish	-11.4096
kins	-11.4099
▁extreme	-11.4101
pol	-11.4101
▁parrot	-11.4101
▁diana	-11.4106
▁lawrence	-11.4108
▁flies	-11.4111
▁kay	-11.4116
▁1973	-11.4116
▁miller	-11.4121
▁monsieur	-11.4123
▁delicate	-11.413
hear	-11.413
▁rein	-11.413
ular	-11.4132
▁elements	-11.4132
▁touches	-11.4137
").	-11.4137
▁ruler	-11.4139
▁additional	-11.4139
▁manchester	-11.414
▁dub	-11.4141
▁robinson	-11.4146
▁wealth	-11.415
▁tru	-11.4153
wan	-11.4157
▁transfer	-11.4158
▁lwww	-11.4159
igh	-11.416
▁staring	-11.4161
▁clam	-11.4165
▁seasons	-11.4165
▁congratulations	-11.4165
▁suspicion	-11.4165
please	-11.4168
ously	-11.4179
▁blake	-11.418
▁beard	-11.4186
▁administration	-11.4186
.8	-11.419
▁num	-11.4194
▁geo	-11.4198
▁drinks	-11.4201
▁chan	-11.4204
▁loire	-11.4208
▁dropping	-11.4209
▁(18	-11.421
▁compete	-11.4212
▁[6	-11.4212
hold	-11.4214
▁catching	-11.4215
88	-11.4216
▁est	-11.4218
▁jet	-11.422
▁passion	-11.4221
▁feature	-11.4222
▁squad	-11.4222
▁sting	-11.4223
▁kenneth	-11.4229
▁sleeve	-11.4229
▁loads	-11.4233
▁que	-11.4233
▁vegetables	-11.4235
▁explosion	-11.4236
ros	-11.4241
ille	-11.4241
▁extended	-11.4242
▁option	-11.4244
▁cherry	-11.4245
▁mir	-11.425
▁composed	-11.4251
▁comm	-11.4251
▁harold	-11.4252
▁reserve	-11.4254
▁mice	-11.4266
▁tennis	-11.4267
eat	-11.427
gasp	-11.4271
▁wreck	-11.4272
pul	-11.4272
press	-11.4275
▁et	-11.4275
▁cooked	-11.4276
â	-11.4279
▁unexpected	-11.4279
▁rider	-11.4281
wind	-11.4284
▁2018,	-11.4284
▁regional	-11.4284
▁adopted	-11.4287
▁poland	-11.4293
▁root	-11.4295
▁element	-11.4298
▁jess	-11.43
▁chum	-11.43
▁dried	-11.4303
▁beating	-11.4304
▁institution	-11.4305
▁sticky	-11.4308
pper	-11.431
▁wy	-11.4312
girl	-11.4319
▁lemon	-11.4319
dress	-11.4321
▁awfully	-11.4325
pot	-11.4325
ically	-11.433
east	-11.4331
▁cannon	-11.4332
▁representatives	-11.4333
▁cheerful	-11.4333
68	-11.4336
▁jury	-11.4341
▁1971	-11.4345
▁panda	-11.4345
▁albums	-11.4347
ori	-11.4349
iness	-11.4349
▁orbit	-11.435
▁alcohol	-11.4352
▁peek	-11.4352
▁waving	-11.4353
▁pays	-11.4355
▁sew	-11.4357
▁virus	-11.4358
▁threatened	-11.4358
▁emily	-11.4359
fin	-11.436
▁cable	-11.4365
▁flesh	-11.4366
▁films	-11.4366
zer	-11.4369
▁jaw	-11.4371
woman	-11.4372
og	-11.4375
▁kong	-11.4375
▁praise	-11.4378
▁custom	-11.4378
chen	-11.4381
▁1930	-11.4389
▁descend	-11.4395
▁graeme	-11.4395
▁avenue	-11.4395
▁dinosaurs	-11.4397
whispering	-11.4404
▁patients	-11.4408
▁claus	-11.4408
▁diet	-11.4408
▁behavior	-11.441
▁disaster	-11.441
▁saddle	-11.4411
▁rick	-11.4412
▁prior	-11.4413
claim	-11.4414
▁howard	-11.4416
▁refers	-11.4417
▁terribly	-11.4417
mber	-11.4418
▁collar	-11.4424
57	-11.4426
▁fled	-11.4427
▁squeak	-11.4428
▁21,	-11.4429
▁sniff	-11.4432
rap	-11.4436
▁bundle	-11.4439
▁regarded	-11.4441
▁launched	-11.4443
▁stout	-11.4443
home	-11.4445
▁sometime	-11.4447
86	-11.4449
▁industrial	-11.4453
▁charged	-11.4458
▁pickle	-11.4461
▁insisted	-11.4461
▁ginger	-11.4462
▁monk	-11.4463
▁victor	-11.4466
▁doc	-11.4466
▁spit	-11.4466
▁ruled	-11.4467
▁kindness	-11.447
01	-11.4474
och	-11.4474
iya	-11.4475
1]	-11.4481
ika	-11.4482
▁recovered	-11.4484
▁qui	-11.4485
ache	-11.4487
▁hun	-11.449
▁sandwiches	-11.4493
▁cul	-11.4493
made	-11.4494
cou	-11.4495
▁——	-11.4499
▁spear	-11.4505
▁gloves	-11.4507
▁mend	-11.4511
▁blast	-11.4513
matic	-11.4518
▁baron	-11.4522
▁examine	-11.4526
▁succeed	-11.4527
▁sufficient	-11.4528
▁electricity	-11.4529
▁barely	-11.4529
hill	-11.4531
▁sto	-11.4533
bob	-11.4533
▁cole	-11.4533
rit	-11.4534
▁potential	-11.4534
▁revenge	-11.4534
bol	-11.4538
▁fighter	-11.454
awa	-11.4541
▁spi	-11.4541
▁reception	-11.4542
▁plug	-11.4543
▁alien	-11.4551
▁poured	-11.4554
▁jacob	-11.4556
▁favourite	-11.4557
▁zo	-11.4563
▁childsname	-11.4564
▁defend	-11.4566
▁superior	-11.4571
▁seth	-11.4571
ude	-11.4574
▁instructions	-11.4579
▁oxygen	-11.4579
▁proceeded	-11.4585
▁atmosphere	-11.4586
54	-11.4586
▁“‘	-11.4588
▁hippo	-11.4589
cup	-11.4589
93	-11.459
▁solve	-11.4596
▁camel	-11.4599
whines	-11.4599
▁indicate	-11.4605
▁associated	-11.4607
▁assured	-11.4608
85	-11.461
▁engineering	-11.4612
▁cj	-11.4613
▁increasing	-11.4616
▁tokyo	-11.4616
▁agency	-11.4616
too	-11.4618
▁ribbon	-11.4623
ito	-11.4625
▁scissors	-11.463
pit	-11.463
▁gods	-11.463
▁swallow	-11.463
▁distress	-11.4631
cies	-11.4633
91	-11.4635
vie	-11.4638
▁rom	-11.464
▁enormous	-11.4645
▁bells	-11.4649
▁gap	-11.4651
▁blank	-11.4653
▁shine	-11.4653
▁shared	-11.4654
▁burden	-11.4654
▁childhood	-11.4656
▁hits	-11.4658
ele	-11.4659
▁absence	-11.466
▁neighbor	-11.4663
▁personally	-11.4664
uv	-11.4673
▁programs	-11.4673
bil	-11.4678
ash	-11.4681
▁penguin	-11.4682
lish	-11.4683
▁16,	-11.4683
67	-11.4687
▁whit	-11.4688
▁fog	-11.4689
▁clara	-11.4691
▁insist	-11.4694
▁franklin	-11.4694
▁monarch	-11.4698
▁wanting	-11.4701
▁rib	-11.4702
46	-11.4702
▁kal	-11.4703
▁aeroplane	-11.4705
▁visible	-11.4705
▁evolution	-11.4707
▁poetry	-11.4707
77	-11.4712
▁sank	-11.4712
▁patty	-11.4719
▁crane	-11.472
▁14,	-11.472
▁1964	-11.4721
▁assistance	-11.4721
cap	-11.4723
refers	-11.4724
▁1967	-11.4728
500	-11.473
▁assume	-11.474
▁jonathan	-11.4743
▁domestic	-11.4743
▁louder	-11.4749
▁photograph	-11.4749
▁ms	-11.475
▁leather	-11.475
▁dealing	-11.4756
▁stations	-11.4761
07	-11.4762
▁wrap	-11.4764
▁attorney	-11.4765
▁catherine	-11.4765
▁wrapped	-11.4766
00,000	-11.477
▁communist	-11.4773
▁stared	-11.4774
▁sweat	-11.478
▁applied	-11.4781
▁zoe	-11.4787
▁recover	-11.4788
▁smoking	-11.4796
▁kisses	-11.4798
ua	-11.4801
▁suicide	-11.4803
▁swiss	-11.4803
▁deed	-11.4809
▁allah	-11.481
5,000	-11.481
▁status	-11.4811
▁grief	-11.4811
▁rocky	-11.4813
ida	-11.4816
▁obey	-11.482
▁decent	-11.4823
▁permanent	-11.4826
stick	-11.4826
▁oscar	-11.4827
36	-11.483
kel	-11.4833
94	-11.4835
▁mist	-11.4835
little	-11.4838
78	-11.4839
▁nesting	-11.484
oe	-11.4841
▁fridge	-11.4842
▁gathering	-11.4846
fic	-11.4847
▁miserable	-11.4849
▁hart	-11.4851
▁heading	-11.4851
▁affected	-11.4853
▁torn	-11.4853
▁acts	-11.4855
▁cass	-11.4857
▁pr	-11.4857
▁victims	-11.486
▁dominic	-11.4861
▁til	-11.4863
does	-11.4863
▁melt	-11.4865
▁rou	-11.4866
▁illustrated	-11.4867
38	-11.4872
87	-11.4872
eating	-11.4873
▁dy	-11.4873
xi	-11.4876
▁brad	-11.4877
▁inform	-11.4881
iest	-11.4882
berry	-11.4883
▁cooper	-11.4887
▁25,	-11.4887
▁samuel	-11.4887
tsu	-11.489
°	-11.4891
▁ending	-11.4892
ace	-11.4892
hon	-11.4892
▁whilst	-11.4894
▁bavaria	-11.4895
▁carter	-11.4896
▁gut	-11.4897
▁centuries	-11.4902
▁cushion	-11.4902
▁offering	-11.4904
▁feared	-11.4907
cot	-11.4916
▁printed	-11.4916
ene	-11.4917
▁scholar	-11.4917
unc	-11.4919
▁ranch	-11.4925
cry	-11.4925
▁douglas	-11.4925
▁crept	-11.4925
▁2017,	-11.4925
▁answers	-11.493
▁apply	-11.4931
▁nevertheless	-11.4933
▁convention	-11.4933
cin	-11.4939
▁jill	-11.494
▁tricks	-11.4942
▁warn	-11.4944
▁electronic	-11.4944
▁rad	-11.4946
▁[7	-11.4948
▁boring	-11.495
cker	-11.4951
▁winds	-11.4954
▁snakes	-11.4954
▁alligator	-11.4956
▁obtain	-11.4957
▁fake	-11.4959
▁expressed	-11.496
▁violent	-11.4964
▁useless	-11.4965
mates	-11.4967
▁luke	-11.4971
▁22,	-11.4971
▁organized	-11.498
▁replace	-11.4983
06	-11.4983
▁hated	-11.4984
▁coin	-11.4984
▁autumn	-11.4987
▁persons	-11.4987
moves	-11.4989
ain	-11.4991
▁thorn	-11.4992
▁gear	-11.4993
▁supreme	-11.4994
▁marker	-11.4994
▁batteries	-11.4995
▁firing	-11.4996
▁articles	-11.4999
▁constitution	-11.5004
moving	-11.5006
58	-11.501
▁ralph	-11.501
▁aspect	-11.501
▁brass	-11.5011
mine	-11.5014
▁detail	-11.5014
▁kangaroo	-11.5018
lam	-11.5018
▁knights	-11.5018
cle	-11.5025
▁biography	-11.5026
▁mistaken	-11.5026
▁timber	-11.5027
▁kur	-11.503
▁peel	-11.5031
guard	-11.504
bly	-11.504
▁awesome	-11.5041
wee	-11.5041
▁1940	-11.5041
▁mode	-11.5042
▁genus	-11.5044
▁frequently	-11.5045
▁existence	-11.5049
ali	-11.5049
▁underground	-11.5051
▁olive	-11.5052
▁proposal	-11.5056
▁expense	-11.5056
▁proceed	-11.5057
▁bubble	-11.5057
lot	-11.5058
▁calendar	-11.5064
▁rage	-11.5066
both	-11.5068
▁sympathy	-11.5072
▁yourselves	-11.5072
▁resources	-11.5072
▁bronze	-11.5073
▁leo	-11.5076
▁possibility	-11.508
▁duties	-11.508
▁constantly	-11.5082
▁grain	-11.5086
▁carol	-11.5088
enne	-11.5089
▁mono	-11.5091
▁lace	-11.5092
pha	-11.5093
▁thief	-11.5095
▁shelf	-11.5096
▁crowded	-11.5097
▁coll	-11.5098
▁demon	-11.5099
olo	-11.5101
▁clerk	-11.5103
▁spark	-11.5104
▁sti	-11.5104
▁obvious	-11.5111
▁swift	-11.5111
▁dynasty	-11.5119
▁dragged	-11.5119
▁dug	-11.512
▁illegal	-11.5126
▁nasty	-11.5127
▁willn	-11.5127
arian	-11.513
▁soccer	-11.5134
▁spray	-11.5135
▁phrase	-11.5136
▁trailer	-11.5136
jw	-11.5136
▁kite	-11.514
▁28,	-11.5141
ges	-11.5142
▁squash	-11.5142
▁khan	-11.5144
▁diver	-11.5149
▁claimed	-11.5149
▁remarkable	-11.5151
▁broom	-11.5151
▁kicked	-11.5152
▁jer	-11.5155
▁vest	-11.5155
▁stall	-11.5157
▁layer	-11.5159
ffe	-11.5161
▁twist	-11.5161
▁curtain	-11.5162
hang	-11.5162
▁delivered	-11.5164
▁ohio	-11.5164
▁lawn	-11.5165
▁corporation	-11.5166
talk	-11.5169
▁rosa	-11.5172
▁guinea	-11.5174
▁neighbors	-11.5174
iel	-11.5175
▁36	-11.5176
▁copper	-11.5176
▁drift	-11.5178
04	-11.5182
▁champions	-11.5183
▁deposit	-11.5184
▁bc	-11.5185
▁heels	-11.5187
▁priscilla	-11.5189
▁represent	-11.5191
▁accused	-11.5195
▁rabbits	-11.5196
rry	-11.5197
▁surrender	-11.5197
close	-11.5199
▁exception	-11.5202
▁depend	-11.5203
▁mast	-11.5204
rous	-11.5205
▁pistol	-11.5205
64	-11.5208
▁machines	-11.5209
▁cheeky	-11.5214
post	-11.5216
eri	-11.5217
▁abuse	-11.5217
thing	-11.5218
▁venture	-11.5219
free	-11.522
▁skip	-11.5221
▁literally	-11.5221
▁philadelphia	-11.5221
▁assault	-11.5221
▁1966	-11.5229
▁chill	-11.5232
▁grasp	-11.5233
▁utterance	-11.5234
avi	-11.5235
▁nephew	-11.5237
▁23,	-11.5237
▁polite	-11.5237
▁copies	-11.5238
ological	-11.5243
▁peg	-11.5244
places	-11.5245
▁unconscious	-11.5245
▁laying	-11.5249
▁24,	-11.5252
▁lip	-11.5258
▁relations	-11.5258
▁warned	-11.5258
42	-11.5266
▁canal	-11.5268
▁skipper	-11.5269
▁edna	-11.5271
▁gross	-11.5272
▁scr	-11.5272
▁nee	-11.5273
▁contents	-11.5273
▁swung	-11.5276
▁sailors	-11.5279
▁script	-11.5281
power	-11.5281
▁kr	-11.5283
▁alternative	-11.5284
▁quarrel	-11.5284
▁shield	-11.5284
▁moses	-11.5285
▁creation	-11.5288
▁pel	-11.5291
2]	-11.5295
▁jen	-11.5295
▁global	-11.53
▁patrol	-11.5301
▁kh	-11.5302
▁aliens	-11.5304
ā	-11.5308
self	-11.5308
▁mun	-11.531
▁levels	-11.5317
▁lean	-11.5321
untranscribed	-11.5324
▁invest	-11.5325
4]	-11.5326
rest	-11.5326
▁45	-11.5335
▁500	-11.5335
lum	-11.5339
3]	-11.5339
▁ew	-11.534
era	-11.5347
think	-11.5352
▁miracle	-11.5356
▁19,	-11.5359
▁recall	-11.536
▁blo	-11.5362
bor	-11.5362
ense	-11.5367
maybe	-11.5371
▁obtained	-11.5371
▁covering	-11.5372
▁deny	-11.5373
▁register	-11.5373
▁appropriate	-11.5375
▁attempts	-11.5377
▁archer	-11.5377
bee	-11.5378
▁mississippi	-11.538
▁solo	-11.5381
▁tribes	-11.5382
▁flame	-11.5385
▁packet	-11.5385
76	-11.539
▁27,	-11.5391
▁cure	-11.5391
enberg	-11.5392
▁gary	-11.5396
69	-11.5397
▁jessie	-11.5398
▁daughters	-11.5399
▁lasted	-11.5402
▁drank	-11.5404
▁begged	-11.5406
▁nazi	-11.5407
▁burton	-11.5407
▁panic	-11.5408
▁comin	-11.5409
▁admiral	-11.5412
▁dna	-11.5412
keep	-11.5417
zen	-11.5419
▁26,	-11.5422
itz	-11.5426
▁attacks	-11.5427
▁shots	-11.5429
▁debate	-11.5433
56	-11.5436
▁arnold	-11.5436
▁sheriff	-11.5436
▁leak	-11.5437
▁joan	-11.5438
cious	-11.5447
▁arkansas	-11.5452
urg	-11.5453
▁chasing	-11.5454
▁searching	-11.546
▁bureau	-11.5461
▁license	-11.5469
39	-11.547
▁flour	-11.547
▁moore	-11.5473
▁directions	-11.5474
▁observation	-11.5477
▁goddess	-11.5477
▁districts	-11.5478
▁vocal	-11.5478
▁persian	-11.5479
▁pierre	-11.548
view	-11.5481
32	-11.5484
▁disorder	-11.5485
▁outer	-11.549
▁depression	-11.5493
▁earnest	-11.5494
▁kang	-11.5497
▁collected	-11.55
▁resolved	-11.5501
▁unique	-11.5504
▁personality	-11.5505
▁ridiculous	-11.5509
▁oy	-11.5512
▁kent	-11.5513
▁blessed	-11.5513
sign	-11.5519
▁curse	-11.5519
▁bacon	-11.552
▁resistance	-11.5526
▁regions	-11.5529
bul	-11.5529
▁seventh	-11.553
▁daylight	-11.5534
▁1945	-11.5534
▁lend	-11.5536
hearted	-11.5537
lip	-11.5537
▁clan	-11.5539
▁accompanied	-11.5542
▁evident	-11.5542
▁representative	-11.5547
page	-11.5553
▁suspicious	-11.5558
▁villa	-11.5567
▁gazed	-11.5572
▁swamp	-11.5572
▁administrative	-11.5574
▁classic	-11.5576
ridge	-11.5576
▁behave	-11.5577
loo	-11.5577
cord	-11.5579
▁moscow	-11.5582
▁porch	-11.5583
▁roast	-11.5583
▁crop	-11.5586
▁chef	-11.5587
vol	-11.559
▁wendy	-11.5591
▁cle	-11.5591
▁maintain	-11.5594
▁overall	-11.5598
▁software	-11.5599
▁worm	-11.5601
▁passes	-11.5601
ppy	-11.5603
59	-11.5604
loud	-11.5607
▁kissing	-11.5608
path	-11.5611
▁rhyme	-11.5615
nal	-11.5617
▁concluded	-11.5621
▁memories	-11.5624
▁suburb	-11.5624
▁disco	-11.5624
▁bot	-11.5625
eu	-11.564
▁fossil	-11.564
▁ideal	-11.5644
▁sul	-11.5644
log	-11.5645
tti	-11.5645
▁revealed	-11.5646
▁juan	-11.5647
▁hint	-11.5647
▁ble	-11.5647
▁damn	-11.565
▁remark	-11.5651
▁karl	-11.5653
▁fiction	-11.5653
▁parcel	-11.5654
▁divorce	-11.5655
▁troubled	-11.5655
▁dive	-11.5657
▁urban	-11.5657
▁dennis	-11.5657
▁grunt	-11.5659
▁sung	-11.566
▁midst	-11.5663
▁dough	-11.5664
▁confess	-11.5664
▁patience	-11.5665
▁hindu	-11.5666
▁extend	-11.5667
▁tourist	-11.567
char	-11.5671
▁mounted	-11.5671
▁holidays	-11.5673
▁messenger	-11.5673
▁waist	-11.5674
49	-11.5674
▁sab	-11.5674
▁peaceful	-11.5678
▁potty	-11.5679
▁mcc	-11.568
▁viii	-11.5683
▁comrades	-11.5683
▁combat	-11.5686
▁vii	-11.5687
uous	-11.5687
▁millions	-11.5687
▁2010,	-11.5688
▁wins	-11.5689
ulation	-11.5691
▁virgin	-11.5691
▁sca	-11.5692
agon	-11.5694
ili	-11.5695
▁beaten	-11.5695
spir	-11.5695
▁objection	-11.5696
▁react	-11.5696
▁massive	-11.5698
ich	-11.5702
63	-11.5707
▁cultural	-11.5708
gives	-11.571
▁mia	-11.5716
-20	-11.5716
▁cri	-11.5718
▁gettin	-11.5719
unnecessary	-11.572
▁drain	-11.572
▁stool	-11.5723
squeals	-11.5725
▁acquaintance	-11.5731
▁swedish	-11.5731
hello	-11.5733
▁extraordinary	-11.5739
▁submarine	-11.5739
▁southeast	-11.5741
▁robot	-11.5741
▁myth	-11.5742
lian	-11.5743
▁anxiously	-11.5743
▁ec	-11.5744
▁mit	-11.5745
▁arose	-11.5746
▁happily	-11.5748
▁marky	-11.5752
▁alabama	-11.5756
god	-11.5759
▁worthy	-11.5759
▁roots	-11.576
eo	-11.5762
hh	-11.5764
bad	-11.5766
▁ep	-11.5766
▁sean	-11.5768
▁hon	-11.5771
▁belonging	-11.5771
class	-11.5773
▁stuffed	-11.5773
▁bottles	-11.5774
nge	-11.5776
05	-11.5776
▁curl	-11.5779
▁germans	-11.5781
▁outfit	-11.5782
▁columbia	-11.5784
chy	-11.5786
▁insult	-11.5798
▁lest	-11.5802
ef	-11.5806
▁pri	-11.5812
▁technique	-11.5814
ounce	-11.5815
▁referring	-11.5824
200	-11.5829
▁thread	-11.5829
poor	-11.5831
▁austin	-11.5831
▁mischief	-11.5831
▁suitcase	-11.584
▁confusion	-11.584
pie	-11.5844
▁conc	-11.5846
▁vin	-11.5847
▁mul	-11.5848
▁ent	-11.5851
▁peach	-11.5853
▁cot	-11.5858
rah	-11.586
▁entering	-11.5864
▁despair	-11.5865
▁error	-11.5865
▁rebel	-11.5865
▁hong	-11.5866
cer	-11.587
▁strongly	-11.5871
nia	-11.5876
▁circuit	-11.5882
▁housing	-11.5882
▁cinema	-11.5882
▁gulf	-11.5883
▁sav	-11.5883
▁vic	-11.5884
▁charges	-11.5885
▁painful	-11.5889
nothing	-11.589
rel	-11.589
▁hastily	-11.589
eng	-11.5891
lift	-11.5892
▁villages	-11.5893
cen	-11.5897
▁sharply	-11.5898
▁joking	-11.59
▁helpless	-11.5901
▁youngest	-11.5901
▁gill	-11.5901
▁mer	-11.5905
▁isabel	-11.5905
▁complicated	-11.5907
▁todd	-11.5911
▁blessing	-11.5913
▁operations	-11.5915
▁reputation	-11.5915
▁meadow	-11.5916
▁visitor	-11.5917
▁jackie	-11.5919
court	-11.5919
▁bib	-11.5921
▁solar	-11.5929
▁donkey	-11.593
▁curiosity	-11.5932
▁1956	-11.5933
▁holland	-11.5934
▁foe	-11.5935
school	-11.5938
▁interfere	-11.5941
▁newspapers	-11.5942
babbling	-11.5943
▁operate	-11.5948
▁twins	-11.5949
▁invented	-11.595
▁digging	-11.5951
▁cru	-11.5953
▁gb	-11.5954
▁norway	-11.5954
▁fella	-11.5958
▁effective	-11.5959
▁faced	-11.5959
▁smash	-11.596
▁exam	-11.5964
pel	-11.5968
▁contain	-11.5969
▁naval	-11.5972
-2	-11.5978
▁founder	-11.5979
first	-11.5981
▁preparing	-11.5983
▁blade	-11.5985
▁jin	-11.5985
▁(1	-11.5988
31	-11.5991
▁reasonable	-11.5994
▁footballer	-11.5994
▁tr	-11.5996
▁guarantee	-11.6
▁vir	-11.6005
▁impressed	-11.6006
▁micro	-11.6009
▁29,	-11.6009
▁hooray	-11.6009
▁cuts	-11.601
▁lego	-11.6012
▁dip	-11.6018
▁swinging	-11.6018
▁coke	-11.6018
▁improve	-11.6024
▁prey	-11.6025
▁genius	-11.6027
▁draws	-11.6029
▁destruction	-11.6035
▁procedure	-11.6035
▁cou	-11.6036
▁chances	-11.6036
▁experienced	-11.6036
▁breed	-11.6043
▁greece	-11.6043
▁frozen	-11.6043
chr	-11.6046
▁katie	-11.6047
▁arrange	-11.605
▁triumph	-11.6051
▁bio	-11.6054
▁trump	-11.6058
▁bully	-11.607
▁gram	-11.6071
oid	-11.6072
▁prop	-11.6075
▁1965	-11.6078
84	-11.6081
▁bumper	-11.6083
▁evelyn	-11.6087
eur	-11.6087
speaking	-11.6088
▁ox	-11.6089
ç	-11.6095
▁aloud	-11.6095
▁operating	-11.6097
▁causing	-11.6104
62	-11.6104
▁bash	-11.6105
▁crisis	-11.6106
yu	-11.6108
west	-11.611
shirt	-11.6111
▁benjamin	-11.6112
▁abroad	-11.6112
▁inclined	-11.6116
▁jews	-11.6118
▁accent	-11.6121
phe	-11.6123
▁wolves	-11.6129
▁ry	-11.613
▁lump	-11.6135
▁barb	-11.6135
vent	-11.6137
bbing	-11.6139
▁pension	-11.6147
▁considering	-11.6148
▁reveal	-11.6149
▁2016,	-11.615
▁zip	-11.6153
▁protected	-11.6154
▁liz	-11.6154
▁resting	-11.6155
ule	-11.6156
▁vent	-11.6157
uction	-11.6159
stan	-11.6163
▁stealing	-11.6164
member	-11.6165
▁furious	-11.6165
▁burnt	-11.6166
▁weary	-11.6167
▁floating	-11.6169
▁draft	-11.6169
black	-11.6171
▁closet	-11.6172
▁digital	-11.6173
cor	-11.6175
▁raising	-11.6175
▁stanley	-11.6176
▁amid	-11.6176
phi	-11.618
▁dessert	-11.6181
▁terrific	-11.6181
▁melissa	-11.6181
▁forehead	-11.6181
▁materials	-11.6182
▁ruff	-11.6183
▁hitting	-11.6184
▁lick	-11.6186
want	-11.6188
▁accustomed	-11.619
▁beloved	-11.619
71	-11.6192
▁swan	-11.6194
▁scattered	-11.6196
▁dashed	-11.6197
▁metropolitan	-11.6199
open	-11.6199
▁hah	-11.62
▁startled	-11.6202
▁awkward	-11.6207
▁shakes	-11.621
uz	-11.6211
▁iowa	-11.6213
▁hamburger	-11.6214
cell	-11.6222
lp	-11.6223
▁topic	-11.6227
phy	-11.6231
▁core	-11.6232
▁frances	-11.6234
▁cared	-11.6236
▁colony	-11.6238
▁contained	-11.624
▁movements	-11.6242
▁chickens	-11.6243
vir	-11.6243
▁ruined	-11.6245
▁minnesota	-11.6251
▁automobile	-11.6251
03	-11.6252
holding	-11.6253
▁gifts	-11.6255
▁payment	-11.6256
ome	-11.6257
▁harris	-11.6258
▁schedule	-11.6259
▁ceiling	-11.626
▁latest	-11.6261
▁willie	-11.6262
▁painter	-11.6265
▁creep	-11.6271
▁meantime	-11.6271
ink	-11.6278
▁firmly	-11.628
▁premier	-11.6281
kov	-11.6282
08	-11.6283
▁rushing	-11.6283
▁birdie	-11.6288
▁flock	-11.6289
▁inner	-11.629
piece	-11.6293
hara	-11.6294
▁vietnam	-11.6295
▁1961	-11.6295
▁?[	-11.6296
▁checking	-11.6302
▁hose	-11.6303
▁gabriel	-11.6311
aff	-11.6313
kie	-11.6319
▁maiden	-11.6321
tape	-11.6325
▁ei	-11.6329
cia	-11.6329
▁bars	-11.6329
▁gerald	-11.633
72	-11.6331
rman	-11.6333
▁boris	-11.6333
▁poke	-11.6335
▁confident	-11.6339
▁wrist	-11.634
▁divide	-11.6344
list	-11.6348
▁argue	-11.6349
▁alaska	-11.6349
▁300	-11.635
▁2011,	-11.6352
▁tool	-11.6353
▁bou	-11.6356
▁consideration	-11.6364
▁substance	-11.6366
▁hank	-11.6367
▁greeting	-11.6374
lit	-11.6376
▁rum	-11.6378
▁widely	-11.6379
▁knocking	-11.6383
▁informed	-11.6383
▁sophie	-11.6383
▁claire	-11.6383
▁banging	-11.6389
▁graduated	-11.6389
▁comrade	-11.639
▁loyal	-11.6391
▁muttered	-11.6392
▁unfortunate	-11.6393
▁2022)	-11.6398
hv	-11.6398
▁earthquake	-11.6401
▁haste	-11.6401
▁affection	-11.6404
▁barking	-11.6407
41	-11.6407
▁prayers	-11.641
▁coo	-11.6412
nation	-11.6412
▁candles	-11.6412
▁volunteer	-11.6413
▁slippers	-11.6417
44	-11.6417
33	-11.6418
▁leads	-11.6419
▁mason	-11.6419
▁1963	-11.6419
▁napkin	-11.6422
ín	-11.6422
okay	-11.6426
▁imagination	-11.6428
▁leaning	-11.6428
ello	-11.6428
▁formal	-11.643
▁elections	-11.6433
▁dared	-11.6434
▁imperial	-11.6437
▁yield	-11.6437
▁por	-11.644
▁alert	-11.644
▁violin	-11.6446
jer	-11.6446
▁visiting	-11.645
▁mug	-11.6451
etta	-11.6451
parent	-11.6452
▁sil	-11.6454
hum	-11.6454
▁curve	-11.6454
▁[8	-11.646
▁vienna	-11.6463
▁questioned	-11.6464
▁nappie	-11.6464
▁nails	-11.6467
bound	-11.6472
▁examination	-11.6472
▁elbow	-11.6473
▁1947	-11.6473
▁judy	-11.6475
▁berry	-11.6476
▁travelling	-11.6477
ancy	-11.6477
hur	-11.6481
▁1959	-11.6482
▁chalk	-11.6482
▁waved	-11.6484
34	-11.6485
▁raven	-11.6486
▁singles	-11.649
▁cycle	-11.6491
▁rit	-11.6493
▁granted	-11.6495
ois	-11.6496
▁loaded	-11.6498
▁attractive	-11.6499
▁shepherd	-11.6499
▁symptoms	-11.6502
▁employed	-11.6508
uld	-11.6512
song	-11.6513
▁bugs	-11.6514
▁judgment	-11.6517
▁bbc	-11.6517
▁crumb	-11.6519
▁dah	-11.6525
▁adjust	-11.6527
▁southwest	-11.6527
"),	-11.6529
▁thankful	-11.6532
▁celebrate	-11.6535
▁snail	-11.6535
▁historian	-11.6535
▁conductor	-11.6538
ona	-11.6539
――	-11.6544
▁universal	-11.6544
lop	-11.6547
▁sighed	-11.6553
▁martha	-11.6554
aba	-11.656
▁manners	-11.656
wed	-11.6561
rock	-11.6562
▁alfred	-11.6563
▁bucks	-11.6565
▁relatives	-11.6566
▁hurting	-11.657
▁injury	-11.6571
▁torture	-11.6572
▁sultan	-11.6572
▁turk	-11.6573
rian	-11.6576
horn	-11.658
▁1962	-11.6581
▁dal	-11.6586
call	-11.6586
▁journal	-11.6587
▁addressed	-11.6589
poli	-11.6589
▁handkerchief	-11.6589
▁kettle	-11.6589
▁antonio	-11.659
▁worldwide	-11.66
▁mil	-11.6601
▁decade	-11.6601
----------------	-11.6607
▁rebecca	-11.6607
▁1948	-11.6608
▁vas	-11.661
big	-11.6611
▁parade	-11.6612
▁critic	-11.6615
▁characteristic	-11.6617
▁flung	-11.6618
▁investment	-11.6618
▁northeast	-11.6618
▁selfish	-11.6621
▁2018)	-11.6623
▁environmental	-11.6623
arrondissement	-11.6626
▁danced	-11.6629
▁tastes	-11.6635
ado	-11.6635
▁practical	-11.6636
▁xxi	-11.6637
ico	-11.6637
▁headache	-11.664
▁glen	-11.6642
▁malcolm	-11.6644
▁glorious	-11.6644
▁opposition	-11.6644
dear	-11.6652
▁electron	-11.6658
cycl	-11.6658
mag	-11.666
help	-11.6663
▁grip	-11.6664
▁listed	-11.6664
▁investigator	-11.6668
sim	-11.6669
nut	-11.6673
▁shells	-11.6676
rio	-11.6682
▁equally	-11.6683
▁vroom	-11.6685
▁spaniards	-11.6689
▁infection	-11.6689
▁dash	-11.669
▁2019.	-11.6691
▁bury	-11.6691
▁pajamas	-11.6699
▁instruments	-11.6703
▁possessed	-11.6704
▁forests	-11.6704
▁cad	-11.6704
▁disappointment	-11.6708
▁whirl	-11.6708
▁sco	-11.6709
▁circles	-11.6709
▁assist	-11.671
▁longest	-11.6716
▁episodes	-11.6717
▁fig	-11.6719
▁blackie	-11.6723
bear	-11.6726
▁mild	-11.6728
hands	-11.673
▁phase	-11.673
bat	-11.6732
▁blossom	-11.6736
▁nanny	-11.6738
▁stuart	-11.6745
▁dean	-11.6745
▁poem	-11.6746
▁wander	-11.6747
▁lighted	-11.6747
▁sweets	-11.675
▁cleaned	-11.6753
▁twinkle	-11.6754
▁lookee	-11.6755
▁consult	-11.6756
▁activist	-11.6763
▁michelle	-11.6764
▁monte	-11.6764
▁reviews	-11.6765
igan	-11.6766
▁epi	-11.6768
▁puzzled	-11.6771
▁cheering	-11.6771
▁supplies	-11.6772
dig	-11.6774
stead	-11.6778
▁holly	-11.6778
▁sober	-11.6779
vid	-11.6782
▁kam	-11.6783
lee	-11.6784
love	-11.6785
▁reporter	-11.6786
▁identity	-11.6791
▁pudding	-11.6791
▁subjects	-11.6791
▁testing	-11.6795
▁exhausted	-11.6799
▁permit	-11.6799
82	-11.6799
▁combination	-11.68
▁skate	-11.68
▁1958	-11.68
▁loop	-11.68
▁yer	-11.6801
▁soda	-11.6801
▁actors	-11.6804
▁skull	-11.6809
▁fastened	-11.681
nate	-11.6815
▁1952	-11.6819
▁1957	-11.6819
nel	-11.6822
▁strangers	-11.6831
43	-11.6832
▁nelson	-11.6837
▁naked	-11.6847
▁blown	-11.685
▁iran	-11.6851
▁+	-11.6852
▁echo	-11.6853
▁interrupts	-11.6855
▁debbie	-11.6856
via	-11.6856
▁smack	-11.6856
pla	-11.686
ér	-11.6861
▁sk	-11.6864
▁magnificent	-11.6865
▁elevator	-11.6866
pas	-11.6868
▁devoted	-11.687
▁accompany	-11.6874
▁escort	-11.6874
▁charity	-11.6876
▁poop	-11.6876
▁glow	-11.6877
▁scenes	-11.6882
▁athletic	-11.6883
▁gesture	-11.6883
app	-11.6887
▁shiver	-11.6887
▁walker	-11.6889
▁valentine	-11.689
▁bored	-11.6892
▁drowned	-11.6892
count	-11.6892
nne	-11.6892
▁ambassador	-11.6893
▁urged	-11.6893
▁75	-11.6894
malley	-11.6896
▁counted	-11.6896
sburg	-11.6898
73	-11.6898
▁bor	-11.6903
▁cer	-11.6903
▁assure	-11.6906
▁crashed	-11.6907
▁bananas	-11.6911
▁customers	-11.6911
;"	-11.6911
▁advise	-11.6912
cca	-11.6916
▁monitor	-11.6921
▁classical	-11.6922
▁nerve	-11.6925
▁ela	-11.6928
▁necessarily	-11.693
▁concentrate	-11.693
▁stake	-11.693
▁marsh	-11.6936
▁roses	-11.6936
▁sector	-11.6936
▁grape	-11.6937
used	-11.694
▁treaty	-11.6941
83	-11.6941
load	-11.6942
▁mortal	-11.6942
9]	-11.6943
lay	-11.6944
▁identify	-11.6949
81	-11.6954
▁runner	-11.6955
▁shriek	-11.6962
tar	-11.6963
▁internal	-11.6968
▁immense	-11.6977
▁och	-11.6977
nz	-11.6981
borough	-11.6985
▁ivan	-11.699
amy	-11.699
life	-11.6991
▁upward	-11.6995
hor	-11.6996
▁doorway	-11.6996
uf	-11.6997
▁romance	-11.7001
▁marched	-11.7002
ora	-11.7003
ope	-11.7005
fla	-11.7006
▁ven	-11.701
▁alter	-11.7011
▁lions	-11.7012
▁pouring	-11.7014
▁fry	-11.7017
idae	-11.702
▁claims	-11.7021
▁remote	-11.7022
▁adding	-11.7024
▁relative	-11.7028
▁greg	-11.703
▁genetic	-11.7031
▁motorcycle	-11.7034
79	-11.7035
une	-11.7037
▁suspected	-11.7039
▁chatter	-11.704
▁hopefully	-11.7042
▁wu	-11.7042
▁beck	-11.7054
▁pip	-11.7055
▁commit	-11.7055
▁entertain	-11.7055
▁dra	-11.7059
.9	-11.706
▁robe	-11.7061
74	-11.7062
▁notable	-11.7062
▁murmured	-11.7065
▁reflect	-11.7065
▁plainly	-11.7066
▁les	-11.7066
▁[11	-11.7072
▁physics	-11.7081
▁involve	-11.7081
pon	-11.7082
▁adams	-11.7083
▁murderer	-11.7084
▁sharing	-11.7086
▁sites	-11.7087
▁passenger	-11.7089
lessly	-11.7089
▁detect	-11.7089
something	-11.7089
▁slim	-11.7095
▁smells	-11.7096
▁mall	-11.7098
touches	-11.7098
▁gem	-11.71
▁chapel	-11.71
▁grows	-11.7103
ography	-11.7106
▁opposed	-11.7107
corn	-11.7107
dah	-11.7107
▁coward	-11.7107
▁reminds	-11.7108
▁dreaming	-11.7109
▁discipline	-11.711
▁uncomfortable	-11.711
chris	-11.711
pop	-11.7114
▁attempted	-11.7114
▁squeal	-11.7116
▁athlete	-11.7119
▁conscience	-11.7119
▁mole	-11.712
white	-11.7128
▁vine	-11.7128
▁aaron	-11.713
▁immediate	-11.7131
note	-11.7132
▁formation	-11.7132
▁possess	-11.7132
▁bade	-11.714
▁attract	-11.7145
▁py	-11.7148
▁cathedral	-11.7148
▁delivery	-11.7149
▁33	-11.715
elli	-11.7153
▁trot	-11.7154
▁reduced	-11.7155
▁vehicles	-11.7157
▁brooklyn	-11.7158
▁commanded	-11.7158
▁controlled	-11.7162
▁bedtime	-11.7163
▁parker	-11.7163
▁counties	-11.7164
▁2013,	-11.7165
▁caesar	-11.7167
▁hur	-11.7172
▁whoop	-11.7173
▁bracelet	-11.7177
▁34	-11.7178
pal	-11.7182
▁combined	-11.7185
▁pigs	-11.7188
april	-11.719
▁sau	-11.7191
▁gown	-11.7195
▁kennedy	-11.7196
▁seldom	-11.7196
leg	-11.7198
▁2013.	-11.7201
▁compliment	-11.7206
▁robbie	-11.7206
▁grin	-11.7207
▁horns	-11.7208
▁aunty	-11.7208
-3	-11.7208
▁crush	-11.7208
▁traveling	-11.7208
▁verb	-11.7211
▁robber	-11.7217
▁typical	-11.7217
aire	-11.7219
▁lyn	-11.7221
gel	-11.7222
▁jamie	-11.7224
▁nothin	-11.7224
▁municipalities	-11.7225
▁abandoned	-11.7226
▁loft	-11.7226
▁terry	-11.7228
▁dreamed	-11.7229
▁skills	-11.723
turn	-11.7233
▁hire	-11.7235
him	-11.7236
▁fist	-11.7238
▁zu	-11.7241
▁span	-11.7242
▁porter	-11.7244
š	-11.7244
▁satellite	-11.7244
▁1946	-11.7245
▁utter	-11.7245
▁adults	-11.7246
▁jumper	-11.7247
53	-11.7247
▁shouts	-11.7249
▁vet	-11.7253
nc	-11.7258
▁merged	-11.7264
chair	-11.7266
clears	-11.7267
www	-11.7269
grm	-11.7269
pushes	-11.7271
▁moss	-11.7272
▁muscles	-11.7273
▁turkish	-11.7274
▁frighten	-11.7274
▁burns	-11.7274
▁tests	-11.7278
▁receiving	-11.7283
▁dustbin	-11.7283
▁customer	-11.7285
▁franc	-11.7285
▁shone	-11.7288
ware	-11.7291
▁42	-11.7292
▁amusement	-11.7293
skin	-11.7294
▁pap	-11.7295
▁gardens	-11.7299
▁`	-11.7307
total	-11.7312
ject	-11.7312
▁interior	-11.7312
▁dispute	-11.7313
uni	-11.7316
▁inspired	-11.7317
▁explorer	-11.7319
▁curtains	-11.7327
▁toby	-11.733
▁louisiana	-11.7331
▁philosophy	-11.7331
▁jazz	-11.7333
▁harrison	-11.7334
▁vanished	-11.7337
▁relieved	-11.7351
▁prefecture	-11.7351
▁purchase	-11.7352
eyed	-11.7355
▁wag	-11.7356
▁ou	-11.7356
▁badge	-11.7358
▁supporting	-11.7359
▁nomination	-11.7361
yle	-11.7362
▁everyday	-11.7362
aging	-11.7364
▁brow	-11.7367
▁sole	-11.7367
taking	-11.7369
▁rotten	-11.7372
▁tomb	-11.7372
▁races	-11.7373
mbo	-11.7375
▁beau	-11.7376
51	-11.7377
▁foster	-11.7382
▁merc	-11.7382
▁snip	-11.7383
▁straighten	-11.7387
▁esp	-11.7387
case	-11.7387
▁hare	-11.7389
▁lobster	-11.739
▁niece	-11.739
▁kicking	-11.7396
▁complaint	-11.7399
▁pioneer	-11.74
▁pub	-11.7402
▁squ	-11.7408
▁views	-11.7409
▁opponent	-11.741
▁reed	-11.7413
▁minus	-11.7417
▁mock	-11.7417
▁allison	-11.7417
▁spike	-11.7418
▁panel	-11.7418
▁bleeding	-11.742
▁dart	-11.7421
▁fifa	-11.7421
own	-11.7422
▁starred	-11.7424
6]	-11.7424
▁pala	-11.7426
▁balloons	-11.7427
▁intelligent	-11.7429
▁portugal	-11.7429
▁cutter	-11.7435
▁dimitra	-11.7439
▁memorial	-11.7439
▁singapore	-11.7439
▁departure	-11.7439
▁lied	-11.744
▁1920	-11.7441
▁armenian	-11.7442
dal	-11.7444
▁halt	-11.7445
silver	-11.7448
vic	-11.7448
▁potter	-11.7448
▁1949	-11.745
▁gallop	-11.745
▁wheat	-11.745
rist	-11.7453
rod	-11.7453
▁marvel	-11.7455
fil	-11.7458
▁permitted	-11.746
▁joining	-11.746
▁dramatic	-11.7467
▁planes	-11.7471
▁technical	-11.7471
▁2012,	-11.7471
▁axe	-11.7474
▁tal	-11.7475
▁spoons	-11.7476
▁1942	-11.7479
▁dresses	-11.7481
▁conscious	-11.7481
▁farmers	-11.7483
▁2014,	-11.7484
▁trembling	-11.7489
▁leaped	-11.7489
▁comments	-11.7496
▁fortunately	-11.7496
▁perch	-11.7498
▁curly	-11.75
▁disturbed	-11.7501
pho	-11.7509
▁berg	-11.7511
▁pockets	-11.7512
▁stem	-11.7514
▁pence	-11.7515
▁eli	-11.7518
▁bargain	-11.7519
▁2015,	-11.7519
▁carries	-11.7521
▁filling	-11.7525
▁nepal	-11.7529
▁cupcake	-11.753
sti	-11.753
▁tab	-11.7531
▁rig	-11.7533
▁photos	-11.7533
▁mau	-11.7535
▁heir	-11.7536
▁via	-11.7537
▁volleyball	-11.7538
know	-11.7539
▁abd	-11.754
dder	-11.7542
▁mario	-11.7545
direct	-11.7546
▁pea	-11.7546
world	-11.7547
last	-11.7547
▁stare	-11.7548
▁critics	-11.7553
▁fearful	-11.7556
▁sw	-11.7557
▁pears	-11.7557
▁shadows	-11.7557
▁iris	-11.7559
▁neu	-11.7561
mom	-11.7568
▁hunger	-11.7569
▁farewell	-11.7569
▁shovel	-11.7571
jim	-11.7574
▁chr	-11.7579
▁bloom	-11.7583
dom	-11.7584
▁flap	-11.7587
▁welsh	-11.7588
▁1954	-11.7589
ground	-11.759
▁exhibition	-11.7591
▁suitable	-11.7594
cio	-11.7608
late	-11.7609
▁surgeon	-11.7609
▁propose	-11.7612
nell	-11.7613
▁regarding	-11.7614
▁consists	-11.7615
pass	-11.7618
▁electrical	-11.7625
▁chant	-11.7626
▁whispering	-11.7629
pher	-11.7635
▁sadly	-11.7639
▁warrior	-11.764
▁moor	-11.7644
horse	-11.7645
▁crisp	-11.7645
gri	-11.7648
▁fans	-11.7648
--------------	-11.765
called	-11.7653
▁slam	-11.7653
▁dame	-11.7654
▁sensible	-11.7659
▁neighbour	-11.7661
▁wandering	-11.7666
▁rested	-11.7666
▁shakespeare	-11.7669
▁wisdom	-11.7669
▁trigger	-11.7669
lio	-11.7675
▁homework	-11.7678
gli	-11.7682
cj	-11.7687
▁instinct	-11.7689
▁lettuce	-11.7689
▁borough	-11.7691
state	-11.7697
▁1955	-11.7699
▁chemistry	-11.77
lect	-11.77
keeper	-11.77
▁interrupt	-11.7704
▁stripes	-11.7709
▁dialect	-11.7709
▁fries	-11.7712
▁dale	-11.7716
▁shiny	-11.7717
▁investigate	-11.7719
▁sweater	-11.7721
▁christians	-11.7723
▁rangers	-11.7723
▁attracted	-11.7725
▁practically	-11.7728
▁kra	-11.7728
▁russell	-11.7729
▁1939	-11.773
▁improved	-11.773
▁modest	-11.7735
rang	-11.7736
▁dae	-11.774
▁alliance	-11.774
▁remi	-11.7744
▁alec	-11.7744
▁images	-11.7744
▁promptly	-11.7745
zing	-11.7746
▁batter	-11.7746
▁metres	-11.7747
▁execution	-11.775
▁relation	-11.7752
▁flee	-11.7755
▁polo	-11.7756
▁issued	-11.7757
▁accounts	-11.776
▁wax	-11.7762
▁anderson	-11.7762
hall	-11.7763
nda	-11.7769
▁jennifer	-11.777
posed	-11.7772
▁historic	-11.7772
▁admire	-11.7772
▁needn	-11.7774
▁lookin	-11.7774
▁methods	-11.7775
▁hack	-11.7777
▁yelling	-11.7778
▁forbidden	-11.7781
▁bum	-11.7781
▁kha	-11.7789
bef	-11.779
▁sensation	-11.7791
▁striking	-11.7801
▁surprising	-11.7801
▁arrangements	-11.7801
▁councillor	-11.7802
▁bail	-11.7805
▁abi	-11.7807
illy	-11.7809
▁resolution	-11.7811
▁amos	-11.7811
alo	-11.7813
▁wayne	-11.7813
▁gym	-11.7814
▁tee	-11.7816
▁scientist	-11.7817
▁votes	-11.782
▁und	-11.782
▁molecule	-11.7821
▁pigeon	-11.7821
▁pursuit	-11.7821
▁sneeze	-11.7825
een	-11.7826
▁pac	-11.7827
▁volcano	-11.7831
▁sponge	-11.7831
▁visual	-11.7831
▁warrant	-11.7832
▁yorkshire	-11.7833
▁reduce	-11.7834
▁explore	-11.7835
▁businessman	-11.7837
▁monsters	-11.7841
▁ky	-11.7842
▁brenda	-11.7842
coat	-11.7843
fresh	-11.7844
▁ministry	-11.7852
▁helpful	-11.7853
▁humming	-11.7853
▁absolute	-11.7854
▁dating	-11.7855
▁deeper	-11.7858
gold	-11.7858
▁dakota	-11.7862
▁pluck	-11.7864
▁paddle	-11.7864
▁uttered	-11.7868
▁sheets	-11.7869
▁gam	-11.7871
people	-11.7871
▁hollywood	-11.7873
▁trapped	-11.7874
▁lengthened	-11.7874
▁divorced	-11.7874
anne	-11.7874
isn	-11.7875
eb	-11.7876
▁allows	-11.7877
▁cousins	-11.7877
▁lan	-11.7878
woo	-11.788
blows	-11.7882
ère	-11.7883
▁bron	-11.7885
speak	-11.7887
▁canvas	-11.7888
▁scarlet	-11.7894
▁euro	-11.7898
▁privilege	-11.7903
▁mushroom	-11.7904
cade	-11.7906
▁medium	-11.7914
▁clearing	-11.7914
bach	-11.7916
fly	-11.7919
ites	-11.7921
▁globe	-11.7922
ulate	-11.7922
▁lantern	-11.7924
lore	-11.7928
wash	-11.793
▁whereas	-11.7932
cloth	-11.7934
▁belgium	-11.7934
▁beaver	-11.7935
▁chuckles	-11.7937
▁solemn	-11.7937
▁waffle	-11.7945
▁float	-11.7947
ova	-11.7949
shing	-11.7956
▁creating	-11.7956
▁entry	-11.7958
▁exit	-11.7958
anti	-11.796
test	-11.796
▁humble	-11.7963
▁cit	-11.7964
▁1943	-11.7966
glass	-11.7967
▁dolphin	-11.7967
▁colin	-11.7968
great	-11.797
▁secured	-11.797
▁scoop	-11.7977
illo	-11.7983
▁octopus	-11.7986
▁analysis	-11.7986
▁retirement	-11.7987
▁eighth	-11.7989
▁heroes	-11.7991
▁warriors	-11.7995
▁struggling	-11.7997
▁temporary	-11.7997
▁dates	-11.7998
▁answering	-11.8
▁fortunate	-11.8
▁popped	-11.8
▁irene	-11.8002
▁essay	-11.8008
▁behaviour	-11.8018
▁capacity	-11.8018
▁bru	-11.8019
▁loo	-11.8021
▁strap	-11.8023
▁abraham	-11.8028
could	-11.8029
thy	-11.8029
▁stroll	-11.8034
▁scarf	-11.8036
▁imitate	-11.8038
▁confederate	-11.8038
▁gall	-11.8039
▁citizen	-11.8039
▁roughly	-11.804
▁flows	-11.8049
▁survived	-11.8049
▁blaze	-11.805
▁steer	-11.8051
▁camping	-11.8053
▁groan	-11.8056
▁wink	-11.8058
▁wig	-11.806
▁1944	-11.806
▁1941	-11.806
▁gail	-11.8062
▁pursue	-11.8063
yne	-11.8063
▁featured	-11.8065
▁individuals	-11.8067
hee	-11.8069
▁introduction	-11.807
▁brit	-11.8073
▁joyce	-11.8073
▁grove	-11.8074
icle	-11.8074
▁exposed	-11.8077
▁stickers	-11.808
▁peninsula	-11.808
▁hedge	-11.8082
shot	-11.8085
overlap	-11.809
▁bean	-11.8091
▁invasion	-11.8091
▁absent	-11.8091
▁harvey	-11.8091
truct	-11.8093
▁initial	-11.8094
oke	-11.8095
▁bothered	-11.8096
▁rhythm	-11.8101
ried	-11.8105
hit	-11.8105
▁insects	-11.8106
▁planted	-11.8111
▁identified	-11.8112
à	-11.8112
▁bullets	-11.8115
▁eun	-11.8117
▁cellar	-11.8117
▁leon	-11.8117
▁behalf	-11.812
▁distribution	-11.8123
▁deserted	-11.8123
▁nellie	-11.8124
▁lively	-11.8126
▁rocking	-11.8127
▁enterprise	-11.8133
▁earliest	-11.8133
▁fixing	-11.8137
52	-11.814
▁dislike	-11.814
wer	-11.814
footnote	-11.8143
▁architect	-11.8144
▁occupation	-11.8144
talking	-11.8144
▁wives	-11.8145
▁rural	-11.8145
▁males	-11.8149
six	-11.815
watch	-11.8151
lé	-11.8153
▁leaned	-11.8153
▁imagined	-11.8157
▁barr	-11.8158
▁exc	-11.8161
▁wah	-11.8171
pulls	-11.8176
▁rio	-11.8177
▁strict	-11.8179
▁hermit	-11.818
lied	-11.8183
▁afterward	-11.8184
▁specimen	-11.8186
▁crunch	-11.8186
▁spo	-11.8187
▁ignore	-11.82
▁gale	-11.8203
▁select	-11.8204
tca	-11.8208
▁distinguished	-11.8209
▁ferr	-11.8215
▁chile	-11.8216
▁bake	-11.8216
▁uefa	-11.8218
▁1951	-11.8218
▁existed	-11.8229
▁sensitive	-11.8229
▁dollhouse	-11.8232
▁temp	-11.8235
▁fel	-11.8238
▁trim	-11.8238
wal	-11.8241
▁borders	-11.8243
▁desired	-11.8243
▁missile	-11.8247
▁brew	-11.8249
▁stump	-11.8251
▁lifetime	-11.8254
▁grabs	-11.826
▁hamilton	-11.8261
▁properties	-11.8261
▁ernest	-11.8262
▁damaged	-11.8264
rrr	-11.8265
▁commissioner	-11.8267
▁spotted	-11.827
▁smallest	-11.8271
▁taperecorder	-11.8271
▁computers	-11.8273
▁blankets	-11.828
▁zoom	-11.8281
▁bangladesh	-11.8282
▁bradford	-11.8283
▁slightest	-11.8284
▁gasped	-11.8286
oop	-11.8286
▁agents	-11.8289
▁roller	-11.829
city	-11.8291
▁swiftly	-11.8293
▁resort	-11.8294
▁prices	-11.8299
grf	-11.83
▁cd	-11.83
▁butcher	-11.8301
▁oklahoma	-11.8304
▁architecture	-11.8304
▁harvest	-11.8304
▁pun	-11.8307
hir	-11.8314
anna	-11.8316
▁parking	-11.832
starts	-11.8324
▁roz	-11.8325
▁freak	-11.8327
▁glove	-11.8331
rink	-11.8332
▁gleam	-11.8336
▁solomon	-11.8337
▁concerning	-11.8341
▁versions	-11.8344
▁cancel	-11.8344
media	-11.8345
▁dizzy	-11.8347
▁kir	-11.8347
other	-11.835
▁snowman	-11.835
▁wwe	-11.8355
▁steadily	-11.8358
▁1953	-11.8358
▁associate	-11.836
gio	-11.8364
oni	-11.8366
smith	-11.8369
▁cove	-11.8371
▁reverse	-11.8372
▁bab	-11.8372
▁cli	-11.8375
▁campus	-11.8376
▁compound	-11.8378
▁ukraine	-11.8379
▁stain	-11.8379
▁promotion	-11.838
bone	-11.8385
ograph	-11.8388
▁halloween	-11.839
▁tennessee	-11.839
▁torch	-11.8391
▁exhibit	-11.8397
empt	-11.8398
▁unto	-11.8399
▁appetite	-11.8401
▁lloyd	-11.8401
▁swww	-11.8404
▁voted	-11.8406
▁git	-11.8407
lah	-11.8411
▁cardinal	-11.8412
▁flames	-11.8412
based	-11.8412
▁angela	-11.8413
▁warner	-11.8415
ddy	-11.8419
▁derek	-11.8419
▁depending	-11.8422
▁marshall	-11.8423
▁contrary	-11.8423
▁arrangement	-11.8423
▁files	-11.8423
mc	-11.8425
▁crimes	-11.8427
▁heavens	-11.8429
▁highness	-11.8431
face	-11.8431
61	-11.8432
mba	-11.8432
osh	-11.8433
▁iraq	-11.8437
▁nickname	-11.8438
rop	-11.8444
▁engagement	-11.8445
▁accord	-11.845
▁disgust	-11.845
▁sails	-11.8456
nap	-11.8458
wyn	-11.8459
▁hesitated	-11.8466
▁withdraw	-11.8466
▁disgrace	-11.8466
▁cambridge	-11.8466
gee	-11.8467
▁aisne	-11.8467
▁thanksgiving	-11.8467
▁popcorn	-11.8467
▁lightly	-11.8473
▁discussed	-11.8473
▁argentina	-11.8488
fc	-11.8491
▁banner	-11.8501
▁clar	-11.8501
▁fitted	-11.8502
▁restrict	-11.8503
knock	-11.851
▁sequence	-11.851
▁punk	-11.851
."--_	-11.851
▁damp	-11.8511
▁bunk	-11.8512
eous	-11.8512
meter	-11.8514
▁fairies	-11.8518
▁frederick	-11.8521
▁1936	-11.8521
▁offers	-11.8524
laughter	-11.8526
▁rosie	-11.8527
roo	-11.8527
▁sources	-11.853
▁sketch	-11.8533
▁rosy	-11.8533
▁betray	-11.8541
▁bumped	-11.8541
▁dignity	-11.8543
▁narrator	-11.8543
aya	-11.8548
▁shaped	-11.8552
▁spl	-11.8552
▁chorus	-11.8555
isa	-11.8555
wise	-11.856
▁brake	-11.8562
▁divine	-11.8564
▁errand	-11.8565
▁idle	-11.8566
▁writers	-11.857
▁$2	-11.8572
▁bau	-11.8575
▁finest	-11.8576
▁contribution	-11.8576
▁glimpse	-11.8576
▁samantha	-11.8576
▁unpleasant	-11.8576
▁quid	-11.8583
▁lifting	-11.8587
▁spiritual	-11.8588
cie	-11.8594
▁elect	-11.8596
▁ernie	-11.8597
▁johann	-11.8598
▁ledge	-11.8602
▁sunset	-11.8602
▁cargo	-11.8605
▁experiences	-11.8608
▁alike	-11.8608
beat	-11.8609
▁1938	-11.861
▁tyler	-11.8611
▁females	-11.8612
liness	-11.8616
▁marian	-11.8616
▁containing	-11.8618
▁prof	-11.8619
▁1934	-11.8621
▁conducted	-11.8628
▁hydrogen	-11.8632
▁gilbert	-11.8632
▁fatal	-11.8632
▁corps	-11.8633
▁tones	-11.8633
pretends	-11.8637
▁meg	-11.8639
▁whi	-11.8641
▁cemetery	-11.8642
▁sri	-11.8645
▁graduate	-11.8647
▁basin	-11.8648
▁hopeless	-11.865
▁gru	-11.866
▁cruise	-11.866
▁promoted	-11.866
▁finishing	-11.866
▁apt	-11.8662
mrs	-11.8663
▁dwarf	-11.8665
▁messy	-11.8668
▁mou	-11.867
iver	-11.8671
▁angels	-11.8675
▁tons	-11.8679
▁declare	-11.868
▁telly	-11.8683
▁performing	-11.8684
rier	-11.8686
dio	-11.8694
▁ny	-11.8699
step	-11.87
▁airlines	-11.87
won	-11.8705
▁utterly	-11.8707
▁liver	-11.8709
▁seeking	-11.871
▁spinning	-11.8711
▁é	-11.8714
▁arrows	-11.872
▁spencer	-11.8721
▁vega	-11.8723
▁partners	-11.8723
asse	-11.8726
▁65	-11.8729
▁beasts	-11.873
▁rosalie	-11.8732
▁phillip	-11.8732
▁finance	-11.8733
▁pho	-11.8734
fashioned	-11.8736
▁nerves	-11.8739
picture	-11.8743
▁lighter	-11.8745
▁pic	-11.8746
hsl	-11.8749
▁paintings	-11.8752
▁messages	-11.8753
▁violet	-11.8754
▁elsewhere	-11.8757
▁amused	-11.8758
▁thi	-11.8759
▁janet	-11.8759
▁represents	-11.8759
▁tomatoes	-11.876
“	-11.8765
▁jun	-11.8766
▁steak	-11.8767
▁villain	-11.877
▁harsh	-11.8771
▁yuck	-11.8772
▁abc	-11.8778
person	-11.8779
▁contrast	-11.8782
▁scrub	-11.8789
▁dum	-11.8789
▁tested	-11.879
such	-11.8791
▁punish	-11.8795
▁murmur	-11.8796
fast	-11.8797
▁sponsor	-11.8799
▁academic	-11.8799
▁syn	-11.88
▁leonard	-11.88
▁sausages	-11.8802
hou	-11.8805
▁vale	-11.8806
▁scold	-11.8812
▁yawn	-11.8812
pr	-11.8813
▁moonlight	-11.8813
▁vital	-11.8816
▁observe	-11.8819
▁awhile	-11.882
▁crisps	-11.882
▁1933	-11.8822
▁enters	-11.8825
dling	-11.8828
ending	-11.8831
▁vincent	-11.8834
▁ragged	-11.8835
▁selection	-11.8837
cial	-11.8841
▁horizon	-11.8844
▁portuguese	-11.8845
manchester	-11.8846
▁czech	-11.8856
▁gazing	-11.8856
pod	-11.8858
▁sewing	-11.8859
▁spilled	-11.8861
▁interval	-11.887
▁blu	-11.8874
gna	-11.8874
▁pronounced	-11.8875
make	-11.8878
▁disguise	-11.8879
▁yacht	-11.8879
▁ornament	-11.889
▁lung	-11.889
▁ul	-11.8891
▁infant	-11.8892
kn	-11.8892
gets	-11.8893
▁restrain	-11.8896
throws	-11.8896
wow	-11.8897
▁decisions	-11.8897
▁admiration	-11.8901
▁crawling	-11.8902
ctu	-11.8902
▁exclamation	-11.8905
▁moreover	-11.8911
▁earnestly	-11.8912
▁muscle	-11.8913
▁jessica	-11.8913
▁descended	-11.8914
▁achievement	-11.8914
▁ere	-11.892
▁anton	-11.8921
humming	-11.8922
2)	-11.8924
▁bacteria	-11.8924
▁landscape	-11.8924
▁heritage	-11.8924
▁civilian	-11.8926
shows	-11.8928
▁parson	-11.8929
▁polar	-11.8929
▁steering	-11.8931
▁federation	-11.8936
▁harbour	-11.8936
▁monument	-11.8936
▁nigeria	-11.8936
elia	-11.8942
▁newly	-11.8943
▁islam	-11.8944
▁pandemic	-11.8947
▁transferred	-11.8948
▁mob	-11.895
lov	-11.895
▁herbert	-11.8951
▁talkin	-11.8951
▁emotional	-11.8953
▁heartily	-11.8954
▁napoleon	-11.8959
▁translation	-11.8959
▁frown	-11.8959
▁comedian	-11.8959
mir	-11.8961
▁charts	-11.8964
▁spr	-11.8966
▁benefits	-11.8967
▁reader	-11.8969
▁overcome	-11.8971
||1||	-11.8976
▁tucker	-11.8978
▁dense	-11.8978
groans	-11.8979
▁nickel	-11.8979
▁raft	-11.898
▁geoffrey	-11.8982
arch	-11.8982
▁£	-11.8984
▁motive	-11.8984
▁ladybird	-11.8985
rton	-11.8988
▁vow	-11.8992
▁constituency	-11.8993
▁decoration	-11.8993
▁publisher	-11.8993
▁mixture	-11.8994
▁fifi	-11.8994
▁pier	-11.8995
▁attraction	-11.8999
green	-11.8999
jun	-11.9001
▁limb	-11.9008
▁complain	-11.9009
▁bog	-11.9011
▁cleaner	-11.9015
▁signature	-11.9016
▁clatter	-11.9016
▁48	-11.9016
aro	-11.9024
▁gy	-11.9025
▁jennie	-11.9028
▁gallant	-11.9029
hoe	-11.903
ident	-11.9033
▁pasta	-11.9037
itch	-11.9038
▁routine	-11.9039
ility	-11.904
▁employment	-11.904
▁improvement	-11.9041
▁nobel	-11.9041
▁punished	-11.9043
▁sap	-11.9046
▁brig	-11.9046
nine	-11.9047
▁lei	-11.9049
final	-11.905
▁fragment	-11.9051
▁keith	-11.9051
▁stewart	-11.9051
▁doubtless	-11.9052
▁lala	-11.9055
▁assumed	-11.9056
▁documents	-11.9059
vor	-11.906
drops	-11.9061
▁kentucky	-11.9062
▁walt	-11.9065
whimper	-11.9066
▁barbie	-11.9067
hra	-11.907
▁fried	-11.9071
▁astonishment	-11.9074
▁maisie	-11.9074
▁convey	-11.9074
▁bloke	-11.9087
▁bruise	-11.909
bang	-11.9091
▁disagree	-11.9097
ride	-11.9097
▁accurate	-11.9097
-4	-11.9097
▁prophet	-11.9097
▁gallery	-11.9098
▁xi	-11.9101
▁disturb	-11.9101
▁consequence	-11.9102
▁residence	-11.9109
▁accordingly	-11.9111
hour	-11.9115
▁enthusiasm	-11.9121
▁grabbed	-11.9121
▁grammy	-11.9122
▁spelling	-11.9126
▁provisions	-11.9128
▁pl	-11.9129
▁accomplished	-11.913
▁drake	-11.9131
▁mic	-11.9132
▁proportion	-11.9132
▁ronald	-11.9132
▁urgent	-11.9133
▁recommend	-11.9136
rag	-11.9138
▁maryland	-11.9142
/2	-11.9143
▁nightmare	-11.9145
mur	-11.9145
▁pierce	-11.9146
▁ashes	-11.9153
▁cuba	-11.9155
▁communicate	-11.9156
▁ewww	-11.9158
▁sighs	-11.9158
▁forgetting	-11.9159
▁rover	-11.916
▁emmy	-11.9163
▁sammy	-11.9163
eight	-11.9165
▁dedicated	-11.9167
▁gratitude	-11.9167
▁sequel	-11.9167
▁gardener	-11.9172
▁wiped	-11.9174
▁dumb	-11.9175
dict	-11.9177
▁pp	-11.9178
▁genuine	-11.9179
▁regulation	-11.9179
▁context	-11.918
▁peru	-11.9181
▁trumpet	-11.9182
bow	-11.9186
▁deadly	-11.9188
▁scent	-11.919
▁sharks	-11.9191
▁invisible	-11.9191
▁edith	-11.9191
▁flavor	-11.9191
rov	-11.9197
▁searched	-11.9198
istan	-11.9199
▁encounter	-11.9203
▁yi	-11.9206
bank	-11.9206
▁examined	-11.9208
▁formerly	-11.9209
▁twisted	-11.9213
▁oars	-11.9216
▁approved	-11.9217
▁guessed	-11.9219
moans	-11.9219
▁diploma	-11.9224
▁clutch	-11.9226
→	-11.9227
uro	-11.9227
mia	-11.9227
qual	-11.9228
▁pomp	-11.9229
▁troop	-11.9229
jam	-11.923
headed	-11.9231
▁[9	-11.9232
vision	-11.9232
▁interpret	-11.9235
▁gh	-11.9235
▁arizona	-11.9238
▁oath	-11.9238
▁vel	-11.9241
▁prick	-11.9244
▁claws	-11.9249
billboard	-11.925
▁barrier	-11.9251
▁dread	-11.9254
▁catches	-11.9255
▁wrestler	-11.9257
▁glances	-11.9259
▁philippines	-11.9259
organ	-11.926
▁lollipop	-11.9262
▁proceeding	-11.9262
▁behold	-11.9263
▁hence	-11.9265
▁diary	-11.9267
flo	-11.9268
▁magnetic	-11.9271
▁37	-11.9272
▁carrier	-11.9274
▁deaf	-11.9279
▁difficulties	-11.928
▁47	-11.928
▁shah	-11.9282
▁govern	-11.9285
▁communities	-11.9285
▁ethan	-11.929
▁°	-11.9291
ffy	-11.9297
▁flushed	-11.93
imit	-11.9302
oph	-11.9304
▁bandage	-11.9307
▁flor	-11.9307
▁maine	-11.9307
▁nigel	-11.931
▁cod	-11.931
ographic	-11.9311
▁estimated	-11.9314
took	-11.9315
ttering	-11.9316
▁nowadays	-11.9321
▁exists	-11.9321
▁gracious	-11.9321
▁snapped	-11.9322
▁wade	-11.9323
▁yelled	-11.9326
▁lau	-11.9327
seven	-11.9331
ô	-11.9332
▁approval	-11.9333
▁philosopher	-11.9333
▁telegraph	-11.9333
▁mechanic	-11.9338
▁perceived	-11.9339
▁38	-11.9344
▁utah	-11.9345
ckle	-11.9348
▁bind	-11.9349
▁hawaii	-11.9357
▁organisation	-11.9357
▁salute	-11.9358
▁socialist	-11.9358
ovich	-11.936
▁buster	-11.9362
▁tightly	-11.9366
ode	-11.9366
▁entitled	-11.9369
▁mathematics	-11.9369
▁jeremy	-11.9369
cross	-11.9369
▁horrid	-11.9369
▁kel	-11.937
▁lea	-11.9371
lady	-11.9373
▁lazy	-11.9373
▁mule	-11.9376
▁alley	-11.9379
▁animation	-11.9381
▁objective	-11.9381
▁waking	-11.9383
comp	-11.9384
▁roland	-11.9387
verse	-11.9388
▁colours	-11.939
▁happier	-11.9393
▁survivor	-11.9393
bring	-11.9393
▁dose	-11.9395
▁clinic	-11.9396
iko	-11.9396
▁essential	-11.9397
▁flashed	-11.94
▁civilization	-11.9405
▁neuro	-11.9406
▁scorn	-11.9409
sail	-11.9411
▁sib	-11.9412
▁{	-11.9422
▁descent	-11.9424
▁raisin	-11.9426
▁shallow	-11.9426
▁crust	-11.9427
▁distinct	-11.943
onne	-11.9432
bridge	-11.9432
▁convince	-11.9434
▁portrait	-11.9441
▁ethnic	-11.9441
▁gravely	-11.9441
▁ark	-11.9442
▁followers	-11.9448
ural	-11.945
▁connecticut	-11.9453
▁schooner	-11.9453
▁applause	-11.9456
▁nods	-11.9456
▁hitler	-11.946
▁continuous	-11.9465
▁vegetable	-11.9466
▁arabic	-11.9469
▁secondary	-11.9471
ø	-11.9477
▁reflection	-11.9481
pic	-11.9483
▁swam	-11.9483
▁democrat	-11.9484
▁coral	-11.9487
rack	-11.9488
▁freeze	-11.9489
▁poverty	-11.9489
▁revolver	-11.9491
▁bead	-11.9493
esh	-11.9493
▁kara	-11.9494
▁shar	-11.9494
▁marcus	-11.9494
▁resigned	-11.9498
▁spur	-11.9498
▁flush	-11.9498
▁wick	-11.9501
▁anniversary	-11.9501
▁1929	-11.9502
▁preferred	-11.9502
▁preparation	-11.9503
▁merit	-11.9506
dine	-11.9509
▁smarties	-11.951
ingham	-11.9511
▁tryin	-11.9511
▁shorter	-11.9511
▁convenient	-11.9513
▁rooster	-11.9514
general	-11.9514
▁continent	-11.9515
▁milan	-11.9516
▁lauren	-11.9517
▁gui	-11.9517
hun	-11.9518
▁tackle	-11.9518
▁carlos	-11.9519
▁rating	-11.9521
▁muffin	-11.9526
▁1935	-11.9526
▁relate	-11.9526
hums	-11.9529
▁operated	-11.953
▁armour	-11.953
▁burger	-11.9531
enter	-11.9532
▁confirm	-11.9534
▁64	-11.9535
craft	-11.9536
while	-11.9536
▁gab	-11.9537
▁apron	-11.9538
▁ankle	-11.9539
▁reminded	-11.9539
▁convert	-11.9547
▁quote	-11.9548
sea	-11.9549
france	-11.9557
▁pol	-11.9558
goes	-11.9561
▁category	-11.9562
▁definition	-11.9562
▁nursing	-11.9562
▁attach	-11.9562
▁wages	-11.9564
ross	-11.9564
▁pam	-11.9566
these	-11.9566
enti	-11.9566
▁blink	-11.9568
▁maker	-11.957
▁diego	-11.9571
every	-11.9572
rome	-11.9572
▁radiation	-11.9574
▁caravan	-11.9574
rup	-11.9576
▁josh	-11.958
osaurus	-11.9582
▁rattling	-11.9586
▁tad	-11.9587
▁floss	-11.9587
main	-11.9588
▁random	-11.9588
▁whispers	-11.9589
▁freely	-11.959
▁screwdriver	-11.9598
▁impressive	-11.9598
▁caution	-11.9599
▁400	-11.9599
▁salary	-11.9601
▁silently	-11.9604
▁disk	-11.9607
▁bathtub	-11.9611
▁cloak	-11.9612
aku	-11.9612
atory	-11.9613
▁nhl	-11.9613
before	-11.9613
▁nicola	-11.9618
▁brownie	-11.9622
▁norah	-11.9623
▁fountain	-11.9623
▁regularly	-11.9623
▁leadership	-11.9626
▁trusted	-11.9627
▁youngster	-11.9628
▁gig	-11.9631
▁elegant	-11.9635
▁paradise	-11.9635
▁reagan	-11.9635
▁endure	-11.9635
▁ranger	-11.9636
uda	-11.9637
▁thompson	-11.9647
▁1937	-11.9648
ume	-11.9649
▁measures	-11.965
▁lucas	-11.9652
comune	-11.9655
ggy	-11.9656
▁colombia	-11.966
nau	-11.966
▁1932	-11.966
▁mansion	-11.9665
▁bunker	-11.9666
▁summit	-11.9672
blue	-11.9673
▁trading	-11.9674
▁ripped	-11.9674
tony	-11.9676
▁educated	-11.9676
morph	-11.9677
▁measured	-11.9678
▁plea	-11.9678
▁wandered	-11.968
▁boxer	-11.9681
▁learnt	-11.9681
▁taxes	-11.9684
▁denmark	-11.9685
▁approximately	-11.9685
▁helm	-11.9687
▁sweeping	-11.9687
▁attic	-11.9689
▁overhead	-11.969
▁humor	-11.969
▁tossed	-11.9691
▁trevor	-11.9697
▁kyle	-11.9701
▁barney	-11.9702
▁whe	-11.9703
▁ninth	-11.9706
▁penalty	-11.9709
▁amateur	-11.9709
▁grinned	-11.9709
▁tracy	-11.971
▁habitat	-11.9711
mul	-11.9711
roman	-11.9713
▁estimate	-11.9716
nay	-11.9721
▁tasty	-11.9722
▁israeli	-11.9722
▁restored	-11.9723
▁basement	-11.973
▁handy	-11.973
▁shave	-11.9734
mill	-11.9734
▁nintendo	-11.9734
▁celebrated	-11.9734
▁fern	-11.974
▁ranked	-11.9741
▁saucer	-11.9744
▁concentration	-11.9746
▁protein	-11.9746
▁worker	-11.9747
▁craig	-11.9748
phon	-11.9749
▁hush	-11.975
▁occasions	-11.9751
▁hiya	-11.9752
▁bella	-11.9753
▁upright	-11.9758
▁burglar	-11.9759
wil	-11.9759
▁restless	-11.976
▁foam	-11.9765
▁surf	-11.9767
▁hugo	-11.977
fle	-11.9772
▁fury	-11.9773
▁slavery	-11.9774
hei	-11.9776
ashi	-11.9778
▁44	-11.9779
▁yucky	-11.978
▁lucia	-11.9782
▁skeleton	-11.9784
▁pork	-11.9784
▁felix	-11.9784
▁adele	-11.9785
zzle	-11.9786
nee	-11.9791
▁pressing	-11.9793
▁folded	-11.9794
▁jingle	-11.9797
▁residents	-11.9797
▁screams	-11.9799
▁liber	-11.9801
▁tech	-11.9802
▁consequences	-11.9804
yah	-11.9807
▁establish	-11.9808
▁travelled	-11.9812
▁honk	-11.9816
▁rarely	-11.9816
ulu	-11.9818
▁strategy	-11.9821
▁policies	-11.9821
▁prix	-11.9824
▁influenced	-11.9826
dorf	-11.9827
▁achieve	-11.9828
▁laundry	-11.9833
org	-11.9834
doo	-11.9839
shin	-11.984
▁lynn	-11.9844
▁nicholas	-11.9846
▁providing	-11.9846
▁[1]	-11.9847
▁cocoa	-11.9852
▁2017)	-11.9854
dee	-11.9855
▁narrative	-11.9859
▁stalk	-11.9863
▁reflected	-11.9866
imp	-11.9868
sounds	-11.9869
▁clyde	-11.9871
▁magnets	-11.9872
▁organism	-11.9873
▁neil	-11.9874
ndra	-11.9875
ibility	-11.9876
▁chums	-11.9879
▁designer	-11.988
▁photographs	-11.9882
▁corridor	-11.9884
▁sovereign	-11.9884
▁1931	-11.9884
▁aired	-11.9887
▁ranks	-11.9888
▁scrape	-11.9896
▁mercury	-11.9896
▁simpson	-11.9896
▁microsoft	-11.9896
ask	-11.9897
▁[12	-11.9905
▁advised	-11.9908
▁fright	-11.9911
▁150	-11.9911
itude	-11.9912
▁boarding	-11.9912
gene	-11.9915
▁hastened	-11.9922
▁whistling	-11.9924
▁colleagues	-11.9926
▁indicated	-11.9927
▁careless	-11.9928
▁threatening	-11.9933
▁dentist	-11.9934
▁requirement	-11.9936
▁outline	-11.9942
▁developing	-11.9944
▁preparations	-11.9944
▁dory	-11.9946
ū	-11.9947
▁astonished	-11.9947
▁butterflies	-11.9947
▁vague	-11.9948
▁chased	-11.995
cate	-11.9951
▁apparent	-11.9952
▁peril	-11.9957
▁translated	-11.9958
▁orphan	-11.9959
▁representing	-11.9959
▁galaxy	-11.996
▁riot	-11.996
▁sai	-11.9961
▁agnes	-11.9962
▁traveller	-11.9962
▁pod	-11.9968
▁alas	-11.9968
▁rats	-11.9971
▁electoral	-11.9972
▁rhine	-11.9972
▁•	-11.9973
▁pram	-11.9974
▁footsteps	-11.9975
▁elm	-11.9981
coo	-11.9983
▁ev	-11.9984
▁maurice	-11.9985
lier	-11.9986
▁spade	-11.9986
▁fictional	-11.999
john	-11.999
hn	-11.9992
▁annoyed	-11.9993
▁collie	-11.9998
▁destination	-11.9998
▁regain	-11.9998
▁lizard	-11.9998
▁landlord	-11.9998
newman	-11.9999
wen	-12.0002
▁buff	-12.0004
▁rescued	-12.0004
▁prairie	-12.001
▁predator	-12.0011
▁strait	-12.0019
▁petrol	-12.0019
▁fil	-12.0019
▁greeted	-12.0022
▁nathaniel	-12.0023
▁toronto	-12.0023
▁stirring	-12.0025
▁existing	-12.0025
wy	-12.0026
▁foul	-12.0027
una	-12.0027
\	-12.0036
▁vacuum	-12.0036
▁scandal	-12.0037
▁dese	-12.0037
▁lem	-12.0043
▁(2	-12.0043
▁magical	-12.0046
▁pitt	-12.0049
inch	-12.0055
▁determine	-12.0056
▁plank	-12.0057
▁pail	-12.0058
change	-12.0059
bid	-12.0066
▁gin	-12.0068
▁islamic	-12.007
▁particles	-12.0072
▁boiling	-12.0075
opens	-12.0076
wall	-12.0077
▁margot	-12.0078
game	-12.0079
▁barber	-12.0079
▁weakness	-12.0079
rad	-12.008
ratner	-12.0083
▁bol	-12.0083
▁43	-12.0087
▁recruit	-12.0087
▁romania	-12.0089
▁pill	-12.009
▁lowered	-12.0091
▁dial	-12.0091
▁differently	-12.0091
teen	-12.0096
▁deb	-12.0098
▁utmost	-12.01
▁idol	-12.01
▁1928	-12.0101
▁rumor	-12.0104
kiss	-12.0106
▁chewing	-12.0109
▁brace	-12.0111
▁equation	-12.0113
▁leisure	-12.0113
▁esther	-12.0114
▁haul	-12.0115
▁largely	-12.0119
▁provision	-12.0119
▁marching	-12.0121
grade	-12.0125
▁amendment	-12.0126
▁oswald	-12.0126
▁portray	-12.0127
▁colorado	-12.0128
odo	-12.0128
▁employer	-12.0133
▁elders	-12.0139
▁refrigerator	-12.0139
▁frequent	-12.0146
▁limp	-12.0149
▁harvard	-12.0152
▁batman	-12.0152
imitating	-12.0153
▁wallace	-12.0153
ido	-12.0156
▁encouraged	-12.0157
▁encourage	-12.0158
brush	-12.0162
quin	-12.0164
▁shocked	-12.0164
▁daring	-12.0166
100	-12.0166
▁captive	-12.0166
eye	-12.0171
▁customs	-12.0178
▁jug	-12.018
▁confession	-12.0181
▁notion	-12.0183
▁crib	-12.0187
▁users	-12.0189
▁fantasy	-12.019
▁maximum	-12.0191
▁flutter	-12.0196
▁dusk	-12.02
▁democracy	-12.0203
▁fuzzy	-12.0203
▁composition	-12.0204
▁awoke	-12.0204
▁allies	-12.021
▁refuge	-12.0213
▁rav	-12.0213
▁stew	-12.0215
↗	-12.0216
▁invention	-12.0217
joy	-12.0222
▁annabel	-12.0224
▁witnesses	-12.0225
▁shove	-12.0226
ault	-12.0231
▁debuted	-12.0232
▁someday	-12.0232
▁owen	-12.0235
▁roo	-12.024
▁countenance	-12.0242
▁fbi	-12.0249
50,000	-12.0251
▁injuries	-12.0256
▁mammy	-12.0256
▁effie	-12.0256
▁isaac	-12.0258
▁taller	-12.0258
plan	-12.0258
▁dodge	-12.0264
▁enable	-12.0264
▁ethel	-12.0266
▁correspond	-12.0268
▁emphasis	-12.0269
▁reef	-12.0273
▁baked	-12.0279
▁occurs	-12.0281
▁moth	-12.0282
▁poems	-12.0283
▁erin	-12.0285
▁liverpool	-12.0295
▁marion	-12.0296
mpi	-12.0298
▁tsar	-12.03
pause	-12.0303
lene	-12.0305
rating	-12.0308
▁obeyed	-12.0308
▁embrace	-12.0308
▁ferry	-12.0308
▁[$=1	-12.0308
▁junk	-12.0316
gil	-12.0319
▁terrorist	-12.032
▁telegram	-12.0321
▁wishing	-12.0321
▁focused	-12.0325
lim	-12.0327
▁gloom	-12.0327
▁jerk	-12.0332
▁storage	-12.0334
▁telescope	-12.0334
▁undertake	-12.0336
▁consul	-12.0338
▁realise	-12.034
▁hearty	-12.0342
▁graphic	-12.0343
roid	-12.0346
▁graceful	-12.0347
▁cluster	-12.0347
▁detroit	-12.0347
▁gravity	-12.0347
▁universities	-12.0347
▁traveled	-12.0348
▁sliding	-12.0348
cake	-12.0352
putting	-12.0353
▁gua	-12.0355
▁somers	-12.0356
▁singh	-12.0357
▁cran	-12.036
▁lyon	-12.036
▁playgroup	-12.0364
hro	-12.0368
▁mandy	-12.0373
▁morris	-12.0373
▁mythology	-12.0374
▁mineral	-12.0381
logy	-12.0383
▁audrey	-12.0387
▁amazement	-12.0387
▁josé	-12.0387
screaming	-12.0389
plane	-12.0393
ody	-12.0396
gb	-12.0398
braunwald	-12.04
▁knives	-12.04
▁rubbed	-12.0401
▁##	-12.0401
▁burial	-12.0402
eff	-12.0405
▁promote	-12.0407
▁slap	-12.0413
▁ref	-12.0413
word	-12.0413
▁ambition	-12.0414
▁shrine	-12.0416
▁mwww	-12.0416
▁franz	-12.0419
▁devi	-12.0419
▁successfully	-12.0421
▁annoying	-12.0422
▁compare	-12.0424
▁gan	-12.0424
▁rejoice	-12.0427
▁borne	-12.0427
▁announcement	-12.0428
isation	-12.0428
▁spoiled	-12.0433
▁lib	-12.0439
▁physician	-12.044
▁recognition	-12.044
▁jewel	-12.0441
▁remarks	-12.0441
neil	-12.0442
▁demonstrate	-12.0444
▁timid	-12.0446
▁cracker	-12.0446
▁executed	-12.0447
▁fen	-12.0447
▁tread	-12.0453
▁bachelor	-12.0453
▁cm	-12.0454
▁vanilla	-12.0455
▁doug	-12.0455
▁galley	-12.0457
softly	-12.0462
▁preserve	-12.0462
▁collecting	-12.0466
▁absurd	-12.0467
▁marjorie	-12.0467
▁mol	-12.0469
▁employees	-12.0469
▁marcel	-12.0471
ante	-12.0472
▁mack	-12.0477
▁flatter	-12.0477
▁ontario	-12.048
▁infantry	-12.0481
▁fortnight	-12.0482
ought	-12.0484
course	-12.0486
▁chester	-12.049
▁prim	-12.0492
▁edmund	-12.0493
▁pawn	-12.0494
wah	-12.0502
▁abandon	-12.0505
shima	-12.0506
jin	-12.0506
▁hungary	-12.0509
▁slate	-12.051
▁mop	-12.051
core	-12.051
▁stro	-12.0512
▁39	-12.0514
▁siege	-12.052
▁abbey	-12.052
▁trifle	-12.0521
▁packing	-12.0521
▁fluid	-12.0523
▁suspended	-12.0524
▁cadet	-12.0526
▁clinton	-12.0534
▁assigned	-12.0534
▁nic	-12.0534
▁shaft	-12.0538
gone	-12.054
▁pippin	-12.0546
▁raj	-12.0546
▁cavalry	-12.0547
▁parallel	-12.0547
ffer	-12.0547
▁gir	-12.0549
▁bruno	-12.055
▁cope	-12.055
▁readily	-12.0558
abi	-12.0558
▁norwegian	-12.0561
▁receipt	-12.0561
▁velvet	-12.0561
imitates	-12.0561
oka	-12.0562
▁sup	-12.0563
▁[13	-12.0565
suit	-12.0574
▁amazed	-12.0574
▁coins	-12.0577
aga	-12.0583
▁distinguish	-12.0586
▁destiny	-12.0588
▁evans	-12.0588
▁stockings	-12.059
▁frankly	-12.0593
picking	-12.0598
▁plo	-12.0599
▁operator	-12.0602
▁mitten	-12.0602
undercurrent	-12.0603
▁worms	-12.0604
abe	-12.0605
kon	-12.0606
shaw	-12.061
udge	-12.0611
▁hampshire	-12.0615
▁jeffrey	-12.0615
▁parlor	-12.0615
▁perry	-12.0616
▁compounds	-12.0617
▁ascend	-12.062
▁mechanism	-12.0628
▁prominent	-12.0628
▁penguins	-12.0629
▁seesaw	-12.063
▁allowing	-12.0631
▁giggle	-12.0634
rice	-12.0639
cock	-12.0639
▁harriet	-12.0642
▁rico	-12.0651
▁shu	-12.0654
▁departed	-12.0654
▁celebration	-12.0655
▁dissolve	-12.0655
▁tragedy	-12.0655
▁neighbourhood	-12.0656
▁frock	-12.0658
ivity	-12.0666
bud	-12.0667
▁nathalie	-12.0669
▁cradle	-12.0669
▁jasper	-12.0669
▁playground	-12.0675
▁fum	-12.0676
▁pancakes	-12.0677
▁jung	-12.0679
▁ammunition	-12.0683
▁defined	-12.0683
▁summon	-12.0683
▁grind	-12.069
crib	-12.0693
▁indulge	-12.0696
▁shilling	-12.0696
▁dwww	-12.0699
iki	-12.0703
▁retire	-12.0704
▁rash	-12.0706
▁procession	-12.0707
▁affectionate	-12.0711
▁plaster	-12.0712
▁hull	-12.0715
style	-12.0716
▁lance	-12.0716
▁mala	-12.0717
position	-12.0719
▁dismissed	-12.072
▁washer	-12.0725
▁mining	-12.0725
▁vary	-12.0726
▁wright	-12.0728
kun	-12.0728
▁metro	-12.0731
▁scrambled	-12.0731
▁fiddle	-12.0738
▁borrowed	-12.0744
▁ancestors	-12.0747
luck	-12.0748
▁producing	-12.0751
▁extract	-12.0752
▁thor	-12.0753
▁ensure	-12.0754
movie	-12.0755
▁mara	-12.0759
▁linked	-12.0759
▁growl	-12.0763
▁publication	-12.0766
▁attacking	-12.0768
hab	-12.0769
▁outdoor	-12.0772
listen	-12.0774
grand	-12.0775
▁moose	-12.0776
▁beautifully	-12.0778
▁henri	-12.0779
▁vein	-12.078
▁stepping	-12.0783
maid	-12.079
▁update	-12.0795
▁precisely	-12.0797
▁hound	-12.0801
usa	-12.0803
dou	-12.0803
▁artificial	-12.0806
▁oregon	-12.0806
▁iranian	-12.0808
▁crushed	-12.0814
▁crest	-12.0816
▁eth	-12.0816
▁cease	-12.0817
▁playdough	-12.082
▁franchise	-12.082
▁collins	-12.082
▁musket	-12.0822
▁tamil	-12.0822
▁slot	-12.0824
fur	-12.0824
▁trent	-12.0825
▁hoop	-12.083
▁appearing	-12.0832
▁acquainted	-12.0834
▁literary	-12.0834
▁rascal	-12.0834
young	-12.0837
▁erase	-12.0838
▁95	-12.0845
▁limbs	-12.0845
▁armies	-12.0846
▁elliot	-12.0848
▁qualified	-12.0848
▁reindeer	-12.0848
▁wilderness	-12.0848
▁exo	-12.0848
diary	-12.0848
▁fitting	-12.085
▁overboard	-12.0855
▁tease	-12.0856
pra	-12.0858
▁tricky	-12.0861
▁robbery	-12.0861
▁satisfy	-12.0861
▁renamed	-12.0861
handed	-12.0866
▁esc	-12.0871
▁calf	-12.0871
▁excitedly	-12.0872
▁joel	-12.0874
▁denied	-12.0876
▁1926	-12.0876
▁madison	-12.0876
▁gli	-12.088
mail	-12.0881
▁ponies	-12.0889
▁murray	-12.089
luk	-12.0892
▁hostage	-12.0893
▁cautiously	-12.0893
▁archie	-12.0894
▁mp	-12.0896
▁oz	-12.09
▁vitamin	-12.0903
▁lyrics	-12.0903
▁teapot	-12.0905
▁hap	-12.091
feld	-12.0912
▁relatively	-12.0914
rud	-12.0915
▁roxy	-12.0917
▁toothbrush	-12.0917
spect	-12.0923
▁glitter	-12.0923
zh	-12.0928
▁carpenter	-12.0931
▁veteran	-12.0931
▁tobacco	-12.0931
▁eldest	-12.0931
▁slug	-12.0932
▁disposed	-12.0933
▁finland	-12.0933
shall	-12.0937
nova	-12.0941
▁electro	-12.0945
▁azerbaijan	-12.0945
▁slender	-12.0945
▁contempt	-12.0945
▁twilight	-12.0945
▁tenth	-12.0946
▁penn	-12.0946
▁consciousness	-12.0947
aged	-12.095
▁yah	-12.0951
national	-12.0955
▁profession	-12.0955
▁jerusalem	-12.0959
▁mediterranean	-12.0959
▁confront	-12.096
camp	-12.0961
indeed	-12.0962
▁severely	-12.0963
mount	-12.0967
▁salmon	-12.0972
▁differ	-12.0973
▁lame	-12.0973
▁fascinating	-12.0973
▁betrayed	-12.0978
▁bending	-12.0983
▁señor	-12.0987
pee	-12.0992
nick	-12.0995
▁berries	-12.0998
cken	-12.0998
▁conquered	-12.1001
▁gau	-12.1001
▁scotch	-12.1001
▁gregory	-12.1001
later	-12.1003
ncy	-12.1004
▁rack	-12.1005
▁christianity	-12.1007
▁tum	-12.1007
▁sinking	-12.1009
gard	-12.1019
kisses	-12.1022
thou	-12.1023
▁sled	-12.1024
▁impulse	-12.1029
▁iceland	-12.103
▁defender	-12.1036
▁jose	-12.1037
▁format	-12.1037
▁manufacture	-12.1038
▁joo	-12.104
▁dwelling	-12.1043
▁wizard	-12.1043
▁sep	-12.1044
▁robbed	-12.1044
▁lungs	-12.1044
▁freezing	-12.1045
leave	-12.1057
▁49	-12.1057
▁cinderella	-12.1058
▁muhammad	-12.1058
▁doubtful	-12.1058
▁programming	-12.1059
▁broadway	-12.1061
▁stitch	-12.1064
▁expand	-12.1064
▁patron	-12.1066
kk	-12.1066
—”	-12.1067
stock	-12.1068
▁virtue	-12.1072
▁sleigh	-12.1073
▁starving	-12.1076
▁lust	-12.1082
▁pursued	-12.1082
▁lowest	-12.1084
▁worrying	-12.1084
@	-12.1086
▁fabric	-12.1087
▁dadda	-12.1089
vil	-12.1089
▁cameron	-12.109
dur	-12.1092
wel	-12.1099
▁advertising	-12.11
▁jeep	-12.1101
▁protecting	-12.1101
▁panting	-12.1103
aria	-12.1103
▁elderly	-12.1105
▁impatient	-12.1107
pad	-12.1108
▁mechanical	-12.1109
▁hyun	-12.1109
▁julian	-12.111
▁resumed	-12.1114
▁fritz	-12.1115
▁1927	-12.1115
▁pennies	-12.1115
▁spreading	-12.1117
▁reel	-12.1118
▁arriving	-12.1118
▁cheaper	-12.112
arms	-12.1121
▁persuade	-12.1125
▁cob	-12.1128
ë	-12.1129
▁cornflakes	-12.1129
▁teen	-12.1129
▁lemonade	-12.1129
▁jest	-12.1135
▁neighbours	-12.1139
▁pills	-12.1142
▁watson	-12.1143
▁ssh	-12.1145
▁struggled	-12.1145
▁spaceship	-12.1148
▁dealer	-12.1152
▁readers	-12.1155
▁slack	-12.1157
▁countess	-12.1159
lash	-12.1161
▁poster	-12.1162
▁crackers	-12.1166
▁levi	-12.1173
▁ditch	-12.1173
▁lena	-12.1175
human	-12.1176
▁placing	-12.1178
faced	-12.1185
▁jefferson	-12.1186
▁rubbing	-12.1186
▁skating	-12.1186
▁miami	-12.1188
▁embarrassed	-12.119
▁rusty	-12.1193
▁ng	-12.1196
1||	-12.1196
å	-12.12
▁maisy	-12.12
▁squire	-12.12
▁colonies	-12.1201
▁creak	-12.1203
▁pottie	-12.1204
▁achieved	-12.1207
▁receiver	-12.121
▁coup	-12.1211
▁harp	-12.1212
mini	-12.1213
▁eternal	-12.1215
▁pedro	-12.1215
▁classification	-12.1217
▁continental	-12.1218
▁calmly	-12.1219
▁protested	-12.1221
▁insane	-12.1223
▁milli	-12.1226
▁forming	-12.1227
▁fare	-12.1228
▁switched	-12.1228
▁criticism	-12.123
▁import	-12.123
▁duncan	-12.123
▁strengthen	-12.1232
▁orleans	-12.1235
▁85	-12.1235
kim	-12.1236
▁downtown	-12.1237
astic	-12.124
▁plantation	-12.1241
▁tack	-12.1241
▁hosted	-12.1242
▁gorilla	-12.1243
▁weekly	-12.1245
▁alpha	-12.1246
bah	-12.1249
▁lass	-12.1251
range	-12.1252
mac	-12.1253
▁ske	-12.1255
▁atoms	-12.1257
▁earning	-12.1258
▁doughnut	-12.1258
▁freight	-12.1258
▁swarm	-12.1259
▁55	-12.1261
▁pupils	-12.1264
▁franco	-12.1265
▁thorough	-12.1265
▁basil	-12.1265
itu	-12.1266
▁acquired	-12.1267
▁extinct	-12.127
▁exclusive	-12.1272
▁blunt	-12.1273
▁boast	-12.1273
▁cheerfully	-12.1274
nah	-12.1275
300	-12.1275
▁fireplace	-12.1276
bia	-12.128
▁blush	-12.1281
▁gha	-12.1281
wich	-12.1284
▁agricultural	-12.1287
▁marvellous	-12.1287
▁darwin	-12.1287
▁establishment	-12.1288
▁bulk	-12.1288
chief	-12.1289
▁triple	-12.1291
▁correctly	-12.1291
▁tang	-12.1291
▁suite	-12.1293
-5	-12.1293
▁52	-12.1295
▁santo	-12.1296
▁graz	-12.1297
▁humphrey	-12.1301
▁angrily	-12.1301
▁{\	-12.1301
▁jewels	-12.1302
▁revolutionary	-12.1303
▁fulfill	-12.1304
▁transportation	-12.1306
▁tuna	-12.1308
▁crashing	-12.1312
▁assassin	-12.1314
▁facilities	-12.1316
▁necessity	-12.1316
▁ursula	-12.1316
▁wharf	-12.1316
▁rapper	-12.132
shaped	-12.1321
▁assembled	-12.1322
▁definite	-12.1323
▁cracked	-12.1324
▁mick	-12.1324
▁pg	-12.1329
▁cocoon	-12.1331
▁ventured	-12.1334
nese	-12.1338
▁retain	-12.1338
▁confessed	-12.1342
▁roared	-12.1344
▁indignant	-12.1345
ê	-12.1345
▁recipe	-12.1345
▁preserved	-12.135
▁delayed	-12.1352
▁posted	-12.1352
▁haut	-12.1355
▁sickness	-12.1358
▁manifest	-12.1359
▁terminal	-12.1359
▁console	-12.136
quo	-12.136
▁spice	-12.1361
▁passport	-12.1363
▁nun	-12.137
▁siren	-12.1371
▁wisconsin	-12.1374
▁breathless	-12.1375
▁whiskers	-12.1375
▁dismay	-12.1378
▁slid	-12.138
▁sie	-12.1381
▁hungarian	-12.1389
rina	-12.1389
▁specifically	-12.139
rc	-12.139
▁raspberry	-12.1393
▁tyre	-12.1399
▁humanity	-12.1402
▁punjab	-12.1403
▁traitor	-12.1403
▁cel	-12.1403
▁roaring	-12.1404
begins	-12.1407
▁booth	-12.1408
▁flashing	-12.1415
▁bowed	-12.1416
▁educational	-12.1416
▁trolley	-12.1418
▁streak	-12.1418
▁dimple	-12.1419
▁allowance	-12.1421
▁bennie	-12.1422
▁brute	-12.1422
zan	-12.1424
▁blocked	-12.1424
▁makin	-12.1431
▁picardie	-12.1433
▁deceive	-12.1433
▁ost	-12.1433
▁homer	-12.1442
▁kirk	-12.1443
▁magician	-12.1443
omi	-12.1445
trying	-12.1446
▁ritual	-12.1447
▁corpse	-12.1448
▁bald	-12.1448
▁swimmer	-12.1449
whining	-12.1451
▁wider	-12.1456
▁approve	-12.1459
▁successor	-12.146
▁boil	-12.1462
▁diagnosed	-12.1462
▁merrily	-12.1462
▁nathan	-12.1463
▁inspection	-12.1464
▁bengal	-12.1465
▁displayed	-12.1465
▁unlock	-12.1467
bourne	-12.1473
▁participated	-12.1476
▁tumble	-12.1477
▁rubbish	-12.1477
▁theodore	-12.1478
kir	-12.1483
▁typically	-12.1488
trust	-12.1491
▁whine	-12.1491
def	-12.1491
▁heath	-12.1491
▁neutral	-12.1492
▁clapping	-12.1493
▁2024	-12.1493
▁cement	-12.1495
osa	-12.15
▁houston	-12.1506
▁brigade	-12.1507
▁loaf	-12.1508
▁campbell	-12.1509
▁prompt	-12.1514
▁87	-12.1515
▁ramp	-12.1518
▁industries	-12.1521
▁yoghurt	-12.1521
▁dj	-12.1522
uncle	-12.1526
▁recommendation	-12.1527
▁sorted	-12.1529
▁quest	-12.153
▁quicker	-12.1531
▁questioning	-12.1534
▁baltimore	-12.1536
▁miguel	-12.1536
▁grammar	-12.1539
▁arc	-12.1541
▁budd	-12.1545
those	-12.1551
▁revenue	-12.1551
yama	-12.1551
joe	-12.1554
▁render	-12.1558
▁cork	-12.1559
▁arise	-12.1559
issa	-12.1562
▁venezuela	-12.1566
active	-12.1569
kid	-12.1569
engine	-12.1572
rail	-12.1582
▁spar	-12.1583
▁hydro	-12.1584
▁marshal	-12.1588
kill	-12.1595
▁opportunities	-12.1596
▁amusing	-12.1597
▁groom	-12.1598
train	-12.1598
▁mega	-12.1599
berries	-12.1601
chel	-12.1601
mission	-12.1601
pc	-12.1603
▁butler	-12.1605
▁rhodes	-12.1607
▁kon	-12.161
▁scholarship	-12.1611
▁yonder	-12.1611
▁madrid	-12.1612
ifying	-12.1612
▁blah	-12.1612
▁ricky	-12.1612
▁backward	-12.1621
etti	-12.1623
aux	-12.1624
▁luggage	-12.1625
▁mortgage	-12.1625
▁therapy	-12.1626
▁nip	-12.1627
▁choir	-12.1628
▁thoughtful	-12.1629
▁buses	-12.1631
etto	-12.1633
▁specially	-12.1634
shore	-12.1634
▁registered	-12.1638
▁laboratory	-12.1641
nonspeech	-12.1641
▁inventor	-12.1641
▁slipping	-12.1642
▁rugby	-12.1643
enburg	-12.1645
udi	-12.1645
ár	-12.1646
type	-12.1646
▁titan	-12.1647
▁bomber	-12.1647
jay	-12.1648
▁beak	-12.1649
▁gladly	-12.1649
▁mow	-12.165
▁grasped	-12.1654
▁thoughtfully	-12.1654
▁believing	-12.1655
▁hebrew	-12.1656
▁kidney	-12.1659
▁rita	-12.1661
pea	-12.1662
▁(3	-12.1665
ppen	-12.1666
▁apollo	-12.1671
▁winding	-12.1674
▁danish	-12.1677
▁researcher	-12.168
sniffs	-12.1682
cular	-12.1684
▁pineapple	-12.1686
▁beetle	-12.1688
▁exile	-12.1691
▁teasing	-12.1695
sneezes	-12.1695
▁server	-12.1698
▁belgian	-12.1701
▁quiver	-12.1703
▁fisher	-12.1704
▁sever	-12.1706
▁employ	-12.1706
▁peck	-12.1708
▁pretended	-12.1709
▁chattering	-12.1711
▁plunged	-12.1711
▁saga	-12.1712
▁commenced	-12.1713
itis	-12.1713
▁quantity	-12.1716
▁spectacle	-12.1716
▁minimum	-12.1716
▁champagne	-12.1716
▁racket	-12.1717
cop	-12.1718
▁devon	-12.1718
▁72	-12.1721
▁handful	-12.1722
bea	-12.1722
david	-12.1723
control	-12.1726
▁bouncing	-12.1731
▁facility	-12.1731
~	-12.1731
▁concrete	-12.1731
▁afghanistan	-12.1731
▁brushing	-12.1731
▁install	-12.1732
▁highland	-12.1733
▁occasional	-12.1735
zon	-12.1739
▁halted	-12.1743
▁luxury	-12.1746
▁rebellion	-12.1746
▁yankee	-12.1746
▁dro	-12.1747
▁prevented	-12.1749
▁gibb	-12.1754
▁rely	-12.1756
▁nicer	-12.1757
▁conquer	-12.1759
▁compelled	-12.1761
▁stray	-12.1761
▁stirred	-12.1763
▁wealthy	-12.1764
▁mound	-12.1764
▁rustle	-12.1771
▁macdonald	-12.1776
▁holmes	-12.1777
▁fowl	-12.1777
▁1925	-12.1778
join	-12.1782
▁pest	-12.1784
super	-12.1789
best	-12.1789
▁junction	-12.1792
▁intimate	-12.1792
▁wien	-12.1794
correct	-12.1796
▁growled	-12.1799
cru	-12.1801
▁glu	-12.1802
▁hin	-12.1803
rib	-12.1805
▁paragraph	-12.1807
▁sparrow	-12.1807
▁coffin	-12.1808
▁2019)	-12.181
▁ransom	-12.1814
▁hardy	-12.1818
▁uncertain	-12.1819
▁maple	-12.1821
▁advisor	-12.1822
▁infinite	-12.1822
▁cigar	-12.1823
▁envy	-12.1825
speech	-12.1825
▁alarmed	-12.1826
integr	-12.1828
▁gull	-12.1829
date	-12.1832
▁cunning	-12.1837
▁sculpture	-12.1837
▁supplied	-12.1837
▁hilary	-12.1837
▁temptation	-12.1837
▁exploit	-12.1837
▁adopt	-12.1838
▁poppy	-12.1841
kee	-12.1841
▁taka	-12.1844
kha	-12.1844
▁organic	-12.1845
▁succession	-12.1845
ective	-12.1846
▁wid	-12.1849
▁discussing	-12.1849
▁concealed	-12.1851
gunshot	-12.1852
▁birmingham	-12.1853
▁casting	-12.1856
▁wholly	-12.1857
▁requested	-12.1858
pole	-12.1859
zoe	-12.1859
▁initially	-12.1864
▁brumm	-12.1869
▁rape	-12.1871
▁77	-12.1873
conti	-12.1873
▁popularity	-12.1878
▁grub	-12.1879
alpes	-12.1882
▁1922	-12.1884
kka	-12.1885
▁anthem	-12.1888
kl	-12.1888
▁rim	-12.1892
▁detailed	-12.1898
▁cleveland	-12.1899
ril	-12.1899
▁tutor	-12.1902
▁ellis	-12.1906
ür	-12.1909
▁paralympics	-12.1909
grunting	-12.191
▁sentenced	-12.1913
▁garbage	-12.1914
▁pulse	-12.1914
natured	-12.1915
▁laurie	-12.1916
jar	-12.1916
▁safer	-12.1918
▁hoover	-12.192
rub	-12.1922
▁dai	-12.1922
▁hitch	-12.1926
▁hudson	-12.193
▁garments	-12.193
▁fir	-12.1935
fine	-12.1938
▁shrill	-12.1939
▁stored	-12.1942
▁rook	-12.1943
▁lanka	-12.1944
▁automatic	-12.1945
▁demonstration	-12.1945
▁endeavour	-12.1945
▁extensive	-12.1945
▁implement	-12.1945
▁tattoo	-12.1945
▁kap	-12.1949
giving	-12.1951
▁newton	-12.1951
▁vicar	-12.1952
wife	-12.1953
▁cabbage	-12.1961
▁resemble	-12.1961
▁yama	-12.1961
worthy	-12.1962
▁pont	-12.1967
pour	-12.197
▁whining	-12.1971
▁efficient	-12.1976
march	-12.1978
▁partnership	-12.1978
▁skiing	-12.198
▁adapted	-12.1988
▁tasted	-12.1988
removes	-12.1988
▁agriculture	-12.1992
▁certificate	-12.1992
▁observer	-12.1992
▁1918	-12.1993
▁nomi	-12.1993
||5	-12.1993
▁protestant	-12.1994
▁shaw	-12.1999
▁dime	-12.2
▁subsid	-12.2006
▁misfortune	-12.2007
▁mik	-12.2007
▁transcribe	-12.2007
▁squadron	-12.2008
▁recovery	-12.2009
▁ella	-12.2017
▁artillery	-12.2023
▁continuing	-12.2023
▁saxon	-12.2024
▁presentation	-12.2026
▁deliberately	-12.2027
▁handling	-12.203
▁sunlight	-12.203
▁86	-12.2031
soft	-12.2033
▁sour	-12.2033
▁strongest	-12.2037
▁shawn	-12.2038
▁serbia	-12.2038
▁battalion	-12.2038
▁cyclone	-12.2038
▁[14	-12.204
$	-12.2042
body	-12.2043
▁sealed	-12.2046
▁hurrying	-12.2046
▁flowing	-12.2049
▁sunk	-12.2053
▁terrified	-12.2054
▁caleb	-12.2054
▁nay	-12.2055
▁diving	-12.2058
▁83	-12.2061
▁malaysia	-12.2063
happy	-12.2065
▁exceed	-12.207
▁hymn	-12.207
▁misery	-12.2071
hil	-12.2071
▁hunted	-12.2073
▁tac	-12.2075
▁comparison	-12.2085
▁determination	-12.2085
▁henderson	-12.2085
▁plague	-12.2086
▁loyalty	-12.2087
▁bait	-12.2087
ente	-12.2096
▁melbourne	-12.2101
▁psycho	-12.2101
▁swallowed	-12.2101
▁idaho	-12.2101
▁cecil	-12.2102
▁liking	-12.2104
▁keeper	-12.2108
▁bran	-12.2113
▁municipal	-12.2115
▁aggressive	-12.2117
▁explosive	-12.2117
▁fundamental	-12.2117
▁southwestern	-12.2118
▁syria	-12.212
▁whence	-12.2127
▁kneel	-12.213
▁purchased	-12.213
▁occupy	-12.2132
▁orthodox	-12.2132
▁practise	-12.2132
▁boiled	-12.2133
▁1924	-12.2134
▁quoth	-12.2136
children	-12.2139
▁vase	-12.214
▁kor	-12.214
▁smashed	-12.2144
▁screech	-12.2146
▁territories	-12.2148
▁liquor	-12.2148
▁screamed	-12.2151
▁bough	-12.2156
ić	-12.2158
▁(17	-12.2161
▁chuckled	-12.2164
▁indigenous	-12.2164
▁survival	-12.2164
▁dil	-12.2165
▁hae	-12.2165
▁ripe	-12.2165
▁bluff	-12.2166
▁greet	-12.217
omo	-12.2171
▁praised	-12.2172
▁primarily	-12.218
▁torpedo	-12.218
▁nottingham	-12.218
ulf	-12.2182
rol	-12.2184
reading	-12.2186
://	-12.2189
▁intent	-12.2191
brown	-12.2191
č	-12.2196
▁qualities	-12.2196
▁welfare	-12.2196
▁wrath	-12.2196
▁bryan	-12.2197
▁grocery	-12.2199
▁marco	-12.2199
second	-12.22
▁bir	-12.2204
▁bombing	-12.2211
▁deedee	-12.2213
▁1923	-12.2213
ifies	-12.2214
▁livingston	-12.2215
crayon	-12.2216
▁stow	-12.2218
▁squat	-12.2221
▁88	-12.2222
icia	-12.2222
▁82	-12.2224
▁shudder	-12.2228
▁murphy	-12.2228
▁torment	-12.2229
▁muddy	-12.223
▁twig	-12.2233
▁mcg	-12.2236
▁chad	-12.224
▁preach	-12.2241
▁resulted	-12.2243
▁altitude	-12.2243
▁inquiry	-12.2243
von	-12.2245
▁crank	-12.2249
▁forbid	-12.2251
▁♪♪	-12.2255
▁grandson	-12.2255
por	-12.2257
▁dvd	-12.2259
▁accidentally	-12.2262
▁bha	-12.2263
▁onward	-12.2264
through	-12.2265
▁floated	-12.2268
▁46	-12.2273
onia	-12.2275
▁extension	-12.2275
▁garrison	-12.2275
▁manhattan	-12.2275
▁photographer	-12.2279
▁41	-12.228
color	-12.2281
▁cheat	-12.2288
▁kilometers	-12.2291
▁taiwan	-12.2291
▁munich	-12.2292
▁serial	-12.2292
▁cordial	-12.2294
eck	-12.2294
zin	-12.2297
▁consisted	-12.2301
▁fay	-12.2302
▁businesses	-12.2302
▁dwell	-12.2303
liga	-12.2305
▁diesel	-12.231
lac	-12.2313
▁dearest	-12.2314
fold	-12.2315
▁armor	-12.2315
▁puerto	-12.2323
uel	-12.2324
▁selena	-12.2324
▁veil	-12.2325
▁commitment	-12.2325
▁lev	-12.2326
▁tug	-12.2329
▁pose	-12.233
▁hyper	-12.233
▁depart	-12.233
bab	-12.2333
▁leicester	-12.2339
▁broccoli	-12.2339
▁aroused	-12.234
iii	-12.2347
▁harness	-12.2347
fusion	-12.2348
deb	-12.235
▁somme	-12.2351
▁91	-12.2354
▁massacre	-12.2356
▁dragging	-12.2356
-6	-12.2356
communi	-12.2359
▁derby	-12.2359
▁hypo	-12.236
▁guitarist	-12.236
found	-12.2369
▁devotion	-12.2372
▁rejoined	-12.2372
▁syllable	-12.2372
▁tweet	-12.2372
▁compass	-12.2372
▁shrink	-12.2372
▁unfair	-12.2374
▁boundary	-12.2376
matt	-12.2377
▁titled	-12.238
▁coughing	-12.238
▁indonesia	-12.2382
link	-12.2383
▁collapse	-12.2386
fight	-12.2387
ote	-12.2387
▁prevail	-12.2388
▁arguing	-12.2388
▁tornado	-12.2388
▁tumbled	-12.2389
lang	-12.2389
▁honored	-12.2393
▁wretched	-12.2395
ifer	-12.2399
▁kn	-12.2399
▁teenager	-12.24
choo	-12.2403
▁wardrobe	-12.2404
▁perfume	-12.2404
▁measuring	-12.2404
central	-12.2405
▁gloria	-12.2405
▁lounge	-12.2405
▁artistic	-12.2407
▁burp	-12.2411
▁classroom	-12.2411
▁attending	-12.2415
really	-12.2417
uga	-12.2419
▁serpent	-12.242
▁colonial	-12.2421
▁strand	-12.2422
into	-12.2424
ör	-12.2428
ook	-12.2434
▁nasa	-12.2436
▁secretly	-12.2436
▁abbot	-12.2437
▁trophy	-12.2437
cco	-12.2437
wheel	-12.2441
▁locker	-12.2446
▁lastname	-12.2448
▁mosquito	-12.2453
▁drown	-12.2456
▁edinburgh	-12.2458
▁songwriter	-12.2463
▁sham	-12.2464
▁freeman	-12.2467
▁ignorant	-12.2469
▁kidnapped	-12.2469
▁oatmeal	-12.2469
▁substitute	-12.2469
▁xxv	-12.2469
▁handled	-12.2471
num	-12.2473
▁bam	-12.2478
▁furnished	-12.248
block	-12.2481
▁crawled	-12.2484
▁conceal	-12.2487
▁bradley	-12.2487
▁freud	-12.2487
▁begging	-12.2488
▁highchair	-12.2488
▁wildly	-12.2489
▁manual	-12.2491
rose	-12.2491
▁97	-12.2494
fan	-12.25
▁gervaise	-12.2502
▁falcon	-12.2502
▁argued	-12.2502
▁desperately	-12.2505
▁jesse	-12.2508
psy	-12.2511
▁hog	-12.2513
▁scratched	-12.2515
400	-12.2516
▁glancing	-12.2518
▁montreal	-12.2518
▁fortress	-12.2518
▁adrian	-12.2519
▁lumber	-12.2519
▁cheating	-12.2521
▁flint	-12.2523
▁cali	-12.2524
fulness	-12.2526
▁strictly	-12.253
moo	-12.2532
▁thieves	-12.2534
▁inspiration	-12.2534
▁bennett	-12.2536
▁carlo	-12.2547
▁rust	-12.2548
▁crawford	-12.2551
▁thump	-12.2551
▁munch	-12.256
▁clasped	-12.2562
▁township	-12.2565
▁casual	-12.2567
▁martial	-12.2567
▁restore	-12.2569
▁charley	-12.257
▁bitterly	-12.2571
▁hoof	-12.2572
commune	-12.2572
▁deserved	-12.2573
▁maintained	-12.2581
▁hostile	-12.2585
draws	-12.2589
gmo	-12.259
max	-12.2599
▁conspiracy	-12.26
▁warehouse	-12.26
▁density	-12.26
▁theories	-12.2602
ended	-12.2603
zel	-12.2603
quarter	-12.2605
▁unclear	-12.2606
isse	-12.2607
▁dc	-12.261
haired	-12.2615
▁equivalent	-12.2617
▁retorted	-12.2617
▁wrench	-12.2617
▁mammals	-12.2617
▁brutal	-12.2618
▁christine	-12.2623
▁toxic	-12.2625
▁breach	-12.263
▁grill	-12.2631
▁demo	-12.2631
pretend	-12.2632
▁croatia	-12.2634
▁minnie	-12.2635
▁seize	-12.2635
▁tension	-12.2636
▁corporal	-12.265
▁rehearsal	-12.265
▁randall	-12.265
▁biological	-12.2651
▁bravo	-12.2652
▁lava	-12.2658
▁bothering	-12.2659
▁brightly	-12.2661
▁lent	-12.2662
▁commented	-12.2662
▁ober	-12.2666
▁stretching	-12.2667
▁congressional	-12.2667
▁manuscript	-12.2667
▁qualify	-12.2667
▁reckless	-12.2667
▁89	-12.2673
flower	-12.2673
▁champ	-12.2677
▁pupil	-12.268
▁variation	-12.2683
▁1000	-12.2683
▁jewelry	-12.2684
▁pocketbook	-12.2685
▁index	-12.2685
▁messed	-12.2694
▁gobble	-12.2694
♪	-12.2696
▁kipper	-12.2701
▁pasture	-12.2704
▁windy	-12.2705
▁crooked	-12.2709
▁stella	-12.2711
action	-12.2712
▁countryside	-12.2712
▁pittsburgh	-12.2717
▁rendered	-12.2717
▁lettice	-12.2717
▁sac	-12.2719
▁gender	-12.272
▁furry	-12.2723
▁reject	-12.2724
▁guilt	-12.2726
▁halfway	-12.2726
▁connor	-12.2729
▁risen	-12.2733
▁squirt	-12.2733
▁bosom	-12.2733
▁kula	-12.2734
▁creative	-12.2734
▁agony	-12.2742
▁81	-12.2749
▁piled	-12.275
▁component	-12.275
▁amazon	-12.275
▁michel	-12.2751
▁finishes	-12.2751
▁fade	-12.2752
▁choc	-12.2753
▁74	-12.2754
#	-12.2754
▁tuck	-12.2756
▁contented	-12.2759
▁lookout	-12.276
▁carson	-12.2767
▁knob	-12.2768
▁grease	-12.2769
▁[.7	-12.2772
▁luis	-12.2772
▁proudly	-12.2772
▁cube	-12.2775
▁underwater	-12.2777
▁convicted	-12.2778
▁masses	-12.278
▁absorbed	-12.278
▁pretzel	-12.2784
▁organize	-12.2784
▁triumphant	-12.2785
drop	-12.2786
▁coil	-12.2787
▁sip	-12.2791
▁margin	-12.2792
▁mak	-12.2796
▁owing	-12.2796
▁chen	-12.2798
another	-12.2801
▁genre	-12.2804
▁wallet	-12.2806
▁indistinct	-12.2808
▁farming	-12.281
▁sufficiently	-12.2818
▁buggy	-12.2818
past	-12.282
▁raja	-12.2829
▁marc	-12.283
▁constructed	-12.283
▁mixing	-12.2832
▁medication	-12.2834
▁curiously	-12.2835
▁ribbit	-12.2835
▁1919	-12.2836
▁isabelle	-12.2841
▁kip	-12.2841
cil	-12.2845
▁sprinkle	-12.2851
▁consistent	-12.2852
▁ronnie	-12.2852
▁gospel	-12.2852
▁cheerio	-12.2853
agh	-12.2853
▁summoned	-12.2853
▁messing	-12.2853
▁tess	-12.2854
▁melted	-12.2854
▁baking	-12.2855
▁scarce	-12.2856
▁faded	-12.2856
road	-12.2857
▁woody	-12.2857
▁welcomed	-12.2859
kissing	-12.286
bill	-12.2868
▁coincidence	-12.2868
▁qualification	-12.2868
▁exhaust	-12.287
▁fran	-12.2871
true	-12.2871
▁consultation	-12.2872
▁tel	-12.2883
▁conquest	-12.2885
▁fancied	-12.2885
▁guidance	-12.2885
▁drip	-12.2886
▁steward	-12.2887
tract	-12.289
▁stoop	-12.289
▁hub	-12.2892
▁serge	-12.2895
▁brun	-12.2895
▁grover	-12.2895
covered	-12.2897
zzo	-12.2901
▁glee	-12.2905
▁jock	-12.2909
▁slippery	-12.2909
▁fishes	-12.291
▁broadcasting	-12.2911
▁uhhum	-12.2914
▁perish	-12.2917
▁rah	-12.2918
▁declaration	-12.2919
▁strategic	-12.2919
▁lever	-12.292
▁vermont	-12.292
▁99	-12.2921
▁altar	-12.2922
fact	-12.2923
related	-12.2926
▁flora	-12.2927
▁thrill	-12.2928
oria	-12.2928
▁undo	-12.293
mbled	-12.2931
alia	-12.2934
▁likewise	-12.2935
▁exceedingly	-12.2936
rne	-12.294
▁weeping	-12.2941
▁warmly	-12.2945
ool	-12.2946
proof	-12.2947
▁maxim	-12.2948
▁bowling	-12.2949
▁darted	-12.295
▁sym	-12.295
▁almighty	-12.2953
▁quebec	-12.2953
▁bouncy	-12.2953
paper	-12.2954
▁wept	-12.2955
chester	-12.2955
▁personnel	-12.2956
▁lola	-12.2958
▁explaining	-12.2963
▁indiana	-12.2969
▁rejected	-12.2969
▁instruction	-12.297
▁comfortably	-12.2971
▁tense	-12.2972
▁interaction	-12.2973
▁pilgrim	-12.2973
ière	-12.2979
▁prussia	-12.2982
▁paula	-12.2986
discards	-12.2987
▁fugitive	-12.2988
▁1921	-12.2989
▁glide	-12.299
bottle	-12.2993
▁kneeling	-12.2995
▁managing	-12.3001
▁feller	-12.3003
▁quo	-12.3006
rik	-12.3008
▁classified	-12.3009
▁seaman	-12.3011
lag	-12.3011
ctic	-12.302
▁sharon	-12.302
▁vault	-12.3023
build	-12.3026
▁elite	-12.303
▁repeating	-12.303
▁92	-12.3032
zzi	-12.3033
▁neo	-12.3036
▁colon	-12.3036
▁sentiment	-12.3039
▁phoenix	-12.3039
▁joyful	-12.3039
▁profound	-12.304
▁singular	-12.3041
▁voting	-12.3043
▁distinctly	-12.305
▁emerged	-12.3051
▁forecast	-12.3057
▁considerably	-12.3058
▁attendant	-12.3059
▁snatch	-12.3059
▁failing	-12.3059
▁woe	-12.306
▁pingu	-12.3061
▁archive	-12.3063
▁prayed	-12.3064
▁tribute	-12.3067
▁moderate	-12.3067
▁strangely	-12.307
▁substantial	-12.3074
▁clump	-12.3074
▁guild	-12.3074
▁measurement	-12.3077
▁quaint	-12.308
▁51	-12.308
▁blonde	-12.3086
▁brushed	-12.3086
▁twelfth	-12.3091
▁unbelievable	-12.3091
▁84	-12.3094
▁remainder	-12.3094
▁fluffy	-12.3097
better	-12.3098
▁particle	-12.3099
▁zach	-12.31
▁darker	-12.3106
▁willow	-12.3107
▁caribbean	-12.3108
▁quantum	-12.3108
▁vampire	-12.3108
▁circular	-12.3108
▁bidding	-12.311
▁conviction	-12.3111
▁fasten	-12.3113
▁79	-12.3114
▁nile	-12.3116
▁otto	-12.3119
demonstrates	-12.3121
▁solemnly	-12.3121
ée	-12.3122
▁fenn	-12.3124
▁complications	-12.3126
▁depressed	-12.3126
▁watermelon	-12.3126
claps	-12.3128
bian	-12.3131
▁moan	-12.3137
▁salzburg	-12.3143
▁pow	-12.3145
▁bulb	-12.3145
▁twww	-12.3147
front	-12.3149
▁bruin	-12.3155
▁immortal	-12.3161
▁mohammed	-12.3161
▁promising	-12.3161
▁whereupon	-12.3161
▁cromer	-12.3162
▁gwen	-12.3163
▁liv	-12.3167
▁seaside	-12.3173
▁xii	-12.3173
didn	-12.3174
▁downward	-12.3178
lick	-12.3178
▁wrinkle	-12.3178
▁duchess	-12.3178
▁porridge	-12.3178
▁57	-12.3181
▁grieve	-12.3183
▁cruiser	-12.3185
nette	-12.3186
uru	-12.3187
rou	-12.3189
▁73	-12.3189
▁megan	-12.3191
▁listing	-12.3193
▁chemist	-12.3195
▁reverend	-12.3196
▁luncheon	-12.3196
▁resent	-12.3196
▁fraud	-12.3197
▁awright	-12.3198
▁array	-12.3198
story	-12.32
▁slay	-12.3202
dging	-12.3203
▁grunting	-12.3207
flu	-12.3209
▁sped	-12.3211
▁cruz	-12.3211
▁harmon	-12.3211
▁marcia	-12.3212
▁teletubbies	-12.3213
▁zipper	-12.3216
▁54	-12.3216
investigator	-12.3219
▁bravely	-12.3219
july	-12.3221
certainly	-12.3222
▁respectable	-12.3222
lord	-12.3224
▁glowing	-12.3226
once	-12.3228
▁freddy	-12.3235
▁define	-12.3237
▁announce	-12.3242
stairs	-12.3242
▁erect	-12.3247
▁submit	-12.3247
▁misunderstand	-12.3248
▁montgomery	-12.3248
▁rosamund	-12.3248
▁pledge	-12.3249
yawns	-12.325
▁78	-12.3253
write	-12.3258
comb	-12.3261
▁armenia	-12.3261
▁yea	-12.3262
▁dumped	-12.3265
▁hedgehog	-12.3266
▁suppress	-12.3266
▁apology	-12.3266
▁arctic	-12.3267
▁banned	-12.3268
▁persuaded	-12.3271
songwriter	-12.3272
▁condo	-12.3283
▁leopard	-12.3284
▁cau	-12.3285
▁curtis	-12.3285
▁trainer	-12.3291
▁partially	-12.3291
▁vera	-12.3297
▁tame	-12.3298
▁defendant	-12.3303
▁piglet	-12.3306
▁buckle	-12.3308
▁grumble	-12.331
▁youtube	-12.3312
▁creeping	-12.3315
▁mainland	-12.3319
▁vor	-12.3319
▁playstation	-12.3324
▁recommended	-12.3324
▁controller	-12.3326
▁rite	-12.3333
▁hurriedly	-12.3333
▁warden	-12.3337
▁1917	-12.3338
present	-12.3341
▁mcdonald	-12.3346
▁impatiently	-12.3347
▁suggesting	-12.3348
▁inspect	-12.3351
flow	-12.3354
▁compromise	-12.3355
▁congratulate	-12.3355
▁patricia	-12.3355
▁sesame	-12.3355
▁ego	-12.3355
▁emil	-12.3356
▁weston	-12.3357
▁sche	-12.3357
▁whoosh	-12.3358
mee	-12.3363
▁funding	-12.3371
rium	-12.3372
▁insect	-12.3372
▁barcelona	-12.3373
▁lolly	-12.3373
▁burrow	-12.3374
▁hardest	-12.3375
▁neigh	-12.3376
▁converted	-12.3377
▁terra	-12.3379
screen	-12.3379
ania	-12.3384
▁xiv	-12.3387
▁darn	-12.3387
▁10,000	-12.3387
greg	-12.3388
▁dainty	-12.339
pound	-12.3392
▁disposition	-12.3392
▁distract	-12.3395
▁bil	-12.3396
▁hopped	-12.3396
▁stacker	-12.3397
cum	-12.3398
mind	-12.3403
▁makeup	-12.3403
▁teaches	-12.3406
▁hoarse	-12.3408
▁rex	-12.3409
▁passionate	-12.341
▁suck	-12.3418
▁georgie	-12.3423
▁tortoise	-12.3426
▁dew	-12.3426
▁joshua	-12.3426
gabr	-12.3427
▁ironing	-12.3427
▁transition	-12.3428
▁audio	-12.3429
much	-12.3431
▁slaughter	-12.3431
eta	-12.3432
rrington	-12.3434
▁presume	-12.3444
▁plough	-12.3446
▁biology	-12.3446
▁carved	-12.3447
▁warmth	-12.3454
▁partial	-12.3459
▁muck	-12.3459
▁witches	-12.346
▁baggage	-12.3462
▁calculation	-12.3462
▁defensive	-12.3462
▁pyramid	-12.3462
▁mutual	-12.3462
▁bathing	-12.3467
▁93	-12.3472
▁yale	-12.3478
▁allied	-12.3478
▁tempted	-12.3482
▁defending	-12.3483
▁tisha	-12.3483
▁subway	-12.3487
▁charter	-12.3487
▁spies	-12.3493
▁kil	-12.3494
▁inhabit	-12.3498
▁enjoyment	-12.3507
▁superman	-12.351
▁tearing	-12.3512
▁engage	-12.3515
▁bonus	-12.3516
▁settlers	-12.352
▁sanders	-12.3521
▁morrow	-12.3525
▁reserved	-12.3526
▁echoed	-12.3527
south	-12.353
▁constellation	-12.3534
▁kathryn	-12.3534
▁pharaoh	-12.3534
giggling	-12.3535
▁scheduled	-12.3536
gian	-12.3537
▁repent	-12.3537
chants	-12.3538
▁ashley	-12.3538
▁quad	-12.3543
fel	-12.3544
▁publishing	-12.3547
▁pup	-12.3547
half	-12.3547
▁warmer	-12.3552
hurst	-12.3552
▁primitive	-12.3553
▁shampoo	-12.3553
▁gossip	-12.3553
▁dillon	-12.3553
▁creator	-12.3554
▁derwood	-12.3554
▁[.6	-12.3554
▁delhi	-12.3555
▁cmon	-12.3556
▁tipped	-12.3556
▁hike	-12.3558
tropic	-12.3558
▁76	-12.3565
▁employee	-12.3568
▁bout	-12.357
▁initiative	-12.3571
▁cindy	-12.3571
▁essex	-12.3571
▁diameter	-12.3571
▁morrison	-12.3574
▁66	-12.3575
▁marrying	-12.3576
jud	-12.3576
december	-12.3578
dial	-12.358
rain	-12.358
▁shoo	-12.3581
vice	-12.3585
mile	-12.3585
▁lark	-12.3585
▁xvi	-12.3588
ß	-12.3589
▁retrieve	-12.3589
▁revolt	-12.3589
▁trauma	-12.3589
▁clad	-12.3589
▁cyril	-12.3589
▁drummer	-12.3591
▁workshop	-12.3591
▁harmless	-12.3592
sometimes	-12.3596
▁litter	-12.3597
▁hyp	-12.3597
▁addressing	-12.3599
▁doris	-12.3605
▁marty	-12.3605
▁finn	-12.3606
▁digest	-12.3607
▁immigrant	-12.3607
▁legislative	-12.3607
▁superintendent	-12.3607
▁toothpaste	-12.3607
▁undoubtedly	-12.3607
weight	-12.3608
▁nibble	-12.3609
▁gabriella	-12.361
▁airline	-12.361
hung	-12.3612
▁aimed	-12.3613
▁embarrassing	-12.3613
▁jap	-12.3615
▁intently	-12.3616
force	-12.3616
▁pep	-12.3617
▁patent	-12.3617
▁coaches	-12.3618
▁violently	-12.3625
▁hippopotamus	-12.3625
▁humpty	-12.3625
▁crimson	-12.3626
▁brett	-12.3626
quite	-12.3628
▁billboard	-12.3629
hah	-12.3629
▁seattle	-12.363
▁mature	-12.3637
▁respected	-12.3639
▁tae	-12.3639
▁dup	-12.3642
▁1,000	-12.3643
▁glasgow	-12.3644
▁ketchup	-12.3644
▁coax	-12.3647
yells	-12.3648
▁whin	-12.3649
▁holder	-12.3649
▁untie	-12.365
scott	-12.3652
▁pru	-12.3658
▁plymouth	-12.3662
▁ukrainian	-12.3662
▁worries	-12.3662
▁pillar	-12.3664
▁vivid	-12.3664
▁luckily	-12.3665
▁advertise	-12.3667
▁bertie	-12.3672
▁corrected	-12.3672
▁announcer	-12.3672
▁cooker	-12.3673
▁heavier	-12.3681
▁sunrise	-12.3681
▁nell	-12.3681
▁puddle	-12.3681
▁ö	-12.3682
▁knit	-12.3683
▁growling	-12.3686
▁membership	-12.3689
▁representation	-12.369
▁calculated	-12.3691
▁essentially	-12.3692
▁swap	-12.3693
▁lofty	-12.3696
▁skies	-12.3697
▁coloured	-12.3698
▁commonwealth	-12.3699
▁awakened	-12.3701
▁referee	-12.3701
▁shooter	-12.3703
osaur	-12.3708
▁glare	-12.3709
▁buh	-12.3711
▁grande	-12.3713
brook	-12.3713
▁trash	-12.3714
▁admiring	-12.3717
▁probable	-12.3717
▁transform	-12.3719
stadt	-12.372
▁recognise	-12.3722
alu	-12.3723
rine	-12.3729
▁graph	-12.3731
▁slumber	-12.3736
ession	-12.3736
▁resolve	-12.3736
▁roused	-12.3738
rak	-12.3738
lessness	-12.374
▁complaining	-12.3743
august	-12.3743
▁traveler	-12.3743
third	-12.3743
relative	-12.3744
▁treating	-12.3747
▁gaining	-12.3752
▁fletcher	-12.3754
▁export	-12.3758
different	-12.3762
▁glenn	-12.3771
▁willard	-12.3772
▁assignment	-12.3773
▁hazard	-12.3773
▁orchard	-12.3773
▁recalled	-12.3775
▁cafe	-12.3785
▁trembled	-12.3786
▁burg	-12.3789
▁amsterdam	-12.3792
▁encouraging	-12.3792
▁naw	-12.3792
▁tract	-12.3793
▁stunt	-12.3793
▁audition	-12.3793
▁threaten	-12.3794
▁removing	-12.3797
▁wrestle	-12.3798
neighbor	-12.3799
▁kw	-12.3799
▁ruling	-12.3802
▁thirst	-12.3802
▁120	-12.3804
▁renew	-12.3806
▁advancing	-12.381
▁intellectual	-12.381
agne	-12.3814
january	-12.3817
▁dice	-12.3819
▁decorated	-12.382
hawk	-12.3825
▁dexter	-12.3829
▁identical	-12.3829
▁situated	-12.3829
▁jamaica	-12.3829
▁griffin	-12.3829
▁columbus	-12.3829
▁hesitate	-12.3829
▁snort	-12.383
▁barge	-12.3831
▁offence	-12.3832
▁absorb	-12.3833
▁percentage	-12.3833
▁peer	-12.3835
-17	-12.3835
▁53	-12.3836
angel	-12.3836
script	-12.3837
linda	-12.3841
▁stark	-12.3845
▁reproach	-12.3848
▁mitchell	-12.3848
▁proposition	-12.3849
▁wiggle	-12.3849
▁neatly	-12.3849
▁documentary	-12.3849
▁hwww	-12.3849
▁abruptly	-12.3851
▁shawl	-12.3851
▁zen	-12.3851
▁stubborn	-12.3866
▁cf	-12.3867
▁♫	-12.3867
▁awaiting	-12.3867
▁chirp	-12.387
▁ruby	-12.3879
/11	-12.3879
▁ceo	-12.388
▁endeavor	-12.3885
▁provincial	-12.3885
▁urge	-12.3885
uan	-12.3887
▁rwww	-12.3887
▁58	-12.3891
▁spared	-12.3894
▁dusty	-12.3894
▁leeds	-12.3895
minded	-12.3895
cream	-12.3901
simultaneous	-12.3904
▁firefighter	-12.3904
▁snug	-12.3904
▁dipsy	-12.3905
▁discharge	-12.3906
_1	-12.391
▁lex	-12.3912
aaa	-12.3917
▁coastal	-12.3918
▁nebraska	-12.3923
▁atlanta	-12.3923
▁confined	-12.3923
▁depict	-12.3923
whisper	-12.3924
▁resignation	-12.3924
▁flourish	-12.3925
▁gwww	-12.3925
▁starboard	-12.3927
mura	-12.3933
▁blend	-12.3936
▁lone	-12.3937
amba	-12.3938
▁heather	-12.3941
▁pilchard	-12.3942
▁pud	-12.3947
▁cia	-12.3947
▁marvelous	-12.3956
▁andrea	-12.3958
▁yang	-12.396
▁autonomous	-12.396
▁commerce	-12.396
▁pleaded	-12.3961
▁68	-12.3961
▁uneasy	-12.3962
▁tau	-12.3963
▁stead	-12.3965
sexual	-12.3968
▁enthusiastic	-12.3968
▁anytime	-12.3971
▁shiva	-12.3973
station	-12.3974
▁ingredient	-12.3979
▁separation	-12.3979
▁throng	-12.3979
▁interference	-12.398
▁relieve	-12.398
3,000	-12.3986
ña	-12.3989
▁recite	-12.3989
▁agreeable	-12.3989
▁freezer	-12.3992
▁grumpy	-12.3998
▁pneumonia	-12.3998
▁medieval	-12.3998
▁mermaid	-12.3998
▁resume	-12.3999
▁pah	-12.4
iron	-12.4001
▁marg	-12.4001
▁formally	-12.4002
▁yarn	-12.4004
▁wang	-12.4004
▁honourable	-12.4005
▁generate	-12.4009
▁assisted	-12.4011
▁childish	-12.4014
esse	-12.4016
▁brennan	-12.4017
▁slain	-12.4017
▁fergus	-12.4018
▁endless	-12.4018
▁bree	-12.4019
▁disappoint	-12.402
▁missionary	-12.4021
saint	-12.4022
▁tina	-12.4023
shouting	-12.4025
▁arabia	-12.403
▁puppies	-12.4036
▁sworn	-12.4036
▁dripping	-12.4037
▁[1.5	-12.4037
▁bribe	-12.4037
▁tragic	-12.4037
▁1912	-12.4038
▁bertha	-12.404
▁firemen	-12.404
▁geese	-12.4041
family	-12.4044
squeak	-12.4044
tyrann	-12.4045
▁guarded	-12.4049
wide	-12.405
▁discourage	-12.4055
▁overseas	-12.4056
▁sandra	-12.4058
▁cobb	-12.4059
▁epic	-12.4062
bru	-12.407
▁bulgaria	-12.4075
▁constance	-12.4075
▁evolved	-12.4075
▁gasoline	-12.4075
▁invalid	-12.4075
▁mildred	-12.4076
▁beggar	-12.4076
▁lf	-12.4077
▁recognised	-12.4078
▁diaper	-12.4079
▁supporters	-12.408
michael	-12.4082
▁cragg	-12.4085
▁frankie	-12.4085
stream	-12.4087
fair	-12.4092
▁satisfactory	-12.4094
▁thrash	-12.4094
▁versus	-12.4094
▁acknowledge	-12.4095
▁continually	-12.4096
▁speedily	-12.4097
ffin	-12.4107
izz	-12.4108
smiles	-12.4108
▁zara	-12.411
▁conservation	-12.4113
▁judith	-12.4113
▁presidency	-12.4113
▁psychology	-12.4113
▁armstrong	-12.4113
▁fal	-12.4115
▁woah	-12.4118
ready	-12.4119
▁jab	-12.412
probably	-12.4121
▁96	-12.4122
▁tidying	-12.4125
▁haunted	-12.4128
▁admired	-12.4128
▁overlap	-12.413
▁magistrate	-12.4132
▁unsuccessful	-12.4132
▁aviation	-12.4132
▁lodging	-12.4133
▁clung	-12.4133
▁dimension	-12.4135
▁vicious	-12.4135
owski	-12.4137
▁kg	-12.4138
▁nesta	-12.4142
▁exchanged	-12.4142
▁marketing	-12.4144
▁roam	-12.4145
having	-12.4146
▁pall	-12.4147
▁sparkle	-12.4148
office	-12.4149
▁1900	-12.4151
▁pablo	-12.4151
▁englishman	-12.4157
▁sexy	-12.4157
▁71	-12.4158
cient	-12.416
▁altered	-12.4163
▁frontier	-12.417
▁syndrome	-12.4171
▁benson	-12.4171
▁reptile	-12.4171
▁bailey	-12.4172
▁2016)	-12.4179
▁shaken	-12.4181
▁oct	-12.4184
north	-12.4185
▁radical	-12.4187
▁curled	-12.419
▁excellency	-12.419
▁progressive	-12.419
▁transmission	-12.419
abba	-12.4193
▁monthly	-12.4194
▁mash	-12.4194
▁choosing	-12.4194
▁cricketer	-12.4196
tech	-12.4202
kawa	-12.4207
▁offense	-12.4207
▁apprentice	-12.4209
▁olivia	-12.4209
▁vicinity	-12.4209
▁alternate	-12.421
▁atomic	-12.421
▁sonny	-12.4213
▁manufacturer	-12.4217
meaning	-12.4218
▁theft	-12.4222
▁hab	-12.4226
▁avail	-12.4228
▁microwave	-12.4229
▁negotiation	-12.4229
▁chancellor	-12.4229
▁melody	-12.4229
▁consume	-12.423
▁feeble	-12.423
▁blanche	-12.423
▁construct	-12.4232
▁offended	-12.4237
▁wireless	-12.424
▁derived	-12.4248
▁cheque	-12.4251
iller	-12.4254
▁luther	-12.4255
▁logic	-12.4257
én	-12.4259
▁brandy	-12.4261
▁sash	-12.4265
▁contemporary	-12.4268
▁gingerbread	-12.4268
▁unwilling	-12.4268
▁disabled	-12.4268
▁shrub	-12.4268
▁nigh	-12.4272
▁neglect	-12.4272
▁complained	-12.4274
▁attempting	-12.4282
▁specialist	-12.4286
▁blamed	-12.4286
▁presumably	-12.4287
▁legacy	-12.4287
▁antenna	-12.4287
▁antoine	-12.4288
▁carolyn	-12.4288
xxx	-12.4288
▁factories	-12.429
▁terrace	-12.429
▁decline	-12.429
▁alison	-12.4295
▁hallway	-12.4298
▁yoshi	-12.4299
▁proven	-12.4302
▁mustard	-12.4303
▁custody	-12.4307
▁dioxide	-12.4307
▁sierra	-12.4307
▁delegate	-12.4307
▁precede	-12.4307
turned	-12.4307
▁hoot	-12.4308
▁copyright	-12.4308
▁xiii	-12.4309
▁são	-12.431
neck	-12.4312
cci	-12.4313
▁98	-12.432
▁greedy	-12.4327
▁participate	-12.4328
▁alexandr	-12.4336
dec	-12.4337
▁tucked	-12.4344
▁dictionary	-12.4346
▁dwight	-12.4346
▁expansion	-12.4346
▁lucinda	-12.4346
▁roosevelt	-12.4346
▁mankind	-12.4346
▁oxide	-12.4347
▁recess	-12.4347
▁vigil	-12.4347
▁accomplish	-12.435
tribute	-12.4355
lace	-12.4356
▁fuse	-12.4359
▁neglected	-12.4361
▁signor	-12.4362
▁faculty	-12.4366
▁courtesy	-12.4366
▁sidewalk	-12.4373
▁heave	-12.4373
▁haunt	-12.4375
ieu	-12.4381
▁dye	-12.4383
▁speck	-12.4384
▁ranking	-12.4385
▁consumer	-12.4385
▁vac	-12.4385
▁cucumber	-12.4386
▁daffodil	-12.4386
▁kilometres	-12.4386
ă	-12.4386
▁kru	-12.4386
▁vertical	-12.4388
trans	-12.4388
▁patriot	-12.439
phil	-12.4394
▁ple	-12.4395
▁rally	-12.4396
▁mustache	-12.4398
▁gloomy	-12.4398
text	-12.4399
crack	-12.4403
▁precaution	-12.4405
▁scrooge	-12.4405
▁testimony	-12.4405
▁fireworks	-12.4406
▁decidedly	-12.4406
▁flank	-12.4406
▁vowel	-12.4408
▁hamlet	-12.4409
▁someplace	-12.4411
▁mourn	-12.4416
ł	-12.442
▁lindsay	-12.4425
▁privacy	-12.4425
▁dispatch	-12.4426
▁cedar	-12.4426
▁venice	-12.4426
▁beatrice	-12.4426
possum	-12.4426
▁predict	-12.4427
▁respectively	-12.443
▁comparatively	-12.443
▁joyous	-12.4434
▁goodnight	-12.4435
▁runway	-12.4435
▁quoted	-12.4436
▁maud	-12.4439
deck	-12.4441
▁eskimo	-12.4445
▁profile	-12.4446
▁gambling	-12.4446
▁oyster	-12.4446
▁terence	-12.4447
▁antony	-12.4447
▁$3	-12.4447
addressed	-12.4453
▁resign	-12.4455
ggin	-12.4462
▁resource	-12.4464
▁fastest	-12.4464
anza	-12.4465
▁pollution	-12.4465
▁testament	-12.4465
▁pavement	-12.4465
▁expanded	-12.4466
▁dublin	-12.4466
▁sobbing	-12.4468
▁oxen	-12.4469
▁trend	-12.4474
▁insert	-12.4474
▁sparta	-12.4476
▁stereo	-12.4484
▁printing	-12.4485
▁unlikely	-12.4487
▁losses	-12.4489
▁combine	-12.4491
pipe	-12.4492
▁solved	-12.4493
▁sv	-12.4496
find	-12.4502
▁trio	-12.4505
▁inviting	-12.4505
▁download	-12.4508
1/	-12.4508
▁sonia	-12.451
▁adore	-12.451
▁buzzing	-12.4511
▁divi	-12.4512
captain	-12.4514
▁delta	-12.4515
▁viola	-12.4518
▁drowning	-12.4524
▁argentine	-12.4525
▁constable	-12.4525
▁mailbox	-12.4528
▁adapt	-12.453
mumbling	-12.4545
▁exposure	-12.4545
▁sturdy	-12.4545
▁timing	-12.4547
▁kwww	-12.4547
▁collapsed	-12.4547
/1	-12.455
▁pastor	-12.455
▁diane	-12.4551
pond	-12.4552
▁lime	-12.4556
ün	-12.4561
▁mademoiselle	-12.4565
▁decrease	-12.4565
▁flirt	-12.4565
▁gaga	-12.4568
▁brr	-12.4569
▁breeding	-12.4582
▁gravel	-12.4584
▁infected	-12.4585
▁splinter	-12.4585
▁cbs	-12.4588
▁62	-12.4589
▁nfl	-12.4589
▁reduction	-12.4591
▁ultimately	-12.4592
▁63	-12.4599
▁sitcom	-12.4602
▁positively	-12.4602
▁alden	-12.4603
ál	-12.4604
▁laser	-12.4604
▁groaning	-12.4604
▁migration	-12.4605
▁shelves	-12.4605
▁horace	-12.4606
▁panther	-12.4608
▁replacement	-12.4608
▁spelled	-12.461
▁martyr	-12.461
▁gur	-12.4611
sort	-12.4612
▁hooked	-12.4613
▁filed	-12.4614
▁fab	-12.4622
▁acton	-12.4622
gawa	-12.4622
▁prejudice	-12.4625
▁devour	-12.4625
▁beverly	-12.4626
▁trout	-12.4628
▁physically	-12.4637
check	-12.4638
▁outstanding	-12.4642
▁crater	-12.4644
ş	-12.4646
▁variable	-12.4646
▁database	-12.4646
▁giddy	-12.4646
▁trotted	-12.4648
▁fiercely	-12.4649
▁conn	-12.4649
▁pike	-12.4651
growls	-12.4653
beep	-12.4654
group	-12.4655
▁praying	-12.4658
▁rake	-12.4662
▁thine	-12.4665
▁mathematician	-12.4666
▁beheld	-12.4666
▁bach	-12.4667
▁advertisement	-12.4667
▁viking	-12.4672
--”	-12.4674
attempts	-12.4675
zza	-12.4676
bleep	-12.468
▁waterfall	-12.468
▁solitary	-12.4686
▁warfare	-12.4686
▁cherries	-12.4687
▁performer	-12.4687
▁boundaries	-12.4687
▁distinction	-12.4691
▁legion	-12.4691
▁harper	-12.47
▁splashing	-12.4706
▁physicist	-12.4707
▁shirley	-12.4707
▁inscription	-12.4707
▁tying	-12.4708
▁ottoman	-12.4709
▁weighed	-12.471
drink	-12.4714
meg	-12.4714
▁suited	-12.4717
▁daytime	-12.472
haven	-12.4722
code	-12.4724
▁ignorance	-12.4727
▁hesitation	-12.4727
▁estonia	-12.4729
▁viv	-12.4743
▁offensive	-12.4747
▁stephanie	-12.4747
▁keisha	-12.4747
▁syrup	-12.4748
▁slipper	-12.4748
▁gravy	-12.4749
▁cavern	-12.4749
▁disagreeable	-12.4749
▁horizontal	-12.4749
▁filter	-12.475
▁adaptation	-12.4752
▁repaired	-12.4752
truck	-12.4753
founded	-12.4755
should	-12.4757
▁berth	-12.4757
▁rainy	-12.4758
rhin	-12.476
▁daw	-12.476
▁hatred	-12.4762
▁$5	-12.4763
letter	-12.4764
▁flute	-12.4766
drawn	-12.4767
▁cathalina	-12.4768
▁supermarket	-12.4768
▁catalogue	-12.4768
▁thither	-12.4768
▁squaw	-12.4769
▁whipped	-12.4769
▁1914	-12.477
▁hardship	-12.477
▁dirk	-12.4771
▁boldly	-12.4772
▁pleasantly	-12.4775
reaching	-12.4776
▁hick	-12.4779
church	-12.4784
▁invade	-12.4786
▁stamped	-12.4788
▁reservation	-12.4788
▁screenwriter	-12.4788
▁superhero	-12.4788
▁underwear	-12.4788
▁snarl	-12.4789
▁priority	-12.4791
cide	-12.4795
▁paulo	-12.4795
▁saul	-12.4796
▁mixer	-12.4796
holder	-12.4797
▁transit	-12.4803
▁petty	-12.4804
▁homeless	-12.4805
lake	-12.4806
▁aboriginal	-12.4809
▁elaborate	-12.4809
▁maintenance	-12.4809
▁sermon	-12.4811
september	-12.4818
▁cured	-12.482
▁commend	-12.482
▁machinery	-12.4821
▁static	-12.4824
▁gel	-12.4826
▁ef	-12.4826
▁peered	-12.483
▁peacock	-12.483
nvr	-12.483
▁1910	-12.4833
▁cluck	-12.4833
▁participant	-12.4839
▁hale	-12.4839
▁wage	-12.484
▁stoke	-12.4845
▁perfection	-12.4846
▁heroic	-12.4847
order	-12.485
▁archbishop	-12.485
▁conceive	-12.485
▁frequency	-12.485
▁hauled	-12.4854
▁oriental	-12.4856
▁unnecessary	-12.4858
century	-12.486
▁babylon	-12.486
▁56	-12.486
▁94	-12.4864
▁wellington	-12.4864
lion	-12.4867
▁yoon	-12.4868
shoot	-12.4869
▁probability	-12.4871
▁abilities	-12.4871
witch	-12.4873
▁tinker	-12.4873
▁hazel	-12.4873
▁explode	-12.4874
▁spine	-12.4879
▁anglo	-12.488
number	-12.4882
▁xv	-12.4885
hush	-12.4886
▁naka	-12.4887
▁domain	-12.4891
▁sync	-12.4892
▁mathematical	-12.4892
▁oooo	-12.4892
▁loom	-12.4892
▁cancelled	-12.4893
▁noddy	-12.4894
▁denver	-12.4896
▁snowball	-12.4897
crowd	-12.4901
▁ignored	-12.4906
▁peeping	-12.4908
▁heavenly	-12.4908
▁nur	-12.491
▁dismiss	-12.491
▁imaginary	-12.4913
▁examining	-12.4913
▁mingled	-12.4913
▁despise	-12.4913
▁providence	-12.4914
▁fling	-12.4919
hausen	-12.4921
special	-12.4922
suppose	-12.4923
▁overnight	-12.4925
▁koo	-12.4925
gillam	-12.4925
▁protocol	-12.4933
▁jacques	-12.4933
▁withdrew	-12.4933
▁despatch	-12.4933
▁google	-12.4934
▁desmond	-12.4934
▁brighter	-12.4935
▁locate	-12.4937
running	-12.4946
▁------------	-12.4953
▁clicking	-12.4954
▁mosque	-12.4954
▁churchyard	-12.4957
▁69	-12.4958
pain	-12.4958
▁garret	-12.4966
firm	-12.4966
hip	-12.497
▁67	-12.4973
▁declined	-12.4974
race	-12.4974
▁brussels	-12.4975
▁jupiter	-12.4975
▁frigate	-12.4976
▁varied	-12.4976
▁braid	-12.4982
february	-12.4985
▁motionless	-12.499
▁madness	-12.4993
▁odor	-12.4993
▁abundant	-12.4996
▁manufacturing	-12.4996
▁monroe	-12.4996
▁chuckle	-12.4996
▁cramp	-12.4999
▁canyon	-12.4999
▁grid	-12.5
lough	-12.5
▁readiness	-12.5003
▁tsu	-12.5006
length	-12.5006
▁gamble	-12.5007
bun	-12.5013
▁biden	-12.5016
▁chauffeur	-12.5017
▁corporate	-12.5017
▁propeller	-12.5017
▁swore	-12.5017
▁regime	-12.5018
▁dawson	-12.5018
▁elementary	-12.5019
▁riv	-12.5019
▁eagerness	-12.5022
▁stumbled	-12.5024
▁java	-12.503
▁rumble	-12.5033
since	-12.5037
▁santiago	-12.5038
▁assurance	-12.5038
▁fatigue	-12.5038
▁prohibit	-12.5038
▁segment	-12.5038
▁urgh	-12.5039
▁whereabouts	-12.504
|	-12.5048
▁ultimate	-12.5052
▁drifted	-12.5057
▁smuggle	-12.5059
▁assuming	-12.5059
buck	-12.5059
▁nodding	-12.506
▁translate	-12.5064
▁sustain	-12.5066
▁disturbing	-12.5067
▁destroying	-12.5068
▁malay	-12.5069
▁pil	-12.5071
▁drafted	-12.5075
trained	-12.5075
level	-12.5076
▁pha	-12.5076
▁nico	-12.508
▁petition	-12.5082
née	-12.5084
▁nought	-12.5084
▁gruff	-12.5084
▁destroyer	-12.5091
▁grange	-12.5101
▁recreation	-12.5102
▁fisherman	-12.5105
▁scratching	-12.5122
▁legislature	-12.5123
▁sparkling	-12.5126
▁brooke	-12.5129
▁ratio	-12.513
summer	-12.5134
getting	-12.5134
▁entertaining	-12.5137
▁renewed	-12.514
▁vengeance	-12.5144
assi	-12.5144
▁kiwi	-12.5146
▁minority	-12.5148
▁timmy	-12.515
november	-12.5154
▁healing	-12.5155
▁59	-12.5164
▁influential	-12.5165
▁montana	-12.5167
▁nwww	-12.5168
▁riddle	-12.5169
▁dynamite	-12.5171
▁incorporated	-12.5171
▁breakdown	-12.5172
ñ	-12.5178
▁amuse	-12.5179
▁pattie	-12.5184
▁astronaut	-12.5187
▁external	-12.5187
▁kemp	-12.5194
▁winky	-12.5208
ï	-12.5208
▁graduating	-12.5208
▁kindergarten	-12.5208
▁surviving	-12.5208
▁sympathetic	-12.5208
▁treason	-12.5208
▁preschool	-12.521
▁veranda	-12.5211
▁kenny	-12.5212
▁parliamentary	-12.5212
▁interpretation	-12.5213
▁kee	-12.522
ño	-12.5228
▁balcony	-12.523
▁draught	-12.523
▁thailand	-12.523
▁indication	-12.523
▁oblast	-12.523
▁matilda	-12.5231
▁barrett	-12.5231
▁tinky	-12.5232
▁keyboard	-12.5232
stitution	-12.5237
▁groaned	-12.5239
▁scenery	-12.524
▁milo	-12.5241
▁yew	-12.5246
▁stooped	-12.5249
▁ecuador	-12.5251
▁bumble	-12.5252
▁laurel	-12.5252
▁eliza	-12.5252
▁otter	-12.5252
liter	-12.5252
wig	-12.5255
▁cruelty	-12.5256
▁stein	-12.5263
▁(16	-12.5263
▁baldy	-12.5267
▁avenge	-12.5269
▁thrilling	-12.5271
▁obligation	-12.5273
▁nbc	-12.5273
▁sodium	-12.5273
▁runaway	-12.5279
▁riley	-12.528
▁indoors	-12.5285
▁bwww	-12.529
▁invaded	-12.5292
▁lighthouse	-12.5293
▁julius	-12.5294
▁baldwin	-12.5295
▁flown	-12.5295
▁thames	-12.5295
▁genera	-12.5298
▁lease	-12.5301
▁johnnie	-12.5306
▁syrian	-12.5312
▁fraction	-12.5316
▁locomotive	-12.5316
▁mischievous	-12.5316
▁psychological	-12.5316
▁cheated	-12.532
▁sensor	-12.532
▁unusually	-12.5327
▁yun	-12.5334
▁politely	-12.5337
▁muff	-12.5337
▁gertrude	-12.5338
▁volcanic	-12.5338
▁wailing	-12.5338
▁defended	-12.5339
▁usher	-12.5343
▁blooming	-12.5351
doctor	-12.5354
▁elevation	-12.5359
▁rhoda	-12.5359
▁involving	-12.5359
▁backpack	-12.5359
▁isolated	-12.536
▁wistful	-12.536
▁susie	-12.5362
standing	-12.5363
▁intonation	-12.5366
troph	-12.537
▁perspective	-12.5381
▁wreath	-12.5381
▁competing	-12.5381
sharp	-12.5382
▁separately	-12.5383
▁shane	-12.5388
▁furnish	-12.5388
▁interruption	-12.5388
▁scooter	-12.539
▁scamp	-12.5396
▁chow	-12.5397
▁duckie	-12.5398
▁featuring	-12.5403
▁spilt	-12.5404
▁wrecked	-12.5405
plicate	-12.5407
▁troy	-12.5415
▁detected	-12.5416
▁manuel	-12.5418
▁tailor	-12.5419
▁elmer	-12.5419
▁snatched	-12.5422
▁acknowledged	-12.5424
▁roommate	-12.5424
▁controversial	-12.5425
▁asteroid	-12.5425
▁criticized	-12.5426
▁intercept	-12.5426
▁monica	-12.5427
▁shuttle	-12.5429
▁venus	-12.5429
▁regardless	-12.543
▁impress	-12.5431
▁shattered	-12.5431
colored	-12.5434
▁homeward	-12.5442
▁carrie	-12.5444
▁scribble	-12.5447
▁temporarily	-12.5447
▁subtitles	-12.5447
legged	-12.5448
▁dio	-12.5448
▁anime	-12.5448
▁cir	-12.545
▁agenda	-12.545
▁grimly	-12.5451
▁bonny	-12.5452
▁whiz	-12.5452
▁shack	-12.5452
▁cheered	-12.5457
▁(15	-12.5462
grown	-12.5463
▁accommodation	-12.5469
▁diagram	-12.5469
▁aquatic	-12.5469
▁friedrich	-12.5469
▁caliph	-12.547
activate	-12.547
▁elaine	-12.5471
guil	-12.5473
▁barrow	-12.5474
▁georg	-12.5476
spoken	-12.548
left	-12.549
▁immune	-12.5491
▁gypsy	-12.5491
▁clinging	-12.5491
▁shoelace	-12.5491
▁1908	-12.5492
▁moist	-12.5492
▁hardware	-12.5496
charge	-12.5498
▁forgiveness	-12.5499
▁enabled	-12.5499
▁corny	-12.55
▁housekeeper	-12.5501
object	-12.5502
▁kah	-12.5505
▁highlight	-12.5507
▁hopeful	-12.5508
▁jae	-12.5509
election	-12.5511
▁consequently	-12.5513
▁françois	-12.5513
▁incredibly	-12.5513
▁nitrogen	-12.5513
▁retiring	-12.5513
▁warsaw	-12.5513
stricken	-12.5514
▁windmill	-12.5514
▁flashlight	-12.5515
▁angelina	-12.5516
▁twi	-12.5516
▁drone	-12.5517
ucci	-12.5521
▁crosses	-12.5522
▁coarse	-12.5535
▁nil	-12.5536
▁trina	-12.5539
▁fringe	-12.554
▁http	-12.5541
▁clasp	-12.5542
▁hue	-12.5545
blood	-12.5546
▁chang	-12.5554
▁deborah	-12.5557
▁whitney	-12.5558
▁shalt	-12.556
▁crist	-12.5563
▁sharpen	-12.5569
▁scatter	-12.557
▁witnessed	-12.5573
▁constitutional	-12.5575
▁woodland	-12.5575
▁effectively	-12.5577
▁superstition	-12.5579
▁uruguay	-12.5579
▁casa	-12.5583
▁relaxed	-12.5584
▁dreaded	-12.5585
▁sentry	-12.5589
folk	-12.5592
▁liam	-12.5593
▁nicknamed	-12.5594
came	-12.5598
▁outbreak	-12.5602
▁abode	-12.5602
▁corruption	-12.5603
▁scoring	-12.5603
▁richmond	-12.5604
▁raf	-12.5605
▁alida	-12.5609
▁roundabout	-12.5612
▁brushes	-12.5617
▁61	-12.5619
jon	-12.562
▁poker	-12.562
▁distracted	-12.562
▁tighten	-12.5624
▁administer	-12.5624
▁fabulous	-12.5624
▁crusade	-12.5624
▁mush	-12.5624
▁hubert	-12.5625
▁sphere	-12.5625
▁noticing	-12.5627
▁froggie	-12.5629
▁sternly	-12.563
▁processes	-12.5637
worm	-12.5637
▁kira	-12.5638
▁tangled	-12.5638
▁dismal	-12.564
▁claw	-12.5642
▁satan	-12.5647
▁plunder	-12.5647
▁sancti	-12.5647
▁chau	-12.565
bark	-12.5651
***	-12.5656
▁gunner	-12.5659
▁blur	-12.5661
▁randy	-12.5662
▁jew	-12.5667
▁exquisite	-12.5669
▁suffolk	-12.5669
▁bankrupt	-12.5669
celeste	-12.5673
▁piper	-12.5674
▁chaos	-12.5675
october	-12.568
▁laden	-12.5681
▁nero	-12.5682
▁elf	-12.5683
sorry	-12.5684
wald	-12.5688
▁hou	-12.5689
▁enforce	-12.5691
▁queensland	-12.5692
▁kathy	-12.5694
▁unload	-12.5697
▁slower	-12.5699
▁persisted	-12.5701
▁800	-12.5702
▁tenderly	-12.5704
rush	-12.5707
▁ceremonial	-12.5714
▁dialogue	-12.5714
▁westminster	-12.5714
▁alleged	-12.5714
▁bernice	-12.5715
▁squish	-12.5716
▁petersburg	-12.5716
▁tourism	-12.5718
▁encountered	-12.572
▁westward	-12.5722
▁shipping	-12.5724
▁seamen	-12.5726
▁lionel	-12.5729
▁shutter	-12.5734
▁policemen	-12.5736
▁competitive	-12.5736
▁supplement	-12.5736
▁whiskey	-12.5737
▁prague	-12.5737
▁behaved	-12.5741
▁mé	-12.5745
fellow	-12.5748
▁willingly	-12.5749
]⌋	-12.5755
▁realised	-12.5755
▁footage	-12.5758
▁controversy	-12.5759
▁morocco	-12.5759
▁confusing	-12.5759
▁bliss	-12.5759
▁blazing	-12.5759
▁cuban	-12.576
▁athens	-12.5766
▁matty	-12.5769
▁husk	-12.5769
▁tallest	-12.577
believe	-12.5771
▁vene	-12.5772
pool	-12.5774
panting	-12.5778
▁embassy	-12.5782
▁escaping	-12.5782
▁indignation	-12.5782
▁miniature	-12.5782
▁spank	-12.5783
▁disappearance	-12.5784
▁trough	-12.5784
▁contra	-12.5788
▁premiered	-12.5798
▁sustained	-12.5798
▁logical	-12.58
▁thrilled	-12.5802
▁alba	-12.5803
▁cylinder	-12.5804
▁describing	-12.5804
▁kathleen	-12.5804
▁monastery	-12.5804
▁newcastle	-12.5804
▁neighboring	-12.5807
▁geoff	-12.5809
▁commence	-12.581
▁babble	-12.5811
▁haute	-12.5811
▁ounce	-12.5813
▁flooded	-12.5814
▁decree	-12.5826
▁faintly	-12.5827
▁attentive	-12.5827
▁clumsy	-12.5827
▁obstacle	-12.5827
▁licence	-12.5827
▁settling	-12.5828
▁1911	-12.583
▁wiping	-12.583
▁convict	-12.5832
▁dictator	-12.585
▁contradict	-12.585
▁wrapping	-12.5851
▁disturbance	-12.5851
▁ivory	-12.5851
▁dependent	-12.5852
▁mansfield	-12.5852
▁poli	-12.5853
▁skinny	-12.5855
illi	-12.5855
▁beatles	-12.586
▁inherited	-12.586
▁reich	-12.5862
▁mocking	-12.5864
▁giles	-12.5872
▁sussex	-12.5873
▁staircase	-12.5873
▁mina	-12.5873
▁nokia	-12.5874
▁reggie	-12.5874
▁confidential	-12.5874
▁skunk	-12.5874
scope	-12.5878
▁clause	-12.5879
latin	-12.5881
▁disgusting	-12.5883
▁kilo	-12.5885
▁screwed	-12.5885
▁birch	-12.5888
▁beech	-12.5891
patsy	-12.5891
▁mourning	-12.5891
▁exploded	-12.5893
unintelligible	-12.5896
▁buenos	-12.5896
▁bungalow	-12.5896
▁manipulate	-12.5896
▁capitol	-12.5896
▁jimmieboy	-12.5897
▁sneer	-12.5897
▁travis	-12.5897
▁denise	-12.59
aceae	-12.5902
▁masa	-12.5902
▁pedal	-12.5902
activity	-12.5903
▁#1	-12.5907
▁sig	-12.5913
click	-12.5913
▁xavier	-12.5919
▁yogurt	-12.5919
▁goliath	-12.5919
▁scho	-12.5919
▁entreat	-12.5921
▁legendary	-12.5921
minating	-12.5924
▁depot	-12.5928
▁teeny	-12.5933
abad	-12.5941
▁instructor	-12.5942
▁katherine	-12.5942
▁luxembourg	-12.5942
▁charging	-12.5943
▁empress	-12.5944
▁piggie	-12.5944
▁1913	-12.5944
▁hugging	-12.5944
▁saturn	-12.5945
hap	-12.5949
010	-12.5958
▁joanna	-12.5959
▁aube	-12.5959
▁significance	-12.5965
▁unkind	-12.5965
▁grandmamma	-12.5966
▁isobel	-12.5966
▁decay	-12.5966
▁tibet	-12.5966
▁abdul	-12.5967
▁pagan	-12.5968
▁exertion	-12.5969
▁chatting	-12.5971
▁slash	-12.5971
▁rama	-12.5972
▁midland	-12.5974
yellow	-12.5977
▁dino	-12.5978
▁naught	-12.598
▁repeatedly	-12.5987
▁glacier	-12.5988
▁snuff	-12.5988
▁penetrate	-12.5988
▁manipur	-12.5988
▁norfolk	-12.5989
▁weasel	-12.5989
▁sideways	-12.5989
▁cardboard	-12.5991
▁edwin	-12.6
jump	-12.6006
▁backyard	-12.6006
▁printer	-12.6007
▁symphony	-12.6011
▁lithuania	-12.6011
▁rational	-12.6012
▁hopkins	-12.6012
▁250	-12.6015
▁dreadfully	-12.6018
▁damsel	-12.6018
▁mumbles	-12.6022
▁harmony	-12.6022
▁erik	-12.6025
▁shutting	-12.6025
▁consisting	-12.6026
deep	-12.6033
▁brittany	-12.6035
▁midfielder	-12.6035
▁sullivan	-12.6035
▁aldred	-12.6035
ão	-12.6036
▁danes	-12.6038
▁tiptoe	-12.6039
▁speeches	-12.6043
▁retail	-12.6044
suke	-12.6046
natural	-12.6046
whistle	-12.6046
▁|	-12.6047
▁musk	-12.6057
▁cripple	-12.6058
▁tumbling	-12.6058
▁marquis	-12.6058
▁tribal	-12.6059
▁vince	-12.6061
▁thicket	-12.6061
▁sullen	-12.6061
▁zee	-12.6062
▁aisle	-12.6063
perfect	-12.6072
safe	-12.6075
▁clarke	-12.6077
▁discharged	-12.608
▁ceremonies	-12.6081
▁aloft	-12.6081
▁lipstick	-12.6082
▁judging	-12.6082
▁choking	-12.6083
▁contestant	-12.6084
bou	-12.6085
▁petro	-12.6086
▁tripped	-12.6086
▁picturesque	-12.609
▁brent	-12.609
▁fucking	-12.6095
▁whack	-12.6095
▁publish	-12.6097
▁mkay	-12.6098
▁buddhist	-12.6105
▁pradesh	-12.6105
▁excess	-12.6106
english	-12.6117
morning	-12.6119
▁choked	-12.6122
▁pouch	-12.6122
▁sage	-12.6122
▁predicted	-12.6122
▁collision	-12.6128
▁inflict	-12.6128
▁~+	-12.6138
their	-12.6145
german	-12.6146
▁randolph	-12.6152
▁kendall	-12.6152
▁acute	-12.6152
▁1800	-12.6153
▁600	-12.6154
[...]
