<unk>	0
<s>	0
</s>	0
<pad>	0
<0x00>	0
<0x01>	0
<0x02>	0
<0x03>	0
<0x04>	0
<0x05>	0
<0x06>	0
<0x07>	0
<0x08>	0
<0x09>	0
<0x0A>	0
<0x0B>	0
<0x0C>	0
<0x0D>	0
<0x0E>	0
<0x0F>	0
<0x10>	0
<0x11>	0
<0x12>	0
<0x13>	0
<0x14>	0
<0x15>	0
<0x16>	0
<0x17>	0
<0x18>	0
<0x19>	0
<0x1A>	0
<0x1B>	0
<0x1C>	0
<0x1D>	0
<0x1E>	0
<0x1F>	0
<0x20>	0
<0x21>	0
<0x22>	0
<0x23>	0
<0x24>	0
<0x25>	0
<0x26>	0
<0x27>	0
<0x28>	0
<0x29>	0
<0x2A>	0
<0x2B>	0
<0x2C>	0
<0x2D>	0
<0x2E>	0
<0x2F>	0
<0x30>	0
<0x31>	0
<0x32>	0
<0x33>	0
<0x34>	0
<0x35>	0
<0x36>	0
<0x37>	0
<0x38>	0
<0x39>	0
<0x3A>	0
<0x3B>	0
<0x3C>	0
<0x3D>	0
<0x3E>	0
<0x3F>	0
<0x40>	0
<0x41>	0
<0x42>	0
<0x43>	0
<0x44>	0
<0x45>	0
<0x46>	0
<0x47>	0
<0x48>	0
<0x49>	0
<0x4A>	0
<0x4B>	0
<0x4C>	0
<0x4D>	0
<0x4E>	0
<0x4F>	0
<0x50>	0
<0x51>	0
<0x52>	0
<0x53>	0
<0x54>	0
<0x55>	0
<0x56>	0
<0x57>	0
<0x58>	0
<0x59>	0
<0x5A>	0
<0x5B>	0
<0x5C>	0
<0x5D>	0
<0x5E>	0
<0x5F>	0
<0x60>	0
<0x61>	0
<0x62>	0
<0x63>	0
<0x64>	0
<0x65>	0
<0x66>	0
<0x67>	0
<0x68>	0
<0x69>	0
<0x6A>	0
<0x6B>	0
<0x6C>	0
<0x6D>	0
<0x6E>	0
<0x6F>	0
<0x70>	0
<0x71>	0
<0x72>	0
<0x73>	0
<0x74>	0
<0x75>	0
<0x76>	0
<0x77>	0
<0x78>	0
<0x79>	0
<0x7A>	0
<0x7B>	0
<0x7C>	0
<0x7D>	0
<0x7E>	0
<0x7F>	0
<0x80>	0
<0x81>	0
<0x82>	0
<0x83>	0
<0x84>	0
<0x85>	0
<0x86>	0
<0x87>	0
<0x88>	0
<0x89>	0
<0x8A>	0
<0x8B>	0
<0x8C>	0
<0x8D>	0
<0x8E>	0
<0x8F>	0
<0x90>	0
<0x91>	0
<0x92>	0
<0x93>	0
<0x94>	0
<0x95>	0
<0x96>	0
<0x97>	0
<0x98>	0
<0x99>	0
<0x9A>	0
<0x9B>	0
<0x9C>	0
<0x9D>	0
<0x9E>	0
<0x9F>	0
<0xA0>	0
<0xA1>	0
<0xA2>	0
<0xA3>	0
<0xA4>	0
<0xA5>	0
<0xA6>	0
<0xA7>	0
<0xA8>	0
<0xA9>	0
<0xAA>	0
<0xAB>	0
<0xAC>	0
<0xAD>	0
<0xAE>	0
<0xAF>	0
<0xB0>	0
<0xB1>	0
<0xB2>	0
<0xB3>	0
<0xB4>	0
<0xB5>	0
<0xB6>	0
<0xB7>	0
<0xB8>	0
<0xB9>	0
<0xBA>	0
<0xBB>	0
<0xBC>	0
<0xBD>	0
<0xBE>	0
<0xBF>	0
<0xC0>	0
<0xC1>	0
<0xC2>	0
<0xC3>	0
<0xC4>	0
<0xC5>	0
<0xC6>	0
<0xC7>	0
<0xC8>	0
<0xC9>	0
<0xCA>	0
<0xCB>	0
<0xCC>	0
<0xCD>	0
<0xCE>	0
<0xCF>	0
<0xD0>	0
<0xD1>	0
<0xD2>	0
<0xD3>	0
<0xD4>	0
<0xD5>	0
<0xD6>	0
<0xD7>	0
<0xD8>	0
<0xD9>	0
<0xDA>	0
<0xDB>	0
<0xDC>	0
<0xDD>	0
<0xDE>	0
<0xDF>	0
<0xE0>	0
<0xE1>	0
<0xE2>	0
<0xE3>	0
<0xE4>	0
<0xE5>	0
<0xE6>	0
<0xE7>	0
<0xE8>	0
<0xE9>	0
<0xEA>	0
<0xEB>	0
<0xEC>	0
<0xED>	0
<0xEE>	0
<0xEF>	0
<0xF0>	0
<0xF1>	0
<0xF2>	0
<0xF3>	0
<0xF4>	0
<0xF5>	0
<0xF6>	0
<0xF7>	0
<0xF8>	0
<0xF9>	0
<0xFA>	0
<0xFB>	0
<0xFC>	0
<0xFD>	0
<0xFE>	0
<0xFF>	0
▁t	-0
he	-1
▁a	-2
▁i	-3
▁w	-4
▁the	-5
▁s	-6
▁*	-7
ou	-8
re	-9
in	-10
▁o	-11
ha	-12
▁b	-13
hi	-14
▁m	-15
ot	-16
▁c	-17
er	-18
nd	-19
▁y	-20
▁d	-21
▁f	-22
on	-23
ing	-24
▁you	-25
▁p	-26
ll	-27
▁to	-28
▁g	-29
▁l	-30
an	-31
mot	-32
▁n	-33
es	-34
ed	-35
or	-36
▁and	-37
en	-38
hat	-39
ar	-40
▁he	-41
chi	-42
at	-43
▁in	-44
▁of	-45
it	-46
as	-47
▁it	-48
om	-49
ow	-50
▁ha	-51
▁that	-52
st	-53
et	-54
▁on	-55
ve	-56
le	-57
ay	-58
▁we	-59
▁be	-60
▁e	-61
▁u	-62
ri	-63
gh	-64
▁is	-65
se	-66
his	-67
ld	-68
id	-69
al	-70
oo	-71
ut	-72
ic	-73
▁h	-74
▁was	-75
▁re	-76
▁k	-77
▁do	-78
ad	-79
▁st	-80
ac	-81
▁th	-82
ver	-83
..	-84
▁for	-85
▁=	-86
ght	-87
▁[	-88
ro	-89
ke	-90
▁what	-91
ly	-92
ent	-93
▁j	-94
ir	-95
am	-96
ion	-97
is	-98
ch	-99
out	-100
▁an	-101
▁me	-102
▁"	-103
▁se	-104
ith	-105
▁li	-106
▁go	-107
▁no	-108
▁with	-109
ea	-110
▁this	-111
her	-112
▁as	-113
ome	-114
all	-115
▁not	-116
▁at	-117
ur	-118
▁they	-119
▁there	-120
▁have	-121
▁are	-122
▁so	-123
▁she	-124
▁-	-125
ce	-126
ould	-127
ra	-128
▁can	-129
ter	-130
▁whe	-131
ill	-132
▁kn	-133
▁hi	-134
▁but	-135
ust	-136
ook	-137
▁one	-138
im	-139
▁ne	-140
▁don	-141
▁his	-142
ho	-143
ct	-144
un	-145
ant	-146
▁all	-147
▁know	-148
...	-149
il	-150
▁fr	-151
▁her	-152
▁r	-153
▁my	-154
▁up	-155
au	-156
▁mo	-157
▁your	-158
eah	-159
▁oh	-160
▁yeah	-161
pp	-162
▁ri	-163
▁de	-164
um	-165
xx	-166
▁sa	-167
▁al	-168
▁had	-169
ge	-170
us	-171
▁like	-172
ain	-173
ie	-174
▁ab	-175
ack	-176
▁pl	-177
and	-178
▁1	-179
▁out	-180
op	-181
ck	-182
our	-183
ood	-184
▁did	-185
▁get	-186
inv	-187
art	-188
▁look	-189
ry	-190
▁him	-191
▁su	-192
▁see	-193
ink	-194
▁from	-195
ab	-196
▁or	-197
ake	-198
red	-199
▁here	-200
▁v	-201
ol	-202
very	-203
th	-204
ers	-205
▁by	-206
qu	-207
ight	-208
han	-209
ul	-210
ation	-211
▁were	-212
▁sp	-213
ess	-214
ell	-215
ig	-216
ound	-217
est	-218
▁just	-219
▁if	-220
▁bo	-221
▁now	-222
▁some	-223
▁com	-224
▁who	-225
▁whi	-226
ind	-227
ame	-228
▁sh	-229
▁right	-230
▁well	-231
▁wor	-232
el	-233
ard	-234
▁them	-235
▁got	-236
ong	-237
one	-238
own	-239
▁when	-240
▁then	-241
▁about	-242
itt	-243
▁think	-244
ak	-245
▁want	-246
na	-247
res	-248
nt	-249
ast	-250
ally	-251
▁2	-252
▁ex	-253
▁would	-254
▁man	-255
fe	-256
▁con	-257
ive	-258
▁ro	-259
os	-260
fat	-261
▁said	-262
▁(	-263
▁any	-264
▁tw	-265
▁di	-266
▁will	-267
ate	-268
].	-269
▁where	-270
▁yes	-271
▁how	-272
ap	-273
▁good	-274
ep	-275
▁cl	-276
▁tim	-277
▁say	-278
▁us	-279
ber	-280
em	-281
▁ar	-282
ough	-283
▁come	-284
ine	-285
▁lo	-286
▁ok	-287
▁pro	-288
ven	-289
hing	-290
ort	-291
▁le	-292
▁put	-293
ice	-294
▁xx	-295
▁ag	-296
▁xxx	-297
▁int	-298
▁okay	-299
▁down	-300
ittle	-301
▁“	-302
hy	-303
▁am	-304
▁back	-305
ther	-306
▁little	-307
▁pe	-308
ous	-309
▁let	-310
other	-311
ore	-312
way	-313
▁af	-314
▁co	-315
ag	-316
▁going	-317
."	-318
▁could	-319
▁more	-320
▁been	-321
▁br	-322
ist	-323
▁fe	-324
▁time	-325
▁has	-326
ies	-327
ause	-328
▁qu	-329
▁chi	-330
▁over	-331
▁than	-332
▁very	-333
▁two	-334
ft	-335
▁un	-336
▁which	-337
▁tr	-338
▁bl	-339
▁bec	-340
dy	-341
▁too	-342
▁'	-343
▁off	-344
▁their	-345
--	-346
ick	-347
ide	-348
▁19	-349
▁er	-350
▁en	-351
ace	-352
lf	-353
▁20	-354
▁other	-355
ity	-356
end	-357
▁play	-358
ree	-359
ose	-360
are	-361
▁car	-362
▁cha	-363
▁thing	-364
alk	-365
ure	-366
▁does	-367
▁mar	-368
reat	-369
▁po	-370
,"	-371
orn	-372
▁sc	-373
ear	-374
omet	-375
ment	-376
▁gr	-377
ish	-378
▁why	-379
urn	-380
nder	-381
pe	-382
▁fl	-383
hed	-384
my	-385
▁sha	-386
ud	-387
▁again	-388
age	-389
▁into	-390
▁tell	-391
▁fir	-392
▁somet	-393
ought	-394
▁after	-395
pl	-396
▁way	-397
▁take	-398
▁make	-399
▁uh	-400
ople	-401
ff	-402
ian	-403
ass	-404
▁people	-405
ps	-406
▁jo	-407
ade	-408
▁bet	-409
ue	-410
▁first	-411
▁work	-412
ble	-413
ase	-414
ia	-415
▁because	-416
▁every	-417
ving	-418
int	-419
▁may	-420
▁call	-421
▁day	-422
▁gon	-423
▁wat	-424
ite	-425
we	-426
▁gonna	-427
ount	-428
ty	-429
▁part	-430
▁mu	-431
ved	-432
iss	-433
▁ad	-434
▁these	-435
ves	-436
▁only	-437
▁our	-438
so	-439
▁te	-440
▁bu	-441
mp	-442
▁need	-443
▁mr	-444
▁mean	-445
▁new	-446
▁hand	-447
▁gu	-448
ci	-449
▁should	-450
bo	-451
wn	-452
▁thr	-453
▁pr	-454
co	-455
ary	-456
▁didn	-457
▁ch	-458
▁pre	-459
ord	-460
▁ho	-461
pt	-462
self	-463
ren	-464
fore	-465
▁fo	-466
act	-467
▁boy	-468
per	-469
the	-470
▁something	-471
▁big	-472
▁really	-473
les	-474
uh	-475
ful	-476
▁happ	-477
ouse	-478
▁sm	-479
day	-480
▁much	-481
▁hel	-482
ach	-483
ance	-484
be	-485
thing	-486
augh	-487
▁ac	-488
ather	-489
▁year	-490
▁long	-491
▁mom	-492
ady	-493
ress	-494
▁made	-495
par	-496
ang	-497
▁fi	-498
iz	-499
▁dis	-500
ting	-501
able	-502
▁ra	-503
▁per	-504
▁before	-505
te	-506
man	-507
ool	-508
cl	-509
▁gir	-510
ull	-511
▁talk	-512
▁under	-513
▁away	-514
uck	-515
▁rem	-516
▁ple	-517
ory	-518
▁old	-519
▁never	-520
▁wa	-521
ated	-522
▁act	-523
▁three	-524
ne	-525
hes	-526
▁um	-527
▁wr	-528
▁went	-529
▁har	-530
ub	-531
▁fri	-532
▁child	-533
▁wan	-534
▁ke	-535
▁those	-536
▁girl	-537
ions	-538
▁thank	-539
▁even	-540
ise	-541
▁app	-542
▁great	-543
▁turn	-544
ence	-545
ex	-546
▁bab	-547
av	-548
ward	-549
▁el	-550
▁home	-551
▁lea	-552
▁ask	-553
▁give	-554
▁came	-555
▁house	-556
▁also	-557
ffe	-558
▁wanna	-559
▁doing	-560
gg	-561
▁min	-562
de	-563
▁dad	-564
tain	-565
▁thought	-566
▁another	-567
00	-568
▁cr	-569
▁many	-570
▁must	-571
▁eat	-572
▁book	-573
yes	-574
▁mum	-575
▁count	-576
?"	-577
▁find	-578
▁things	-579
▁sl	-580
get	-581
▁ser	-582
▁head	-583
▁through	-584
ried	-585
▁help	-586
▁still	-587
▁che	-588
hm	-589
▁comp	-590
ors	-591
▁mat	-592
no	-593
▁ind	-594
ens	-595
▁comm	-596
▁last	-597
akes	-598
ma	-599
▁start	-600
ans	-601
ds	-602
▁love	-603
▁tra	-604
▁dr	-605
ons	-606
▁gl	-607
▁bel	-608
▁won	-609
ark	-610
exp	-611
▁op	-612
▁night	-613
▁try	-614
ings	-615
▁show	-616
▁gra	-617
▁chan	-618
▁isn	-619
ict	-620
▁cont	-621
land	-622
▁baby	-623
ened	-624
▁found	-625
laugh	-626
▁lot	-627
▁mm	-628
ect	-629
▁sw	-630
ily	-631
▁res	-632
▁done	-633
▁bot	-634
▁sho	-635
▁sch	-636
if	-637
▁str	-638
▁called	-639
▁%	-640
▁its	-641
▁bit	-642
▁might	-643
aking	-644
▁please	-645
▁sure	-646
mo	-647
ss	-648
xt	-649
▁name	-650
ms	-651
▁mother	-652
ling	-653
▁miss	-654
▁most	-655
ious	-656
ys	-657
ng	-658
▁care	-659
▁ma	-660
▁201	-661
▁friend	-662
up	-663
unn	-664
ign	-665
air	-666
add	-667
body	-668
▁wait	-669
▁pri	-670
med	-671
▁around	-672
▁cat	-673
▁mhm	-674
ix	-675
.”	-676
side	-677
ank	-678
ath	-679
▁war	-680
▁better	-681
▁ah	-682
▁water	-683
▁hey	-684
▁col	-685
ock	-686
anc	-687
▁keep	-688
▁four	-689
▁nice	-690
als	-691
▁mon	-692
▁kind	-693
ually	-694
ates	-695
oney	-696
▁fin	-697
▁own	-698
▁end	-699
▁bre	-700
▁while	-701
li	-702
▁la	-703
.]	-704
▁anything	-705
▁pres	-706
▁life	-707
▁des	-708
▁feel	-709
▁erm	-710
▁place	-711
▁school	-712
ember	-713
▁gi	-714
▁years	-715
▁ele	-716
▁looks	-717
▁char	-718
▁nor	-719
▁doesn	-720
▁att	-721
rent	-722
▁ear	-723
▁cap	-724
▁cour	-725
ways	-726
▁such	-727
▁used	-728
▁eng	-729
▁imp	-730
▁gre	-731
▁being	-732
▁bri	-733
▁next	-734
▁father	-735
▁shall	-736
▁sit	-737
mer	-738
led	-739
vers	-740
▁bus	-741
ited	-742
,”	-743
▁supp	-744
ip	-745
▁same	-746
▁far	-747
▁pol	-748
▁world	-749
ek	-750
ins	-751
▁room	-752
▁hold	-753
▁else	-754
▁3	-755
▁cle	-756
ince	-757
▁beg	-758
!"	-759
amp	-760
og	-761
ww	-762
laughs	-763
▁sor	-764
ied	-765
▁z	-766
ta	-767
▁set	-768
ute	-769
▁mummy	-770
▁rep	-771
▁.	-772
ult	-773
inn	-774
▁always	-775
ical	-776
▁told	-777
▁left	-778
▁saw	-779
▁nothing	-780
▁mot	-781
bb	-782
ild	-783
ations	-784
▁men	-785
▁read	-786
ah	-787
▁pret	-788
▁sec	-789
▁lat	-790
▁tri	-791
ug	-792
ition	-793
der	-794
ction	-795
uc	-796
eric	-797
▁fam	-798
for	-799
row	-800
▁num	-801
▁ever	-802
▁ball	-803
▁use	-804
pped	-805
▁open	-806
rest	-807
▁bir	-808
▁list	-809
▁huh	-810
vel	-811
▁red	-812
aught	-813
▁sorry	-814
▁unt	-815
▁diffe	-816
ars	-817
me	-818
iv	-819
▁ob	-820
▁acc	-821
▁daddy	-822
ump	-823
▁wom	-824
▁pers	-825
leep	-826
▁sing	-827
▁rec	-828
ew	-829
ung	-830
▁five	-831
oss	-832
ream	-833
▁gone	-834
ail	-835
▁spe	-836
▁tom	-837
▁point	-838
▁walk	-839
▁sur	-840
▁reg	-841
ever	-842
cc	-843
▁dra	-844
▁coming	-845
▁money	-846
▁young	-847
▁took	-848
▁door	-849
ave	-850
▁enough	-851
▁hm	-852
▁bro	-853
outh	-854
▁maybe	-855
br	-856
▁though	-857
▁bed	-858
ire	-859
ness	-860
ents	-861
▁hard	-862
ton	-863
▁morn	-864
▁dist	-865
oun	-866
▁stand	-867
▁watch	-868
▁mil	-869
▁americ	-870
▁stop	-871
▁box	-872
▁hear	-873
▁ste	-874
eak	-875
▁inv	-876
▁ed	-877
cond	-878
▁goes	-879
▁once	-880
ts	-881
▁hur	-882
oh	-883
▁light	-884
▁until	-885
▁morning	-886
▁200	-887
▁stay	-888
▁says	-889
▁ret	-890
hip	-891
▁gen	-892
mber	-893
hir	-894
▁mus	-895
▁wo	-896
gether	-897
▁remember	-898
▁pass	-899
▁six	-900
right	-901
▁best	-902
ye	-903
ows	-904
ger	-905
▁real	-906
ont	-907
▁sk	-908
▁vo	-909
▁side	-910
▁second	-911
ished	-912
▁_	-913
gr	-914
▁eyes	-915
▁ter	-916
▁quite	-917
▁wind	-918
▁belie	-919
cha	-920
▁god	-921
▁sy	-922
pect	-923
▁sir	-924
▁pick	-925
▁inter	-926
▁leave	-927
▁course	-928
▁looking	-929
▁bar	-930
▁air	-931
you	-932
▁today	-933
▁ent	-934
▁both	-935
▁near	-936
▁sn	-937
▁sound	-938
son	-939
sis	-940
▁city	-941
ces	-942
▁yet	-943
▁fire	-944
ower	-945
▁dog	-946
".	-947
ross	-948
▁seen	-949
lo	-950
▁dear	-951
▁ev	-952
oup	-953
io	-954
▁high	-955
here	-956
▁each	-957
▁asked	-958
▁hop	-959
tea	-960
bab	-961
▁small	-962
▁foot	-963
▁round	-964
▁few	-965
▁soon	-966
▁lar	-967
ister	-968
rist	-969
▁together	-970
▁grand	-971
▁different	-972
to	-973
▁dri	-974
ible	-975
but	-976
llo	-977
ets	-978
▁pat	-979
▁mind	-980
ange	-981
und	-982
▁fell	-983
llow	-984
▁inst	-985
▁bad	-986
tle	-987
ane	-988
▁fall	-989
▁sleep	-990
▁face	-991
ef	-992
▁pie	-993
ased	-994
une	-995
▁getting	-996
▁children	-997
ident	-998
▁dep	-999
▁without	-1000
▁♪	-1001
▁rel	-1002
▁id	-1003
▁hands	-1004
▁pap	-1005
ten	-1006
▁everything	-1007
▁black	-1008
ational	-1009
▁mrs	-1010
▁run	-1011
aster	-1012
ween	-1013
▁blue	-1014
mch	-1015
ctor	-1016
▁ready	-1017
▁number	-1018
▁heard	-1019
uff	-1020
▁known	-1021
▁pict	-1022
cle	-1023
▁person	-1024
uring	-1025
▁later	-1026
▁cent	-1027
huh	-1028
▁mommy	-1029
▁between	-1030
hn	-1031
ret	-1032
lic	-1033
▁hat	-1034
▁par	-1035
▁202	-1036
mb	-1037
ile	-1038
pri	-1039
▁rest	-1040
ial	-1041
▁haven	-1042
▁king	-1043
▁move	-1044
ures	-1045
cal	-1046
▁since	-1047
▁upon	-1048
▁half	-1049
▁met	-1050
ason	-1051
cause	-1052
ph	-1053
▁4	-1054
▁pop	-1055
▁story	-1056
▁hor	-1057
fta	-1058
che	-1059
ject	-1060
▁having	-1061
less	-1062
▁week	-1063
▁himself	-1064
),	-1065
▁wanted	-1066
▁hafta	-1067
az	-1068
▁cons	-1069
vie	-1070
▁im	-1071
▁happened	-1072
aut	-1073
▁jack	-1074
▁alright	-1075
).	-1076
dd	-1077
unny	-1078
▁white	-1079
ina	-1080
▁follow	-1081
▁looked	-1082
bro	-1083
ib	-1084
▁heart	-1085
ames	-1086
ries	-1087
▁18	-1088
po	-1089
▁dec	-1090
ared	-1091
▁pretty	-1092
ired	-1093
ines	-1094
ating	-1095
▁dire	-1096
ular	-1097
eter	-1098
1:	-1099
▁top	-1100
▁along	-1101
ork	-1102
▁exc	-1103
▁flo	-1104
▁train	-1105
▁matter	-1106
▁ju	-1107
▁boys	-1108
▁talking	-1109
▁john	-1110
ertain	-1111
▁knew	-1112
▁sort	-1113
stand	-1114
most	-1115
▁hello	-1116
▁bring	-1117
enn	-1118
sing	-1119
gma	-1120
▁live	-1121
ann	-1122
iet	-1123
▁ans	-1124
unt	-1125
sel	-1126
enty	-1127
▁ph	-1128
ched	-1129
ale	-1130
▁green	-1131
▁anim	-1132
▁hot	-1133
▁days	-1134
▁kid	-1135
osed	-1136
▁hour	-1137
▁united	-1138
sh	-1139
▁sat	-1140
ric	-1141
its	-1142
▁spo	-1143
▁break	-1144
▁making	-1145
▁mag	-1146
▁family	-1147
▁against	-1148
ball	-1149
▁drink	-1150
▁town	-1151
▁wasn	-1152
▁5	-1153
▁christ	-1154
▁pur	-1155
▁nat	-1156
▁chair	-1157
▁actually	-1158
▁aw	-1159
▁coll	-1160
ged	-1161
▁table	-1162
aw	-1163
vis	-1164
cial	-1165
▁party	-1166
▁cut	-1167
▁gave	-1168
▁american	-1169
▁land	-1170
▁thir	-1171
vo	-1172
ics	-1173
iness	-1174
▁cho	-1175
▁sub	-1176
▁speak	-1177
▁doll	-1178
▁bra	-1179
▁199	-1180
▁sil	-1181
▁squ	-1182
▁believe	-1183
▁ge	-1184
▁kill	-1185
▁during	-1186
ster	-1187
ush	-1188
not	-1189
rew	-1190
▁swe	-1191
▁mark	-1192
cept	-1193
▁wonder	-1194
▁gener	-1195
▁brother	-1196
ier	-1197
▁ger	-1198
▁add	-1199
▁wi	-1200
▁listen	-1201
▁compan	-1202
▁son	-1203
▁born	-1204
▁tre	-1205
▁song	-1206
▁close	-1207
▁died	-1208
what	-1209
▁team	-1210
▁stra	-1211
▁states	-1212
▁inte	-1213
ual	-1214
where	-1215
▁sim	-1216
▁wouldn	-1217
",	-1218
ters	-1219
▁laugh	-1220
▁return	-1221
▁noise	-1222
?”	-1223
▁build	-1224
▁state	-1225
▁meet	-1226
▁whole	-1227
ined	-1228
uary	-1229
clud	-1230
▁food	-1231
▁moment	-1232
vern	-1233
ced	-1234
▁fine	-1235
▁cup	-1236
een	-1237
▁started	-1238
▁almost	-1239
▁eight	-1240
uth	-1241
▁pay	-1242
▁full	-1243
▁trying	-1244
▁happy	-1245
wards	-1246
▁friends	-1247
▁game	-1248
▁dro	-1249
▁understand	-1250
▁saying	-1251
▁es	-1252
▁beaut	-1253
ready	-1254
cted	-1255
▁sign	-1256
▁pull	-1257
▁north	-1258
▁probab	-1259
----	-1260
▁music	-1261
▁interest	-1262
ru	-1263
ered	-1264
▁quest	-1265
ither	-1266
▁playing	-1267
▁inc	-1268
▁med	-1269
▁comes	-1270
ash	-1271
▁wrong	-1272
▁quick	-1273
▁word	-1274
wer	-1275
▁eas	-1276
▁already	-1277
▁thom	-1278
▁ten	-1279
▁leg	-1280
▁sometim	-1281
▁probably	-1282
mar	-1283
▁guess	-1284
▁job	-1285
▁bill	-1286
▁times	-1287
▁country	-1288
ying	-1289
▁floor	-1290
igh	-1291
▁exp	-1292
▁hair	-1293
arn	-1294
zz	-1295
ustr	-1296
▁feet	-1297
▁poss	-1298
▁pain	-1299
▁ass	-1300
▁hum	-1301
aken	-1302
▁rock	-1303
▁minute	-1304
▁sent	-1305
cess	-1306
▁cook	-1307
▁woman	-1308
▁wh	-1309
▁ben	-1310
▁lead	-1311
||	-1312
aces	-1313
▁conf	-1314
▁lost	-1315
▁bat	-1316
▁vis	-1317
▁ton	-1318
▁became	-1319
unk	-1320
▁bear	-1321
ants	-1322
▁aren	-1323
▁fact	-1324
ield	-1325
▁cur	-1326
▁began	-1327
▁thomas	-1328
▁yell	-1329
▁lady	-1330
orrow	-1331
▁govern	-1332
▁poor	-1333
▁girls	-1334
▁paper	-1335
ding	-1336
hind	-1337
▁idea	-1338
ple	-1339
ted	-1340
▁gotta	-1341
▁contin	-1342
▁front	-1343
▁sometimes	-1344
▁certain	-1345
ama	-1346
▁mid	-1347
ches	-1348
▁color	-1349
▁6	-1350
▁mic	-1351
▁ref	-1352
undred	-1353
▁fore	-1354
▁fight	-1355
▁cal	-1356
read	-1357
▁tou	-1358
cy	-1359
ues	-1360
▁behind	-1361
▁hundred	-1362
▁fun	-1363
▁mine	-1364
▁picture	-1365
form	-1366
▁198	-1367
ize	-1368
▁played	-1369
▁record	-1370
▁makes	-1371
ital	-1372
ring	-1373
▁includ	-1374
▁boat	-1375
▁hope	-1376
▁sto	-1377
well	-1378
oud	-1379
▁voice	-1380
▁expl	-1381
▁offic	-1382
▁present	-1383
ots	-1384
ense	-1385
▁short	-1386
▁–	-1387
ities	-1388
uss	-1389
▁draw	-1390
ages	-1391
▁captain	-1392
▁ext	-1393
cer	-1394
▁south	-1395
▁sun	-1396
elt	-1397
▁couldn	-1398
aul	-1399
▁art	-1400
▁sum	-1401
▁pu	-1402
▁brought	-1403
▁fro	-1404
▁dead	-1405
ient	-1406
airs	-1407
▁county	-1408
jo	-1409
▁outside	-1410
www	-1411
ken	-1412
key	-1413
child	-1414
▁month	-1415
▁bas	-1416
▁stuff	-1417
▁dar	-1418
▁form	-1419
ention	-1420
▁,	-1421
▁means	-1422
▁hon	-1423
lish	-1424
ully	-1425
▁prod	-1426
▁road	-1427
kes	-1428
that	-1429
haps	-1430
▁wood	-1431
▁7	-1432
utes	-1433
▁compl	-1434
▁stick	-1435
▁turned	-1436
▁cor	-1437
lly	-1438
▁dou	-1439
▁movie	-1440
ron	-1441
▁main	-1442
▁em	-1443
by	-1444
▁late	-1445
▁seemed	-1446
pping	-1447
▁national	-1448
ury	-1449
use	-1450
▁wants	-1451
▁mer	-1452
▁da	-1453
▁8	-1454
ee	-1455
ape	-1456
dad	-1457
▁line	-1458
▁horse	-1459
▁uni	-1460
▁often	-1461
19	-1462
nan	-1463
▁win	-1464
▁business	-1465
▁however	-1466
▁ty	-1467
▁tele	-1468
▁proble	-1469
▁death	-1470
▁able	-1471
▁someone	-1472
▁doctor	-1473
iful	-1474
ffic	-1475
▁taken	-1476
gan	-1477
▁adv	-1478
▁cry	-1479
ided	-1480
▁hist	-1481
▁import	-1482
ured	-1483
▁serv	-1484
▁law	-1485
ments	-1486
ii	-1487
▁guy	-1488
dge	-1489
▁ber	-1490
unch	-1491
▁dark	-1492
ese	-1493
room	-1494
inner	-1495
▁taking	-1496
sc	-1497
▁ones	-1498
▁stud	-1499
▁197	-1500
▁sal	-1501
▁pub	-1502
rat	-1503
▁early	-1504
▁clot	-1505
urs	-1506
▁less	-1507
▁piece	-1508
▁twenty	-1509
▁myself	-1510
▁ann	-1511
▁learn	-1512
sp	-1513
▁cra	-1514
▁trans	-1515
▁words	-1516
▁sweet	-1517
dden	-1518
▁star	-1519
▁mill	-1520
▁cir	-1521
ises	-1522
▁dress	-1523
▁mad	-1524
▁inside	-1525
▁happen	-1526
ey	-1527
do	-1528
▁minutes	-1529
▁german	-1530
olog	-1531
!”	-1532
▁large	-1533
▁cold	-1534
pat	-1535
ik	-1536
▁repl	-1537
els	-1538
▁age	-1539
▁beautiful	-1540
▁!	-1541
▁yourself	-1542
0,	-1543
▁stre	-1544
▁rather	-1545
▁power	-1546
▁tree	-1547
▁thanks	-1548
▁case	-1549
2:	-1550
▁till	-1551
ming	-1552
▁del	-1553
head	-1554
▁yellow	-1555
itting	-1556
▁perhaps	-1557
sed	-1558
▁trou	-1559
ards	-1560
ized	-1561
▁sea	-1562
▁gent	-1563
▁class	-1564
▁true	-1565
▁river	-1566
▁wife	-1567
▁cri	-1568
▁prot	-1569
▁seven	-1570
selves	-1571
▁prof	-1572
gra	-1573
▁sand	-1574
▁brown	-1575
▁page	-1576
▁milk	-1577
▁alone	-1578
▁felt	-1579
ney	-1580
▁order	-1581
▁rele	-1582
men	-1583
▁strong	-1584
▁mess	-1585
▁funny	-1586
▁nin	-1587
▁pen	-1588
▁fair	-1589
▁bye	-1590
ised	-1591
▁bag	-1592
▁ago	-1593
▁prom	-1594
▁either	-1595
vision	-1596
▁step	-1597
1.	-1598
▁clear	-1599
▁hit	-1600
arent	-1601
▁sister	-1602
▁change	-1603
▁camp	-1604
aughter	-1605
fully	-1606
▁given	-1607
eth	-1608
▁others	-1609
▁9	-1610
▁birth	-1611
▁toys	-1612
adu	-1613
▁phi	-1614
▁company	-1615
▁women	-1616
anger	-1617
▁je	-1618
ering	-1619
▁occ	-1620
▁?	-1621
ner	-1622
▁wall	-1623
▁corn	-1624
▁past	-1625
▁sever	-1626
let	-1627
born	-1628
▁english	-1629
▁hung	-1630
▁reac	-1631
aim	-1632
▁jan	-1633
▁group	-1634
▁ran	-1635
go	-1636
ze	-1637
▁forg	-1638
col	-1639
amed	-1640
ones	-1641
▁ill	-1642
▁somebody	-1643
▁pot	-1644
▁ground	-1645
▁body	-1646
▁ice	-1647
▁wear	-1648
▁emp	-1649
▁ce	-1650
▁gold	-1651
fri	-1652
▁important	-1653
gin	-1654
bs	-1655
▁bur	-1656
▁fast	-1657
rench	-1658
▁mount	-1659
▁park	-1660
▁wish	-1661
0.	-1662
ley	-1663
mon	-1664
▁several	-1665
ides	-1666
▁tea	-1667
▁working	-1668
unning	-1669
▁free	-1670
▁196	-1671
owing	-1672
▁across	-1673
▁ap	-1674
▁buy	-1675
▁lay	-1676
fect	-1677
fl	-1678
▁prov	-1679
artment	-1680
iting	-1681
ald	-1682
▁gets	-1683
▁least	-1684
▁distri	-1685
ote	-1686
▁shi	-1687
▁fav	-1688
▁area	-1689
▁question	-1690
▁guys	-1691
app	-1692
ept	-1693
▁jump	-1694
ks	-1695
▁maj	-1696
▁president	-1697
▁fil	-1698
▁west	-1699
▁plan	-1700
gy	-1701
ham	-1702
min	-1703
ana	-1704
▁vill	-1705
▁fish	-1706
▁hurt	-1707
▁deal	-1708
▁island	-1709
ative	-1710
▁roll	-1711
▁def	-1712
ls	-1713
▁clean	-1714
▁gun	-1715
▁march	-1716
ator	-1717
▁uhhuh	-1718
arth	-1719
▁york	-1720
▁dinner	-1721
dle	-1722
▁football	-1723
▁univers	-1724
cks	-1725
▁fig	-1726
gn	-1727
uro	-1728
▁animals	-1729
▁creat	-1730
ians	-1731
ience	-1732
▁glad	-1733
▁ins	-1734
▁bob	-1735
▁pos	-1736
cri	-1737
vered	-1738
2.	-1739
▁finished	-1740
ax	-1741
ists	-1742
tern	-1743
▁brit	-1744
▁france	-1745
▁quiet	-1746
▁post	-1747
▁toy	-1748
look	-1749
▁send	-1750
▁#	-1751
fort	-1752
▁polit	-1753
▁cross	-1754
ately	-1755
▁among	-1756
rence	-1757
ety	-1758
▁sold	-1759
▁cos	-1760
▁everybody	-1761
ider	-1762
▁arm	-1763
▁living	-1764
▁tomorrow	-1765
▁egg	-1766
▁fly	-1767
bed	-1768
▁darling	-1769
▁thinking	-1770
▁x	-1771
▁rece	-1772
▁lang	-1773
▁chance	-1774
▁french	-1775
ime	-1776
ove	-1777
bert	-1778
▁frank	-1779
▁opp	-1780
▁stor	-1781
▁write	-1782
▁expect	-1783
▁tried	-1784
▁chur	-1785
come	-1786
cent	-1787
▁tem	-1788
▁reason	-1789
▁...	-1790
▁general	-1791
com	-1792
▁lad	-1793
ats	-1794
iously	-1795
▁sudden	-1796
stem	-1797
ete	-1798
▁herself	-1799
▁wow	-1800
▁books	-1801
▁ring	-1802
▁mouth	-1803
raid	-1804
▁bird	-1805
▁club	-1806
▁alb	-1807
▁phone	-1808
ges	-1809
▁band	-1810
▁fift	-1811
]?	-1812
▁takes	-1813
oth	-1814
ific	-1815
▁coun	-1816
rap	-1817
▁cried	-1818
▁sam	-1819
▁chap	-1820
▁jim	-1821
how	-1822
▁government	-1823
1,	-1824
▁mur	-1825
▁surpri	-1826
ike	-1827
▁usually	-1828
▁cam	-1829
▁carry	-1830
▁const	-1831
ilt	-1832
▁history	-1833
▁rom	-1834
000	-1835
▁trouble	-1836
▁lie	-1837
▁jap	-1838
▁partic	-1839
▁afraid	-1840
▁running	-1841
cil	-1842
▁teac	-1843
▁soft	-1844
eared	-1845
▁ya	-1846
▁uncle	-1847
▁system	-1848
iter	-1849
▁special	-1850
aced	-1851
▁held	-1852
▁ve	-1853
oof	-1854
eng	-1855
▁earth	-1856
▁sitting	-1857
▁nine	-1858
sy	-1859
▁become	-1860
▁ship	-1861
val	-1862
▁geor	-1863
ris	-1864
ousand	-1865
ery	-1866
▁fing	-1867
▁check	-1868
▁fix	-1869
band	-1870
ution	-1871
▁forget	-1872
▁answer	-1873
▁clim	-1874
ued	-1875
▁port	-1876
▁truck	-1877
▁ori	-1878
▁anyway	-1879
▁street	-1880
▁catch	-1881
▁stri	-1882
▁cond	-1883
▁frog	-1884
▁thousand	-1885
▁val	-1886
king	-1887
▁sus	-1888
▁letter	-1889
▁series	-1890
▁super	-1891
ford	-1892
▁window	-1893
▁kept	-1894
▁police	-1895
owed	-1896
▁dream	-1897
ances	-1898
▁dav	-1899
▁lived	-1900
▁low	-1901
▁suppose	-1902
velop	-1903
ler	-1904
▁birthday	-1905
▁gentle	-1906
▁touch	-1907
▁det	-1908
uct	-1909
▁exact	-1910
▁duck	-1911
ining	-1912
arch	-1913
▁profess	-1914
▁15	-1915
▁object	-1916
▁married	-1917
▁gard	-1918
▁japan	-1919
▁hang	-1920
▁easy	-1921
ically	-1922
tom	-1923
▁lots	-1924
▁report	-1925
▁seems	-1926
▁195	-1927
inning	-1928
▁est	-1929
ai	-1930
20	-1931
▁summer	-1932
▁attack	-1933
▁ain	-1934
osp	-1935
▁exper	-1936
▁bath	-1937
▁fre	-1938
▁blood	-1939
ices	-1940
▁langu	-1941
▁press	-1942
cket	-1943
ained	-1944
▁master	-1945
ead	-1946
▁stood	-1947
hen	-1948
▁17	-1949
con	-1950
mas	-1951
▁kiss	-1952
▁hours	-1953
att	-1954
itten	-1955
cds	-1956
▁fur	-1957
▁euro	-1958
▁choo	-1959
▁sounds	-1960
▁tonight	-1961
ism	-1962
▁bes	-1963
▁heav	-1964
umb	-1965
▁[1	-1966
▁ooh	-1967
▁university	-1968
▁hus	-1969
▁luck	-1970
loi	-1971
net	-1972
▁whatever	-1973
▁june	-1974
▁block	-1975
▁joe	-1976
▁vi	-1977
eed	-1978
▁problem	-1979
▁pleas	-1980
▁deep	-1981
▁wee	-1982
▁pound	-1983
2,	-1984
▁january	-1985
ium	-1986
▁oct	-1987
3.	-1988
▁aunt	-1989
▁reco	-1990
▁field	-1991
▁bow	-1992
▁appro	-1993
▁whether	-1994
vi	-1995
ract	-1996
alth	-1997
▁fort	-1998
▁yours	-1999
▁church	-2000
▁10	-2001
▁tired	-2002
▁194	-2003
▁pa	-2004
▁daughter	-2005
▁region	-2006
▁kids	-2007
▁fit	-2008
▁lovely	-2009
▁straight	-2010
▁ow	-2011
▁secret	-2012
ked	-2013
port	-2014
▁department	-2015
don	-2016
▁within	-2017
▁cow	-2018
▁office	-2019
ural	-2020
▁clothes	-2021
▁lord	-2022
▁killed	-2023
▁waiting	-2024
▁snow	-2025
▁throw	-2026
▁dat	-2027
▁tur	-2028
▁knows	-2029
▁eye	-2030
▁cast	-2031
▁points	-2032
▁named	-2033
ility	-2034
▁rad	-2035
▁hill	-2036
▁news	-2037
▁commun	-2038
▁abs	-2039
ives	-2040
though	-2041
▁sail	-2042
▁contro	-2043
▁hors	-2044
owers	-2045
▁replied	-2046
▁kit	-2047
ude	-2048
point	-2049
▁themselves	-2050
▁careful	-2051
wered	-2052
▁board	-2053
▁coup	-2054
▁lives	-2055
▁eh	-2056
▁slow	-2057
▁elect	-2058
ond	-2059
▁mart	-2060
▁released	-2061
ality	-2062
gue	-2063
iff	-2064
▁eating	-2065
▁months	-2066
▁album	-2067
▁mountain	-2068
more	-2069
▁dece	-2070
▁aug	-2071
▁hen	-2072
▁shoes	-2073
▁engine	-2074
▁sol	-2075
▁appear	-2076
ony	-2077
▁answered	-2078
▁oper	-2079
▁var	-2080
▁district	-2081
uts	-2082
▁command	-2083
▁charac	-2084
uk	-2085
makes	-2086
▁shar	-2087
▁east	-2088
▁mist	-2089
▁gar	-2090
▁lou	-2091
▁station	-2092
▁instead	-2093
▁bell	-2094
▁nose	-2095
fch	-2096
▁husband	-2097
▁champ	-2098
▁major	-2099
gas	-2100
▁common	-2101
mother	-2102
▁possible	-2103
pes	-2104
▁proper	-2105
▁succ	-2106
▁lau	-2107
▁ang	-2108
▁member	-2109
▁cool	-2110
▁safe	-2111
▁danger	-2112
▁cop	-2113
▁chick	-2114
▁ru	-2115
car	-2116
▁hol	-2117
fer	-2118
▁bank	-2119
chen	-2120
▁christmas	-2121
▁doub	-2122
▁worked	-2123
▁british	-2124
▁16	-2125
▁career	-2126
ober	-2127
▁august	-2128
▁exactly	-2129
▁forgot	-2130
▁visit	-2131
5.	-2132
▁peter	-2133
▁passed	-2134
3:	-2135
la	-2136
▁wild	-2137
4.	-2138
▁moved	-2139
stairs	-2140
▁cannot	-2141
▁juice	-2142
▁vict	-2143
▁seat	-2144
▁putting	-2145
que	-2146
ager	-2147
▁quickly	-2148
▁hall	-2149
▁single	-2150
▁disco	-2151
▁couple	-2152
▁above	-2153
▁shot	-2154
yed	-2155
▁orange	-2156
▁excuse	-2157
▁diffic	-2158
▁breat	-2159
▁evening	-2160
ara	-2161
▁forward	-2162
ses	-2163
▁human	-2164
▁although	-2165
▁recei	-2166
▁third	-2167
▁broken	-2168
bye	-2169
▁knock	-2170
▁adm	-2171
▁terri	-2172
▁treat	-2173
▁arms	-2174
ned	-2175
▁apri	-2176
▁building	-2177
▁pal	-2178
▁mary	-2179
▁develop	-2180
phone	-2181
▁worry	-2182
friend	-2183
▁success	-2184
erv	-2185
▁longer	-2186
3,	-2187
fast	-2188
gen	-2189
▁europe	-2190
▁middle	-2191
char	-2192
▁noises	-2193
vember	-2194
▁garden	-2195
▁arri	-2196
▁equ	-2197
▁]	-2198
uit	-2199
▁puts	-2200
▁whose	-2201
▁indeed	-2202
▁toward	-2203
▁ted	-2204
▁prin	-2205
itch	-2206
▁everyone	-2207
▁drive	-2208
▁dut	-2209
▁mor	-2210
ulation	-2211
▁towards	-2212
▁disc	-2213
pper	-2214
▁circ	-2215
▁april	-2216
▁england	-2217
ptember	-2218
▁favor	-2219
▁honey	-2220
ato	-2221
▁public	-2222
▁pet	-2223
sk	-2224
▁television	-2225
oop	-2226
uri	-2227
▁glass	-2228
hern	-2229
▁smo	-2230
▁tape	-2231
▁dest	-2232
▁pretend	-2233
▁anyone	-2234
▁nearly	-2235
▁childes	-2236
▁seem	-2237
childes	-2238
▁enjo	-2239
ndon	-2240
ardon	-2241
7.	-2242
▁jud	-2243
▁excl	-2244
▁grow	-2245
ently	-2246
▁october	-2247
▁193	-2248
▁origin	-2249
ene	-2250
gram	-2251
▁mis	-2252
▁cre	-2253
rop	-2254
▁feeling	-2255
▁cost	-2256
phan	-2257
lex	-2258
▁clos	-2259
8.	-2260
▁test	-2261
▁strange	-2262
cher	-2263
▁caught	-2264
▁sight	-2265
ott	-2266
iny	-2267
▁esc	-2268
▁wel	-2269
▁organ	-2270
bruary	-2271
9.	-2272
▁needs	-2273
▁nobody	-2274
▁ham	-2275
▁gri	-2276
aser	-2277
▁hosp	-2278
▁parent	-2279
6.	-2280
▁november	-2281
▁save	-2282
sha	-2283
▁cau	-2284
▁phil	-2285
aimed	-2286
▁fill	-2287
▁ahead	-2288
▁cover	-2289
she	-2290
bby	-2291
▁bright	-2292
▁standing	-2293
▁reached	-2294
▁lab	-2295
▁dev	-2296
ional	-2297
▁vie	-2298
▁million	-2299
▁effe	-2300
▁cray	-2301
nday	-2302
▁july	-2303
ral	-2304
ging	-2305
▁former	-2306
▁shout	-2307
▁pardon	-2308
4,	-2309
ert	-2310
▁places	-2311
▁works	-2312
▁september	-2313
▁mama	-2314
▁except	-2315
▁service	-2316
▁miles	-2317
▁chief	-2318
▁hy	-2319
▁fear	-2320
▁david	-2321
▁ant	-2322
▁tick	-2323
terday	-2324
▁butter	-2325
▁track	-2326
▁telling	-2327
▁warm	-2328
▁village	-2329
▁hungry	-2330
▁certainly	-2331
▁trees	-2332
▁teacher	-2333
work	-2334
▁perfect	-2335
▁bud	-2336
▁army	-2337
▁yesterday	-2338
▁direct	-2339
now	-2340
▁intern	-2341
▁player	-2342
▁tor	-2343
▁cause	-2344
gar	-2345
▁season	-2346
▁effect	-2347
▁december	-2348
▁ride	-2349
ugg	-2350
▁prison	-2351
▁games	-2352
▁cake	-2353
▁breakfast	-2354
▁push	-2355
▁rob	-2356
▁view	-2357
▁led	-2358
ston	-2359
▁returned	-2360
▁ut	-2361
▁meant	-2362
▁changed	-2363
▁chapter	-2364
▁ver	-2365
▁pack	-2366
▁sugg	-2367
▁broke	-2368
amb	-2369
▁swim	-2370
noon	-2371
▁rose	-2372
▁february	-2373
▁cand	-2374
▁suggest	-2375
▁pupp	-2376
▁support	-2377
▁whis	-2378
▁yep	-2379
vocal	-2380
▁disapp	-2381
used	-2382
▁rain	-2383
▁prev	-2384
▁kitchen	-2385
▁following	-2386
od	-2387
▁stopped	-2388
gest	-2389
ample	-2390
▁thi	-2391
mbers	-2392
▁protect	-2393
uced	-2394
▁london	-2395
▁bread	-2396
▁ital	-2397
▁farm	-2398
aged	-2399
ich	-2400
rod	-2401
▁heavy	-2402
hold	-2403
▁vol	-2404
▁supposed	-2405
▁built	-2406
emy	-2407
▁resp	-2408
lin	-2409
▁helen	-2410
▁van	-2411
▁suddenly	-2412
5,	-2413
iam	-2414
▁base	-2415
▁trust	-2416
▁concer	-2417
gu	-2418
▁decided	-2419
▁gas	-2420
▁cab	-2421
▁fellow	-2422
▁anybody	-2423
▁quar	-2424
▁afternoon	-2425
▁et	-2426
▁using	-2427
there	-2428
▁mass	-2429
ement	-2430
▁opened	-2431
ino	-2432
▁written	-2433
--------	-2434
▁turns	-2435
▁pictures	-2436
▁card	-2437
ament	-2438
▁paul	-2439
iled	-2440
▁space	-2441
▁dam	-2442
▁weeks	-2443
▁(19	-2444
lt	-2445
▁burn	-2446
▁2020	-2447
▁sick	-2448
ob	-2449
▁ur	-2450
▁truth	-2451
▁inform	-2452
chan	-2453
▁followed	-2454
▁george	-2455
▁whom	-2456
oops	-2457
▁program	-2458
▁position	-2459
cially	-2460
idence	-2461
▁indian	-2462
▁stu	-2463
▁beat	-2464
▁sad	-2465
zy	-2466
▁complete	-2467
bor	-2468
lie	-2469
▁language	-2470
.'	-2471
bur	-2472
▁spot	-2473
▁auth	-2474
ustral	-2475
▁hasn	-2476
▁coffe	-2477
▁tot	-2478
▁fraser	-2479
▁decl	-2480
▁thirty	-2481
uce	-2482
▁court	-2483
ray	-2484
ror	-2485
▁hospital	-2486
▁moon	-2487
▁russ	-2488
8,	-2489
▁tv	-2490
▁requ	-2491
hael	-2492
▁12	-2493
ceed	-2494
▁hurry	-2495
hel	-2496
▁spir	-2497
▁finish	-2498
▁nic	-2499
▁pieces	-2500
▁bon	-2501
aur	-2502
uel	-2503
har	-2504
▁prop	-2505
▁somewhere	-2506
▁giving	-2507
▁particular	-2508
▁bought	-2509
▁ange	-2510
why	-2511
ater	-2512
▁pract	-2513
bit	-2514
▁colle	-2515
▁bunny	-2516
▁belong	-2517
▁austral	-2518
▁leaving	-2519
▁stuck	-2520
ground	-2521
▁shop	-2522
9,	-2523
va	-2524
▁fa	-2525
▁added	-2526
▁coffee	-2527
▁happens	-2528
▁sell	-2529
▁worth	-2530
▁rabb	-2531
▁den	-2532
▁amy	-2533
▁bottom	-2534
omb	-2535
▁members	-2536
ended	-2537
▁watching	-2538
ya	-2539
▁mach	-2540
▁mun	-2541
▁holding	-2542
omin	-2543
7,	-2544
ask	-2545
▁net	-2546
▁mal	-2547
▁imag	-2548
▁lunch	-2549
ician	-2550
▁fle	-2551
▁neigh	-2552
▁camer	-2553
▁dan	-2554
▁doubt	-2555
▁figure	-2556
oon	-2557
▁lift	-2558
play	-2559
singing	-2560
▁hig	-2561
▁elephan	-2562
they	-2563
ste	-2564
ushed	-2565
▁agre	-2566
ien	-2567
▁pink	-2568
▁remain	-2569
▁busy	-2570
▁cheese	-2571
'.	-2572
▁wrote	-2573
▁ba	-2574
▁fifty	-2575
▁tail	-2576
▁carl	-2577
▁div	-2578
▁wal	-2579
ula	-2580
▁repres	-2581
icip	-2582
▁shoot	-2583
▁tast	-2584
▁sar	-2585
▁author	-2586
▁descri	-2587
▁jer	-2588
▁health	-2589
▁example	-2590
empt	-2591
▁level	-2592
▁laughs	-2593
board	-2594
ature	-2595
▁flowers	-2596
▁moving	-2597
time	-2598
▁dem	-2599
▁bang	-2600
oint	-2601
6,	-2602
▁ell	-2603
▁legs	-2604
▁loc	-2605
box	-2606
▁ought	-2607
▁queen	-2608
▁dig	-2609
▁character	-2610
▁spec	-2611
▁fail	-2612
dom	-2613
die	-2614
▁apple	-2615
iling	-2616
▁ord	-2617
▁express	-2618
▁finally	-2619
▁council	-2620
▁difficult	-2621
▁film	-2622
▁ca	-2623
▁fat	-2624
ior	-2625
ograp	-2626
tered	-2627
yn	-2628
▁anymore	-2629
▁further	-2630
▁force	-2631
▁die	-2632
▁$	-2633
ped	-2634
▁defe	-2635
▁stone	-2636
▁‘	-2637
▁parents	-2638
▁chicken	-2639
▁vir	-2640
▁kitt	-2641
▁tall	-2642
▁mod	-2643
▁sky	-2644
yal	-2645
▁cou	-2646
▁hu	-2647
▁dry	-2648
▁weren	-2649
▁received	-2650
▁jour	-2651
▁animal	-2652
▁hole	-2653
▁current	-2654
▁race	-2655
▁accord	-2656
▁college	-2657
▁exclaimed	-2658
▁lake	-2659
▁dance	-2660
ishing	-2661
ustration	-2662
▁cas	-2663
▁reach	-2664
▁cars	-2665
▁including	-2666
whi	-2667
▁pig	-2668
▁priv	-2669
▁silver	-2670
▁stat	-2671
▁result	-2672
iers	-2673
▁population	-2674
▁rising	-2675
▁none	-2676
gasps	-2677
ored	-2678
▁rub	-2679
▁sense	-2680
▁plays	-2681
▁aut	-2682
▁mc	-2683
▁america	-2684
▁nort	-2685
itted	-2686
ancy	-2687
▁obs	-2688
ology	-2689
▁seeing	-2690
▁bottle	-2691
▁michael	-2692
ning	-2693
▁design	-2694
▁collect	-2695
mit	-2696
▁walking	-2697
▁loud	-2698
▁league	-2699
▁beginning	-2700
ada	-2701
enny	-2702
▁vide	-2703
▁carried	-2704
▁self	-2705
▁commune	-2706
▁han	-2707
like	-2708
▁neck	-2709
▁james	-2710
▁international	-2711
▁span	-2712
▁bridge	-2713
ille	-2714
▁officer	-2715
▁spoke	-2716
▁horses	-2717
▁william	-2718
▁oop	-2719
▁sen	-2720
▁compet	-2721
▁wed	-2722
▁accept	-2723
gie	-2724
▁rul	-2725
anny	-2726
illy	-2727
bles	-2728
▁washing	-2729
▁comfort	-2730
▁wonderful	-2731
▁bull	-2732
rel	-2733
▁norm	-2734
▁convers	-2735
house	-2736
▁century	-2737
▁event	-2738
pecially	-2739
▁store	-2740
▁dor	-2741
night	-2742
bl	-2743
▁appeared	-2744
▁bask	-2745
▁attention	-2746
▁corner	-2747
▁tit	-2748
ented	-2749
▁champions	-2750
resh	-2751
▁feed	-2752
▁danc	-2753
▁local	-2754
▁ep	-2755
▁welcome	-2756
icks	-2757
rupt	-2758
▁crying	-2759
ggy	-2760
▁grass	-2761
,--	-2762
view	-2763
oul	-2764
▁minister	-2765
▁popular	-2766
rer	-2767
▁hun	-2768
▁pit	-2769
▁sau	-2770
▁educ	-2771
▁cong	-2772
▁harry	-2773
▁puzz	-2774
can	-2775
▁winter	-2776
▁shouldn	-2777
mie	-2778
▁lose	-2779
rit	-2780
▁conne	-2781
▁ta	-2782
▁sport	-2783
▁meeting	-2784
teen	-2785
points	-2786
ison	-2787
▁pounds	-2788
iger	-2789
▁cell	-2790
▁recogn	-2791
▁control	-2792
▁ye	-2793
▁letters	-2794
▁type	-2795
▁study	-2796
▁crow	-2797
riage	-2798
▁wash	-2799
▁billy	-2800
▁contain	-2801
▁dropped	-2802
ified	-2803
▁twel	-2804
▁fut	-2805
▁battle	-2806
sings	-2807
▁account	-2808
▁plate	-2809
whis	-2810
illustration	-2811
▁allowed	-2812
▁mem	-2813
▁lock	-2814
▁stars	-2815
▁cy	-2816
▁walked	-2817
za	-2818
▁likes	-2819
▁information	-2820
estern	-2821
light	-2822
▁exam	-2823
▁laughing	-2824
of	-2825
▁rac	-2826
vin	-2827
ura	-2828
▁spend	-2829
▁grandma	-2830
▁rail	-2831
▁wet	-2832
▁wide	-2833
▁invest	-2834
▁silence	-2835
plo	-2836
bers	-2837
ghed	-2838
▁distance	-2839
▁shut	-2840
▁based	-2841
uation	-2842
▁continued	-2843
▁vers	-2844
▁192	-2845
▁du	-2846
▁especially	-2847
▁afric	-2848
▁nar	-2849
▁capital	-2850
▁drop	-2851
▁interesting	-2852
▁award	-2853
▁cream	-2854
▁broad	-2855
▁jul	-2856
iced	-2857
▁remark	-2858
ization	-2859
lished	-2860
nes	-2861
▁spring	-2862
▁tear	-2863
▁trad	-2864
▁delight	-2865
wood	-2866
clock	-2867
▁spl	-2868
▁entire	-2869
▁peace	-2870
▁key	-2871
acy	-2872
ously	-2873
▁polic	-2874
▁scar	-2875
▁roman	-2876
▁consider	-2877
izes	-2878
▁hide	-2879
▁holds	-2880
▁yum	-2881
▁teeth	-2882
▁sout	-2883
olute	-2884
▁ate	-2885
▁writing	-2886
▁respect	-2887
▁picks	-2888
▁mir	-2889
ounced	-2890
▁teddy	-2891
▁leaves	-2892
▁match	-2893
▁pan	-2894
▁shape	-2895
ume	-2896
▁sharp	-2897
▁ban	-2898
▁guard	-2899
▁speed	-2900
▁viol	-2901
ashi	-2902
olved	-2903
▁phot	-2904
cell	-2905
▁joy	-2906
aint	-2907
▁bal	-2908
▁ze	-2909
▁bobby	-2910
▁reading	-2911
▁itself	-2912
▁dir	-2913
▁created	-2914
hoh	-2915
oose	-2916
▁perio	-2917
▁according	-2918
▁mam	-2919
▁eggs	-2920
▁forest	-2921
▁birds	-2922
▁necess	-2923
▁famous	-2924
▁wheel	-2925
ission	-2926
looks	-2927
ipp	-2928
▁san	-2929
▁ears	-2930
▁mel	-2931
▁favorite	-2932
▁rid	-2933
▁liked	-2934
▁chocol	-2935
▁luc	-2936
por	-2937
▁municip	-2938
▁kitty	-2939
▁din	-2940
itions	-2941
▁pray	-2942
▁14	-2943
▁..	-2944
▁future	-2945
▁parts	-2946
▁laughed	-2947
▁bis	-2948
ault	-2949
▁mix	-2950
▁11	-2951
▁names	-2952
▁phy	-2953
noise	-2954
▁germany	-2955
▁uhoh	-2956
▁smell	-2957
▁suit	-2958
▁tech	-2959
▁hous	-2960
▁plant	-2961
this	-2962
▁interested	-2963
▁comput	-2964
▁colon	-2965
▁charge	-2966
▁capt	-2967
phi	-2968
▁elephant	-2969
▁cro	-2970
▁civ	-2971
▁serious	-2972
▁mention	-2973
▁ir	-2974
▁singing	-2975
▁grew	-2976
medi	-2977
▁paid	-2978
▁whoa	-2979
▁surprise	-2980
▁13	-2981
chard	-2982
▁mac	-2983
▁explain	-2984
▁due	-2985
▁smile	-2986
▁rabbit	-2987
▁sev	-2988
yle	-2989
▁leng	-2990
▁alive	-2991
▁twelve	-2992
▁basket	-2993
▁slowly	-2994
▁questions	-2995
▁loved	-2996
▁clever	-2997
▁los	-2998
▁rich	-2999
▁promise	-3000
dered	-3001
pered	-3002
▁alex	-3003
nds	-3004
ades	-3005
▁video	-3006
▁hast	-3007
ids	-3008
▁incre	-3009
▁sle	-3010
▁starts	-3011
▁sheep	-3012
▁robert	-3013
▁rev	-3014
▁anx	-3015
▁betty	-3016
▁climb	-3017
ky	-3018
▁wol	-3019
▁gives	-3020
▁below	-3021
nded	-3022
antly	-3023
▁prep	-3024
▁jes	-3025
iles	-3026
▁square	-3027
▁lying	-3028
name	-3029
▁needed	-3030
ashed	-3031
▁crayon	-3032
astic	-3033
▁camera	-3034
▁activ	-3035
field	-3036
ov	-3037
▁fresh	-3038
▁faith	-3039
▁aff	-3040
▁finger	-3041
▁showed	-3042
▁closed	-3043
▁shir	-3044
▁social	-3045
ustom	-3046
▁fol	-3047
▁iss	-3048
▁scared	-3049
▁lu	-3050
da	-3051
ays	-3052
▁rese	-3053
▁terrible	-3054
ilar	-3055
ech	-3056
tt	-3057
▁attempt	-3058
old	-3059
set	-3060
▁fed	-3061
▁absolute	-3062
iforn	-3063
isted	-3064
▁comb	-3065
rom	-3066
ka	-3067
▁radio	-3068
▁poo	-3069
eral	-3070
▁moder	-3071
▁soci	-3072
▁share	-3073
▁californ	-3074
▁tow	-3075
▁unless	-3076
▁sleeping	-3077
▁bigger	-3078
▁bi	-3079
▁repe	-3080
▁union	-3081
ounded	-3082
▁subject	-3083
_,	-3084
ida	-3085
▁ii	-3086
▁asking	-3087
▁extra	-3088
▁lion	-3089
▁immedi	-3090
soci	-3091
af	-3092
▁gro	-3093
▁fred	-3094
▁⌊	-3095
itary	-3096
▁gall	-3097
ublic	-3098
▁arr	-3099
▁rap	-3100
▁period	-3101
▁⌈	-3102
▁infl	-3103
▁jwww	-3104
▁circle	-3105
gged	-3106
▁machine	-3107
▁forty	-3108
▁chocolate	-3109
ius	-3110
▁(1	-3111
then	-3112
▁eff	-3113
▁host	-3114
▁henry	-3115
▁conversation	-3116
▁kingdom	-3117
▁stories	-3118
▁fer	-3119
ressed	-3120
▁hardly	-3121
igg	-3122
▁thus	-3123
▁pocket	-3124
▁civil	-3125
,'	-3126
cut	-3127
▁aud	-3128
▁stage	-3129
▁california	-3130
▁ox	-3131
▁problems	-3132
▁asleep	-3133
▁adult	-3134
▁associ	-3135
under	-3136
asure	-3137
▁dogs	-3138
▁separ	-3139
▁mi	-3140
▁sant	-3141
bre	-3142
hood	-3143
▁destro	-3144
▁fem	-3145
▁mouse	-3146
▁species	-3147
▁coat	-3148
itive	-3149
▁pun	-3150
▁coast	-3151
omes	-3152
lymp	-3153
isf	-3154
gl	-3155
▁turning	-3156
▁countries	-3157
▁direction	-3158
▁wake	-3159
▁center	-3160
pers	-3161
▁hea	-3162
▁bey	-3163
▁shows	-3164
ils	-3165
▁sna	-3166
ency	-3167
▁province	-3168
▁similar	-3169
▁republic	-3170
▁medic	-3171
▁spoon	-3172
cat	-3173
just	-3174
▁breath	-3175
xic	-3176
▁techn	-3177
")	-3178
ument	-3179
den	-3180
▁straw	-3181
▁fright	-3182
▁search	-3183
iment	-3184
ination	-3185
▁sunday	-3186
▁famil	-3187
▁picked	-3188
wa	-3189
▁phys	-3190
▁india	-3191
▁leader	-3192
▁action	-3193
ca	-3194
▁sue	-3195
▁olymp	-3196
anor	-3197
▁prince	-3198
▁natural	-3199
▁iron	-3200
▁cult	-3201
▁helped	-3202
▁final	-3203
▁micro	-3204
▁fingers	-3205
▁accom	-3206
▁paris	-3207
ads	-3208
▁slight	-3209
▁easter	-3210
▁flat	-3211
▁kick	-3212
▁monkey	-3213
▁served	-3214
▁central	-3215
zer	-3216
uction	-3217
ustri	-3218
▁anne	-3219
▁therefore	-3220
uten	-3221
olution	-3222
wise	-3223
▁aye	-3224
▁jew	-3225
cious	-3226
▁("	-3227
▁nest	-3228
▁talked	-3229
lyn	-3230
▁cous	-3231
father	-3232
▁dun	-3233
ergy	-3234
▁older	-3235
▁calling	-3236
▁blank	-3237
▁speaking	-3238
▁spent	-3239
▁tal	-3240
ird	-3241
._	-3242
yer	-3243
▁spirit	-3244
▁purp	-3245
cul	-3246
▁amaz	-3247
▁process	-3248
off	-3249
conom	-3250
▁spread	-3251
▁honest	-3252
▁upstairs	-3253
laughing	-3254
▁max	-3255
▁smart	-3256
pa	-3257
▁30	-3258
▁plain	-3259
fad	-3260
mat	-3261
▁perform	-3262
inite	-3263
▁learned	-3264
▁tower	-3265
▁ways	-3266
▁occas	-3267
▁covered	-3268
▁drawing	-3269
ably	-3270
▁obv	-3271
▁sex	-3272
▁amount	-3273
▁western	-3274
▁beyond	-3275
▁meat	-3276
line	-3277
▁nur	-3278
▁relig	-3279
str	-3280
▁av	-3281
▁politician	-3282
kn	-3283
▁possib	-3284
▁beha	-3285
▁accident	-3286
aker	-3287
bour	-3288
ny	-3289
▁join	-3290
▁situation	-3291
▁cart	-3292
▁crack	-3293
▁likely	-3294
outs	-3295
▁director	-3296
▁represent	-3297
inary	-3298
▁joined	-3299
▁advent	-3300
zen	-3301
▁oops	-3302
▁include	-3303
▁term	-3304
▁&	-3305
▁apart	-3306
▁enjoy	-3307
▁tend	-3308
▁tiger	-3309
ville	-3310
▁econom	-3311
▁beach	-3312
▁lower	-3313
▁inf	-3314
rect	-3315
▁caused	-3316
▁tour	-3317
▁nature	-3318
▁fighting	-3319
▁hero	-3320
oe	-3321
▁boo	-3322
▁wha	-3323
▁tax	-3324
▁ros	-3325
▁earli	-3326
orm	-3327
▁honor	-3328
▁trip	-3329
▁carol	-3330
▁japanese	-3331
▁pi	-3332
▁scient	-3333
ife	-3334
▁)	-3335
▁driving	-3336
▁silly	-3337
▁mov	-3338
▁sarah	-3339
▁der	-3340
▁lee	-3341
▁dollars	-3342
▁cens	-3343
▁worse	-3344
▁tiny	-3345
ica	-3346
▁heaven	-3347
aff	-3348
▁hotel	-3349
▁satisf	-3350
▁wand	-3351
▁flying	-3352
ption	-3353
▁clock	-3354
▁introd	-3355
▁spanish	-3356
▁jane	-3357
▁size	-3358
▁adam	-3359
▁simple	-3360
▁100	-3361
gon	-3362
▁stren	-3363
▁missing	-3364
▁enemy	-3365
▁naught	-3366
▁wit	-3367
▁tony	-3368
▁project	-3369
▁bay	-3370
▁fox	-3371
▁1,	-3372
▁eleanor	-3373
ushing	-3374
▁(2	-3375
▁personal	-3376
▁stan	-3377
▁crit	-3378
▁lines	-3379
▁bomb	-3380
▁deli	-3381
coun	-3382
▁weather	-3383
▁gate	-3384
▁note	-3385
order	-3386
▁stock	-3387
▁pil	-3388
▁entered	-3389
▁royal	-3390
▁background	-3391
reek	-3392
▁shore	-3393
▁lucky	-3394
▁movies	-3395
▁nick	-3396
'?	-3397
kay	-3398
▁hate	-3399
▁modern	-3400
iar	-3401
erve	-3402
▁sandw	-3403
▁agreed	-3404
▁beside	-3405
▁declared	-3406
▁numbers	-3407
▁length	-3408
ighs	-3409
inct	-3410
▁steps	-3411
▁suff	-3412
tr	-3413
isy	-3414
▁hiding	-3415
▁oppos	-3416
gs	-3417
▁bound	-3418
▁plann	-3419
hol	-3420
▁various	-3421
urday	-3422
▁rough	-3423
▁ladies	-3424
▁pleasure	-3425
▁professor	-3426
▁spr	-3427
▁nap	-3428
aded	-3429
▁directed	-3430
roll	-3431
▁proud	-3432
▁market	-3433
▁non	-3434
▁dressed	-3435
▁starting	-3436
nel	-3437
tur	-3438
▁ide	-3439
▁arrived	-3440
▁tight	-3441
▁forth	-3442
▁respons	-3443
▁que	-3444
▁crazy	-3445
▁cookie	-3446
▁windows	-3447
▁sens	-3448
▁soldiers	-3449
▁absolutely	-3450
▁drew	-3451
▁angry	-3452
▁spell	-3453
▁fool	-3454
10	-3455
▁driver	-3456
▁role	-3457
▁richard	-3458
shi	-3459
▁woods	-3460
▁falling	-3461
essie	-3462
epend	-3463
▁besides	-3464
▁path	-3465
▁cheer	-3466
▁plane	-3467
over	-3468
▁cabin	-3469
▁sac	-3470
ply	-3471
▁manage	-3472
▁ara	-3473
▁charles	-3474
erved	-3475
▁25	-3476
▁price	-3477
▁streng	-3478
▁jesus	-3479
▁und	-3480
▁blocks	-3481
▁australia	-3482
▁nav	-3483
▁saint	-3484
▁temper	-3485
▁ti	-3486
▁relations	-3487
]!	-3488
ode	-3489
▁utter	-3490
▁census	-3491
▁tar	-3492
aper	-3493
▁difference	-3494
des	-3495
▁largest	-3496
▁storm	-3497
▁pill	-3498
reme	-3499
▁political	-3500
▁bless	-3501
counter	-3502
sidered	-3503
▁deter	-3504
▁considered	-3505
lli	-3506
▁bite	-3507
wor	-3508
▁thou	-3509
▁bert	-3510
▁dinos	-3511
▁computer	-3512
▁shoe	-3513
atic	-3514
▁decis	-3515
alley	-3516
▁northern	-3517
▁motor	-3518
▁emplo	-3519
▁laid	-3520
▁crowd	-3521
▁colors	-3522
rage	-3523
▁songs	-3524
▁handle	-3525
who	-3526
▁private	-3527
ference	-3528
ites	-3529
▁christian	-3530
▁escape	-3531
ago	-3532
▁lid	-3533
▁education	-3534
▁ves	-3535
▁refer	-3536
▁anywhere	-3537
▁dolly	-3538
▁missed	-3539
▁military	-3540
▁babies	-3541
▁mater	-3542
▁placed	-3543
▁yo	-3544
/0	-3545
kin	-3546
▁scream	-3547
▁saturday	-3548
▁deck	-3549
▁discovered	-3550
▁regular	-3551
▁original	-3552
▁professional	-3553
cient	-3554
▁demo	-3555
▁happening	-3556
▁arrest	-3557
▁oce	-3558
aps	-3559
▁flower	-3560
antic	-3561
▁governor	-3562
ole	-3563
anda	-3564
▁fac	-3565
▁immediately	-3566
mes	-3567
ums	-3568
▁neither	-3569
▁quarter	-3570
▁curi	-3571
▁threw	-3572
sen	-3573
enth	-3574
▁scene	-3575
sil	-3576
▁mike	-3577
▁puzzle	-3578
▁louis	-3579
ially	-3580
ables	-3581
▁holid	-3582
▁paint	-3583
action	-3584
ching	-3585
▁calm	-3586
▁watched	-3587
▁cere	-3588
reen	-3589
▁magic	-3590
▁dangerous	-3591
ga	-3592
chie	-3593
▁taste	-3594
▁surprised	-3595
▁easily	-3596
eds	-3597
▁actor	-3598
▁sett	-3599
▁wearing	-3600
▁hadn	-3601
▁dust	-3602
▁completely	-3603
▁lem	-3604
utenant	-3605
▁pin	-3606
▁eager	-3607
▁demand	-3608
itude	-3609
▁date	-3610
su	-3611
▁amb	-3612
heart	-3613
ories	-3614
▁naughty	-3615
fa	-3616
▁goin	-3617
▁onto	-3618
▁thinks	-3619
...?	-3620
▁energy	-3621
▁weap	-3622
▁cu	-3623
▁begin	-3624
▁row	-3625
▁→	-3626
▁effort	-3627
nie	-3628
▁ble	-3629
▁independ	-3630
▁dim	-3631
▁fruit	-3632
hered	-3633
▁sugar	-3634
▁goodness	-3635
▁twice	-3636
▁crew	-3637
▁marry	-3638
▁acad	-3639
▁purple	-3640
formed	-3641
ests	-3642
▁pulled	-3643
▁duty	-3644
▁society	-3645
face	-3646
▁kat	-3647
▁trave	-3648
cky	-3649
▁houses	-3650
▁influ	-3651
▁empty	-3652
▁meaning	-3653
bra	-3654
▁regard	-3655
ope	-3656
▁municipality	-3657
▁custom	-3658
ached	-3659
▁chat	-3660
▁travel	-3661
▁conv	-3662
▁imagine	-3663
▁allow	-3664
▁bor	-3665
ising	-3666
▁raised	-3667
▁wag	-3668
▁offe	-3669
▁arg	-3670
▁higher	-3671
▁lights	-3672
ita	-3673
▁anna	-3674
▁threat	-3675
▁franc	-3676
▁youth	-3677
asons	-3678
▁edge	-3679
▁snake	-3680
edy	-3681
pan	-3682
oc	-3683
▁neg	-3684
▁flight	-3685
▁notice	-3686
ples	-3687
▁simply	-3688
▁soul	-3689
sey	-3690
▁stream	-3691
▁plenty	-3692
▁tex	-3693
▁brush	-3694
▁boss	-3695
cast	-3696
▁roof	-3697
▁depend	-3698
▁formed	-3699
▁cheek	-3700
ography	-3701
▁filled	-3702
▁moves	-3703
hin	-3704
ram	-3705
▁produced	-3706
ivid	-3707
ashion	-3708
uckles	-3709
▁shirt	-3710
rid	-3711
▁scott	-3712
ship	-3713
▁mexic	-3714
▁double	-3715
▁settle	-3716
▁charlie	-3717
||0	-3718
▁experience	-3719
▁huge	-3720
oming	-3721
▁pleased	-3722
▁lieutenant	-3723
▁puppet	-3724
▁agree	-3725
▁gentlemen	-3726
▁deg	-3727
▁assist	-3728
fo	-3729
▁detect	-3730
vocalizes	-3731
▁wis	-3732
▁thick	-3733
▁fallen	-3734
▁vessel	-3735
illa	-3736
▁skin	-3737
▁supper	-3738
▁flag	-3739
11	-3740
ensive	-3741
ingly	-3742
▁princess	-3743
▁chem	-3744
▁ended	-3745
ctions	-3746
▁excited	-3747
▁expected	-3748
▁brave	-3749
▁manner	-3750
▁centre	-3751
▁opport	-3752
▁whoops	-3753
ival	-3754
ki	-3755
▁hug	-3756
▁martin	-3757
▁investig	-3758
fill	-3759
itor	-3760
▁feat	-3761
▁castle	-3762
▁maggie	-3763
▁mostly	-3764
may	-3765
▁offer	-3766
▁nea	-3767
▁button	-3768
▁doc	-3769
▁steven	-3770
▁continues	-3771
sib	-3772
▁singer	-3773
▁southern	-3774
▁necessary	-3775
▁believed	-3776
▁epis	-3777
▁susp	-3778
ession	-3779
▁purpose	-3780
▁promised	-3781
tw	-3782
picks	-3783
▁needta	-3784
▁definite	-3785
▁announced	-3786
brother	-3787
▁discuss	-3788
▁peas	-3789
sa	-3790
▁tone	-3791
elly	-3792
ette	-3793
▁drug	-3794
▁swing	-3795
▁journey	-3796
▁gift	-3797
▁ident	-3798
▁ocean	-3799
▁ancient	-3800
▁swimming	-3801
▁european	-3802
▁gentleman	-3803
cus	-3804
▁iv	-3805
▁brief	-3806
▁jose	-3807
▁opportun	-3808
anced	-3809
▁potato	-3810
rey	-3811
▁painting	-3812
berry	-3813
▁opening	-3814
▁ray	-3815
▁barb	-3816
▁thro	-3817
▁cousin	-3818
aches	-3819
▁bowl	-3820
▁flor	-3821
▁emb	-3822
ker	-3823
▁usual	-3824
.,	-3825
▁judge	-3826
▁total	-3827
▁choice	-3828
▁pleasant	-3829
▁jam	-3830
▁community	-3831
▁inj	-3832
▁symp	-3833
▁awful	-3834
▁saved	-3835
▁imm	-3836
▁hell	-3837
▁excell	-3838
▁earlier	-3839
▁evidence	-3840
▁blow	-3841
▁emer	-3842
▁smoke	-3843
▁mountains	-3844
puts	-3845
▁pra	-3846
▁officers	-3847
▁24	-3848
▁nurs	-3849
▁grown	-3850
▁wil	-3851
ushes	-3852
verse	-3853
▁craw	-3854
ledge	-3855
▁italian	-3856
▁pour	-3857
▁heads	-3858
▁message	-3859
▁guns	-3860
ba	-3861
ppy	-3862
▁orders	-3863
▁steam	-3864
▁moo	-3865
▁china	-3866
vere	-3867
▁impro	-3868
▁scot	-3869
▁stret	-3870
▁rat	-3871
▁election	-3872
lv	-3873
▁sele	-3874
▁democ	-3875
▁eld	-3876
▁runs	-3877
▁exe	-3878
▁fifteen	-3879
ero	-3880
usion	-3881
▁apparent	-3882
▁tears	-3883
▁carefully	-3884
▁laura	-3885
lor	-3886
▁piz	-3887
▁haha	-3888
ander	-3889
nal	-3890
▁earn	-3891
▁fault	-3892
▁env	-3893
▁shake	-3894
▁trail	-3895
▁phili	-3896
ruction	-3897
back	-3898
▁electric	-3899
tering	-3900
▁strength	-3901
▁grou	-3902
▁mistake	-3903
▁myster	-3904
▁jun	-3905
▁mut	-3906
▁medicine	-3907
▁grace	-3908
▁rapid	-3909
ators	-3910
▁listening	-3911
▁weight	-3912
▁gray	-3913
▁brothers	-3914
abel	-3915
bered	-3916
▁rule	-3917
▁movement	-3918
▁gaz	-3919
▁monster	-3920
▁terms	-3921
▁nurse	-3922
▁tong	-3923
▁keeping	-3924
nic	-3925
▁exist	-3926
▁friday	-3927
▁pic	-3928
▁seconds	-3929
iel	-3930
rot	-3931
▁delic	-3932
▁prime	-3933
▁attract	-3934
▁dancing	-3935
nding	-3936
▁fellows	-3937
takes	-3938
cip	-3939
▁fourth	-3940
▁deb	-3941
▁eve	-3942
▁interrupt	-3943
▁pir	-3944
▁knife	-3945
▁dirty	-3946
ossible	-3947
▁texas	-3948
▁growing	-3949
known	-3950
cries	-3951
▁golden	-3952
▁enc	-3953
▁russian	-3954
▁bark	-3955
▁occup	-3956
▁murder	-3957
▁kne	-3958
▁enter	-3959
▁noticed	-3960
▁slide	-3961
▁ordered	-3962
▁pause	-3963
▁choose	-3964
▁strugg	-3965
lling	-3966
▁glo	-3967
ening	-3968
arm	-3969
▁mult	-3970
▁telephone	-3971
▁science	-3972
▁newsp	-3973
▁obviously	-3974
with	-3975
▁relie	-3976
▁remo	-3977
kins	-3978
▁heat	-3979
ena	-3980
▁pair	-3981
gress	-3982
▁liber	-3983
soa	-3984
▁downstairs	-3985
▁detail	-3986
rie	-3987
▁lin	-3988
▁thee	-3989
▁shad	-3990
▁ly	-3991
▁bee	-3992
▁disp	-3993
cing	-3994
▁por	-3995
burg	-3996
▁estab	-3997
▁sli	-3998
▁191	-3999
▁oil	-4000
▁eleven	-4001
▁struck	-4002
▁horn	-4003
▁falls	-4004
▁remind	-4005
▁appoint	-4006
▁mission	-4007
cu	-4008
book	-4009
▁lap	-4010
lla	-4011
ration	-4012
▁rout	-4013
▁gal	-4014
▁thy	-4015
▁cards	-4016
▁dise	-4017
▁liter	-4018
mond	-4019
▁involved	-4020
▁meal	-4021
▁histor	-4022
ja	-4023
▁colonel	-4024
hal	-4025
ggie	-4026
rya	-4027
west	-4028
▁tells	-4029
▁otherwise	-4030
icated	-4031
▁alice	-4032
itation	-4033
iding	-4034
lle	-4035
urity	-4036
▁occur	-4037
▁vac	-4038
▁inqu	-4039
sm	-4040
▁lips	-4041
▁address	-4042
wing	-4043
▁stairs	-4044
▁sour	-4045
▁training	-4046
▁saf	-4047
see	-4048
▁bonnet	-4049
▁product	-4050
▁barn	-4051
▁impossible	-4052
▁brain	-4053
▁individ	-4054
▁calls	-4055
▁shoulder	-4056
▁washington	-4057
▁ross	-4058
▁grave	-4059
▁trade	-4060
istan	-4061
▁taught	-4062
▁published	-4063
▁weak	-4064
inese	-4065
▁magaz	-4066
▁teach	-4067
lebr	-4068
▁ned	-4069
▁plants	-4070
▁correct	-4071
▁smith	-4072
▁marriage	-4073
bri	-4074
▁bother	-4075
▁tap	-4076
hop	-4077
▁walks	-4078
▁evident	-4079
▁worried	-4080
aled	-4081
▁beauty	-4082
▁goodbye	-4083
▁italy	-4084
▁begins	-4085
▁bump	-4086
fly	-4087
▁remem	-4088
▁crown	-4089
▁prize	-4090
▁canada	-4091
30	-4092
ko	-4093
berg	-4094
▁native	-4095
▁ninety	-4096
▁title	-4097
good	-4098
▁desp	-4099
▁spoken	-4100
▁rocks	-4101
▁sis	-4102
isters	-4103
▁groups	-4104
▁bedroom	-4105
▁areas	-4106
▁championship	-4107
▁acqu	-4108
▁everywhere	-4109
▁tu	-4110
▁research	-4111
bel	-4112
▁bart	-4113
▁closer	-4114
▁na	-4115
▁plat	-4116
▁normal	-4117
▁spider	-4118
▁muse	-4119
▁toast	-4120
ordon	-4121
▁surr	-4122
▁actress	-4123
▁occasion	-4124
▁2018	-4125
▁crime	-4126
▁committ	-4127
▁dere	-4128
▁blind	-4129
wr	-4130
jen	-4131
▁rank	-4132
▁firm	-4133
▁range	-4134
▁rights	-4135
fic	-4136
▁celebr	-4137
▁sides	-4138
▁tum	-4139
istics	-4140
▁appre	-4141
lled	-4142
▁santa	-4143
mel	-4144
ively	-4145
▁print	-4146
▁produc	-4147
▁founded	-4148
▁wolf	-4149
▁grant	-4150
zil	-4151
ashing	-4152
hah	-4153
hest	-4154
llen	-4155
▁version	-4156
▁cred	-4157
▁uk	-4158
▁loss	-4159
ett	-4160
▁fixed	-4161
▁sixty	-4162
▁[?	-4163
ping	-4164
▁wrest	-4165
▁forgotten	-4166
▁plans	-4167
▁eastern	-4168
▁ram	-4169
▁loves	-4170
▁claim	-4171
▁motion	-4172
▁changes	-4173
gi	-4174
▁prepared	-4175
▁papa	-4176
▁finding	-4177
oured	-4178
▁smaller	-4179
erson	-4180
rish	-4181
▁development	-4182
▁wheels	-4183
▁beep	-4184
▁tries	-4185
gypt	-4186
▁division	-4187
rs	-4188
ez	-4189
▁shell	-4190
▁female	-4191
,000	-4192
▁pool	-4193
⌉.	-4194
yy	-4195
▁lor	-4196
▁greater	-4197
▁drinking	-4198
▁pizza	-4199
▁africa	-4200
▁spain	-4201
▁chinese	-4202
▁som	-4203
bes	-4204
peter	-4205
----------------	-4206
▁purdie	-4207
aked	-4208
▁generally	-4209
pet	-4210
sighs	-4211
ndered	-4212
▁shown	-4213
bell	-4214
▁mister	-4215
▁aged	-4216
host	-4217
▁artist	-4218
▁managed	-4219
▁located	-4220
ences	-4221
▁oli	-4222
▁mud	-4223
▁rang	-4224
▁brazil	-4225
▁entertain	-4226
▁definitely	-4227
▁kim	-4228
▁studio	-4229
aling	-4230
▁quietly	-4231
eman	-4232
▁rules	-4233
▁egypt	-4234
1)	-4235
▁batter	-4236
iction	-4237
▁reaches	-4238
⌋.	-4239
▁oo	-4240
▁jumped	-4241
▁rate	-4242
▁tract	-4243
▁students	-4244
▁whist	-4245
▁channel	-4246
▁21	-4247
▁tie	-4248
oughs	-4249
▁uses	-4250
▁ninet	-4251
▁risk	-4252
mn	-4253
new	-4254
▁throat	-4255
▁unc	-4256
▁manager	-4257
▁speech	-4258
ify	-4259
▁ast	-4260
ano	-4261
▁salt	-4262
▁farmer	-4263
▁contract	-4264
▁fif	-4265
▁admin	-4266
▁events	-4267
▁valley	-4268
looking	-4269
turn	-4270
▁cases	-4271
▁sandwich	-4272
ele	-4273
▁()	-4274
▁cru	-4275
▁shel	-4276
▁trick	-4277
▁uhuh	-4278
pr	-4279
cra	-4280
lands	-4281
▁stir	-4282
▁rust	-4283
▁sword	-4284
▁coach	-4285
▁records	-4286
▁libr	-4287
dies	-4288
||1	-4289
▁possibly	-4290
▁opportunity	-4291
▁carrying	-4292
▁practice	-4293
▁sports	-4294
oted	-4295
▁fashion	-4296
-1	-4297
▁fra	-4298
▁continue	-4299
▁gor	-4300
▁remained	-4301
▁proceed	-4302
▁model	-4303
▁softly	-4304
▁scr	-4305
▁parli	-4306
▁secretary	-4307
▁doors	-4308
▁neighbor	-4309
▁papers	-4310
▁showing	-4311
▁security	-4312
▁mail	-4313
aud	-4314
▁riding	-4315
▁poet	-4316
▁airport	-4317
▁gordon	-4318
▁greatest	-4319
▁bits	-4320
▁perm	-4321
▁victim	-4322
▁commander	-4323
▁surface	-4324
2)	-4325
▁appearance	-4326
▁si	-4327
▁ladd	-4328
▁’	-4329
▁hmm	-4330
▁leading	-4331
▁zoo	-4332
▁wedding	-4333
▁cit	-4334
▁wine	-4335
▁determ	-4336
▁condition	-4337
▁bac	-4338
▁bike	-4339
▁peek	-4340
when	-4341
▁nope	-4342
▁faces	-4343
▁ruth	-4344
▁upset	-4345
▁stayed	-4346
▁opin	-4347
atives	-4348
ems	-4349
rick	-4350
boy	-4351
▁boats	-4352
▁crash	-4353
babbles	-4354
▁monday	-4355
▁23	-4356
▁percent	-4357
▁services	-4358
▁dick	-4359
▁islands	-4360
cho	-4361
▁swit	-4362
▁parliament	-4363
ela	-4364
▁suggested	-4365
▁kinds	-4366
▁fund	-4367
--"	-4368
buted	-4369
▁austri	-4370
▁committee	-4371
igs	-4372
▁avail	-4373
▁artic	-4374
note	-4375
▁bare	-4376
▁style	-4377
▁(20	-4378
▁suspect	-4379
▁novel	-4380
met	-4381
▁helping	-4382
▁dread	-4383
▁rings	-4384
▁stands	-4385
▁nineteen	-4386
▁empire	-4387
▁contact	-4388
hic	-4389
▁ghost	-4390
▁hind	-4391
▁instit	-4392
▁tool	-4393
hips	-4394
aning	-4395
▁evil	-4396
▁[2	-4397
▁rope	-4398
▁penn	-4399
▁olympics	-4400
▁intell	-4401
▁suc	-4402
▁yup	-4403
het	-4404
sta	-4405
▁addition	-4406
▁hook	-4407
▁walls	-4408
▁q	-4409
▁kar	-4410
worth	-4411
▁decision	-4412
▁ships	-4413
▁psy	-4414
▁bessie	-4415
iron	-4416
mark	-4417
▁mont	-4418
▁francis	-4419
▁dare	-4420
▁swed	-4421
▁afterwards	-4422
▁awards	-4423
eted	-4424
▁forces	-4425
dra	-4426
▁offered	-4427
▁arab	-4428
▁tradition	-4429
▁opposite	-4430
isa	-4431
▁mate	-4432
▁formula	-4433
▁ourselves	-4434
▁holiday	-4435
▁sake	-4436
▁easier	-4437
▁official	-4438
▁ski	-4439
▁hal	-4440
▁constit	-4441
▁marg	-4442
▁domin	-4443
▁keeps	-4444
▁tongue	-4445
▁balloon	-4446
▁vocal	-4447
▁victor	-4448
▁extreme	-4449
▁pow	-4450
ala	-4451
ounce	-4452
iety	-4453
▁sees	-4454
▁hay	-4455
▁pump	-4456
▁staff	-4457
▁shock	-4458
▁chris	-4459
▁illustr	-4460
▁rod	-4461
▁yyy	-4462
rely	-4463
▁cities	-4464
▁younger	-4465
fr	-4466
▁ideas	-4467
ours	-4468
▁bringing	-4469
cont	-4470
ounds	-4471
▁surely	-4472
▁foreign	-4473
▁jeff	-4474
cise	-4475
▁willing	-4476
ola	-4477
▁trunk	-4478
▁inn	-4479
▁lawyer	-4480
▁apparently	-4481
▁mort	-4482
▁reck	-4483
▁soldier	-4484
▁directly	-4485
any	-4486
▁fis	-4487
▁wise	-4488
▁glasses	-4489
▁administ	-4490
▁bum	-4491
tles	-4492
▁kore	-4493
▁presently	-4494
▁gab	-4495
▁safety	-4496
▁frightened	-4497
▁freed	-4498
▁string	-4499
▁tank	-4500
▁attend	-4501
▁brilli	-4502
▁disappoint	-4503
▁asse	-4504
▁maid	-4505
▁players	-4506
▁22	-4507
bu	-4508
▁sits	-4509
▁gy	-4510
▁perfectly	-4511
▁aver	-4512
▁retired	-4513
▁~	-4514
▁190	-4515
▁harm	-4516
▁knight	-4517
▁50	-4518
onse	-4519
▁narrow	-4520
▁chic	-4521
▁desk	-4522
ases	-4523
▁les	-4524
▁towel	-4525
▁schools	-4526
mus	-4527
▁whispered	-4528
▁patient	-4529
did	-4530
▁knee	-4531
▁male	-4532
chuckles	-4533
▁trop	-4534
▁democrat	-4535
▁lim	-4536
▁memory	-4537
▁ven	-4538
▁2000	-4539
▁academy	-4540
▁magn	-4541
aret	-4542
▁settled	-4543
▁shopping	-4544
▁virgin	-4545
▁excellent	-4546
▁eighty	-4547
▁avo	-4548
ini	-4549
eping	-4550
▁furn	-4551
▁successful	-4552
▁comfortable	-4553
▁clown	-4554
▁joseph	-4555
year	-4556
▁cloth	-4557
▁boots	-4558
▁doin	-4559
war	-4560
stood	-4561
abeth	-4562
chester	-4563
▁forever	-4564
▁indust	-4565
▁tid	-4566
▁eliz	-4567
▁smiled	-4568
silence	-4569
kar	-4570
▁fest	-4571
▁ou	-4572
....	-4573
▁airpl	-4574
▁benef	-4575
▁dutch	-4576
ais	-4577
ression	-4578
▁circum	-4579
▁anxious	-4580
▁knowing	-4581
izing	-4582
▁shouted	-4583
bon	-4584
vey	-4585
▁pier	-4586
▁buddy	-4587
▁nursery	-4588
▁silent	-4589
▁microphone	-4590
▁copy	-4591
▁text	-4592
▁feels	-4593
▁forced	-4594
▁chairman	-4595
▁jones	-4596
▁knowledge	-4597
▁decide	-4598
▁museum	-4599
ials	-4600
law	-4601
▁bathroom	-4602
rif	-4603
▁succeed	-4604
▁dinosaur	-4605
__	-4606
ji	-4607
▁lind	-4608
▁metal	-4609
▁waited	-4610
will	-4611
▁2,	-4612
nods	-4613
jam	-4614
▁resc	-4615
▁fancy	-4616
filler	-4617
-19	-4618
jes	-4619
▁biggest	-4620
▁fairy	-4621
▁prove	-4622
iano	-4623
▁neat	-4624
▁coo	-4625
▁thor	-4626
▁struct	-4627
ern	-4628
mad	-4629
50	-4630
fection	-4631
▁writer	-4632
ado	-4633
ota	-4634
▁admir	-4635
rows	-4636
▁explained	-4637
vert	-4638
▁rome	-4639
fortun	-4640
▁mamma	-4641
lig	-4642
esty	-4643
▁mentioned	-4644
▁sav	-4645
▁stro	-4646
▁wings	-4647
▁fairly	-4648
▁particularly	-4649
▁cute	-4650
▁pencil	-4651
▁bern	-4652
▁eaten	-4653
ev	-4654
▁soup	-4655
▁ry	-4656
▁inno	-4657
▁hills	-4658
itar	-4659
▁shook	-4660
▁smiling	-4661
put	-4662
▁rush	-4663
▁appreci	-4664
▁upper	-4665
▁log	-4666
▁teams	-4667
▁reply	-4668
▁network	-4669
▁diam	-4670
▁realize	-4671
aching	-4672
▁medical	-4673
▁keys	-4674
”.	-4675
▁included	-4676
▁somewhat	-4677
▁kinda	-4678
▁hanging	-4679
▁developed	-4680
▁brook	-4681
▁sla	-4682
inger	-4683
hs	-4684
▁jean	-4685
▁signed	-4686
▁faster	-4687
▁yard	-4688
▁fence	-4689
▁highest	-4690
mend	-4691
▁26	-4692
▁brilliant	-4693
▁holy	-4694
▁congress	-4695
▁metho	-4696
ckey	-4697
▁vent	-4698
than	-4699
▁shr	-4700
▁larger	-4701
▁archi	-4702
▁forgive	-4703
wh	-4704
hab	-4705
▁pages	-4706
▁passing	-4707
▁studied	-4708
▁thoughts	-4709
uly	-4710
▁ni	-4711
▁bid	-4712
▁duh	-4713
▁matters	-4714
▁clearly	-4715
ental	-4716
▁roger	-4717
sequ	-4718
▁escap	-4719
▁territ	-4720
▁flew	-4721
▁pau	-4722
▁chuck	-4723
▁ron	-4724
▁witness	-4725
▁fal	-4726
▁scarce	-4727
▁disease	-4728
▁andy	-4729
▁site	-4730
▁respo	-4731
reg	-4732
aries	-4733
atory	-4734
▁pred	-4735
▁giant	-4736
▁nerv	-4737
▁indians	-4738
▁vote	-4739
iii	-4740
urb	-4741
ache	-4742
▁cub	-4743
▁powerful	-4744
▁yay	-4745
▁speci	-4746
voc	-4747
oned	-4748
▁afford	-4749
di	-4750
cel	-4751
▁transport	-4752
▁hunt	-4753
▁beast	-4754
▁release	-4755
ners	-4756
▁sin	-4757
▁assemb	-4758
▁nomin	-4759
▁waste	-4760
▁veget	-4761
▁response	-4762
acher	-4763
▁gang	-4764
▁hearing	-4765
chief	-4766
▁properly	-4767
▁repeated	-4768
▁--	-4769
▁ren	-4770
▁exer	-4771
▁serve	-4772
aft	-4773
bar	-4774
▁gain	-4775
▁surv	-4776
▁wondering	-4777
hum	-4778
▁opens	-4779
▁shh	-4780
▁pressure	-4781
"]	-4782
ere	-4783
▁prefer	-4784
▁fran	-4785
▁talks	-4786
▁blanket	-4787
bbles	-4788
aren	-4789
down	-4790
▁[3	-4791
ires	-4792
▁gather	-4793
▁environ	-4794
▁episode	-4795
miss	-4796
▁folks	-4797
place	-4798
▁horsie	-4799
▁wid	-4800
▁scrat	-4801
▁depart	-4802
▁planet	-4803
▁reve	-4804
▁skill	-4805
▁ess	-4806
▁florida	-4807
▁prepar	-4808
rol	-4809
▁arth	-4810
▁pear	-4811
fall	-4812
▁haw	-4813
▁russia	-4814
umn	-4815
▁chicago	-4816
erp	-4817
▁madam	-4818
▁library	-4819
▁feelings	-4820
▁chest	-4821
rison	-4822
▁mile	-4823
▁types	-4824
sit	-4825
▁acting	-4826
ania	-4827
ingu	-4828
▁gat	-4829
▁cancer	-4830
kat	-4831
▁bran	-4832
▁palace	-4833
eg	-4834
▁amazing	-4835
▁screw	-4836
▁justice	-4837
▁cats	-4838
▁goal	-4839
▁magazine	-4840
unts	-4841
▁thrown	-4842
▁association	-4843
▁related	-4844
▁elected	-4845
ification	-4846
▁os	-4847
raph	-4848
▁sink	-4849
▁value	-4850
▁concerned	-4851
▁grandmother	-4852
fle	-4853
holic	-4854
▁fired	-4855
▁theory	-4856
▁baseball	-4857
bly	-4858
▁emper	-4859
▁—	-4860
▁boom	-4861
▁pushed	-4862
▁arrange	-4863
▁hurried	-4864
oura	-4865
ulty	-4866
▁bol	-4867
▁property	-4868
▁disappeared	-4869
▁map	-4870
▁latter	-4871
tons	-4872
▁27	-4873
▁available	-4874
uments	-4875
▁kenn	-4876
▁remarked	-4877
aly	-4878
bout	-4879
▁positive	-4880
▁serge	-4881
▁1.	-4882
▁squir	-4883
▁trains	-4884
lend	-4885
▁ken	-4886
▁lara	-4887
▁cher	-4888
▁remembered	-4889
▁favour	-4890
▁tractor	-4891
▁canad	-4892
▁burst	-4893
▁understood	-4894
▁progress	-4895
asp	-4896
▁fishing	-4897
▁opinion	-4898
ware	-4899
▁weeke	-4900
▁promot	-4901
7)	-4902
rael	-4903
donald	-4904
▁rot	-4905
holds	-4906
▁worst	-4907
▁tip	-4908
▁cooking	-4909
▁steve	-4910
mic	-4911
pret	-4912
▁woo	-4913
▁fought	-4914
ansas	-4915
cream	-4916
▁bin	-4917
▁unfortun	-4918
▁brand	-4919
▁cliff	-4920
nam	-4921
▁grandpa	-4922
ift	-4923
▁fan	-4924
dro	-4925
▁knocked	-4926
▁tough	-4927
▁languages	-4928
▁atl	-4929
▁qual	-4930
▁doggie	-4931
▁edward	-4932
lim	-4933
aws	-4934
▁pean	-4935
▁jerry	-4936
▁seriously	-4937
▁angel	-4938
▁ali	-4939
▁clou	-4940
▁thin	-4941
▁dozen	-4942
▁throwing	-4943
▁magnet	-4944
▁tha	-4945
ension	-4946
▁weird	-4947
▁confir	-4948
bow	-4949
▁agent	-4950
▁lone	-4951
▁policy	-4952
viet	-4953
▁aware	-4954
▁wished	-4955
▁penny	-4956
0,000	-4957
▁protest	-4958
▁29	-4959
opher	-4960
ona	-4961
▁relationship	-4962
▁merry	-4963
▁staying	-4964
aign	-4965
▁failed	-4966
▁screen	-4967
▁revolution	-4968
iggles	-4969
▁darkness	-4970
▁butterfly	-4971
▁ellie	-4972
whispers	-4973
▁stones	-4974
▁ire	-4975
▁greek	-4976
▁treasure	-4977
▁jon	-4978
▁advant	-4979
▁friendly	-4980
inated	-4981
▁drawn	-4982
▁wave	-4983
▁bent	-4984
▁fond	-4985
▁rise	-4986
road	-4987
▁cups	-4988
▁tent	-4989
▁jimmy	-4990
▁voices	-4991
▁joke	-4992
▁tommy	-4993
▁nation	-4994
ients	-4995
▁dada	-4996
▁gently	-4997
▁average	-4998
▁gradu	-4999
▁ign	-5000
▁fully	-5001
etch	-5002
▁init	-5003
▁previous	-5004
▁garage	-5005
quar	-5006
▁[$	-5007
▁sweetheart	-5008
▁189	-5009
▁compos	-5010
▁fortune	-5011
▁medal	-5012
arr	-5013
▁commission	-5014
▁throughout	-5015
▁ga	-5016
eta	-5017
▁material	-5018
craft	-5019
▁drama	-5020
▁environment	-5021
▁freedom	-5022
▁section	-5023
▁cot	-5024
▁ends	-5025
▁lies	-5026
_.	-5027
scream	-5028
▁hunting	-5029
▁tied	-5030
fficient	-5031
▁odd	-5032
vering	-5033
▁mirror	-5034
▁buck	-5035
was	-5036
morrow	-5037
▁dom	-5038
▁campaign	-5039
▁somehow	-5040
▁blo	-5041
rying	-5042
▁execut	-5043
▁shooting	-5044
▁bush	-5045
▁crayons	-5046
▁"'	-5047
7]	-5048
▁courage	-5049
▁leaf	-5050
▁drove	-5051
▁australian	-5052
▁28	-5053
hire	-5054
mary	-5055
▁loose	-5056
asc	-5057
▁fant	-5058
bble	-5059
▁cookies	-5060
▁mexico	-5061
ti	-5062
▁statistics	-5063
sn	-5064
▁candy	-5065
▁hammer	-5066
▁activity	-5067
▁communic	-5068
▁sang	-5069
▁african	-5070
▁airplane	-5071
▁production	-5072
▁entirely	-5073
dis	-5074
▁pak	-5075
▁mixed	-5076
▁plastic	-5077
▁comment	-5078
▁feather	-5079
▁¶	-5080
▁hockey	-5081
▁nail	-5082
▁familiar	-5083
▁hidden	-5084
▁troops	-5085
▁excit	-5086
▁frequ	-5087
▁robb	-5088
▁buried	-5089
▁fart	-5090
▁ahhah	-5091
▁pulling	-5092
▁shoulders	-5093
▁anti	-5094
▁knees	-5095
▁quack	-5096
▁strike	-5097
▁grandfather	-5098
▁aim	-5099
▁review	-5100
▁fold	-5101
erpill	-5102
rees	-5103
▁dump	-5104
▁mummie	-5105
▁advice	-5106
▁signal	-5107
▁drops	-5108
▁sposta	-5109
▁entr	-5110
▁jos	-5111
▁cash	-5112
▁pros	-5113
▁figures	-5114
▁media	-5115
▁shan	-5116
▁vic	-5117
▁touched	-5118
ilities	-5119
▁israel	-5120
▁boxes	-5121
▁citiz	-5122
hh	-5123
▁totally	-5124
▁becoming	-5125
▁bul	-5126
▁reasons	-5127
mbol	-5128
some	-5129
▁plus	-5130
▁caterpill	-5131
▁ko	-5132
▁gosh	-5133
▁dreams	-5134
▁characters	-5135
▁aft	-5136
▁newspaper	-5137
▁socks	-5138
▁reported	-5139
▁task	-5140
▁ward	-5141
▁majesty	-5142
▁presence	-5143
▁pant	-5144
ishment	-5145
▁objects	-5146
▁refle	-5147
▁currently	-5148
mi	-5149
▁puppy	-5150
▁jumping	-5151
▁realized	-5152
▁dying	-5153
▁stops	-5154
angle	-5155
▁mayor	-5156
yl	-5157
ibility	-5158
▁ireland	-5159
▁circumst	-5160
▁determined	-5161
roz	-5162
▁damage	-5163
sar	-5164
▁horri	-5165
▁stranger	-5166
▁expression	-5167
foot	-5168
sters	-5169
▁winn	-5170
▁aside	-5171
▁julia	-5172
▁carriage	-5173
▁data	-5174
▁grey	-5175
▁rice	-5176
▁elizabeth	-5177
▁cloud	-5178
▁scotland	-5179
▁brian	-5180
▁madame	-5181
▁transl	-5182
▁lamb	-5183
▁degree	-5184
▁fortun	-5185
▁includes	-5186
▁performance	-5187
▁yummy	-5188
▁ladder	-5189
▁waves	-5190
▁families	-5191
▁zzz	-5192
▁subst	-5193
▁soviet	-5194
asty	-5195
▁lit	-5196
▁iii	-5197
▁aer	-5198
▁toes	-5199
▁paying	-5200
▁40	-5201
▁jum	-5202
▁rand	-5203
tained	-5204
▁bunch	-5205
ulations	-5206
oring	-5207
▁tale	-5208
▁[1.	-5209
pro	-5210
▁suspic	-5211
▁pointing	-5212
bury	-5213
asing	-5214
▁stom	-5215
▁described	-5216
ctors	-5217
▁individual	-5218
▁jung	-5219
▁curious	-5220
▁height	-5221
▁recently	-5222
▁pac	-5223
▁arthur	-5224
▁locked	-5225
▁desper	-5226
▁partner	-5227
▁bears	-5228
▁intellig	-5229
▁cutting	-5230
▁km	-5231
ennis	-5232
▁instant	-5233
▁188	-5234
▁accompan	-5235
acks	-5236
▁emperor	-5237
▁sisters	-5238
▁fifth	-5239
▁buzz	-5240
9)	-5241
▁matches	-5242
▁companion	-5243
▁receive	-5244
alled	-5245
ential	-5246
▁zeal	-5247
▁pointed	-5248
win	-5249
▁gay	-5250
▁owl	-5251
▁excitement	-5252
▁exchan	-5253
▁seventy	-5254
▁deer	-5255
▁186	-5256
▁dunno	-5257
3)	-5258
cture	-5259
▁pulls	-5260
▁adventure	-5261
▁wore	-5262
▁relax	-5263
inc	-5264
▁cave	-5265
cts	-5266
▁student	-5267
ban	-5268
▁forms	-5269
▁picking	-5270
▁instr	-5271
▁whenever	-5272
▁pony	-5273
▁meas	-5274
▁evidently	-5275
othy	-5276
▁railway	-5277
▁drum	-5278
▁catholic	-5279
ulous	-5280
sung	-5281
▁gathered	-5282
▁normally	-5283
▁saus	-5284
pering	-5285
▁blame	-5286
▁theat	-5287
▁owner	-5288
▁traffic	-5289
▁brad	-5290
▁effects	-5291
▁canadian	-5292
tis	-5293
▁breaking	-5294
▁icecream	-5295
▁3,	-5296
▁ours	-5297
keep	-5298
▁nervous	-5299
▁postman	-5300
▁ari	-5301
▁authority	-5302
▁achie	-5303
▁recording	-5304
berries	-5305
▁interview	-5306
▁slightly	-5307
▁buff	-5308
▁[.	-5309
▁yards	-5310
▁scri	-5311
has	-5312
▁tooth	-5313
▁jigs	-5314
▁doggy	-5315
▁score	-5316
▁load	-5317
▁drunk	-5318
▁planning	-5319
▁target	-5320
▁apartment	-5321
▁ash	-5322
▁rolling	-5323
▁au	-5324
▁sche	-5325
▁toil	-5326
▁request	-5327
▁streets	-5328
hore	-5329
▁industry	-5330
5)	-5331
▁alp	-5332
gging	-5333
▁independent	-5334
igned	-5335
▁rent	-5336
▁conserv	-5337
▁spill	-5338
▁possess	-5339
ari	-5340
▁weekend	-5341
while	-5342
▁terror	-5343
ucky	-5344
▁bene	-5345
▁instru	-5346
jan	-5347
icked	-5348
▁pooh	-5349
▁hearts	-5350
6)	-5351
▁dragon	-5352
▁jimmie	-5353
▁commer	-5354
▁irish	-5355
enced	-5356
▁diamond	-5357
mm	-5358
▁anton	-5359
▁culture	-5360
▁handsome	-5361
:00	-5362
▁gil	-5363
▁pale	-5364
dr	-5365
▁chase	-5366
▁credit	-5367
▁chairs	-5368
▁coal	-5369
',	-5370
▁clouds	-5371
lam	-5372
▁guil	-5373
▁separate	-5374
▁matt	-5375
▁issue	-5376
▁thri	-5377
▁border	-5378
▁contri	-5379
▁fields	-5380
hess	-5381
▁active	-5382
▁learning	-5383
your	-5384
▁trial	-5385
▁observed	-5386
▁tel	-5387
▁branch	-5388
istic	-5389
ological	-5390
▁habit	-5391
▁scientists	-5392
▁nina	-5393
▁desire	-5394
▁jac	-5395
kee	-5396
▁byebye	-5397
▁boston	-5398
▁gram	-5399
arily	-5400
▁sole	-5401
▁buildings	-5402
4)	-5403
▁resist	-5404
▁laws	-5405
▁mob	-5406
▁slept	-5407
▁shadow	-5408
▁turkey	-5409
▁eventually	-5410
▁2020,	-5411
▁raise	-5412
▁influence	-5413
▁prisoners	-5414
▁tunn	-5415
▁standard	-5416
iance	-5417
▁burning	-5418
▁detective	-5419
apt	-5420
gel	-5421
▁polly	-5422
ares	-5423
▁lisa	-5424
bi	-5425
▁kang	-5426
▁listened	-5427
water	-5428
▁wire	-5429
▁whoo	-5430
idents	-5431
▁sweetie	-5432
▁weapons	-5433
"?	-5434
▁goat	-5435
uesday	-5436
▁cla	-5437
▁access	-5438
▁becomes	-5439
▁victory	-5440
▁spite	-5441
▁destroyed	-5442
.’	-5443
▁shri	-5444
▁nan	-5445
▁contr	-5446
▁wondered	-5447
▁companies	-5448
▁recorded	-5449
▁autom	-5450
▁splend	-5451
ales	-5452
▁measure	-5453
▁indic	-5454
gro	-5455
▁grab	-5456
vocalize	-5457
▁features	-5458
▁etc	-5459
▁flash	-5460
▁mainly	-5461
▁restaur	-5462
▁scarcely	-5463
▁cord	-5464
▁pilot	-5465
▁useful	-5466
▁code	-5467
▁link	-5468
▁dish	-5469
▁bloody	-5470
▁wooden	-5471
neath	-5472
▁shame	-5473
▁wounded	-5474
aboo	-5475
▁ceremon	-5476
▁angeles	-5477
▁unknown	-5478
▁originally	-5479
▁flore	-5480
▁owned	-5481
cod	-5482
▁beneath	-5483
▁swear	-5484
5]	-5485
aming	-5486
▁tuesday	-5487
▁racing	-5488
▁federal	-5489
▁thunder	-5490
▁pity	-5491
zo	-5492
▁beer	-5493
▁bone	-5494
▁pants	-5495
▁dorothy	-5496
▁established	-5497
▁alarm	-5498
▁notes	-5499
▁frogs	-5500
ns	-5501
aus	-5502
▁aid	-5503
▁marks	-5504
▁neighbour	-5505
▁helps	-5506
ucle	-5507
▁stepped	-5508
▁americans	-5509
▁thurs	-5510
▁ki	-5511
hand	-5512
case	-5513
oma	-5514
▁bodies	-5515
▁craft	-5516
▁hut	-5517
urance	-5518
▁wra	-5519
▁arrang	-5520
▁rum	-5521
▁rooms	-5522
▁fireman	-5523
zerland	-5524
▁religion	-5525
icy	-5526
uses	-5527
▁borrow	-5528
▁results	-5529
▁dyn	-5530
▁comedy	-5531
▁lifted	-5532
▁proved	-5533
▁symbol	-5534
▁jacket	-5535
▁rapidly	-5536
▁recorder	-5537
▁latin	-5538
bey	-5539
▁enjoyed	-5540
▁adop	-5541
▁corpor	-5542
▁banana	-5543
▁eric	-5544
▁nana	-5545
▁unus	-5546
▁musical	-5547
▁prevent	-5548
▁duke	-5549
▁equal	-5550
▁thousands	-5551
▁underneath	-5552
▁switzerland	-5553
▁lege	-5554
▁colour	-5555
▁leaders	-5556
inson	-5557
▁mighty	-5558
▁oblig	-5559
▁ay	-5560
heast	-5561
itz	-5562
▁holes	-5563
▁performed	-5564
ila	-5565
▁lonely	-5566
▁engaged	-5567
tin	-5568
▁typ	-5569
▁soap	-5570
▁guilty	-5571
anches	-5572
door	-5573
▁emot	-5574
▁queer	-5575
▁roar	-5576
▁piano	-5577
▁exciting	-5578
▁nut	-5579
▁pure	-5580
▁unif	-5581
▁[4	-5582
▁woof	-5583
▁quit	-5584
▁removed	-5585
▁democratic	-5586
▁nearer	-5587
▁steady	-5588
▁invited	-5589
▁experien	-5590
▁climate	-5591
▁thursday	-5592
▁responsible	-5593
▁horrible	-5594
▁spare	-5595
▁rhy	-5596
▁lucy	-5597
bing	-5598
▁nep	-5599
▁bones	-5600
▁towns	-5601
▁oliver	-5602
▁2.	-5603
making	-5604
▁elder	-5605
▁guitar	-5606
uf	-5607
sty	-5608
▁creature	-5609
▁pakistan	-5610
▁hom	-5611
erves	-5612
▁elev	-5613
untary	-5614
▁candid	-5615
▁divided	-5616
ata	-5617
nce	-5618
▁awake	-5619
▁auntie	-5620
▁challen	-5621
▁aah	-5622
▁peggy	-5623
▁wing	-5624
▁ald	-5625
▁bags	-5626
hus	-5627
▁bust	-5628
▁fleet	-5629
▁create	-5630
▁2010	-5631
mal	-5632
▁sorts	-5633
▁britain	-5634
umber	-5635
▁chips	-5636
▁mechan	-5637
▁closely	-5638
▁ordinary	-5639
▁competition	-5640
▁comr	-5641
▁waters	-5642
▁journal	-5643
▁ol	-5644
▁charl	-5645
▁homes	-5646
▁advantage	-5647
3]	-5648
▁faint	-5649
▁georg	-5650
▁behavi	-5651
tra	-5652
▁conqu	-5653
▁truly	-5654
▁rug	-5655
▁fu	-5656
▁switch	-5657
▁losing	-5658
▁sid	-5659
▁dawn	-5660
▁difficulty	-5661
▁ath	-5662
▁jobs	-5663
low	-5664
mont	-5665
▁folk	-5666
▁operation	-5667
▁jail	-5668
▁shift	-5669
▁squee	-5670
urt	-5671
▁admit	-5672
▁decor	-5673
▁prisoner	-5674
▁tender	-5675
▁kidding	-5676
▁caterpillar	-5677
minal	-5678
▁dolls	-5679
▁bricks	-5680
asy	-5681
-2	-5682
||2	-5683
▁dum	-5684
▁turtle	-5685
cr	-5686
pol	-5687
▁teaching	-5688
say	-5689
▁guest	-5690
12	-5691
iest	-5692
engers	-5693
nesday	-5694
▁demon	-5695
▁shower	-5696
▁purse	-5697
▁relief	-5698
istry	-5699
tar	-5700
imate	-5701
andy	-5702
▁alto	-5703
▁badly	-5704
▁landed	-5705
▁doo	-5706
▁whee	-5707
▁religious	-5708
▁donald	-5709
▁greatly	-5710
▁lack	-5711
▁washed	-5712
gers	-5713
▁jenn	-5714
▁noble	-5715
▁particip	-5716
▁sally	-5717
▁supply	-5718
▁steal	-5719
▁alexander	-5720
1]	-5721
hett	-5722
▁jar	-5723
▁signs	-5724
▁wagon	-5725
▁stack	-5726
▁brings	-5727
▁wednesday	-5728
▁lam	-5729
▁split	-5730
▁zealand	-5731
▁jigsaw	-5732
▁competed	-5733
▁(;	-5734
▁kir	-5735
rant	-5736
▁trous	-5737
▁advance	-5738
▁delicious	-5739
▁chain	-5740
▁sympat	-5741
▁becky	-5742
▁fate	-5743
▁spark	-5744
▁sticks	-5745
▁anno	-5746
▁balls	-5747
▁nucle	-5748
▁reckon	-5749
ua	-5750
affe	-5751
▁jess	-5752
▁apolog	-5753
uries	-5754
iece	-5755
▁nik	-5756
coughs	-5757
▁pipe	-5758
▁py	-5759
ived	-5760
▁glance	-5761
▁innocent	-5762
stein	-5763
▁jelly	-5764
▁florence	-5765
fish	-5766
giggles	-5767
▁hoping	-5768
▁philos	-5769
▁rescue	-5770
▁ax	-5771
▁guide	-5772
▁jenny	-5773
▁tomato	-5774
isha	-5775
icking	-5776
▁carr	-5777
▁temple	-5778
▁curtain	-5779
▁mas	-5780
▁mustn	-5781
reck	-5782
▁purs	-5783
▁nicole	-5784
lers	-5785
▁source	-5786
▁sergeant	-5787
▁desce	-5788
▁cott	-5789
▁couch	-5790
▁presents	-5791
▁tin	-5792
ée	-5793
▁4,	-5794
sure	-5795
oms	-5796
ria	-5797
▁winning	-5798
nda	-5799
▁shakes	-5800
▁firstname	-5801
▁kil	-5802
▁slipped	-5803
▁treated	-5804
lied	-5805
turns	-5806
▁systems	-5807
▁shouting	-5808
ito	-5809
▁react	-5810
▁recom	-5811
▁labour	-5812
..."	-5813
▁affairs	-5814
▁eighteen	-5815
▁loo	-5816
pointing	-5817
▁pitcher	-5818
nor	-5819
five	-5820
▁eats	-5821
▁susan	-5822
▁stomach	-5823
▁brick	-5824
▁changing	-5825
▁circus	-5826
▁quality	-5827
▁sixteen	-5828
▁robin	-5829
▁policeman	-5830
gency	-5831
▁daily	-5832
▁lorry	-5833
▁branches	-5834
4]	-5835
▁ped	-5836
▁aston	-5837
acing	-5838
▁pitch	-5839
ulf	-5840
▁content	-5841
▁circumstances	-5842
mr	-5843
▁cig	-5844
▁walter	-5845
▁setting	-5846
▁mmm	-5847
ule	-5848
▁divor	-5849
▁apples	-5850
▁ug	-5851
thew	-5852
umed	-5853
▁cows	-5854
▁liqu	-5855
▁andrew	-5856
ograph	-5857
ava	-5858
music	-5859
▁kings	-5860
▁187	-5861
▁lads	-5862
▁nancy	-5863
▁witch	-5864
▁spin	-5865
▁counter	-5866
▁invol	-5867
▁critic	-5868
▁pattern	-5869
rog	-5870
▁pile	-5871
▁consequ	-5872
▁caroline	-5873
je	-5874
ateg	-5875
▁unit	-5876
▁accepted	-5877
ella	-5878
▁proof	-5879
ador	-5880
▁nights	-5881
▁picnic	-5882
▁smooth	-5883
ends	-5884
▁suffe	-5885
▁conference	-5886
18	-5887
bot	-5888
▁maria	-5889
▁poison	-5890
?'	-5891
nah	-5892
have	-5893
vid	-5894
▁nodd	-5895
▁sons	-5896
▁legal	-5897
non	-5898
itan	-5899
▁planned	-5900
▁thorough	-5901
▁temperature	-5902
kel	-5903
nament	-5904
zzy	-5905
▁tam	-5906
▁refused	-5907
▁severe	-5908
iation	-5909
▁grate	-5910
▁ot	-5911
▁annie	-5912
▁happiness	-5913
elle	-5914
▁prem	-5915
hib	-5916
ties	-5917
▁pud	-5918
ller	-5919
▁inha	-5920
▁plot	-5921
ception	-5922
acle	-5923
▁hurts	-5924
▁crocod	-5925
▁rushed	-5926
lies	-5927
▁congrat	-5928
▁organization	-5929
about	-5930
▁chosen	-5931
▁festival	-5932
▁expensive	-5933
▁upside	-5934
▁rear	-5935
▁princip	-5936
▁avoid	-5937
▁desert	-5938
▁conce	-5939
▁od	-5940
▁sets	-5941
▁beans	-5942
▁farther	-5943
▁focus	-5944
▁priest	-5945
▁parties	-5946
playing	-5947
▁captured	-5948
▁cruel	-5949
▁lesson	-5950
▁concent	-5951
alo	-5952
▁powers	-5953
▁belongs	-5954
inned	-5955
▁jackson	-5956
org	-5957
▁introduced	-5958
▁lane	-5959
▁speaks	-5960
chest	-5961
iture	-5962
▁fourteen	-5963
▁molly	-5964
▁daniel	-5965
▁passage	-5966
▁conditions	-5967
!'	-5968
▁bund	-5969
▁drown	-5970
▁propos	-5971
▁warning	-5972
▁defend	-5973
▁moments	-5974
▁destroy	-5975
▁replaced	-5976
▁swift	-5977
▁tickle	-5978
▁required	-5979
6]	-5980
▁escaped	-5981
▁climbing	-5982
▁sore	-5983
▁delay	-5984
▁marie	-5985
▁jeann	-5986
▁belt	-5987
▁lets	-5988
rative	-5989
▁eddie	-5990
▁trousers	-5991
arian	-5992
▁remains	-5993
▁hoped	-5994
ique	-5995
emies	-5996
shine	-5997
▁arts	-5998
▁territory	-5999
bird	-6000
▁alf	-6001
▁matthew	-6002
▁kent	-6003
▁universe	-6004
▁satisfied	-6005
▁actual	-6006
▁spect	-6007
▁studies	-6008
▁rode	-6009
▁scary	-6010
▁intended	-6011
▁slip	-6012
▁recognized	-6013
urally	-6014
▁route	-6015
▁mcdonald	-6016
▁sentence	-6017
▁tab	-6018
▁debut	-6019
▁bitter	-6020
▁clay	-6021
▁tummy	-6022
▁athlet	-6023
▁inspect	-6024
▁0	-6025
rate	-6026
▁2021	-6027
eps	-6028
▁armed	-6029
▁dishes	-6030
ading	-6031
▁bucket	-6032
▁tunnel	-6033
▁tropical	-6034
uous	-6035
▁ages	-6036
▁toss	-6037
▁schol	-6038
▁lessons	-6039
▁structure	-6040
▁pas	-6041
▁labor	-6042
▁attacked	-6043
▁appe	-6044
▁fel	-6045
▁oak	-6046
▁hipp	-6047
▁insp	-6048
▁finds	-6049
▁philip	-6050
▁entrance	-6051
rences	-6052
▁splendid	-6053
▁tracks	-6054
kf	-6055
▁sooner	-6056
▁incred	-6057
▁pride	-6058
▁earnest	-6059
▁function	-6060
▁signific	-6061
aun	-6062
stone	-6063
▁hasta	-6064
▁saving	-6065
▁appears	-6066
▁killing	-6067
▁scen	-6068
▁patsy	-6069
▁rolled	-6070
▁weapon	-6071
▁crossed	-6072
▁arrested	-6073
mu	-6074
icted	-6075
▁danny	-6076
▁throws	-6077
nina	-6078
enger	-6079
thank	-6080
▁cooper	-6081
▁altogether	-6082
▁companions	-6083
2]	-6084
mhm	-6085
bled	-6086
▁ark	-6087
▁constant	-6088
▁pushing	-6089
▁provided	-6090
▁oven	-6091
▁dot	-6092
▁minor	-6093
hamed	-6094
▁5,	-6095
eding	-6096
▁disappear	-6097
which	-6098
▁approach	-6099
▁foll	-6100
▁basically	-6101
▁(200	-6102
▁eagerly	-6103
40	-6104
▁1980	-6105
take	-6106
shouts	-6107
▁technology	-6108
▁vot	-6109
▁gained	-6110
▁demanded	-6111
▁woke	-6112
▁tub	-6113
orter	-6114
psy	-6115
happy	-6116
lock	-6117
▁shining	-6118
▁file	-6119
▁pengu	-6120
soft	-6121
dog	-6122
▁elim	-6123
contin	-6124
bid	-6125
using	-6126
▁connected	-6127
▁delighted	-6128
▁stole	-6129
▁humans	-6130
▁transfer	-6131
▁treatment	-6132
▁mistress	-6133
▁chin	-6134
▁snap	-6135
▁honour	-6136
▁splash	-6137
alous	-6138
▁designed	-6139
▁cheap	-6140
▁flood	-6141
▁wound	-6142
▁lt	-6143
▁reven	-6144
▁belief	-6145
gery	-6146
umes	-6147
▁keen	-6148
▁mickey	-6149
▁virginia	-6150
▁daisy	-6151
▁mathe	-6152
▁sending	-6153
▁gods	-6154
▁sylv	-6155
▁recognize	-6156
▁senior	-6157
actually	-6158
hor	-6159
chair	-6160
▁explos	-6161
part	-6162
▁advis	-6163
▁holly	-6164
▁rachel	-6165
▁mood	-6166
▁emergency	-6167
pir	-6168
▁equip	-6169
▁useta	-6170
▁climbed	-6171
▁pole	-6172
▁guests	-6173
▁selected	-6174
▁appointed	-6175
▁tun	-6176
▁enemies	-6177
▁cale	-6178
▁occurred	-6179
▁scare	-6180
▁laughter	-6181
walk	-6182
▁pha	-6183
▁footnote	-6184
▁peekaboo	-6185
▁wrestling	-6186
▁bold	-6187
▁physical	-6188
lau	-6189
▁navy	-6190
▁giraffe	-6191
▁provide	-6192
kiss	-6193
glo	-6194
▁buttons	-6195
▁assembly	-6196
emic	-6197
▁adventures	-6198
ability	-6199
▁chamber	-6200
rich	-6201
▁fier	-6202
▁unf	-6203
▁doctors	-6204
▁increase	-6205
▁appreciate	-6206
ouri	-6207
opter	-6208
▁harder	-6209
▁chemical	-6210
onsense	-6211
▁johnny	-6212
▁nations	-6213
▁selling	-6214
▁champion	-6215
▁hoo	-6216
▁pond	-6217
▁sunshine	-6218
lar	-6219
▁ribb	-6220
▁affair	-6221
▁solid	-6222
▁oldest	-6223
▁seated	-6224
ux	-6225
ints	-6226
▁boun	-6227
▁sacrif	-6228
▁drugs	-6229
▁details	-6230
▁workers	-6231
▁tiss	-6232
▁sings	-6233
▁ringing	-6234
▁aha	-6235
▁peanut	-6236
▁stern	-6237
▁ducks	-6238
▁ambul	-6239
▁gotten	-6240
▁barbara	-6241
▁connect	-6242
▁regret	-6243
▁extremely	-6244
▁stol	-6245
speak	-6246
▁roles	-6247
ami	-6248
onia	-6249
▁wipe	-6250
▁basketball	-6251
▁lic	-6252
▁cents	-6253
▁protection	-6254
▁mole	-6255
▁diss	-6256
▁kindly	-6257
▁method	-6258
▁increased	-6259
▁statement	-6260
bc	-6261
▁vice	-6262
▁sale	-6263
aned	-6264
sque	-6265
hetti	-6266
▁ticket	-6267
rr	-6268
▁confess	-6269
▁collection	-6270
▁dave	-6271
▁whit	-6272
quarters	-6273
▁display	-6274
aa	-6275
long	-6276
▁grad	-6277
▁swall	-6278
▁ouch	-6279
uns	-6280
gust	-6281
▁cass	-6282
▁diag	-6283
▁cage	-6284
▁cock	-6285
▁spirits	-6286
two	-6287
▁watches	-6288
▁anth	-6289
▁hadta	-6290
rose	-6291
▁produce	-6292
▁passengers	-6293
▁1990	-6294
▁teachers	-6295
▁rare	-6296
],	-6297
gt	-6298
▁sandy	-6299
▁recent	-6300
▁williams	-6301
▁padd	-6302
▁junior	-6303
▁plates	-6304
▁volume	-6305
▁incl	-6306
▁rejo	-6307
▁steel	-6308
▁bron	-6309
▁clap	-6310
▁breast	-6311
▁distributed	-6312
▁wars	-6313
▁highly	-6314
yard	-6315
▁margaret	-6316
otte	-6317
▁sequ	-6318
▁mystery	-6319
yeah	-6320
▁hundreds	-6321
▁mig	-6322
▁potatoes	-6323
▁owe	-6324
elled	-6325
▁awww	-6326
▁suffered	-6327
▁bug	-6328
▁pron	-6329
▁2020)	-6330
issa	-6331
▁broadcast	-6332
▁seats	-6333
▁strawberry	-6334
▁fork	-6335
▁trump	-6336
▁deput	-6337
▁spots	-6338
▁shapes	-6339
▁6,	-6340
▁mabel	-6341
nat	-6342
geon	-6343
▁altern	-6344
▁sailor	-6345
▁toilet	-6346
▁burned	-6347
▁arranged	-6348
umph	-6349
▁ale	-6350
americ	-6351
writer	-6352
ani	-6353
▁2011	-6354
▁finan	-6355
▁complex	-6356
dem	-6357
shire	-6358
▁aven	-6359
▁wealth	-6360
▁thirteen	-6361
▁wales	-6362
▁warri	-6363
▁portug	-6364
▁blowing	-6365
▁2017	-6366
▁improve	-6367
▁creek	-6368
▁anch	-6369
▁teen	-6370
▁buying	-6371
▁marked	-6372
▁clar	-6373
8]	-6374
isl	-6375
▁peak	-6376
▁jason	-6377
▁disney	-6378
▁torn	-6379
▁shops	-6380
▁roy	-6381
▁seek	-6382
erable	-6383
▁sufficient	-6384
▁dol	-6385
▁warren	-6386
▁grapes	-6387
▁distant	-6388
▁murm	-6389
▁seas	-6390
▁bible	-6391
▁nether	-6392
▁tuck	-6393
▁sweden	-6394
▁bann	-6395
8)	-6396
mun	-6397
wald	-6398
▁glor	-6399
▁bishop	-6400
hers	-6401
▁driven	-6402
▁producer	-6403
▁hee	-6404
▁1970	-6405
▁bord	-6406
▁skir	-6407
▁unlike	-6408
▁mau	-6409
▁sigh	-6410
▁cries	-6411
▁exped	-6412
▁entertainment	-6413
▁7,	-6414
tell	-6415
▁mak	-6416
▁opt	-6417
▁kissed	-6418
fected	-6419
▁31	-6420
moves	-6421
▁painted	-6422
▁raining	-6423
▁shed	-6424
▁spag	-6425
▁cells	-6426
▁helic	-6427
▁equipment	-6428
▁bree	-6429
▁sneak	-6430
▁accompl	-6431
bling	-6432
▁cough	-6433
60	-6434
after	-6435
▁advert	-6436
▁lif	-6437
eable	-6438
▁lately	-6439
▁bubbles	-6440
only	-6441
talk	-6442
▁caut	-6443
▁hers	-6444
▁worn	-6445
▁poorly	-6446
▁jealous	-6447
inal	-6448
ali	-6449
rier	-6450
▁pirate	-6451
▁unable	-6452
▁precious	-6453
▁breathing	-6454
▁10,	-6455
▁condu	-6456
▁exercise	-6457
rene	-6458
invol	-6459
▁inhabit	-6460
▁opera	-6461
▁squad	-6462
wers	-6463
▁unusual	-6464
▁chess	-6465
▁confidence	-6466
▁cud	-6467
▁uns	-6468
involuntary	-6469
9]	-6470
▁asia	-6471
▁tools	-6472
▁louise	-6473
▁deliver	-6474
▁stronger	-6475
▁ded	-6476
▁ding	-6477
▁naturally	-6478
▁dude	-6479
▁secure	-6480
▁holl	-6481
▁kate	-6482
angers	-6483
▁austria	-6484
▁(199	-6485
▁boot	-6486
ios	-6487
▁pillow	-6488
▁contest	-6489
anes	-6490
▁presented	-6491
ox	-6492
▁ratt	-6493
▁scout	-6494
si	-6495
▁quant	-6496
pot	-6497
lessly	-6498
▁granddad	-6499
▁stad	-6500
shakes	-6501
ancing	-6502
bal	-6503
▁2019	-6504
▁rivers	-6505
▁exha	-6506
▁pregn	-6507
▁letting	-6508
▁chose	-6509
▁despite	-6510
▁economic	-6511
▁sylvia	-6512
▁landing	-6513
▁somethin	-6514
rels	-6515
▁ugh	-6516
▁multip	-6517
▁archite	-6518
▁backwards	-6519
▁returning	-6520
▁tag	-6521
iot	-6522
aine	-6523
▁handed	-6524
▁conduct	-6525
cia	-6526
eder	-6527
umbled	-6528
▁sevent	-6529
▁ryan	-6530
▁audience	-6531
▁ambulance	-6532
ams	-6533
▁dub	-6534
▁slave	-6535
▁gina	-6536
▁affect	-6537
wom	-6538
oons	-6539
▁nah	-6540
▁killer	-6541
arts	-6542
ques	-6543
▁advanced	-6544
▁cad	-6545
▁hesit	-6546
▁sprang	-6547
sl	-6548
,’	-6549
top	-6550
▁canoe	-6551
▁albert	-6552
▁cricket	-6553
▁issues	-6554
tie	-6555
▁fever	-6556
▁psych	-6557
▁observ	-6558
▁spaghetti	-6559
lfri	-6560
eless	-6561
▁rifle	-6562
whispered	-6563
▁[5	-6564
▁surround	-6565
ril	-6566
▁slipp	-6567
▁winds	-6568
▁ginger	-6569
▁depends	-6570
▁complain	-6571
mers	-6572
▁abo	-6573
▁hurric	-6574
▁permission	-6575
▁restaurant	-6576
omy	-6577
rec	-6578
▁management	-6579
▁sounded	-6580
▁noisy	-6581
▁causes	-6582
▁ashamed	-6583
ogy	-6584
▁sleepy	-6585
▁trucks	-6586
ushi	-6587
▁chim	-6588
▁lemon	-6589
▁assistant	-6590
▁christopher	-6591
▁netherlands	-6592
▁compar	-6593
aki	-6594
▁abe	-6595
▁iran	-6596
ias	-6597
▁missouri	-6598
▁completed	-6599
fers	-6600
▁dea	-6601
▁syd	-6602
▁principal	-6603
▁explan	-6604
▁sou	-6605
ronic	-6606
▁construction	-6607
▁/	-6608
▁stiff	-6609
fire	-6610
▁sofa	-6611
▁beth	-6612
▁roads	-6613
▁consult	-6614
▁1960	-6615
zing	-6616
ulate	-6617
▁require	-6618
14	-6619
ridge	-6620
▁ellen	-6621
▁columb	-6622
hew	-6623
▁applic	-6624
▁drinks	-6625
▁element	-6626
▁uniform	-6627
necess	-6628
▁purcha	-6629
▁briefly	-6630
▁struggle	-6631
sex	-6632
cribed	-6633
▁leans	-6634
▁dough	-6635
▁fierce	-6636
▁failure	-6637
▁document	-6638
▁mathemat	-6639
▁succeeded	-6640
▁suffering	-6641
▁factory	-6642
iana	-6643
oses	-6644
▁philipp	-6645
▁gree	-6646
▁greg	-6647
▁sales	-6648
▁proposed	-6649
▁inse	-6650
unting	-6651
▁goods	-6652
▁reward	-6653
▁chart	-6654
gment	-6655
▁2016	-6656
▁tempt	-6657
▁2022	-6658
▁powder	-6659
▁glory	-6660
cest	-6661
▁12,	-6662
refer	-6663
▁cereal	-6664
▁romantic	-6665
▁brig	-6666
▁cottage	-6667
▁servant	-6668
▁exchange	-6669
▁vel	-6670
▁beds	-6671
▁false	-6672
▁sorrow	-6673
▁specific	-6674
▁von	-6675
▁theatre	-6676
▁ja	-6677
▁shaking	-6678
▁ability	-6679
▁location	-6680
▁experiment	-6681
aka	-6682
wan	-6683
▁senate	-6684
hl	-6685
▁lux	-6686
▁pad	-6687
▁lamp	-6688
▁pushes	-6689
▁admitted	-6690
▁devil	-6691
▁johnson	-6692
▁passion	-6693
▁shelter	-6694
bin	-6695
▁shark	-6696
▁responsibility	-6697
san	-6698
▁whistle	-6699
.--	-6700
▁grav	-6701
▁oy	-6702
orted	-6703
▁loving	-6704
▁resour	-6705
▁pope	-6706
▁2019,	-6707
screams	-6708
▁valu	-6709
umbling	-6710
▁incident	-6711
pre	-6712
▁scale	-6713
▁carpet	-6714
from	-6715
▁coco	-6716
▁poll	-6717
▁grandad	-6718
▁platform	-6719
atherine	-6720
▁sne	-6721
▁vig	-6722
▁aband	-6723
cles	-6724
esh	-6725
▁gle	-6726
▁jungle	-6727
▁parish	-6728
▁rude	-6729
▁dollar	-6730
▁settlement	-6731
▁lois	-6732
▁web	-6733
burgh	-6734
▁spy	-6735
keys	-6736
▁revol	-6737
▁aboard	-6738
▁wip	-6739
▁stove	-6740
▁squeak	-6741
▁occupied	-6742
▁voy	-6743
june	-6744
▁hydro	-6745
▁korea	-6746
▁balance	-6747
▁pul	-6748
▁stolen	-6749
▁checked	-6750
▁tan	-6751
▁article	-6752
▁prepare	-6753
▁sel	-6754
ivity	-6755
▁seized	-6756
▁bees	-6757
▁sched	-6758
▁convin	-6759
icide	-6760
▁cheeks	-6761
▁discover	-6762
▁pine	-6763
cies	-6764
▁legend	-6765
án	-6766
▁bass	-6767
▁lily	-6768
▁sauce	-6769
▁imper	-6770
▁citizens	-6771
▁jeannine	-6772
▁flu	-6773
mouth	-6774
atively	-6775
▁bushes	-6776
▁jersey	-6777
gri	-6778
▁missus	-6779
▁vocalises	-6780
opl	-6781
▁frame	-6782
▁screaming	-6783
▁photograph	-6784
").	-6785
▁185	-6786
▁wreck	-6787
lis	-6788
▁follows	-6789
ora	-6790
▁fab	-6791
▁cotton	-6792
▁shortly	-6793
four	-6794
▁gim	-6795
▁covers	-6796
▁persons	-6797
▁stadium	-6798
▁headquarters	-6799
▁banks	-6800
▁stopping	-6801
▁kay	-6802
▁surrounded	-6803
▁goals	-6804
▁discovery	-6805
bbing	-6806
▁beads	-6807
▁lew	-6808
▁carrots	-6809
inois	-6810
master	-6811
▁turk	-6812
▁furniture	-6813
▁carolina	-6814
▁3.	-6815
▁wherever	-6816
boat	-6817
▁embarr	-6818
▁morgan	-6819
▁limited	-6820
▁hid	-6821
▁liz	-6822
etts	-6823
ufact	-6824
▁sophi	-6825
▁reality	-6826
ira	-6827
▁ms	-6828
aging	-6829
▁suffer	-6830
▁creatures	-6831
▁facing	-6832
▁description	-6833
▁8,	-6834
▁tay	-6835
▁oxford	-6836
referring	-6837
▁championships	-6838
▁fc	-6839
rical	-6840
voice	-6841
▁merchan	-6842
bbed	-6843
▁cav	-6844
ulated	-6845
▁politics	-6846
▁embarrass	-6847
▁sadd	-6848
calais	-6849
▁begun	-6850
▁cakes	-6851
▁georgia	-6852
▁instance	-6853
▁2008	-6854
igator	-6855
perhaps	-6856
▁bullet	-6857
▁inhabitants	-6858
imit	-6859
▁pays	-6860
▁institute	-6861
▁ford	-6862
▁unfortunately	-6863
▁healthy	-6864
▁brid	-6865
▁bunk	-6866
lines	-6867
▁midnight	-6868
▁punch	-6869
▁loudly	-6870
▁meanwhile	-6871
▁neighborhood	-6872
▁32	-6873
▁rolls	-6874
▁sixth	-6875
▁leon	-6876
▁salad	-6877
▁connection	-6878
▁enthus	-6879
▁heavily	-6880
▁distinct	-6881
▁stamp	-6882
▁2012	-6883
▁bend	-6884
▁fits	-6885
▁engines	-6886
▁girlfri	-6887
▁traditional	-6888
jack	-6889
▁polish	-6890
▁safely	-6891
▁economy	-6892
▁illinois	-6893
▁manufact	-6894
dri	-6895
hmm	-6896
▁11,	-6897
erous	-6898
visions	-6899
ij	-6900
town	-6901
▁expecting	-6902
▁ee	-6903
▁returns	-6904
▁tribe	-6905
▁bom	-6906
▁scat	-6907
▁ugly	-6908
▁drift	-6909
▁disturb	-6910
▁compared	-6911
▁zero	-6912
▁nodded	-6913
▁gorge	-6914
▁momma	-6915
▁efforts	-6916
oli	-6917
▁quarters	-6918
▁merely	-6919
15	-6920
ague	-6921
▁eag	-6922
▁alan	-6923
▁crocodile	-6924
iments	-6925
▁jr	-6926
▁rit	-6927
▁wishes	-6928
▁conclud	-6929
athan	-6930
▁chip	-6931
▁uncom	-6932
▁az	-6933
osity	-6934
▁princi	-6935
▁sig	-6936
.)	-6937
▁mercy	-6938
necessary	-6939
▁cleaning	-6940
▁nonsense	-6941
▁sydney	-6942
▁anger	-6943
▁loyal	-6944
▁sheet	-6945
icing	-6946
▁baba	-6947
▁joan	-6948
▁anyhow	-6949
▁speaker	-6950
cur	-6951
▁ancest	-6952
▁sexual	-6953
▁constitution	-6954
▁atlantic	-6955
ok	-6956
▁9,	-6957
rian	-6958
song	-6959
▁persu	-6960
▁whoever	-6961
▁grateful	-6962
▁majority	-6963
▁gum	-6964
▁blew	-6965
▁trap	-6966
crying	-6967
▁headed	-6968
▁colored	-6969
▁calcul	-6970
▁slaves	-6971
▁pacific	-6972
▁patrick	-6973
▁ky	-6974
▁writ	-6975
▁reports	-6976
aska	-6977
▁stephen	-6978
▁clothing	-6979
▁affection	-6980
▁nominated	-6981
tail	-6982
▁pepper	-6983
▁attached	-6984
▁asks	-6985
▁distingu	-6986
▁describe	-6987
▁mcc	-6988
hicle	-6989
▁greet	-6990
▁pup	-6991
achus	-6992
▁benefit	-6993
azz	-6994
▁bisc	-6995
▁stup	-6996
▁wilson	-6997
▁artists	-6998
▁possession	-6999
▁bernard	-7000
▁charming	-7001
cuits	-7002
coln	-7003
rain	-7004
hem	-7005
▁tidy	-7006
▁basic	-7007
▁internet	-7008
▁financial	-7009
▁vain	-7010
▁rud	-7011
gun	-7012
▁rho	-7013
agan	-7014
babble	-7015
▁exhaust	-7016
▁15,	-7017
▁bea	-7018
00.	-7019
▁umbre	-7020
▁units	-7021
▁defense	-7022
aria	-7023
▁pip	-7024
▁industri	-7025
▁confl	-7026
▁rocket	-7027
▁reaching	-7028
▁independence	-7029
▁20,	-7030
▁harv	-7031
▁fuss	-7032
▁marsha	-7033
▁municipal	-7034
▁geography	-7035
▁bald	-7036
american	-7037
▁obliged	-7038
▁previously	-7039
break	-7040
▁pete	-7041
▁tray	-7042
▁islam	-7043
▁dull	-7044
▁confirmed	-7045
▁conscious	-7046
----"	-7047
▁carbon	-7048
▁remove	-7049
▁aircraft	-7050
▁hurricane	-7051
▁13,	-7052
▁lun	-7053
▁dreadful	-7054
▁considerable	-7055
aurs	-7056
▁jolly	-7057
▁nuclear	-7058
▁biscuits	-7059
▁disappointed	-7060
▁fare	-7061
▁refe	-7062
▁jewish	-7063
||3	-7064
▁fasc	-7065
▁utterances	-7066
iring	-7067
▁drag	-7068
▁concl	-7069
▁contains	-7070
▁pho	-7071
chool	-7072
▁belg	-7073
▁clark	-7074
▁covid	-7075
▁prayer	-7076
▁peep	-7077
▁capture	-7078
rd	-7079
▁poly	-7080
▁tournament	-7081
▁dey	-7082
▁asian	-7083
▁partly	-7084
▁explore	-7085
▁nowhere	-7086
▁helicopter	-7087
▁approaching	-7088
mate	-7089
▁muff	-7090
▁tales	-7091
▁stroke	-7092
squ	-7093
▁www	-7094
▁fid	-7095
▁jake	-7096
▁prompt	-7097
▁charlotte	-7098
▁pretending	-7099
heim	-7100
▁jas	-7101
never	-7102
bbie	-7103
▁sco	-7104
▁vast	-7105
▁script	-7106
▁confused	-7107
eer	-7108
▁actions	-7109
▁insurance	-7110
▁2014	-7111
▁martine	-7112
▁cupboard	-7113
▁─	-7114
▁2007	-7115
▁emma	-7116
iders	-7117
▁hits	-7118
▁stew	-7119
▁ceased	-7120
▁envelop	-7121
▁gabri	-7122
▁simon	-7123
spe	-7124
▁chew	-7125
▁bru	-7126
▁sung	-7127
▁retire	-7128
▁visited	-7129
cs	-7130
toys	-7131
▁achieve	-7132
▁battery	-7133
▁sed	-7134
▁lett	-7135
▁gates	-7136
▁budget	-7137
▁cheers	-7138
80	-7139
▁cycl	-7140
▁soil	-7141
▁examples	-7142
▁inquired	-7143
cons	-7144
ieur	-7145
▁stable	-7146
▁winnie	-7147
▁lincoln	-7148
achusetts	-7149
▁importance	-7150
▁costs	-7151
▁nicely	-7152
▁gee	-7153
▁image	-7154
▁vehicle	-7155
▁mans	-7156
▁smiles	-7157
mbur	-7158
▁atm	-7159
▁liver	-7160
▁stores	-7161
▁degrees	-7162
▁seasons	-7163
▁60	-7164
▁bicy	-7165
▁fame	-7166
▁percy	-7167
▁betray	-7168
▁anal	-7169
▁mild	-7170
▁billion	-7171
▁feeding	-7172
▁wicked	-7173
▁employ	-7174
▁estate	-7175
▁approached	-7176
▁ker	-7177
▁memor	-7178
▁horror	-7179
▁shy	-7180
▁todd	-7181
▁draft	-7182
▁tissue	-7183
▁supported	-7184
▁echo	-7185
▁acted	-7186
reaches	-7187
▁instantly	-7188
▁authorities	-7189
wide	-7190
▁prior	-7191
▁tremb	-7192
standing	-7193
rus	-7194
▁goose	-7195
▁primary	-7196
▁[6	-7197
▁rus	-7198
▁income	-7199
▁glanced	-7200
▁servants	-7201
▁2013	-7202
▁awa	-7203
▁aust	-7204
awa	-7205
lvania	-7206
▁armen	-7207
▁pist	-7208
▁cryst	-7209
▁amongst	-7210
▁ak	-7211
▁understanding	-7212
▁meow	-7213
▁partners	-7214
lace	-7215
▁dur	-7216
▁laun	-7217
▁2006	-7218
▁hood	-7219
rad	-7220
llie	-7221
▁dining	-7222
▁retreat	-7223
▁berlin	-7224
estic	-7225
somet	-7226
▁puff	-7227
▁sausage	-7228
▁massachusetts	-7229
▁[7	-7230
pass	-7231
▁virt	-7232
▁earned	-7233
▁classes	-7234
▁executive	-7235
rold	-7236
▁albums	-7237
▁winner	-7238
omi	-7239
ington	-7240
▁michi	-7241
▁pressed	-7242
▁desperate	-7243
▁commonly	-7244
▁boyfriend	-7245
▁francisco	-7246
▁client	-7247
nold	-7248
▁cin	-7249
▁canton	-7250
▁concert	-7251
rice	-7252
▁scientific	-7253
tv	-7254
sur	-7255
▁2009	-7256
▁minds	-7257
▁agreement	-7258
mann	-7259
▁programme	-7260
rets	-7261
▁commercial	-7262
bridge	-7263
▁kansas	-7264
▁provin	-7265
▁container	-7266
▁closes	-7267
▁mcdonalds	-7268
▁ult	-7269
▁sock	-7270
▁barry	-7271
▁injured	-7272
▁vacation	-7273
▁funeral	-7274
▁trained	-7275
corn	-7276
▁apo	-7277
▁cuts	-7278
grunts	-7279
▁films	-7280
▁survi	-7281
▁cattle	-7282
▁scratch	-7283
▁inches	-7284
eration	-7285
also	-7286
unte	-7287
▁deeply	-7288
▁loft	-7289
▁mons	-7290
eva	-7291
▁belle	-7292
▁defeated	-7293
yd	-7294
rac	-7295
▁viet	-7296
▁karen	-7297
▁twink	-7298
▁elephants	-7299
▁republican	-7300
▁stations	-7301
▁troubles	-7302
▁generation	-7303
▁cape	-7304
▁granny	-7305
▁arrival	-7306
▁16,	-7307
erted	-7308
▁runn	-7309
▁sher	-7310
▁noted	-7311
▁hunter	-7312
▁girlfriend	-7313
▁seal	-7314
because	-7315
▁dominic	-7316
▁pitched	-7317
▁confident	-7318
lls	-7319
▁scored	-7320
▁answers	-7321
▁figured	-7322
▁piggy	-7323
▁tempor	-7324
▁stretched	-7325
▁wanting	-7326
ths	-7327
▁lands	-7328
zes	-7329
▁impat	-7330
▁mobile	-7331
▁criminal	-7332
uals	-7333
▁25,	-7334
▁ske	-7335
▁violence	-7336
▁nord	-7337
▁repeat	-7338
▁household	-7339
▁14,	-7340
▁sup	-7341
▁items	-7342
aughters	-7343
▁serving	-7344
▁coloring	-7345
ophy	-7346
▁ka	-7347
▁budd	-7348
▁feast	-7349
▁seeds	-7350
▁valuable	-7351
▁dee	-7352
▁2021,	-7353
▁separated	-7354
urd	-7355
hens	-7356
keeper	-7357
▁acid	-7358
▁cwww	-7359
▁tune	-7360
▁rubber	-7361
▁nearest	-7362
▁eliminated	-7363
eau	-7364
▁blows	-7365
▁prospect	-7366
allas	-7367
▁sara	-7368
▁tickets	-7369
▁referred	-7370
▁illustrations	-7371
▁biscuit	-7372
▁sticker	-7373
draw	-7374
▁bench	-7375
▁linda	-7376
▁reign	-7377
▁online	-7378
▁18,	-7379
bution	-7380
▁lemme	-7381
▁vision	-7382
▁breathe	-7383
lon	-7384
adel	-7385
osphere	-7386
▁variety	-7387
▁counting	-7388
▁officially	-7389
tim	-7390
▁dirt	-7391
▁webs	-7392
▁volunte	-7393
▁whisper	-7394
▁lover	-7395
bob	-7396
eld	-7397
▁dora	-7398
▁solemn	-7399
▁honestly	-7400
▁reaction	-7401
▁forbid	-7402
▁guards	-7403
▁nuts	-7404
▁unex	-7405
▁conc	-7406
▁alongside	-7407
inter	-7408
▁impl	-7409
▁remaining	-7410
inky	-7411
sell	-7412
vet	-7413
gent	-7414
▁sax	-7415
lan	-7416
▁illness	-7417
▁une	-7418
▁mars	-7419
▁whale	-7420
phy	-7421
▁natives	-7422
▁dies	-7423
▁recommend	-7424
▁lyn	-7425
▁bore	-7426
▁roo	-7427
▁davis	-7428
▁committed	-7429
▁pee	-7430
▁carrot	-7431
▁presidential	-7432
▁osc	-7433
▁lung	-7434
▁attended	-7435
▁responded	-7436
▁friendship	-7437
eme	-7438
odes	-7439
▁2015	-7440
▁argent	-7441
▁sailing	-7442
▁rustling	-7443
▁{	-7444
rans	-7445
pected	-7446
____	-7447
aron	-7448
▁vessels	-7449
rily	-7450
▁scheme	-7451
▁expedition	-7452
▁toe	-7453
ppers	-7454
▁deputy	-7455
▁awarded	-7456
▁closing	-7457
▁foolish	-7458
▁umbrella	-7459
▁fee	-7460
▁ral	-7461
▁wins	-7462
▁ceremony	-7463
▁murdered	-7464
▁represented	-7465
▁2018,	-7466
▁launch	-7467
▁nearby	-7468
▁pirates	-7469
bet	-7470
rond	-7471
▁visitors	-7472
eves	-7473
every	-7474
▁satisfaction	-7475
▁scouts	-7476
▁dressing	-7477
tho	-7478
▁napp	-7479
▁starring	-7480
▁thoroughly	-7481
tou	-7482
aman	-7483
▁joint	-7484
▁triangle	-7485
▁naz	-7486
ropol	-7487
▁arrive	-7488
▁thrust	-7489
▁confeder	-7490
▁sciss	-7491
▁daughters	-7492
pse	-7493
▁pennsy	-7494
▁survive	-7495
continues	-7496
▁rh	-7497
▁arrow	-7498
▁defence	-7499
▁gran	-7500
▁jord	-7501
▁throne	-7502
▁builder	-7503
▁abd	-7504
▁baker	-7505
▁northwest	-7506
▁punishment	-7507
gir	-7508
▁zo	-7509
▁disci	-7510
▁highway	-7511
▁concern	-7512
▁interrupted	-7513
17	-7514
▁21,	-7515
▁acts	-7516
ologist	-7517
▁demonstr	-7518
--_	-7519
▁17,	-7520
▁sunny	-7521
▁strict	-7522
▁alco	-7523
▁cathy	-7524
alie	-7525
▁muslim	-7526
▁sacred	-7527
hr	-7528
eline	-7529
▁grat	-7530
▁numerous	-7531
▁panc	-7532
▁editor	-7533
▁mall	-7534
intend	-7535
enna	-7536
▁bomba	-7537
▁goo	-7538
▁conflict	-7539
had	-7540
lou	-7541
▁kevin	-7542
▁polite	-7543
▁olympic	-7544
▁surgery	-7545
▁belonged	-7546
▁strawberries	-7547
▁paused	-7548
imum	-7549
▁zorg	-7550
fit	-7551
omer	-7552
going	-7553
▁impress	-7554
▁larry	-7555
▁explanation	-7556
▁bells	-7557
▁trace	-7558
▁products	-7559
▁occasionally	-7560
▁drawer	-7561
▁thirsty	-7562
▁engineer	-7563
▁feathers	-7564
isse	-7565
▁ere	-7566
▁nas	-7567
▁2001	-7568
▁legisl	-7569
▁edition	-7570
ili	-7571
owa	-7572
agger	-7573
▁cind	-7574
culiar	-7575
16	-7576
pent	-7577
▁arch	-7578
gal	-7579
gues	-7580
round	-7581
▁ashore	-7582
▁chances	-7583
▁delightful	-7584
▁literature	-7585
▁35	-7586
ima	-7587
uge	-7588
▁chimney	-7589
▁michigan	-7590
▁touching	-7591
▁pennsylvania	-7592
▁lawn	-7593
▁bruce	-7594
▁liberty	-7595
▁tort	-7596
▁gimme	-7597
▁stated	-7598
▁peculiar	-7599
▁pand	-7600
▁shots	-7601
▁baa	-7602
sound	-7603
▁lewis	-7604
▁mexican	-7605
wat	-7606
zed	-7607
cking	-7608
▁amuse	-7609
▁spani	-7610
▁column	-7611
cca	-7612
hio	-7613
▁wend	-7614
▁volcan	-7615
▁anxiety	-7616
▁frances	-7617
bill	-7618
leton	-7619
ivered	-7620
▁allen	-7621
▁nathan	-7622
▁pregnant	-7623
▁benn	-7624
▁hannah	-7625
pher	-7626
▁loads	-7627
imately	-7628
▁mast	-7629
▁intelligence	-7630
▁cler	-7631
▁hath	-7632
▁multiple	-7633
ups	-7634
▁hired	-7635
▁regions	-7636
ros	-7637
▁beef	-7638
giving	-7639
▁fires	-7640
▁growth	-7641
▁noon	-7642
▁hambur	-7643
▁victoria	-7644
▁challenge	-7645
gate	-7646
▁beck	-7647
▁stupid	-7648
▁intense	-7649
▁enjoying	-7650
iner	-7651
▁tig	-7652
▁patients	-7653
▁dinosaurs	-7654
▁yeh	-7655
▁kelly	-7656
▁savage	-7657
▁raymond	-7658
esc	-7659
pson	-7660
▁stead	-7661
▁fantastic	-7662
anas	-7663
▁earl	-7664
▁capable	-7665
▁tremend	-7666
▁lightning	-7667
▁tide	-7668
ending	-7669
▁cleared	-7670
▁unhappy	-7671
stan	-7672
▁oink	-7673
▁belly	-7674
▁argument	-7675
▁investigation	-7676
▁districts	-7677
din	-7678
▁grim	-7679
▁mand	-7680
▁anthony	-7681
▁elements	-7682
▁mia	-7683
lley	-7684
▁gradually	-7685
▁fuel	-7686
▁joey	-7687
▁fanny	-7688
▁faithful	-7689
▁instrument	-7690
▁lip	-7691
▁innit	-7692
▁meters	-7693
pless	-7694
▁extent	-7695
▁encoura	-7696
▁pumpkin	-7697
star	-7698
▁oxy	-7699
'...	-7700
▁sniff	-7701
▁negative	-7702
wick	-7703
70	-7704
▁[8	-7705
▁surre	-7706
▁buffalo	-7707
▁austrian	-7708
▁seventeen	-7709
▁✿	-7710
kyo	-7711
▁bour	-7712
▁convinced	-7713
bir	-7714
lst	-7715
▁tack	-7716
acious	-7717
▁fetch	-7718
▁sailed	-7719
▁sought	-7720
▁30,	-7721
▁flow	-7722
▁packed	-7723
▁sticking	-7724
▁studying	-7725
▁golf	-7726
▁dallas	-7727
▁defeat	-7728
▁mysterious	-7729
rem	-7730
▁alphab	-7731
▁intention	-7732
▁swell	-7733
▁harbor	-7734
▁programs	-7735
▁activities	-7736
hey	-7737
apers	-7738
▁blaz	-7739
▁engage	-7740
▁basis	-7741
▁portion	-7742
▁bride	-7743
▁fisher	-7744
inity	-7745
▁limit	-7746
▁miche	-7747
▁churches	-7748
ops	-7749
▁clip	-7750
▁amanda	-7751
▁taylor	-7752
▁bearing	-7753
mom	-7754
▁ec	-7755
▁staring	-7756
kers	-7757
▁hopes	-7758
▁refers	-7759
▁spending	-7760
ips	-7761
cour	-7762
▁ais	-7763
mble	-7764
▁chop	-7765
cution	-7766
▁ridic	-7767
▁swept	-7768
▁orchest	-7769
▁millions	-7770
▁norman	-7771
▁22,	-7772
▁impact	-7773
▁rabbits	-7774
▁animated	-7775
▁cops	-7776
▁steep	-7777
teacher	-7778
▁leslie	-7779
▁rattle	-7780
▁crossing	-7781
▁scottish	-7782
▁vegetables	-7783
▁anchor	-7784
▁touches	-7785
▁catching	-7786
rated	-7787
▁imit	-7788
▁flies	-7789
▁infant	-7790
▁liberal	-7791
▁inspector	-7792
▁tak	-7793
mates	-7794
▁2004	-7795
▁mere	-7796
▁snakes	-7797
▁representatives	-7798
gai	-7799
▁cone	-7800
▁clare	-7801
▁draws	-7802
▁illeg	-7803
▁attacks	-7804
▁consist	-7805
▁manchester	-7806
away	-7807
▁ack	-7808
▁godd	-7809
▁spon	-7810
▁diana	-7811
▁scrap	-7812
pool	-7813
▁levels	-7814
▁lawrence	-7815
▁villages	-7816
▁lwww	-7817
aid	-7818
▁monsieur	-7819
▁congratulations	-7820
▁machines	-7821
▁incredible	-7822
13	-7823
ico	-7824
▁24,	-7825
eness	-7826
roy	-7827
▁trot	-7828
▁gorgeous	-7829
▁package	-7830
▁stam	-7831
▁grade	-7832
▁cooked	-7833
▁introduce	-7834
bors	-7835
aring	-7836
▁2017,	-7837
▁loire	-7838
▁childs	-7839
▁bicycle	-7840
▁squirrel	-7841
▁photo	-7842
▁brazilian	-7843
olk	-7844
force	-7845
▁1950	-7846
▁glob	-7847
▁germans	-7848
▁kenneth	-7849
▁extended	-7850
▁necklace	-7851
▁foundation	-7852
▁meg	-7853
iches	-7854
oy	-7855
▁lan	-7856
▁sie	-7857
itable	-7858
▁cherry	-7859
▁historical	-7860
▁harold	-7861
▁sticky	-7862
▁composed	-7863
▁robinson	-7864
▁mental	-7865
hu	-7866
rator	-7867
▁jordan	-7868
▁impression	-7869
pull	-7870
▁silk	-7871
▁outer	-7872
▁adopted	-7873
▁unexpected	-7874
aroo	-7875
▁beard	-7876
▁poland	-7877
▁dart	-7878
▁agric	-7879
ugs	-7880
would	-7881
▁dried	-7882
▁awfully	-7883
▁cheerful	-7884
lap	-7885
▁estim	-7886
utation	-7887
last	-7888
▁zebra	-7889
ón	-7890
▁23,	-7891
▁alt	-7892
▁tennis	-7893
▁graham	-7894
raine	-7895
▁jury	-7896
▁stays	-7897
▁candle	-7898
uls	-7899
▁[9	-7900
▁gloves	-7901
▁beating	-7902
▁emily	-7903
▁ballet	-7904
▁waving	-7905
▁threatened	-7906
lk	-7907
▁jay	-7908
▁lodge	-7909
▁patch	-7910
western	-7911
give	-7912
▁dign	-7913
▁kong	-7914
ckets	-7915
jamas	-7916
▁whir	-7917
▁charged	-7918
anche	-7919
▁gest	-7920
gger	-7921
▁hats	-7922
▁seed	-7923
▁perce	-7924
▁bottles	-7925
bag	-7926
▁wy	-7927
000.	-7928
▁device	-7929
▁flip	-7930
▁blake	-7931
▁ruled	-7932
▁graeme	-7933
▁disaster	-7934
whispering	-7935
▁19,	-7936
▁28,	-7937
▁warn	-7938
▁kidna	-7939
▁regarded	-7940
▁terribly	-7941
▁mice	-7942
▁frost	-7943
▁miller	-7944
▁organis	-7945
▁launched	-7946
ccer	-7947
▁fled	-7948
▁limb	-7949
▁mask	-7950
▁horiz	-7951
▁directions	-7952
▁stout	-7953
▁kindness	-7954
▁insisted	-7955
ben	-7956
grow	-7957
places	-7958
▁2020.	-7959
▁administration	-7960
woman	-7961
▁senator	-7962
▁howard	-7963
▁recovered	-7964
▁deed	-7965
▁victims	-7966
▁instructions	-7967
▁feature	-7968
▁sandwiches	-7969
▁bib	-7970
▁——	-7971
ibly	-7972
▁2005	-7973
▁willn	-7974
▁theater	-7975
lings	-7976
▁eagle	-7977
▁enorm	-7978
▁voyage	-7979
▁singles	-7980
three	-7981
▁mead	-7982
▁barely	-7983
▁poured	-7984
▁tricks	-7985
hist	-7986
▁electricity	-7987
▁thumb	-7988
▁sacrifice	-7989
tery	-7990
▁kin	-7991
▁depos	-7992
▁expert	-7993
▁shared	-7994
▁disgust	-7995
▁diet	-7996
▁snack	-7997
▁astron	-7998
▁marvel	-7999
theless	-8000
▁proceeded	-8001
▁sank	-8002
▁disag	-8003
▁refuse	-8004
▁agricult	-8005
fir	-8006
▁“‘	-8007
agon	-8008
uled	-8009
▁27,	-8010
▁steamer	-8011
▁cj	-8012
▁26,	-8013
▁tut	-8014
▁assured	-8015
▁associated	-8016
▁engineering	-8017
▁kitten	-8018
▁dropping	-8019
▁scissors	-8020
priate	-8021
▁bav	-8022
▁agency	-8023
▁invent	-8024
▁oxygen	-8025
▁childsname	-8026
▁industrial	-8027
sw	-8028
▁;	-8029
▁36	-8030
▁metropol	-8031
▁sometime	-8032
▁personally	-8033
gle	-8034
acity	-8035
▁perman	-8036
▁stared	-8037
▁charges	-8038
▁alphabet	-8039
▁seth	-8040
▁item	-8041
▁childhood	-8042
▁184	-8043
▁dram	-8044
▁mour	-8045
▁facts	-8046
▁knights	-8047
▁commit	-8048
▁articles	-8049
ati	-8050
▁spear	-8051
▁invite	-8052
▁(,	-8053
▁cushi	-8054
▁korean	-8055
▁attitude	-8056
tes	-8057
▁dwell	-8058
▁tokyo	-8059
▁aeropl	-8060
▁rainbow	-8061
▁bars	-8062
rah	-8063
▁bure	-8064
▁hated	-8065
▁poetry	-8066
▁visible	-8067
90	-8068
gins	-8069
lets	-8070
▁tad	-8071
asped	-8072
▁bond	-8073
▁patty	-8074
▁liquid	-8075
▁squeeze	-8076
▁louder	-8077
▁assistance	-8078
ika	-8079
glas	-8080
life	-8081
toy	-8082
kind	-8083
▁jonathan	-8084
▁2021)	-8085
▁rocky	-8086
▁hollow	-8087
▁generous	-8088
vocalization	-8089
riff	-8090
▁clo	-8091
refers	-8092
▁attorn	-8093
▁sweets	-8094
▁wrapped	-8095
▁atmosphere	-8096
▁2010,	-8097
▁kisses	-8098
▁tables	-8099
▁cabinet	-8100
▁leather	-8101
ashes	-8102
▁stress	-8103
▁applied	-8104
▁catherine	-8105
▁alien	-8106
▁blast	-8107
▁heading	-8108
phia	-8109
▁exhib	-8110
▁lasted	-8111
▁stretch	-8112
▁nesting	-8113
▁smoking	-8114
▁chickens	-8115
whines	-8116
▁categ	-8117
▁grief	-8118
▁swiss	-8119
▁feared	-8120
▁attempts	-8121
"),	-8122
coming	-8123
oes	-8124
▁affected	-8125
▁contents	-8126
parent	-8127
please	-8128
▁status	-8129
▁extraord	-8130
esome	-8131
▁claus	-8132
▁conven	-8133
▁reception	-8134
▁fried	-8135
▁concept	-8136
▁illustrated	-8137
amy	-8138
▁500	-8139
▁franklin	-8140
-3	-8141
▁phr	-8142
▁geoff	-8143
▁label	-8144
hetic	-8145
▁wool	-8146
▁somers	-8147
▁whilst	-8148
▁printed	-8149
text	-8150
ainted	-8151
▁digger	-8152
▁absence	-8153
▁sailors	-8154
▁helpless	-8155
▁centuries	-8156
▁ern	-8157
cycle	-8158
▁prisc	-8159
▁significant	-8160
▁pace	-8161
▁rack	-8162
▁apply	-8163
▁employe	-8164
▁raw	-8165
▁crept	-8166
▁robber	-8167
▁evolution	-8168
▁expressed	-8169
▁neighbors	-8170
▁(18	-8171
▁nevertheless	-8172
lord	-8173
▁flesh	-8174
▁aspect	-8175
▁volley	-8176
▁penguin	-8177
ruct	-8178
▁vin	-8179
▁flav	-8180
▁taxi	-8181
oph	-8182
yell	-8183
▁josh	-8184
▁scra	-8185
scri	-8186
▁boring	-8187
▁obtain	-8188
▁useless	-8189
▁acquaint	-8190
▁organized	-8191
bage	-8192
▁pom	-8193
▁dent	-8194
▁violent	-8195
▁miserable	-8196
▁resources	-8197
▁cel	-8198
▁firing	-8199
▁batteries	-8200
▁profession	-8201
25	-8202
ogue	-8203
▁stub	-8204
▁heels	-8205
▁spaces	-8206
▁mistaken	-8207
▁philadel	-8208
chr	-8209
▁symptom	-8210
hara	-8211
▁tramp	-8212
▁calend	-8213
▁holidays	-8214
▁kangaroo	-8215
▁biography	-8216
▁julie	-8217
▁shelf	-8218
▁slice	-8219
▁glue	-8220
▁roses	-8221
▁mothers	-8222
▁revenge	-8223
▁regional	-8224
▁frequently	-8225
▁aliens	-8226
▁tribes	-8227
▁uncons	-8228
▁crowded	-8229
▁underground	-8230
geo	-8231
baby	-8232
▁leads	-8233
.=	-8234
brush	-8235
▁alab	-8236
▁existence	-8237
▁mit	-8238
▁ease	-8239
▁comrades	-8240
▁sympathy	-8241
▁constantly	-8242
▁yourselves	-8243
armed	-8244
▁ohio	-8245
▁genus	-8246
▁duties	-8247
▁mississ	-8248
▁possibility	-8249
ishes	-8250
oused	-8251
moving	-8252
▁ridge	-8253
pres	-8254
▁recon	-8255
inder	-8256
▁supreme	-8257
ippi	-8258
aurus	-8259
inton	-8260
tries	-8261
▁brass	-8262
▁thief	-8263
▁kicked	-8264
▁laying	-8265
▁claimed	-8266
▁dragged	-8267
▁solution	-8268
▁appl	-8269
▁babe	-8270
thened	-8271
▁nasty	-8272
▁obvious	-8273
abor	-8274
ussing	-8275
▁spray	-8276
▁fridge	-8277
▁soccer	-8278
▁delivered	-8279
eve	-8280
oray	-8281
ysis	-8282
▁breeze	-8283
▁continu	-8284
▁gill	-8285
▁discussion	-8286
real	-8287
hical	-8288
▁decent	-8289
▁scholars	-8290
▁remarkable	-8291
nut	-8292
dale	-8293
rons	-8294
▁mack	-8295
▁awesome	-8296
▁guar	-8297
▁obst	-8298
haw	-8299
▁cert	-8300
▁luke	-8301
||0||0	-8302
▁theme	-8303
▁railroad	-8304
▁tremendous	-8305
jw	-8306
▁tas	-8307
▁accused	-8308
▁dynasty	-8309
▁candidate	-8310
▁priscilla	-8311
ocks	-8312
▁khan	-8313
ju	-8314
▁bc	-8315
belie	-8316
▁cheeky	-8317
▁pistol	-8318
anges	-8319
ourage	-8320
▁allah	-8321
▁hedge	-8322
▁prose	-8323
▁orchestra	-8324
vy	-8325
▁ig	-8326
▁haz	-8327
▁ket	-8328
▁tire	-8329
▁literally	-8330
▁pitt	-8331
▁cared	-8332
▁avenue	-8333
▁impatient	-8334
▁foss	-8335
▁peel	-8336
▁copies	-8337
▁nephew	-8338
▁warned	-8339
mote	-8340
▁samuel	-8341
▁valent	-8342
▁establish	-8343
▁suggestion	-8344
▁xv	-8345
▁dolph	-8346
umps	-8347
uted	-8348
▁mosc	-8349
ustomed	-8350
▁behavior	-8351
xy	-8352
▁ruin	-8353
▁suicide	-8354
aunt	-8355
▁ralph	-8356
▁swung	-8357
▁kilomet	-8358
cake	-8359
llip	-8360
efully	-8361
▁shield	-8362
▁grounds	-8363
▁moses	-8364
▁sting	-8365
▁deserve	-8366
▁2022,	-8367
amation	-8368
orous	-8369
▁edna	-8370
▁philadelphia	-8371
gain	-8372
ranscribed	-8373
▁29,	-8374
▁archer	-8375
▁douglas	-8376
▁45	-8377
▁dug	-8378
▁constitu	-8379
▁delicate	-8380
hard	-8381
▁gary	-8382
▁absor	-8383
▁begged	-8384
▁ending	-8385
mination	-8386
▁obtained	-8387
▁era	-8388
▁recall	-8389
▁bos	-8390
▁dal	-8391
▁dna	-8392
▁rick	-8393
▁cowboy	-8394
▁grocer	-8395
▁jessie	-8396
▁apologize	-8397
▁newspapers	-8398
▁drank	-8399
▁operations	-8400
acles	-8401
▁movements	-8402
etic	-8403
▁2016,	-8404
▁panda	-8405
▁sweep	-8406
▁gardens	-8407
▁merchant	-8408
▁bou	-8409
▁chum	-8410
▁faced	-8411
fin	-8412
▁vit	-8413
jamin	-8414
nders	-8415
▁patri	-8416
▁arnold	-8417
▁autumn	-8418
gives	-8419
▁closet	-8420
▁critical	-8421
▁wes	-8422
▁chasing	-8423
▁circles	-8424
▁sheriff	-8425
▁arkansas	-8426
▁clara	-8427
▁comin	-8428
▁carter	-8429
▁troubled	-8430
▁len	-8431
maybe	-8432
▁root	-8433
rand	-8434
▁2011,	-8435
▁goddess	-8436
▁collected	-8437
▁utterance	-8438
▁bry	-8439
▁roots	-8440
▁blessed	-8441
▁favourite	-8442
▁proced	-8443
▁seventh	-8444
▁resolved	-8445
22	-8446
lson	-8447
▁appointment	-8448
▁personality	-8449
/020	-8450
inda	-8451
▁canal	-8452
▁mississippi	-8453
nik	-8454
arse	-8455
▁gear	-8456
▁burton	-8457
▁monarch	-8458
▁daylight	-8459
ifer	-8460
▁vari	-8461
▁overall	-8462
iven	-8463
▁mini	-8464
▁midst	-8465
▁invitation	-8466
erg	-8467
▁resistance	-8468
▁accompanied	-8469
▁2003	-8470
▁gazed	-8471
idering	-8472
;"	-8473
▁heap	-8474
▁exceed	-8475
▁pierre	-8476
▁prefect	-8477
200	-8478
▁bacon	-8479
hearted	-8480
▁skipper	-8481
▁stuffed	-8482
▁elections	-8483
▁nod	-8484
▁dess	-8485
▁passes	-8486
▁sul	-8487
asion	-8488
▁2002	-8489
▁chef	-8490
inking	-8491
▁moscow	-8492
▁materials	-8493
▁mush	-8494
▁races	-8495
▁attorney	-8496
▁situ	-8497
▁announce	-8498
▁maintain	-8499
▁superior	-8500
ema	-8501
oti	-8502
oved	-8503
▁twins	-8504
▁unique	-8505
▁forests	-8506
▁concluded	-8507
▁nu	-8508
▁gifts	-8509
▁memories	-8510
▁software	-8511
▁reference	-8512
――	-8513
burn	-8514
▁helmet	-8515
▁tastes	-8516
izations	-8517
▁revealed	-8518
▁vii	-8519
▁submar	-8520
▁manners	-8521
▁mounted	-8522
▁tourist	-8523
▁musician	-8524
iffe	-8525
▁dak	-8526
▁angle	-8527
▁flour	-8528
▁praise	-8529
▁regiment	-8530
–19	-8531
otic	-8532
urbed	-8533
▁viii	-8534
▁patience	-8535
▁bah	-8536
▁arose	-8537
▁gross	-8538
▁potty	-8539
▁beaten	-8540
▁collap	-8541
▁dismiss	-8542
▁instinct	-8543
adesh	-8544
▁mend	-8545
eating	-8546
▁assume	-8547
▁bureau	-8548
▁enormous	-8549
▁183	-8550
▁marky	-8551
▁wendy	-8552
▁perfor	-8553
▁covering	-8554
▁rect	-8555
utions	-8556
▁expand	-8557
▁worthy	-8558
▁magnific	-8559
▁gettin	-8560
▁indign	-8561
▁owners	-8562
▁kissing	-8563
bus	-8564
mag	-8565
▁4.	-8566
▁zone	-8567
▁stool	-8568
▁anxiously	-8569
▁lil	-8570
▁twin	-8571
▁2019.	-8572
▁catal	-8573
▁views	-8574
▁swedish	-8575
unnecessary	-8576
ifying	-8577
urious	-8578
▁extraordinary	-8579
uki	-8580
inea	-8581
▁happily	-8582
▁gaze	-8583
▁additional	-8584
▁inner	-8585
▁rober	-8586
▁alabama	-8587
home	-8588
▁subt	-8589
mill	-8590
▁300	-8591
▁grows	-8592
squeals	-8593
▁session	-8594
▁aqu	-8595
becca	-8596
ision	-8597
▁beet	-8598
▁rein	-8599
▁comed	-8600
▁representative	-8601
mod	-8602
mor	-8603
list	-8604
pple	-8605
▁breaks	-8606
▁worship	-8607
▁strongly	-8608
▁"_	-8609
alle	-8610
cked	-8611
▁tenn	-8612
▁actors	-8613
▁referring	-8614
21	-8615
?]	-8616
osing	-8617
cience	-8618
▁clubs	-8619
▁roast	-8620
▁treas	-8621
▁guarant	-8622
▁subjects	-8623
both	-8624
▁hong	-8625
▁entering	-8626
▁southeast	-8627
▁depression	-8628
pit	-8629
▁dipl	-8630
▁merc	-8631
▁strip	-8632
▁weary	-8633
▁widow	-8634
▁mischief	-8635
▁gathering	-8636
respo	-8637
▁fiction	-8638
▁interfe	-8639
tu	-8640
▁annual	-8641
▁gw	-8642
▁(198	-8643
▁abra	-8644
▁lions	-8645
▁calendar	-8646
▁convention	-8647
-4	-8648
grand	-8649
▁sharply	-8650
▁searching	-8651
kim	-8652
▁ore	-8653
▁cannon	-8654
▁scenes	-8655
▁guardian	-8656
bute	-8657
▁aun	-8658
▁gulf	-8659
▁bills	-8660
▁austin	-8661
▁beings	-8662
▁dw	-8663
▁core	-8664
▁toby	-8665
▁stall	-8666
▁thread	-8667
▁costume	-8668
▁hastily	-8669
▁youngest	-8670
ains	-8671
rial	-8672
▁ing	-8673
▁collea	-8674
▁joking	-8675
▁parrot	-8676
▁dealing	-8677
▁complicated	-8678
▁sult	-8679
▁reject	-8680
▁porch	-8681
▁acknow	-8682
▁resting	-8683
▁aloud	-8684
▁endea	-8685
▁jackie	-8686
kerchief	-8687
▁admiral	-8688
▁curiosity	-8689
500	-8690
hands	-8691
▁sean	-8692
▁blues	-8693
nothing	-8694
▁bronze	-8695
aks	-8696
▁divorce	-8697
▁invented	-8698
▁confusion	-8699
▁ira	-8700
▁pon	-8701
▁norway	-8702
▁tang	-8703
▁burnt	-8704
▁experienced	-8705
ras	-8706
enses	-8707
still	-8708
▁tube	-8709
lement	-8710
▁2010.	-8711
▁perse	-8712
▁housing	-8713
▁domestic	-8714
▁swinging	-8715
▁administrative	-8716
▁vest	-8717
▁baron	-8718
▁preparing	-8719
▁conservative	-8720
class	-8721
▁ridiculous	-8722
▁ink	-8723
▁las	-8724
▁oscar	-8725
▁smells	-8726
▁impressed	-8727
vor	-8728
▁2011.	-8729
▁dennis	-8730
▁hooray	-8731
▁ku	-8732
]...	-8733
inate	-8734
▁juan	-8735
▁semi	-8736
▁stab	-8737
▁broom	-8738
▁bucks	-8739
▁naval	-8740
▁jews	-8741
kward	-8742
▁solar	-8743
▁bubble	-8744
ni	-8745
▁33	-8746
wait	-8747
zech	-8748
hello	-8749
▁katie	-8750
▁frozen	-8751
▁genius	-8752
▁register	-8753
▁destruction	-8754
▁crab	-8755
▁walt	-8756
▁greece	-8757
▁discipl	-8758
▁prayers	-8759
▁reasonable	-8760
▁cares	-8761
▁global	-8762
▁gb	-8763
works	-8764
▁penal	-8765
▁insist	-8766
▁envelope	-8767
▁episodes	-8768
yo	-8769
first	-8770
▁rage	-8771
▁candles	-8772
▁bun	-8773
▁bean	-8774
▁paraly	-8775
▁operating	-8776
▁crisis	-8777
▁causing	-8778
▁protected	-8779
▁considering	-8780
does	-8781
▁shaw	-8782
▁urban	-8783
▁abroad	-8784
▁appeal	-8785
▁inclined	-8786
▁lod	-8787
▁bugs	-8788
▁collar	-8789
▁massive	-8790
uno	-8791
▁2017.	-8792
▁nails	-8793
▁evelyn	-8794
▁shells	-8795
▁wolves	-8796
speaking	-8797
▁columbia	-8798
esar	-8799
ffin	-8800
▁gam	-8801
▁hip	-8802
count	-8803
▁fake	-8804
▁2013.	-8805
▁bands	-8806
▁click	-8807
▁creation	-8808
▁cure	-8809
▁visitor	-8810
▁stealing	-8811
▁automob	-8812
▁floating	-8813
cap	-8814
cor	-8815
colm	-8816
▁chor	-8817
▁glim	-8818
▁jill	-8819
▁2018.	-8820
▁[$=	-8821
▁ruff	-8822
▁hitting	-8823
▁benjamin	-8824
▁checking	-8825
▁dashed	-8826
▁forehead	-8827
▁subs	-8828
▁2021.	-8829
▁adults	-8830
▁beloved	-8831
▁melissa	-8832
▁trailer	-8833
▁startled	-8834
▁scattered	-8835
▁accustomed	-8836
▁conclusion	-8837
▁reputation	-8838
▁pars	-8839
▁photos	-8840
▁raising	-8841
▁stanley	-8842
▁aeroplane	-8843
▁myt	-8844
▁minnes	-8845
▁awkward	-8846
▁precise	-8847
▁thankful	-8848
ded	-8849
era	-8850
ubb	-8851
omed	-8852
holding	-8853
▁harris	-8854
▁ruined	-8855
jud	-8856
▁lob	-8857
▁spoons	-8858
▁contained	-8859
▁hud	-8860
piece	-8861
▁rasp	-8862
▁multi	-8863
▁tests	-8864
▁colony	-8865
▁latest	-8866
▁rushing	-8867
▁strangers	-8868
▁dimit	-8869
▁moore	-8870
▁meantime	-8871
▁crane	-8872
▁minnesota	-8873
uma	-8874
▁firmly	-8875
▁uncomfort	-8876
gets	-8877
isie	-8878
▁[2.	-8879
▁debt	-8880
▁sack	-8881
▁ther	-8882
▁bounce	-8883
▁willie	-8884
▁despair	-8885
||4	-8886
unted	-8887
▁1996	-8888
▁batt	-8889
▁terrific	-8890
iences	-8891
▁waist	-8892
tot	-8893
vas	-8894
▁?[	-8895
▁iowa	-8896
▁leap	-8897
▁solo	-8898
▁shade	-8899
▁vietnam	-8900
itors	-8901
▁sites	-8902
▁skirt	-8903
▁barrel	-8904
▁questioned	-8905
▁marine	-8906
▁banging	-8907
▁slippers	-8908
oke	-8909
ooped	-8910
▁(197	-8911
▁planes	-8912
▁writes	-8913
▁deliber	-8914
▁secrets	-8915
▁knocking	-8916
▁sear	-8917
▁copper	-8918
▁gerald	-8919
▁orphan	-8920
itage	-8921
▁czech	-8922
▁dared	-8923
▁wrist	-8924
▁refuge	-8925
▁widely	-8926
▁relatives	-8927
▁metropolitan	-8928
ku	-8929
▁brac	-8930
▁tops	-8931
▁replace	-8932
▁visiting	-8933
▁explosion	-8934
▁gamb	-8935
▁obey	-8936
▁appet	-8937
▁peach	-8938
▁pockets	-8939
gb	-8940
▁adams	-8941
▁hindu	-8942
▁cultural	-8943
▁informed	-8944
▁34	-8945
▁80	-8946
▁ignor	-8947
▁bananas	-8948
▁hurting	-8949
▁graduated	-8950
ère	-8951
▁1930	-8952
▁andre	-8953
▁instruments	-8954
state	-8955
▁cuddle	-8956
▁muttered	-8957
anne	-8958
ivers	-8959
▁sque	-8960
▁worm	-8961
▁boris	-8962
▁rival	-8963
▁claire	-8964
▁combat	-8965
▁guinea	-8966
▁intend	-8967
▁barking	-8968
▁earthqu	-8969
▁reviews	-8970
wns	-8971
▁dah	-8972
▁zoe	-8973
▁kath	-8974
▁leo	-8975
▁waved	-8976
▁queens	-8977
▁digging	-8978
▁yield	-8979
▁lighted	-8980
black	-8981
gage	-8982
▁hans	-8983
▁claims	-8984
▁hallow	-8985
▁granted	-8986
fight	-8987
▁reads	-8988
▁loaded	-8989
▁sophie	-8990
▁symptoms	-8991
hile	-8992
made	-8993
▁pea	-8994
▁judy	-8995
▁travelling	-8996
ghan	-8997
▁raven	-8998
▁shepher	-8999
▁accounts	-9000
lah	-9001
omon	-9002
▁bows	-9003
▁inch	-9004
▁danced	-9005
▁vienna	-9006
▁employed	-9007
pea	-9008
vant	-9009
▁indo	-9010
▁berry	-9011
24	-9012
whe	-9013
▁vul	-9014
▁vehic	-9015
▁adjust	-9016
▁sighed	-9017
▁imperial	-9018
▁journalist	-9019
▁+	-9020
bec	-9021
▁bbc	-9022
▁listed	-9023
▁leaning	-9024
▁offering	-9025
▁addressed	-9026
dan	-9027
hon	-9028
hoo	-9029
▁ix	-9030
inks	-9031
▁gig	-9032
▁2012,	-9033
▁2014,	-9034
▁crawl	-9035
▁inher	-9036
▁alfred	-9037
▁behave	-9038
▁illegal	-9039
▁footballer	-9040
▁$1	-9041
▁deaths	-9042
▁needle	-9043
▁alcohol	-9044
▁communist	-9045
quet	-9046
▁2013,	-9047
▁jacob	-9048
▁injury	-9049
▁venture	-9050
▁southwest	-9051
iry	-9052
▁jen	-9053
▁kaz	-9054
▁mes	-9055
▁interests	-9056
▁handkerchief	-9057
▁ey	-9058
▁worldwide	-9059
▁70	-9060
okay	-9061
ingle	-9062
▁bored	-9063
▁horns	-9064
▁martha	-9065
▁spaniards	-9066
upon	-9067
▁hend	-9068
▁flung	-9069
▁intent	-9070
rondisse	-9071
▁cleaned	-9072
▁selfish	-9073
▁unfortunate	-9074
▁gap	-9075
▁pel	-9076
▁manip	-9077
▁bumper	-9078
bad	-9079
rors	-9080
▁seld	-9081
▁sponge	-9082
▁rebecca	-9083
▁interrupts	-9084
▁farmers	-9085
▁effective	-9086
▁obe	-9087
▁malcolm	-9088
▁reminds	-9089
▁balloons	-9090
▁practical	-9091
uits	-9092
▁musk	-9093
▁shouts	-9094
▁equally	-9095
▁communication	-9096
stop	-9097
antha	-9098
▁kite	-9099
▁talent	-9100
▁longest	-9101
▁90	-9102
group	-9103
▁prob	-9104
▁vroom	-9105
▁weigh	-9106
▁puzzled	-9107
▁customers	-9108
▁potential	-9109
gasp	-9110
▁egyptian	-9111
▁possessed	-9112
jor	-9113
▁lookee	-9114
▁bloss	-9115
▁pajamas	-9116
▁pops	-9117
▁blackie	-9118
▁holland	-9119
▁opposition	-9120
ec	-9121
▁5.	-9122
▁palm	-9123
▁twist	-9124
▁digital	-9125
▁northeast	-9126
▁christians	-9127
flies	-9128
▁antonio	-9129
▁oranges	-9130
▁testing	-9131
▁cheering	-9132
▁prec	-9133
▁corporation	-9134
iac	-9135
▁2015,	-9136
▁thorn	-9137
▁fai	-9138
agers	-9139
derer	-9140
▁assass	-9141
▁michelle	-9142
▁bew	-9143
asses	-9144
▁drives	-9145
▁bavaria	-9146
▁supplies	-9147
ender	-9148
▁nanny	-9149
▁counted	-9150
▁vehicles	-9151
▁1992	-9152
▁accur	-9153
▁cable	-9154
▁identity	-9155
▁exhausted	-9156
umm	-9157
grim	-9158
oshi	-9159
steps	-9160
▁fans	-9161
▁burns	-9162
▁skills	-9163
▁crystal	-9164
▁fastened	-9165
▁ful	-9166
▁dates	-9167
▁skull	-9168
▁ris	-9169
▁wrap	-9170
▁2012.	-9171
▁marched	-9172
hill	-9173
▁ida	-9174
▁neut	-9175
▁2008.	-9176
▁blown	-9177
▁cousins	-9178
past	-9179
cules	-9180
▁iris	-9181
mc	-9182
—”	-9183
obs	-9184
pas	-9185
stick	-9186
hology	-9187
taking	-9188
▁ambass	-9189
hur	-9190
▁rip	-9191
▁naked	-9192
▁crashed	-9193
▁debbie	-9194
▁devoted	-9195
▁positions	-9196
▁charity	-9197
▁monsters	-9198
vent	-9199
▁mul	-9200
▁johan	-9201
▁urged	-9202
▁nelson	-9203
▁drowned	-9204
▁heh	-9205
mission	-9206
▁notable	-9207
fied	-9208
▁hugh	-9209
▁corps	-9210
▁pears	-9211
ré	-9212
cript	-9213
eries	-9214
▁1999	-9215
malley	-9216
▁burden	-9217
▁saddle	-9218
▁monkeys	-9219
▁solve	-9220
▁approx	-9221
▁treaty	-9222
▁necessarily	-9223
sho	-9224
inging	-9225
vation	-9226
▁diagn	-9227
▁shriek	-9228
pi	-9229
bai	-9230
acht	-9231
▁moral	-9232
▁allows	-9233
▁reserve	-9234
▁hab	-9235
▁nit	-9236
▁pearl	-9237
▁adding	-9238
▁regist	-9239
▁shadows	-9240
▁appropriate	-9241
til	-9242
via	-9243
inny	-9244
osis	-9245
▁lest	-9246
▁poem	-9247
▁pouring	-9248
dam	-9249
▁yer	-9250
▁hence	-9251
▁scrub	-9252
hv	-9253
▁ll	-9254
▁virus	-9255
▁dispos	-9256
▁reform	-9257
recorder	-9258
▁immense	-9259
▁imagination	-9260
▁murderer	-9261
▁attractive	-9262
boys	-9263
▁scand	-9264
▁votes	-9265
▁suspected	-9266
▁una	-9267
chers	-9268
little	-9269
▁alaska	-9270
▁atom	-9271
▁radi	-9272
▁lookin	-9273
xed	-9274
vals	-9275
▁wig	-9276
▁pigs	-9277
▁stuart	-9278
▁ceiling	-9279
▁plainly	-9280
▁curtains	-9281
▁hopefully	-9282
bee	-9283
▁eter	-9284
▁2009.	-9285
▁murmured	-9286
▁bapt	-9287
▁galax	-9288
▁olive	-9289
,.	-9290
▁conver	-9291
▁muscles	-9292
▁comments	-9293
▁attempted	-9294
▁provinces	-9295
untranscribed	-9296
▁simpl	-9297
▁physics	-9298
▁sharing	-9299
▁commanded	-9300
umin	-9301
▁fog	-9302
▁hah	-9303
▁kam	-9304
▁prices	-9305
▁isa	-9306
▁clin	-9307
▁opposed	-9308
▁computers	-9309
▁:	-9310
▁obser	-9311
▁comrade	-9312
▁counsel	-9313
▁dreaming	-9314
▁classical	-9315
call	-9316
eling	-9317
▁amid	-9318
▁2014.	-9319
▁cathed	-9320
▁dreamed	-9321
▁delivery	-9322
▁judgment	-9323
▁environmental	-9324
aro	-9325
▁knot	-9326
▁aunty	-9327
▁ranch	-9328
▁tones	-9329
▁reduced	-9330
▁meetings	-9331
high	-9332
▁skip	-9333
▁mason	-9334
▁stair	-9335
▁lecture	-9336
▁schedule	-9337
▁immediate	-9338
23	-9339
wind	-9340
▁gown	-9341
▁2022)	-9342
▁jewel	-9343
▁bedtime	-9344
▁counties	-9345
▁traveling	-9346
▁controlled	-9347
▁uncomfortable	-9348
olf	-9349
▁ew	-9350
▁coke	-9351
▁hart	-9352
▁bracel	-9353
▁brooklyn	-9354
apore	-9355
▁crum	-9356
▁satell	-9357
▁combined	-9358
cill	-9359
elia	-9360
ezes	-9361
oise	-9362
▁unp	-9363
▁exception	-9364
▁surrounding	-9365
una	-9366
▁comic	-9367
▁donkey	-9368
agu	-9369
ugged	-9370
▁robbie	-9371
▁celebrate	-9372
cry	-9373
itals	-9374
▁seldom	-9375
▁abandoned	-9376
▁prey	-9377
clears	-9378
▁aaron	-9379
▁incor	-9380
▁niger	-9381
▁terry	-9382
touches	-9383
▁municipalities	-9384
load	-9385
▁(196	-9386
▁snat	-9387
certain	-9388
▁typical	-9389
tub	-9390
▁dwar	-9391
▁lied	-9392
▁grape	-9393
▁initi	-9394
▁wears	-9395
▁nothin	-9396
▁glorious	-9397
dist	-9398
borough	-9399
▁merged	-9400
▁resign	-9401
▁violin	-9402
▁dessert	-9403
▁supporting	-9404
▁mant	-9405
▁contem	-9406
▁repair	-9407
▁turkish	-9408
▁relative	-9409
▁`	-9410
got	-9411
▁whar	-9412
pushes	-9413
▁assure	-9414
▁parker	-9415
▁methods	-9416
▁correspo	-9417
▁receiving	-9418
bat	-9419
ello	-9420
april	-9421
▁1998	-9422
▁consum	-9423
▁critics	-9424
etime	-9425
onent	-9426
▁offers	-9427
▁anticip	-9428
ois	-9429
free	-9430
▁pion	-9431
▁whip	-9432
▁males	-9433
▁inspired	-9434
▁ny	-9435
▁images	-9436
▁outfit	-9437
▁packet	-9438
▁soda	-9439
▁vanished	-9440
▁passenger	-9441
▁submarine	-9442
▁increasing	-9443
▁philosophy	-9444
god	-9445
kno	-9446
rell	-9447
wall	-9448
▁everyday	-9449
▁relieved	-9450
▁louisiana	-9451
45	-9452
▁gut	-9453
▁hil	-9454
▁och	-9455
ilton	-9456
peare	-9457
▁peop	-9458
aneous	-9459
▁negle	-9460
▁suspicious	-9461
▁hose	-9462
▁waff	-9463
▁clerk	-9464
▁dischar	-9465
▁kicking	-9466
▁distress	-9467
dear	-9468
▁bade	-9469
▁clue	-9470
▁freder	-9471
▁timber	-9472
▁joining	-9473
▁individuals	-9474
▁dean	-9475
▁2007.	-9476
▁slope	-9477
▁sheets	-9478
▁ank	-9479
astern	-9480
▁enterpri	-9481
▁disappointment	-9482
";	-9483
▁ian	-9484
phones	-9485
▁2018)	-9486
▁rotten	-9487
▁allison	-9488
▁harrison	-9489
▁unconscious	-9490
▁avi	-9491
ensity	-9492
▁haste	-9493
▁rested	-9494
▁carries	-9495
▁versions	-9496
aya	-9497
asant	-9498
▁fifa	-9499
▁loan	-9500
▁shone	-9501
▁patrol	-9502
▁starred	-9503
▁bleeding	-9504
▁moss	-9505
icians	-9506
▁dustbin	-9507
▁alternative	-9508
inent	-9509
▁clam	-9510
▁needn	-9511
▁singapore	-9512
▁karl	-9513
▁crimes	-9514
▁statue	-9515
▁dresses	-9516
oty	-9517
▁lean	-9518
▁leaped	-9519
▁compass	-9520
▁permitted	-9521
▁curly	-9522
▁bacter	-9523
▁kennedy	-9524
▁experiences	-9525
aves	-9526
maid	-9527
▁hem	-9528
▁2009,	-9529
▁borders	-9530
▁dimitra	-9531
something	-9532
▁cem	-9533
▁composer	-9534
▁disturbed	-9535
▁technical	-9536
▁uncertain	-9537
▁fortunately	-9538
▁magnificent	-9539
sky	-9540
▁bak	-9541
▁consent	-9542
▁ts	-9543
agne	-9544
shot	-9545
▁octop	-9546
▁dancer	-9547
▁heavens	-9548
▁distract	-9549
▁principle	-9550
jer	-9551
▁kas	-9552
▁rig	-9553
▁sweat	-9554
▁therap	-9555
▁rangers	-9556
▁blankets	-9557
▁consists	-9558
▁customer	-9559
▁encourage	-9560
▁trembling	-9561
bac	-9562
▁ens	-9563
▁sty	-9564
▁wheat	-9565
▁harmon	-9566
▁survey	-9567
▁180	-9568
uther	-9569
▁chalk	-9570
▁circuit	-9571
▁doorway	-9572
▁founder	-9573
▁volleyball	-9574
mons	-9575
▁ivan	-9576
▁sober	-9577
▁kettle	-9578
mund	-9579
onto	-9580
▁mixt	-9581
▁marty	-9582
▁minus	-9583
▁permanent	-9584
hole	-9585
▁agents	-9586
children	-9587
▁cartoon	-9588
▁farewell	-9589
lld	-9590
▁2008,	-9591
▁pudding	-9592
▁regarding	-9593
▁arrangements	-9594
mam	-9595
▁rehe	-9596
▁scul	-9597
▁sadly	-9598
▁negoti	-9599
▁painful	-9600
▁suitable	-9601
six	-9602
▁hint	-9603
▁jumps	-9604
▁whereas	-9605
rett	-9606
▁1940	-9607
bourne	-9608
▁charm	-9609
▁dial	-9610
▁flame	-9611
▁grabs	-9612
▁swamp	-9613
ication	-9614
▁suspicion	-9615
▁conscience	-9616
itled	-9617
▁hire	-9618
silver	-9619
▁flows	-9620
):	-9621
mail	-9622
▁urs	-9623
▁caval	-9624
▁sails	-9625
greg	-9626
▁mim	-9627
▁alert	-9628
▁shiny	-9629
dor	-9630
▁lear	-9631
▁pots	-9632
▁drill	-9633
▁wisdom	-9634
▁bullets	-9635
▁females	-9636
▁messages	-9637
▁sensible	-9638
▁stickers	-9639
abled	-9640
▁dock	-9641
▁sculpt	-9642
iah	-9643
hslld	-9644
▁nichol	-9645
▁sultan	-9646
▁universal	-9647
▁shakespeare	-9648
mind	-9649
▁plum	-9650
▁camel	-9651
▁diale	-9652
▁stripes	-9653
▁chemistry	-9654
▁panic	-9655
▁formal	-9656
▁issued	-9657
▁rebell	-9658
▁rocking	-9659
▁improved	-9660
▁attracted	-9661
uffy	-9662
▁diff	-9663
▁fries	-9664
▁remote	-9665
▁descend	-9666
▁conductor	-9667
▁practically	-9668
▁6.	-9669
▁cole	-9670
istinct	-9671
▁departure	-9672
▁eleg	-9673
▁lass	-9674
▁dating	-9675
▁metres	-9676
▁phrase	-9677
▁helpful	-9678
▁writers	-9679
▁promptly	-9680
▁kal	-9681
▁sew	-9682
white	-9683
▁amos	-9684
▁spar	-9685
▁disgr	-9686
▁bundle	-9687
▁elector	-9688
▁persian	-9689
▁warriors	-9690
▁photograp	-9691
▁lend	-9692
▁troll	-9693
reading	-9694
▁integr	-9695
▁scramb	-9696
▁cunning	-9697
▁yelling	-9698
▁viv	-9699
leans	-9700
▁dale	-9701
school	-9702
ulting	-9703
▁creep	-9704
▁pence	-9705
▁insult	-9706
cos	-9707
▁duc	-9708
▁1988	-9709
▁nerve	-9710
▁chuckles	-9711
▁forbidden	-9712
▁consideration	-9713
▁tai	-9714
▁hunger	-9715
▁councill	-9716
▁homework	-9717
ndry	-9718
▁hank	-9719
▁ment	-9720
▁bully	-9721
▁lakes	-9722
▁deeper	-9723
▁jennifer	-9724
▁cathedral	-9725
▁surprising	-9726
▁businessman	-9727
encies	-9728
▁alike	-9729
▁striking	-9730
tca	-9731
▁backs	-9732
inating	-9733
▁miracle	-9734
▁interior	-9735
▁answering	-9736
▁ambassador	-9737
▁controvers	-9738
▁whispering	-9739
cj	-9740
▁melo	-9741
▁argue	-9742
▁mario	-9743
▁lettuce	-9744
▁russell	-9745
bef	-9746
▁guid	-9747
▁yorkshire	-9748
even	-9749
smith	-9750
▁gene	-9751
▁raid	-9752
▁license	-9753
▁privile	-9754
▁uttered	-9755
▁divorced	-9756
▁elevator	-9757
▁ministry	-9758
▁mistakes	-9759
ctic	-9760
rics	-9761
sniff	-9762
▁files	-9763
▁indones	-9764
du	-9765
▁cris	-9766
▁caesar	-9767
▁humming	-9768
▁trapped	-9769
▁hollywood	-9770
▁lengthened	-9771
mrs	-9772
ught	-9773
▁daw	-9774
▁cust	-9775
▁sled	-9776
▁grain	-9777
▁wayne	-9778
▁warrior	-9779
▁anderson	-9780
▁intelligent	-9781
tan	-9782
blows	-9783
▁camping	-9784
▁scarlet	-9785
▁paintings	-9786
grm	-9787
▁jazz	-9788
▁wigg	-9789
▁gallop	-9790
▁cemeter	-9791
▁mushroom	-9792
▁purposes	-9793
jab	-9794
▁medium	-9795
▁strain	-9796
▁historic	-9797
tah	-9798
▁sust	-9799
▁angels	-9800
dles	-9801
▁2006,	-9802
▁telly	-9803
▁lively	-9804
▁belgium	-9805
▁lantern	-9806
▁secured	-9807
▁sources	-9808
ando	-9809
encer	-9810
▁pens	-9811
▁wilder	-9812
▁romance	-9813
35	-9814
aga	-9815
dough	-9816
▁entry	-9817
▁smack	-9818
▁battles	-9819
▁creating	-9820
▁hopeless	-9821
▁44	-9822
cker	-9823
▁shine	-9824
retched	-9825
▁insects	-9826
▁clearing	-9827
▁messenger	-9828
iy	-9829
pton	-9830
▁eva	-9831
▁boil	-9832
▁heroes	-9833
▁classic	-9834
hirt	-9835
▁2007,	-9836
▁hippo	-9837
▁parad	-9838
▁alligator	-9839
▁raj	-9840
world	-9841
▁lego	-9842
▁2006.	-9843
▁irene	-9844
▁spoil	-9845
▁popped	-9846
▁swallow	-9847
▁decisions	-9848
▁temporary	-9849
olph	-9850
▁jet	-9851
▁1994	-9852
▁accent	-9853
▁enters	-9854
▁roughly	-9855
▁analysis	-9856
▁struggling	-9857
▁dash	-9858
▁rider	-9859
▁stroll	-9860
▁capacity	-9861
▁survived	-9862
▁fortunate	-9863
▁application	-9864
▁dre	-9865
▁amen	-9866
▁vine	-9867
▁blond	-9868
▁dakota	-9869
▁select	-9870
▁filling	-9871
▁planted	-9872
▁trim	-9873
▁diplom	-9874
▁bothered	-9875
▁featured	-9876
odore	-9877
▁chand	-9878
▁ideal	-9879
▁melan	-9880
▁confirm	-9881
called	-9882
▁crook	-9883
▁whoop	-9884
▁penins	-9885
ications	-9886
▁internal	-9887
▁scientist	-9888
▁tat	-9889
▁zip	-9890
▁immig	-9891
▁foster	-9892
▁tigers	-9893
▁walker	-9894
▁exposed	-9895
▁imagined	-9896
racy	-9897
▁uef	-9898
▁swam	-9899
hammad	-9900
▁colin	-9901
▁joyce	-9902
▁renew	-9903
▁publis	-9904
▁pension	-9905
▁website	-9906
▁deserted	-9907
▁eun	-9908
could	-9909
▁1997	-9910
lahoma	-9911
▁rhyth	-9912
▁flames	-9913
usive	-9914
▁jamie	-9915
-5	-9916
rud	-9917
total	-9918
▁2015.	-9919
▁chlor	-9920
gerator	-9921
▁behalf	-9922
▁emotion	-9923
▁identified	-9924
ost	-9925
▁179	-9926
great	-9927
guard	-9928
▁defin	-9929
▁llo	-9930
breat	-9931
forms	-9932
chards	-9933
▁eighth	-9934
▁leaned	-9935
▁parking	-9936
▁earliest	-9937
tel	-9938
▁cargo	-9939
▁rural	-9940
▁suits	-9941
▁wives	-9942
▁divide	-9943
▁profit	-9944
build	-9945
▁mock	-9946
▁fixing	-9947
footnote	-9948
▁springs	-9949
ardo	-9950
crow	-9951
▁coward	-9952
▁reprod	-9953
▁memorial	-9954
▁retirement	-9955
▁beasts	-9956
▁harvey	-9957
▁titles	-9958
choo	-9959
pulls	-9960
▁poop	-9961
▁troop	-9962
▁summon	-9963
▁desired	-9964
cas	-9965
anks	-9966
▁isabel	-9967
▁marker	-9968
▁specim	-9969
▁existed	-9970
▁distinguished	-9971
,]	-9972
ão	-9973
thir	-9974
▁pipp	-9975
▁damaged	-9976
▁peaceful	-9977
▁surf	-9978
▁uefa	-9979
atures	-9980
▁bangl	-9981
▁crust	-9982
▁parade	-9983
arms	-9984
ouses	-9985
▁alec	-9986
people	-9987
▁coron	-9988
▁welsh	-9989
▁nellie	-9990
ader	-9991
eyed	-9992
fare	-9993
▁sib	-9994
castle	-9995
▁investigator	-9996
olo	-9997
▁ras	-9998
noises	-9999
▁dynam	-10000
▁painter	-10001
▁smallest	-10002
vable	-10003
▁fears	-10004
▁ernest	-10005
▁gasped	-10006
▁spotted	-10007
▁dollhouse	-10008
▁electrical	-10009
▁properties	-10010
**	-10011
word	-10012
▁surve	-10013
▁bargain	-10014
bear	-10015
▁fern	-10016
▁helm	-10017
▁crisp	-10018
▁debate	-10019
▁lightly	-10020
▁swiftly	-10021
▁bradford	-10022
▁slightest	-10023
▁automobile	-10024
▁acquaintance	-10025
might	-10026
▁gust	-10027
driver	-10028
▁jumper	-10029
fts	-10030
▁mos	-10031
▁syn	-10032
▁ethn	-10033
▁chile	-10034
▁concerning	-10035
jim	-10036
▁kl	-10037
▁auto	-10038
▁hatch	-10039
▁meals	-10040
▁arrows	-10041
▁involve	-10042
▁suitcase	-10043
td	-10044
essee	-10045
▁coin	-10046
▁snowman	-10047
riet	-10048
▁wwe	-10049
▁voted	-10050
▁admire	-10051
▁taperecorder	-10052
gus	-10053
avan	-10054
imes	-10055
▁janet	-10056
▁ribbon	-10057
▁assault	-10058
▁hamilton	-10059
▁oklahoma	-10060
▁combination	-10061
nn	-10062
prod	-10063
quis	-10064
them	-10065
uese	-10066
arette	-10067
▁explo	-10068
▁steadily	-10069
dp	-10070
pos	-10071
page	-10072
owned	-10073
▁flee	-10074
▁tons	-10075
▁sausages	-10076
big	-10077
ori	-10078
▁ost	-10079
▁hail	-10080
▁foods	-10081
▁ukraine	-10082
▁newly	-10083
▁angela	-10084
▁porter	-10085
▁triumph	-10086
▁tennessee	-10087
37	-10088
||5	-10089
▁bail	-10090
▁monk	-10091
▁swww	-10092
▁citizen	-10093
▁peoples	-10094
▁highness	-10095
▁portugal	-10096
▁relation	-10097
▁afterward	-10098
zi	-10099
irs	-10100
pur	-10101
pict	-10102
uine	-10103
▁1995	-10104
▁ling	-10105
▁derek	-10106
▁birdie	-10107
▁charts	-10108
▁shaped	-10109
▁strings	-10110
▁depending	-10111
▁37	-10112
anta	-10113
▁plung	-10114
▁contrary	-10115
▁formation	-10116
▁halloween	-10117
▁represents	-10118
leg	-10119
▁unple	-10120
▁warner	-10121
babbling	-10122
▁clut	-10123
▁iraq	-10124
▁shah	-10125
▁tires	-10126
fashion	-10127
▁abraham	-10128
▁discussed	-10129
ody	-10130
▁7.	-10131
▁chapel	-10132
▁nerves	-10133
▁hesitated	-10134
▁sensitive	-10135
▁yu	-10136
▁tore	-10137
ifully	-10138
▁aisne	-10139
▁dizzy	-10140
▁peters	-10141
▁popcorn	-10142
▁benefits	-10143
▁electronic	-10144
▁thanksgiving	-10145
wi	-10146
sim	-10147
▁lav	-10148
▁punk	-10149
▁cycle	-10150
▁nappie	-10151
▁conspir	-10152
hot	-10153
▁mines	-10154
▁bumped	-10155
▁fitted	-10156
▁twinkle	-10157
opes	-10158
▁restri	-10159
▁alliance	-10160
▁motorcycle	-10161
oos	-10162
thi	-10163
van	-10164
▁kan	-10165
▁disgu	-10166
▁ruler	-10167
▁finest	-10168
▁landsc	-10169
▁fairies	-10170
sal	-10171
orts	-10172
▁nom	-10173
."--_	-10174
reads	-10175
▁lifting	-10176
▁solomon	-10177
▁finishing	-10178
▁architecture	-10179
isn	-10180
▁gym	-10181
▁rosy	-10182
pretends	-10183
▁é	-10184
chy	-10185
ran	-10186
zar	-10187
rants	-10188
▁seam	-10189
starts	-10190
▁dignity	-10191
▁interpret	-10192
▁31,	-10193
inburgh	-10194
▁crisps	-10195
▁warrant	-10196
▁airlines	-10197
▁argentina	-10198
lad	-10199
sea	-10200
▁prote	-10201
▁sighs	-10202
▁masters	-10203
▁surrender	-10204
rin	-10205
▁damn	-10206
▁pets	-10207
▁samantha	-10208
▁investment	-10209
▁beam	-10210
▁bing	-10211
current	-10212
▁hamburger	-10213
ür	-10214
iro	-10215
remy	-10216
▁fres	-10217
▁seeking	-10218
▁lifetime	-10219
▁conducted	-10220
▁containing	-10221
grf	-10222
▁""	-10223
▁paw	-10224
based	-10225
▁afghan	-10226
▁resemb	-10227
▁narrator	-10228
edia	-10229
▁messy	-10230
▁glances	-10231
▁ming	-10232
▁ernie	-10233
▁cigarette	-10234
▁exerc	-10235
▁cemetery	-10236
▁promoted	-10237
pic	-10238
yon	-10239
▁frag	-10240
▁sharks	-10241
▁documents	-10242
▁performing	-10243
▁38	-10244
fles	-10245
▁hawk	-10246
▁invis	-10247
▁arrangement	-10248
▁isol	-10249
▁tomb	-10250
▁carri	-10251
▁flock	-10252
▁awhile	-10253
gee	-10254
rup	-10255
lying	-10256
▁refri	-10257
▁pursuit	-10258
▁behaviour	-10259
idae	-10260
leen	-10261
▁dus	-10262
▁quid	-10263
orters	-10264
▁propose	-10265
▁utterly	-10266
▁paralymp	-10267
▁nee	-10268
▁suz	-10269
▁tested	-10270
▁colours	-10271
▁spinning	-10272
▁mik	-10273
ested	-10274
▁assum	-10275
▁indig	-10276
▁shovel	-10277
▁compete	-10278
▁recover	-10279
▁invasion	-10280
▁frederick	-10281
▁magazines	-10282
▁48	-10283
▁vik	-10284
▁embr	-10285
▁lump	-10286
▁termin	-10287
▁rosalie	-10288
▁hydrogen	-10289
▁valentine	-10290
bis	-10291
▁slim	-10292
▁dwarf	-10293
talking	-10294
▁amused	-10295
▁elsewhere	-10296
mac	-10297
▁rais	-10298
▁verse	-10299
oration	-10300
▁talkin	-10301
▁tomatoes	-10302
▁prefecture	-10303
olve	-10304
▁dod	-10305
▁steak	-10306
▁exists	-10307
▁headache	-10308
▁yuck	-10309
▁tyler	-10310
▁offices	-10311
▁contrast	-10312
▁identify	-10313
▁distribution	-10314
▁mol	-10315
▁gabriel	-10316
▁amusement	-10317
▁officials	-10318
▁institution	-10319
▁2022.	-10320
▁hermit	-10321
ae	-10322
▁scold	-10323
▁moonlight	-10324
poor	-10325
▁apt	-10326
▁1984	-10327
▁peril	-10328
▁believes	-10329
rum	-10330
▁2016.	-10331
▁globe	-10332
▁veter	-10333
▁ragged	-10334
▁sewing	-10335
▁borough	-10336
▁fathers	-10337
▁spilled	-10338
▁execution	-10339
▁fert	-10340
▁vincent	-10341
▁peninsula	-10342
▁portuguese	-10343
▁examination	-10344
hies	-10345
▁grin	-10346
throws	-10347
▁marve	-10348
▁gazing	-10349
manchester	-10350
icut	-10351
stit	-10352
oning	-10353
▁learnt	-10354
▁maiden	-10355
▁sample	-10356
▁crawling	-10357
▁moreover	-10358
▁pronounced	-10359
47	-10360
vir	-10361
ucing	-10362
▁adapt	-10363
▁breed	-10364
▁edges	-10365
,...	-10366
gold	-10367
such	-10368
oline	-10369
▁guessed	-10370
▁descended	-10371
gian	-10372
▁herbert	-10373
▁earnestly	-10374
▁admiration	-10375
ees	-10376
roit	-10377
▁kra	-10378
▁leop	-10379
▁aster	-10380
▁marble	-10381
▁steering	-10382
▁provisions	-10383
▁(3	-10384
eller	-10385
pshire	-10386
▁napole	-10387
▁corners	-10388
46	-10389
oft	-10390
sam	-10391
▁400	-10392
▁scor	-10393
▁rosie	-10394
▁jessica	-10395
▁lighter	-10396
▁careless	-10397
▁fict	-10398
▁camps	-10399
▁nobel	-10400
▁heartily	-10401
▁transferred	-10402
▁42	-10403
▁lud	-10404
▁lloyd	-10405
▁marian	-10406
▁disorder	-10407
▁appearances	-10408
zona	-10409
▁clat	-10410
▁activist	-10411
▁£	-10412
▁hou	-10413
▁peg	-10414
▁bake	-10415
▁tram	-10416
▁disagre	-10417
shows	-10418
humming	-10419
▁psychi	-10420
inations	-10421
▁constituency	-10422
▁ai	-10423
▁bury	-10424
▁announ	-10425
▁precip	-10426
▁geoffrey	-10427
▁heritage	-10428
▁objection	-10429
ht	-10430
igan	-10431
▁1991	-10432
▁explains	-10433
emen	-10434
▁dil	-10435
▁nag	-10436
▁assumed	-10437
▁napoleon	-10438
▁punished	-10439
▁cly	-10440
▁nam	-10441
cular	-10442
▁tapes	-10443
▁deadly	-10444
▁surviv	-10445
▁sweater	-10446
▁pandemic	-10447
▁differences	-10448
into	-10449
▁locks	-10450
▁pasta	-10451
▁jennie	-10452
▁napkin	-10453
▁belonging	-10454
▁cambridge	-10455
,,	-10456
▁beau	-10457
▁polo	-10458
▁enthusi	-10459
▁kentucky	-10460
▁accordingly	-10461
nons	-10462
▁qui	-10463
▁tus	-10464
▁fifi	-10465
▁maisie	-10466
▁permit	-10467
▁astonishment	-10468
boo	-10469
mine	-10470
▁ashes	-10471
▁monte	-10472
▁cellar	-10473
▁resear	-10474
▁gilbert	-10475
▁compound	-10476
▁occasions	-10477
iser	-10478
▁damp	-10479
▁tact	-10480
▁gallery	-10481
▁harbour	-10482
▁measures	-10483
▁whispers	-10484
fam	-10485
udge	-10486
▁mug	-10487
▁specif	-10488
▁forgiven	-10489
▁enthusias	-10490
▁interfere	-10491
cou	-10492
him	-10493
▁spit	-10494
▁indul	-10495
▁wiped	-10496
▁grammy	-10497
▁grabbed	-10498
▁proport	-10499
▁proposal	-10500
▁searched	-10501
▁doubtless	-10502
▁forgetting	-10503
▁accomplished	-10504
▁rio	-10505
▁dict	-10506
▁amend	-10507
▁goats	-10508
▁absent	-10509
▁behold	-10510
▁divine	-10511
▁graphi	-10512
▁ronald	-10513
▁formerly	-10514
▁maryland	-10515
▁projects	-10516
oub	-10517
▁cd	-10518
found	-10519
▁claws	-10520
▁nepal	-10521
▁octopus	-10522
▁carn	-10523
▁emmy	-10524
▁ewww	-10525
▁hears	-10526
▁pursu	-10527
▁sammy	-10528
▁models	-10529
▁robot	-10530
▁sunset	-10531
▁annivers	-10532
▁dedicated	-10533
▁gratitude	-10534
▁discipline	-10535
pled	-10536
▁via	-10537
adays	-10538
illon	-10539
headed	-10540
▁context	-10541
▁examined	-10542
▁philippines	-10543
:--	-10544
▁roz	-10545
onstr	-10546
verty	-10547
▁nods	-10548
▁archa	-10549
▁edith	-10550
▁twisted	-10551
▁overcome	-10552
▁shepherd	-10553
▁invisible	-10554
▁wandering	-10555
▁earthquake	-10556
sels	-10557
▁hare	-10558
▁lace	-10559
▁catches	-10560
▁approved	-10561
▁marshall	-10562
▁federation	-10563
thr	-10564
▁oars	-10565
▁maine	-10566
▁telet	-10567
rane	-10568
▁2005.	-10569
rome	-10570
wich	-10571
▁lag	-10572
▁sof	-10573
▁yan	-10574
▁oath	-10575
groans	-10576
▁lollip	-10577
▁muscle	-10578
▁tucker	-10579
▁respond	-10580
▁enthusiasm	-10581
onym	-10582
maker	-10583
▁enqu	-10584
▁diary	-10585
▁toler	-10586
▁reader	-10587
▁arizona	-10588
▁isab	-10589
▁°	-10590
▁wiz	-10591
▁cuba	-10592
▁logs	-10593
▁plug	-10594
▁tails	-10595
overlap	-10596
▁boards	-10597
▁preced	-10598
▁magnets	-10599
billboard	-10600
▁difficulties	-10601
onne	-10602
▁ethan	-10603
▁sector	-10604
▁flushed	-10605
▁planets	-10606
▁communities	-10607
hil	-10608
▁cul	-10609
▁rou	-10610
▁sri	-10611
▁deaf	-10612
▁polar	-10613
▁yelled	-10614
▁telegra	-10615
▁magnetic	-10616
▁estimated	-10617
▁unpleasant	-10618
'!	-10619
▁fet	-10620
▁adopt	-10621
▁prosper	-10622
rep	-10623
ouch	-10624
▁corre	-10625
▁handy	-10626
▁carlos	-10627
▁honours	-10628
▁snapped	-10629
▁nowadays	-10630
▁dix	-10631
▁dame	-10632
▁sway	-10633
▁alexand	-10634
▁tightly	-10635
▁accommod	-10636
▁electron	-10637
▁perceived	-10638
▁introduction	-10639
('	-10640
ín	-10641
ders	-10642
tree	-10643
▁slo	-10644
▁stur	-10645
▁grasp	-10646
▁keith	-10647
▁serves	-10648
▁screams	-10649
▁consequence	-10650
yu	-10651
dav	-10652
udes	-10653
▁vow	-10654
moans	-10655
▁hither	-10656
▁romans	-10657
▁triump	-10658
▁flashed	-10659
▁philosopher	-10660
▁jin	-10661
▁deny	-10662
▁lazy	-10663
▁utah	-10664
▁fount	-10665
▁souls	-10666
▁horrid	-10667
▁jeremy	-10668
▁genuine	-10669
▁entitled	-10670
▁employment	-10671
▁mathematics	-10672
mart	-10673
▁bash	-10674
▁shorter	-10675
▁stewart	-10676
ilda	-10677
▁cleve	-10678
▁nigel	-10679
▁stalk	-10680
▁roland	-10681
▁happier	-10682
▁smarties	-10683
onna	-10684
▁tro	-10685
stream	-10686
▁chill	-10687
▁scorn	-10688
▁waking	-10689
▁gravely	-10690
▁dory	-10691
▁rats	-10692
▁ranks	-10693
▁tryin	-10694
▁wages	-10695
▁colomb	-10696
▁schoon	-10697
▁aggress	-10698
fashioned	-10699
aph	-10700
ser	-10701
▁vas	-10702
rings	-10703
▁crunch	-10704
▁visual	-10705
▁wasted	-10706
▁surgeon	-10707
▁followers	-10708
▁bombs	-10709
▁chums	-10710
▁meets	-10711
▁cutter	-10712
▁portra	-10713
▁traged	-10714
hums	-10715
▁abuse	-10716
ulating	-10717
▁endeav	-10718
▁suburb	-10719
▁secondary	-10720
▁connecticut	-10721
▁́	-10722
hasis	-10723
▁hitler	-10724
▁monitor	-10725
▁puzzles	-10726
▁spiritual	-10727
28	-10728
▁foc	-10729
▁gau	-10730
▁voc	-10731
▁stim	-10732
weight	-10733
▁freely	-10734
▁plains	-10735
▁applause	-10736
▁sciences	-10737
▁accompany	-10738
27	-10739
know	-10740
meal	-10741
▁[1]	-10742
▁ela	-10743
▁yog	-10744
eight	-10745
ranean	-10746
▁arabic	-10747
▁poverty	-10748
▁trusted	-10749
▁resigned	-10750
▁photographs	-10751
rete	-10752
uces	-10753
eenth	-10754
▁aired	-10755
▁lifts	-10756
▁modest	-10757
▁wounds	-10758
▁operated	-10759
▁reminded	-10760
▁preferred	-10761
▁anniversary	-10762
oto	-10763
run	-10764
ulu	-10765
held	-10766
vised	-10767
▁reduce	-10768
▁videos	-10769
▁worker	-10770
▁convenient	-10771
isc	-10772
sne	-10773
▁hes	-10774
osure	-10775
▁abund	-10776
anim	-10777
▁soa	-10778
▁1993	-10779
▁bamb	-10780
▁depth	-10781
avia	-10782
ugging	-10783
▁strateg	-10784
▁consequences	-10785
hibit	-10786
▁floss	-10787
▁norah	-10788
intendo	-10789
▁humble	-10790
▁strate	-10791
▁descent	-10792
▁nursing	-10793
▁bracelet	-10794
▁category	-10795
▁infection	-10796
▁kap	-10797
▁mode	-10798
▁harsh	-10799
▁chorus	-10800
▁richards	-10801
▁silently	-10802
▁resolution	-10803
55	-10804
-20	-10805
orig	-10806
mitted	-10807
sounds	-10808
▁2023,	-10809
▁diego	-10810
▁mills	-10811
▁marcus	-10812
▁mixture	-10813
▁puppets	-10814
▁russians	-10815
▁regularly	-10816
▁selection	-10817
▁gigg	-10818
▁grip	-10819
▁chains	-10820
▁salary	-10821
▁chatter	-10822
▁rehears	-10823
▁rattling	-10824
arrondisse	-10825
▁ahm	-10826
▁toot	-10827
▁bathtub	-10828
▁lon	-10829
▁fury	-10830
▁shin	-10831
▁2004.	-10832
▁borne	-10833
▁humph	-10834
▁pairs	-10835
▁phase	-10836
▁horizon	-10837
▁observation	-10838
pu	-10839
rous	-10840
llect	-10841
▁glen	-10842
flakes	-10843
▁buster	-10844
▁divers	-10845
▁blessing	-10846
▁measured	-10847
66	-10848
sie	-10849
▁1972	-10850
before	-10851
▁random	-10852
▁overhead	-10853
▁radiation	-10854
akh	-10855
joh	-10856
▁wells	-10857
▁campus	-10858
▁fighter	-10859
▁approval	-10860
▁wandered	-10861
ía	-10862
zel	-10863
post	-10864
birds	-10865
▁bolt	-10866
teenth	-10867
▁amate	-10868
▁taxes	-10869
▁reagan	-10870
▁ripped	-10871
▁tossed	-10872
▁trading	-10873
▁upright	-10874
▁educated	-10875
▁residents	-10876
▁leadership	-10877
▁brut	-10878
▁loop	-10879
▁denmark	-10880
▁approximately	-10881
bread	-10882
commun	-10883
▁lucas	-10884
▁ninth	-10885
▁beaver	-10886
▁paradise	-10887
▁pretends	-10888
▁preparations	-10889
▁burg	-10890
▁ware	-10891
▁elbow	-10892
▁ranked	-10893
▁grinned	-10894
▁penalty	-10895
▁reflect	-10896
▁restored	-10897
▁vegetable	-10898
▁celebrated	-10899
tape	-10900
▁wah	-10901
▁vacu	-10902
▁tasty	-10903
rise	-10904
▁kyle	-10905
▁tink	-10906
ourable	-10907
▁parcel	-10908
entially	-10909
▁spiders	-10910
▁withdraw	-10911
love	-10912
▁dive	-10913
▁nood	-10914
▁error	-10915
▁tracy	-10916
▁fruits	-10917
▁preparation	-10918
▁mou	-10919
emplo	-10920
▁pork	-10921
▁burgl	-10922
▁drake	-10923
▁barney	-10924
▁bumble	-10925
▁folded	-10926
▁imprison	-10927
▁pressing	-10928
▁influenced	-10929
▁nhl	-10930
▁1989	-10931
▁gunn	-10932
▁yucky	-10933
▁trevor	-10934
▁customs	-10935
▁furious	-10936
▁slavery	-10937
▁misunder	-10938
▁encl	-10939
▁owns	-10940
rained	-10941
▁adele	-10942
▁felix	-10943
▁lobster	-10944
▁boarding	-10945
bang	-10946
▁ana	-10947
▁reb	-10948
▁irrit	-10949
▁stump	-10950
▁counts	-10951
▁rarely	-10952
▁corrupt	-10953
▁sweeping	-10954
▁engagement	-10955
bud	-10956
hie	-10957
wear	-10958
▁wink	-10959
▁dense	-10960
▁repro	-10961
▁elders	-10962
▁ghosts	-10963
▁travelled	-10964
▁colleagues	-10965
▁commissioner	-10966
bul	-10967
tic	-10968
▁prix	-10969
▁rides	-10970
▁ranger	-10971
▁indicate	-10972
▁policies	-10973
▁strategy	-10974
▁thompson	-10975
▁differently	-10976
:—	-10977
eh	-10978
wo	-10979
▁75	-10980
loud	-10981
▁hugo	-10982
▁fights	-10983
▁meadow	-10984
▁occurs	-10985
▁senses	-10986
▁visits	-10987
▁laundry	-10988
▁nintendo	-10989
aco	-10990
▁carpent	-10991
▁premier	-10992
▁nicholas	-10993
▁reflected	-10994
▁standards	-10995
▁pp	-10996
▁gem	-10997
ipped	-10998
▁dong	-10999
▁hump	-11000
▁synd	-11001
hall	-11002
opot	-11003
pron	-11004
▁erin	-11005
▁zoom	-11006
▁corrid	-11007
▁fearful	-11008
▁substit	-11009
▁marching	-11010
▁providing	-11011
icals	-11012
tical	-11013
▁leis	-11014
strong	-11015
▁niece	-11016
▁allies	-11017
▁canvas	-11018
▁casual	-11019
▁chased	-11020
▁ethnic	-11021
▁sovere	-11022
▁advised	-11023
▁comedian	-11024
▁screwdriver	-11025
ener	-11026
▁reed	-11027
heastern	-11028
▁drivers	-11029
▁mercury	-11030
▁schooner	-11031
▁indicated	-11032
▁microsoft	-11033
▁particles	-11034
hai	-11035
wow	-11036
▁0.	-11037
rock	-11038
rust	-11039
opens	-11040
▁fuck	-11041
▁slam	-11042
▁arena	-11043
▁donna	-11044
▁pitts	-11045
▁constru	-11046
▁payment	-11047
▁developing	-11048
▁39	-11049
▁flut	-11050
▁wick	-11051
▁orbit	-11052
▁users	-11053
▁signals	-11054
▁hastened	-11055
▁substance	-11056
▁manufacture	-11057
:00.	-11058
▁basin	-11059
▁representing	-11060
too	-11061
▁snail	-11062
▁rescued	-11063
▁dramatic	-11064
▁astonished	-11065
▁translated	-11066
▁butterflies	-11067
aire	-11068
beat	-11069
▁mah	-11070
▁swan	-11071
anning	-11072
▁layer	-11073
▁poems	-11074
▁galaxy	-11075
▁caution	-11076
▁•	-11077
▁1920	-11078
▁alle	-11079
comune	-11080
▁genes	-11081
porated	-11082
▁marion	-11083
▁petrol	-11084
▁largely	-11085
▁purchase	-11086
▁footsteps	-11087
▁whistling	-11088
▁exhibition	-11089
▁il	-11090
▁geo	-11091
▁glow	-11092
▁humor	-11093
▁annoyed	-11094
▁lowered	-11095
▁existing	-11096
▁electoral	-11097
▁sod	-11098
▁upd	-11099
▁cane	-11100
▁prai	-11101
▁grove	-11102
▁landlord	-11103
▁architect	-11104
▁fictional	-11105
stri	-11106
▁alas	-11107
▁craig	-11108
▁merri	-11109
▁parks	-11110
▁greeted	-11111
75	-11112
▁ul	-11113
▁bind	-11114
▁somed	-11115
▁telesc	-11116
▁theirs	-11117
▁maurice	-11118
▁toronto	-11119
▁nathaniel	-11120
alem	-11121
bach	-11122
ores	-11123
▁hiya	-11124
▁idol	-11125
▁coats	-11126
▁cruise	-11127
▁wishing	-11128
▁stirring	-11129
uv	-11130
cup	-11131
ubs	-11132
▁crus	-11133
▁coinc	-11134
▁jokes	-11135
▁values	-11136
▁residence	-11137
glass	-11138
▁dose	-11139
▁2005,	-11140
▁clyde	-11141
station	-11142
▁boiling	-11143
▁remarks	-11144
---	-11145
comm	-11146
otes	-11147
▁rans	-11148
▁recru	-11149
▁peanuts	-11150
▁routine	-11151
▁weakness	-11152
folk	-11153
hero	-11154
▁bio	-11155
▁subd	-11156
▁escort	-11157
▁hearty	-11158
▁medals	-11159
▁chewing	-11160
▁romania	-11161
iors	-11162
▁gur	-11163
bbled	-11164
▁1976	-11165
▁lank	-11166
▁margot	-11167
▁reluct	-11168
▁shorts	-11169
▁utmost	-11170
▁butcher	-11171
▁islamic	-11172
▁animation	-11173
▁occupation	-11174
mare	-11175
vous	-11176
▁1986	-11177
▁coord	-11178
▁knocks	-11179
▁seeming	-11180
▁shocked	-11181
atus	-11182
▁wax	-11183
▁sunk	-11184
▁pluck	-11185
▁oswald	-11186
▁parall	-11187
▁leisure	-11188
▁portray	-11189
▁armenian	-11190
mw	-11191
▁rah	-11192
bbling	-11193
▁flags	-11194
▁batman	-11195
▁observe	-11196
▁someday	-11197
▁thanked	-11198
▁nickname	-11199
▁encouraged	-11200
supp	-11201
▁lanc	-11202
▁phen	-11203
▁alley	-11204
▁manif	-11205
▁consol	-11206
▁esther	-11207
▁factor	-11208
▁convince	-11209
jorie	-11210
▁gale	-11211
▁coins	-11212
▁colorado	-11213
posed	-11214
▁analy	-11215
▁swords	-11216
cop	-11217
▁junk	-11218
▁vene	-11219
▁scoop	-11220
▁daring	-11221
▁debuted	-11222
▁fantasy	-11223
,—	-11224
enne	-11225
▁"."	-11226
▁noo	-11227
▁hein	-11228
▁soot	-11229
▁fatal	-11230
▁fuzzy	-11231
▁rosam	-11232
▁morris	-11233
atically	-11234
▁wallace	-11235
▁basement	-11236
▁penguins	-11237
▁democracy	-11238
▁abc	-11239
▁ortho	-11240
▁trips	-11241
▁worms	-11242
▁compre	-11243
▁picard	-11244
▁swings	-11245
▁taller	-11246
▁counten	-11247
▁cushion	-11248
▁harvard	-11249
▁maximum	-11250
▁speakers	-11251
▁witnesses	-11252
▁↗	-11253
lem	-11254
▁usa	-11255
▁neil	-11256
▁pail	-11257
▁unto	-11258
emp	-11259
adle	-11260
▁fbi	-11261
▁gasp	-11262
▁rays	-11263
ilight	-11264
▁beats	-11265
picture	-11266
oxide	-11267
▁1987	-11268
▁peac	-11269
▁baked	-11270
▁effie	-11271
▁mammy	-11272
▁towers	-11273
▁injuries	-11274
▁cer	-11275
▁halt	-11276
▁reef	-11277
▁agnes	-11278
▁isaac	-11279
▁vague	-11280
▁elegant	-11281
▁traveled	-11282
organ	-11283
newman	-11284
▁2003.	-11285
▁attic	-11286
▁drain	-11287
▁cinema	-11288
▁obeyed	-11289
▁option	-11290
laughter	-11291
▁focused	-11292
idi	-11293
amus	-11294
gill	-11295
icate	-11296
onian	-11297
power	-11298
▁finn	-11299
▁limp	-11300
▁curse	-11301
▁scarf	-11302
▁harvest	-11303
▁employees	-11304
▁liverpool	-11305
hog	-11306
oro	-11307
won	-11308
▁2002.	-11309
▁clust	-11310
▁topic	-11311
general	-11312
lishing	-11313
-6	-11314
▁math	-11315
ratner	-11316
unwald	-11317
▁reporter	-11318
▁compounds	-11319
newmanratner	-11320
abe	-11321
care	-11322
▁aub	-11323
▁haul	-11324
▁lugg	-11325
▁roller	-11326
▁sliding	-11327
▁resident	-11328
▁spelling	-11329
▁guarantee	-11330
nuts	-11331
▁150	-11332
▁mck	-11333
▁schi	-11334
▁britt	-11335
▁brenda	-11336
▁gravity	-11337
▁telegram	-11338
▁contribut	-11339
▁bangladesh	-11340
▁universities	-11341
brew	-11342
cards	-11343
▁adap	-11344
▁boxer	-11345
▁stake	-11346
▁comics	-11347
▁primar	-11348
▁trunks	-11349
▁storage	-11350
▁provision	-11351
mount	-11352
▁1981	-11353
▁stem	-11354
▁bever	-11355
putting	-11356
▁assign	-11357
▁peasant	-11358
▁spencer	-11359
▁mythology	-11360
nels	-11361
▁ooo	-11362
cling	-11363
▁guer	-11364
▁josé	-11365
▁infer	-11366
▁mandy	-11367
▁audrey	-11368
▁artific	-11369
▁declare	-11370
▁detroit	-11371
▁packing	-11372
▁amazement	-11373
▁satellite	-11374
▁successfully	-11375
▁##	-11376
▁brains	-11377
▁giants	-11378
▁knives	-11379
▁rubbed	-11380
▁spoiled	-11381
▁wasting	-11382
▁enterprise	-11383
::	-11384
▁mwww	-11385
▁awoke	-11386
▁decre	-11387
▁lucia	-11388
▁conquer	-11389
▁annoying	-11390
▁disgrace	-11391
▁graduate	-11392
42	-11393
▁unw	-11394
oting	-11395
these	-11396
▁pent	-11397
osaurus	-11398
screaming	-11399
▁collecting	-11400
gur	-11401
▁oz	-11402
▁pam	-11403
▁bachel	-11404
braunwald	-11405
▁diamonds	-11406
▁executed	-11407
▁functions	-11408
hee	-11409
green	-11410
▁ferry	-11411
▁funds	-11412
▁mansion	-11413
▁essential	-11414
▁procedure	-11415
izz	-11416
▁kha	-11417
halie	-11418
itter	-11419
softly	-11420
▁timid	-11421
▁vanilla	-11422
tario	-11423
▁ache	-11424
▁franz	-11425
▁absurd	-11426
▁ignore	-11427
▁ontario	-11428
▁infantry	-11429
▁fortnight	-11430
▁musicians	-11431
▁playgroup	-11432
32	-11433
▁bef	-11434
▁pram	-11435
▁edmund	-11436
▁readers	-11437
▁marjorie	-11438
!’	-11439
blue	-11440
▁norwe	-11441
▁hungary	-11442
▁jus	-11443
▁orb	-11444
▁2023	-11445
▁shat	-11446
▁ledge	-11447
▁nickel	-11448
▁vacuum	-11449
▁chester	-11450
▁hunters	-11451
▁ladybird	-11452
▁suspended	-11453
whel	-11454
mamma	-11455
▁[$=1	-11456
▁dots	-11457
▁ramp	-11458
▁assigned	-11459
▁cm	-11460
▁abrupt	-11461
▁cavalry	-11462
▁readily	-11463
▁allowing	-11464
▁appetite	-11465
▁pancakes	-11466
''	-11467
hour	-11468
john	-11469
step	-11470
▁alter	-11471
▁limbs	-11472
▁devices	-11473
▁receipt	-11474
essa	-11475
hant	-11476
shirt	-11477
▁dese	-11478
▁rows	-11479
baijan	-11480
▁amazed	-11481
▁frankly	-11482
▁operate	-11483
▁academic	-11484
▁references	-11485
.'"	-11486
ante	-11487
▁asce	-11488
▁barbie	-11489
▁destiny	-11490
▁stockings	-11491
goes	-11492
▁dip	-11493
mpton	-11494
▁reun	-11495
▁bruno	-11496
▁float	-11497
▁perry	-11498
▁intellect	-11499
▁socialist	-11500
france	-11501
▁panel	-11502
munition	-11503
▁rooster	-11504
▁attacking	-11505
▁hampshire	-11506
▁beautifully	-11507
▁recognition	-11508
▁threatening	-11509
anned	-11510
erella	-11511
acement	-11512
▁franchi	-11513
▁longing	-11514
▁shallow	-11515
▁ancestors	-11516
38	-11517
▁perf	-11518
▁2001.	-11519
▁wires	-11520
▁mining	-11521
▁glimpse	-11522
▁departed	-11523
▁git	-11524
▁vary	-11525
▁pickle	-11526
▁tragedy	-11527
▁provides	-11528
▁divisions	-11529
▁neighbourhood	-11530
▁azer	-11531
▁2017)	-11532
▁phoen	-11533
▁pinch	-11534
▁rhyme	-11535
▁defined	-11536
▁magical	-11537
▁lollipop	-11538
▁nathalie	-11539
▁playground	-11540
kh	-11541
▁hull	-11542
▁gloom	-11543
▁vital	-11544
▁extract	-11545
ppa	-11546
▁caps	-11547
▁dwww	-11548
elling	-11549
usalem	-11550
▁jasper	-11551
▁patterns	-11552
▁remembering	-11553
▁refrigerator	-11554
▁blade	-11555
▁evans	-11556
▁cracker	-11557
▁borrowed	-11558
▁gardener	-11559
▁dismissed	-11560
▁narrative	-11561
▁ammunition	-11562
fi	-11563
▁jaw	-11564
guing	-11565
named	-11566
▁1985	-11567
▁heal	-11568
▁ethel	-11569
▁linked	-11570
▁presum	-11571
▁sequel	-11572
▁wright	-11573
▁scrambled	-11574
▁til	-11575
▁evac	-11576
▁apron	-11577
▁tents	-11578
picking	-11579
▁freeze	-11580
▁seesaw	-11581
▁examine	-11582
▁bacteria	-11583
cht	-11584
iki	-11585
–20	-11586
▁baw	-11587
dress	-11588
▁abbey	-11589
▁coral	-11590
▁lungs	-11591
▁pippin	-11592
ologists	-11593
▁producing	-11594
acha	-11595
mist	-11596
▁gag	-11597
▁vet	-11598
▁melt	-11599
▁crest	-11600
▁impul	-11601
▁milan	-11602
▁fossil	-11603
▁sequence	-11604
▁appearing	-11605
bia	-11606
ugu	-11607
repe	-11608
▁stepping	-11609
pose	-11610
▁ses	-11611
ptions	-11612
▁arist	-11613
▁sends	-11614
inction	-11615
▁undert	-11616
▁crushed	-11617
▁precisely	-11618
▁impressive	-11619
mak	-11620
▁adj	-11621
▁1983	-11622
▁bung	-11623
abouts	-11624
▁2004,	-11625
▁summit	-11626
▁gallant	-11627
▁harriet	-11628
▁streams	-11629
▁overwhel	-11630
▁sentiment	-11631
▁neighbours	-11632
hoe	-11633
▁lis	-11634
▁faul	-11635
▁obed	-11636
▁yawn	-11637
handed	-11638
▁reind	-11639
▁vitam	-11640
▁oregon	-11641
▁tricky	-11642
imitates	-11643
▁overboard	-11644
iami	-11645
umbles	-11646
▁badge	-11647
▁fanci	-11648
▁lords	-11649
▁smash	-11650
▁trent	-11651
▁armies	-11652
▁excess	-11653
▁literary	-11654
▁excitedly	-11655
▁acquainted	-11656
//	-11657
coat	-11658
▁gus	-11659
zburg	-11660
▁reci	-11661
onents	-11662
▁brist	-11663
▁tobac	-11664
▁bunker	-11665
▁forming	-11666
iterranean	-11667
▁qualified	-11668
▁wilderness	-11669
▁concentration	-11670
48	-11671
49	-11672
▁calf	-11673
active	-11674
sister	-11675
▁tenth	-11676
▁advise	-11677
▁dances	-11678
▁punish	-11679
▁chronic	-11680
▁renamed	-11681
36	-11682
!--	-11683
bil	-11684
paper	-11685
▁nazi	-11686
▁pills	-11687
▁poles	-11688
▁yacht	-11689
▁denied	-11690
▁wander	-11691
▁clients	-11692
▁dentist	-11693
▁robbery	-11694
▁restless	-11695
▁playdough	-11696
adi	-11697
arer	-11698
ista	-11699
poss	-11700
▁tips	-11701
▁justin	-11702
▁limits	-11703
▁murray	-11704
▁ponies	-11705
▁cautiously	-11706
girl	-11707
iley	-11708
▁igno	-11709
▁dealt	-11710
▁lyrics	-11711
▁clinton	-11712
▁trigger	-11713
▁crackers	-11714
▁suggests	-11715
▁relatively	-11716
sum	-11717
drops	-11718
▁heir	-11719
▁roxy	-11720
▁syll	-11721
▁villa	-11722
▁bending	-11723
▁cleaner	-11724
▁realise	-11725
▁dj	-11726
▁ace	-11727
▁eldest	-11728
▁finland	-11729
▁subsequ	-11730
▁disposed	-11731
▁worrying	-11732
▁landscape	-11733
lay	-11734
▁8.	-11735
▁foe	-11736
▁fow	-11737
▁dumb	-11738
igible	-11739
▁banner	-11740
▁parson	-11741
▁madison	-11742
▁contempt	-11743
▁severely	-11744
▁twilight	-11745
▁azerbaijan	-11746
▁consciousness	-11747
bas	-11748
yers	-11749
▁ruins	-11750
▁archie	-11751
▁betrayed	-11752
▁acknowled	-11753
▁xi	-11754
bian	-11755
indeed	-11756
outing	-11757
▁moose	-11758
▁lovers	-11759
▁resort	-11760
▁sprink	-11761
▁controls	-11762
▁fascinating	-11763
▁señ	-11764
▁1964	-11765
▁gymn	-11766
▁joel	-11767
akened	-11768
▁moist	-11769
▁berries	-11770
▁sinking	-11771
▁emphasis	-11772
▁conquered	-11773
▁jerusalem	-11774
▁mediterranean	-11775
▁oat	-11776
▁user	-11777
▁scoot	-11778
▁gregory	-11779
▁christianity	-11780
▁10.	-11781
▁yah	-11782
▁paws	-11783
▁shares	-11784
▁extinct	-11785
▁iceland	-11786
▁unbelie	-11787
▁spreading	-11788
este	-11789
▁sno	-11790
▁bewild	-11791
▁overse	-11792
▁stages	-11793
▁ssh	-11794
▁vibr	-11795
kisses	-11796
▁farms	-11797
▁procl	-11798
▁venez	-11799
▁jewels	-11800
▁robbed	-11801
▁collins	-11802
iti	-11803
ogne	-11804
▁drums	-11805
iration	-11806
▁pupils	-11807
▁sorted	-11808
▁weekly	-11809
▁pursued	-11810
▁channels	-11811
▁revolver	-11812
▁thoughtful	-11813
▁programming	-11814
39	-11815
dia	-11816
mid	-11817
▁1968	-11818
▁tsar	-11819
▁lowest	-11820
▁slender	-11821
▁broadway	-11822
▁starving	-11823
icit	-11824
▁bead	-11825
▁taps	-11826
▁tatt	-11827
anting	-11828
▁elderly	-11829
▁economics	-11830
▁struggled	-11831
▁nay	-11832
▁fist	-11833
▁mous	-11834
▁odds	-11835
▁mortal	-11836
▁sleeps	-11837
________	-11838
▁cheaper	-11839
▁resumed	-11840
▁studios	-11841
▁volcano	-11842
▁freezing	-11843
▁gracious	-11844
▁advertising	-11845
▁experiments	-11846
ryn	-11847
▁rico	-11848
▁femin	-11849
▁rates	-11850
▁sleeve	-11851
▁pennies	-11852
▁tobacco	-11853
▁arriving	-11854
len	-11855
ands	-11856
bean	-11857
rers	-11858
movie	-11859
▁exit	-11860
▁verd	-11861
person	-11862
▁muhammad	-11863
▁transform	-11864
rp	-11865
haus	-11866
cheon	-11867
▁cork	-11868
▁initial	-11869
▁cornflakes	-11870
▁civilization	-11871
ggs	-11872
oid	-11873
ipper	-11874
▁caro	-11875
▁funn	-11876
▁lala	-11877
▁recy	-11878
actory	-11879
▁condem	-11880
▁parted	-11881
▁slides	-11882
▁cameron	-11883
▁countenance	-11884
▁[_	-11885
uela	-11886
▁calmly	-11887
▁hosted	-11888
▁posted	-11889
▁genetic	-11890
▁countess	-11891
▁switched	-11892
▁protested	-11893
▁protecting	-11894
cam	-11895
asha	-11896
esco	-11897
▁brow	-11898
▁mong	-11899
▁marsh	-11900
▁rusty	-11901
▁tamil	-11902
▁tanks	-11903
▁scotch	-11904
▁fulfill	-11905
▁gesture	-11906
▁squares	-11907
▁achieved	-11908
▁cinderella	-11909
▁embarrassed	-11910
▁organizations	-11911
robe	-11912
▁lac	-11913
▁hera	-11914
▁miami	-11915
▁judges	-11916
▁watson	-11917
▁panting	-11918
▁skating	-11919
▁colonies	-11920
▁downtown	-11921
▁lemonade	-11922
esy	-11923
pin	-11924
||6	-11925
omous	-11926
▁pans	-11927
▁unre	-11928
▁maisy	-11929
▁biting	-11930
▁jingle	-11931
▁rhythm	-11932
▁cameras	-11933
▁placing	-11934
▁norwegian	-11935
pert	-11936
▁aus	-11937
uncle	-11938
▁1982	-11939
▁cort	-11940
▁idle	-11941
▁homer	-11942
▁insane	-11943
▁parlor	-11944
▁barrels	-11945
▁orleans	-11946
▁rubbing	-11947
▁scholar	-11948
▁crashing	-11949
▁councillor	-11950
▁ae	-11951
celer	-11952
▁bren	-11953
▁1995.	-11954
▁atoms	-11955
▁longed	-11956
▁marvell	-11957
▁emotional	-11958
▁promotion	-11959
▁dv	-11960
▁raft	-11961
▁shem	-11962
illery	-11963
▁bloke	-11964
▁lined	-11965
▁siren	-11966
▁phones	-11967
▁saints	-11968
▁urgent	-11969
▁beliefs	-11970
▁cracked	-11971
▁freight	-11972
▁priests	-11973
▁winners	-11974
▁acquired	-11975
▁diseases	-11976
▁correctly	-11977
▁recollect	-11978
▁candidates	-11979
▁cheerfully	-11980
'-	-11981
iko	-11982
ieth	-11983
▁bowed	-11984
▁fritz	-11985
covered	-11986
▁premie	-11987
▁teapot	-11988
▁torture	-11989
▁unemplo	-11990
▁describes	-11991
▁ministers	-11992
▁definition	-11993
sor	-11994
gard	-11995
▁1974	-11996
▁ties	-11997
consin	-11998
▁bonds	-11999
▁quart	-12000
▁concerns	-12001
▁encounter	-12002
▁{\	-12003
moto	-12004
walks	-12005
▁pedro	-12006
▁courts	-12007
▁roared	-12008
▁squash	-12009
▁angrily	-12010
▁blocked	-12011
▁ventured	-12012
▁revolutionary	-12013
ront	-12014
were	-12015
▁ropes	-12016
▁malays	-12017
▁ursula	-12018
▁delayed	-12019
▁assembled	-12020
▁confessed	-12021
▁necessity	-12022
▁facilities	-12023
▁transportation	-12024
ede	-12025
osh	-12026
chet	-12027
▁bats	-12028
▁crou	-12029
▁cradle	-12030
▁palest	-12031
▁frequent	-12032
▁preserved	-12033
26	-12034
uz	-12035
stra	-12036
iques	-12037
timore	-12038
▁2001,	-12039
▁dadda	-12040
▁archae	-12041
▁retain	-12042
▁rounds	-12043
▁stamps	-12044
▁factors	-12045
▁sickness	-12046
▁investigate	-12047
cro	-12048
equ	-12049
pie	-12050
▁♪♪	-12051
▁tyr	-12052
prints	-12053
▁2000.	-12054
▁proto	-12055
▁travels	-12056
▁flashing	-12057
▁passport	-12058
▁agricultural	-12059
rig	-12060
▁kor	-12061
▁essay	-12062
▁barber	-12063
▁julian	-12064
▁iranian	-12065
▁emotions	-12066
▁whiskers	-12067
▁wisconsin	-12068
ès	-12069
hun	-12070
sco	-12071
bish	-12072
▁ada	-12073
▁darwin	-12074
▁dismay	-12075
▁amateur	-12076
▁roberts	-12077
▁collabor	-12078
▁humanity	-12079
▁raspberry	-12080
▁specifically	-12081
uch	-12082
▁rosa	-12083
▁maker	-12084
▁wharf	-12085
mingham	-12086
▁prizes	-12087
▁punjab	-12088
▁runner	-12089
▁translation	-12090
▁aj	-12091
east	-12092
feld	-12093
horn	-12094
vine	-12095
begins	-12096
▁bloom	-12097
▁nicer	-12098
▁param	-12099
▁proven	-12100
▁rhodes	-12101
▁leonard	-12102
▁roaring	-12103
icia	-12104
▁(195	-12105
▁slid	-12106
flower	-12107
inners	-12108
▁parag	-12109
▁wider	-12110
▁bennie	-12111
▁duncan	-12112
▁geograp	-12113
▁quicker	-12114
▁picardie	-12115
▁displayed	-12116
▁continental	-12117
enous	-12118
erest	-12119
▁mick	-12120
▁boast	-12121
▁scree	-12122
▁siege	-12123
▁quarrel	-12124
pow	-12125
uda	-12126
shaped	-12127
▁booth	-12128
▁singh	-12129
whining	-12130
▁unlock	-12131
▁merrily	-12132
▁midship	-12133
▁advertise	-12134
▁determine	-12135
▁diagnosed	-12136
▁participated	-12137
▁dex	-12138
▁gul	-12139
▁1979	-12140
▁heed	-12141
▁alber	-12142
▁acceler	-12143
▁designs	-12144
▁peasants	-12145
▁typically	-12146
▁chis	-12147
▁lent	-12148
▁fella	-12149
▁hardy	-12150
▁inject	-12151
▁welcom	-12152
▁baskets	-12153
▁substant	-12154
▁theodore	-12155
▁principles	-12156
▁jeep	-12157
▁terr	-12158
▁yogh	-12159
▁crush	-12160
▁gladly	-12161
▁campbell	-12162
▁specially	-12163
▁educational	-12164
99	-12165
00,	-12166
gor	-12167
rob	-12168
geons	-12169
▁metro	-12170
▁petro	-12171
▁notion	-12172
▁rifles	-12173
▁houston	-12174
▁clapping	-12175
▁industries	-12176
lia	-12177
▁gid	-12178
seven	-12179
stead	-12180
▁carib	-12181
▁miguel	-12182
▁pottie	-12183
▁prairie	-12184
▁villain	-12185
▁certific	-12186
▁baltimore	-12187
▁toothbrush	-12188
▁tet	-12189
▁doug	-12190
▁hort	-12191
▁ridd	-12192
▁heath	-12193
▁burial	-12194
▁hospitals	-12195
▁pretended	-12196
▁signature	-12197
▁exclamation	-12198
itty	-12199
iency	-12200
▁adri	-12201
▁gail	-12202
▁herr	-12203
houses	-12204
▁buses	-12205
▁salmon	-12206
▁indiffe	-12207
▁jefferson	-12208
cli	-12209
▁arc	-12210
▁goss	-12211
▁parallel	-12212
doll	-12213
▁twe	-12214
cloth	-12215
▁ants	-12216
▁wade	-12217
▁devot	-12218
▁ricky	-12219
audible	-12220
▁cement	-12221
▁caravan	-12222
▁wrestler	-12223
▁opportunities	-12224
dled	-12225
pack	-12226
▁bod	-12227
▁1978	-12228
▁butler	-12229
▁madrid	-12230
▁phenom	-12231
▁upward	-12232
▁yonder	-12233
▁heights	-12234
▁requires	-12235
▁telegraph	-12236
▁registered	-12237
▁destination	-12238
lu	-12239
gow	-12240
▁pg	-12241
neum	-12242
peech	-12243
▁lust	-12244
▁noah	-12245
trying	-12246
▁grind	-12247
▁pinea	-12248
▁cultiv	-12249
▁courses	-12250
▁grammar	-12251
▁grasped	-12252
▁therapy	-12253
▁brushing	-12254
▁nomination	-12255
▁procession	-12256
▁generations	-12257
▁thoughtfully	-12258
sets	-12259
faced	-12260
▁ster	-12261
▁kills	-12262
▁makin	-12263
▁mates	-12264
▁rugby	-12265
▁torch	-12266
▁slipping	-12267
▁laboratory	-12268
/5	-12269
chell	-12270
▁blah	-12271
▁chrom	-12272
▁hebrew	-12273
▁playin	-12274
▁potter	-12275
▁shirts	-12276
nonspeech	-12277
▁bachelor	-12278
▁reindeer	-12279
▁believing	-12280
▁65	-12281
nity	-12282
stic	-12283
▁ced	-12284
▁toad	-12285
mighty	-12286
▁confession	-12287
oni	-12288
▁ip	-12289
▁ohh	-12290
▁yam	-12291
▁pains	-12292
▁provo	-12293
▁prevented	-12294
▁concentrate	-12295
▁announcement	-12296
▁poke	-12297
▁brooks	-12298
▁reveal	-12299
▁handful	-12300
▁plunged	-12301
▁rubbish	-12302
▁commenced	-12303
▁prominent	-12304
▁treasures	-12305
aux	-12306
pop	-12307
liness	-12308
▁spike	-12309
▁spons	-12310
▁assess	-12311
▁danish	-12312
▁halted	-12313
▁luggage	-12314
▁greeting	-12315
▁quantity	-12316
those	-12317
▁auton	-12318
▁prints	-12319
▁amusing	-12320
▁fitting	-12321
▁corridor	-12322
▁facility	-12323
▁persuade	-12324
▁chattering	-12325
▁afghanistan	-12326
▁applications	-12327
vol	-12328
▁ib	-12329
▁178	-12330
▁cod	-12331
▁ply	-12332
▁foul	-12333
▁pipes	-12334
▁errand	-12335
▁luxury	-12336
▁stored	-12337
▁install	-12338
▁wealthy	-12339
▁fountain	-12340
▁occasional	-12341
tri	-12342
acre	-12343
cers	-12344
orms	-12345
poon	-12346
imony	-12347
▁maps	-12348
▁rook	-12349
ooping	-12350
sniffs	-12351
▁basil	-12352
▁brisk	-12353
▁solic	-12354
▁revere	-12355
▁shores	-12356
▁alarmed	-12357
▁compare	-12358
▁stirred	-12359
▁bouncing	-12360
▁promises	-12361
▁compelled	-12362
ttes	-12363
▁fug	-12364
▁pod	-12365
diary	-12366
itated	-12367
onation	-12368
▁holmes	-12369
▁growled	-12370
▁protests	-12371
▁champagne	-12372
▁macdonald	-12373
alp	-12374
best	-12375
erto	-12376
▁tul	-12377
▁annabel	-12378
▁technique	-12379
▁broo	-12380
▁glove	-12381
▁inval	-12382
▁shrew	-12383
natural	-12384
▁cupcake	-12385
▁demands	-12386
▁expense	-12387
▁minimum	-12388
▁backward	-12389
▁amendment	-12390
▁requested	-12391
▁discussing	-12392
eze	-12393
lov	-12394
ppet	-12395
david	-12396
llers	-12397
▁1999.	-12398
▁blunt	-12399
▁ketch	-12400
▁scent	-12401
▁amounts	-12402
▁equival	-12403
▁concrete	-12404
▁paralympics	-12405
idy	-12406
ablo	-12407
assy	-12408
tony	-12409
balls	-12410
▁beak	-12411
▁rita	-12412
▁smugg	-12413
▁habits	-12414
▁hilary	-12415
▁violet	-12416
▁supplied	-12417
▁concealed	-12418
▁paragraph	-12419
▁sentenced	-12420
imet	-12421
▁(),	-12422
bourg	-12423
hattan	-12424
▁safer	-12425
sneezes	-12426
▁tasted	-12427
▁wholly	-12428
▁explorer	-12429
▁initially	-12430
▁birmingham	-12431
);	-12432
ardy	-12433
vest	-12434
▁177	-12435
▁crib	-12436
▁prim	-12437
rating	-12438
▁cloak	-12439
▁outta	-12440
▁reass	-12441
▁strang	-12442
▁detailed	-12443
▁humphrey	-12444
▁hurrying	-12445
▁popularity	-12446
▁relationships	-12447
cuse	-12448
▁1975	-12449
▁cans	-12450
▁lynn	-12451
▁teas	-12452
speech	-12453
▁alger	-12454
▁finance	-12455
▁sleeves	-12456
▁succession	-12457
ís	-12458
▁lur	-12459
truck	-12460
▁loaf	-12461
▁remi	-12462
▁sins	-12463
▁gerva	-12464
▁penet	-12465
▁cleveland	-12466
▁artificial	-12467
▁synt	-12468
▁storms	-12469
grunting	-12470
▁savages	-12471
nell	-12472
iland	-12473
▁shud	-12474
▁welf	-12475
▁skate	-12476
▁skiing	-12477
▁garbage	-12478
▁removes	-12479
▁garments	-12480
▁spaceship	-12481
▁confederate	-12482
-8	-12483
▁obsc	-12484
▁vick	-12485
estion	-12486
▁alleg	-12487
▁wrink	-12488
pection	-12489
▁armour	-12490
▁motive	-12491
▁velvet	-12492
▁whence	-12493
▁sections	-12494
▁extensive	-12495
▁communicate	-12496
▁superintend	-12497
▁ss	-12498
onic	-12499
▁1977	-12500
▁burger	-12501
▁israeli	-12502
▁notting	-12503
▁strikes	-12504
▁whining	-12505
▁opponent	-12506
▁marvellous	-12507
▁classification	-12508
▁ard	-12509
court	-12510
names	-12511
shall	-12512
▁fain	-12513
▁vamp	-12514
market	-12515
▁rover	-12516
▁sealed	-12517
▁adapted	-12518
▁handling	-12519
▁efficient	-12520
▁reflection	-12521
▁dy	-12522
neys	-12523
▁esp	-12524
▁pla	-12525
media	-12526
mances	-12527
▁krist	-12528
▁battal	-12529
▁recovery	-12530
▁fireplace	-12531
open	-12532
reet	-12533
bound	-12534
young	-12535
naments	-12536
▁hunted	-12537
▁casting	-12538
▁flowing	-12539
▁nightmare	-12540
▁agriculture	-12541
think	-12542
thanks	-12543
usions	-12544
▁crops	-12545
▁slack	-12546
▁hudson	-12547
▁laurie	-12548
▁sunlight	-12549
▁artillery	-12550
▁strongest	-12551
▁continuing	-12552
▁deliberately	-12553
29	-12554
aby	-12555
▁(_	-12556
▁sic	-12557
▁poppy	-12558
▁attach	-12559
▁carrier	-12560
▁farming	-12561
▁treacher	-12562
zoe	-12563
▁daff	-12564
▁shawn	-12565
▁diving	-12566
▁graves	-12567
▁sleigh	-12568
▁turtles	-12569
▁terrified	-12570
▁yi	-12571
▁clan	-12572
ubbies	-12573
▁deeds	-12574
removes	-12575
▁apollo	-12576
▁fundament	-12577
▁swallowed	-12578
▁fay	-12579
▁reds	-12580
arettes	-12581
▁misery	-12582
▁squire	-12583
▁dialect	-12584
▁loyalty	-12585
▁winding	-12586
▁henderson	-12587
nar	-12588
tha	-12589
uan	-12590
▁ji	-12591
ccoli	-12592
▁mitt	-12593
▁tart	-12594
▁claud	-12595
▁idaho	-12596
natured	-12597
▁organic	-12598
▁melbourne	-12599
▁purchased	-12600
▁composition	-12601
cray	-12602
unci	-12603
waii	-12604
enson	-12605
gered	-12606
heard	-12607
▁chel	-12608
▁owen	-12609
▁alpha	-12610
▁boiled	-12611
▁smashed	-12612
▁screamed	-12613
▁continent	-12614
▁hungarian	-12615
▁southwestern	-12616
."]	-12617
ivan	-12618
▁[3.	-12619
ileen	-12620
▁bros	-12621
▁mold	-12622
▁moor	-12623
▁pies	-12624
▁caleb	-12625
isation	-12626
▁finals	-12627
▁resent	-12628
▁orthodo	-12629
▁praised	-12630
▁designer	-12631
▁resulted	-12632
▁franchise	-12633
▁historian	-12634
▁compliment	-12635
▁governments	-12636
▁performances	-12637
ét	-12638
whist	-12639
▁envy	-12640
antine	-12641
course	-12642
▁1994.	-12643
▁quoth	-12644
▁wolver	-12645
cription	-12646
▁chuckled	-12647
▁territories	-12648
▁bil	-12649
▁prow	-12650
▁prud	-12651
▁1998.	-12652
▁groom	-12653
▁novels	-12654
▁torped	-12655
▁lighting	-12656
▁indigenous	-12657
://	-12658
▁rains	-12659
▁attent	-12660
▁mouths	-12661
▁volumes	-12662
▁primarily	-12663
▁sensation	-12664
▁fen	-12665
aired	-12666
▁bast	-12667
▁stal	-12668
▁welfare	-12669
▁qualities	-12670
▁cuc	-12671
▁kirk	-12672
▁bluff	-12673
▁suite	-12674
▁phoned	-12675
▁verses	-12676
▁reverse	-12677
▁physician	-12678
▁businesses	-12679
?’	-12680
enz	-12681
belt	-12682
emed	-12683
▁bam	-12684
▁joo	-12685
invest	-12686
▁incom	-12687
▁muddy	-12688
writing	-12689
▁cocoon	-12690
▁ensure	-12691
▁murphy	-12692
▁barrier	-12693
▁scandal	-12694
pronounced	-12695
)]	-12696
⌉?	-12697
thy	-12698
▁46	-12699
dire	-12700
▁pont	-12701
▁vicar	-12702
▁newton	-12703
▁titled	-12704
▁arrives	-12705
▁floated	-12706
▁inquiry	-12707
▁temples	-12708
▁infinite	-12709
▁automatic	-12710
mals	-12711
▁181	-12712
▁chad	-12713
▁ella	-12714
▁liking	-12715
▁scores	-12716
▁bridges	-12717
▁tumbled	-12718
▁expenses	-12719
▁inspection	-12720
▁accidentally	-12721
lda	-12722
nty	-12723
ski	-12724
▁vern	-12725
▁prophe	-12726
▁dearest	-12727
▁handled	-12728
▁honored	-12729
usa	-12730
hang	-12731
▁1992.	-12732
▁pruss	-12733
▁wrath	-12734
▁munich	-12735
▁taiwan	-12736
▁trials	-12737
▁consisted	-12738
▁manhattan	-12739
▁kilometers	-12740
▁communications	-12741
hhh	-12742
super	-12743
▁2003,	-12744
▁flats	-12745
▁frustr	-12746
▁situations	-12747
▁eru	-12748
▁kab	-12749
books	-12750
▁hymn	-12751
▁robe	-12752
▁ambit	-12753
▁brack	-12754
▁mosqu	-12755
▁paddle	-12756
▁puerto	-12757
▁kittens	-12758
▁coughing	-12759
▁molecules	-12760
▁cigarettes	-12761
%.	-12762
aku	-12763
umpy	-12764
▁apost	-12765
▁stray	-12766
▁leices	-12767
▁selena	-12768
▁aroused	-12769
▁comprom	-12770
▁harness	-12771
▁secretly	-12772
”?	-12773
far	-12774
stad	-12775
▁brumm	-12776
▁inscri	-12777
▁approve	-12778
▁dragging	-12779
yan	-12780
▁eug	-12781
elect	-12782
ggles	-12783
▁flap	-12784
▁vend	-12785
▁bella	-12786
▁fluid	-12787
▁lists	-12788
▁unfair	-12789
▁boundary	-12790
▁rejoined	-12791
▁directors	-12792
▁determination	-12793
▁ng	-12794
anton	-12795
hammed	-12796
▁fewer	-12797
▁intim	-12798
▁quote	-12799
▁nurses	-12800
▁theore	-12801
▁wildly	-12802
▁arguing	-12803
▁prevail	-12804
▁broccoli	-12805
▁wretched	-12806
▁indonesia	-12807
▁sovereign	-12808
pling	-12809
▁maya	-12810
▁croat	-12811
▁declar	-12812
▁begging	-12813
▁dolphin	-12814
▁trolley	-12815
▁classroom	-12816
▁measuring	-12817
▁49	-12818
ubby	-12819
▁bau	-12820
▁1952	-12821
idency	-12822
▁fract	-12823
▁valle	-12824
▁accurate	-12825
▁attending	-12826
roe	-12827
▁47	-12828
bank	-12829
brown	-12830
pause	-12831
▁pled	-12832
▁navig	-12833
▁trophy	-12834
▁complet	-12835
▁crawled	-12836
▁survival	-12837
▁rebellion	-12838
▁correspond	-12839
="	-12840
bea	-12841
▁fret	-12842
engine	-12843
includ	-12844
member	-12845
oubted	-12846
uccess	-12847
▁manus	-12848
▁deedee	-12849
▁ransom	-12850
demonstr	-12851
▁sweeties	-12852
▁edinburgh	-12853
anna	-12854
sole	-12855
▁lyon	-12856
▁anthem	-12857
▁argued	-12858
▁oatmeal	-12859
▁prophet	-12860
▁accidents	-12861
▁furnished	-12862
▁kidnapped	-12863
▁scratched	-12864
kir	-12865
term	-12866
avier	-12867
▁gosp	-12868
really	-12869
▁plaster	-12870
▁lastname	-12871
▁pumpkins	-12872
▁electrons	-12873
▁highchair	-12874
▁desperately	-12875
gom	-12876
wyn	-12877
lady	-12878
▁ivy	-12879
▁sab	-12880
sized	-12881
▁wont	-12882
▁freud	-12883
▁chiefs	-12884
▁cheating	-12885
▁colombia	-12886
▁gervaise	-12887
▁soo	-12888
▁stag	-12889
▁1997.	-12890
▁dispute	-12891
▁teasing	-12892
▁deserved	-12893
▁fortress	-12894
▁glancing	-12895
▁montreal	-12896
▁strictly	-12897
rele	-12898
horse	-12899
▁hush	-12900
▁messed	-12901
ervation	-12902
▁bradley	-12903
▁thieves	-12904
▁settlements	-12905
cot	-12906
▁["	-12907
wife	-12908
▁axe	-12909
▁abol	-12910
▁brus	-12911
▁mann	-12912
▁steer	-12913
▁crimin	-12914
▁clasped	-12915
▁bitterly	-12916
▁crawford	-12917
▁frighten	-12918
▁maintained	-12919
▁establishment	-12920
▁2:	-12921
▁kr	-12922
mies	-12923
seen	-12924
▁jaws	-12925
▁cocoa	-12926
▁checks	-12927
▁format	-12928
▁rapper	-12929
▁charley	-12930
▁legends	-12931
▁brightly	-12932
▁colonial	-12933
▁ignorant	-12934
▁bothering	-12935
fix	-12936
hea	-12937
pen	-12938
tor	-12939
izer	-12940
▁rey	-12941
neigh	-12942
▁windy	-12943
▁diesel	-12944
▁infect	-12945
▁unclear	-12946
▁receiver	-12947
▁organisation	-12948
33	-12949
agi	-12950
cio	-12951
▁1969	-12952
▁dang	-12953
▁pall	-12954
christ	-12955
▁density	-12956
▁grocery	-12957
▁martial	-12958
▁produces	-12959
▁theories	-12960
▁conspiracy	-12961
-7	-12962
lest	-12963
▁kri	-12964
▁gren	-12965
▁jest	-12966
▁gloria	-12967
▁flights	-12968
▁mammals	-12969
▁whatcha	-12970
▁retorted	-12971
▁commented	-12972
▁stretching	-12973
!_	-12974
jj	-12975
]⌋.	-12976
hia	-12977
joy	-12978
sir	-12979
mant	-12980
▁182	-12981
erals	-12982
▁darn	-12983
▁herd	-12984
▁lame	-12985
▁myth	-12986
▁tuna	-12987
▁onion	-12988
▁sizes	-12989
▁toxic	-12990
▁rogers	-12991
▁carpenter	-12992
▁engineers	-12993
▁telescope	-12994
chuck	-12995
▁heck	-12996
▁heel	-12997
haired	-12998
▁2019)	-12999
▁choir	-13000
▁piled	-13001
▁wizard	-13002
▁cancell	-13003
▁ladders	-13004
▁randall	-13005
▁tornado	-13006
▁artistic	-13007
▁welcomed	-13008
▁accomplish	-13009
iva	-13010
ario	-13011
ishi	-13012
▁suk	-13013
chris	-13014
▁1973	-13015
▁crawls	-13016
▁hawaii	-13017
▁confront	-13018
▁christine	-13019
▁manuscript	-13020
▁congressional	-13021
cock	-13022
▁jab	-13023
▁index	-13024
▁twent	-13025
▁crumbs	-13026
▁belgian	-13027
▁closest	-13028
▁jewelry	-13029
▁pilgrim	-13030
fy	-13031
▁leak	-13032
▁peru	-13033
▁pins	-13034
▁owing	-13035
▁pyram	-13036
▁risen	-13037
unction	-13038
▁backed	-13039
▁liquor	-13040
▁exhibit	-13041
▁halfway	-13042
▁finishes	-13043
▁rendered	-13044
▁contented	-13045
▁countryside	-13046
cla	-13047
wig	-13048
bast	-13049
table	-13050
ortion	-13051
▁1991.	-13052
▁furry	-13053
▁spade	-13054
▁crooked	-13055
▁lettice	-13056
▁proudly	-13057
▁trumpet	-13058
fay	-13059
plays	-13060
▁1956	-13061
▁cran	-13062
▁hoof	-13063
▁lays	-13064
▁guilt	-13065
▁woody	-13066
▁patron	-13067
▁render	-13068
▁chemicals	-13069
▁structures	-13070
def	-13071
▁[.7	-13072
▁agony	-13073
▁bravo	-13074
▁loren	-13075
▁stare	-13076
▁cliffs	-13077
▁depths	-13078
▁minnie	-13079
▁parting	-13080
▁associate	-13081
ipe	-13082
▁1:	-13083
thou	-13084
▁doh	-13085
▁dud	-13086
▁sik	-13087
▁abst	-13088
▁jama	-13089
▁paras	-13090
▁plums	-13091
▁mixing	-13092
▁absorbed	-13093
▁convicted	-13094
▁productions	-13095
gans	-13096
▁enable	-13097
▁masses	-13098
▁decides	-13099
▁contempor	-13100
▁squirrels	-13101
▁triumphant	-13102
fra	-13103
▁hyp	-13104
▁syl	-13105
draws	-13106
||0||	-13107
▁1945	-13108
▁diction	-13109
▁eternal	-13110
▁exagger	-13111
▁corporal	-13112
▁curiously	-13113
▁indistinct	-13114
▁underwater	-13115
▁sufficiently	-13116
▁kon	-13117
▁dain	-13118
▁fragr	-13119
▁sheer	-13120
▁coughs	-13121
▁fishes	-13122
▁flavor	-13123
▁melted	-13124
▁routes	-13125
▁explaining	-13126
▁constructed	-13127
▁$1.	-13128
built	-13129
▁1919	-13130
▁2023.	-13131
▁buggy	-13132
▁crank	-13133
▁faded	-13134
▁frown	-13135
▁pneum	-13136
ressing	-13137
▁enchan	-13138
▁warmly	-13139
▁bowling	-13140
▁indiana	-13141
▁inherit	-13142
▁superst	-13143
▁wonders	-13144
▁summoned	-13145
▁rut	-13146
▁chau	-13147
another	-13148
kissing	-13149
▁carson	-13150
▁isabelle	-13151
▁pocketbook	-13152
chin	-13153
make	-13154
boards	-13155
▁2000,	-13156
▁gasps	-13157
rington	-13158
▁baking	-13159
▁clicks	-13160
▁messing	-13161
▁neutral	-13162
▁skeleton	-13163
▁broadcasting	-13164
"--	-13165
▁bé	-13166
hops	-13167
▁disk	-13168
▁reli	-13169
▁paula	-13170
▁trifle	-13171
▁discont	-13172
▁fancied	-13173
▁freeman	-13174
▁threats	-13175
▁guidance	-13176
▁sentences	-13177
▁departments	-13178
30.	-13179
gre	-13180
isp	-13181
occ	-13182
aude	-13183
inge	-13184
isen	-13185
▁pav	-13186
melon	-13187
▁1948	-13188
▁bites	-13189
▁deser	-13190
▁uhhum	-13191
▁ribbit	-13192
▁persist	-13193
▁yoghurt	-13194
▁fighters	-13195
▁likewise	-13196
▁undoubted	-13197
▁pittsburgh	-13198
ao	-13199
fing	-13200
paste	-13201
▁anat	-13202
▁hens	-13203
▁salv	-13204
▁capit	-13205
▁seals	-13206
▁darted	-13207
▁grover	-13208
▁kipper	-13209
▁ronnie	-13210
▁serial	-13211
▁tackle	-13212
▁vermont	-13213
▁graceful	-13214
▁slippery	-13215
ifications	-13216
speechplay	-13217
▁questioning	-13218
▁dc	-13219
unks	-13220
▁1936	-13221
▁1966	-13222
▁flex	-13223
▁mare	-13224
▁wald	-13225
▁wept	-13226
▁brows	-13227
▁syria	-13228
related	-13229
▁stephan	-13230
▁weeping	-13231
▁exceedingly	-13232
▁characteristics	-13233
uto	-13234
bbly	-13235
▁1967	-13236
▁madd	-13237
▁bouncy	-13238
▁darker	-13239
▁marshal	-13240
▁almighty	-13241
▁rejected	-13242
▁personnel	-13243
▁strangely	-13244
omo	-13245
pal	-13246
alia	-13247
fell	-13248
mson	-13249
orse	-13250
▁nuh	-13251
leigh	-13252
▁diso	-13253
▁fitz	-13254
▁lola	-13255
section	-13256
▁aborig	-13257
▁pigeon	-13258
▁traces	-13259
▁brushed	-13260
▁hippopot	-13261
▁kneeling	-13262
▁criticism	-13263
▁repeating	-13264
▁comfortably	-13265
▁scholarship	-13266
▁55	-13267
bone	-13268
iries	-13269
▁rene	-13270
▁1993.	-13271
▁canoes	-13272
▁compens	-13273
▁predict	-13274
▁restore	-13275
▁managing	-13276
▁terminal	-13277
abr	-13278
lee	-13279
▁dow	-13280
hesis	-13281
▁lect	-13282
▁arsen	-13283
▁glenn	-13284
▁pupil	-13285
▁raced	-13286
▁rises	-13287
▁prayed	-13288
▁recomm	-13289
▁sharon	-13290
▁impulse	-13291
▁psychiat	-13292
▁classified	-13293
44	-13294
alpes	-13295
wright	-13296
▁1996.	-13297
▁bangs	-13298
▁clues	-13299
▁revenue	-13300
▁garrison	-13301
▁grandson	-13302
joe	-13303
ulus	-13304
▁"...	-13305
▁jesse	-13306
▁megan	-13307
▁missy	-13308
▁shaft	-13309
through	-13310
▁emerged	-13311
▁periods	-13312
▁phoenix	-13313
▁satisfy	-13314
▁profound	-13315
▁singular	-13316
▁pineapple	-13317
▁distinctly	-13318
airy	-13319
icle	-13320
▁cyl	-13321
roman	-13322
▁glas	-13323
ingham	-13324
▁exert	-13325
▁vigor	-13326
▁voting	-13327
▁mechanical	-13328
▁considerably	-13329
bol	-13330
eae	-13331
osl	-13332
rez	-13333
angu	-13334
march	-13335
▁kend	-13336
▁guild	-13337
▁twelf	-13338
▁quebec	-13339
▁deserves	-13340
▁prosecut	-13341
▁successor	-13342
gmo	-13343
▁1971	-13344
▁ober	-13345
▁fluffy	-13346
▁operator	-13347
▁partnership	-13348
▁unbelievable	-13349
▁berg	-13350
estyle	-13351
second	-13352
▁flint	-13353
attempt	-13354
▁immort	-13355
▁patric	-13356
▁bidding	-13357
▁magician	-13358
▁solemnly	-13359
▁celebration	-13360
wart	-13361
▁1947	-13362
▁rash	-13363
braska	-13364
▁erect	-13365
▁overt	-13366
▁vegas	-13367
lington	-13368
discards	-13369
▁hostile	-13370
▁quantum	-13371
▁depressed	-13372
▁aggressive	-13373
▁temperatures	-13374
▁complications	-13375
aza	-13376
pap	-13377
reb	-13378
kill	-13379
▁kur	-13380
▁pia	-13381
whimp	-13382
▁temp	-13383
▁twww	-13384
▁1990.	-13385
▁lawyers	-13386
▁lookout	-13387
▁creative	-13388
tem	-13389
imer	-13390
itis	-13391
rism	-13392
▁fry	-13393
▁rag	-13394
▁tac	-13395
chand	-13396
polis	-13397
▁cope	-13398
▁cove	-13399
▁herb	-13400
▁jock	-13401
▁skins	-13402
central	-13403
▁cromer	-13404
▁bravely	-13405
▁brigade	-13406
▁concerts	-13407
▁grunting	-13408
▁caribbean	-13409
▁promising	-13410
▁remainder	-13411
▁whereupon	-13412
▁continuous	-13413
voy	-13414
▁xii	-13415
▁barr	-13416
▁wang	-13417
▁fabric	-13418
▁orient	-13419
▁seaside	-13420
▁torment	-13421
▁mohammed	-13422
▁firefight	-13423
july	-13424
▁array	-13425
▁fraud	-13426
▁neuro	-13427
▁barcel	-13428
▁dumped	-13429
▁intake	-13430
▁awright	-13431
▁glowing	-13432
▁murders	-13433
▁guitarist	-13434
claps	-13435
▁aran	-13436
▁sped	-13437
▁posts	-13438
▁prick	-13439
queline	-13440
▁discri	-13441
▁grande	-13442
▁primit	-13443
▁altitude	-13444
▁porridge	-13445
▁preserve	-13446
▁instruction	-13447
▁respectable	-13448
▁teletubbies	-13449
aba	-13450
holm	-13451
▁(17	-13452
cence	-13453
▁pave	-13454
wealth	-13455
▁deals	-13456
▁freddy	-13457
▁athlete	-13458
▁savings	-13459
▁reverend	-13460
▁complaint	-13461
demonstrates	-13462
▁distinguish	-13463
65	-13464
▁ö	-13465
dar	-13466
ova	-13467
wah	-13468
ierra	-13469
▁butt	-13470
▁outs	-13471
▁verb	-13472
▁2002,	-13473
▁pingu	-13474
▁motors	-13475
▁bathing	-13476
▁promote	-13477
▁athletic	-13478
▁rosamund	-13479
▁persuaded	-13480
▁songwriter	-13481
▁pm	-13482
▁jug	-13483
▁nim	-13484
cough	-13485
▁danie	-13486
▁banned	-13487
▁apology	-13488
▁pickles	-13489
▁suggesting	-13490
vr	-13491
said	-13492
anner	-13493
▁1934	-13494
▁grac	-13495
intell	-13496
▁hates	-13497
▁henri	-13498
▁onions	-13499
▁pursue	-13500
▁saucer	-13501
▁bennett	-13502
▁ironing	-13503
▁cardinal	-13504
▁creeping	-13505
▁tourists	-13506
▁partially	-13507
kun	-13508
▁dew	-13509
▁1929	-13510
▁eyeb	-13511
better	-13512
▁choos	-13513
▁waffle	-13514
▁abandon	-13515
▁armenia	-13516
▁nigeria	-13517
▁hurriedly	-13518
▁recommended	-13519
ounge	-13520
▁1928	-13521
▁1933	-13522
▁tren	-13523
▁advoc	-13524
▁hards	-13525
▁somme	-13526
▁climbs	-13527
▁makeup	-13528
▁funding	-13529
▁mainland	-13530
▁privilege	-13531
undercurrent	-13532
.!	-13533
hit	-13534
cken	-13535
moon	-13536
must	-13537
oded	-13538
5,000	-13539
yawns	-13540
▁fenn	-13541
▁pend	-13542
▁quad	-13543
gomery	-13544
▁bends	-13545
▁maple	-13546
▁sanct	-13547
rainian	-13548
▁equals	-13549
▁nicola	-13550
▁junction	-13551
▁particle	-13552
▁equivalent	-13553
investigator	-13554
▁impatiently	-13555
dece	-13556
lift	-13557
ccups	-13558
dling	-13559
▁dogg	-13560
▁nora	-13561
worthy	-13562
▁plank	-13563
▁grunts	-13564
▁weston	-13565
▁summers	-13566
▁converted	-13567
▁traditions	-13568
arrondissement	-13569
31	-13570
gic	-13571
▁64	-13572
▁rex	-13573
front	-13574
▁loco	-13575
▁mane	-13576
▁pian	-13577
itudes	-13578
▁icing	-13579
▁arctic	-13580
▁keeper	-13581
▁quaint	-13582
▁triple	-13583
▁noodles	-13584
▁barcelona	-13585
▁xiv	-13586
lights	-13587
▁phara	-13588
▁revel	-13589
▁dainty	-13590
▁expans	-13591
▁hopped	-13592
▁lumber	-13593
▁refres	-13594
▁stacker	-13595
▁teaches	-13596
▁opinions	-13597
▁portrait	-13598
▁comparison	-13599
2),	-13600
mil	-13601
▁ahh	-13602
▁1931	-13603
▁undo	-13604
▁diver	-13605
▁shamp	-13606
▁torto	-13607
▁yells	-13608
▁scrape	-13609
▁voiced	-13610
▁warmth	-13611
▁deposit	-13612
songwriter	-13613
▁biological	-13614
▁va	-13615
bably	-13616
ifies	-13617
ighed	-13618
▁1939	-13619
▁plac	-13620
asping	-13621
▁boxing	-13622
▁gender	-13623
▁georgie	-13624
▁hardest	-13625
▁monument	-13626
▁mechanism	-13627
▁playstation	-13628
▁restaurants	-13629
kov	-13630
lab	-13631
wal	-13632
tube	-13633
▁otto	-13634
▁slay	-13635
▁yale	-13636
▁recre	-13637
▁seize	-13638
instein	-13639
▁carved	-13640
▁joshua	-13641
▁biology	-13642
▁tearing	-13643
▁witches	-13644
▁squadron	-13645
▁defending	-13646
▁declaration	-13647
dé	-13648
orf	-13649
ppe	-13650
▁bha	-13651
▁anto	-13652
▁foam	-13653
▁rape	-13654
▁freak	-13655
▁allied	-13656
▁morrow	-13657
▁turner	-13658
▁baggage	-13659
▁convict	-13660
▁marrying	-13661
▁defensive	-13662
ige	-13663
jay	-13664
▁9.	-13665
abad	-13666
▁[.8	-13667
▁gav	-13668
inery	-13669
▁litt	-13670
▁tisha	-13671
▁dangers	-13672
▁tempted	-13673
certainly	-13674
▁chambers	-13675
▁reserved	-13676
▁salzburg	-13677
▁superman	-13678
▁montgomery	-13679
▁oi	-13680
fold	-13681
mast	-13682
ndez	-13683
▁coy	-13684
▁gha	-13685
▁nie	-13686
▁sag	-13687
beard	-13688
hales	-13689
▁dime	-13690
▁glac	-13691
▁meek	-13692
▁annoy	-13693
▁echoed	-13694
▁festiv	-13695
▁dislike	-13696
▁scheduled	-13697
jas	-13698
acon	-13699
anth	-13700
card	-13701
▁ami	-13702
▁1938	-13703
▁kula	-13704
▁pawn	-13705
▁rely	-13706
▁doris	-13707
▁spies	-13708
ensions	-13709
▁sesame	-13710
▁settlers	-13711
▁wardrobe	-13712
▁respected	-13713
▁attraction	-13714
/20	-13715
hos	-13716
atar	-13717
▁rib	-13718
▁cmon	-13719
▁sind	-13720
▁lance	-13721
▁mourn	-13722
sterdam	-13723
▁ashley	-13724
▁rating	-13725
▁wallet	-13726
▁washer	-13727
▁kathryn	-13728
▁options	-13729
▁pharaoh	-13730
▁constell	-13731
▁mosquito	-13732
▁addressing	-13733
▁publishing	-13734
/2	-13735
uffs	-13736
▁[.6	-13737
plain	-13738
▁1946	-13739
▁aimed	-13740
▁curls	-13741
▁delhi	-13742
▁loses	-13743
▁hoover	-13744
▁pilots	-13745
▁relate	-13746
▁simult	-13747
▁subtit	-13748
▁tipped	-13749
▁derwood	-13750
▁watermelon	-13751
sat	-13752
arten	-13753
▁begg	-13754
▁lark	-13755
▁rept	-13756
▁dated	-13757
▁essex	-13758
▁dillon	-13759
▁wagons	-13760
▁livingston	-13761
▁proportion	-13762
▁coincidence	-13763
▁$2	-13764
didn	-13765
▁rim	-13766
ouris	-13767
▁isle	-13768
▁snip	-13769
▁cindy	-13770
▁codes	-13771
▁perple	-13772
▁tribut	-13773
▁coaches	-13774
▁corrected	-13775
▁fragments	-13776
▁bulk	-13777
etcher	-13778
▁merit	-13779
▁galley	-13780
▁honors	-13781
▁revers	-13782
▁partial	-13783
▁ambition	-13784
▁intently	-13785
▁luncheon	-13786
▁gabriella	-13787
▁violently	-13788
▁undoubtedly	-13789
▁surroundings	-13790
oa	-13791
uj	-13792
sson	-13793
▁1941	-13794
▁inev	-13795
▁scan	-13796
ements	-13797
▁cheat	-13798
▁curve	-13799
▁lamps	-13800
▁lingu	-13801
▁pulse	-13802
▁bulgar	-13803
▁humpty	-13804
▁marbles	-13805
▁muslims	-13806
▁raisins	-13807
▁seattle	-13808
▁coloured	-13809
▁fundamental	-13810
ibi	-13811
elli	-13812
▁xvi	-13813
▁coax	-13814
▁bosom	-13815
▁conve	-13816
▁elite	-13817
▁glasgow	-13818
▁gorilla	-13819
▁willard	-13820
▁monaster	-13821
▁mortgage	-13822
▁treating	-13823
▁leicester	-13824
▁legislative	-13825
▁abi	-13826
chants	-13827
orship	-13828
▁aspir	-13829
▁franç	-13830
▁paths	-13831
▁vivid	-13832
▁fellas	-13833
▁strait	-13834
▁luckily	-13835
▁pioneer	-13836
▁rattles	-13837
▁worries	-13838
sometimes	-13839
▁indicates	-13840
▁inspiration	-13841
chat	-13842
▁dup	-13843
lucky	-13844
track	-13845
▁frock	-13846
▁leban	-13847
▁lofty	-13848
▁ofthe	-13849
▁skies	-13850
▁curtis	-13851
▁pierce	-13852
▁racket	-13853
▁gaining	-13854
▁heavier	-13855
▁swimmer	-13856
▁disguise	-13857
▁plymouth	-13858
▁criminals	-13859
▁calculated	-13860
▁toothpaste	-13861
▁essentially	-13862
34	-13863
...!	-13864
ooge	-13865
▁nak	-13866
icity	-13867
rogen	-13868
ometer	-13869
spring	-13870
▁lolly	-13871
▁semin	-13872
▁venge	-13873
▁elliot	-13874
▁shrine	-13875
▁drawers	-13876
▁awakened	-13877
▁township	-13878
▁improvement	-13879
▁commonwealth	-13880
▁presentation	-13881
scope	-13882
▁cruz	-13883
▁nash	-13884
▁para	-13885
▁acres	-13886
▁brute	-13887
▁flora	-13888
▁criter	-13889
december	-13890
▁enforce	-13891
▁ketchup	-13892
▁exercises	-13893
▁objective	-13894
▁regulations	-13895
ym	-13896
zzie	-13897
▁rapt	-13898
▁audio	-13899
▁strat	-13900
▁roused	-13901
▁cabbage	-13902
▁regards	-13903
▁circular	-13904
▁recalled	-13905
▁politicians	-13906
▁consultation	-13907
asa	-13908
bah	-13909
rix	-13910
half	-13911
main	-13912
august	-13913
fortune	-13914
▁magist	-13915
▁waiter	-13916
▁shampoo	-13917
▁chancell	-13918
▁costumes	-13919
▁growling	-13920
▁ornament	-13921
▁temptation	-13922
sli	-13923
▁bait	-13924
▁meter	-13925
▁endure	-13926
▁floors	-13927
▁locker	-13928
▁probable	-13929
▁trembled	-13930
-9	-13931
cke	-13932
▁maxim	-13933
▁señor	-13934
▁spared	-13935
▁warmer	-13936
▁devotion	-13937
▁removing	-13938
▁strategic	-13939
▁encouraging	-13940
▁embarrassing	-13941
uke	-13942
mans	-13943
ieval	-13944
yells	-13945
▁1000	-13946
▁1989.	-13947
▁cease	-13948
essions	-13949
▁greeks	-13950
▁hoarse	-13951
▁neatly	-13952
▁openly	-13953
▁scales	-13954
▁thirst	-13955
▁employee	-13956
▁advancing	-13957
▁decorated	-13958
▁techniques	-13959
jul	-13960
says	-13961
▁dae	-13962
human	-13963
▁1932	-13964
▁ribs	-13965
▁ruby	-13966
▁tilly	-13967
january	-13968
▁parked	-13969
▁perpet	-13970
▁physic	-13971
▁crimson	-13972
▁columbus	-13973
▁cultures	-13974
▁founding	-13975
▁situated	-13976
▁amsterdam	-13977
uba	-13978
▁kel	-13979
▁nev	-13980
drawn	-13981
▁hwww	-13982
▁luis	-13983
▁dusty	-13984
▁joins	-13985
▁stark	-13986
▁tread	-13987
▁wakes	-13988
▁chicks	-13989
▁aspects	-13990
▁abruptly	-13991
▁primitive	-13992
▁documentary	-13993
és	-13994
”!	-13995
▁♫	-13996
▁blaze	-13997
▁ditch	-13998
▁coffin	-13999
▁dexter	-14000
▁awaiting	-14001
▁stubborn	-14002
▁households	-14003
hei	-14004
oux	-14005
velt	-14006
cover	-14007
▁rwww	-14008
▁scam	-14009
▁ellis	-14010
▁leeds	-14011
▁franco	-14012
▁anytime	-14013
▁coastal	-14014
▁fletcher	-14015
▁mechanics	-14016
▁volunteers	-14017
▁superintendent	-14018
umi	-14019
acker	-14020
▁buen	-14021
listen	-14022
▁strap	-14023
minster	-14024
▁bertie	-14025
▁dearly	-14026
▁plague	-14027
▁sketch	-14028
▁blossom	-14029
▁homeless	-14030
throw	-14031
▁bout	-14032
▁gwww	-14033
rified	-14034
▁depri	-14035
▁dipsy	-14036
▁prejud	-14037
▁atlanta	-14038
▁guarded	-14039
▁heather	-14040
▁confined	-14041
▁imitates	-14042
▁intervals	-14043
▁starboard	-14044
▁membership	-14045
▁certificate	-14046
hou	-14047
show	-14048
ropical	-14049
▁spells	-14050
▁nebraska	-14051
▁incidents	-14052
▁complaining	-14053
jar	-14054
▁ps	-14055
▁sak	-14056
▁tib	-14057
elope	-14058
▁diab	-14059
▁proc	-14060
▁yang	-14061
bottle	-14062
▁uneasy	-14063
▁pleaded	-14064
▁venezuela	-14065
▁transition	-14066
mpi	-14067
span	-14068
▁nad	-14069
anium	-14070
cross	-14071
former	-14072
▁anten	-14073
▁decade	-14074
▁doubts	-14075
▁ingred	-14076
▁marcia	-14077
▁microw	-14078
▁throng	-14079
▁duchess	-14080
▁assisted	-14081
▁childish	-14082
▁formally	-14083
▁identical	-14084
ws	-14085
bbs	-14086
▁tee	-14087
▁nomi	-14088
▁phar	-14089
▁arabs	-14090
▁jeans	-14091
▁grumpy	-14092
▁sebast	-14093
▁whites	-14094
▁tribute	-14095
▁commerce	-14096
▁forwards	-14097
▁medieval	-14098
▁agreeable	-14099
▁announcer	-14100
▁enjoyment	-14101
▁marketing	-14102
▁pneumonia	-14103
▁autonomous	-14104
300	-14105
deb	-14106
oct	-14107
eland	-14108
▁milit	-14109
▁balcon	-14110
▁fergus	-14111
▁sunrise	-14112
▁watering	-14113
▁increases	-14114
▁missionary	-14115
▁achievement	-14116
mos	-14117
sec	-14118
var	-14119
emoise	-14120
estone	-14121
▁spart	-14122
▁sworn	-14123
▁arabia	-14124
▁lounge	-14125
▁metals	-14126
▁heating	-14127
▁pillows	-14128
▁puppies	-14129
▁orthodox	-14130
▁honourable	-14131
▁provincial	-14132
▁understands	-14133
mia	-14134
orge	-14135
zzle	-14136
▁das	-14137
▁wer	-14138
ittin	-14139
▁[1.5	-14140
▁hides	-14141
▁punct	-14142
▁slain	-14143
▁breach	-14144
▁clergy	-14145
▁seaman	-14146
▁brennan	-14147
▁failing	-14148
▁frankie	-14149
emoiselle	-14150
▁overseas	-14151
▁reactions	-14152
▁recognised	-14153
▁supporters	-14154
41	-14155
cott	-14156
rine	-14157
▁1954	-14158
▁yarn	-14159
▁flush	-14160
▁lanka	-14161
▁nesta	-14162
▁noses	-14163
▁heated	-14164
▁inland	-14165
▁server	-14166
▁subway	-14167
▁wholes	-14168
▁worshi	-14169
relative	-14170
shouting	-14171
▁	-14172
e	-14173
t	-14174
o	-14175
a	-14176
i	-14177
n	-14178
h	-14179
s	-14180
r	-14181
l	-14182
d	-14183
m	-14184
u	-14185
c	-14186
.	-14187
y	-14188
w	-14189
g	-14190
f	-14191
p	-14192
b	-14193
:	-14194
*	-14195
,	-14196
k	-14197
v	-14198
'	-14199
?	-14200
"	-14201
-	-14202
x	-14203
j	-14204
=	-14205
]	-14206
[	-14207
!	-14208
1	-14209
0	-14210
2	-14211
z	-14212
9	-14213
q	-14214
)	-14215
(	-14216
;	-14217
3	-14218
“	-14219
”	-14220
’	-14221
8	-14222
5	-14223
4	-14224
7	-14225
6	-14226
_	-14227
%	-14228
/	-14229
|	-14230
♪	-14231
–	-14232
—	-14233
+	-14234
é	-14235
#	-14236
$	-14237
á	-14238
&	-14239
‘	-14240
í	-14241
⌈	-14242
⌋	-14243
⌉	-14244
⌊	-14245
→	-14246
ö	-14247
ü	-14248
~	-14249
è	-14250
ó	-14251
`	-14252
¶	-14253
ä	-14254
―	-14255
}	-14256
ō	-14257
ñ	-14258
°	-14259
{	-14260
ú	-14261
─	-14262
æ	-14263
ç	-14264
â	-14265
ô	-14266
\	-14267
✿	-14268
ã	-14269
ā	-14270
š	-14271
£	-14272
ć	-14273
à	-14274
́	-14275
ø	-14276
•	-14277
ū	-14278
ê	-14279
↗	-14280
ł	-14281
↫	-14282
@	-14283
ë	-14284
å	-14285
č	-14286
î	-14287
♫	-14288
ß	-14289
ă	-14290
ş	-14291
§	-14292
ï	-14293
⁄	-14294
œ	-14295
ı	-14296
ì	-14297
	-14298
ī	-14299
×	-14300
ž	-14301
¡	-14302
¿	-14303
©	-14304
·	-14305
ý	-14306
ð	-14307
ș	-14308
ń	-14309
€	-14310
ò	-14311
−	-14312
^	-14313
ś	-14314
	-14315
¤	-14316
′	-14317
∆	-14318
ř	-14319
þ	-14320
∙	-14321
đ	-14322
û	-14323
­	-14324
ğ	-14325
ː	-14326
ˈ	-14327
õ	-14328
ù	-14329
ě	-14330
⁎	-14331
ē	-14332
ə	-14333
	-14334
ț	-14335
ż	-14336
ő	-14337
İ	-14338
ę	-14339
¢	-14340
ą	-14341
±	-14342
ţ	-14343
ʻ	-14344
ʼ	-14345
ṟ	-14346
„	-14347
‡	-14348
η	-14349
ṯ	-14350
ṭ	-14351
ả	-14352
ḥ	-14353
ệ	-14354
ɪ	-14355
ー	-14356
ɛ	-14357
÷	-14358
	-14359
ė	-14360
ź	-14361
ư	-14362
®	-14363
>	-14364
̶	-14365
ĕ	-14366
ồ	-14367
»	-14368
†	-14369
ʿ	-14370
«	-14371
ɑ	-14372
ṉ	-14373
ṣ	-14374
‭	-14375
ň	-14376
ọ	-14377
¦	-14378
ÿ	-14379
ů	-14380
	-14381
ǎ	-14382
་	-14383
¬	-14384
ŋ	-14385
॥	-14386
ɔ	-14387
▔	-14388
ʊ	-14389
←	-14390
ạ	-14391
	-14392
ẩ	-14393
ờ	-14394
ʾ	-14395
ũ	-14396
ế	-14397
¥	-14398
ṇ	-14399
ễ	-14400
∇	-14401
・	-14402
ứ	-14403
♭	-14404
ŭ	-14405
ʃ	-14406
α	-14407
⟨	-14408
⟩	-14409
	-14410
ŵ	-14411
ộ	-14412
ņ	-14413
ơ	-14414
ố	-14415
‐	-14416
ʒ	-14417
ν	-14418
।	-14419
ṃ	-14420
ˌ	-14421
∞	-14422
ġ	-14423
₹	-14424
█	-14425
○	-14426
ķ	-14427
ŏ	-14428
ε	-14429
ј	-14430
٤	-14431
ề	-14432
ị	-14433
<	-14434
	-14435
ƒ	-14436
‚	-14437
ĭ	-14438
ǫ	-14439
ʔ	-14440
ο	-14441
؟	-14442
١	-14443
ḍ	-14444
∴	-14445
į	-14446
ľ	-14447
ť	-14448
ŷ	-14449
ǔ	-14450
ʌ	-14451
	-14452
	-14453
ɐ	-14454
ɡ	-14455
ɣ	-14456
↑	-14457
ɾ	-14458
٥	-14459
₤	-14460
≤	-14461
ĩ	-14462
ɫ	-14463
ʁ	-14464
٢	-14465
٧	-14466
٨	-14467
།	-14468
ẓ	-14469
♯	-14470
	-14471
	-14472
	-14473
	-14474
ď	-14475
ĝ	-14476
ļ	-14477
υ	-14478
ḻ	-14479
ớ	-14480
₩	-14481
√	-14482
≥	-14483
☆	-14484
⬄	-14485
	-14486
ĥ	-14487
ǁ	-14488
ǐ	-14489
ɒ	-14490
ɦ	-14491
ʋ	-14492
ʘ	-14493
ˆ	-14494
τ	-14495
ـ	-14496
٦	-14497
१	-14498
ẻ	-14499
ụ	-14500
ữ	-14501
‍	-14502
⁂	-14503
	-14504
	-14505
ĉ	-14506
ħ	-14507
ŝ	-14508
ű	-14509
ǒ	-14510
ǝ	-14511
ɕ	-14512
ủ	-14513
ỹ	-14514
⁠	-14515
★	-14516
☺	-14517
✡	-14518
	-14519
	-14520
ɯ	-14521
ɲ	-14522
ɹ	-14523
ʏ	-14524
٩	-14525
ḷ	-14526
ṓ	-14527
ậ	-14528
ắ	-14529
ẹ	-14530
∘	-14531
≈	-14532
⋅	-14533
	-14534
	-14535
ĵ	-14536
ǂ	-14537
ǚ	-14538
ǵ	-14539
ɨ	-14540
ɩ	-14541
˧	-14542
ව	-14543
ḫ	-14544
ṅ	-14545
ầ	-14546
ẽ	-14547
ổ	-14548
ỳ	-14549
‖	-14550
※	-14551
₱	-14552
₵	-14553
≠	-14554
●	-14555
♥	-14556
、	-14557
ƌ	-14558
ȝ	-14559
ɘ	-14560
ɜ	-14561
ʇ	-14562
ʕ	-14563
ˊ	-14564
ˋ	-14565
״	-14566
ṛ	-14567
ấ	-14568
ằ	-14569
ỉ	-14570
ử	-14571
‬	-14572
‰	-14573
∂	-14574
∈	-14575
∗	-14576
∝	-14577
≡	-14578
「	-14579
」	-14580
	-14581
	-14582
ŧ	-14583
ƿ	-14584
ǣ	-14585
ǧ	-14586
ǩ	-14587
ɂ	-14588
ɳ	-14589
ʂ	-14590
ʈ	-14591
ʎ	-14592
ʐ	-14593
ʹ	-14594
ˇ	-14595
а	-14596
б	-14597
с	-14598
३	-14599
४	-14600
५	-14601
ය	-14602
ා	-14603
ේ	-14604
၁	-14605
ḿ	-14606
ṁ	-14607
ṙ	-14608
ẏ	-14609
ể	-14610
ở	-14611
ự	-14612
⊙	-14613
◉	-14614
☃	-14615
☻	-14616
✅	-14617
✙	-14618
❌	-14619
〜	-14620
ꜧ	-14621
ꞯ	-14622
	-14623
ģ	-14624
ĺ	-14625
ŕ	-14626
ų	-14627
ƅ	-14628
ǃ	-14629
ǹ	-14630
ȁ	-14631
ȃ	-14632
ɖ	-14633
ɗ	-14634
ɝ	-14635
ɟ	-14636
ɥ	-14637
ɮ	-14638
ɶ	-14639
ɷ	-14640
ɸ	-14641
ɺ	-14642
ʑ	-14643
ʙ	-14644
ʝ	-14645
ʟ	-14646
ʧ	-14647
ʽ	-14648
ˀ	-14649
˥	-14650
˦	-14651
˩	-14652
̈	-14653
β	-14654
й	-14655
к	-14656
м	-14657
о	-14658
у	-14659
ш	-14660
я	-14661
־	-14662
۞	-14663
۰	-14664
०	-14665
६	-14666
७	-14667
८	-14668
९	-14669
ආ	-14670
ජ	-14671
බ	-14672
ු	-14673
ෝ	-14674
၀	-14675
၃	-14676
၄	-14677
၅	-14678
၆	-14679
၇	-14680
၈	-14681
၉	-14682
᚛	-14683
᚜	-14684
០	-14685
១	-14686
២	-14687
៣	-14688
៤	-14689
៥	-14690
៦	-14691
៧	-14692
៨	-14693
៩	-14694
ḋ	-14695
ḏ	-14696
ḗ	-14697
ḡ	-14698
ḩ	-14699
ḱ	-14700
ḵ	-14701
ṗ	-14702
ṫ	-14703
ṳ	-14704
ṹ	-14705
ẵ	-14706
ặ	-14707
ỏ	-14708
ỗ	-14709
ợ	-14710
‿	-14711
⁣	-14712
₣	-14713
₿	-14714
↊	-14715
↋	-14716
∉	-14717
∼	-14718
≒	-14719
▼	-14720
☉	-14721
☐	-14722
☚	-14723
☛	-14724
☣	-14725
☭	-14726
☯	-14727
♄	-14728
♑	-14729
♒	-14730
♠	-14731
♡	-14732
♮	-14733
✚	-14734
❤	-14735
⬱	-14736
ⱡ	-14737
。	-14738
〉	-14739
