<unk>	0
<s>	0
</s>	0
<pad>	0
<0x00>	0
<0x01>	0
<0x02>	0
<0x03>	0
<0x04>	0
<0x05>	0
<0x06>	0
<0x07>	0
<0x08>	0
<0x09>	0
<0x0A>	0
<0x0B>	0
<0x0C>	0
<0x0D>	0
<0x0E>	0
<0x0F>	0
<0x10>	0
<0x11>	0
<0x12>	0
<0x13>	0
<0x14>	0
<0x15>	0
<0x16>	0
<0x17>	0
<0x18>	0
<0x19>	0
<0x1A>	0
<0x1B>	0
<0x1C>	0
<0x1D>	0
<0x1E>	0
<0x1F>	0
<0x20>	0
<0x21>	0
<0x22>	0
<0x23>	0
<0x24>	0
<0x25>	0
<0x26>	0
<0x27>	0
<0x28>	0
<0x29>	0
<0x2A>	0
<0x2B>	0
<0x2C>	0
<0x2D>	0
<0x2E>	0
<0x2F>	0
<0x30>	0
<0x31>	0
<0x32>	0
<0x33>	0
<0x34>	0
<0x35>	0
<0x36>	0
<0x37>	0
<0x38>	0
<0x39>	0
<0x3A>	0
<0x3B>	0
<0x3C>	0
<0x3D>	0
<0x3E>	0
<0x3F>	0
<0x40>	0
<0x41>	0
<0x42>	0
<0x43>	0
<0x44>	0
<0x45>	0
<0x46>	0
<0x47>	0
<0x48>	0
<0x49>	0
<0x4A>	0
<0x4B>	0
<0x4C>	0
<0x4D>	0
<0x4E>	0
<0x4F>	0
<0x50>	0
<0x51>	0
<0x52>	0
<0x53>	0
<0x54>	0
<0x55>	0
<0x56>	0
<0x57>	0
<0x58>	0
<0x59>	0
<0x5A>	0
<0x5B>	0
<0x5C>	0
<0x5D>	0
<0x5E>	0
<0x5F>	0
<0x60>	0
<0x61>	0
<0x62>	0
<0x63>	0
<0x64>	0
<0x65>	0
<0x66>	0
<0x67>	0
<0x68>	0
<0x69>	0
<0x6A>	0
<0x6B>	0
<0x6C>	0
<0x6D>	0
<0x6E>	0
<0x6F>	0
<0x70>	0
<0x71>	0
<0x72>	0
<0x73>	0
<0x74>	0
<0x75>	0
<0x76>	0
<0x77>	0
<0x78>	0
<0x79>	0
<0x7A>	0
<0x7B>	0
<0x7C>	0
<0x7D>	0
<0x7E>	0
<0x7F>	0
<0x80>	0
<0x81>	0
<0x82>	0
<0x83>	0
<0x84>	0
<0x85>	0
<0x86>	0
<0x87>	0
<0x88>	0
<0x89>	0
<0x8A>	0
<0x8B>	0
<0x8C>	0
<0x8D>	0
<0x8E>	0
<0x8F>	0
<0x90>	0
<0x91>	0
<0x92>	0
<0x93>	0
<0x94>	0
<0x95>	0
<0x96>	0
<0x97>	0
<0x98>	0
<0x99>	0
<0x9A>	0
<0x9B>	0
<0x9C>	0
<0x9D>	0
<0x9E>	0
<0x9F>	0
<0xA0>	0
<0xA1>	0
<0xA2>	0
<0xA3>	0
<0xA4>	0
<0xA5>	0
<0xA6>	0
<0xA7>	0
<0xA8>	0
<0xA9>	0
<0xAA>	0
<0xAB>	0
<0xAC>	0
<0xAD>	0
<0xAE>	0
<0xAF>	0
<0xB0>	0
<0xB1>	0
<0xB2>	0
<0xB3>	0
<0xB4>	0
<0xB5>	0
<0xB6>	0
<0xB7>	0
<0xB8>	0
<0xB9>	0
<0xBA>	0
<0xBB>	0
<0xBC>	0
<0xBD>	0
<0xBE>	0
<0xBF>	0
<0xC0>	0
<0xC1>	0
<0xC2>	0
<0xC3>	0
<0xC4>	0
<0xC5>	0
<0xC6>	0
<0xC7>	0
<0xC8>	0
<0xC9>	0
<0xCA>	0
<0xCB>	0
<0xCC>	0
<0xCD>	0
<0xCE>	0
<0xCF>	0
<0xD0>	0
<0xD1>	0
<0xD2>	0
<0xD3>	0
<0xD4>	0
<0xD5>	0
<0xD6>	0
<0xD7>	0
<0xD8>	0
<0xD9>	0
<0xDA>	0
<0xDB>	0
<0xDC>	0
<0xDD>	0
<0xDE>	0
<0xDF>	0
<0xE0>	0
<0xE1>	0
<0xE2>	0
<0xE3>	0
<0xE4>	0
<0xE5>	0
<0xE6>	0
<0xE7>	0
<0xE8>	0
<0xE9>	0
<0xEA>	0
<0xEB>	0
<0xEC>	0
<0xED>	0
<0xEE>	0
<0xEF>	0
<0xF0>	0
<0xF1>	0
<0xF2>	0
<0xF3>	0
<0xF4>	0
<0xF5>	0
<0xF6>	0
<0xF7>	0
<0xF8>	0
<0xF9>	0
<0xFA>	0
<0xFB>	0
<0xFC>	0
<0xFD>	0
<0xFE>	0
<0xFF>	0
.	-2.80841
:	-3.28512
▁*	-3.33389
,	-3.43539
▁the	-3.53302
'	-3.75209
s	-3.8255
mot	-4.14099
▁a	-4.16361
▁you	-4.19073
▁and	-4.20289
▁i	-4.23864
▁to	-4.25406
?	-4.25825
chi	-4.34045
▁it	-4.45307
▁of	-4.47484
▁in	-4.61373
▁that	-4.67723
t	-4.86689
▁is	-5.05818
▁he	-5.08924
▁was	-5.16211
▁=	-5.25876
▁on	-5.30372
▁[	-5.34128
▁what	-5.34962
▁for	-5.40761
▁we	-5.4703
▁"	-5.48991
▁this	-5.55546
]	-5.57041
!	-5.57472
▁with	-5.61239
▁they	-5.67072
▁do	-5.67258
▁no	-5.68678
▁there	-5.71841
▁have	-5.72285
▁-	-5.76274
▁be	-5.78281
▁not	-5.7875
▁she	-5.80625
▁me	-5.80733
-	-5.81939
▁at	-5.8266
▁are	-5.83201
▁one	-5.84763
▁can	-5.86455
▁but	-5.87607
▁his	-5.90132
▁as	-5.97162
m	-6.01379
▁so	-6.01792
▁all	-6.02307
▁oh	-6.03229
▁yeah	-6.03372
▁her	-6.03397
re	-6.03456
▁my	-6.05803
▁don	-6.06415
▁know	-6.07522
▁your	-6.08393
...	-6.09783
▁had	-6.10893
▁like	-6.13833
▁up	-6.14226
▁go	-6.16244
inv	-6.23255
▁from	-6.25229
▁here	-6.30001
▁out	-6.30713
ll	-6.33062
▁him	-6.34828
▁get	-6.38001
▁by	-6.38358
▁if	-6.38397
▁just	-6.39839
▁were	-6.39995
▁now	-6.40058
▁right	-6.41382
▁well	-6.43267
▁see	-6.43961
▁an	-6.47057
d	-6.47227
▁about	-6.47681
▁then	-6.48189
▁when	-6.48682
▁or	-6.51371
▁them	-6.54638
▁think	-6.55744
▁got	-6.55935
▁did	-6.58598
▁said	-6.59385
▁who	-6.59911
i	-6.61068
ve	-6.61355
fat	-6.62108
▁some	-6.62568
▁where	-6.65615
▁come	-6.66678
▁would	-6.68203
▁yes	-6.68897
▁good	-6.7023
;	-6.70589
▁look	-6.70779
▁will	-6.709
▁want	-6.74365
▁how	-6.76771
▁xxx	-6.77222
▁okay	-6.78034
ing	-6.78718
▁little	-6.80393
▁“	-6.80653
▁time	-6.82345
].	-6.82383
▁down	-6.82709
ed	-6.83306
▁	-6.83446
▁going	-6.83491
▁(	-6.83576
▁been	-6.85061
▁more	-6.852
▁put	-6.86003
▁back	-6.87051
’	-6.87688
▁two	-6.87793
▁very	-6.87899
▁which	-6.88968
."	-6.89252
▁has	-6.91099
"	-6.9153
▁their	-6.9185
▁'	-6.9411
▁over	-6.94185
▁could	-6.97846
▁let	-6.98613
a	-7.03295
▁say	-7.04623
)	-7.10377
▁other	-7.11049
▁why	-7.11968
,"	-7.14356
▁take	-7.14715
▁make	-7.15729
▁into	-7.16222
▁people	-7.18715
▁b	-7.19026
▁way	-7.21395
▁too	-7.2207
▁man	-7.22108
▁because	-7.24176
▁first	-7.25186
▁off	-7.26183
▁gonna	-7.27605
▁tell	-7.28703
▁us	-7.29877
▁after	-7.30778
▁these	-7.30888
▁only	-7.31354
▁any	-7.32664
y	-7.32789
▁our	-7.35293
▁uh	-7.3742
▁didn	-7.38621
▁something	-7.41693
e	-7.41847
▁really	-7.42075
ly	-7.42368
▁again	-7.4245
▁much	-7.44172
▁made	-7.47938
▁er	-7.51132
▁before	-7.51137
▁than	-7.52174
er	-7.53207
--	-7.53836
▁big	-7.54215
▁away	-7.54773
▁should	-7.54777
▁day	-7.56482
▁three	-7.57444
▁new	-7.57884
▁does	-7.58845
▁never	-7.59611
▁went	-7.59964
par	-7.60366
▁those	-7.6069
▁um	-7.6185
▁need	-7.62565
▁give	-7.62841
▁home	-7.64599
▁mean	-7.64901
▁long	-7.65745
▁also	-7.66212
▁wanna	-7.6633
▁came	-7.67387
▁doing	-7.67663
▁another	-7.68233
▁house	-7.68345
▁old	-7.6857
▁many	-7.68916
▁work	-7.69664
▁play	-7.7035
▁mr	-7.71676
▁thing	-7.71695
in	-7.73215
▁still	-7.73354
▁things	-7.74214
▁thought	-7.74349
?"	-7.75063
▁must	-7.75456
▁won	-7.77915
▁may	-7.7798
▁through	-7.78048
▁great	-7.78066
exp	-7.78066
▁even	-7.78642
▁find	-7.78919
▁last	-7.79287
▁car	-7.79661
n	-7.79775
▁boy	-7.79829
the	-7.81061
▁isn	-7.82438
▁am	-7.82795
▁baby	-7.83693
▁done	-7.84689
▁name	-7.85287
▁please	-7.85814
▁called	-7.85958
▁night	-7.8611
▁%	-7.86156
▁mother	-7.87752
▁mm	-7.87971
o	-7.89907
▁help	-7.90051
▁might	-7.91406
▁around	-7.91859
▁head	-7.92023
▁mhm	-7.92111
▁thank	-7.92425
r	-7.92584
▁better	-7.9341
▁book	-7.9365
▁sure	-7.93668
▁girl	-7.93849
.”	-7.94596
▁water	-7.9461
▁hey	-7.94844
_	-7.95241
▁place	-7.97087
▁while	-7.97326
▁most	-7.97346
▁found	-7.97413
/	-7.97577
▁love	-7.97642
▁nice	-7.97932
▁life	-7.97964
▁anything	-7.98609
▁bit	-7.99124
▁hand	-7.99253
▁ah	-8.00517
▁erm	-8.00677
▁eat	-8.01856
▁being	-8.02287
▁doesn	-8.02421
▁years	-8.02521
▁such	-8.03243
▁used	-8.03716
▁next	-8.04267
▁father	-8.0435
▁same	-8.05845
▁school	-8.05912
,”	-8.06294
▁shall	-8.06577
▁lot	-8.08642
▁else	-8.09279
▁world	-8.09384
▁looks	-8.09402
!"	-8.09429
▁four	-8.09648
laughs	-8.09843
▁mummy	-8.1051
▁own	-8.11099
▁keep	-8.11651
▁always	-8.11939
▁room	-8.12244
▁told	-8.1247
▁saw	-8.12526
▁left	-8.12551
▁nothing	-8.1313
add	-8.13392
▁under	-8.13619
it	-8.16793
▁o	-8.1693
▁men	-8.17173
▁every	-8.17332
▁ever	-8.18462
▁huh	-8.18938
▁part	-8.19105
▁kind	-8.19499
▁sorry	-8.19559
▁show	-8.19968
▁talk	-8.20172
▁five	-8.20511
▁daddy	-8.20785
▁chi	-8.21436
▁gone	-8.21664
▁money	-8.23286
▁coming	-8.23341
and	-8.23664
▁took	-8.24155
▁though	-8.2418
▁enough	-8.24577
▁maybe	-8.24805
▁call	-8.26783
▁door	-8.27034
▁end	-8.27312
▁use	-8.27419
▁morning	-8.27692
▁goes	-8.2776
▁once	-8.27868
▁wait	-8.28045
▁until	-8.29058
th	-8.29156
es	-8.3004
▁leave	-8.30709
▁remember	-8.30782
▁side	-8.30922
▁course	-8.31114
▁open	-8.31376
c	-8.31382
▁_	-8.31631
▁hear	-8.319
▁quite	-8.31911
▁red	-8.31932
al	-8.31997
▁sir	-8.32222
▁stop	-8.32273
▁de	-8.3243
▁s	-8.32453
▁turn	-8.32476
▁eyes	-8.32566
▁best	-8.32629
no	-8.3346
▁year	-8.33483
▁both	-8.33995
▁try	-8.34016
▁looking	-8.34076
tea	-8.34346
▁today	-8.34484
▁city	-8.34717
▁sit	-8.34888
▁hm	-8.35034
you	-8.35189
▁yet	-8.35229
sis	-8.35304
▁dear	-8.35338
▁seen	-8.3572
l	-8.36287
▁each	-8.36461
▁asked	-8.3661
▁says	-8.37283
▁together	-8.3783
▁face	-8.38348
▁god	-8.38913
▁round	-8.38958
▁few	-8.39502
▁box	-8.39847
▁blue	-8.40429
▁number	-8.40686
▁young	-8.40967
▁children	-8.41532
▁getting	-8.41546
▁different	-8.41891
▁without	-8.42004
▁feel	-8.42626
▁everything	-8.42926
▁mind	-8.43361
mch	-8.43803
▁ready	-8.44178
▁read	-8.44212
▁heard	-8.44471
▁♪	-8.44488
▁known	-8.44826
▁later	-8.44907
▁soon	-8.45102
▁mommy	-8.45409
▁between	-8.456
▁second	-8.45698
▁miss	-8.45743
▁far	-8.45777
▁ball	-8.46327
▁haven	-8.47764
▁d	-8.47771
▁hard	-8.47825
▁fire	-8.48161
▁upon	-8.48321
▁mrs	-8.48332
▁white	-8.48992
▁story	-8.49002
▁since	-8.49512
▁having	-8.49635
▁himself	-8.49898
▁hafta	-8.50117
▁half	-8.50489
▁wanted	-8.50678
▁happened	-8.51046
bro	-8.51324
▁bed	-8.51475
▁alright	-8.51707
▁hold	-8.52178
▁watch	-8.52184
w	-8.52319
man	-8.52853
▁looked	-8.53317
▁pretty	-8.53484
yes	-8.53774
p	-8.53894
▁dog	-8.5396
cause	-8.53979
gma	-8.53992
b	-8.54517
▁small	-8.54569
▁top	-8.54612
▁stay	-8.54663
▁bad	-8.54821
▁table	-8.55101
na	-8.55232
▁talking	-8.55529
▁knew	-8.5572
▁hello	-8.56246
▁friend	-8.5634
▁hands	-8.56811
▁live	-8.57558
1:	-8.58224
▁ask	-8.58776
▁believe	-8.58895
▁set	-8.58908
to	-8.58934
▁six	-8.59617
▁united	-8.59687
▁black	-8.59774
▁boys	-8.59938
▁making	-8.59959
▁run	-8.60136
▁high	-8.6037
▁american	-8.60419
▁family	-8.60667
▁against	-8.60765
▁along	-8.60878
▁actually	-8.61389
▁mot	-8.61732
▁gave	-8.62068
▁party	-8.62223
▁wasn	-8.62338
▁child	-8.62509
▁green	-8.62638
▁hi	-8.63512
▁war	-8.63541
".	-8.63782
▁c	-8.63833
▁light	-8.63988
▁during	-8.64515
g	-8.65029
▁days	-8.65128
▁matter	-8.65162
▁re	-8.6535
on	-8.65527
▁sort	-8.66616
we	-8.66711
▁fine	-8.66843
▁noise	-8.67254
▁t	-8.67326
▁move	-8.67336
▁died	-8.67366
h	-8.6748
▁real	-8.67704
▁wouldn	-8.68096
▁whole	-8.68953
▁bring	-8.69021
▁care	-8.6934
?”	-8.69351
▁game	-8.69462
▁food	-8.6964
▁states	-8.69658
▁moment	-8.6996
k	-8.70234
▁started	-8.70268
▁almost	-8.70317
▁1	-8.70417
▁start	-8.70477
▁born	-8.70585
▁happy	-8.70748
▁m	-8.70869
▁king	-8.70877
▁trying	-8.70921
▁un	-8.70927
▁e	-8.71588
he	-8.71749
▁saying	-8.71775
▁sleep	-8.71873
▁word	-8.72445
em	-8.72792
as	-8.72799
▁floor	-8.73273
▁town	-8.73341
▁heart	-8.73589
▁son	-8.73862
▁dad	-8.74052
▁playing	-8.7421
oh	-8.74266
▁wrong	-8.74494
▁already	-8.75079
▁close	-8.75087
▁minute	-8.7531
▁probably	-8.75654
but	-8.76052
or	-8.7611
▁feet	-8.7645
▁ten	-8.76582
▁mom	-8.76662
▁mine	-8.77139
▁john	-8.77458
▁state	-8.77559
▁air	-8.77581
▁near	-8.77929
▁woman	-8.78155
▁person	-8.78378
▁jack	-8.78966
▁train	-8.79147
f	-8.79676
▁understand	-8.79677
▁lost	-8.7986
+	-8.79885
▁idea	-8.79916
▁hair	-8.79924
▁became	-8.80225
▁picture	-8.80404
▁2	-8.80584
▁cat	-8.8066
▁thomas	-8.80775
▁point	-8.8078
▁country	-8.80849
▁began	-8.80856
▁paper	-8.80947
▁cup	-8.8106
▁team	-8.81235
▁aren	-8.81574
ers	-8.81732
▁voice	-8.82077
▁friends	-8.8209
▁gotta	-8.82137
▁sometimes	-8.82752
what	-8.83852
en	-8.83923
▁behind	-8.84013
▁music	-8.84128
▁sea	-8.8448
▁brother	-8.84813
▁hope	-8.84851
▁front	-8.84869
▁guess	-8.84981
▁played	-8.85003
▁listen	-8.85033
▁bear	-8.85061
▁p	-8.85194
▁north	-8.85545
▁drink	-8.85711
▁la	-8.85805
▁job	-8.85971
▁–	-8.8627
▁outside	-8.86696
▁full	-8.8691
▁girls	-8.86966
▁captain	-8.87006
▁chair	-8.87258
nan	-8.8736
mar	-8.87465
▁couldn	-8.87631
▁brought	-8.87853
▁line	-8.87955
▁lady	-8.88167
▁county	-8.88373
▁movie	-8.88799
that	-8.88949
",	-8.89562
▁cut	-8.89995
▁sec	-8.90069
▁poor	-8.90081
▁stand	-8.9024
▁rest	-8.90243
▁week	-8.90637
▁turned	-8.91065
u	-8.91149
an	-8.91333
▁doctor	-8.91511
▁national	-8.91741
▁seemed	-8.9193
▁times	-8.9262
▁hot	-8.92692
▁comes	-8.92976
▁dead	-8.93034
▁often	-8.93116
▁hundred	-8.93293
▁however	-8.93387
▁guy	-8.93443
▁song	-8.93456
▁someone	-8.9385
▁able	-8.93866
▁sound	-8.94214
▁piece	-8.94574
▁taken	-8.94804
▁3	-8.95023
▁horse	-8.95181
▁color	-8.95228
▁u	-8.9558
—	-8.95991
▁taking	-8.96516
▁stuff	-8.96647
▁early	-8.96916
▁tree	-8.97219
▁twenty	-8.97235
▁myself	-8.97274
▁makes	-8.97593
▁means	-8.97654
▁inside	-8.97869
▁south	-8.97932
▁death	-8.98387
),	-8.98476
do	-8.98732
▁ma	-8.99019
▁cold	-8.9945
!”	-8.99496
▁beautiful	-8.9963
▁yourself	-8.99794
▁short	-9.00047
▁page	-9.0011
▁l	-9.00322
▁rather	-9.00387
▁pay	-9.00574
▁age	-9.00722
▁words	-9.00754
▁case	-9.00809
▁fall	-9.00929
▁road	-9.00993
▁yellow	-9.01053
▁seven	-9.01487
▁true	-9.01622
▁ha	-9.01667
well	-9.01681
▁minutes	-9.01756
▁perhaps	-9.0193
cha	-9.02016
▁walk	-9.02047
▁late	-9.021
▁g	-9.023
▁boat	-9.02636
▁wife	-9.02704
▁river	-9.03099
▁change	-9.03122
▁business	-9.03418
▁felt	-9.03522
le	-9.03614
▁sister	-9.03805
▁alone	-9.03821
▁large	-9.04174
▁hat	-9.04364
▁order	-9.045
▁till	-9.0455
dad	-9.04709
▁funny	-9.0472
▁ago	-9.0499
▁!	-9.0512
ie	-9.05164
▁either	-9.05385
gra	-9.05786
▁group	-9.06059
▁given	-9.06448
2:	-9.06621
int	-9.06785
▁women	-9.06802
▁company	-9.06901
▁fun	-9.07138
▁fish	-9.07751
us	-9.08013
▁meet	-9.08255
▁land	-9.08703
▁pick	-9.08735
▁toys	-9.08756
▁sent	-9.09154
▁somebody	-9.09165
▁eight	-9.09183
pat	-9.09315
de	-9.09468
▁fell	-9.0947
▁mum	-9.09481
▁tea	-9.09491
▁sun	-9.09885
▁important	-9.10243
▁ya	-9.10271
▁wish	-9.1036
▁n	-9.10481
▁brown	-9.10535
▁milk	-9.11211
▁several	-9.11258
▁body	-9.11425
▁working	-9.11574
▁buy	-9.11599
▁hurt	-9.11786
▁dis	-9.11974
▁across	-9.12183
▁fact	-9.12188
born	-9.12477
▁ran	-9.12604
huh	-9.12675
▁wants	-9.13317
▁least	-9.13352
ch	-9.13635
▁area	-9.13926
▁thanks	-9.14034
▁dinner	-9.14156
▁english	-9.14376
▁bob	-9.14741
▁france	-9.16022
▁uhhuh	-9.16337
▁phone	-9.16485
▁guys	-9.16776
is	-9.16796
z	-9.17118
▁ground	-9.17628
▁speak	-9.17711
▁finished	-9.18247
▁animals	-9.18252
▁write	-9.18305
▁power	-9.18372
).	-9.18611
▁darling	-9.18654
▁general	-9.18821
▁break	-9.18854
▁chance	-9.18884
▁everybody	-9.19137
▁march	-9.19501
ic	-9.19532
▁tomorrow	-9.19619
ness	-9.19658
▁government	-9.19831
ton	-9.19933
▁foot	-9.20053
▁dark	-9.20729
▁tried	-9.21138
▁hour	-9.21218
▁thinking	-9.21558
▁glad	-9.21792
▁r	-9.21867
la	-9.22734
▁president	-9.22828
▁wow	-9.22859
▁others	-9.23018
▁herself	-9.23075
▁french	-9.2311
▁bag	-9.23598
▁trouble	-9.23661
▁york	-9.23998
▁living	-9.24241
▁hit	-9.2434
▁4	-9.2438
▁cried	-9.2458
▁bye	-9.24884
▁cos	-9.25129
x	-9.25185
▁anyway	-9.25245
▁usually	-9.25369
loi	-9.25371
▁nine	-9.25395
▁wonder	-9.2568
▁history	-9.2573
▁become	-9.25791
▁mouth	-9.25808
▁street	-9.25973
▁...	-9.25991
▁f	-9.26096
▁football	-9.26193
▁running	-9.26447
▁afraid	-9.26456
▁present	-9.2648
▁fight	-9.26951
▁west	-9.26976
▁letter	-9.2703
▁question	-9.27052
▁fast	-9.27082
▁window	-9.27325
▁held	-9.27338
▁summer	-9.27393
▁sitting	-9.27408
▁ship	-9.27879
ling	-9.27988
▁#	-9.2843
▁police	-9.29258
▁series	-9.29321
▁kept	-9.29551
▁suppose	-9.29589
▁past	-9.29639
▁uncle	-9.29856
▁bird	-9.30032
▁office	-9.30048
▁lived	-9.30079
▁al	-9.30344
▁free	-9.30359
▁birthday	-9.30374
if	-9.3039
▁18	-9.31139
▁club	-9.3118
▁toy	-9.31188
▁rock	-9.31362
▁married	-9.31459
v	-9.31505
▁less	-9.31579
▁easy	-9.31585
▁w	-9.31593
▁strong	-9.31597
▁deal	-9.31969
▁clear	-9.32025
▁k	-9.32058
▁department	-9.32095
▁among	-9.32238
▁sat	-9.32386
▁v	-9.3245
▁reason	-9.32462
▁happen	-9.32547
▁park	-9.3273
▁books	-9.32871
▁problem	-9.32918
▁stood	-9.33101
▁special	-9.33205
cds	-9.33252
ra	-9.33834
j	-9.33865
▁seems	-9.3394
▁ooh	-9.34145
▁master	-9.34251
▁throw	-9.34253
▁joe	-9.34306
▁university	-9.34362
▁tonight	-9.3437
▁june	-9.34445
▁dr	-9.34494
▁answer	-9.34665
▁daughter	-9.34692
▁whatever	-9.34808
car	-9.34932
▁h	-9.34957
▁send	-9.35445
▁january	-9.35634
▁lay	-9.35724
▁st	-9.35771
▁earth	-9.35805
▁hours	-9.36082
▁pull	-9.36092
▁forget	-9.3614
▁whether	-9.36284
ta	-9.36556
▁tired	-9.36628
▁ice	-9.3664
▁sounds	-9.36922
adu	-9.37006
▁ok	-9.37068
▁lovely	-9.37255
▁wind	-9.37346
able	-9.37753
▁catch	-9.37778
ma	-9.38169
▁clothes	-9.38215
▁nose	-9.38477
▁kids	-9.38502
▁eye	-9.38579
▁killed	-9.38646
go	-9.38885
▁waiting	-9.38929
▁couple	-9.3918
▁arm	-9.39183
▁eh	-9.3944
▁lots	-9.39619
▁named	-9.39689
▁within	-9.39752
▁ain	-9.39874
▁excuse	-9.40273
▁lord	-9.40536
▁replied	-9.40558
▁board	-9.40588
▁main	-9.40687
▁themselves	-9.40724
▁careful	-9.40812
▁church	-9.40864
ation	-9.40865
▁draw	-9.41096
▁ring	-9.41168
▁peter	-9.41285
▁released	-9.41491
▁fit	-9.41915
▁eating	-9.41971
▁5	-9.42074
▁tom	-9.42118
▁forward	-9.42145
▁career	-9.42284
▁member	-9.42298
▁band	-9.42337
▁single	-9.42606
▁evening	-9.42767
▁answered	-9.42779
makes	-9.42837
▁points	-9.42883
▁months	-9.43037
”	-9.43117
▁shoes	-9.43182
▁island	-9.43316
▁instead	-9.43441
▁truck	-9.43522
fch	-9.43625
▁husband	-9.43734
▁takes	-9.43739
▁possible	-9.43941
da	-9.4396
▁clean	-9.44392
▁british	-9.44484
▁christmas	-9.44553
▁orange	-9.44643
▁middle	-9.44753
▁star	-9.44764
▁sing	-9.44788
▁10	-9.44789
▁j	-9.44957
ah	-9.44958
▁da	-9.4496
▁juice	-9.45045
▁camp	-9.45098
▁station	-9.45359
am	-9.45661
▁exactly	-9.45662
▁third	-9.45667
▁worked	-9.45777
▁building	-9.45839
ter	-9.46067
▁passed	-9.461
▁cannot	-9.46458
▁moved	-9.46469
me	-9.46473
▁putting	-9.46484
▁lives	-9.46603
▁east	-9.46759
▁quickly	-9.4676
▁touch	-9.46838
▁above	-9.46849
ry	-9.47066
▁broken	-9.47087
▁low	-9.47241
ion	-9.47287
don	-9.47376
▁although	-9.47415
▁toward	-9.47747
▁quick	-9.4775
▁per	-9.47798
▁stick	-9.47843
▁shot	-9.4793
my	-9.47985
▁system	-9.4801
▁bus	-9.48131
▁quiet	-9.48259
ity	-9.48262
▁ride	-9.48472
by	-9.48492
▁save	-9.48526
▁17	-9.48557
▁region	-9.48578
▁august	-9.48611
2	-9.48855
▁frank	-9.48855
▁longer	-9.48958
▁wall	-9.48959
▁drive	-9.4913
▁y	-9.49362
▁indeed	-9.49381
▁whose	-9.49459
ment	-9.49525
▁cool	-9.49544
▁sweet	-9.49567
▁check	-9.49586
▁everyone	-9.49673
▁television	-9.49721
▁april	-9.49785
▁thousand	-9.49878
▁frog	-9.49962
▁england	-9.49997
▁feeling	-9.50158
▁straight	-9.50193
▁ben	-9.50334
all	-9.50377
▁arms	-9.50977
▁anyone	-9.51002
childes	-9.51057
▁nearly	-9.5112
▁childes	-9.51306
▁service	-9.51366
▁certain	-9.51379
so	-9.51431
▁october	-9.51516
▁]	-9.51619
▁seat	-9.51626
▁return	-9.51663
▁human	-9.51851
▁mark	-9.51861
▁towards	-9.52016
3:	-9.5212
▁win	-9.52205
▁news	-9.52593
▁mama	-9.52818
land	-9.52981
▁caught	-9.52985
▁wear	-9.53037
up	-9.53174
▁class	-9.53204
▁sight	-9.53361
▁village	-9.53434
▁nobody	-9.53615
▁honey	-9.53633
▁gun	-9.53744
▁standing	-9.53749
▁noises	-9.53903
▁seem	-9.53948
▁november	-9.53978
▁broke	-9.53997
▁cross	-9.54013
▁reached	-9.54356
▁gets	-9.5441
co	-9.5442
▁tape	-9.54521
▁20	-9.54547
▁pardon	-9.54583
▁ahead	-9.5473
▁july	-9.54777
est	-9.54828
ty	-9.55032
▁cause	-9.55064
▁chapter	-9.55088
▁gold	-9.55112
▁season	-9.55136
▁player	-9.55212
▁bill	-9.55275
▁cake	-9.55282
▁september	-9.55299
▁snow	-9.5551
▁david	-9.55559
ar	-9.55615
son	-9.55864
be	-9.55872
▁district	-9.55946
at	-9.55966
▁miles	-9.562
▁worry	-9.56215
▁hungry	-9.5625
▁album	-9.56312
▁certainly	-9.56328
▁strange	-9.56333
ted	-9.56574
▁million	-9.56612
ley	-9.56623
▁army	-9.56713
▁list	-9.56761
▁plan	-9.56876
▁yesterday	-9.56926
▁aunt	-9.56955
▁rose	-9.57022
▁telling	-9.57025
▁mary	-9.57085
▁duck	-9.57263
▁december	-9.57354
▁wood	-9.57417
▁fair	-9.57546
▁breakfast	-9.57864
▁hall	-9.5797
▁george	-9.57997
▁space	-9.58243
▁returned	-9.58345
ia	-9.58513
for	-9.58557
▁changed	-9.58608
▁kitchen	-9.58714
▁push	-9.58855
▁february	-9.58916
▁yep	-9.59081
▁co	-9.59304
▁afternoon	-9.59305
she	-9.59411
ba	-9.59562
▁following	-9.59744
▁stopped	-9.59753
▁carry	-9.59758
▁fellow	-9.59908
▁london	-9.59958
▁pass	-9.60013
1	-9.60179
▁field	-9.60224
▁bread	-9.60273
ies	-9.60289
▁trees	-9.60299
▁chief	-9.60344
▁blood	-9.60415
▁major	-9.60458
how	-9.60572
there	-9.60652
▁garden	-9.6078
one	-9.61026
▁built	-9.61115
▁supposed	-9.61194
ro	-9.61264
▁dress	-9.61773
▁suddenly	-9.6183
▁german	-9.61855
▁anybody	-9.62117
el	-9.62181
▁met	-9.62182
ne	-9.62349
▁position	-9.62643
▁kid	-9.62655
▁common	-9.62657
▁written	-9.62766
ian	-9.62786
▁opened	-9.62895
▁language	-9.63016
▁safe	-9.63134
▁learn	-9.63155
▁6	-9.6325
▁games	-9.63254
▁ta	-9.63394
▁using	-9.63517
0	-9.63895
▁truth	-9.6405
▁court	-9.6405
▁heavy	-9.6406
▁ho	-9.64206
▁followed	-9.6439
▁law	-9.64423
se	-9.64716
▁queen	-9.64884
▁former	-9.64886
▁cow	-9.65308
▁wild	-9.65427
▁helen	-9.65487
▁warm	-9.6551
ka	-9.65526
▁fraser	-9.65571
▁bridge	-9.65723
▁hospital	-9.65731
▁shop	-9.6575
▁thirty	-9.65781
▁15	-9.65803
▁tv	-9.65964
▁finish	-9.65995
▁bar	-9.66047
▁sense	-9.66161
friend	-9.66272
▁wee	-9.66375
▁places	-9.66407
▁nor	-9.66428
▁hasn	-9.66526
▁visit	-9.66531
▁form	-9.66564
▁somewhere	-9.66697
▁ones	-9.66728
▁12	-9.66778
▁deep	-9.66818
▁count	-9.66844
un	-9.66892
▁bunny	-9.67106
▁coffee	-9.67115
why	-9.6722
▁giving	-9.67299
▁pop	-9.67303
▁holding	-9.67321
▁bought	-9.67389
▁dance	-9.67408
▁figure	-9.67656
▁weeks	-9.68001
▁stuck	-9.68001
▁leaving	-9.68025
▁sam	-9.68086
▁public	-9.68093
▁decided	-9.68294
▁added	-9.68475
less	-9.68507
▁post	-9.68537
▁bottom	-9.68817
▁whom	-9.69018
▁bath	-9.69181
▁needs	-9.69302
▁act	-9.69331
▁farm	-9.69349
▁watching	-9.69444
▁16	-9.69593
▁led	-9.69734
te	-9.69817
▁follow	-9.69922
▁apple	-9.70012
singing	-9.70129
▁example	-9.70132
▁lie	-9.70454
▁busy	-9.70483
they	-9.70551
▁college	-9.70608
▁amy	-9.70899
▁wrote	-9.70963
▁turns	-9.70968
▁fifty	-9.70989
3	-9.70995
▁art	-9.71045
▁cry	-9.71337
▁moon	-9.71389
▁pieces	-9.71516
▁happens	-9.71595
▁cover	-9.71716
▁step	-9.71914
day	-9.72341
▁silver	-9.72376
of	-9.72389
▁sick	-9.72676
▁league	-9.72785
▁population	-9.72861
▁moving	-9.72867
▁force	-9.72905
▁indian	-9.7295
ist	-9.73044
▁minister	-9.73048
▁race	-9.73107
ting	-9.7311
▁lunch	-9.73149
▁laugh	-9.73188
▁lake	-9.73421
▁battle	-9.73448
▁commune	-9.73547
men	-9.73591
▁control	-9.7365
▁pictures	-9.73694
▁bank	-9.73712
▁paul	-9.73889
▁sign	-9.73977
▁flowers	-9.73992
▁fly	-9.74029
▁cheese	-9.74081
▁america	-9.74237
▁pen	-9.74246
▁hole	-9.74256
▁bottle	-9.74483
▁council	-9.74592
▁international	-9.74636
▁finally	-9.74644
▁film	-9.74793
▁dat	-9.74796
▁animal	-9.74824
▁pink	-9.74824
▁stone	-9.74882
▁build	-9.74886
▁anymore	-9.74918
▁chicken	-9.74924
▁hurry	-9.75056
▁legs	-9.75074
▁hill	-9.75117
▁jump	-9.7517
▁7	-9.752
▁laughs	-9.75236
ga	-9.75357
▁rain	-9.75435
li	-9.75686
▁fear	-9.75756
▁lose	-9.75781
▁kill	-9.76198
▁except	-9.76226
▁sky	-9.76309
▁parents	-9.76368
not	-9.76514
é	-9.76719
▁fix	-9.76768
▁beginning	-9.76775
▁con	-9.76852
▁reach	-9.76879
▁received	-9.77101
▁exclaimed	-9.77208
▁hang	-9.77315
▁na	-9.77318
▁including	-9.77458
▁michael	-9.77488
▁works	-9.77548
▁spoke	-9.77621
▁attack	-9.77631
▁winter	-9.7769
▁8	-9.77736
ke	-9.77762
▁rising	-9.77902
▁corner	-9.78039
▁officer	-9.78094
il	-9.78183
▁weren	-9.78317
gasps	-9.78431
5	-9.78466
▁none	-9.78517
illustration	-9.78584
ish	-9.78589
▁james	-9.78656
ha	-9.78663
rs	-9.78812
▁further	-9.78883
▁spot	-9.78925
▁meant	-9.78971
4	-9.79239
▁view	-9.79244
▁store	-9.79278
▁soft	-9.79338
▁members	-9.79394
▁cook	-9.79437
▁attention	-9.79438
▁walking	-9.79461
child	-9.79465
▁carried	-9.79524
▁teacher	-9.79727
▁ought	-9.79998
▁doll	-9.80214
▁distance	-9.80227
ism	-9.80315
ine	-9.80366
▁‘	-9.80436
▁track	-9.80552
▁trust	-9.8066
▁plate	-9.80791
▁dream	-9.80839
now	-9.80872
▁grand	-9.81065
▁wonderful	-9.81257
▁welcome	-9.81417
▁century	-9.81631
▁record	-9.81973
▁appeared	-9.81992
▁seeing	-9.81998
▁meeting	-9.82
▁lead	-9.82212
▁secret	-9.82233
▁engine	-9.82268
▁die	-9.82572
▁drop	-9.82698
▁grandma	-9.82699
▁jim	-9.82773
laugh	-9.82792
▁silence	-9.82801
▁crying	-9.82843
▁writing	-9.82936
▁carl	-9.82992
▁dry	-9.82997
▁robert	-9.83056
▁doubt	-9.83113
▁capital	-9.8323
▁harry	-9.83423
▁month	-9.83474
▁2020	-9.83625
▁interest	-9.83884
▁wash	-9.83902
▁type	-9.83944
▁shouldn	-9.83969
ful	-9.83991
▁camera	-9.84203
ca	-9.84253
points	-9.84351
▁dropped	-9.84426
▁billy	-9.84473
▁promise	-9.8448
lo	-9.84669
▁egg	-9.8476
let	-9.84785
▁kiss	-9.84875
▁allowed	-9.84908
▁information	-9.85011
▁san	-9.85017
▁hide	-9.8503
▁puts	-9.85142
▁square	-9.85156
▁sad	-9.8523
mo	-9.8533
led	-9.85346
▁walked	-9.85347
▁pounds	-9.85374
▁local	-9.85532
▁shape	-9.85736
um	-9.85746
▁favorite	-9.85766
▁wake	-9.86027
▁en	-9.86057
▁report	-9.86115
▁teeth	-9.86221
▁mad	-9.86257
cat	-9.86278
▁ka	-9.86653
▁difficult	-9.86714
▁tail	-9.86734
▁continued	-9.86824
▁based	-9.86824
▁especially	-9.87022
▁level	-9.87202
▁interesting	-9.87269
▁stage	-9.8729
this	-9.87329
▁share	-9.87355
▁cream	-9.87387
sings	-9.87471
val	-9.87484
||	-9.87547
▁surprise	-9.87584
▁grass	-9.87726
clock	-9.87745
att	-9.87795
▁bright	-9.87812
▁x	-9.87949
▁due	-9.88012
▁letters	-9.88166
▁base	-9.88221
▁charge	-9.88254
age	-9.88459
▁reading	-9.88531
▁roll	-9.88623
▁van	-9.88839
▁famous	-9.88862
▁teddy	-9.89079
▁mo	-9.89163
▁pretend	-9.89238
ger	-9.89477
–	-9.89851
ko	-9.89971
▁match	-9.9006
▁object	-9.90158
▁video	-9.90242
▁stars	-9.90356
▁bobby	-9.9036
▁worth	-9.90418
time	-9.90607
noise	-9.90649
▁itself	-9.9073
▁created	-9.90757
▁key	-9.90836
▁period	-9.90846
▁character	-9.91101
▁final	-9.91173
▁japan	-9.91182
▁elephant	-9.91234
▁future	-9.91358
▁di	-9.91377
▁support	-9.91431
▁kitty	-9.9152
▁conversation	-9.91665
▁smile	-9.91701
▁horses	-9.91901
looks	-9.91929
▁grow	-9.91934
▁center	-9.9194
▁[1	-9.91946
▁laughing	-9.92007
tur	-9.92018
▁rabbit	-9.92025
▁chocolate	-9.9247
unk	-9.92488
▁laughed	-9.92551
▁th	-9.92782
▁sand	-9.92797
▁forgot	-9.92814
▁ears	-9.9283
▁eggs	-9.93007
▁popular	-9.93113
▁clever	-9.93121
▁germany	-9.93144
▁leg	-9.93159
▁cars	-9.9317
▁uhoh	-9.9331
▁bro	-9.93355
▁union	-9.93375
ya	-9.93561
▁interested	-9.93581
mother	-9.93716
▁circle	-9.93741
▁twelve	-9.93758
▁serious	-9.93847
▁glass	-9.93954
▁picks	-9.94065
▁grew	-9.94094
▁paid	-9.94167
▁ate	-9.94292
▁card	-9.94332
▁singing	-9.94343
room	-9.9438
▁mess	-9.94495
▁crayon	-9.94586
▁birds	-9.94596
ja	-9.94615
▁pat	-9.94629
▁slowly	-9.94713
▁alive	-9.94834
▁mountain	-9.95053
▁pain	-9.95236
ul	-9.95238
▁director	-9.95271
▁beat	-9.95302
▁em	-9.95403
▁po	-9.95489
")	-9.95705
▁sheep	-9.95705
den	-9.95816
▁mouse	-9.95826
▁betty	-9.95912
▁vi	-9.96001
▁coat	-9.96071
7	-9.96077
▁pro	-9.96098
▁choo	-9.96185
▁pre	-9.96193
▁14	-9.96227
▁below	-9.96262
▁lying	-9.96528
▁lo	-9.96555
6	-9.96591
▁le	-9.96594
▁whoa	-9.96625
▁rich	-9.96713
▁finger	-9.96765
▁self	-9.96793
▁nin	-9.97137
▁prince	-9.97225
▁loved	-9.97277
▁tall	-9.97359
▁expect	-9.97362
▁holds	-9.97642
▁needed	-9.97707
▁wide	-9.97728
▁size	-9.97854
▁super	-9.97997
▁showed	-9.98053
bo	-9.98097
▁..	-9.98131
▁scared	-9.98135
▁term	-9.98167
▁closed	-9.98169
▁situation	-9.98171
▁terrible	-9.98171
▁join	-9.98357
▁neck	-9.98431
▁machine	-9.98435
▁health	-9.98518
tic	-9.98699
▁liked	-9.98898
▁11	-9.9905
▁radio	-9.99084
▁questions	-9.99104
▁drawing	-9.99344
▁politician	-9.99381
▁pan	-9.99402
▁unless	-9.99564
▁plays	-9.99695
ate	-9.99785
▁bigger	-9.99839
▁spring	-9.99877
▁danger	-9.99911
▁sleeping	-9.99972
ho	-9.99974
▁california	-10.0002
▁fresh	-10.0003
then	-10.0012
▁trip	-10.0017
▁⌊	-10.002
▁sue	-10.0023
▁leaves	-10.0027
line	-10.0031
ce	-10.0036
▁fat	-10.0045
▁shore	-10.0054
▁jwww	-10.0057
▁⌈	-10.0057
▁lee	-10.0057
way	-10.0065
▁asking	-10.0068
▁mar	-10.0079
▁storm	-10.01
ur	-10.0107
▁)	-10.0111
▁inv	-10.0122
▁henry	-10.0126
▁direction	-10.013
▁kingdom	-10.0131
▁stories	-10.0134
▁perfect	-10.0135
▁13	-10.0138
▁province	-10.0153
▁thus	-10.0154
▁forty	-10.0161
▁shut	-10.0168
▁jo	-10.0169
▁hardly	-10.0178
▁bo	-10.019
▁sell	-10.0191
▁asleep	-10.0199
▁ow	-10.021
▁press	-10.0214
et	-10.0232
uk	-10.0253
▁species	-10.0268
▁action	-10.027
▁hotel	-10.027
▁leader	-10.0277
wa	-10.0278
ad	-10.0307
▁countries	-10.034
á	-10.0343
ated	-10.0345
ant	-10.0347
▁luck	-10.0351
▁monkey	-10.0354
▁starts	-10.0359
▁row	-10.0373
▁hate	-10.0375
▁turning	-10.0375
▁cap	-10.0379
▁speed	-10.038
▁30	-10.038
▁bet	-10.0394
%	-10.0405
▁india	-10.042
urs	-10.0449
▁roman	-10.046
▁tower	-10.0466
▁phil	-10.0471
▁sunday	-10.0482
▁central	-10.0485
▁se	-10.0504
▁picked	-10.0512
lin	-10.0513
ni	-10.0524
▁peace	-10.0532
▁9	-10.0533
▁cost	-10.0548
▁according	-10.055
▁parts	-10.0554
ville	-10.0555
▁aye	-10.0585
▁richard	-10.0598
▁lion	-10.061
fad	-10.0613
▁served	-10.0614
▁problems	-10.0627
▁spoon	-10.0627
▁ye	-10.0635
▁loud	-10.064
▁helped	-10.0641
▁lower	-10.0643
box	-10.0652
▁meat	-10.0654
▁therefore	-10.0662
▁account	-10.0664
▁ba	-10.0671
▁older	-10.0682
▁wa	-10.0702
read	-10.0703
▁spent	-10.0718
der	-10.0725
▁pleasure	-10.0733
▁speaking	-10.0744
can	-10.0748
▁simple	-10.0754
▁talked	-10.0757
▁calling	-10.0763
▁ear	-10.0764
▁bow	-10.0774
▁upstairs	-10.078
laughing	-10.0795
▁flat	-10.0797
▁include	-10.0797
ard	-10.0802
▁butter	-10.0807
sh	-10.0813
▁fingers	-10.0813
▁study	-10.0835
▁learned	-10.0836
▁nature	-10.0845
▁western	-10.0847
▁bite	-10.0853
▁tiger	-10.0858
▁covered	-10.0864
ge	-10.087
▁anne	-10.0897
▁beyond	-10.0901
▁social	-10.0907
▁amount	-10.0913
who	-10.0914
▁("	-10.0937
house	-10.0963
ary	-10.0969
▁forest	-10.0974
▁accident	-10.0976
▁beach	-10.0984
▁spend	-10.0994
di	-10.0998
▁li	-10.1011
▁worse	-10.1017
▁similar	-10.1022
▁joined	-10.1023
▁bell	-10.1037
▁natural	-10.1047
▁lu	-10.106
▁(19	-10.1064
▁pocket	-10.1064
▁gas	-10.1065
▁professor	-10.1069
▁&	-10.1076
ten	-10.1082
▁handle	-10.1106
▁deck	-10.1114
▁skin	-10.1142
▁caused	-10.1143
▁shirt	-10.1144
▁fighting	-10.115
▁japanese	-10.115
▁paint	-10.1158
con	-10.1167
▁sharp	-10.1175
▁lad	-10.1178
▁sa	-10.1185
▁notice	-10.1191
▁particular	-10.1192
▁driving	-10.1192
▁silly	-10.1196
▁sarah	-10.12
▁iron	-10.1209
▁names	-10.1212
▁dogs	-10.1218
▁smell	-10.1219
fri	-10.1226
▁tiny	-10.1241
▁bowl	-10.1243
▁award	-10.1249
▁escape	-10.125
▁length	-10.1268
▁flying	-10.1272
▁sub	-10.128
▁spanish	-10.128
▁pie	-10.1289
▁weather	-10.1292
▁clock	-10.1292
▁likely	-10.1295
▁tony	-10.1299
▁block	-10.13
pa	-10.13
per	-10.1302
ham	-10.1303
▁dollars	-10.1305
▁beside	-10.1306
▁eleanor	-10.1307
▁enemy	-10.1309
▁coast	-10.131
▁el	-10.134
id	-10.134
va	-10.1358
▁missing	-10.1365
ner	-10.1371
▁william	-10.1371
▁role	-10.1376
▁royal	-10.1377
▁plane	-10.138
▁price	-10.1385
▁political	-10.1387
▁professional	-10.1402
▁cookie	-10.1425
▁modern	-10.1428
▁various	-10.1435
▁background	-10.1441
▁entered	-10.1444
▁lucky	-10.1463
▁europe	-10.1465
▁driver	-10.1472
▁shoe	-10.1474
▁feed	-10.148
▁nurse	-10.1488
▁begin	-10.1505
▁declared	-10.1507
▁oops	-10.1512
▁agreed	-10.1515
▁paris	-10.1523
▁mi	-10.1523
▁breath	-10.1537
▁path	-10.1541
▁hiding	-10.155
pe	-10.1561
▁ladies	-10.1571
▁mike	-10.1573
▁lid	-10.158
▁honor	-10.1583
▁directed	-10.159
▁bang	-10.1603
▁pa	-10.1605
▁dressed	-10.1612
▁slow	-10.1619
▁arrived	-10.162
▁difference	-10.1627
▁crazy	-10.1635
▁double	-10.1638
like	-10.1641
▁starting	-10.1647
▁drew	-10.1648
▁governor	-10.1655
▁absolutely	-10.1657
▁market	-10.1657
▁gate	-10.1658
▁angry	-10.1662
▁jane	-10.1675
▁computer	-10.1676
au	-10.1677
hi	-10.1692
▁taste	-10.1692
▁agree	-10.1695
▁port	-10.1713
▁fruit	-10.1716
▁flower	-10.1723
ring	-10.1726
▁charles	-10.1727
▁wheel	-10.1728
ler	-10.1744
▁falling	-10.1747
ak	-10.1754
▁adult	-10.1759
ri	-10.176
▁original	-10.1763
▁personal	-10.1772
▁happening	-10.1777
▁knock	-10.1786
▁dangerous	-10.179
▁australia	-10.1797
▁spirit	-10.1797
▁jesus	-10.1799
▁soldiers	-10.1806
▁dolly	-10.181
▁test	-10.1831
▁steps	-10.1833
▁sugar	-10.1835
os	-10.1836
▁census	-10.1837
▁thou	-10.184
▁puzzle	-10.1848
▁singer	-10.1851
▁boo	-10.1857
▁edge	-10.1859
▁private	-10.1861
▁shows	-10.1863
▁largest	-10.1866
▁fox	-10.187
▁scene	-10.1873
▁choice	-10.1877
ex	-10.1878
▁considered	-10.1886
come	-10.1904
▁northern	-10.1908
▁laid	-10.1912
out	-10.1915
que	-10.1926
▁meaning	-10.1931
▁date	-10.1931
▁explain	-10.1939
▁effect	-10.1954
▁actor	-10.1954
amp	-10.1955
▁centre	-10.1955
▁besides	-10.1957
▁anywhere	-10.1957
▁education	-10.1969
▁sold	-10.1969
▁crew	-10.1974
▁pet	-10.1987
▁shoot	-10.1991
▁soul	-10.2007
▁military	-10.2019
ey	-10.202
les	-10.202
▁babies	-10.2023
▁castle	-10.2026
▁blocks	-10.2033
▁saturday	-10.2034
▁discovered	-10.2044
▁ne	-10.2051
▁quarter	-10.2074
▁immediately	-10.2076
▁missed	-10.208
▁ko	-10.2081
▁neither	-10.2081
▁threw	-10.2087
▁enjoy	-10.2096
▁apart	-10.2099
▁gives	-10.2119
▁subject	-10.2125
=	-10.2129
▁easily	-10.2135
▁ocean	-10.2135
▁european	-10.2139
▁surprised	-10.2152
▁lines	-10.2163
▁placed	-10.2172
▁climb	-10.2175
▁wearing	-10.2177
▁watched	-10.218
▁completely	-10.2183
jo	-10.2188
▁windows	-10.219
▁19	-10.2196
▁snake	-10.2199
▁spread	-10.2203
▁woods	-10.2204
▁energy	-10.2209
▁purple	-10.2209
▁naughty	-10.2209
▁murder	-10.2211
sib	-10.2216
▁imagine	-10.2219
▁journey	-10.2224
ous	-10.2237
▁fault	-10.2239
▁→	-10.2241
▁bay	-10.2243
▁smoke	-10.2246
▁movies	-10.2247
▁non	-10.2259
▁twice	-10.227
▁extra	-10.2279
▁puppet	-10.2282
▁magic	-10.2299
▁roof	-10.2301
▁duty	-10.2306
▁society	-10.2307
za	-10.2308
▁goodness	-10.2309
▁ni	-10.2309
▁martin	-10.2312
▁empty	-10.2323
▁pulled	-10.2328
dy	-10.233
▁note	-10.2332
▁pot	-10.2332
▁municipality	-10.2347
ci	-10.2357
▁joy	-10.2367
▁current	-10.2368
vocalizes	-10.2371
field	-10.2375
▁experience	-10.2394
▁raised	-10.2395
▁hadn	-10.2411
▁dan	-10.2414
▁lieutenant	-10.2421
▁higher	-10.243
▁onto	-10.2448
▁medicine	-10.2449
▁brush	-10.2454
▁goin	-10.2461
▁flight	-10.2477
▁boss	-10.248
▁corn	-10.248
▁supper	-10.249
▁simply	-10.2492
▁plenty	-10.2501
ber	-10.2508
op	-10.2513
▁guard	-10.2526
▁manner	-10.2531
▁filled	-10.2543
▁produced	-10.2546
ent	-10.2548
8	-10.2549
▁oo	-10.255
▁italian	-10.2559
_,	-10.2562
▁charlie	-10.2566
▁formed	-10.2576
▁blow	-10.2586
vi	-10.2588
rya	-10.2622
▁huge	-10.263
▁opening	-10.2633
▁purpose	-10.2646
ir	-10.2651
▁gentlemen	-10.2673
▁command	-10.2677
▁anna	-10.269
ste	-10.2694
▁shake	-10.2697
▁songs	-10.2702
▁fallen	-10.2703
▁princess	-10.2705
▁brave	-10.2706
▁ca	-10.271
ric	-10.2725
▁colors	-10.2727
ster	-10.2729
bu	-10.274
▁telephone	-10.2742
▁range	-10.2746
▁forth	-10.2747
▁button	-10.2751
▁()	-10.2753
▁pleasant	-10.2754
▁ancient	-10.2775
▁proud	-10.2784
▁calm	-10.2787
▁expected	-10.2813
▁evidence	-10.2829
▁pleased	-10.2829
▁choose	-10.283
▁cousin	-10.2831
ac	-10.2832
▁prime	-10.2841
▁southern	-10.2843
▁25	-10.2846
▁numbers	-10.2847
▁ended	-10.2864
▁maggie	-10.2867
▁total	-10.2882
gu	-10.2887
ki	-10.2904
▁cast	-10.2911
▁china	-10.2912
where	-10.2929
▁mostly	-10.2933
▁necessary	-10.2934
▁tone	-10.294
brother	-10.2943
picks	-10.2947
▁announced	-10.2952
▁needta	-10.2961
kar	-10.2963
▁promised	-10.297
▁pause	-10.2977
▁swimming	-10.299
▁gentleman	-10.2999
mon	-10.2999
▁salt	-10.3002
▁plant	-10.3019
▁believed	-10.3024
▁ex	-10.3032
▁christ	-10.3049
▁message	-10.3052
▁prison	-10.3055
uh	-10.3061
▁oil	-10.3066
▁usual	-10.3076
▁search	-10.3077
▁result	-10.3088
▁continues	-10.3091
▁trade	-10.3098
,--	-10.3103
wood	-10.3109
our	-10.311
ut	-10.3117
▁community	-10.3121
▁saint	-10.3121
▁election	-10.3122
▁papa	-10.3128
▁awful	-10.3131
▁su	-10.3156
▁100	-10.316
▁pair	-10.3168
▁faith	-10.3174
▁earlier	-10.319
▁saved	-10.322
▁mistake	-10.3238
í	-10.3238
▁rule	-10.3248
▁z	-10.325
▁rough	-10.3265
20	-10.3268
po	-10.3269
▁offer	-10.3275
▁monster	-10.328
▁movement	-10.3284
▁slide	-10.3287
▁marriage	-10.3289
▁crowd	-10.3294
▁laura	-10.3298
▁basket	-10.3313
▁cha	-10.3355
▁fifteen	-10.3362
▁christian	-10.3381
▁risk	-10.3383
▁russian	-10.3396
▁steven	-10.3399
puts	-10.3405
counter	-10.3407
▁carefully	-10.341
▁haha	-10.3414
▁event	-10.3415
▁strength	-10.3422
▁success	-10.3428
soa	-10.3428
▁knife	-10.3437
mi	-10.3438
▁brain	-10.3446
▁science	-10.3461
▁judge	-10.3462
▁tears	-10.349
▁mountains	-10.3494
▁whoops	-10.3505
▁suit	-10.3506
takes	-10.3511
ver	-10.3515
▁adam	-10.3522
▁friday	-10.3528
▁respect	-10.3532
ier	-10.3532
▁golden	-10.3537
her	-10.3538
ford	-10.3539
▁listening	-10.3541
▁dancing	-10.3543
▁den	-10.3544
ig	-10.3556
▁bike	-10.3556
▁style	-10.3556
ana	-10.3573
▁santa	-10.3577
▁marry	-10.3578
▁prize	-10.3581
▁fourth	-10.3581
▁24	-10.3582
▁dirty	-10.3587
▁add	-10.359
▁tin	-10.359
▁texas	-10.359
cries	-10.3599
ji	-10.3605
▁growing	-10.361
▁thick	-10.3616
▁keeping	-10.3621
▁officers	-10.3626
▁sudden	-10.3626
▁ar	-10.3644
▁shoulder	-10.3646
▁noticed	-10.3655
▁lights	-10.3655
▁moves	-10.3656
gen	-10.3667
▁bonnet	-10.3675
▁ordered	-10.368
▁practice	-10.3685
▁obviously	-10.3687
▁regular	-10.371
▁development	-10.3714
▁crime	-10.3721
▁research	-10.3725
io	-10.3732
▁downstairs	-10.3737
▁project	-10.3741
are	-10.3741
ron	-10.3759
▁eleven	-10.3762
▁sis	-10.3771
▁colonel	-10.3782
▁allow	-10.3784
gi	-10.3802
▁struck	-10.3802
▁valley	-10.3803
bar	-10.3806
▁weight	-10.3815
▁smith	-10.3822
▁pound	-10.3825
▁guns	-10.3837
▁terms	-10.3838
▁ross	-10.3841
▁manager	-10.3847
▁gray	-10.3855
▁involved	-10.3855
▁2022	-10.3861
▁smart	-10.3862
off	-10.3874
▁meal	-10.3876
ship	-10.388
▁lawyer	-10.3895
▁alice	-10.3899
▁teach	-10.39
▁protect	-10.3901
▁otherwise	-10.3902
▁barn	-10.3917
aft	-10.3926
bi	-10.3933
▁program	-10.3934
▁title	-10.3951
▁impossible	-10.3954
▁native	-10.3961
▁goodbye	-10.3965
30	-10.3967
▁stairs	-10.3967
han	-10.3977
▁training	-10.3978
▁pizza	-10.398
▁washington	-10.3994
▁championship	-10.3994
jen	-10.4011
▁lips	-10.4016
▁taught	-10.4016
▁published	-10.4018
▁2021	-10.4026
▁coach	-10.4032
▁grown	-10.4032
▁fa	-10.4037
▁wolf	-10.4039
▁decide	-10.4041
▁ga	-10.4051
ee	-10.4064
ze	-10.4066
▁mac	-10.4066
q	-10.407
▁finding	-10.408
▁fred	-10.4093
▁aw	-10.4094
good	-10.4101
▁worried	-10.4103
▁tu	-10.4105
ny	-10.4105
▁beauty	-10.4106
▁italy	-10.4109
▁bound	-10.4121
▁orders	-10.4137
▁ned	-10.4145
▁normal	-10.4147
▁version	-10.4151
▁canada	-10.4154
▁throat	-10.4156
▁lap	-10.4162
che	-10.418
▁ninety	-10.4185
▁cards	-10.4188
▁pool	-10.419
just	-10.4193
end	-10.42
▁spoken	-10.4207
▁civil	-10.4209
▁bedroom	-10.4212
▁everywhere	-10.4215
▁author	-10.4219
▁metal	-10.4226
▁yum	-10.4227
▁closer	-10.4234
▁studio	-10.424
▁toast	-10.4257
▁chris	-10.4259
▁thy	-10.4259
▁pin	-10.4259
▁actress	-10.426
▁lock	-10.4261
red	-10.4278
▁tongue	-10.4278
ii	-10.4286
ina	-10.4287
▁plants	-10.4293
▁division	-10.4297
▁swim	-10.4305
▁committee	-10.4308
nic	-10.4311
▁female	-10.4314
▁tie	-10.4315
▁entire	-10.4318
peter	-10.4322
night	-10.4323
▁commander	-10.4324
▁accept	-10.4336
▁model	-10.4341
▁flag	-10.4341
▁surface	-10.4348
▁tries	-10.4353
ning	-10.4357
▁cell	-10.4362
▁lift	-10.4376
▁stan	-10.4378
▁fence	-10.4391
col	-10.4392
▁begins	-10.4405
▁sixty	-10.441
▁eastern	-10.4412
old	-10.4419
▁fixed	-10.4421
vo	-10.4422
▁forgotten	-10.4425
▁wedding	-10.4426
▁crash	-10.4443
▁towel	-10.4446
▁wine	-10.4455
▁complete	-10.4455
▁roger	-10.446
▁rate	-10.446
▁prepared	-10.4462
mer	-10.4471
▁youth	-10.4481
▁founded	-10.4481
▁smaller	-10.4492
▁sake	-10.4495
▁republic	-10.4504
▁channel	-10.4508
▁heaven	-10.4509
▁brothers	-10.4517
lt	-10.4539
▁zoo	-10.4541
▁africa	-10.4564
ance	-10.4582
▁motion	-10.4598
▁spain	-10.4599
▁yo	-10.4599
▁chinese	-10.46
▁farmer	-10.46
▁purdie	-10.4602
▁heat	-10.4604
▁rope	-10.4606
▁mister	-10.4609
▁mass	-10.4609
kay	-10.4609
▁drinking	-10.4611
[	-10.4616
▁excited	-10.462
sighs	-10.462
▁max	-10.4621
▁louis	-10.4627
ding	-10.4634
▁greater	-10.4638
fi	-10.464
▁generally	-10.4643
▁mc	-10.4654
▁located	-10.4654
▁anti	-10.4664
▁managed	-10.4665
▁tight	-10.4668
▁shown	-10.4672
▁runs	-10.4674
▁definitely	-10.4685
▁prove	-10.4687
▁cabin	-10.469
▁falls	-10.4709
▁continue	-10.4711
▁quietly	-10.4713
▁1,	-10.4722
▁blind	-10.4734
▁reaches	-10.4735
▁rid	-10.4742
▁fellows	-10.4744
ally	-10.4752
ng	-10.4754
▁spider	-10.4756
▁jumped	-10.4758
▁fill	-10.4759
▁sandwich	-10.4767
▁bin	-10.4768
▁aged	-10.4772
▁kick	-10.478
▁formula	-10.4781
▁cloth	-10.4783
▁wheels	-10.4786
▁museum	-10.4787
▁upset	-10.4795
▁empire	-10.4809
▁evil	-10.4818
when	-10.4819
ating	-10.4821
▁appearance	-10.483
▁rocks	-10.4836
looking	-10.4836
▁condition	-10.4853
▁uhuh	-10.4862
bye	-10.4874
▁treat	-10.4886
▁mission	-10.4888
▁trail	-10.4889
▁ed	-10.4889
▁bi	-10.489
▁opportunity	-10.4903
▁mate	-10.4904
▁possibly	-10.4904
▁21	-10.4907
▁wan	-10.4909
▁students	-10.4923
▁pig	-10.4924
▁carrying	-10.493
▁plain	-10.494
▁sports	-10.4948
▁rules	-10.4953
▁spell	-10.4957
▁remain	-10.4959
▁remained	-10.4965
▁gordon	-10.4966
▁plans	-10.4968
ized	-10.4974
&	-10.4975
▁secretary	-10.4975
ang	-10.4979
▁softly	-10.4986
▁ju	-10.4989
▁security	-10.4989
▁te	-10.4991
side	-10.4991
▁dare	-10.4991
▁bee	-10.5001
▁riding	-10.5004
▁grace	-10.5006
fa	-10.5006
▁walks	-10.5009
--"	-10.501
▁airport	-10.501
▁jean	-10.5018
▁greatest	-10.5026
⌉.	-10.503
▁mamma	-10.5054
▁du	-10.5065
▁motor	-10.5067
nd	-10.5067
▁pe	-10.5079
▁release	-10.5082
▁showing	-10.5084
▁seconds	-10.5085
▁leading	-10.5086
▁opposite	-10.5087
▁decision	-10.5088
▁groups	-10.5091
▁opinion	-10.5099
▁rise	-10.5109
▁events	-10.5111
babbles	-10.5127
▁process	-10.5129
▁nope	-10.5129
▁monday	-10.5131
light	-10.5135
▁yup	-10.5137
ck	-10.5138
▁pack	-10.5147
▁desk	-10.5154
▁suggested	-10.5155
▁ra	-10.5156
▁official	-10.5157
▁stayed	-10.517
▁holiday	-10.5171
▁mid	-10.5177
▁tip	-10.5179
▁balloon	-10.5193
here	-10.5199
▁honest	-10.521
▁fur	-10.5216
ela	-10.5216
▁nineteen	-10.522
▁areas	-10.5226
▁contact	-10.5231
▁travel	-10.5235
im	-10.5249
▁hmm	-10.5268
head	-10.5276
▁microphone	-10.5288
▁male	-10.5292
▁helping	-10.5293
ium	-10.531
ice	-10.5312
▁soldier	-10.5314
▁records	-10.532
▁bessie	-10.5323
hu	-10.5326
▁realize	-10.5329
▁stream	-10.5334
▁greek	-10.5338
ek	-10.5341
oth	-10.5343
▁broad	-10.5348
▁string	-10.5352
mel	-10.5354
▁olympics	-10.5361
▁speech	-10.5375
▁offered	-10.5376
jes	-10.5377
▁changes	-10.5382
▁ourselves	-10.5386
▁easier	-10.5391
▁50	-10.5398
▁knee	-10.5402
ise	-10.5403
▁afterwards	-10.5408
▁production	-10.5416
▁23	-10.5429
▁bert	-10.5443
▁painting	-10.5454
▁staff	-10.5456
ov	-10.5461
▁yyy	-10.5472
▁’	-10.5473
▁crown	-10.5476
▁cities	-10.5483
▁ii	-10.5489
▁scott	-10.5492
rd	-10.55
du	-10.55
▁foreign	-10.5506
▁value	-10.5507
▁younger	-10.5524
ita	-10.5532
▁apparently	-10.5535
els	-10.5546
▁directly	-10.5547
▁glasses	-10.555
▁houses	-10.5553
▁excellent	-10.5557
▁contract	-10.5562
▁bringing	-10.5566
mu	-10.5566
▁safety	-10.5568
▁frightened	-10.5569
▁surely	-10.5582
▁association	-10.5585
▁presently	-10.5585
▁brilliant	-10.5588
▁narrow	-10.5594
min	-10.5598
▁manage	-10.5599
▁wave	-10.5606
▁ways	-10.5621
▁dutch	-10.5622
▁perfectly	-10.5623
▁dinosaur	-10.5634
▁retired	-10.5637
▁dozen	-10.564
ol	-10.5646
year	-10.5653
chuckles	-10.5663
▁2000	-10.5678
▁whispered	-10.5679
▁trick	-10.5681
▁memory	-10.5683
▁awards	-10.5685
▁academy	-10.5686
▁fancy	-10.5693
▁shopping	-10.5696
▁rush	-10.5696
▁edward	-10.5702
▁code	-10.5706
▁successful	-10.5712
▁settled	-10.5713
silence	-10.5722
▁hero	-10.5722
▁comfortable	-10.5724
▁knowledge	-10.5736
▁fortune	-10.5736
did	-10.5736
▁clown	-10.5737
▁moo	-10.5741
▁services	-10.5743
▁eighty	-10.5757
▁task	-10.5759
har	-10.5765
tra	-10.5768
some	-10.5769
ff	-10.5769
▁writer	-10.5779
▁[2	-10.5782
▁wondering	-10.5787
▁forever	-10.5791
▁horsie	-10.5798
▁pressure	-10.5798
▁anxious	-10.5801
▁airplane	-10.5804
▁islands	-10.5809
▁smiled	-10.5812
9	-10.5814
▁doggie	-10.5815
▁jones	-10.5815
▁buddy	-10.5818
▁ruth	-10.5818
▁boots	-10.5818
▁shouted	-10.5819
▁silent	-10.582
▁nursery	-10.5821
▁tim	-10.5821
filler	-10.5832
▁ann	-10.5833
▁nick	-10.5837
▁swing	-10.584
▁response	-10.5841
▁soup	-10.5846
▁cases	-10.5853
▁tough	-10.5853
▁chairman	-10.5856
▁design	-10.5856
▁bathroom	-10.5865
▁forces	-10.5873
▁vote	-10.5875
▁carriage	-10.5879
▁signal	-10.5881
▁forced	-10.5882
nods	-10.5888
▁bother	-10.5888
▁fairy	-10.5904
▁mention	-10.5905
▁joke	-10.5906
▁cute	-10.5912
▁walls	-10.5918
▁biggest	-10.5923
▁mile	-10.5931
▁host	-10.5935
▁proper	-10.5938
-19	-10.5938
▁rings	-10.594
▁hammer	-10.5947
▁medical	-10.596
▁mis	-10.5962
▁palace	-10.5965
▁ro	-10.5967
▁hanging	-10.5968
fe	-10.5977
/0	-10.5977
▁yard	-10.5983
▁disease	-10.5985
▁pencil	-10.5987
▁waited	-10.5994
play	-10.6003
▁calls	-10.6007
▁explained	-10.6012
▁upper	-10.6025
▁culture	-10.6029
▁mentioned	-10.6039
▁wise	-10.6042
▁particularly	-10.6051
(	-10.6051
▁fairly	-10.6054
back	-10.6055
▁mirror	-10.6057
▁22	-10.606
▁loss	-10.606
▁enter	-10.6061
▁eaten	-10.6062
▁willing	-10.6063
▁nest	-10.6064
▁forgive	-10.6076
▁shook	-10.6077
▁smiling	-10.6079
▁hug	-10.6102
▁bull	-10.6103
▁reply	-10.6104
▁bra	-10.6105
▁network	-10.6109
▁tractor	-10.6112
▁gentle	-10.6122
▁gift	-10.6137
▁par	-10.6147
▁giant	-10.615
▁serve	-10.6151
▁mail	-10.6155
▁belong	-10.6155
▁mat	-10.6156
▁si	-10.6157
▁included	-10.6164
▁developed	-10.6172
▁dada	-10.6172
▁powerful	-10.6175
⌋.	-10.6176
▁appear	-10.6176
▁sin	-10.618
▁site	-10.6186
work	-10.6188
▁ships	-10.6188
▁consider	-10.6193
▁highest	-10.6201
oo	-10.6207
▁faster	-10.6213
▁duh	-10.6214
ow	-10.6215
▁signed	-10.6216
▁blanket	-10.6222
▁somewhat	-10.6226
▁holy	-10.6229
▁grandpa	-10.6229
▁pilot	-10.6232
▁chap	-10.6237
▁players	-10.6237
▁papers	-10.6238
▁pour	-10.6241
over	-10.6243
▁wings	-10.6252
▁larger	-10.6252
▁studied	-10.6254
ned	-10.6255
▁kinda	-10.6255
▁penny	-10.626
▁amazing	-10.6261
▁washing	-10.6272
▁pi	-10.6277
▁passing	-10.6282
▁aid	-10.6283
▁val	-10.6286
ai	-10.629
▁clearly	-10.6292
▁hearing	-10.6298
▁flew	-10.63
▁favor	-10.6302
▁ke	-10.6314
▁equal	-10.6316
▁sides	-10.6316
▁drama	-10.6318
▁artist	-10.632
see	-10.6324
▁episode	-10.6329
▁doin	-10.6337
▁bush	-10.6338
▁heads	-10.634
▁receive	-10.6344
▁stock	-10.635
▁lamb	-10.6353
▁stands	-10.6354
very	-10.6354
sha	-10.6354
▁dust	-10.6356
▁thin	-10.6357
▁expression	-10.636
lu	-10.6365
▁jar	-10.6365
ite	-10.6367
▁cor	-10.6383
▁sail	-10.6389
▁hay	-10.6391
▁dragon	-10.6392
aw	-10.6399
▁correct	-10.6401
▁joseph	-10.6405
ball	-10.6407
▁hung	-10.6419
▁parliament	-10.6422
shi	-10.6428
▁yay	-10.6445
▁ti	-10.6451
▁firm	-10.6458
look	-10.646
▁properly	-10.6468
ius	-10.647
▁magazine	-10.6471
▁attempt	-10.6473
▁recording	-10.6482
▁beep	-10.6486
▁lara	-10.6487
▁cancer	-10.6501
▁influence	-10.651
▁railway	-10.6512
▁rome	-10.6518
▁planet	-10.652
▁hop	-10.6521
▁justice	-10.6521
▁dick	-10.6523
▁sha	-10.6549
bout	-10.6553
▁knowing	-10.6557
▁florida	-10.6559
morrow	-10.6561
▁chicago	-10.6562
▁desire	-10.6564
▁fi	-10.6577
▁keys	-10.658
▁russia	-10.6582
lan	-10.6589
▁waste	-10.6598
ev	-10.6609
▁madam	-10.662
▁angel	-10.6624
▁australian	-10.663
▁credit	-10.663
▁library	-10.6633
▁1990	-10.6637
br	-10.6638
▁boom	-10.6639
▁gar	-10.6641
]!	-10.6645
▁hills	-10.6649
▁damage	-10.6656
▁[3	-10.6658
▁weird	-10.6659
▁shh	-10.666
▁weak	-10.6662
▁loose	-10.6662
▁fashion	-10.667
▁acting	-10.667
▁patient	-10.6683
▁average	-10.6684
ok	-10.6687
ence	-10.6693
▁kim	-10.6698
▁poo	-10.6699
▁effort	-10.6706
▁folks	-10.6707
▁tour	-10.6714
▁raise	-10.6716
▁thrown	-10.6721
▁related	-10.6722
▁elected	-10.6723
▁medal	-10.6729
▁material	-10.6738
▁grandmother	-10.6745
pro	-10.6747
▁concerned	-10.6748
▁26	-10.6751
▁baseball	-10.6753
▁vessel	-10.6773
▁ver	-10.6773
▁hook	-10.6774
▁peas	-10.6775
ru	-10.6781
▁property	-10.6785
▁2018	-10.6791
▁disappeared	-10.6792
▁latter	-10.6794
▁agent	-10.6798
ez	-10.68
▁emperor	-10.6801
▁pushed	-10.6802
ities	-10.6804
▁available	-10.6805
ku	-10.6808
▁address	-10.6808
▁ru	-10.6814
▁relationship	-10.6815
▁remarked	-10.6816
▁ideas	-10.6819
▁apartment	-10.6819
▁40	-10.6827
▁steve	-10.6832
▁percent	-10.6836
▁cash	-10.6841
▁fan	-10.6845
▁african	-10.6845
ju	-10.6851
▁tickle	-10.6862
▁ger	-10.6863
▁understood	-10.6863
stone	-10.6864
com	-10.6865
more	-10.6867
▁grant	-10.6869
ial	-10.6875
with	-10.6877
▁gi	-10.6879
▁weekend	-10.6886
▁garage	-10.6892
▁birth	-10.6892
▁bunch	-10.6893
▁fired	-10.6901
▁worst	-10.6905
▁owl	-10.6912
tor	-10.6912
ran	-10.6914
▁fought	-10.6919
▁indians	-10.6927
▁cooking	-10.6929
▁odd	-10.6932
▁fishing	-10.6933
▁individual	-10.6936
▁mummie	-10.6941
▁religion	-10.6943
▁theory	-10.6945
▁comfort	-10.6946
▁brand	-10.6946
▁remembered	-10.6952
▁detective	-10.6954
▁knocked	-10.6958
▁plastic	-10.6958
▁fond	-10.6961
sen	-10.6962
▁jerry	-10.6965
▁noble	-10.6967
▁jam	-10.6969
▁shooting	-10.6976
▁dere	-10.6976
▁seriously	-10.6977
ize	-10.6988
kat	-10.6988
▁soviet	-10.6996
bb	-10.6999
▁alarm	-10.7001
▁wagon	-10.7007
▁section	-10.7014
▁policy	-10.7017
▁drove	-10.7024
▁ki	-10.7025
▁horn	-10.7031
▁bump	-10.7035
▁throwing	-10.7036
▁competition	-10.7038
▁~	-10.7043
pi	-10.7045
▁uses	-10.7047
▁ellie	-10.7049
▁independent	-10.7056
▁failed	-10.7057
▁merry	-10.7058
▁butterfly	-10.706
▁darkness	-10.7064
▁rub	-10.7065
▁grave	-10.7077
▁sch	-10.7078
right	-10.7078
▁wished	-10.7081
▁create	-10.7087
▁ted	-10.7087
roz	-10.7093
▁faces	-10.71
whispers	-10.71
▁advantage	-10.7102
ney	-10.7111
▁sex	-10.7119
▁drawn	-10.7119
▁jimmy	-10.7122
▁sword	-10.7124
▁q	-10.7126
▁tommy	-10.7138
▁ray	-10.7139
▁gently	-10.7141
▁puppy	-10.7141
▁staying	-10.7142
▁friendly	-10.7146
▁boats	-10.7149
▁previous	-10.7153
▁dig	-10.7162
▁sweetheart	-10.7177
▁plus	-10.7177
▁cave	-10.7184
▁types	-10.7189
▁los	-10.72
▁fully	-10.7202
▁27	-10.7202
ab	-10.7207
▁strike	-10.721
▁doors	-10.7214
▁throughout	-10.7216
ble	-10.7231
▁freedom	-10.7231
ries	-10.7232
▁chase	-10.7233
▁mayor	-10.7243
glo	-10.7247
▁harm	-10.7249
▁delight	-10.7253
10	-10.7253
ou	-10.7257
▁grey	-10.7257
▁traffic	-10.7271
▁campaign	-10.7274
▁imp	-10.7282
▁burn	-10.7284
ria	-10.7287
mp	-10.729
▁tied	-10.7292
▁sum	-10.7294
▁partner	-10.7304
▁newspaper	-10.7312
▁hunting	-10.7312
port	-10.7316
▁bat	-10.7317
▁somehow	-10.7319
▁spin	-10.7319
gar	-10.7324
war	-10.7326
nie	-10.7327
▁wha	-10.7332
▁cloud	-10.734
▁mexico	-10.735
king	-10.7351
voc	-10.7356
▁feelings	-10.7356
▁statistics	-10.7358
▁loves	-10.7362
▁aft	-10.7364
▁media	-10.7375
▁activity	-10.7378
▁2003	-10.7378
▁teams	-10.7382
▁border	-10.7383
▁pile	-10.7383
▁elizabeth	-10.7398
▁entirely	-10.7399
▁stranger	-10.74
▁mixed	-10.74
will	-10.7401
▁shower	-10.7405
▁familiar	-10.7405
▁hell	-10.7405
▁candy	-10.7406
▁hockey	-10.7409
"]	-10.7419
▁gosh	-10.7419
▁advice	-10.742
▁hidden	-10.742
▁deer	-10.7421
▁ahhah	-10.7424
▁degree	-10.7427
▁separate	-10.7431
▁buried	-10.7442
▁pages	-10.7445
▁quack	-10.7447
▁grandfather	-10.7447
▁performance	-10.7453
▁turkey	-10.7453
qui	-10.7458
▁julia	-10.7461
▁ladder	-10.7461
▁inter	-10.7463
▁jacket	-10.7464
▁direct	-10.7465
▁mud	-10.7467
▁neat	-10.7468
▁sposta	-10.7471
▁treasure	-10.7486
▁pulling	-10.7488
▁tale	-10.749
▁admit	-10.75
ld	-10.7507
▁canadian	-10.7513
▁totally	-10.7523
▁presence	-10.7523
▁data	-10.7525
▁becoming	-10.7526
your	-10.7532
▁hunt	-10.7535
▁boxes	-10.7536
▁troops	-10.7536
▁touched	-10.754
lyn	-10.7546
▁majesty	-10.7553
ap	-10.7561
ward	-10.7563
▁caterpillar	-10.7564
▁har	-10.757
▁copy	-10.7572
▁reported	-10.7572
▁sang	-10.7579
▁guide	-10.7581
▁brian	-10.7581
▁currently	-10.7589
▁dying	-10.759
▁ja	-10.7595
▁wi	-10.7596
▁ireland	-10.7599
▁languages	-10.7602
▁determined	-10.7602
▁realized	-10.7604
▁jumping	-10.761
▁ri	-10.761
▁branch	-10.7611
▁desert	-10.7613
▁blame	-10.7621
▁rice	-10.7624
▁adventure	-10.7632
▁companion	-10.7634
▁sport	-10.7635
▁kinds	-10.7635
▁slip	-10.7635
▁scotland	-10.7642
▁madame	-10.7649
▁socks	-10.7652
▁ken	-10.7661
▁stones	-10.7662
▁handsome	-10.7664
▁latin	-10.7673
ky	-10.7674
▁yummy	-10.7681
kin	-10.7685
▁arthur	-10.7689
▁tri	-10.769
▁families	-10.7695
▁zzz	-10.7703
▁afford	-10.7711
▁ghost	-10.772
▁knees	-10.772
▁pale	-10.7724
▁woo	-10.7729
▁snap	-10.7729
▁28	-10.7743
▁labour	-10.7744
▁student	-10.7748
down	-10.7748
▁cookies	-10.775
▁shi	-10.7753
▁tank	-10.7755
▁electric	-10.7761
▁alex	-10.7766
▁29	-10.7768
▁curious	-10.7769
▁described	-10.7773
▁aside	-10.7776
▁bart	-10.7778
ach	-10.7779
▁paying	-10.7783
▁recently	-10.7787
▁rear	-10.7787
▁gu	-10.7789
▁reckon	-10.779
▁crayons	-10.7792
▁shadow	-10.7794
▁km	-10.7804
▁locked	-10.7805
▁shoulders	-10.7809
▁excitement	-10.7813
▁cutting	-10.7817
▁sits	-10.7825
▁exercise	-10.7832
▁fifth	-10.7836
▁interview	-10.7844
▁pointing	-10.7845
▁je	-10.7854
law	-10.7855
▁matches	-10.7861
▁lies	-10.7872
ator	-10.7877
▁quit	-10.7881
tis	-10.7883
▁leaf	-10.7885
tro	-10.7888
▁bits	-10.7893
▁gay	-10.7894
▁score	-10.7895
▁seventy	-10.7905
▁owner	-10.7906
15	-10.7909
▁trunk	-10.7911
▁picking	-10.7915
▁iii	-10.7919
▁feels	-10.7925
▁dunno	-10.7936
▁doggy	-10.7943
ened	-10.7944
▁steal	-10.795
00	-10.7955
▁pointed	-10.7956
▁wore	-10.796
▁2010	-10.7962
cy	-10.7963
▁pipe	-10.7965
▁waves	-10.7968
▁operation	-10.7968
▁ce	-10.7971
▁chest	-10.7975
▁whenever	-10.7984
▁bone	-10.7987
▁issue	-10.7988
▁cats	-10.799
▁duke	-10.7999
▁increase	-10.8002
▁chain	-10.8003
▁evidently	-10.8004
▁net	-10.8009
▁catholic	-10.8013
▁pond	-10.8024
▁trial	-10.8025
▁repeated	-10.8028
▁matters	-10.803
▁nervous	-10.8031
pin	-10.8037
▁grab	-10.804
▁gathered	-10.804
▁festival	-10.804
▁normally	-10.8041
▁nana	-10.8043
▁characters	-10.8049
▁pal	-10.8049
▁arrest	-10.8049
▁byebye	-10.805
▁belt	-10.8052
▁drops	-10.8052
▁icecream	-10.8056
▁aware	-10.806
▁fool	-10.8069
ified	-10.8071
ps	-10.8076
▁authority	-10.8077
▁postman	-10.8078
▁ku	-10.8079
▁prevent	-10.808
ery	-10.809
▁objects	-10.8093
▁tent	-10.8093
wi	-10.8098
▁slightly	-10.81
▁maid	-10.8102
sung	-10.8106
▁dreams	-10.811
▁progress	-10.8111
▁breaking	-10.8114
▁includes	-10.8115
was	-10.8122
▁planning	-10.8124
▁pooh	-10.8126
▁target	-10.8128
▁wooden	-10.8131
▁instant	-10.8133
▁industry	-10.8139
▁figures	-10.8139
ide	-10.8139
ong	-10.814
▁climate	-10.815
▁rolling	-10.8157
▁standard	-10.8157
iv	-10.8158
▁express	-10.8171
▁wing	-10.8173
▁musical	-10.8184
▁goat	-10.819
▁hum	-10.8196
▁sweetie	-10.8203
vocalize	-10.8206
▁boston	-10.8214
▁statement	-10.8224
tri	-10.8228
▁keeps	-10.823
”.	-10.8231
▁jigsaw	-10.8234
▁rescue	-10.8234
ible	-10.8249
19	-10.8253
▁min	-10.8259
▁active	-10.8266
▁shout	-10.8274
san	-10.8276
▁eve	-10.8278
▁gang	-10.8283
▁queer	-10.8284
▁observed	-10.8291
▁learning	-10.8294
lic	-10.8299
ö	-10.8306
▁nina	-10.8313
▁lisa	-10.8316
▁mu	-10.832
▁whee	-10.8322
▁1980	-10.8323
board	-10.8327
▁split	-10.8334
▁wipe	-10.8334
▁tax	-10.8342
▁federal	-10.8342
▁burning	-10.8342
▁han	-10.8343
▁za	-10.8347
▁eventually	-10.835
▁slept	-10.835
▁transport	-10.8353
▁lamp	-10.8361
▁mix	-10.8365
book	-10.837
▁drug	-10.8372
▁yards	-10.8375
▁courage	-10.8383
▁congress	-10.8386
▁scientists	-10.8387
nt	-10.839
▁tunnel	-10.839
▁piano	-10.8391
mad	-10.8391
▁fleet	-10.84
▁lane	-10.8403
▁polly	-10.8404
▁clap	-10.8404
▁nap	-10.8404
▁recorder	-10.8407
▁purse	-10.8409
▁eric	-10.8413
▁sal	-10.8421
▁spite	-10.8426
turns	-10.843
▁victory	-10.8434
▁passage	-10.844
▁coal	-10.8442
▁companies	-10.8443
▁destroyed	-10.8444
▁text	-10.8457
▁conference	-10.8459
▁ram	-10.846
▁effects	-10.8461
▁unit	-10.8463
▁reasons	-10.8469
▁banana	-10.847
▁scarcely	-10.8473
▁nan	-10.8474
▁$	-10.8475
▁recorded	-10.8477
▁swear	-10.848
ping	-10.8484
ical	-10.8486
50	-10.8488
▁clouds	-10.8489
▁listened	-10.849
▁1970	-10.8492
▁del	-10.8495
▁wondered	-10.8495
▁pillow	-10.8496
▁ham	-10.8496
▁mainly	-10.8496
▁colour	-10.8501
▁bloody	-10.8502
▁wounded	-10.8505
ken	-10.851
▁angeles	-10.8511
▁unknown	-10.8513
boy	-10.8515
▁beneath	-10.852
▁hut	-10.8522
▁burst	-10.8523
▁originally	-10.8524
ph	-10.8541
▁bucket	-10.8541
▁daniel	-10.8544
▁tuesday	-10.8545
▁scale	-10.8547
▁awake	-10.8554
▁racing	-10.8554
▁goal	-10.8555
▁soap	-10.8556
▁0	-10.8558
▁dorothy	-10.8565
▁established	-10.8569
▁pity	-10.8572
van	-10.8576
▁prisoners	-10.8578
▁useful	-10.8586
set	-10.8587
▁pants	-10.8588
▁features	-10.8592
▁positive	-10.8593
▁stepped	-10.8595
▁robin	-10.8606
▁weapons	-10.8611
▁spare	-10.8613
▁¶	-10.8616
▁democratic	-10.8619
▁shame	-10.8622
▁fed	-10.8623
▁2001	-10.8629
▁2,	-10.8629
▁craft	-10.8639
▁bodies	-10.864
may	-10.8644
▁rail	-10.8648
▁che	-10.8648
his	-10.8658
say	-10.8662
dis	-10.8665
lau	-10.8666
▁creature	-10.8668
ette	-10.8668
▁stomach	-10.8681
▁fireman	-10.8682
▁voices	-10.8682
▁bur	-10.8687
making	-10.8688
▁cups	-10.8688
▁owned	-10.869
▁collection	-10.8691
▁fo	-10.8692
▁smooth	-10.8696
▁turtle	-10.8697
▁cop	-10.8705
▁lifted	-10.8706
▁rapidly	-10.8707
▁comedy	-10.871
▁proved	-10.8713
▁jan	-10.8714
▁access	-10.8717
▁beg	-10.8717
▁fate	-10.8731
▁enjoyed	-10.8731
berg	-10.8739
▁giraffe	-10.874
▁pony	-10.874
▁schools	-10.8741
▁underneath	-10.8744
▁switzerland	-10.8748
▁auntie	-10.876
▁prefer	-10.876
▁walter	-10.8765
ily	-10.877
music	-10.8773
▁performed	-10.8777
▁lonely	-10.8779
▁engaged	-10.8781
▁guilty	-10.8783
▁trains	-10.8799
▁screen	-10.8801
▁exciting	-10.8803
▁forms	-10.8803
▁guest	-10.8805
▁beer	-10.8823
gg	-10.8831
▁steady	-10.8833
▁temple	-10.8835
▁horrible	-10.8836
▁thursday	-10.8836
▁warning	-10.8837
nes	-10.8838
▁removed	-10.8839
▁responsible	-10.8841
▁invited	-10.8842
▁poet	-10.8847
▁prisoner	-10.8848
▁switch	-10.8849
tu	-10.8849
▁producer	-10.8856
▁pit	-10.8857
▁lucy	-10.8858
▁oliver	-10.8859
ix	-10.886
000	-10.8862
▁couch	-10.887
▁nearer	-10.8876
▁opera	-10.8877
▁content	-10.888
gan	-10.888
▁philip	-10.888
▁recognize	-10.8881
▁mighty	-10.8883
▁picnic	-10.8887
des	-10.8889
▁senior	-10.8896
▁cage	-10.8897
▁sh	-10.8897
▁divided	-10.8899
▁pulls	-10.8899
have	-10.8901
▁log	-10.8901
▁peggy	-10.8905
▁delicious	-10.8913
▁uniform	-10.8917
▁suspect	-10.8919
mb	-10.8925
▁sta	-10.8933
▁hurried	-10.8937
▁matt	-10.8944
▁britain	-10.8947
▁ordinary	-10.8956
▁maria	-10.8956
▁shock	-10.8957
▁doo	-10.8959
▁religious	-10.896
▁settle	-10.8979
je	-10.8984
▁map	-10.899
▁1960	-10.8991
▁priest	-10.8992
▁truly	-10.8993
▁advance	-10.8999
▁whistle	-10.9002
▁closely	-10.9002
▁dawn	-10.9006
▁bless	-10.901
holds	-10.9011
▁fields	-10.9012
▁source	-10.9013
▁route	-10.9021
▁losing	-10.9025
▁glance	-10.9028
▁arab	-10.9032
▁sergeant	-10.9037
▁owe	-10.9038
▁jail	-10.9042
giggles	-10.9046
▁opens	-10.9051
▁difficulty	-10.9056
▁kidding	-10.906
▁results	-10.9061
▁struggle	-10.9069
▁innocent	-10.9076
▁location	-10.9077
▁1999	-10.9081
▁circus	-10.9085
oc	-10.9085
▁woke	-10.9093
▁tha	-10.9094
▁occasion	-10.9099
▁zealand	-10.9102
len	-10.9103
▁2011	-10.9104
▁teaching	-10.9109
▁relief	-10.9111
▁bones	-10.9114
top	-10.9118
▁pray	-10.9119
▁alexander	-10.9129
▁chips	-10.913
▁structure	-10.9136
▁brick	-10.9138
▁irish	-10.9138
coughs	-10.9142
▁hu	-10.9143
▁susan	-10.9143
▁stroke	-10.9144
▁donald	-10.9146
▁tar	-10.9156
▁supply	-10.9159
▁entrance	-10.9167
▁sally	-10.9169
▁sisters	-10.9173
▁washed	-10.9179
▁wednesday	-10.9181
▁treatment	-10.9182
▁organization	-10.9182
▁trap	-10.9183
▁becky	-10.9183
▁nation	-10.9184
21	-10.9184
▁novel	-10.9191
▁badly	-10.9192
▁winning	-10.9192
▁bishop	-10.9194
▁landed	-10.9195
⌋	-10.9205
▁competed	-10.9206
ec	-10.921
▁nicole	-10.9216
▁streets	-10.9223
▁fork	-10.9225
▁buildings	-10.9229
▁jenny	-10.9248
pu	-10.9248
▁rob	-10.9249
▁rode	-10.925
▁steam	-10.9254
▁avoid	-10.926
▁va	-10.9267
▁2020,	-10.9268
mr	-10.927
ay	-10.9272
▁florence	-10.9277
▁greatly	-10.9279
bra	-10.9284
▁pine	-10.9286
five	-10.9292
ming	-10.9294
tle	-10.9296
▁bricks	-10.9296
▁hoping	-10.9297
ably	-10.9299
▁junior	-10.9299
▁mal	-10.93
▁bent	-10.9311
▁mon	-10.9314
ara	-10.9317
tal	-10.9328
▁mmm	-10.9328
▁temperature	-10.933
▁faint	-10.9332
ered	-10.9333
door	-10.9339
▁firstname	-10.9339
zo	-10.9344
▁eighteen	-10.9346
▁ob	-10.9353
▁marie	-10.9354
▁slipped	-10.9357
▁killing	-10.9358
pointing	-10.9359
▁shouting	-10.9359
▁revolution	-10.9361
med	-10.9365
▁claim	-10.9369
▁treated	-10.9374
▁lit	-10.9377
▁1996	-10.938
▁policeman	-10.9381
▁changing	-10.9386
▁pitcher	-10.9389
▁sixteen	-10.9391
▁programme	-10.9395
▁quality	-10.9397
▁legal	-10.9403
▁lorry	-10.9407
ula	-10.9409
▁daily	-10.9409
▁branches	-10.9409
▁mustn	-10.9415
▁woof	-10.9418
▁talks	-10.9423
▁1992	-10.9424
18	-10.9439
▁setting	-10.9445
ren	-10.9446
▁marks	-10.9446
▁plot	-10.945
▁frogs	-10.9455
▁caroline	-10.9456
ik	-10.9457
▁rod	-10.9458
▁lesson	-10.9459
▁circumstances	-10.9459
ama	-10.946
▁notes	-10.9463
▁request	-10.9468
▁thunder	-10.9468
▁ch	-10.9469
▁potato	-10.9471
▁andrew	-10.9476
▁holes	-10.9477
▁toilet	-10.9478
▁nancy	-10.9479
▁mount	-10.9482
▁splash	-10.9488
long	-10.9489
pped	-10.949
▁load	-10.9497
▁provide	-10.9497
▁aah	-10.9508
ology	-10.9517
lia	-10.952
▁accepted	-10.9528
▁sink	-10.9532
▁bears	-10.9535
▁drunk	-10.9537
▁becomes	-10.9545
▁uk	-10.9546
▁planned	-10.9551
▁1998	-10.9564
▁nut	-10.957
▁refused	-10.9576
▁happiness	-10.9578
▁eddie	-10.9578
▁affairs	-10.9579
▁file	-10.9581
▁universe	-10.9591
▁der	-10.9595
▁annie	-10.9595
▁jackson	-10.9598
12	-10.9607
sur	-10.9608
ada	-10.961
thank	-10.9614
▁rushed	-10.9616
▁economic	-10.9617
▁chosen	-10.9618
▁expensive	-10.9619
▁upside	-10.9622
zi	-10.9624
▁creek	-10.9628
▁thousands	-10.9633
▁sentence	-10.9634
▁toes	-10.9635
▁farther	-10.9643
▁folk	-10.9645
▁ge	-10.9645
▁wire	-10.9646
▁lack	-10.9658
▁pride	-10.9658
▁connection	-10.9666
▁parties	-10.9667
▁gain	-10.9671
▁op	-10.9676
▁captured	-10.9677
▁gra	-10.9691
▁introduced	-10.9699
▁fourteen	-10.97
nina	-10.9707
▁crocodile	-10.9715
lar	-10.9719
▁bomb	-10.9721
▁molly	-10.9721
vis	-10.9727
▁destroy	-10.9733
▁weapon	-10.9733
▁1995	-10.9743
▁beans	-10.9747
ü	-10.9747
▁matthew	-10.9748
▁replaced	-10.9752
qua	-10.9752
▁honour	-10.9755
mat	-10.9759
▁required	-10.9765
▁principal	-10.9766
eth	-10.9776
▁devil	-10.9777
gy	-10.9778
▁trousers	-10.9785
▁brazil	-10.9789
▁climbing	-10.979
▁crack	-10.9795
▁pole	-10.9802
▁escaped	-10.9802
bel	-10.9812
low	-10.9813
▁actual	-10.9821
▁1994	-10.9822
▁dolls	-10.9824
town	-10.9826
▁territory	-10.9827
voice	-10.9835
▁whale	-10.9836
▁victim	-10.9838
▁satisfied	-10.9842
▁studies	-10.985
ung	-10.9853
ker	-10.9856
▁scary	-10.986
▁intended	-10.9861
▁relax	-10.9863
▁egypt	-10.9867
ray	-10.9868
▁platform	-10.9869
▁seek	-10.9869
▁[4	-10.9879
▁recognized	-10.9881
▁cu	-10.9883
▁stable	-10.9884
25	-10.9886
▁tummy	-10.9888
tte	-10.989
▁debut	-10.989
▁etc	-10.9892
▁chairs	-10.9896
▁dishes	-10.9904
▁tropical	-10.9906
▁signs	-10.9907
ile	-10.9908
two	-10.9909
cho	-10.991
▁strip	-10.9911
gh	-10.9913
net	-10.9916
▁audience	-10.9921
–1	-10.9922
ye	-10.9923
hy	-10.9926
▁bark	-10.9928
▁chemical	-10.993
kf	-10.9931
▁bid	-10.9937
▁splendid	-10.9939
ization	-10.995
▁virginia	-10.9952
▁attacked	-10.9952
nce	-10.9953
▁armed	-10.9955
▁beast	-10.9956
▁(;	-10.9957
kh	-10.9959
▁dump	-10.9962
▁wand	-10.9967
▁daisy	-10.9968
▁brief	-10.9972
▁lads	-10.9976
which	-10.9976
▁mill	-10.998
▁ste	-10.9981
▁wound	-10.9982
▁belongs	-10.9984
▁buzz	-10.9984
▁punch	-10.9984
▁tune	-10.9986
▁appreciate	-10.999
▁approach	-10.9991
iz	-10.9992
▁rare	-10.9995
▁patsy	-10.9999
new	-11
ious	-11.0004
get	-11.0004
star	-11.0005
▁hoped	-11.0011
▁danny	-11.0012
▁sooner	-11.0014
▁shelter	-11.0014
▁killer	-11.0018
▁instance	-11.002
▁arrested	-11.0023
▁altogether	-11.0025
▁hal	-11.0026
ere	-11.003
▁rolled	-11.0034
▁hasta	-11.0034
▁powder	-11.0034
▁oven	-11.0037
▁jimmie	-11.0039
ering	-11.0043
ative	-11.0045
tz	-11.0045
▁crossed	-11.0052
▁fe	-11.0053
▁vice	-11.0055
▁provided	-11.0056
gie	-11.0062
mm	-11.0066
▁dish	-11.0071
▁2020)	-11.0072
ala	-11.0072
▁rent	-11.0075
▁flash	-11.0077
▁addition	-11.0086
▁pushing	-11.0086
▁basically	-11.0087
▁conditions	-11.009
▁2017	-11.0092
▁eagerly	-11.0097
ches	-11.0099
▁bags	-11.0099
▁bu	-11.01
shouts	-11.01
▁aim	-11.0101
om	-11.0107
▁stole	-11.0113
▁ticket	-11.0115
▁technology	-11.0115
▁origin	-11.0118
▁ends	-11.0123
▁footnote	-11.0126
▁hearts	-11.0128
▁demanded	-11.0128
▁affair	-11.0129
▁gained	-11.0132
▁shining	-11.0134
▁champion	-11.0137
▁lessons	-11.0146
vin	-11.015
cent	-11.0151
▁1997	-11.0154
▁possession	-11.0155
▁remains	-11.0163
actually	-11.0167
▁cottage	-11.0168
▁peanut	-11.0173
▁connected	-11.0175
▁rachel	-11.0178
▁suggest	-11.0178
▁mistress	-11.0179
▁delighted	-11.0183
▁2012	-11.0192
▁sticks	-11.0196
▁mickey	-11.0198
▁cheap	-11.0202
▁para	-11.0208
phone	-11.0208
▁ouch	-11.0208
▁baba	-11.0209
▁repeat	-11.0211
▁assistant	-11.0212
▁sale	-11.0221
▁designed	-11.0224
▁entertainment	-11.0227
▁emergency	-11.0236
▁towns	-11.0236
▁witch	-11.0237
▁laws	-11.024
▁solid	-11.0241
▁steel	-11.0243
▁physical	-11.025
▁ty	-11.0255
▁chart	-11.0257
▁appointed	-11.0262
▁enemies	-11.0266
▁wrestling	-11.0266
▁selected	-11.0266
▁parish	-11.0268
dale	-11.027
▁tend	-11.027
▁occurred	-11.0271
▁useta	-11.0272
playing	-11.0272
▁peekaboo	-11.0275
▁sending	-11.0277
▁climbed	-11.028
▁rocket	-11.0281
▁laughter	-11.0283
▁suffering	-11.0286
▁navy	-11.0292
▁refer	-11.0293
▁comb	-11.0299
▁assembly	-11.03
▁protection	-11.0301
▁produce	-11.0303
▁magnet	-11.0306
▁appears	-11.0315
ino	-11.0321
▁volume	-11.0328
▁eager	-11.0332
ks	-11.0335
▁systems	-11.034
▁tells	-11.0345
▁cows	-11.0346
tes	-11.0348
▁margaret	-11.0349
▁sunshine	-11.0349
▁johnny	-11.0352
lon	-11.0354
ised	-11.0356
involuntary	-11.0359
▁carpet	-11.0362
▁dude	-11.0365
▁yu	-11.0367
sure	-11.0369
▁ze	-11.0371
nor	-11.0372
▁2002	-11.0373
▁scheme	-11.0379
▁jelly	-11.0388
▁selling	-11.0392
▁barbara	-11.0393
▁mood	-11.0393
▁oldest	-11.0394
die	-11.0395
▁comp	-11.0413
▁frame	-11.0413
▁harder	-11.0413
▁slave	-11.0414
▁extremely	-11.0417
place	-11.0421
▁straw	-11.0429
▁seated	-11.0431
⌉	-11.0431
▁basketball	-11.0433
▁stops	-11.0434
▁ringing	-11.0435
▁description	-11.0438
▁dave	-11.0438
▁cab	-11.0454
▁sailor	-11.0456
▁cruel	-11.0463
eh	-11.0464
▁gotten	-11.0465
tel	-11.0468
▁counter	-11.047
▁increased	-11.0472
▁bible	-11.0478
▁fail	-11.0482
▁tissue	-11.0483
▁2008	-11.0486
16	-11.0486
▁ambulance	-11.0487
▁failure	-11.0488
ud	-11.0492
▁mask	-11.0492
▁hol	-11.0502
▁guests	-11.0516
▁workers	-11.0517
▁sandy	-11.0519
▁details	-11.0523
▁fri	-11.0525
eva	-11.0529
yeah	-11.0535
▁pepper	-11.0538
▁height	-11.0541
▁photo	-11.0546
rus	-11.0547
▁kindly	-11.0551
▁kin	-11.0553
▁presents	-11.0555
▁watches	-11.0561
▁1991	-11.0563
▁recent	-11.0568
▁rat	-11.0571
▁wo	-11.0572
▁drugs	-11.0576
ists	-11.0578
▁1988	-11.0578
about	-11.0583
mann	-11.0597
▁breast	-11.0598
▁distributed	-11.06
bed	-11.0602
▁nations	-11.0602
▁31	-11.0603
▁adventures	-11.0614
▁cro	-11.0618
▁mystery	-11.0618
▁arts	-11.0621
▁distant	-11.0624
take	-11.0627
▁potatoes	-11.0631
▁warren	-11.0635
▁cents	-11.0648
▁suffered	-11.0649
▁asia	-11.065
ini	-11.0651
▁strawberry	-11.0653
▁sigh	-11.0656
▁2013	-11.0658
▁confidence	-11.0659
▁mabel	-11.0666
▁passengers	-11.0668
▁commercial	-11.0669
gue	-11.067
▁kate	-11.067
▁highly	-11.0673
▁hadta	-11.0676
▁theatre	-11.0677
din	-11.0678
ann	-11.0682
▁challenge	-11.0684
▁arranged	-11.0698
▁burned	-11.0704
▁exist	-11.0705
▁awww	-11.0705
▁thirteen	-11.0707
ō	-11.0708
▁williams	-11.071
▁60	-11.071
sey	-11.0718
▁rapid	-11.072
▁ee	-11.0721
ue	-11.0723
▁pirate	-11.0723
▁wales	-11.0727
▁lt	-11.0728
▁3,	-11.0728
▁knight	-11.0728
▁roar	-11.0735
▁tournament	-11.074
▁jason	-11.0743
after	-11.0745
▁blowing	-11.075
▁disney	-11.0752
▁oak	-11.0752
▁landing	-11.0755
▁col	-11.0757
▁vol	-11.0759
hand	-11.0763
▁pla	-11.0765
ben	-11.0766
▁2016	-11.0768
▁estate	-11.0772
▁grade	-11.0773
▁favour	-11.0775
▁suffer	-11.0775
▁buttons	-11.0778
▁equipment	-11.0791
▁marked	-11.0791
▁stack	-11.0792
▁exchange	-11.0796
▁rude	-11.0797
oon	-11.08
▁2007	-11.0801
▁cal	-11.0802
▁sweden	-11.0802
▁cra	-11.0806
fully	-11.0808
▁pitch	-11.0809
▁false	-11.0811
rie	-11.0816
▁deliver	-11.0819
▁buying	-11.0819
▁pure	-11.082
▁intention	-11.0823
run	-11.0825
▁pakistan	-11.0832
▁tracks	-11.0843
▁scout	-11.0844
pping	-11.0846
water	-11.0851
▁prepare	-11.0853
▁flip	-11.0855
▁fu	-11.0855
▁driven	-11.0863
▁chess	-11.087
▁grapes	-11.087
▁jobs	-11.0875
▁chop	-11.0885
▁polish	-11.0885
ata	-11.0887
▁cries	-11.0895
▁measure	-11.0905
▁gum	-11.091
▁cliff	-11.0914
▁cent	-11.0916
▁kissed	-11.0916
▁rifle	-11.0918
▁painted	-11.092
▁americans	-11.0922
fer	-11.0929
yo	-11.0931
▁stir	-11.0932
▁raining	-11.0932
▁scare	-11.0937
▁austria	-11.0937
▁slight	-11.095
▁institute	-11.0952
▁ph	-11.0953
23	-11.0954
gt	-11.0958
▁sara	-11.0965
▁canton	-11.0967
▁worn	-11.097
rr	-11.0971
ari	-11.0972
▁precious	-11.0973
▁chat	-11.0976
▁tap	-11.0977
▁roles	-11.0981
▁bug	-11.0982
▁rang	-11.0982
▁canoe	-11.0985
only	-11.099
dan	-11.0991
▁unable	-11.0992
zy	-11.0994
▁louise	-11.0995
air	-11.0999
ú	-11.0999
▁lately	-11.0999
▁chamber	-11.1004
▁spaghetti	-11.1004
▁unusual	-11.1009
▁balance	-11.1011
▁jungle	-11.1016
▁horror	-11.102
▁cereal	-11.102
▁ban	-11.1021
▁simon	-11.1024
▁breathing	-11.1025
▁poorly	-11.1026
ica	-11.1027
▁sofa	-11.1029
▁financial	-11.1041
▁collect	-11.1047
▁focus	-11.1049
▁fer	-11.1052
▁stronger	-11.1052
▁construction	-11.1052
▁restaurant	-11.1056
▁tan	-11.1056
▁clay	-11.1057
▁spirits	-11.1057
▁naturally	-11.1057
▁powers	-11.1059
ory	-11.1069
▁albert	-11.1071
▁hurts	-11.1075
▁ryan	-11.1076
▁regret	-11.1082
▁anger	-11.1085
father	-11.1087
▁lodge	-11.1094
▁speaks	-11.1097
▁tear	-11.1105
▁lou	-11.1107
▁despite	-11.111
▁sylvia	-11.111
▁keen	-11.111
▁shell	-11.1111
▁ugh	-11.1115
▁chose	-11.1117
ening	-11.1118
aun	-11.1119
▁permission	-11.1121
▁nah	-11.1121
ack	-11.1123
sk	-11.1127
▁cricket	-11.1128
▁somethin	-11.1129
▁thoughts	-11.1129
▁abe	-11.113
▁gina	-11.1132
▁soil	-11.1133
▁helicopter	-11.1136
▁pas	-11.1139
▁presented	-11.1141
▁sid	-11.1141
▁proof	-11.1142
▁acid	-11.1144
▁bubbles	-11.115
▁drum	-11.1151
▁sar	-11.1155
▁granddad	-11.1156
▁baker	-11.1156
2.	-11.1157
▁1993	-11.1158
▁letting	-11.1162
▁clip	-11.1164
ign	-11.1167
▁guitar	-11.1173
▁sorts	-11.1181
ens	-11.1189
14	-11.1192
▁vision	-11.1194
pp	-11.1196
▁humans	-11.1197
▁1989	-11.1201
calais	-11.1201
▁returning	-11.1203
shakes	-11.1203
▁pace	-11.1206
▁environment	-11.1207
▁gee	-11.1208
▁sprang	-11.1211
▁shark	-11.1212
▁tools	-11.1216
▁wit	-11.1222
▁stove	-11.1224
▁benefit	-11.1224
▁backwards	-11.1225
▁advanced	-11.1225
▁jeff	-11.1228
▁management	-11.1229
▁romantic	-11.123
▁throws	-11.1232
whispered	-11.1241
▁2019	-11.1242
ane	-11.1249
▁2006	-11.125
cher	-11.1254
▁ellen	-11.1256
▁cone	-11.1263
▁noisy	-11.127
▁semi	-11.1274
▁hurricane	-11.1276
til	-11.1279
▁ter	-11.1284
▁servant	-11.1286
has	-11.1291
▁ashamed	-11.1292
▁specific	-11.1297
▁salad	-11.1305
▁christopher	-11.1308
▁netherlands	-11.1308
ano	-11.1315
▁dee	-11.1315
ions	-11.1325
▁cells	-11.1326
▁von	-11.1327
pet	-11.1327
▁2009	-11.1329
▁missouri	-11.133
▁basic	-11.1331
▁container	-11.1334
▁label	-11.134
▁chin	-11.1344
▁republican	-11.1349
▁stiff	-11.1353
▁teachers	-11.1357
▁kit	-11.136
▁completed	-11.1361
▁plates	-11.1362
▁sleepy	-11.137
ip	-11.1381
ola	-11.1381
▁sounded	-11.1382
▁andy	-11.1383
▁slice	-11.139
▁ducks	-11.1392
▁dollar	-11.1396
▁[5	-11.1397
▁trans	-11.1398
▁cart	-11.1399
▁bal	-11.1406
▁handed	-11.1408
▁depends	-11.141
▁briefly	-11.1418
▁brings	-11.1428
▁succeeded	-11.143
▁settlement	-11.143
▁pad	-11.1432
▁factory	-11.1432
▁tray	-11.1436
sound	-11.1436
▁method	-11.1439
▁proposed	-11.1453
17	-11.1459
▁israel	-11.1462
▁package	-11.1469
four	-11.1473
key	-11.1474
▁mont	-11.1474
▁article	-11.1474
▁witness	-11.1481
▁mag	-11.1488
▁glory	-11.1489
▁vo	-11.1489
▁aha	-11.1493
▁pur	-11.1501
▁johnson	-11.1502
tie	-11.1507
▁spots	-11.1509
▁4,	-11.1509
mhm	-11.1512
▁shaking	-11.1514
▁jersey	-11.1516
▁builder	-11.1518
referring	-11.1521
az	-11.1525
▁boot	-11.1526
▁senate	-11.1528
▁cupboard	-11.1529
▁gal	-11.153
▁grandad	-11.1531
▁nat	-11.1534
▁whoo	-11.1537
ging	-11.1538
▁ability	-11.1542
▁diamond	-11.1542
▁issues	-11.1544
▁admitted	-11.155
from	-11.1558
fire	-11.156
▁bullet	-11.156
▁responsibility	-11.1566
▁pushes	-11.1568
▁apples	-11.1569
▁leans	-11.1569
any	-11.1573
*	-11.1577
▁concert	-11.1578
▁loving	-11.1583
▁korea	-11.1584
▁sim	-11.1586
sc	-11.1587
▁carolina	-11.1588
screams	-11.159
gai	-11.1593
ot	-11.1596
ped	-11.1597
▁pu	-11.1602
▁lois	-11.1604
american	-11.1605
▁spy	-11.1606
▁crow	-11.1619
row	-11.1624
sta	-11.1637
illa	-11.1639
▁angle	-11.1641
▁iv	-11.1641
mic	-11.1644
ava	-11.1647
▁companions	-11.165
▁defense	-11.165
fish	-11.1653
nu	-11.1653
▁highway	-11.1661
▁labor	-11.1669
su	-11.1673
▁morgan	-11.1678
▁function	-11.1682
▁occupied	-11.1685
ep	-11.1686
june	-11.1688
▁explanation	-11.1689
27	-11.1692
▁expedition	-11.1694
▁tender	-11.1698
▁triangle	-11.17
▁cotton	-11.1701
▁shops	-11.1702
▁200	-11.1702
▁lin	-11.1702
▁stolen	-11.1705
▁zero	-11.1707
▁seized	-11.1717
▁battery	-11.1719
▁agreement	-11.1725
`	-11.1727
▁dem	-11.1728
▁cape	-11.1732
▁1950	-11.1735
▁ages	-11.1739
bit	-11.1742
▁seats	-11.1748
▁image	-11.1752
▁francis	-11.1756
▁jeannine	-11.1757
▁checked	-11.1757
▁joint	-11.1762
▁temper	-11.1762
▁bushes	-11.1767
▁1984	-11.1768
▁vocalises	-11.1768
▁screaming	-11.177
▁bend	-11.1773
▁lily	-11.1774
▁portion	-11.1785
av	-11.1785
art	-11.1786
▁missus	-11.1788
▁tide	-11.1791
use	-11.1792
▁tribe	-11.1797
▁fc	-11.1798
▁bud	-11.1799
chan	-11.18
ded	-11.1802
▁valuable	-11.1802
45	-11.1804
▁2014	-11.1806
▁stadium	-11.1807
▁funeral	-11.1807
▁earn	-11.1814
▁chip	-11.1814
▁stopping	-11.1817
▁discuss	-11.1818
▁georgia	-11.182
▁surrounded	-11.1821
▁meow	-11.1832
▁remind	-11.1832
rk	-11.1833
▁discovery	-11.1833
▁--	-11.1833
worth	-11.1835
▁sons	-11.1836
▁furniture	-11.1836
40	-11.1838
▁headquarters	-11.1839
hmm	-11.1849
▁shortly	-11.1855
▁shade	-11.1855
ó	-11.1861
oy	-11.187
▁facing	-11.187
▁wherever	-11.1872
▁limited	-11.1874
master	-11.1875
▁investigation	-11.1876
▁capture	-11.1878
ving	-11.1881
▁aboard	-11.1886
▁reality	-11.1891
▁rap	-11.1893
▁edition	-11.1899
▁fame	-11.19
mor	-11.1904
▁cheeks	-11.1906
▁politics	-11.191
perhaps	-11.1911
tan	-11.1913
▁regard	-11.1918
ration	-11.1919
▁describe	-11.1919
▁oop	-11.192
▁inhabitants	-11.1922
26	-11.1925
▁beads	-11.1932
▁sheet	-11.1933
▁remove	-11.1937
▁2019,	-11.1939
▁unfortunately	-11.1943
▁begun	-11.1944
▁cowboy	-11.1952
▁midnight	-11.1957
▁neighborhood	-11.1962
▁meanwhile	-11.1964
▁speaker	-11.1964
▁healthy	-11.1967
▁habit	-11.1972
▁dam	-11.1975
▁breathe	-11.1978
▁loudly	-11.1981
▁ding	-11.1981
▁heavily	-11.1985
▁www	-11.199
ax	-11.199
▁belle	-11.1991
▁vacation	-11.1992
▁traditional	-11.1993
▁kings	-11.2002
▁sixth	-11.2002
▁illinois	-11.2003
▁senator	-11.2003
▁economy	-11.2009
▁executive	-11.2009
▁crab	-11.2014
▁perform	-11.2016
ä	-11.2019
▁girlfriend	-11.2019
▁carrots	-11.2032
▁momma	-11.2032
▁safely	-11.2037
▁ash	-11.2037
28	-11.2039
▁pete	-11.2041
▁nu	-11.2048
known	-11.2052
▁ugly	-11.2061
▁expecting	-11.2064
▁compared	-11.2068
▁elder	-11.2068
▁minor	-11.2069
▁jr	-11.207
▁nodded	-11.2073
babble	-11.2075
▁roy	-11.2077
▁wh	-11.2077
án	-11.208
tell	-11.208
▁complex	-11.2083
▁emma	-11.2085
▁ci	-11.2086
▁sc	-11.2087
▁easter	-11.2089
▁merely	-11.2093
▁bare	-11.2095
▁dar	-11.2096
ura	-11.2097
▁bearing	-11.2097
▁cheer	-11.2098
▁suggestion	-11.2099
▁moments	-11.2105
▁wishes	-11.2113
▁balls	-11.2115
▁alan	-11.2116
▁attend	-11.2121
lou	-11.2123
▁charm	-11.2131
▁defence	-11.2131
▁asian	-11.2133
▁nonsense	-11.2133
▁organ	-11.2135
▁sydney	-11.2137
▁patrick	-11.2138
win	-11.2139
▁mercy	-11.2139
▁goals	-11.214
crying	-11.214
▁cord	-11.2141
▁sings	-11.2141
▁refuse	-11.2145
▁sacrifice	-11.2146
▁severe	-11.2155
▁launch	-11.2162
▁hawk	-11.2162
ero	-11.2163
eg	-11.2164
ale	-11.2165
aunt	-11.2167
▁discover	-11.2167
▁grateful	-11.2167
▁atlantic	-11.2167
▁eagle	-11.2168
▁sexual	-11.217
▁fever	-11.2174
ching	-11.2174
▁pacific	-11.2175
▁dull	-11.2176
▁silk	-11.2179
▁shy	-11.2184
▁blew	-11.2185
▁tre	-11.2188
▁majority	-11.2188
▁charlotte	-11.219
▁cleaning	-11.2191
▁whoever	-11.2192
▁creatures	-11.2192
boat	-11.2194
dies	-11.2196
24	-11.2199
▁buck	-11.2199
▁ali	-11.22
▁anyhow	-11.22
▁arrival	-11.2202
▁5,	-11.2206
▁beam	-11.2207
▁nominated	-11.2208
▁stephen	-11.2208
▁gather	-11.221
▁prayer	-11.2211
▁screw	-11.2215
▁wilson	-11.222
▁billion	-11.2223
▁attached	-11.2224
most	-11.2225
▁bernard	-11.2226
▁chew	-11.2229
▁clothing	-11.2232
sel	-11.2239
cla	-11.2246
22	-11.2247
▁skirt	-11.225
▁palm	-11.225
▁vain	-11.2251
▁1986	-11.2262
reaches	-11.2263
▁commission	-11.2265
sie	-11.2267
▁percy	-11.2269
▁charming	-11.2273
▁tidy	-11.2275
▁internet	-11.2286
▁rattle	-11.2288
▁6,	-11.2288
▁borrow	-11.2293
lie	-11.2293
▁colored	-11.2297
▁rug	-11.2298
pen	-11.2299
▁sets	-11.2299
▁review	-11.2302
▁tick	-11.2302
oma	-11.2306
è	-11.2307
▁mexican	-11.2309
▁independence	-11.2327
▁liberal	-11.2328
▁umbrella	-11.2333
▁pee	-11.2335
}	-11.2335
▁doctors	-11.234
▁2004	-11.2342
▁fin	-11.2345
hal	-11.2346
----"	-11.2351
▁survive	-11.236
rn	-11.236
▁jake	-11.236
▁vehicle	-11.2362
▁geography	-11.2363
▁spoil	-11.2365
▁obliged	-11.2371
▁insurance	-11.2375
▁previously	-11.2379
▁nuclear	-11.2381
▁jolly	-11.2381
▁session	-11.2382
▁aircraft	-11.2382
▁seal	-11.2384
▁confirmed	-11.2387
▁dreadful	-11.2388
▁championships	-11.239
▁reaching	-11.2391
▁considerable	-11.2395
ski	-11.2399
uring	-11.2399
▁jewish	-11.24
ties	-11.2401
▁disappointed	-11.2401
ever	-11.2404
▁hip	-11.2407
istic	-11.2407
ple	-11.2411
▁terror	-11.2412
▁causes	-11.2413
put	-11.2417
act	-11.242
▁delay	-11.2421
stand	-11.2421
▁covid	-11.2424
▁pope	-11.2425
▁ward	-11.243
ations	-11.2431
pre	-11.2433
▁cur	-11.2434
▁7,	-11.2434
gle	-11.2435
▁squeeze	-11.2438
▁spill	-11.2439
▁hath	-11.2442
▁tag	-11.2445
▁shapes	-11.2445
▁efforts	-11.2458
▁rubber	-11.246
▁slaves	-11.2462
▁approaching	-11.2462
35	-11.2464
▁friendship	-11.2465
─	-11.2466
jack	-11.2469
und	-11.2469
▁parent	-11.2472
▁income	-11.2473
▁nowhere	-11.2479
▁headed	-11.249
▁reward	-11.2495
▁confused	-11.2499
▁[$	-11.2503
▁sorrow	-11.2504
▁babe	-11.2507
▁pretending	-11.2509
ram	-11.2514
▁clark	-11.252
▁mor	-11.2524
ick	-11.2525
▁foundation	-11.2527
▁ceased	-11.2528
▁vast	-11.2528
▁ser	-11.253
▁dey	-11.2531
▁web	-11.2536
▁trace	-11.2544
▁2015	-11.2545
▁sausage	-11.2548
▁budget	-11.2552
▁winnie	-11.2553
▁trucks	-11.2556
▁bees	-11.2557
▁chimney	-11.2558
▁criminal	-11.2561
▁berlin	-11.2561
▁inquired	-11.2561
▁importance	-11.2564
▁contains	-11.2573
▁math	-11.2574
▁shift	-11.2574
▁partly	-11.2575
ux	-11.2575
▁gri	-11.2576
▁winner	-11.2576
▁martine	-11.2577
▁kar	-11.2577
▁tub	-11.2578
▁utterances	-11.2579
▁client	-11.258
▁earl	-11.2584
▁fla	-11.2585
60	-11.2587
▁visited	-11.2592
▁snack	-11.2595
▁sauce	-11.2595
▁goose	-11.2596
▁ron	-11.2599
uc	-11.2601
▁shed	-11.2606
▁mysterious	-11.2607
▁stern	-11.2608
▁exp	-11.2609
▁biscuits	-11.261
aries	-11.262
▁feeding	-11.2635
▁wicked	-11.2635
▁contest	-11.2637
▁hundreds	-11.2638
▁generation	-11.2638
▁units	-11.2648
▁delightful	-11.2648
▁fuel	-11.2648
sar	-11.2648
▁approached	-11.2652
never	-11.2661
▁authorities	-11.2663
▁artists	-11.2664
▁understanding	-11.2665
▁sunny	-11.2665
▁tube	-11.2667
▁negative	-11.2669
▁instantly	-11.2672
shire	-11.2674
▁primary	-11.2675
give	-11.2675
▁2005	-11.2687
▁incident	-11.2687
▁conflict	-11.2687
▁quarters	-11.2692
▁piggy	-11.2694
▁supported	-11.2698
rate	-11.27
▁glanced	-11.2703
▁tra	-11.2703
▁flu	-11.2704
▁throne	-11.2712
▁impression	-11.2713
▁acted	-11.2714
rick	-11.2716
▁amongst	-11.2718
▁nicely	-11.2729
▁banks	-11.273
ug	-11.2731
toys	-11.2731
af	-11.2732
▁hunter	-11.2734
▁engineer	-11.2744
▁broadcast	-11.2745
▁bon	-11.2746
▁dining	-11.2746
ugh	-11.2746
▁bore	-11.2748
▁orchestra	-11.2749
also	-11.275
▁rooms	-11.2751
▁ease	-11.2755
▁chuck	-11.2758
▁crystal	-11.2763
▁linda	-11.2767
▁massachusetts	-11.2768
▁twin	-11.277
▁mobile	-11.2771
▁fre	-11.2772
▁tales	-11.2773
ima	-11.2779
▁rolls	-11.2781
pur	-11.2781
▁desperate	-11.2781
tion	-11.2785
▁cheers	-11.2786
▁earned	-11.2787
▁follows	-11.2787
▁classes	-11.2789
▁secure	-11.2792
▁arch	-11.2793
▁francisco	-11.2794
▁covers	-11.2795
▁granny	-11.28
▁scientific	-11.28
▁discussion	-11.2808
ture	-11.2812
▁boyfriend	-11.2814
▁dora	-11.2817
▁dun	-11.2821
▁commonly	-11.2825
▁dirt	-11.2825
▁pressed	-11.2825
▁scratch	-11.2825
▁hood	-11.2835
▁kansas	-11.2837
▁necklace	-11.2838
▁biscuit	-11.2841
point	-11.2843
▁kat	-11.285
▁bicycle	-11.285
▁injured	-11.2852
▁leap	-11.2853
▁barry	-11.2857
▁bounce	-11.2858
▁sticker	-11.2858
▁fetch	-11.2858
▁cattle	-11.2859
▁karen	-11.2866
▁gen	-11.2867
yan	-11.2868
▁jealous	-11.2869
▁theater	-11.2869
▁household	-11.2873
▁whisper	-11.2874
▁rank	-11.288
cut	-11.2881
▁zebra	-11.2882
▁solution	-11.2888
hr	-11.2889
grunts	-11.2893
far	-11.29
▁1985	-11.2901
▁engines	-11.2904
▁defeated	-11.2905
▁reaction	-11.2906
▁envelope	-11.2907
▁punishment	-11.2907
▁deeply	-11.2912
▁marine	-11.2914
▁mcdonalds	-11.2921
▁saving	-11.2927
print	-11.2927
▁davis	-11.293
because	-11.2933
▁servants	-11.2934
▁comment	-11.2953
▁lover	-11.2961
▁pitched	-11.2961
▁stretched	-11.2967
py	-11.2968
▁symbol	-11.297
▁es	-11.2971
hol	-11.2975
▁violence	-11.2977
▁scored	-11.2977
▁degrees	-11.2979
bert	-11.298
▁feast	-11.2984
75	-11.2985
▁carrot	-11.2985
▁trained	-11.299
▁bond	-11.2991
ure	-11.2994
gin	-11.2999
▁patch	-11.3
▁serving	-11.3
uff	-11.3
▁exact	-11.3004
▁inches	-11.3007
▁eva	-11.3007
▁rivers	-11.301
▁introduce	-11.3013
▁mini	-11.3018
90	-11.3022
▁coloring	-11.303
▁figured	-11.3031
▁defeat	-11.3032
▁grim	-11.3033
▁constant	-11.3034
▁bench	-11.3037
▁shan	-11.3038
▁pump	-11.3041
hood	-11.3047
▁cwww	-11.3049
▁separated	-11.3049
▁eliminated	-11.305
▁nearest	-11.3057
▁survey	-11.3067
▁referred	-11.3068
▁illustrations	-11.3068
▁scar	-11.3072
▁reports	-11.3073
▁arrive	-11.3078
▁reign	-11.3079
▁experiment	-11.3083
▁bold	-11.309
gon	-11.3091
▁lemme	-11.3093
▁variety	-11.3099
▁demand	-11.3103
▁cakes	-11.3106
▁heap	-11.3106
rum	-11.3107
▁resist	-11.3109
▁gre	-11.3114
▁officially	-11.3119
..."	-11.3126
dem	-11.3131
▁arrow	-11.3131
▁honestly	-11.3138
▁concern	-11.3139
▁peak	-11.314
yn	-11.3144
pri	-11.3144
cal	-11.3145
▁alongside	-11.3149
bury	-11.3153
▁limit	-11.316
▁remaining	-11.3164
▁counting	-11.3164
▁multiple	-11.3164
▁attitude	-11.3164
▁illness	-11.3173
ew	-11.3175
▁1983	-11.3178
▁noon	-11.3178
▁len	-11.3181
jan	-11.3183
▁items	-11.3189
▁seeds	-11.3196
▁savage	-11.3196
▁sailing	-11.32
gun	-11.3204
▁rustling	-11.3205
▁presidential	-11.3205
▁sock	-11.3209
▁committed	-11.321
▁—	-11.3211
mus	-11.3212
▁wool	-11.3215
▁roads	-11.3217
▁steamer	-11.3217
▁hen	-11.3218
ell	-11.3222
▁gates	-11.3229
▁debt	-11.3233
▁responded	-11.3234
▁attended	-11.3235
▁sore	-11.3236
▁dressing	-11.3239
▁olympic	-11.3243
▁ballet	-11.3252
bin	-11.3255
▁satisfaction	-11.3256
wing	-11.3263
▁foolish	-11.3264
▁closing	-11.3264
▁online	-11.3266
miss	-11.3268
▁10,	-11.3269
▁deputy	-11.3276
sky	-11.3276
▁pattern	-11.3278
mont	-11.3278
▁hid	-11.328
▁ceremony	-11.3282
▁invitation	-11.3282
-1	-11.3289
▁returns	-11.3289
▁32	-11.3291
▁represented	-11.3291
▁beth	-11.3296
▁harbor	-11.3296
▁northwest	-11.3297
▁nearby	-11.3299
tv	-11.3309
▁actions	-11.3311
▁awarded	-11.3312
▁murdered	-11.3315
▁gil	-11.3316
ability	-11.3317
od	-11.3322
▁thoroughly	-11.3324
cu	-11.3324
▁starring	-11.3324
▁costs	-11.3325
▁drawer	-11.3325
▁appointment	-11.3329
▁9,	-11.3331
▁thrust	-11.3335
▁inspector	-11.3336
▁strain	-11.3336
▁voyage	-11.3337
continues	-11.3338
▁ur	-11.334
ock	-11.334
▁respond	-11.3344
▁bomba	-11.3346
▁lewis	-11.3349
ddle	-11.3355
▁liquid	-11.3355
▁invite	-11.3355
▁shin	-11.3356
▁tickets	-11.3357
rac	-11.3358
▁fantastic	-11.3362
▁pennsylvania	-11.3362
▁fits	-11.3369
hey	-11.337
▁ruin	-11.3378
fu	-11.3383
▁des	-11.3384
ami	-11.3386
▁interrupted	-11.3387
▁thumb	-11.3388
▁rec	-11.3395
▁numerous	-11.3402
▁widow	-11.3402
▁1974	-11.3402
▁cathy	-11.3404
▁drill	-11.3405
▁/	-11.3406
▁austrian	-11.3407
▁sacred	-11.3409
▁fierce	-11.3409
▁zorg	-11.3416
vocalization	-11.3424
▁sales	-11.3425
▁kevin	-11.3429
▁allen	-11.3433
pl	-11.3435
dar	-11.3437
▁drag	-11.3437
▁julie	-11.3439
▁conduct	-11.344
▁surgery	-11.3442
▁8,	-11.345
going	-11.3451
ston	-11.3453
29	-11.3453
ification	-11.3458
▁11,	-11.3458
foot	-11.3459
▁strawberries	-11.3462
▁regiment	-11.3462
▁visitors	-11.3467
▁smiles	-11.3467
▁editor	-11.3469
▁repair	-11.3472
▁lab	-11.3475
▁belonged	-11.3478
▁document	-11.3486
▁profit	-11.3487
▁larry	-11.349
hole	-11.3492
round	-11.3499
▁literature	-11.3502
▁ridge	-11.3505
▁occasionally	-11.3505
▁growth	-11.3506
burg	-11.3507
mate	-11.3507
▁citizens	-11.3507
▁lincoln	-11.3509
▁bruce	-11.351
bell	-11.3511
▁thirsty	-11.3511
mouth	-11.3512
▁paused	-11.3513
▁lightning	-11.3514
▁glue	-11.3514
ien	-11.3514
mes	-11.3515
ther	-11.3516
▁argument	-11.3521
▁apologize	-11.3523
▁intelligence	-11.3523
lock	-11.3524
▁tramp	-11.353
▁yeh	-11.355
izing	-11.3551
ani	-11.3556
▁cough	-11.3561
▁buffalo	-11.357
▁et	-11.3574
▁guardian	-11.3574
▁pirates	-11.3574
ike	-11.3575
name	-11.3575
▁pumpkin	-11.3575
▁michigan	-11.3577
▁$1	-11.3577
▁gimme	-11.3584
▁squirrel	-11.3584
▁loan	-11.3586
▁nord	-11.3588
▁luc	-11.3589
▁touching	-11.359
▁cartoon	-11.3591
▁liberty	-11.3597
▁taxi	-11.3601
▁peculiar	-11.3604
▁product	-11.3604
▁scouts	-11.361
▁raid	-11.3611
ked	-11.3617
▁bass	-11.3618
▁crossing	-11.3619
▁ashore	-11.362
▁beef	-11.3621
▁stores	-11.3624
▁graham	-11.3625
▁zone	-11.3629
▁mental	-11.3631
▁scream	-11.3632
▁sample	-11.3632
▁dock	-11.3632
▁tomato	-11.3637
▁anxiety	-11.3638
▁digger	-11.3639
▁kelly	-11.3641
▁examples	-11.3643
▁pregnant	-11.3645
▁hannah	-11.3645
tree	-11.3654
tries	-11.3655
▁display	-11.3656
▁stupid	-11.3659
▁slope	-11.3659
away	-11.3663
▁victoria	-11.3664
rob	-11.3666
▁1968	-11.3673
▁vessels	-11.3674
nik	-11.3674
toy	-11.368
▁auto	-11.3683
▁critical	-11.3686
▁conservative	-11.3686
▁raymond	-11.3686
▁helmet	-11.3687
▁norman	-11.3688
pan	-11.369
▁hired	-11.3695
dic	-11.37
▁blows	-11.3701
▁belly	-11.3702
▁sack	-11.3703
▁korean	-11.3705
lf	-11.3706
▁conclusion	-11.3707
▁oxford	-11.3707
▁oink	-11.3709
▁feathers	-11.371
▁1987	-11.3716
▁products	-11.372
▁hans	-11.372
hard	-11.3723
▁capable	-11.3731
▁12,	-11.3731
▁tremendous	-11.3734
▁enjoying	-11.3735
▁unhappy	-11.3736
▁cops	-11.3742
▁extent	-11.3748
boo	-11.3752
▁leaders	-11.3752
▁natives	-11.3754
dog	-11.3754
▁faithful	-11.376
▁poll	-11.3761
▁anthony	-11.3762
▁breeze	-11.3762
▁composer	-11.3763
mie	-11.3765
ira	-11.3769
roll	-11.377
▁gro	-11.3771
mark	-11.3775
▁gradually	-11.3776
▁fanny	-11.3777
▁joey	-11.3779
ese	-11.3779
▁clare	-11.3782
▁drinks	-11.3783
▁guards	-11.3784
▁egyptian	-11.3785
▁develop	-11.3789
▁taylor	-11.379
▁innit	-11.3793
▁nuts	-11.3795
▁bas	-11.38
burn	-11.3801
ati	-11.3804
▁seventeen	-11.3808
▁13,	-11.3809
▁elephants	-11.3809
▁steep	-11.3811
▁sweep	-11.3813
▁stated	-11.3816
▁annual	-11.3818
▁cleared	-11.3818
▁gran	-11.3819
▁jay	-11.3819
11	-11.3823
▁unlike	-11.3824
▁brazilian	-11.3825
▁cheek	-11.3828
▁✿	-11.3831
stop	-11.3832
nny	-11.3833
▁feather	-11.3836
ella	-11.3838
▁sought	-11.3839
▁convinced	-11.3841
▁dallas	-11.3845
▁hollow	-11.3846
cur	-11.3849
▁bla	-11.3852
37	-11.3858
▁sailed	-11.3861
▁raw	-11.3862
bri	-11.3863
▁activities	-11.3866
▁era	-11.3867
▁carbon	-11.3869
▁packed	-11.3871
▁golf	-11.3875
▁tooth	-11.3875
▁seasons	-11.3886
▁studying	-11.3886
▁amanda	-11.3887
▁cabinet	-11.3889
▁basis	-11.3891
▁statue	-11.3894
▁cuddle	-11.3894
three	-11.39
▁incredible	-11.3901
▁mus	-11.3908
▁2021)	-11.3908
▁meters	-11.3908
▁affect	-11.3909
▁candle	-11.3913
▁churches	-11.3913
▁sticking	-11.3914
▁gods	-11.3916
▁pays	-11.3917
▁cre	-11.3921
▁films	-11.3922
▁alphabet	-11.3922
▁gorgeous	-11.3923
▁worship	-11.3923
▁helps	-11.3924
▁journalist	-11.3924
▁kay	-11.3925
▁2018,	-11.3926
baby	-11.3931
▁zi	-11.3932
▁impact	-11.3932
▁spending	-11.3935
teacher	-11.3936
▁swept	-11.3936
▁rainbow	-11.3937
▁railroad	-11.3943
▁leslie	-11.3943
dor	-11.3947
▁prospect	-11.3951
▁animated	-11.3951
ify	-11.3957
▁jordan	-11.3957
▁scottish	-11.3959
pot	-11.3959
nar	-11.3964
▁parrot	-11.3965
▁extreme	-11.3966
▁diana	-11.3967
▁lawrence	-11.3972
▁elements	-11.3973
▁15,	-11.3974
ven	-11.3974
▁flies	-11.3975
▁miller	-11.3976
ington	-11.3979
▁beard	-11.3981
▁anchor	-11.3982
▁monsieur	-11.3986
▁staring	-11.3987
▁touches	-11.399
▁ms	-11.3991
▁ol	-11.3992
▁delicate	-11.3993
▁loads	-11.3994
▁manchester	-11.4002
▁flow	-11.4004
▁jet	-11.4005
tive	-11.4008
▁robinson	-11.4008
▁additional	-11.4009
▁wealth	-11.4015
▁bolt	-11.402
▁lwww	-11.4022
▁suspicion	-11.4028
").	-11.4028
▁congratulations	-11.4029
please	-11.4032
▁device	-11.4039
▁blake	-11.4042
▁catching	-11.4044
▁doc	-11.4044
▁administration	-11.405
oli	-11.4058
ade	-11.4061
▁albums	-11.4067
▁loire	-11.4071
▁dropping	-11.4072
cus	-11.4073
▁wanting	-11.4073
▁skill	-11.4077
▁passion	-11.408
▁(18	-11.4082
▁cock	-11.4083
▁vegetables	-11.4085
▁squad	-11.4085
zu	-11.4086
bie	-11.4087
▁protest	-11.4089
▁kenneth	-11.4092
▁belief	-11.4097
▁extended	-11.4099
▁explosion	-11.4101
▁historical	-11.4102
▁beating	-11.4105
gal	-11.4105
▁rider	-11.4106
▁cherry	-11.4107
▁1972	-11.411
▁feature	-11.411
hold	-11.4113
▁harold	-11.4114
rid	-11.4115
▁1981	-11.4116
▁composed	-11.4116
▁cooked	-11.4118
▁reserve	-11.412
uch	-11.4123
▁[6	-11.4126
13	-11.4127
▁chum	-11.4128
▁tennis	-11.4131
▁mice	-11.4133
▁sur	-11.4136
▁reform	-11.4141
▁regional	-11.4143
hel	-11.4146
▁adopted	-11.4148
▁poland	-11.4154
▁bah	-11.4155
▁patients	-11.4156
yl	-11.4158
▁sticky	-11.4159
80	-11.4159
▁jess	-11.4163
▁dried	-11.4166
▁root	-11.4166
▁app	-11.4167
▁hoo	-11.4175
rin	-11.4175
▁representatives	-11.4176
▁fuss	-11.4177
▁lemon	-11.4181
▁awfully	-11.4183
▁element	-11.4184
ged	-11.4189
▁cheerful	-11.4189
▁appeal	-11.4193
▁peep	-11.4193
bla	-11.4194
▁diet	-11.4196
dia	-11.4199
ena	-11.4199
▁jury	-11.4202
▁dinosaurs	-11.4207
▁panda	-11.4208
▁baa	-11.4208
▁cannon	-11.4212
▁waving	-11.4215
▁cable	-11.4217
band	-11.4218
▁threatened	-11.4219
▁emily	-11.422
pol	-11.4221
▁eu	-11.4223
rog	-11.4229
▁flesh	-11.4229
▁kong	-11.4232
▁rev	-11.4234
woman	-11.4235
▁brook	-11.4237
▁dur	-11.424
ib	-11.4241
▁praise	-11.4243
▁refers	-11.4244
▁kitten	-11.4244
hm	-11.4247
ón	-11.4249
▁1930	-11.4253
▁avenue	-11.4258
▁graeme	-11.4258
▁rick	-11.4266
▁custom	-11.4266
whispering	-11.4266
▁howard	-11.4267
▁pear	-11.4271
▁behavior	-11.4273
▁disaster	-11.4273
▁frost	-11.4273
▁saddle	-11.4274
▁talent	-11.4277
▁terribly	-11.428
hoo	-11.4281
▁prior	-11.4281
▁collar	-11.4285
▁rag	-11.4287
▁claus	-11.4292
▁35	-11.4293
▁regarded	-11.4294
▁hun	-11.4295
▁monk	-11.43
▁launched	-11.4301
▁bundle	-11.4302
▁charged	-11.4309
▁21,	-11.4317
▁spa	-11.4318
▁insisted	-11.4318
▁gloves	-11.432
▁ruled	-11.4321
▁swell	-11.4321
47	-11.4324
▁ginger	-11.4325
▁sometime	-11.4327
▁kindness	-11.4328
▁hatch	-11.4329
▁crawl	-11.4329
made	-11.4332
▁legend	-11.4335
▁hits	-11.4336
70	-11.4336
ag	-11.4338
▁recovered	-11.4339
gate	-11.4346
yer	-11.435
▁sandwiches	-11.4353
home	-11.4353
▁1976	-11.4357
still	-11.4363
▁blast	-11.4363
▁hor	-11.4365
▁——	-11.4365
lor	-11.4371
tha	-11.4377
qu	-11.438
▁multi	-11.438
▁stations	-11.4382
got	-11.4387
bob	-11.4388
▁barely	-11.439
▁electricity	-11.4391
▁sufficient	-11.4393
▁succeed	-11.4394
▁bitter	-11.4396
▁revenge	-11.4397
▁potential	-11.4397
▁bells	-11.44
▁reception	-11.4405
ene	-11.4407
▁poured	-11.4407
rri	-11.4409
ight	-11.4411
▁2023	-11.4413
▁seth	-11.4415
ae	-11.4415
▁sp	-11.4419
▁jacob	-11.442
▁favourite	-11.442
▁char	-11.442
▁camel	-11.4422
▁childsname	-11.4427
table	-11.4429
▁gon	-11.4431
▁instructions	-11.4432
▁fled	-11.4432
▁superior	-11.4434
▁alien	-11.4435
▁oxygen	-11.4442
▁defend	-11.4444
▁proceeded	-11.4444
▁mel	-11.4446
▁moral	-11.4449
▁atmosphere	-11.4449
▁gap	-11.4451
▁fund	-11.4451
cou	-11.4451
▁“‘	-11.4451
fo	-11.4452
bal	-11.4454
▁20,	-11.4458
▁eats	-11.446
▁engineering	-11.4463
▁shine	-11.4464
▁associated	-11.4467
▁programs	-11.4471
▁cj	-11.4472
▁hippo	-11.4472
46	-11.4475
▁tokyo	-11.4479
▁agency	-11.4479
stra	-11.4485
▁ribbon	-11.4486
▁scissors	-11.449
whines	-11.4495
▁tru	-11.4496
▁swallow	-11.4498
▁shared	-11.45
▁chick	-11.4501
▁enormous	-11.4508
ato	-11.4509
ual	-11.4511
ians	-11.4513
ute	-11.4515
▁burden	-11.4517
▁childhood	-11.4518
▁personally	-11.4519
non	-11.4522
▁absence	-11.4523
38	-11.4524
▁persons	-11.4526
▁crane	-11.4536
▁fog	-11.4537
aki	-11.4539
▁clara	-11.455
▁neighbor	-11.4553
▁heading	-11.4555
▁franklin	-11.4556
had	-11.4557
▁whip	-11.4563
▁2017,	-11.4563
bus	-11.4564
▁penguin	-11.4568
▁aeroplane	-11.4568
▁visible	-11.4568
▁poetry	-11.457
kel	-11.4571
▁dealing	-11.4573
▁click	-11.4577
▁14,	-11.458
▁puff	-11.458
▁sank	-11.4582
▁assistance	-11.4584
▁1964	-11.4584
▁ski	-11.4584
▁acts	-11.4584
cing	-11.4588
refers	-11.4589
▁1967	-11.4591
▁stared	-11.4593
▁16,	-11.46
36	-11.4604
▁answers	-11.4605
▁louder	-11.4605
▁bride	-11.4606
▁assume	-11.4606
▁jonathan	-11.4606
▁domestic	-11.4606
▁victor	-11.4606
zz	-11.461
ris	-11.4613
▁stretch	-11.4613
ban	-11.4613
▁leather	-11.4613
▁generous	-11.4615
press	-11.4618
▁allah	-11.4623
▁lands	-11.4626
▁wrap	-11.4628
▁attorney	-11.4628
▁catherine	-11.4628
▁wrapped	-11.4629
bble	-11.463
▁1979	-11.4632
▁stress	-11.4633
▁ending	-11.4634
▁clo	-11.4635
▁zoe	-11.4636
▁communist	-11.4636
▁disappear	-11.4636
▁winds	-11.464
▁photograph	-11.4641
▁applied	-11.4644
too	-11.4644
▁sweat	-11.4645
ched	-11.4651
▁kisses	-11.4655
▁smoking	-11.4659
▁rocky	-11.4662
▁suicide	-11.4666
▁swiss	-11.4666
▁torn	-11.4668
▁[7	-11.467
▁tricks	-11.4671
▁grief	-11.4674
▁status	-11.4674
gre	-11.4681
▁victims	-11.4686
▁decent	-11.4686
▁obey	-11.4687
▁oscar	-11.469
tain	-11.4692
▁nesting	-11.4693
▁industrial	-11.47
mal	-11.4701
▁gathering	-11.4703
▁fridge	-11.4705
▁affected	-11.4708
▁miserable	-11.4712
▁nar	-11.4716
ral	-11.4717
▁mur	-11.4722
▁dominic	-11.4723
▁illustrated	-11.473
▁feared	-11.4733
ika	-11.4738
▁snakes	-11.4739
dr	-11.4742
▁scrap	-11.4743
▁carter	-11.4746
eating	-11.4747
▁samuel	-11.475
eri	-11.4751
▁offering	-11.4752
°	-11.4754
▁whilst	-11.4758
▁nail	-11.4758
▁centuries	-11.4765
▁hated	-11.4766
▁significant	-11.4767
▁printed	-11.4768
▁warn	-11.4774
▁fold	-11.4776
▁electronic	-11.4777
▁reference	-11.4779
▁rage	-11.4783
▁crept	-11.4788
▁douglas	-11.4788
▁nevertheless	-11.4796
.8	-11.4796
▁ji	-11.4799
del	-11.4803
▁boring	-11.4804
▁sen	-11.4808
▁marker	-11.4809
▁expressed	-11.4809
▁fake	-11.481
▁carol	-11.4811
▁var	-11.4811
▁25,	-11.4812
▁peek	-11.4818
▁alligator	-11.4819
▁70	-11.4819
rat	-11.4821
▁swa	-11.4821
▁violent	-11.4828
▁articles	-11.4831
▁useless	-11.4832
▁candidate	-11.4832
▁willn	-11.4833
▁hy	-11.4834
▁intend	-11.4838
▁ranch	-11.4839
▁lang	-11.484
▁gaze	-11.484
▁organized	-11.4842
▁gear	-11.4843
▁replace	-11.4846
▁knights	-11.4847
▁luke	-11.4849
▁autumn	-11.485
▁firing	-11.4856
▁nee	-11.4857
▁supreme	-11.4857
▁batteries	-11.4858
99	-11.4866
▁constitution	-11.4867
▁brass	-11.4869
moving	-11.487
▁tire	-11.4871
▁ralph	-11.4873
ox	-11.4875
2]	-11.4876
ob	-11.4876
moves	-11.4877
▁bc	-11.4878
▁deserve	-11.488
▁mistaken	-11.488
▁kangaroo	-11.4881
aka	-11.4885
▁biography	-11.4888
▁timber	-11.4889
▁bun	-11.489
▁canal	-11.4892
▁tele	-11.4893
try	-11.4894
geo	-11.4897
▁detail	-11.4903
▁awesome	-11.4904
▁peel	-11.4904
▁genus	-11.4905
▁frequently	-11.4907
▁1940	-11.4908
wait	-11.4909
▁22,	-11.4909
▁existence	-11.4912
▁underground	-11.4913
rit	-11.4918
▁olive	-11.4919
▁proposal	-11.4919
▁80	-11.492
▁resources	-11.4926
▁calendar	-11.4927
▁proceed	-11.4929
▁dug	-11.4933
▁lace	-11.4934
▁sympathy	-11.4935
▁bronze	-11.4937
▁yourselves	-11.4938
▁bubble	-11.4939
▁constantly	-11.4942
▁possibility	-11.4943
▁duties	-11.4943
cept	-11.4944
▁crowded	-11.4946
▁rabbits	-11.495
both	-11.4952
▁shelf	-11.4958
▁thief	-11.4958
▁grain	-11.4959
▁flood	-11.496
58	-11.496
fall	-11.4961
09	-11.4961
▁90	-11.4962
▁clerk	-11.4966
▁nik	-11.4966
▁machines	-11.4969
even	-11.4973
▁concept	-11.4973
▁peg	-11.4976
▁obvious	-11.4976
▁swift	-11.4976
▁spark	-11.4976
ising	-11.498
▁dynasty	-11.4982
▁dragged	-11.4982
▁kite	-11.4984
▁waters	-11.4985
places	-11.4985
▁mast	-11.4986
▁illegal	-11.499
▁nasty	-11.499
▁stamp	-11.4992
▁trailer	-11.4992
▁khan	-11.4995
▁gr	-11.4995
▁soccer	-11.4997
▁mun	-11.4998
▁spray	-11.4998
▁phrase	-11.4999
▁claimed	-11.5001
▁kicked	-11.5004
▁stall	-11.5005
▁sneak	-11.5008
▁champions	-11.5009
jw	-11.5009
▁ohio	-11.501
▁broom	-11.5011
▁neighbors	-11.5014
▁delivered	-11.5014
▁remarkable	-11.5014
▁lawn	-11.5017
06	-11.5018
form	-11.5022
▁lip	-11.5025
lam	-11.5027
gor	-11.5028
▁corporation	-11.5029
▁skip	-11.5034
▁leo	-11.5036
▁guinea	-11.5037
ida	-11.5038
▁copper	-11.5038
65	-11.5045
▁merchant	-11.5047
▁curtain	-11.5047
▁exception	-11.5048
cli	-11.5052
▁outer	-11.5052
▁priscilla	-11.5052
ose	-11.5054
▁accused	-11.5057
thing	-11.5058
▁rip	-11.5059
▁28,	-11.5063
▁levels	-11.5064
▁daughters	-11.5066
▁pistol	-11.5068
▁laying	-11.5069
95	-11.5075
▁cheeky	-11.5075
▁chill	-11.5079
free	-11.5083
▁literally	-11.5084
▁philadelphia	-11.5084
▁assault	-11.5084
▁venture	-11.5084
▁lecture	-11.5085
▁represent	-11.5087
▁lasted	-11.5089
▁500	-11.509
▁1966	-11.5092
39	-11.5094
▁contents	-11.5094
▁print	-11.5096
▁depend	-11.5098
▁nephew	-11.51
▁copies	-11.5101
42	-11.5101
▁relations	-11.5104
▁sailors	-11.5106
▁tradition	-11.5109
▁beds	-11.5112
▁warned	-11.5115
coming	-11.5116
▁23,	-11.5119
▁hee	-11.5119
▁shots	-11.512
▁utterance	-11.512
wan	-11.512
▁jen	-11.5124
▁sm	-11.5128
▁edna	-11.513
▁skipper	-11.5132
▁heels	-11.5133
▁24,	-11.5138
▁ew	-11.5138
▁gla	-11.5139
▁swung	-11.5139
▁wil	-11.5142
▁script	-11.5142
▁aliens	-11.5143
▁alternative	-11.5147
▁shield	-11.5147
▁quarrel	-11.5147
▁moses	-11.5148
▁creation	-11.5149
var	-11.5155
▁attacks	-11.5159
▁geo	-11.516
high	-11.5161
▁chu	-11.5161
▁global	-11.5163
▁gross	-11.5167
▁retreat	-11.5169
▁solo	-11.5171
▁rival	-11.5172
▁flame	-11.5174
▁lean	-11.5178
▁districts	-11.518
▁1982	-11.5183
ros	-11.5185
▁attempts	-11.5185
tail	-11.5185
era	-11.5186
untranscribed	-11.5187
32	-11.5187
mmer	-11.5188
▁br	-11.5193
▁tam	-11.5195
▁cure	-11.5198
▁covering	-11.5207
pit	-11.5208
think	-11.521
▁tribes	-11.5213
▁45	-11.5215
▁patrol	-11.5218
▁regions	-11.5218
▁miracle	-11.5219
▁deny	-11.5224
▁musician	-11.5225
▁recall	-11.5227
▁obtained	-11.5228
ain	-11.523
maybe	-11.523
▁dim	-11.5233
▁directions	-11.5234
48	-11.5236
▁appropriate	-11.5238
▁archer	-11.5238
ila	-11.5239
▁register	-11.524
▁gary	-11.5242
▁mississippi	-11.5243
▁packet	-11.5246
▁begged	-11.5247
would	-11.525
▁transfer	-11.5259
▁dna	-11.526
▁jessie	-11.526
vy	-11.5263
▁panic	-11.5263
▁comin	-11.5266
▁costume	-11.5267
▁drank	-11.5268
▁plum	-11.5269
▁burton	-11.5269
▁admiral	-11.5275
cry	-11.5279
▁leak	-11.528
▁debate	-11.5284
▁2010,	-11.5285
▁moore	-11.5285
▁connect	-11.5287
▁pri	-11.529
▁sheriff	-11.5299
▁arnold	-11.5299
ister	-11.53
ude	-11.5303
▁searching	-11.5305
▁disc	-11.5305
kan	-11.5308
▁tro	-11.5309
▁30,	-11.5312
▁arkansas	-11.5315
▁chasing	-11.5316
pie	-11.5316
▁27,	-11.5323
▁whit	-11.5328
▁license	-11.5332
▁flour	-11.5332
▁(20	-11.5337
▁observation	-11.534
▁goddess	-11.534
ea	-11.534
▁persian	-11.5342
▁pierre	-11.5342
▁kent	-11.5343
98	-11.5344
▁disorder	-11.5348
▁26,	-11.5351
▁depression	-11.5356
▁collected	-11.5356
▁villa	-11.5359
▁lend	-11.5361
page	-11.5362
▁rad	-11.5363
▁resolved	-11.5363
▁unique	-11.5366
▁personality	-11.5367
▁blessed	-11.5368
▁ridiculous	-11.5372
▁fee	-11.5373
▁sy	-11.5374
og	-11.5374
▁bacon	-11.5383
▁19,	-11.5384
▁seventh	-11.5387
▁millions	-11.5388
▁resistance	-11.5389
uri	-11.5389
bag	-11.539
hearted	-11.5394
▁daylight	-11.5395
▁1945	-11.5397
▁accompanied	-11.5405
nch	-11.5407
▁evident	-11.5407
rated	-11.5409
▁poison	-11.5415
▁suspicious	-11.5421
chu	-11.5428
49	-11.5428
▁gazed	-11.543
▁representative	-11.5432
▁oy	-11.5434
▁swamp	-11.5435
▁administrative	-11.5437
▁classic	-11.5438
▁behave	-11.544
▁porch	-11.5443
▁chef	-11.5444
▁moscow	-11.5446
▁link	-11.5448
56	-11.5449
lit	-11.545
▁wendy	-11.5454
▁passes	-11.5456
▁overall	-11.5456
▁maintain	-11.546
▁threat	-11.5462
▁kissing	-11.5462
▁cuts	-11.5462
▁software	-11.5462
yard	-11.5472
▁holidays	-11.5472
▁cam	-11.5476
▁troubled	-11.5478
rest	-11.5481
▁concluded	-11.5483
▁vii	-11.5483
▁karl	-11.5485
▁hint	-11.5486
▁memories	-11.5487
▁germans	-11.5487
▁ideal	-11.5489
▁bottles	-11.5499
▁worm	-11.5503
▁revealed	-11.5505
▁dough	-11.5505
▁comrades	-11.5507
▁sung	-11.5509
lum	-11.5512
▁parcel	-11.5518
▁fiction	-11.5519
▁urban	-11.552
▁dennis	-11.552
▁divorce	-11.5521
rah	-11.5522
squeals	-11.5522
▁mounted	-11.5523
▁hindu	-11.5524
▁midst	-11.5525
▁patience	-11.5528
▁villages	-11.5528
▁confess	-11.5532
▁messenger	-11.5536
▁potty	-11.5539
▁remark	-11.554
gives	-11.554
▁occur	-11.5541
▁viii	-11.5543
▁combat	-11.5545
wind	-11.5545
▁virgin	-11.5548
▁objection	-11.555
▁mia	-11.555
cast	-11.5552
▁beaten	-11.5553
▁massive	-11.5561
god	-11.5567
▁cultural	-11.5571
fore	-11.5572
▁stuffed	-11.558
tom	-11.5581
▁gettin	-11.5582
unnecessary	-11.5583
▁stool	-11.5586
▁compete	-11.5587
▁swedish	-11.5594
▁acquaintance	-11.5594
sia	-11.5595
▁mode	-11.5595
▁marky	-11.5595
▁roots	-11.5597
hello	-11.5599
▁anxiously	-11.5602
▁sean	-11.5602
▁extraordinary	-11.5602
▁submarine	-11.5602
▁robot	-11.5603
▁southeast	-11.5603
▁arose	-11.5606
▁worthy	-11.5607
ates	-11.5609
▁com	-11.561
ache	-11.561
▁happily	-11.5611
▁alabama	-11.5619
▁belonging	-11.5623
▁charges	-11.5627
▁1975	-11.5632
class	-11.5632
▁1978	-11.5634
stein	-11.5634
▁jer	-11.5634
▁17,	-11.5637
▁18,	-11.5641
▁sav	-11.5647
▁columbia	-11.5649
lies	-11.5655
▁chances	-11.5656
▁conf	-11.5657
▁jin	-11.5667
▁fro	-11.5683
02	-11.5683
▁outfit	-11.5684
▁referring	-11.5686
gro	-11.5693
▁austin	-11.5694
▁mischief	-11.5694
▁painful	-11.5696
▁thread	-11.5697
hon	-11.5702
▁hail	-11.5702
▁confusion	-11.5703
▁suitcase	-11.5703
▁entering	-11.5715
▁strongly	-11.5717
▁peach	-11.5718
▁hong	-11.5719
▁draws	-11.5724
▁ly	-11.5724
▁bars	-11.5725
chr	-11.5726
▁cy	-11.5726
▁operations	-11.5727
▁despair	-11.5728
▁error	-11.573
▁helpless	-11.5734
▁bio	-11.5742
▁circuit	-11.5745
▁housing	-11.5745
▁gulf	-11.5745
▁ren	-11.5749
▁1977	-11.575
▁todd	-11.5753
▁hastily	-11.5753
▁sharply	-11.5753
nothing	-11.5754
▁faced	-11.5754
▁foe	-11.5754
▁founder	-11.5757
▁newspapers	-11.5758
▁cooper	-11.5758
▁youngest	-11.5762
duc	-11.5762
▁joking	-11.5763
▁blessing	-11.5767
▁barrel	-11.5767
▁mah	-11.5768
▁complicated	-11.577
▁sab	-11.577
ito	-11.5771
▁wal	-11.5771
heim	-11.5772
▁intense	-11.5773
▁jackie	-11.5774
▁reputation	-11.5779
▁gb	-11.578
▁meadow	-11.5782
▁twins	-11.5782
▁solar	-11.5783
▁donkey	-11.5789
▁bib	-11.5792
▁curiosity	-11.5795
▁1956	-11.5796
55	-11.5799
▁visitor	-11.58
school	-11.5802
▁holland	-11.5802
▁2016,	-11.5803
▁interfere	-11.5804
cell	-11.5808
▁core	-11.5808
▁operate	-11.5813
▁digging	-11.5813
▁cared	-11.5813
▁norway	-11.5816
66	-11.5816
1.	-11.5816
▁invented	-11.5816
▁instrument	-11.5817
▁effective	-11.5824
▁exam	-11.5827
97	-11.5828
05	-11.5829
ā	-11.5829
ub	-11.5834
▁naval	-11.5834
▁1969	-11.5835
▁footballer	-11.5836
▁blade	-11.5838
▁[8	-11.5844
first	-11.5844
▁preparing	-11.5847
▁reasonable	-11.5855
rm	-11.5855
▁frances	-11.5858
▁swinging	-11.586
31	-11.586
▁coke	-11.5865
▁closet	-11.5866
▁contain	-11.5866
▁prey	-11.5866
▁impressed	-11.5868
▁asks	-11.5868
▁hooray	-11.5872
▁lego	-11.5877
gged	-11.5878
▁solve	-11.5878
200	-11.5879
▁expert	-11.5885
▁baron	-11.5886
stick	-11.5888
▁experienced	-11.5889
▁genius	-11.5889
▁improve	-11.589
▁destruction	-11.5898
▁procedure	-11.5898
▁wreck	-11.5904
▁greece	-11.5906
▁frozen	-11.5907
▁katie	-11.5909
▁breed	-11.5911
▁triumph	-11.5914
▁arrange	-11.5916
▁aloud	-11.5921
▁trump	-11.5921
ili	-11.5923
▁closes	-11.5924
utter	-11.5926
▁bully	-11.5927
cker	-11.5929
▁weary	-11.593
▁sting	-11.5937
▁bumper	-11.5937
▁1965	-11.5941
west	-11.5941
▁29,	-11.5942
▁chickens	-11.5942
speaking	-11.5942
▁evelyn	-11.595
▁resting	-11.5951
▁rep	-11.5952
4]	-11.5953
pos	-11.5958
▁operating	-11.5959
▁2011,	-11.596
▁counsel	-11.5965
▁causing	-11.5967
▁crisis	-11.5968
▁patty	-11.597
▁liz	-11.5971
▁zip	-11.5971
▁jews	-11.5972
▁bri	-11.5973
shirt	-11.5974
ces	-11.5975
▁abroad	-11.5975
▁benjamin	-11.5976
▁inclined	-11.5978
little	-11.5982
▁accent	-11.5984
▁inner	-11.5985
▁shakes	-11.5985
▁materials	-11.5988
▁wolves	-11.5994
▁considering	-11.5996
nder	-11.6001
▁protected	-11.6002
▁reg	-11.6003
▁swan	-11.6006
▁insist	-11.6008
▁pension	-11.6011
▁reveal	-11.6016
song	-11.6017
▁stealing	-11.6017
zen	-11.6021
▁burnt	-11.6021
▁movements	-11.6024
pas	-11.6026
▁hah	-11.6027
▁floating	-11.6028
▁bureau	-11.6028
▁sho	-11.6034
black	-11.6035
▁draft	-11.6037
▁stanley	-11.6038
▁raising	-11.6039
▁digital	-11.6042
▁hitting	-11.6043
▁dessert	-11.6044
▁terrific	-11.6044
▁melissa	-11.6044
▁forehead	-11.6044
▁nights	-11.6046
▁gifts	-11.6053
▁accustomed	-11.6053
▁beloved	-11.6053
▁topic	-11.6053
▁dashed	-11.6055
▁scattered	-11.6057
ses	-11.6059
▁willie	-11.6061
▁metropolitan	-11.6062
▁tool	-11.6062
▁startled	-11.6063
ré	-11.6064
bon	-11.6069
▁awkward	-11.6071
▁iowa	-11.6075
▁hamburger	-11.6076
holding	-11.6081
bad	-11.6084
▁ruined	-11.6093
▁contained	-11.6099
▁lump	-11.61
▁colony	-11.61
nia	-11.61
▁pearl	-11.6107
open	-11.6114
▁minnesota	-11.6114
▁automobile	-11.6114
▁painter	-11.6115
▁payment	-11.6116
▁latest	-11.612
▁harris	-11.6122
44	-11.6122
▁ceiling	-11.6123
▁schedule	-11.6125
▁checking	-11.6128
▁1973	-11.6128
▁rushing	-11.6129
1]	-11.6129
▁meantime	-11.6132
hv	-11.6133
▁firmly	-11.6139
▁birdie	-11.6144
▁pra	-11.6144
▁leads	-11.6145
ular	-11.6146
▁rit	-11.6148
▁singles	-11.6149
▁flock	-11.6151
77	-11.6152
▁vietnam	-11.6158
▁1961	-11.6158
▁?[	-11.6159
rry	-11.6159
▁alcohol	-11.6161
wee	-11.6161
▁blank	-11.6163
tape	-11.6168
▁hugh	-11.6169
elle	-11.6173
▁gabriel	-11.6175
▁din	-11.6181
▁maiden	-11.6183
▁1971	-11.6191
▁stout	-11.6191
ash	-11.6195
▁boris	-11.6195
▁gerald	-11.6195
▁wrist	-11.6203
oe	-11.6203
▁divide	-11.6206
57	-11.6212
▁elections	-11.6212
▁plug	-11.6213
▁alaska	-11.6213
▁argue	-11.6214
▁blo	-11.6215
▁knocking	-11.6217
▁bucks	-11.6218
41	-11.6219
▁sew	-11.6221
▁hank	-11.6221
▁cho	-11.6222
ett	-11.6222
▁consideration	-11.6224
▁banging	-11.6227
▁substance	-11.6229
tsu	-11.6229
▁candles	-11.6229
▁examine	-11.6229
▁nails	-11.6231
▁def	-11.6232
mas	-11.6232
▁widely	-11.6233
▁noted	-11.6237
▁prayers	-11.6238
ali	-11.6239
▁needle	-11.6243
▁haste	-11.6245
▁item	-11.6246
▁sophie	-11.6246
▁claire	-11.6246
gasp	-11.6249
▁graduated	-11.625
▁barking	-11.6251
▁loyal	-11.6255
▁muttered	-11.6255
▁2022)	-11.6258
▁unfortunate	-11.6258
iff	-11.6262
jer	-11.6263
▁earthquake	-11.6264
▁affection	-11.6266
▁informed	-11.6268
▁slippers	-11.627
▁fl	-11.627
ulation	-11.6271
▁dared	-11.6271
▁vas	-11.6273
▁mason	-11.6275
▁formal	-11.6279
▁questioned	-11.6279
power	-11.628
▁visiting	-11.6281
▁1963	-11.6282
okay	-11.6284
▁napkin	-11.6284
▁leaning	-11.6286
▁ker	-11.6287
zer	-11.6288
▁bugs	-11.6289
æ	-11.6289
maker	-11.6291
▁imagination	-11.6291
▁comrade	-11.6295
▁kan	-11.63
▁imperial	-11.63
▁alert	-11.63
▁communication	-11.6306
iya	-11.6312
▁rot	-11.6314
cap	-11.6315
▁vienna	-11.6326
▁nappie	-11.6327
▁berry	-11.6328
▁thankful	-11.6329
▁manners	-11.6334
bound	-11.6334
▁examination	-11.6335
▁elbow	-11.6336
▁1947	-11.6336
▁waved	-11.6336
▁judy	-11.6337
▁travelling	-11.6338
▁dah	-11.6339
▁est	-11.6342
▁1959	-11.6345
▁granted	-11.6346
▁loaded	-11.6348
▁raven	-11.6348
▁chalk	-11.6351
cup	-11.6355
▁cycle	-11.6358
▁symptoms	-11.6361
▁attractive	-11.6362
▁shepherd	-11.6362
fl	-11.6366
wo	-11.6367
ui	-11.6369
▁employed	-11.6369
chen	-11.6371
ille	-11.6372
▁vest	-11.6374
▁hurting	-11.6376
▁spit	-11.6377
under	-11.6378
▁judgment	-11.638
▁sno	-11.6381
▁bbc	-11.6384
hands	-11.6384
▁coin	-11.6384
▁dip	-11.6389
▁southwest	-11.6391
"),	-11.6394
iest	-11.6398
▁snail	-11.6399
▁conductor	-11.64
▁celebrate	-11.6401
▁tastes	-11.6402
▁relatives	-11.6407
▁universal	-11.6408
▁sighed	-11.6408
▁weigh	-11.6409
33	-11.6411
call	-11.6415
los	-11.6416
▁martha	-11.6417
▁assured	-11.6425
▁alfred	-11.6426
▁cle	-11.6428
▁bern	-11.6429
▁mer	-11.6432
▁injury	-11.6434
▁sultan	-11.6435
dear	-11.6436
▁sweets	-11.6437
▁addressed	-11.644
vir	-11.6442
▁1962	-11.6444
▁circles	-11.6447
cia	-11.6452
▁clue	-11.6452
▁handkerchief	-11.6452
▁kettle	-11.6452
▁antonio	-11.6453
▁knot	-11.6458
▁fra	-11.6459
01	-11.6459
▁forests	-11.646
▁parade	-11.6461
horn	-11.6462
▁worldwide	-11.6462
hhh	-11.6468
pha	-11.6469
▁rebecca	-11.6471
pers	-11.6471
▁1948	-11.6471
▁2018)	-11.6472
▁danced	-11.6473
▁squeak	-11.6476
▁instruments	-11.6476
▁shells	-11.6478
lus	-11.6478
nk	-11.6479
▁cinema	-11.648
▁flung	-11.648
▁investment	-11.648
bear	-11.6481
▁northeast	-11.6481
help	-11.6483
▁300	-11.6487
▁environmental	-11.6487
----------------	-11.6489
▁listed	-11.6493
▁jill	-11.65
▁micro	-11.6501
▁headache	-11.6502
▁iran	-11.6502
▁practical	-11.6502
love	-11.6505
▁glorious	-11.6507
▁malcolm	-11.6507
▁opposition	-11.6507
▁roses	-11.651
89	-11.6513
bol	-11.6515
▁lighted	-11.6515
▁episodes	-11.6517
▁investigator	-11.6531
78	-11.6531
▁equally	-11.6542
▁qui	-11.6543
▁spaniards	-11.6544
▁bury	-11.6548
▁vroom	-11.6548
▁infection	-11.6553
▁subjects	-11.6558
▁dash	-11.656
▁pajamas	-11.6562
▁possessed	-11.6563
lip	-11.6563
▁2019.	-11.6566
▁actors	-11.6568
▁disappointment	-11.6571
▁assist	-11.6573
▁longest	-11.6574
▁blackie	-11.6575
big	-11.6577
▁cleaned	-11.6577
▁mild	-11.6582
▁orbit	-11.6584
▁qua	-11.6585
▁dean	-11.6593
▁phase	-11.6593
▁reviews	-11.6593
▁blossom	-11.66
▁nanny	-11.66
cious	-11.6604
▁lookee	-11.6605
▁stuart	-11.6608
▁reporter	-11.6608
▁puzzled	-11.6611
▁twinkle	-11.6617
pop	-11.6617
▁cheering	-11.6619
ets	-11.6621
▁soda	-11.6621
nis	-11.6621
▁bot	-11.6621
ei	-11.6622
▁yer	-11.6624
▁activist	-11.6626
▁michelle	-11.6626
rich	-11.6629
▁poem	-11.6629
▁bavaria	-11.6631
▁strangers	-11.6635
▁supplies	-11.6635
▁interrupts	-11.6636
▁holly	-11.6637
▁testing	-11.6638
▁och	-11.6638
gger	-11.6638
▁flo	-11.6641
▁diver	-11.6643
▁ela	-11.6644
▁scenes	-11.6646
wick	-11.6651
elli	-11.6653
▁identity	-11.6654
▁pudding	-11.6654
stead	-11.6654
08	-11.6657
▁exhausted	-11.6658
▁loop	-11.6658
hill	-11.6662
▁permit	-11.6662
▁combination	-11.6663
▁1958	-11.6663
43	-11.6666
▁fastened	-11.6671
▁skull	-11.6672
bur	-11.6672
▁1952	-11.6682
▁1957	-11.6682
self	-11.6687
tim	-11.6689
▁mit	-11.6691
86	-11.6698
▁sul	-11.6699
▁nelson	-11.67
ologist	-11.6702
▁+	-11.6703
34	-11.6704
▁blown	-11.6708
ua	-11.6708
▁walker	-11.6708
▁naked	-11.671
▁ox	-11.6712
▁debbie	-11.6719
▁smack	-11.6719
▁bananas	-11.6722
▁counted	-11.6724
▁magnificent	-11.6728
▁elevator	-11.6729
nate	-11.673
▁devoted	-11.6733
lay	-11.6733
9]	-11.6736
▁accompany	-11.6737
▁escort	-11.6737
▁glow	-11.6738
▁charity	-11.6738
▁evolution	-11.6739
cra	-11.6742
amy	-11.6746
ona	-11.6746
east	-11.6747
▁cot	-11.6748
▁mall	-11.675
▁75	-11.6751
▁valentine	-11.6752
▁customers	-11.6752
▁drowned	-11.6753
▁claims	-11.6754
▁urged	-11.6754
▁crashed	-11.6755
▁ambassador	-11.6756
malley	-11.6758
▁assure	-11.6759
▁lions	-11.6759
▁gesture	-11.6766
ically	-11.6771
▁require	-11.6774
▁poop	-11.6775
▁stake	-11.6776
54	-11.678
▁classical	-11.6783
▁monitor	-11.6784
;"	-11.6786
hen	-11.6789
▁bored	-11.6791
▁necessarily	-11.6793
▁sector	-11.6797
▁treaty	-11.6799
ín	-11.6805
▁marsh	-11.6808
▁marched	-11.681
▁comic	-11.6812
▁identify	-11.6812
▁runner	-11.6814
▁nerve	-11.6816
▁mono	-11.6822
idae	-11.6825
▁mortal	-11.6825
▁ivan	-11.6825
▁shriek	-11.6826
▁notable	-11.6827
▁internal	-11.6832
▁grows	-11.6833
▁surrounding	-11.6833
▁inform	-11.6838
bee	-11.6838
▁upward	-11.6838
▁hats	-11.6842
▁smells	-11.6844
▁les	-11.6845
▁joan	-11.6846
▁robe	-11.6847
▁virus	-11.6849
▁sites	-11.6851
▁bel	-11.6852
pon	-11.6853
▁doorway	-11.6854
▁adams	-11.6855
▁greg	-11.6856
uv	-11.686
▁adding	-11.686
life	-11.686
▁romance	-11.6861
▁zo	-11.6861
▁remote	-11.6863
▁pouring	-11.6864
▁mari	-11.6869
▁reminds	-11.687
▁yell	-11.6875
ggle	-11.6875
▁sil	-11.6876
unc	-11.6876
▁gardens	-11.6887
96	-11.6888
▁races	-11.6888
▁mole	-11.6891
▁genetic	-11.6891
▁suspected	-11.6892
92	-11.6897
▁motorcycle	-11.6897
▁hopefully	-11.6902
07	-11.6905
▁chatter	-11.6907
▁relative	-11.6916
▁plainly	-11.6916
▁dia	-11.6918
cor	-11.6919
▁murmured	-11.6922
▁wars	-11.6922
gri	-11.6927
▁chapel	-11.6929
▁reflect	-11.6932
▁murderer	-11.6933
▁mist	-11.6935
ér	-11.6935
▁skills	-11.694
▁dreaming	-11.6942
▁sharing	-11.6944
▁physics	-11.6944
▁2014,	-11.6946
▁poly	-11.6952
something	-11.6953
▁views	-11.6954
▁slim	-11.6957
touches	-11.6962
▁ou	-11.6962
▁attempted	-11.6965
▁opposed	-11.6969
▁glen	-11.6969
▁pigs	-11.6972
▁uncomfortable	-11.6973
▁discipline	-11.6973
▁passenger	-11.6975
▁horns	-11.6978
▁toby	-11.6978
▁jon	-11.6979
▁sca	-11.6979
ges	-11.698
▁brad	-11.6981
▁conscience	-11.6982
▁vehicles	-11.6984
▁unexpected	-11.6986
▁earnest	-11.6986
▁formation	-11.6988
▁commanded	-11.6989
▁stu	-11.6989
white	-11.6991
▁aaron	-11.6993
▁immediate	-11.6995
▁consent	-11.7
▁possess	-11.7002
▁delivery	-11.7004
▁parker	-11.7004
want	-11.7004
cri	-11.7005
▁adults	-11.7005
▁polite	-11.7007
oid	-11.7007
▁34	-11.7009
▁attract	-11.701
▁cathedral	-11.7011
kie	-11.7013
▁reduced	-11.7016
rian	-11.7021
▁brooklyn	-11.7021
▁bedtime	-11.7023
▁counties	-11.7026
▁controlled	-11.7026
▁caesar	-11.703
▁33	-11.7032
▁hare	-11.7033
▁tests	-11.7035
▁2013,	-11.7035
▁2012,	-11.7036
▁gene	-11.7037
rod	-11.7039
▁[11	-11.704
▁bracelet	-11.7041
▁gown	-11.7044
▁facts	-11.7045
▁combined	-11.7047
▁traveling	-11.7047
▁mil	-11.7049
▁fist	-11.705
▁hire	-11.7051
▁principle	-11.7054
▁neu	-11.7055
▁shouts	-11.7056
▁aunty	-11.7057
▁spec	-11.7057
▁kennedy	-11.7059
▁seldom	-11.7059
▁grin	-11.7061
▁dreamed	-11.7063
tti	-11.7063
▁vic	-11.7065
hl	-11.7068
▁compliment	-11.7069
▁robbie	-11.7069
▁lest	-11.707
▁crush	-11.7071
▁pel	-11.7075
▁2013.	-11.7077
▁whoop	-11.7079
▁jumper	-11.708
▁typical	-11.7083
▁porter	-11.7085
▁jamie	-11.7085
▁abandoned	-11.7086
▁municipalities	-11.7088
▁terry	-11.709
▁nothin	-11.709
▁loft	-11.7091
aba	-11.7091
▁reed	-11.7097
▁burns	-11.7099
▁waist	-11.7105
lot	-11.7105
š	-11.7107
▁satellite	-11.7107
cio	-11.7107
▁1946	-11.7108
grm	-11.7109
www	-11.7109
ef	-11.7113
▁2015,	-11.7113
april	-11.7115
▁muscles	-11.7117
▁utter	-11.7118
▁moss	-11.7119
clears	-11.712
▁dart	-11.7121
.=	-11.7126
▁merged	-11.7127
▁hopes	-11.7132
▁2011.	-11.7133
▁obtain	-11.7134
pushes	-11.7135
▁turkish	-11.7137
▁glo	-11.7142
▁2017.	-11.7142
▁receiving	-11.7146
▁dustbin	-11.7146
▁shone	-11.7151
piece	-11.7155
▁amusement	-11.7156
▁cl	-11.7158
total	-11.7159
eyed	-11.7159
ison	-11.7159
▁curtains	-11.7162
▁spoons	-11.7164
▁`	-11.7165
▁customer	-11.7169
hor	-11.7172
▁pea	-11.7175
▁interior	-11.7175
▁dispute	-11.7175
68	-11.7178
▁explorer	-11.7178
▁inspired	-11.7179
▁dancer	-11.7179
▁via	-11.718
▁tomb	-11.7187
▁increasing	-11.7189
taking	-11.719
▁ei	-11.7192
-3	-11.7194
▁supporting	-11.7194
▁louisiana	-11.7195
▁philosophy	-11.7195
▁jazz	-11.7195
▁harrison	-11.7197
▁vanished	-11.7199
uck	-11.7201
▁distress	-11.7203
▁wins	-11.7205
▁monarch	-11.7208
▁planes	-11.7212
▁relieved	-11.7213
▁brow	-11.7214
▁prefecture	-11.7214
▁que	-11.7214
▁balloons	-11.7215
▁purchase	-11.7218
kov	-11.7218
▁column	-11.7224
▁nomination	-11.7224
▁everyday	-11.7225
▁turk	-11.7226
▁halt	-11.7228
▁pinch	-11.7231
▁rotten	-11.7234
▁rom	-11.7234
▁lied	-11.7238
awa	-11.724
avi	-11.7242
▁kicking	-11.7243
▁foster	-11.7244
6]	-11.7245
▁grip	-11.7249
uld	-11.7252
▁42	-11.7252
poor	-11.7252
▁lobster	-11.7253
▁niece	-11.7254
▁2010.	-11.7256
▁unconscious	-11.7258
▁pockets	-11.7261
▁farmers	-11.7262
▁pioneer	-11.7263
zar	-11.7263
▁comments	-11.7264
ado	-11.7268
▁allison	-11.7269
▁opponent	-11.7273
▁spike	-11.7274
▁minus	-11.7277
▁axe	-11.7278
▁panel	-11.7278
3]	-11.7281
▁mock	-11.7283
▁fifa	-11.7284
▁starred	-11.7286
▁bleeding	-11.7286
▁apply	-11.729
▁intelligent	-11.7293
▁portugal	-11.7293
▁joining	-11.7298
53	-11.73
▁cutter	-11.7302
▁memorial	-11.7302
▁dimitra	-11.7302
▁singapore	-11.7302
▁departure	-11.7302
▁armenian	-11.7305
nal	-11.7307
▁1920	-11.731
silver	-11.7312
▁wu	-11.7312
▁1949	-11.7313
▁wheat	-11.7314
▁marvel	-11.7318
olo	-11.732
▁"_	-11.7322
▁permitted	-11.7323
▁convention	-11.7327
▁dresses	-11.7334
▁technical	-11.7336
▁bade	-11.7339
▁leaped	-11.7339
met	-11.7342
▁1942	-11.7342
bre	-11.7343
▁conscious	-11.7344
▁curly	-11.7344
▁stem	-11.7347
▁trembling	-11.7352
▁critics	-11.7353
▁fortunately	-11.7358
▁iris	-11.7359
▁verse	-11.7361
▁disturbed	-11.7361
▁shadows	-11.7363
▁pence	-11.7369
▁filling	-11.7372
▁carries	-11.7372
cca	-11.7375
▁eli	-11.738
▁sel	-11.738
▁bargain	-11.7382
▁nepal	-11.7392
▁cupcake	-11.7392
know	-11.7395
▁mario	-11.7397
▁volleyball	-11.7402
51	-11.7402
▁hose	-11.7408
world	-11.7411
▁shovel	-11.7413
pper	-11.7413
▁drain	-11.7415
▁permanent	-11.7415
▁fans	-11.742
tar	-11.7425
▁hunger	-11.7428
lle	-11.7429
▁abi	-11.7432
▁farewell	-11.7432
▁au	-11.7435
▁accounts	-11.7436
▁hind	-11.7441
▁bloom	-11.7442
ois	-11.7445
▁minds	-11.7446
▁welsh	-11.7451
▁1954	-11.7452
▁exhibition	-11.7453
▁suitable	-11.7455
ele	-11.7455
▁rested	-11.7456
▁regarding	-11.7461
cc	-11.7465
▁lil	-11.7466
rel	-11.7467
▁consists	-11.7468
▁rosa	-11.747
▁surgeon	-11.7472
chy	-11.7474
sburg	-11.7474
▁propose	-11.7477
mom	-11.7479
▁dame	-11.748
▁dae	-11.7481
▁whispering	-11.7484
rang	-11.7488
▁electrical	-11.7491
▁sadly	-11.7491
--------------	-11.7492
▁seed	-11.7493
▁myth	-11.7495
▁christians	-11.7498
char	-11.75
▁dale	-11.7504
bird	-11.7506
▁cole	-11.7509
horse	-11.751
called	-11.7512
▁brit	-11.7513
▁bum	-11.7514
▁wandering	-11.7521
▁sensible	-11.7522
3.	-11.7522
app	-11.7524
▁warrior	-11.7526
▁comm	-11.7526
▁lookin	-11.753
▁crisp	-11.7532
▁shakespeare	-11.7532
▁wisdom	-11.7532
▁trigger	-11.7532
▁bills	-11.7534
▁homework	-11.7538
▁methods	-11.7539
87	-11.7539
ancy	-11.754
▁moor	-11.7541
▁votes	-11.7544
ids	-11.7544
▁ky	-11.7546
▁neighbour	-11.7547
▁borough	-11.7548
▁vocal	-11.7551
▁instinct	-11.7552
▁lettuce	-11.7552
cj	-11.7553
▁needn	-11.7553
▁polo	-11.7555
ern	-11.7562
▁1955	-11.7562
▁chemistry	-11.7563
▁rangers	-11.7565
▁images	-11.7567
▁pac	-11.757
▁fries	-11.7571
▁dialect	-11.7572
▁shiny	-11.7575
▁vent	-11.7575
▁sweater	-11.7581
▁chr	-11.7583
▁attracted	-11.7584
hara	-11.7585
▁monte	-11.7587
▁secrets	-11.7588
▁practically	-11.7589
▁photos	-11.759
▁improved	-11.759
▁russell	-11.7592
▁1939	-11.7593
isn	-11.7594
▁modest	-11.7595
▁hon	-11.7597
▁tee	-11.7599
nz	-11.7601
▁alliance	-11.7603
▁alec	-11.7603
▁promptly	-11.7605
▁metres	-11.7609
▁monsters	-11.7609
wed	-11.761
5,000	-11.7611
▁issued	-11.7613
▁execution	-11.7613
▁wax	-11.7618
▁hack	-11.7619
85	-11.7623
▁juan	-11.7624
▁yelling	-11.7628
bef	-11.7628
▁mug	-11.7629
▁jennifer	-11.7633
▁wayne	-11.7636
▁relation	-11.7638
▁cousins	-11.764
▁arrangements	-11.7643
▁forbidden	-11.7645
▁allows	-11.7648
-2	-11.7648
does	-11.7654
alo	-11.7655
ters	-11.7656
▁amos	-11.7656
▁sheets	-11.7658
ori	-11.7659
▁application	-11.7661
court	-11.7661
▁gale	-11.7662
▁grounds	-11.7663
dom	-11.7663
▁striking	-11.7664
▁councillor	-11.7665
▁stripes	-11.7665
▁2018.	-11.7667
▁gym	-11.7669
03	-11.767
▁dating	-11.767
▁melt	-11.7672
▁resolution	-11.7674
▁pigeon	-11.7684
▁pursuit	-11.7684
▁gut	-11.7691
▁sneeze	-11.7693
▁businessman	-11.7694
▁dates	-11.7694
▁sponge	-11.7694
▁visual	-11.7695
▁warrant	-11.7696
▁yorkshire	-11.7696
▁anderson	-11.7697
▁twist	-11.7697
▁helpful	-11.7699
▁reduce	-11.77
▁explore	-11.7702
ency	-11.7702
▁scientist	-11.7702
▁theme	-11.7706
▁deeper	-11.7708
.9	-11.7713
▁ministry	-11.7715
▁kal	-11.7715
▁absolute	-11.7719
▁clearing	-11.7721
▁historic	-11.7723
▁website	-11.7723
▁dakota	-11.7725
iel	-11.7726
▁pluck	-11.7726
▁uttered	-11.7726
▁paddle	-11.7726
59	-11.7729
▁muslim	-11.7734
▁divorced	-11.7734
people	-11.7735
▁hollywood	-11.7736
▁trapped	-11.7736
▁lengthened	-11.7737
wash	-11.7737
fly	-11.7737
▁euro	-11.7743
▁canvas	-11.7749
▁whereas	-11.7751
67	-11.7752
▁und	-11.7754
▁scarlet	-11.7757
▁privilege	-11.7766
▁tr	-11.7774
▁medium	-11.7777
▁globe	-11.7781
▁chuckles	-11.7786
stan	-11.7788
▁lantern	-11.7789
▁rum	-11.779
yne	-11.7795
▁mcc	-11.7796
▁belgium	-11.7797
▁beaver	-11.7798
▁solemn	-11.7802
▁flows	-11.7805
ense	-11.7805
six	-11.7807
▁waffle	-11.7808
▁bash	-11.7808
▁answering	-11.7811
▁isabel	-11.7812
▁exit	-11.7813
▁colin	-11.7815
▁float	-11.7818
▁creating	-11.7819
▁entry	-11.782
cos	-11.7823
▁secured	-11.7823
▁humble	-11.7823
kins	-11.7824
▁bean	-11.7825
▁kra	-11.7825
▁cares	-11.7825
▁1943	-11.7829
gging	-11.783
▁dolphin	-11.7831
great	-11.7832
▁2020.	-11.7832
▁warriors	-11.7835
▁scoop	-11.7839
▁abuse	-11.784
▁inch	-11.7845
▁coo	-11.7846
▁heroes	-11.7849
▁analysis	-11.7849
▁octopus	-11.7849
▁retirement	-11.785
tca	-11.7852
▁eighth	-11.7854
blows	-11.7857
▁struggling	-11.786
▁temporary	-11.786
▁36	-11.786
▁camping	-11.7861
▁popped	-11.7862
▁individuals	-11.7862
▁irene	-11.7863
▁recover	-11.7864
▁fortunate	-11.7864
▁essay	-11.7871
▁interests	-11.7871
▁steer	-11.7875
▁behaviour	-11.7881
▁capacity	-11.7881
post	-11.7881
▁2008.	-11.7882
▁scarf	-11.7887
▁sk	-11.7888
▁abraham	-11.7891
▁roughly	-11.7896
▁heh	-11.7896
▁stickers	-11.7901
▁confederate	-11.7902
ico	-11.7903
mine	-11.7904
▁2012.	-11.7905
▁ros	-11.7905
▁survived	-11.7908
▁hedge	-11.7908
▁blaze	-11.7916
▁males	-11.7917
▁1941	-11.7923
▁1944	-11.7923
▁featured	-11.7924
▁citizen	-11.7925
▁select	-11.7929
talking	-11.7931
▁introduction	-11.7933
pho	-11.7933
pod	-11.7933
▁joyce	-11.7935
▁bullets	-11.7935
▁exposed	-11.7939
▁grove	-11.7941
yu	-11.7941
▁ink	-11.7942
▁bothered	-11.7943
▁peninsula	-11.7944
▁lively	-11.7945
▁planted	-11.7946
hang	-11.7947
▁2009,	-11.7948
ously	-11.7949
▁borders	-11.7949
uf	-11.7952
overlap	-11.7954
▁absent	-11.7954
▁invasion	-11.7954
▁harvey	-11.7954
▁rocking	-11.7954
▁insects	-11.7956
▁initial	-11.7959
▁rio	-11.7959
▁clan	-11.7964
▁fixing	-11.7965
▁wah	-11.7967
▁deserted	-11.7974
▁identified	-11.7975
▁cellar	-11.7978
▁behalf	-11.7983
88	-11.7984
▁distribution	-11.7986
▁clubs	-11.7986
▁nellie	-11.7987
▁meg	-11.799
▁enterprise	-11.7996
▁earliest	-11.7996
ppy	-11.8006
footnote	-11.8007
▁occupation	-11.8007
▁wives	-11.8008
▁imagined	-11.8008
▁rural	-11.8008
▁2009.	-11.8009
▁leaned	-11.8011
cot	-11.8012
▁monkeys	-11.8012
▁remi	-11.8018
▁computers	-11.802
94	-11.8021
chris	-11.8022
93	-11.8038
aro	-11.8038
pulls	-11.8039
▁hermit	-11.8042
▁prices	-11.8042
sol	-11.8043
▁strict	-11.8043
▁disco	-11.8046
▁pub	-11.8046
loud	-11.8047
04	-11.8049
▁2014.	-11.805
▁clam	-11.8052
▁flap	-11.8052
▁roast	-11.806
▁afterward	-11.8063
ova	-11.8064
▁dive	-11.8065
▁ignore	-11.8066
▁grabs	-11.8066
▁distinguished	-11.8068
▁blankets	-11.8069
▁react	-11.807
――	-11.807
▁ix	-11.8074
uous	-11.808
▁prop	-11.8081
▁uefa	-11.8081
▁1951	-11.8082
▁existed	-11.8082
▁agents	-11.8082
▁cd	-11.8085
gli	-11.8086
▁cove	-11.8087
▁ruler	-11.8088
▁git	-11.8089
▁bake	-11.8089
▁sensitive	-11.8093
last	-11.8095
▁dollhouse	-11.8095
▁desired	-11.8098
nation	-11.8101
▁surrender	-11.8102
mates	-11.8103
▁peaceful	-11.8105
▁2008,	-11.811
▁suburb	-11.8112
mc	-11.8114
▁stump	-11.8114
▁lifetime	-11.8115
▁versions	-11.8115
loo	-11.8117
hsl	-11.8119
▁commissioner	-11.8119
▁damaged	-11.8119
▁parking	-11.812
▁hamilton	-11.8124
▁bands	-11.8124
74	-11.8124
▁properties	-11.8124
▁ernest	-11.8125
▁troubles	-11.8125
▁pap	-11.8125
▁spotted	-11.813
▁gasped	-11.8131
▁smallest	-11.8132
▁ace	-11.8132
▁taperecorder	-11.8135
▁roz	-11.8143
▁bangladesh	-11.8145
▁zoom	-11.8145
▁stra	-11.8145
▁bradford	-11.8146
▁slightest	-11.8147
grf	-11.8153
▁swiftly	-11.8153
xi	-11.8154
▁resort	-11.8157
▁wink	-11.8158
00,000	-11.8158
media	-11.816
▁butcher	-11.8161
▁oklahoma	-11.8167
▁architecture	-11.8167
▁harvest	-11.8167
52	-11.8172
▁provinces	-11.8172
bul	-11.8175
▁unto	-11.8176
lee	-11.8176
▁bou	-11.8183
▁concerning	-11.8185
▁sails	-11.8185
starts	-11.8187
anna	-11.8189
▁freak	-11.8189
▁crimes	-11.8194
▁solomon	-11.8199
rap	-11.82
▁heavens	-11.8202
▁snowman	-11.8207
▁dizzy	-11.821
▁wwe	-11.8214
▁rein	-11.8215
▁steadily	-11.8221
▁1953	-11.8221
▁ruff	-11.8226
▁associate	-11.8227
▁campus	-11.8227
▁paw	-11.8231
▁reverse	-11.8233
rock	-11.8237
▁cigarette	-11.8241
tta	-11.8241
▁critic	-11.8242
▁ukraine	-11.8242
▁promotion	-11.8242
sim	-11.8244
▁offers	-11.8245
mir	-11.8246
▁flames	-11.8246
gee	-11.8249
ffe	-11.8249
▁epi	-11.825
hit	-11.825
▁halloween	-11.8253
▁tennessee	-11.8253
▁voted	-11.8254
▁springs	-11.8261
▁compound	-11.8263
▁appetite	-11.8264
▁lloyd	-11.8264
rio	-11.8265
▁swww	-11.8267
61	-11.8267
▁warner	-11.8271
▁angela	-11.8271
▁2021.	-11.8271
rous	-11.8272
based	-11.8273
▁cardinal	-11.8275
babbling	-11.8275
▁grasp	-11.8275
▁insult	-11.8275
skin	-11.8276
cle	-11.8276
▁selfish	-11.8278
▁depending	-11.8279
▁derek	-11.8281
▁contrary	-11.8286
▁marshall	-11.8286
▁lightly	-11.8289
▁highness	-11.8289
ique	-11.8291
▁iraq	-11.83
▁damn	-11.8303
▁nickname	-11.8305
▁engagement	-11.8308
▁arrangement	-11.8309
▁marble	-11.8309
▁breaks	-11.8309
hum	-11.8317
▁accord	-11.8318
▁squash	-11.8319
▁damp	-11.8319
nge	-11.8322
▁tones	-11.8325
▁hesitated	-11.8327
91	-11.8328
▁discussed	-11.8328
▁cambridge	-11.8329
▁aisne	-11.833
▁popcorn	-11.833
▁thanksgiving	-11.833
nut	-11.833
▁pun	-11.8331
uz	-11.8335
▁sources	-11.8335
cer	-11.8343
▁writers	-11.8348
▁sco	-11.8351
▁argentina	-11.8351
▁bunk	-11.8352
▁files	-11.8352
nell	-11.8355
▁experiences	-11.8359
▁fitted	-11.836
mrs	-11.8362
▁banner	-11.8363
▁telly	-11.8367
phi	-11.837
▁sequence	-11.8373
▁punk	-11.8375
."--_	-11.8379
▁fairies	-11.838
▁females	-11.8383
▁frederick	-11.8384
▁1936	-11.8385
▁bumped	-11.8385
wise	-11.8386
laughter	-11.8388
64	-11.8391
▁bog	-11.8393
▁violin	-11.8394
▁shaped	-11.8395
69	-11.8397
girl	-11.8398
▁wy	-11.8399
▁rosy	-11.8402
eo	-11.8403
▁dignity	-11.8406
▁narrator	-11.8407
▁betray	-11.8408
▁kang	-11.8413
▁rosie	-11.8415
▁chorus	-11.8419
such	-11.8421
▁lifting	-11.8421
lé	-11.8422
▁badge	-11.8423
▁divine	-11.8424
▁brake	-11.8424
▁curse	-11.8427
▁errand	-11.8428
▁lor	-11.843
▁quid	-11.8433
▁2006,	-11.8438
▁contribution	-11.8439
▁glimpse	-11.8439
▁unpleasant	-11.8439
▁samantha	-11.844
cin	-11.8441
path	-11.8442
lian	-11.8445
▁2007.	-11.8448
▁spiritual	-11.8451
▁chan	-11.8451
▁tons	-11.8451
▁strap	-11.8451
▁finest	-11.8452
▁institution	-11.8456
▁ernie	-11.8456
ear	-11.8457
▁elect	-11.8459
via	-11.8466
▁sunset	-11.8467
▁alike	-11.847
▁1938	-11.8473
▁tyler	-11.8473
▁angels	-11.8474
▁hopeless	-11.8475
▁containing	-11.8476
▁conducted	-11.8479
leg	-11.8483
▁finishing	-11.8483
▁1934	-11.8484
eu	-11.8486
ole	-11.8487
▁ledge	-11.8489
▁fatal	-11.8493
▁gilbert	-11.8495
▁hydrogen	-11.8495
▁apt	-11.8497
esh	-11.8501
▁cit	-11.8502
▁idle	-11.8502
▁ny	-11.8503
▁corps	-11.8505
▁cemetery	-11.8506
pel	-11.8509
▁lan	-11.8509
▁messages	-11.851
▁confident	-11.851
▁ere	-11.8511
▁graduate	-11.8512
▁deposit	-11.8513
▁partners	-11.8517
▁messy	-11.8517
▁promoted	-11.852
▁cruise	-11.8522
▁basin	-11.8524
▁2007,	-11.8524
nda	-11.8525
▁mars	-11.8526
dge	-11.8526
▁dwarf	-11.8528
▁liver	-11.8529
▁dum	-11.8529
▁pip	-11.8529
pretends	-11.8529
▁cargo	-11.853
▁paintings	-11.8531
▁hart	-11.8533
▁grape	-11.8537
fra	-11.8537
▁seeking	-11.8537
poli	-11.8538
▁performing	-11.8538
▁beasts	-11.854
bling	-11.8541
▁meetings	-11.8542
other	-11.8544
▁arrows	-11.8544
▁declare	-11.8546
▁sto	-11.8549
▁airlines	-11.8549
▁coll	-11.8551
▁lighter	-11.8555
▁num	-11.8562
▁positions	-11.8568
▁utterly	-11.8568
▁65	-11.8569
▁gall	-11.8573
▁spinning	-11.8573
wal	-11.8574
▁nerves	-11.8575
ect	-11.858
vid	-11.8582
hoe	-11.8583
▁spencer	-11.8584
inger	-11.8585
▁represents	-11.859
▁rosalie	-11.8595
▁finance	-11.8595
▁mend	-11.86
▁pots	-11.8603
ological	-11.8606
▁enters	-11.8606
picture	-11.8607
▁janet	-11.8612
▁ent	-11.8614
-20	-11.8615
▁premier	-11.8616
▁violet	-11.8617
▁elsewhere	-11.8621
▁tomatoes	-11.8622
▁amused	-11.8622
▁walt	-11.8623
▁harsh	-11.8623
▁sausages	-11.8623
▁[9	-11.8623
▁sri	-11.8626
kn	-11.8629
▁steak	-11.863
▁tested	-11.863
▁48	-11.8632
eau	-11.8633
▁yuck	-11.8635
▁contrast	-11.8644
anne	-11.8645
▁awhile	-11.8646
▁crisps	-11.8658
▁flor	-11.866
▁academic	-11.8662
▁rig	-11.8663
▁leonard	-11.8663
▁punish	-11.8663
▁mistakes	-11.8664
▁decisions	-11.8672
▁newly	-11.8675
▁moonlight	-11.8676
▁vital	-11.8677
▁cer	-11.8678
▁1933	-11.8685
▁anton	-11.8687
▁observe	-11.8688
dra	-11.8691
▁amen	-11.8691
▁vincent	-11.8697
▁selection	-11.8699
▁mic	-11.8703
▁sib	-11.8704
▁horizon	-11.8707
▁portuguese	-11.8708
manchester	-11.8709
▁sewing	-11.8711
ace	-11.8711
osh	-11.8713
▁spilled	-11.8716
▁vis	-11.8717
vers	-11.8719
▁gazing	-11.8719
▁abc	-11.8723
▁invest	-11.8728
ora	-11.8731
▁(1	-11.8732
▁cri	-11.8734
nine	-11.8734
▁guarantee	-11.8738
▁pronounced	-11.874
▁disguise	-11.8742
▁yacht	-11.8742
fin	-11.8743
▁crawling	-11.8748
sam	-11.8749
▁emotional	-11.8753
▁ornament	-11.8753
▁villain	-11.8754
▁infant	-11.8755
▁spear	-11.8757
▁lung	-11.8758
▁restrain	-11.8758
▁descended	-11.8759
throws	-11.8759
iness	-11.8764
▁admiration	-11.8765
eat	-11.8765
▁moreover	-11.8767
▁exclamation	-11.8767
▁earnestly	-11.8772
▁scu	-11.8773
▁charts	-11.8775
▁jessica	-11.8776
eight	-11.8776
▁achievement	-11.8777
arian	-11.8777
shows	-11.878
▁benefits	-11.8782
humming	-11.8784
▁drives	-11.8787
▁bacteria	-11.8787
▁landscape	-11.8787
▁heritage	-11.8787
▁talkin	-11.8788
▁civilian	-11.8788
cas	-11.8788
break	-11.8788
▁steering	-11.8789
▁parson	-11.879
▁polar	-11.8791
▁pears	-11.8793
bat	-11.8796
oni	-11.8797
▁herbert	-11.8797
▁muscle	-11.8799
▁federation	-11.8799
▁harbour	-11.8799
▁monument	-11.8799
▁islam	-11.8802
▁purposes	-11.8805
";	-11.8807
▁journal	-11.8808
▁oranges	-11.881
▁pandemic	-11.881
▁transferred	-11.8811
▁amid	-11.8813
▁qu	-11.8815
▁reader	-11.8815
▁heartily	-11.8815
ich	-11.8816
▁drift	-11.8816
▁dense	-11.8819
▁napoleon	-11.8822
▁translation	-11.8822
▁comedian	-11.8822
enter	-11.8824
eng	-11.8828
▁overcome	-11.8829
pose	-11.8832
▁abd	-11.8832
gn	-11.8833
▁nickel	-11.8839
▁tucker	-11.884
▁cleaner	-11.884
▁vet	-11.8841
▁heir	-11.8844
gel	-11.8845
▁geoffrey	-11.8845
▁motive	-11.8846
▁ladybird	-11.8852
▁fifi	-11.8856
▁decoration	-11.8856
ean	-11.8856
▁mixture	-11.8857
▁constituency	-11.8857
▁attraction	-11.886
▁cher	-11.8861
▁mau	-11.8863
▁raft	-11.8869
▁pasta	-11.8873
76	-11.8874
▁signature	-11.8879
ried	-11.888
▁clatter	-11.8881
▁documents	-11.8883
▁complain	-11.8884
▁limb	-11.8888
▁jennie	-11.8891
▁gallant	-11.8891
▁nobel	-11.8894
▁kam	-11.8898
lop	-11.8898
▁dy	-11.89
▁rou	-11.8901
gus	-11.8901
▁punished	-11.8902
▁routine	-11.8902
▁employment	-11.8903
▁improvement	-11.8903
ride	-11.891
drops	-11.891
▁doubtless	-11.8913
▁keith	-11.8914
▁stewart	-11.8914
▁provisions	-11.8915
▁assumed	-11.8915
▁fried	-11.8917
▁option	-11.8918
▁barbie	-11.8919
▁kentucky	-11.8926
▁roller	-11.8928
▁xi	-11.893
▁astonishment	-11.8937
▁maisie	-11.8939
▁bloke	-11.895
-4	-11.895
▁sighs	-11.8953
serv	-11.8954
▁thorn	-11.8959
hour	-11.8959
▁prophet	-11.8961
own	-11.8961
▁gallery	-11.8961
▁accordingly	-11.8963
▁titles	-11.8971
▁spelling	-11.8971
▁residence	-11.8972
sign	-11.8972
▁disturb	-11.8973
load	-11.8975
▁guessed	-11.8976
▁mob	-11.8978
▁ache	-11.8983
▁enthusiasm	-11.8984
▁grabbed	-11.8984
▁grammy	-11.8984
▁dumb	-11.8986
▁pp	-11.8987
▁consequence	-11.8988
▁accomplished	-11.899
▁drake	-11.8992
▁gardener	-11.8997
▁urgent	-11.8998
▁ronald	-11.9002
▁cuba	-11.9003
▁ashes	-11.9004
▁sharks	-11.9005
▁recommend	-11.9005
▁maryland	-11.9006
▁nightmare	-11.9008
him	-11.9008
▁cas	-11.9008
▁38	-11.9013
▁ark	-11.9013
▁forgetting	-11.9017
▁deadly	-11.9018
▁hur	-11.9018
▁communicate	-11.9019
▁rover	-11.9019
▁ewww	-11.9021
▁emmy	-11.9024
aya	-11.9025
▁sammy	-11.9026
▁layer	-11.9026
▁writes	-11.9027
▁wiped	-11.9029
▁gratitude	-11.903
▁sequel	-11.9031
▁dedicated	-11.9033
▁searched	-11.9037
seven	-11.9037
▁cushion	-11.9037
gets	-11.9038
▁loo	-11.9039
▁skate	-11.9042
▁genuine	-11.9042
▁context	-11.9043
▁gem	-11.9043
▁trumpet	-11.9046
▁scent	-11.905
▁sap	-11.9053
▁invisible	-11.9054
▁flavor	-11.9054
▁edith	-11.9055
▁formerly	-11.9055
▁hence	-11.9059
▁glances	-11.9061
▁2015.	-11.9062
▁examined	-11.9063
bank	-11.9064
▁gill	-11.9066
▁twisted	-11.9066
▁encounter	-11.9069
▁goo	-11.907
62	-11.9073
headed	-11.9074
▁prof	-11.9075
moans	-11.9077
▁poke	-11.9078
▁approved	-11.9078
groans	-11.9078
shot	-11.908
bone	-11.9085
▁vir	-11.9088
ctu	-11.909
→	-11.909
▁pier	-11.9091
▁2006.	-11.9094
▁maker	-11.9095
▁47	-11.9096
phy	-11.9097
▁strings	-11.91
▁claws	-11.91
▁arizona	-11.9101
▁oath	-11.9101
▁catches	-11.9102
ingham	-11.9104
▁37	-11.9111
79	-11.9113
▁barrier	-11.9114
billboard	-11.9114
▁philippines	-11.9115
▁dub	-11.9116
▁proceeding	-11.9118
▁wrestler	-11.9119
person	-11.912
▁exists	-11.9122
▁lollipop	-11.9125
▁diary	-11.9126
bbing	-11.9128
▁beau	-11.913
▁kur	-11.9131
▁depth	-11.9132
▁magnetic	-11.9132
▁mule	-11.9132
▁carrier	-11.9133
▁troop	-11.9136
guard	-11.9138
▁deaf	-11.9141
▁maine	-11.9142
▁difficulties	-11.9142
arm	-11.9142
igh	-11.9148
▁communities	-11.9148
▁mir	-11.915
▁ethan	-11.9153
▁dread	-11.9153
▁°	-11.9153
▁meals	-11.9155
63	-11.9155
▁flushed	-11.9159
took	-11.916
yah	-11.9162
▁shah	-11.9166
aku	-11.9168
▁lem	-11.9168
▁bandage	-11.9169
wn	-11.9171
▁nigel	-11.9172
▁yelled	-11.9174
▁estimated	-11.9175
aj	-11.9175
▁oars	-11.9178
▁nowadays	-11.9184
▁gracious	-11.9184
▁cou	-11.9184
▁snapped	-11.9184
▁colours	-11.9187
lea	-11.9187
▁stays	-11.9195
▁suits	-11.9196
▁approval	-11.9196
▁philosopher	-11.9196
▁telegraph	-11.9196
▁behold	-11.92
bow	-11.92
▁perceived	-11.9202
nc	-11.9204
▁utah	-11.9208
▁alley	-11.9215
▁organisation	-11.922
log	-11.9221
▁tightly	-11.9221
▁tigers	-11.9223
▁socialist	-11.9224
bring	-11.9229
▁buster	-11.9229
▁pala	-11.9231
▁entitled	-11.9232
▁mathematics	-11.9232
▁jeremy	-11.9232
▁horrid	-11.9232
dee	-11.9232
fashioned	-11.9234
▁lazy	-11.9235
▁extend	-11.9238
▁animation	-11.9244
▁objective	-11.9244
▁waking	-11.9245
▁flashed	-11.9247
▁roland	-11.9247
▁wears	-11.9248
▁wig	-11.9251
▁31,	-11.9251
cul	-11.9251
▁happier	-11.9256
▁essential	-11.9263
▁nods	-11.9265
▁dose	-11.9266
▁kara	-11.9267
▁civilization	-11.9268
▁pl	-11.927
sail	-11.9274
▁humming	-11.9279
hums	-11.9279
▁fel	-11.9283
▁shallow	-11.9284
▁{	-11.9285
▁crust	-11.9285
vol	-11.9286
▁descent	-11.9286
mur	-11.9287
bridge	-11.929
▁swam	-11.929
▁gravely	-11.9292
▁lala	-11.9292
▁distinct	-11.9296
▁convince	-11.93
ross	-11.93
▁portrait	-11.9304
▁ethnic	-11.9304
▁followers	-11.9306
▁connecticut	-11.9316
▁schooner	-11.9316
▁applause	-11.9319
late	-11.932
▁hitler	-11.9321
▁carlos	-11.9322
▁64	-11.9327
▁secondary	-11.9329
▁gig	-11.9329
▁arabic	-11.9332
▁tryin	-11.9342
▁magazines	-11.9342
mbo	-11.9342
▁reflection	-11.9343
▁shorter	-11.9343
▁democrat	-11.9351
▁poverty	-11.9352
▁vegetable	-11.9352
▁freeze	-11.9353
▁revolver	-11.9354
▁spur	-11.9355
▁merit	-11.9358
▁creep	-11.9359
▁marcus	-11.9359
▁resigned	-11.9359
rant	-11.9359
▁rating	-11.936
▁smarties	-11.9361
▁scrape	-11.9363
▁anniversary	-11.9364
▁1929	-11.9365
▁preferred	-11.9365
▁flush	-11.9369
▁ep	-11.937
shed	-11.9374
▁fighter	-11.9375
▁proportion	-11.9376
▁convenient	-11.9376
▁por	-11.9376
▁rooster	-11.9376
▁tackle	-11.9377
▁continent	-11.9377
general	-11.9378
▁milan	-11.9379
▁lauren	-11.9379
▁til	-11.9385
▁cli	-11.9386
▁burger	-11.9387
▁reminded	-11.9388
▁muffin	-11.9388
▁operated	-11.9388
▁1935	-11.9389
▁preparation	-11.9389
▁relate	-11.939
▁armour	-11.9393
▁pickle	-11.9393
▁apron	-11.9401
▁confirm	-11.9401
▁wages	-11.9402
▁whispers	-11.9406
▁quote	-11.9413
▁ankle	-11.9413
▁convert	-11.9414
▁400	-11.9415
france	-11.9419
nne	-11.942
▁freely	-11.9423
▁category	-11.9425
▁definition	-11.9425
▁nursing	-11.9425
▁josh	-11.9428
these	-11.9431
▁tal	-11.9432
▁diego	-11.9432
tony	-11.9435
▁radiation	-11.9437
▁caravan	-11.9437
▁czech	-11.9437
▁trusted	-11.9443
imit	-11.9446
▁indicate	-11.9448
▁disk	-11.9449
▁rattling	-11.9449
▁random	-11.9451
arrondissement	-11.9451
2)	-11.9451
iva	-11.9453
▁boxer	-11.9456
▁measures	-11.946
▁silently	-11.946
▁screwdriver	-11.9461
▁impressive	-11.9461
▁salary	-11.9463
▁bru	-11.9467
▁bau	-11.9472
▁brownie	-11.9472
▁bathtub	-11.9474
▁cloak	-11.9474
before	-11.9476
▁habitat	-11.9476
▁vin	-11.9477
▁regularly	-11.9478
▁nhl	-11.9479
▁nicola	-11.9483
▁norah	-11.9485
▁fountain	-11.9486
▁leadership	-11.9488
eb	-11.9495
▁endure	-11.9495
▁handy	-11.9496
▁attic	-11.9498
▁elegant	-11.9498
▁paradise	-11.9498
▁reagan	-11.9498
▁temp	-11.9501
▁lynn	-11.9506
83	-11.9506
▁ranger	-11.9509
▁thompson	-11.951
▁1937	-11.9511
ition	-11.9511
▁learnt	-11.9513
comune	-11.9513
▁lucas	-11.9514
▁cad	-11.9519
▁gram	-11.9521
▁worker	-11.9522
▁colombia	-11.9523
▁1932	-11.9523
▁bunker	-11.9526
▁mansion	-11.9526
▁officials	-11.9527
goes	-11.9531
▁wandered	-11.9533
▁jumps	-11.9534
▁measured	-11.9535
▁summit	-11.9535
▁coward	-11.9536
▁trading	-11.9536
▁ripped	-11.9536
blue	-11.9537
▁commit	-11.9537
oop	-11.9537
close	-11.9539
▁educated	-11.9541
▁sweeping	-11.9543
▁taxes	-11.9543
▁helm	-11.9543
▁tossed	-11.9546
▁denmark	-11.9548
▁approximately	-11.9548
▁occasions	-11.9549
▁notion	-11.955
▁overhead	-11.9551
▁humor	-11.9551
82	-11.9559
▁trevor	-11.956
ctor	-11.956
▁hush	-11.9562
ites	-11.9562
▁kyle	-11.9563
▁barney	-11.9564
won	-11.9566
▁ninth	-11.9566
▁echo	-11.9571
▁penalty	-11.9572
▁amateur	-11.9572
▁grinned	-11.9572
▁tracy	-11.9573
▁estimate	-11.9581
▁restored	-11.9584
▁tasty	-11.9585
▁factor	-11.9585
▁longing	-11.9585
▁goats	-11.9586
▁squ	-11.9589
▁dramatic	-11.9589
▁lucia	-11.959
▁basement	-11.9591
▁shave	-11.9591
▁thi	-11.9592
noises	-11.9592
▁celebrated	-11.9593
▁saucer	-11.9595
▁ranked	-11.9595
▁fern	-11.9596
▁nintendo	-11.9597
▁dra	-11.9602
▁span	-11.9608
▁concentration	-11.9609
▁protein	-11.9609
▁trot	-11.9609
▁upright	-11.961
▁craig	-11.9611
▁surf	-11.9616
▁screams	-11.9619
▁gin	-11.962
▁burglar	-11.9622
▁smash	-11.9625
▁pressing	-11.9625
▁aired	-11.9625
▁restless	-11.9627
▁hugo	-11.9627
▁furious	-11.9629
▁foam	-11.9629
▁hiya	-11.9634
▁fury	-11.9634
▁cass	-11.9638
▁slavery	-11.9638
▁folded	-11.9639
▁pork	-11.9641
▁yucky	-11.9641
▁consequences	-11.9642
▁leon	-11.9644
zzle	-11.9644
▁skeleton	-11.9647
▁felix	-11.9647
▁adele	-11.9647
▁residents	-11.9648
▁kha	-11.9654
▁honk	-11.9655
hat	-11.9657
▁jingle	-11.966
hir	-11.966
▁tech	-11.9663
▁bella	-11.9669
▁travelled	-11.9674
▁rarely	-11.9675
▁establish	-11.9675
▁magnets	-11.9677
roman	-11.9679
▁influenced	-11.9679
▁[1]	-11.968
sir	-11.968
sounds	-11.9681
▁strategy	-11.9684
▁policies	-11.9684
▁prix	-11.9686
doo	-11.9691
▁achieve	-11.9693
glass	-11.9694
▁dial	-11.9695
▁laundry	-11.9697
▁dory	-11.9698
sti	-11.97
▁2017)	-11.97
▁chums	-11.9702
▁zu	-11.9702
▁pets	-11.9703
▁ranks	-11.9705
ello	-11.9706
▁photographs	-11.9707
▁nicholas	-11.9709
▁providing	-11.9709
zing	-11.9711
▁designer	-11.9711
▁pitt	-11.9716
mond	-11.9716
▁boarding	-11.9716
▁narrative	-11.9722
▁rats	-11.9723
▁reflected	-11.9723
wit	-11.973
▁clyde	-11.9734
▁pod	-11.9738
nel	-11.9742
ode	-11.9742
▁jun	-11.9743
▁appearances	-11.9744
▁fearful	-11.9744
▁corridor	-11.9747
▁1931	-11.9747
▁mills	-11.9748
▁owners	-11.9754
aga	-11.9757
main	-11.9757
▁honours	-11.9759
▁mercury	-11.9759
▁simpson	-11.9759
▁microsoft	-11.9759
▁advised	-11.9762
▁logs	-11.9763
▁flee	-11.9769
▁indicated	-11.9775
lk	-11.9777
▁colleagues	-11.9778
▁preparations	-11.9784
▁hastened	-11.9785
▁whistling	-11.9787
corn	-11.9788
▁outline	-11.9788
▁alas	-11.9789
▁developing	-11.9792
▁threatening	-11.9793
▁syn	-11.9796
▁dentist	-11.9797
▁pram	-11.9802
▁chased	-11.9803
▁bead	-11.9803
▁stalk	-11.9807
▁astonished	-11.981
▁butterflies	-11.981
▁peril	-11.9815
▁representing	-11.9815
▁fen	-11.9816
▁apparent	-11.9817
▁jaw	-11.9817
▁buff	-11.9819
▁translated	-11.9819
▁orphan	-11.9822
▁fright	-11.9823
▁galaxy	-11.9823
▁agnes	-11.9824
▁verb	-11.9825
▁pic	-11.9825
ulu	-11.9826
▁immense	-11.9829
▁electoral	-11.9835
▁rhine	-11.9835
▁•	-11.9836
▁wade	-11.9836
ovich	-11.9836
▁footsteps	-11.9838
▁spade	-11.9843
▁coral	-11.9844
▁riot	-11.9845
▁maurice	-11.9848
▁fictional	-11.9852
john	-11.9852
▁annoyed	-11.9854
▁rescued	-11.9859
▁raj	-11.986
▁neil	-11.986
▁destination	-11.9861
▁lizard	-11.9861
▁ec	-11.9861
▁landlord	-11.9862
lav	-11.9864
▁careless	-11.9865
▁neuro	-11.9867
ground	-11.9868
illy	-11.987
▁prairie	-11.9873
▁existing	-11.9876
▁strait	-11.9877
▁gua	-11.9879
▁greeted	-11.9882
wh	-11.9882
▁petrol	-11.9883
oke	-11.9885
▁nathaniel	-11.9886
▁toronto	-11.9886
▁stirring	-11.9887
▁nazi	-11.9887
▁foul	-11.9889
quin	-11.9892
▁differently	-11.9893
▁vacuum	-11.9899
\	-11.9899
▁scandal	-11.9899
sum	-11.99
matic	-11.9901
mber	-11.9902
▁marching	-11.9904
used	-11.9906
▁plank	-11.9907
▁magical	-11.991
▁emotion	-11.9912
opens	-11.9917
▁pail	-11.9918
▁particles	-11.9918
▁[12	-11.992
▁determine	-11.9922
▁lowered	-11.9924
▁mala	-11.9927
▁dese	-11.993
▁islamic	-11.9932
▁pill	-11.9934
▁boiling	-11.9934
▁lakes	-11.9936
▁wounds	-11.9936
ratner	-11.9936
▁barber	-11.9937
▁elders	-11.9938
81	-11.9938
▁margot	-11.994
▁weakness	-11.9941
tia	-11.9943
▁idol	-11.9948
cies	-11.9948
▁largely	-11.9949
▁recruit	-11.995
▁sensation	-11.9951
▁romania	-11.9951
kiss	-11.9954
▁planets	-11.9955
case	-11.9956
▁chewing	-11.9962
dio	-11.9963
▁utmost	-11.9963
▁1928	-11.9964
jun	-11.9966
state	-11.9968
▁brace	-11.9968
nay	-11.9969
▁gan	-11.9971
▁aspect	-11.9971
▁torture	-11.9973
▁advise	-11.9974
parent	-11.9975
▁equation	-11.9976
84	-11.9976
▁esther	-11.9977
rag	-11.9977
▁cru	-11.9981
▁sober	-11.9985
pal	-11.9985
asse	-11.9989
▁amendment	-11.9989
▁oswald	-11.9989
▁colorado	-11.9991
▁employer	-11.9991
▁2023,	-11.9992
72	-11.9992
▁edges	-11.9993
▁ian	-11.9997
▁43	-11.9998
▁rhyme	-11.9998
▁customs	-12.0001
▁refrigerator	-12.0002
▁daring	-12.0006
lets	-12.0006
▁shocked	-12.0008
city	-12.0008
▁batman	-12.0009
▁models	-12.001
▁frequent	-12.0011
▁harvard	-12.0015
▁wallace	-12.0016
▁encouraged	-12.0017
▁peasant	-12.0019
bor	-12.0019
ante	-12.0022
▁limp	-12.0023
pr	-12.0024
▁encourage	-12.0024
▁44	-12.0026
▁peru	-12.0026
brush	-12.0027
▁crib	-12.0027
▁captive	-12.0028
▁wander	-12.0029
bea	-12.0029
▁allies	-12.0029
view	-12.0029
▁occurs	-12.0032
▁tapes	-12.0033
uni	-12.0036
ddy	-12.0039
▁dec	-12.004
▁confession	-12.0043
▁serves	-12.0045
test	-12.0046
▁projects	-12.0048
▁wasted	-12.005
rov	-12.0052
▁fantasy	-12.0054
▁maximum	-12.0054
▁150	-12.0056
sister	-12.0056
▁sau	-12.006
itz	-12.0063
▁fuzzy	-12.0067
▁democracy	-12.0067
▁composition	-12.0067
▁awoke	-12.0067
▁stew	-12.0069
▁haul	-12.0072
▁refuge	-12.0077
▁erin	-12.0079
↗	-12.008
▁$2	-12.008
▁invention	-12.0081
▁debuted	-12.0083
▁annabel	-12.0084
▁witnesses	-12.0086
▁owen	-12.0087
udge	-12.009
▁shu	-12.0093
▁someday	-12.0093
wall	-12.0101
▁wishing	-12.0101
▁dodge	-12.0103
▁countenance	-12.0106
▁taller	-12.0108
▁sole	-12.0109
▁fbi	-12.0111
▁moth	-12.0113
▁poems	-12.0114
tine	-12.0114
▁2016.	-12.0115
▁injuries	-12.0119
▁effie	-12.0119
▁mammy	-12.0119
▁isaac	-12.012
('	-12.0123
▁enable	-12.0124
▁ethel	-12.0128
face	-12.0128
▁deaths	-12.0129
bud	-12.0131
▁emphasis	-12.0133
▁reef	-12.0135
▁scan	-12.0135
▁sleeve	-12.0136
▁graceful	-12.0137
▁explains	-12.0138
▁hearty	-12.0139
newman	-12.014
though	-12.014
▁baked	-12.0144
ggy	-12.0149
itch	-12.0154
▁somers	-12.0154
▁marion	-12.0154
▁liverpool	-12.0158
▁tsar	-12.0162
▁obeyed	-12.0164
pause	-12.0164
▁ferry	-12.0166
▁focused	-12.0171
▁singh	-12.0172
▁brig	-12.0176
▁promote	-12.0176
▁traveled	-12.0179
▁users	-12.018
▁terrorist	-12.0182
▁junk	-12.0184
▁telegram	-12.0184
▁graphic	-12.0184
▁curve	-12.0185
gb	-12.0185
rad	-12.0187
▁gab	-12.0187
shaw	-12.0187
▁slam	-12.0189
▁[$=1	-12.0189
▁gloom	-12.0192
▁storage	-12.0197
▁telescope	-12.0197
jam	-12.0198
▁yi	-12.0199
▁arena	-12.0199
spir	-12.0201
▁realise	-12.0203
▁brenda	-12.0205
▁differences	-12.0207
▁sliding	-12.0207
▁mop	-12.0208
▁cluster	-12.0211
▁detroit	-12.0211
▁gravity	-12.0211
▁universities	-12.0211
▁borne	-12.0212
plane	-12.0212
putting	-12.0215
▁mandy	-12.0217
▁mineral	-12.0219
ulate	-12.022
▁lyon	-12.0222
oph	-12.0226
▁playgroup	-12.0227
▁pawn	-12.0228
dder	-12.023
▁dies	-12.0231
liness	-12.0234
iko	-12.0235
▁morris	-12.0235
▁donna	-12.0236
▁mythology	-12.0237
▁gus	-12.0237
â	-12.0239
▁tur	-12.0239
▁chains	-12.0244
mpi	-12.0246
itude	-12.0247
▁audrey	-12.025
▁josé	-12.025
▁amazement	-12.025
▁fil	-12.0252
roid	-12.0252
screaming	-12.0253
keep	-12.0258
▁knives	-12.0263
braunwald	-12.0263
▁rubbed	-12.0264
▁burial	-12.0264
▁##	-12.0264
aging	-12.0265
▁remarks	-12.0268
▁spi	-12.0271
mba	-12.0274
▁cope	-12.0274
▁successfully	-12.0277
▁ambition	-12.0277
word	-12.0277
▁shrine	-12.0278
▁mwww	-12.0279
▁franz	-12.028
▁annoying	-12.0283
lore	-12.0284
▁spoiled	-12.0287
▁pr	-12.0287
▁compare	-12.0289
▁announcement	-12.029
▁plains	-12.0294
▁2005.	-12.0301
ography	-12.0301
▁py	-12.0301
pher	-12.0302
▁rhythm	-12.0302
sized	-12.0303
▁physician	-12.0303
▁recognition	-12.0303
vel	-12.0307
member	-12.0307
position	-12.0308
▁executed	-12.0309
▁berg	-12.0309
▁demonstrate	-12.0311
▁brew	-12.0311
▁employees	-12.0316
▁bachelor	-12.0317
▁vanilla	-12.0318
▁collecting	-12.0318
▁cracker	-12.0318
enberg	-12.0318
▁galley	-12.0319
▁doug	-12.0321
softly	-12.0324
▁preserve	-12.0328
ridge	-12.033
▁absurd	-12.033
▁marjorie	-12.033
▁jewel	-12.0336
▁cul	-12.034
fle	-12.0343
▁ontario	-12.0343
▁infantry	-12.0344
▁chester	-12.0344
▁fortnight	-12.0345
shing	-12.0345
▁bombs	-12.0347
▁coins	-12.0347
▁prim	-12.0348
▁lei	-12.0349
dah	-12.035
▁edmund	-12.0357
hei	-12.0365
71	-12.037
▁packing	-12.0371
▁hungary	-12.0372
▁yield	-12.0373
▁abandon	-12.0373
rating	-12.0376
dal	-12.0377
cloth	-12.0379
▁bail	-12.0379
hn	-12.0381
▁architect	-12.0383
▁siege	-12.0383
▁abbey	-12.0383
▁trifle	-12.0384
▁cadet	-12.0386
▁suspended	-12.0386
▁fluid	-12.0386
▁tread	-12.0387
▁lifts	-12.0388
▁bab	-12.039
▁fossil	-12.0394
▁clinton	-12.0397
lim	-12.0402
▁shaft	-12.0403
▁ghosts	-12.0405
▁pippin	-12.0406
▁[13	-12.0408
▁assigned	-12.0409
▁cavalry	-12.041
▁parallel	-12.041
▁bruno	-12.0412
▁readily	-12.0417
woo	-12.042
▁39	-12.0422
reads	-12.0422
▁norwegian	-12.0424
▁receipt	-12.0424
▁velvet	-12.0424
kon	-12.0424
wah	-12.0425
▁standards	-12.0425
▁rico	-12.0428
▁worms	-12.043
kun	-12.0433
▁dong	-12.0439
▁amazed	-12.044
▁evans	-12.0441
▁frankly	-12.0441
▁gam	-12.0445
▁destiny	-12.0451
▁penguins	-12.0451
▁compounds	-12.0452
▁distinguish	-12.0453
picking	-12.0459
rina	-12.046
gone	-12.0464
▁sciences	-12.0465
▁operator	-12.0465
▁allowing	-12.047
▁perry	-12.0475
undercurrent	-12.0476
▁gru	-12.0477
▁hampshire	-12.0478
▁washer	-12.0478
▁parlor	-12.0478
▁potter	-12.0479
ncy	-12.0481
▁volcano	-12.0484
▁bron	-12.0485
comp	-12.0488
sea	-12.0489
▁mechanism	-12.0491
▁prominent	-12.0491
▁scrub	-12.0491
▁seesaw	-12.0493
▁pops	-12.0493
atory	-12.0496
▁harriet	-12.0505
een	-12.0513
▁departed	-12.0514
▁whi	-12.0516
▁celebration	-12.0518
▁tragedy	-12.0518
▁neighbourhood	-12.0519
▁frock	-12.052
▁comics	-12.0521
▁tease	-12.0527
▁pancakes	-12.0528
▁jung	-12.0531
▁nathalie	-12.0532
▁cradle	-12.0532
▁jasper	-12.0532
▁peanuts	-12.0532
▁shar	-12.0534
une	-12.0536
▁playground	-12.0537
roy	-12.0541
▁souls	-12.0542
▁kir	-12.0543
▁consul	-12.0544
▁ammunition	-12.0546
▁mining	-12.0546
▁defined	-12.0546
▁metro	-12.0549
▁summon	-12.055
▁bor	-12.0553
▁giggle	-12.0558
▁jus	-12.0559
▁dwww	-12.0562
▁procession	-12.0565
100	-12.0569
▁ev	-12.0572
▁retire	-12.0572
▁plaster	-12.0574
▁lance	-12.0574
▁stockings	-12.0578
eous	-12.0579
▁dismissed	-12.058
rrr	-12.0582
▁attacking	-12.0587
▁rash	-12.0589
▁wright	-12.059
▁scrambled	-12.0593
▁russians	-12.0595
▁borrowed	-12.0598
▁extract	-12.0598
▁ancestors	-12.0599
▁squeal	-12.06
▁fiddle	-12.0601
▁beautifully	-12.0604
▁linked	-12.0605
▁spiders	-12.0605
▁publication	-12.0608
ink	-12.061
▁admire	-12.0611
▁2005,	-12.0613
▁blu	-12.0615
▁producing	-12.0615
▁ensure	-12.0616
movie	-12.0618
mag	-12.0622
usa	-12.0626
▁outdoor	-12.0629
▁growl	-12.0635
▁moose	-12.0638
▁cm	-12.0639
▁gau	-12.0641
▁stepping	-12.0644
▁ari	-12.0644
vor	-12.0648
▁israeli	-12.0655
ø	-12.0655
▁beck	-12.0655
dress	-12.0659
▁precisely	-12.0659
▁puzzles	-12.0661
watch	-12.0661
▁hound	-12.0662
▁erase	-12.0662
▁speakers	-12.0662
▁thanked	-12.0663
mia	-12.0663
▁artificial	-12.0669
▁oregon	-12.0669
▁iranian	-12.0671
▁crushed	-12.0671
imitates	-12.0672
▁(2	-12.0672
▁hoop	-12.0672
▁electro	-12.0673
bly	-12.0675
▁appearing	-12.0675
▁lum	-12.0678
▁limbs	-12.0679
▁slot	-12.0682
▁cease	-12.0682
▁franchise	-12.0683
▁collins	-12.0683
ule	-12.0683
▁musket	-12.0684
▁playdough	-12.0684
▁tamil	-12.0685
▁95	-12.0689
hop	-12.069
young	-12.0694
shin	-12.0695
▁literary	-12.0697
▁rascal	-12.0697
▁acquainted	-12.0698
▁signals	-12.0699
handed	-12.0702
meter	-12.0705
▁mam	-12.0707
▁armies	-12.0707
hh	-12.0707
▁fitting	-12.0709
diary	-12.071
▁elliot	-12.0711
▁reindeer	-12.0711
▁wilderness	-12.0711
▁qualified	-12.0711
▁tricky	-12.0712
grand	-12.0713
▁bust	-12.0714
▁overboard	-12.0716
hot	-12.0717
▁robbery	-12.0717
▁funds	-12.0717
mail	-12.0718
▁surprising	-12.0719
note	-12.0721
bach	-12.0723
shall	-12.0724
▁satisfy	-12.0724
▁renamed	-12.0724
▁usa	-12.0725
▁excitedly	-12.0727
una	-12.073
▁calf	-12.0731
cross	-12.0732
▁investigate	-12.0737
▁denied	-12.0738
▁tab	-12.0739
▁madison	-12.0739
▁1926	-12.0739
300	-12.0743
▁sti	-12.0746
▁trent	-12.0747
▁pairs	-12.0747
▁ponies	-12.0752
▁murray	-12.0753
▁hostage	-12.0755
▁cautiously	-12.0755
▁archie	-12.0756
▁bol	-12.0756
rist	-12.0759
▁puppets	-12.0763
▁vitamin	-12.0766
▁teapot	-12.0768
luck	-12.0769
▁joel	-12.0772
▁fig	-12.0774
▁relatively	-12.0775
▁oz	-12.0776
▁barr	-12.0776
▁roxy	-12.078
▁toothbrush	-12.078
core	-12.0786
▁é	-12.0786
▁tenth	-12.0788
▁mou	-12.0792
▁carpenter	-12.0794
▁veteran	-12.0794
▁tobacco	-12.0794
▁eldest	-12.0794
▁slug	-12.0795
▁finland	-12.0796
▁sie	-12.0797
▁marian	-12.0798
▁scholar	-12.08
▁disposed	-12.0801
▁dro	-12.0801
▁medals	-12.0802
▁2004.	-12.0802
onne	-12.0807
▁contempt	-12.0808
▁azerbaijan	-12.0808
▁slender	-12.0808
▁twilight	-12.0808
▁lame	-12.0809
▁consciousness	-12.081
▁hull	-12.0815
▁hap	-12.0815
▁bending	-12.0819
▁jerusalem	-12.0822
▁mediterranean	-12.0822
▁severely	-12.0822
indeed	-12.0825
▁sai	-12.0827
▁references	-12.0828
▁salmon	-12.0828
mount	-12.0828
▁corners	-12.083
▁esp	-12.083
▁deed	-12.0832
▁musicians	-12.0832
▁rays	-12.0832
▁functions	-12.0832
illo	-12.0834
▁pursue	-12.0834
▁lyrics	-12.0834
▁tails	-12.0836
▁betrayed	-12.0836
▁fascinating	-12.0836
▁fare	-12.0838
▁diamonds	-12.084
▁lust	-12.0841
▁lib	-12.0841
▁devices	-12.0845
▁hunters	-12.0846
▁profession	-12.0848
▁señor	-12.085
▁jokes	-12.0851
▁berries	-12.0857
▁sinking	-12.0858
▁format	-12.0859
▁conquered	-12.086
leave	-12.0863
▁rack	-12.0864
▁scotch	-12.0864
▁gregory	-12.0864
▁swords	-12.0865
bet	-12.0865
lio	-12.0867
lov	-12.0868
▁christianity	-12.0869
▁romans	-12.087
▁differ	-12.0873
▁sled	-12.0874
▁values	-12.0875
▁lungs	-12.088
kisses	-12.0885
▁defender	-12.0888
dur	-12.0889
▁demon	-12.089
aid	-12.0891
▁worrying	-12.0891
▁impulse	-12.0892
▁iceland	-12.0894
▁spo	-12.0895
▁sniff	-12.0898
stock	-12.0899
▁dwelling	-12.0902
▁49	-12.0906
▁wizard	-12.0907
▁robbed	-12.0907
ido	-12.0907
▁freezing	-12.0908
▁glove	-12.0908
▁rebel	-12.0909
▁mechanical	-12.0916
term	-12.0917
game	-12.0919
▁concentrate	-12.0919
gard	-12.092
▁cinderella	-12.0921
▁tips	-12.0921
▁fry	-12.0922
▁programming	-12.0922
ashi	-12.0922
▁broadway	-12.0923
dine	-12.0924
ís	-12.0926
▁patron	-12.0927
▁wasting	-12.0927
—”	-12.0929
▁poster	-12.0934
▁dealer	-12.0935
▁virtue	-12.0935
▁sleigh	-12.0936
▁pursued	-12.0936
▁starving	-12.0937
▁protecting	-12.094
▁disgrace	-12.0942
▁lowest	-12.0946
▁cameron	-12.0947
ome	-12.0949
@	-12.0949
▁fabric	-12.095
▁jest	-12.0951
▁spreading	-12.0951
▁pens	-12.0957
▁dadda	-12.096
▁ssh	-12.0961
▁panting	-12.0961
▁advertising	-12.0963
▁elderly	-12.0964
▁jeep	-12.0964
▁readers	-12.0964
▁neighbours	-12.097
▁impatient	-12.0972
▁resumed	-12.0975
bby	-12.0976
▁pennies	-12.0978
▁fritz	-12.0978
▁1927	-12.0978
▁julian	-12.0978
▁cheaper	-12.0979
▁pills	-12.0979
▁arriving	-12.0981
▁kh	-12.0987
▁forming	-12.0988
pad	-12.0989
▁persuade	-12.0991
ô	-12.0991
▁cornflakes	-12.0992
▁lemonade	-12.0992
▁torch	-12.0993
▁trunks	-12.0998
▁struggled	-12.1
▁snip	-12.1001
▁crackers	-12.1001
dling	-12.1002
▁watson	-12.1006
▁spaceship	-12.101
▁teen	-12.1013
wow	-12.1014
▁coup	-12.1015
▁flags	-12.1016
▁ske	-12.1018
▁slack	-12.102
▁patterns	-12.1021
▁countess	-12.1022
▁roo	-12.1024
rman	-12.1032
▁ditch	-12.1034
▁85	-12.1034
▁nun	-12.1035
▁tad	-12.1036
▁placing	-12.104
▁remembering	-12.1043
aire	-12.1046
▁jefferson	-12.1049
▁rubbing	-12.1049
▁skating	-12.1049
▁bald	-12.105
aged	-12.105
▁miami	-12.105
▁embarrassed	-12.1052
ware	-12.1053
▁rusty	-12.1053
▁protested	-12.1056
▁scr	-12.1057
▁locks	-12.1057
dig	-12.1057
▁receiver	-12.1063
å	-12.1063
▁squire	-12.1063
▁maisy	-12.1063
▁colonies	-12.1064
▁yah	-12.1066
▁weekly	-12.1066
▁achieved	-12.1067
▁switched	-12.1071
▁calmly	-12.1072
ç	-12.1074
▁pottie	-12.1075
▁pg	-12.1076
▁eternal	-12.1078
▁pedro	-12.1078
▁classification	-12.1079
▁continental	-12.108
▁hosted	-12.1083
▁insane	-12.1085
▁frighten	-12.1092
▁criticism	-12.1093
▁duncan	-12.1093
▁plantation	-12.1094
▁downtown	-12.1097
▁orleans	-12.1098
range	-12.1103
▁gorilla	-12.1106
▁suite	-12.1107
▁pupils	-12.1107
▁alpha	-12.1108
▁earning	-12.1108
dri	-12.1109
mill	-12.1111
▁expectation	-12.1113
▁fella	-12.1115
ttering	-12.1116
chief	-12.112
▁doughnut	-12.1121
▁freight	-12.1121
▁swarm	-12.1122
rg	-12.1123
bah	-12.1123
▁acquired	-12.1129
▁cheerfully	-12.1133
▁extinct	-12.1134
▁blunt	-12.1136
▁boast	-12.1136
▁whine	-12.1137
▁tack	-12.1138
▁fireplace	-12.1139
▁jewels	-12.114
vie	-12.1141
could	-12.1141
abi	-12.1142
▁55	-12.1145
▁ng	-12.1146
▁correctly	-12.1147
lessly	-12.1148
▁tart	-12.1148
zon	-12.115
▁agricultural	-12.115
▁marvellous	-12.115
▁darwin	-12.115
▁establishment	-12.1151
▁santo	-12.1151
▁crashing	-12.1151
-5	-12.1152
▁52	-12.1153
jin	-12.1154
▁cracked	-12.1154
yama	-12.1155
▁posted	-12.1156
▁tuna	-12.1156
▁paws	-12.1157
obs	-12.1158
▁lea	-12.116
▁humphrey	-12.1164
▁angrily	-12.1164
▁{\	-12.1164
▁revolutionary	-12.1166
▁provides	-12.1167
▁transportation	-12.1167
turn	-12.1168
▁homer	-12.1169
▁gail	-12.1169
sets	-12.1169
yle	-12.1171
▁wires	-12.1173
▁ul	-12.1175
▁sw	-12.1176
▁facilities	-12.1179
▁necessity	-12.1179
▁ursula	-12.1179
▁wharf	-12.1179
▁rapper	-12.1181
shaped	-12.1183
train	-12.1184
▁assembled	-12.1184
▁definite	-12.1187
kim	-12.1188
▁mut	-12.1189
73	-12.1192
▁ventured	-12.1193
▁videos	-12.1194
▁cocoon	-12.1194
▁roared	-12.1195
gna	-12.1197
▁confessed	-12.1198
▁giants	-12.1198
▁retain	-12.1201
lift	-12.1202
▁delayed	-12.1205
▁bulk	-12.1205
faced	-12.1208
ê	-12.1208
ū	-12.1208
▁recipe	-12.1208
▁preserved	-12.121
uga	-12.1213
hall	-12.1214
▁spice	-12.1216
beat	-12.1217
▁bowed	-12.1219
▁sickness	-12.1219
▁siren	-12.122
▁drivers	-12.1222
▁manifest	-12.1222
▁terminal	-12.1223
▁console	-12.1223
▁passport	-12.1225
▁limits	-12.1225
were	-12.1227
▁graz	-12.1229
teen	-12.1233
▁fears	-12.1236
▁wisconsin	-12.1237
▁whiskers	-12.1238
bid	-12.1238
▁tyre	-12.124
▁dismay	-12.1241
▁blocked	-12.1243
▁clients	-12.1243
▁chile	-12.1243
▁fruits	-12.1247
▁slid	-12.1249
▁hungarian	-12.1252
▁mick	-12.1252
▁specifically	-12.1252
▁roaring	-12.1254
▁sorted	-12.1255
▁raspberry	-12.1255
▁flashing	-12.1257
organ	-12.1259
▁straighten	-12.126
▁booth	-12.126
hab	-12.1261
▁humanity	-12.1262
▁nic	-12.1264
▁cork	-12.1265
▁punjab	-12.1266
▁traitor	-12.1266
▁kel	-12.127
à	-12.127
begins	-12.127
▁user	-12.127
hra	-12.1272
▁interrupt	-12.1274
▁educational	-12.1275
▁kap	-12.1276
▁streak	-12.1281
▁trolley	-12.1281
▁dimple	-12.1282
▁oi	-12.1282
▁atoms	-12.1282
▁allowance	-12.1283
▁brute	-12.1284
▁bennie	-12.1285
▁dal	-12.1285
▁haut	-12.1291
▁ruins	-12.1292
▁makin	-12.1292
trying	-12.1293
▁kirk	-12.1293
▁picardie	-12.1296
▁corpse	-12.1297
▁cod	-12.1299
▁thor	-12.13
date	-12.1302
▁wider	-12.1305
▁magician	-12.1305
▁ritual	-12.1311
▁swimmer	-12.1312
▁questioning	-12.1314
whining	-12.1314
▁displayed	-12.1319
▁triple	-12.1319
▁successor	-12.132
▁batter	-12.1322
rc	-12.1323
▁approve	-12.1324
▁merrily	-12.1325
▁inspection	-12.1326
▁nathan	-12.1326
kill	-12.1327
▁diagnosed	-12.1327
▁bengal	-12.1328
▁spar	-12.133
zan	-12.1332
▁boil	-12.1332
lied	-12.1332
▁mp	-12.1334
joe	-12.1334
thy	-12.1336
▁participated	-12.1337
osa	-12.134
▁rubbish	-12.134
▁tumble	-12.134
▁theodore	-12.1342
▁entertain	-12.1347
posed	-12.1348
▁typically	-12.1349
▁heath	-12.1349
▁sketch	-12.1352
▁brains	-12.1354
▁neutral	-12.1355
▁2024	-12.1356
▁cement	-12.1358
▁clapping	-12.1358
▁87	-12.1369
▁lovers	-12.1369
▁vale	-12.1369
▁greeting	-12.1369
▁houston	-12.137
▁brigade	-12.137
▁loaf	-12.1371
▁campbell	-12.1371
▁quicker	-12.1371
▁expense	-12.1374
▁industries	-12.1384
▁yoghurt	-12.1384
▁recommendation	-12.1388
▁quest	-12.1391
bil	-12.1391
▁nip	-12.1397
▁bows	-12.1398
▁mow	-12.1399
▁baltimore	-12.1399
▁miguel	-12.1399
▁hydro	-12.1399
▁trader	-12.1403
▁poles	-12.1405
mac	-12.1407
▁grammar	-12.1407
those	-12.1409
▁suggests	-12.1413
▁revenue	-12.1414
▁knocks	-12.1415
▁render	-12.1422
▁dots	-12.1423
▁butler	-12.1423
▁venezuela	-12.1429
▁bomber	-12.1433
engine	-12.1434
▁beak	-12.1434
▁technique	-12.1435
pass	-12.1437
▁2004,	-12.144
▁tents	-12.144
▁rape	-12.1445
kid	-12.1447
▁taps	-12.1447
▁marshal	-12.1449
▁pretends	-12.1449
▁ramp	-12.145
▁groom	-12.1453
▁experiments	-12.1453
mission	-12.1457
arms	-12.1458
▁opportunities	-12.1459
▁amusing	-12.1459
▁mega	-12.146
▁winding	-12.1462
uncle	-12.1462
▁blah	-12.1463
▁buses	-12.1467
▁factors	-12.1468
▁rhodes	-12.1468
▁specially	-12.1468
▁barrels	-12.147
▁ricky	-12.1472
fur	-12.1473
▁scholarship	-12.1474
▁yonder	-12.1474
▁madrid	-12.1475
jim	-12.1477
mis	-12.1477
▁rely	-12.1478
▁gladly	-12.148
▁luggage	-12.1489
▁mortgage	-12.1489
▁nomi	-12.1489
▁emotions	-12.1489
▁therapy	-12.1491
▁backward	-12.1492
▁registered	-12.1494
shore	-12.1495
▁choir	-12.1497
▁thoughtful	-12.1499
▁grub	-12.1502
▁grasped	-12.1503
▁laboratory	-12.1504
nonspeech	-12.1504
▁slipping	-12.1504
▁rugby	-12.1505
▁researcher	-12.1506
▁thoughtfully	-12.1507
ject	-12.1509
▁drums	-12.1514
isation	-12.1514
▁pretended	-12.1516
▁believing	-12.1519
▁hebrew	-12.1519
▁rita	-12.1519
▁kidney	-12.1521
sniffs	-12.1528
▁nicer	-12.1531
▁apollo	-12.1534
▁server	-12.1534
▁wid	-12.1535
▁candidates	-12.1538
▁danish	-12.1538
▁mara	-12.1539
▁fisher	-12.1539
▁inventor	-12.1541
mina	-12.1542
▁jug	-12.1542
▁titan	-12.1543
num	-12.1547
▁pineapple	-12.1549
▁barb	-12.1549
▁beetle	-12.155
▁exile	-12.1551
pc	-12.1553
▁teasing	-12.1555
▁lined	-12.1555
▁gibb	-12.156
▁peck	-12.1561
▁belgian	-12.1564
rol	-12.1564
▁brushing	-12.1564
▁chattering	-12.1567
▁commenced	-12.157
▁beliefs	-12.157
hur	-12.1573
▁parted	-12.1573
▁plunged	-12.1573
ope	-12.1579
pole	-12.1579
▁minimum	-12.1579
▁quantity	-12.1579
▁spectacle	-12.1579
▁champagne	-12.1579
▁employ	-12.158
▁racket	-12.158
▁handful	-12.1581
ente	-12.1583
ume	-12.1583
david	-12.1585
sneezes	-12.1587
▁prevented	-12.159
▁peasants	-12.1592
▁bouncing	-12.1594
▁facility	-12.1594
▁afghanistan	-12.1594
▁concrete	-12.1594
~	-12.1594
▁occasional	-12.1596
▁halted	-12.1598
▁stray	-12.1608
▁devon	-12.1609
▁luxury	-12.1609
▁rebellion	-12.1609
▁rustle	-12.161
wy	-12.1611
▁hardy	-12.1612
▁yankee	-12.1612
▁winners	-12.1614
▁ble	-12.1617
pla	-12.1619
oka	-12.1619
▁stamps	-12.1622
▁wealthy	-12.1623
▁tourist	-12.1624
▁compelled	-12.1624
▁stirred	-12.1625
▁mound	-12.1626
▁conquer	-12.1627
human	-12.163
cade	-12.1632
▁arise	-12.1632
▁dai	-12.1633
uro	-12.1634
▁alter	-12.1637
▁macdonald	-12.1639
▁holmes	-12.164
▁1925	-12.1641
▁fowl	-12.1642
▁concerns	-12.1647
eck	-12.1647
super	-12.1648
▁economics	-12.1649
count	-12.1651
osaurus	-12.1654
oi	-12.1654
▁junction	-12.1655
▁intimate	-12.1655
▁growled	-12.1656
▁gull	-12.1658
correct	-12.1659
wer	-12.1659
ident	-12.1667
▁casting	-12.1668
▁paragraph	-12.167
▁bonds	-12.167
▁sparrow	-12.167
▁coffin	-12.167
▁alarmed	-12.1671
▁2019)	-12.1671
▁uncertain	-12.1672
▁maple	-12.1673
▁pam	-12.1674
▁ransom	-12.168
▁organic	-12.168
▁describes	-12.1682
best	-12.1683
▁divisions	-12.1685
▁advisor	-12.1685
▁infinite	-12.1685
▁cigar	-12.1686
▁fir	-12.1686
▁envy	-12.1686
och	-12.1689
speech	-12.1689
zoe	-12.1695
▁principles	-12.1695
▁arc	-12.1699
▁discussing	-12.17
▁cunning	-12.17
▁hilary	-12.1701
▁sculpture	-12.1701
▁supplied	-12.1701
▁temptation	-12.1701
▁exploit	-12.1701
pic	-12.1701
▁swings	-12.1701
▁poppy	-12.1703
▁adopt	-12.1705
▁succession	-12.1705
rice	-12.1706
▁requested	-12.1706
▁crunch	-12.1709
matt	-12.171
▁concealed	-12.1711
▁77	-12.1711
coo	-12.1713
▁streams	-12.1714
▁birmingham	-12.1716
▁joo	-12.1716
iii	-12.1716
▁wholly	-12.1719
eur	-12.172
▁kor	-12.1723
alpes	-12.1724
▁initially	-12.1725
▁72	-12.1725
said	-12.1729
▁coats	-12.1731
ë	-12.1731
▁brumm	-12.1732
▁popularity	-12.1738
▁dj	-12.174
▁biting	-12.1741
▁1922	-12.1747
▁£	-12.175
▁anthem	-12.1751
▁sep	-12.1751
▁sentenced	-12.1752
▁detailed	-12.1754
▁highland	-12.176
▁cleveland	-12.1762
▁safer	-12.1762
▁paralympics	-12.1764
list	-12.1765
▁tutor	-12.1765
▁gleam	-12.1766
▁ellis	-12.1769
natured	-12.1771
grunting	-12.1772
omi	-12.1772
▁historian	-12.1775
▁stored	-12.1776
▁garbage	-12.1778
issa	-12.1778
▁laurie	-12.1778
"--	-12.178
▁newton	-12.1781
▁pulse	-12.1781
▁hoover	-12.1781
▁requires	-12.1782
▁organizations	-12.1788
march	-12.1792
▁hudson	-12.1793
nin	-12.1796
▁keeper	-12.1802
▁shrill	-12.1802
▁mai	-12.1803
▁towers	-12.1807
▁vicar	-12.1807
▁automatic	-12.1808
▁demonstration	-12.1808
▁endeavour	-12.1808
▁extensive	-12.1808
▁implement	-12.1808
▁tattoo	-12.1808
nah	-12.1808
moo	-12.1809
▁lanka	-12.1809
▁2002.	-12.1812
▁skiing	-12.1816
▁dime	-12.1818
vent	-12.1822
▁cabbage	-12.1824
▁resemble	-12.1824
▁pont	-12.1826
▁mul	-12.1826
▁whining	-12.1827
▁86	-12.183
▁tasted	-12.1831
▁rim	-12.1836
▁sour	-12.1836
▁efficient	-12.1839
▁partnership	-12.1841
▁trips	-12.1843
▁adapted	-12.1847
▁ref	-12.1848
iki	-12.185
▁observer	-12.1851
▁glu	-12.1854
▁agriculture	-12.1855
▁certificate	-12.1855
▁protestant	-12.1856
▁1918	-12.1856
reading	-12.1857
▁sunk	-12.1857
▁mort	-12.1858
▁hurrying	-12.1858
▁reel	-12.1858
▁yama	-12.1861
▁recovery	-12.1864
▁ella	-12.1864
▁misfortune	-12.187
▁handling	-12.1871
▁squadron	-12.1871
zin	-12.1871
▁presentation	-12.1871
▁shawn	-12.1874
▁nay	-12.188
▁priests	-12.1881
▁hae	-12.1882
▁sealed	-12.1882
▁artillery	-12.1886
▁continuing	-12.1887
▁saxon	-12.1888
▁deliberately	-12.1889
▁odds	-12.189
▁garments	-12.189
▁sunlight	-12.1892
▁tanks	-12.1892
body	-12.1893
▁brooks	-12.1894
▁flowing	-12.1895
▁strongest	-12.1899
▁playin	-12.1899
▁hitch	-12.1899
▁battalion	-12.1901
▁cyclone	-12.1902
▁stain	-12.1903
$	-12.1905
urg	-12.1913
▁[14	-12.1916
▁shaw	-12.1916
▁hunted	-12.1917
▁terrified	-12.1917
▁caleb	-12.1917
▁diving	-12.1919
ask	-12.1919
▁41	-12.1921
▁applications	-12.1922
▁bait	-12.1922
hear	-12.1924
▁malaysia	-12.1924
▁whence	-12.1927
kha	-12.1931
▁hymn	-12.1933
▁misery	-12.1934
▁bats	-12.1934
▁cancel	-12.1935
▁lau	-12.1937
▁mod	-12.1938
▁ferr	-12.194
▁mann	-12.1942
▁ohh	-12.1945
▁comparison	-12.1948
▁determination	-12.1948
▁henderson	-12.1948
▁plague	-12.1949
▁loyalty	-12.195
▁swallowed	-12.1955
kk	-12.1963
▁83	-12.1964
▁melbourne	-12.1964
▁idaho	-12.1964
lag	-12.1966
▁liking	-12.1966
dam	-12.1967
▁soo	-12.1968
link	-12.197
removes	-12.1971
sub	-12.1972
▁chad	-12.1976
soft	-12.1978
▁ants	-12.1978
▁beats	-12.1979
▁municipal	-12.1979
▁aggressive	-12.198
▁fundamental	-12.198
▁explosive	-12.198
▁southwestern	-12.1981
ić	-12.1981
▁syria	-12.1985
▁purchased	-12.1989
▁boiled	-12.1991
▁gui	-12.1992
▁pose	-12.1993
▁smashed	-12.1993
▁occupy	-12.1996
▁orthodox	-12.1996
▁1924	-12.1997
▁quoth	-12.1998
children	-12.2002
▁noah	-12.2004
▁screamed	-12.2005
ending	-12.2005
▁sleeves	-12.2006
▁kneel	-12.2007
▁territories	-12.2011
▁liquor	-12.2011
make	-12.2014
chair	-12.2016
▁elm	-12.2016
fine	-12.2017
▁rifles	-12.202
▁prints	-12.202
▁nova	-12.2021
▁bough	-12.2021
▁psycho	-12.2023
▁chuckled	-12.2024
▁indigenous	-12.2027
▁survival	-12.2027
▁ripe	-12.2027
▁bluff	-12.2028
itis	-12.2029
▁praised	-12.203
▁generations	-12.203
rne	-12.2032
▁bombing	-12.2034
rud	-12.2034
▁(3	-12.2039
▁greet	-12.2039
▁(17	-12.204
▁primarily	-12.2043
▁torpedo	-12.2043
uda	-12.2043
▁nottingham	-12.2043
▁88	-12.2047
▁intent	-12.2048
▁crest	-12.2048
eye	-12.2048
▁nam	-12.2049
▁onward	-12.205
://	-12.2052
brown	-12.2054
▁outta	-12.2056
bia	-12.2058
č	-12.2059
▁welfare	-12.2059
▁qualities	-12.2059
▁bryan	-12.2059
▁dealt	-12.206
▁grocery	-12.2062
▁rib	-12.2063
▁wrath	-12.2063
listen	-12.2064
second	-12.2064
▁crops	-12.2065
▁longed	-12.2066
▁resulted	-12.2067
▁deedee	-12.2075
▁1923	-12.2076
▁justin	-12.2078
crayon	-12.208
▁squat	-12.2081
aff	-12.2083
▁vow	-12.209
▁murphy	-12.2091
▁torment	-12.2091
▁muddy	-12.2092
▁crank	-12.2097
▁twig	-12.2098
▁altitude	-12.2107
▁inquiry	-12.2107
▁forbid	-12.2108
rub	-12.2111
▁channels	-12.2111
▁pol	-12.2112
▁protests	-12.2114
▁grandson	-12.2115
jar	-12.2116
▁♪♪	-12.2117
▁46	-12.2118
▁82	-12.2119
▁dvd	-12.2123
▁floated	-12.2124
▁accidentally	-12.2125
color	-12.2126
▁stroll	-12.2132
▁photographer	-12.2134
▁harp	-12.2134
▁businesses	-12.2137
▁disagree	-12.2137
▁extension	-12.2138
▁manhattan	-12.2138
▁garrison	-12.2138
every	-12.2141
▁scorn	-12.2142
lah	-12.2144
9.	-12.2146
▁dislike	-12.2148
▁heights	-12.2149
▁johann	-12.2151
▁kilometers	-12.2154
▁taiwan	-12.2155
▁munich	-12.2155
▁serial	-12.2155
▁cheat	-12.2157
craft	-12.2158
▁bam	-12.216
cro	-12.216
▁diseases	-12.2161
▁consisted	-12.2161
von	-12.2161
▁dwell	-12.2163
▁ost	-12.2166
flo	-12.2169
ural	-12.2171
ppen	-12.2172
▁somme	-12.2172
▁marco	-12.2173
▁dearest	-12.2173
▁diesel	-12.2173
▁preach	-12.2174
▁vel	-12.2177
joy	-12.2182
choo	-12.2182
▁puerto	-12.2186
▁selena	-12.2187
▁veil	-12.2187
▁commitment	-12.2187
▁livingston	-12.2188
▁deeds	-12.2192
▁rates	-12.2193
▁studios	-12.2194
feld	-12.2195
▁demands	-12.2196
▁depart	-12.2197
▁hub	-12.2202
▁titled	-12.2202
▁broccoli	-12.2203
▁leicester	-12.2203
max	-12.2204
spect	-12.2207
▁harness	-12.2207
▁aroused	-12.2207
▁adjust	-12.2209
▁floss	-12.221
▁mak	-12.221
▁milli	-12.2212
▁sovereign	-12.2218
▁massacre	-12.2219
▁coughing	-12.2219
▁dragging	-12.2219
action	-12.222
▁exhibit	-12.2222
▁guitarist	-12.2222
▁honored	-12.2223
▁armor	-12.2228
);	-12.2229
deb	-12.223
ega	-12.2234
▁marc	-12.2234
▁devotion	-12.2235
▁syllable	-12.2235
▁compass	-12.2235
▁tweet	-12.2235
▁shrink	-12.2235
▁unfair	-12.2236
▁boundary	-12.2237
▁needles	-12.2238
▁rejoined	-12.2239
keeper	-12.2242
really	-12.2245
fight	-12.2245
▁burp	-12.2245
▁indonesia	-12.2247
▁tenant	-12.2249
▁arguing	-12.2251
▁tumbled	-12.2251
▁collapse	-12.2252
▁tornado	-12.2252
-6	-12.2254
▁97	-12.2255
▁wretched	-12.2256
▁artistic	-12.2257
▁teenager	-12.2261
▁attending	-12.2266
central	-12.2266
▁perfume	-12.2267
▁wardrobe	-12.2267
▁measuring	-12.2267
▁slate	-12.2267
▁gloria	-12.2268
▁lounge	-12.2268
▁secretly	-12.2268
▁pomp	-12.2269
than	-12.2272
▁savages	-12.2272
▁cocoa	-12.2273
▁locker	-12.2273
▁classroom	-12.2274
▁accurate	-12.2277
▁habits	-12.2283
▁serpent	-12.2283
▁colonial	-12.2284
lene	-12.2287
▁cube	-12.2288
while	-12.2291
▁abbot	-12.23
▁trophy	-12.23
400	-12.23
▁handled	-12.2303
wheel	-12.2305
enburg	-12.2308
▁lastname	-12.2309
▁molecules	-12.2314
▁bis	-12.2314
▁sip	-12.2314
▁begging	-12.2316
inch	-12.2319
▁freeman	-12.232
▁edinburgh	-12.2321
▁convey	-12.2322
▁crawled	-12.2323
▁ober	-12.2324
▁songwriter	-12.2326
▁drown	-12.2328
▁wildly	-12.2329
▁ignorant	-12.2332
▁oatmeal	-12.2332
▁substitute	-12.2332
▁kidnapped	-12.2332
walks	-12.2333
▁sham	-12.2337
▁furnished	-12.234
▁lent	-12.2345
▁manual	-12.235
▁freud	-12.235
▁bradley	-12.235
▁highchair	-12.235
block	-12.2352
▁conceal	-12.2354
▁expenses	-12.236
▁scratched	-12.236
▁jesse	-12.236
▁travels	-12.236
▁argued	-12.2361
live	-12.2363
▁desperately	-12.2364
hee	-12.2365
▁gervaise	-12.2365
▁vase	-12.2365
▁falcon	-12.2365
draws	-12.2368
fan	-12.237
▁xxv	-12.2372
▁ragged	-12.2375
▁cheating	-12.2378
ière	-12.2378
into	-12.2378
▁glancing	-12.2381
▁montreal	-12.2381
▁fortress	-12.2381
▁lumber	-12.2382
▁flint	-12.2383
▁adrian	-12.2384
▁lava	-12.2384
▁choc	-12.2387
anti	-12.2387
▁dc	-12.239
▁ropes	-12.239
▁strictly	-12.239
▁prick	-12.2394
▁sac	-12.2396
▁thieves	-12.2398
▁inspiration	-12.2398
▁bennett	-12.2399
dg	-12.2404
▁phoned	-12.2404
▁removes	-12.2408
▁designs	-12.241
▁2001,	-12.2411
▁lighting	-12.2411
▁crawford	-12.2414
▁deserved	-12.2414
▁thump	-12.2414
▁uni	-12.242
▁clasped	-12.2422
rail	-12.2423
▁township	-12.2424
▁slides	-12.2425
▁clinic	-12.2427
▁bitterly	-12.2427
uma	-12.2428
▁kr	-12.243
▁hoof	-12.243
▁casual	-12.243
▁ties	-12.2431
▁verses	-12.2431
▁maps	-12.2432
▁charley	-12.2432
▁martial	-12.2433
▁restore	-12.2435
▁maintained	-12.2435
▁pipes	-12.2437
thou	-12.2439
▁demo	-12.2439
▁tires	-12.2441
▁restrict	-12.2441
▁hostile	-12.2448
▁munch	-12.245
gmo	-12.2458
haired	-12.2459
▁unclear	-12.2462
▁rah	-12.2462
▁conspiracy	-12.2463
▁warehouse	-12.2463
▁density	-12.2464
▁theories	-12.2465
rot	-12.2473
pea	-12.2477
dict	-12.2479
aria	-12.248
▁equivalent	-12.248
▁mammals	-12.248
▁brutal	-12.2481
▁retorted	-12.2482
▁christine	-12.2484
gene	-12.2485
▁toxic	-12.2487
▁bran	-12.2488
wen	-12.249
▁grill	-12.2492
▁brightly	-12.2494
▁treasures	-12.2495
▁hens	-12.2496
▁minnie	-12.2497
▁bothering	-12.2498
▁tension	-12.2498
▁fewer	-12.2499
▁volunteer	-12.25
▁wrench	-12.25
▁seize	-12.2503
cru	-12.2504
▁stretching	-12.2505
adi	-12.2506
▁commented	-12.2508
▁messed	-12.2508
▁81	-12.2508
▁1000	-12.251
▁judges	-12.2511
green	-12.2512
▁corporal	-12.2513
▁rehearsal	-12.2513
▁randall	-12.2513
▁biological	-12.2514
▁bravo	-12.2515
pretend	-12.2518
▁electrons	-12.2521
▁89	-12.2521
ffer	-12.2522
mun	-12.2523
cate	-12.2525
flower	-12.2525
▁gobble	-12.2528
▁trim	-12.2528
▁hawaii	-12.2528
▁congressional	-12.253
▁manuscript	-12.253
▁reckless	-12.253
▁saints	-12.253
rose	-12.2533
▁petr	-12.2535
▁windy	-12.2535
udi	-12.2536
▁chant	-12.2536
berry	-12.2537
▁champ	-12.2544
▁variation	-12.2546
▁fade	-12.2547
▁jewelry	-12.2547
▁index	-12.2548
▁pocketbook	-12.2548
▁gir	-12.2549
▁breach	-12.2549
mee	-12.255
kle	-12.255
▁graves	-12.2552
▁communications	-12.2553
▁devi	-12.2554
♪	-12.2559
past	-12.256
dging	-12.2563
▁kipper	-12.2564
▁cigarettes	-12.2565
▁abra	-12.2565
▁pupil	-12.2566
▁pasture	-12.2566
▁crooked	-12.2569
▁luis	-12.257
▁stella	-12.2571
▁countryside	-12.2572
▁robber	-12.2573
▁rendered	-12.2575
▁pittsburgh	-12.258
▁lettice	-12.258
▁gender	-12.2581
▁halfway	-12.2582
fast	-12.2583
▁furry	-12.2584
▁risen	-12.2588
▁reject	-12.2588
▁connor	-12.259
▁guilt	-12.259
drop	-12.2591
▁maya	-12.2593
bab	-12.2593
▁piled	-12.2594
▁carson	-12.2596
▁squirt	-12.2596
▁bosom	-12.2596
▁creative	-12.2597
▁decade	-12.2599
▁finishes	-12.26
ograph	-12.2603
▁agony	-12.2604
bang	-12.2605
▁contented	-12.2605
▁owing	-12.2608
cen	-12.2609
▁lookout	-12.261
▁levi	-12.261
▁prizes	-12.2613
▁component	-12.2613
▁amazon	-12.2613
bill	-12.2617
#	-12.2618
▁proudly	-12.2623
▁tuck	-12.2625
▁[.7	-12.2625
▁genre	-12.2627
grade	-12.2631
coat	-12.2631
▁grease	-12.2632
▁gh	-12.2632
▁knob	-12.2632
▁slap	-12.2632
▁kula	-12.2632
▁masses	-12.2633
oa	-12.2636
borough	-12.2636
▁convicted	-12.2638
▁absorbed	-12.264
▁coil	-12.264
hah	-12.2643
▁farming	-12.2645
thanks	-12.2646
▁pretzel	-12.2647
▁margin	-12.2653
another	-12.2657
▁crumbs	-12.2657
▁arrives	-12.2658
▁wallet	-12.266
agh	-12.2666
▁dev	-12.2667
suit	-12.2668
▁(_	-12.267
cken	-12.2673
▁ivy	-12.2674
▁mixing	-12.2677
▁sufficiently	-12.2677
▁organize	-12.2677
▁waiter	-12.2678
fact	-12.2679
▁kittens	-12.268
▁deb	-12.268
▁buggy	-12.2681
ckle	-12.2685
▁messing	-12.2686
▁frown	-12.2687
agi	-12.2687
▁erect	-12.2689
▁constructed	-12.269
▁curiously	-12.269
▁welcomed	-12.2692
▁woody	-12.2694
▁howl	-12.2696
▁ribbit	-12.2697
▁stare	-12.2698
▁1919	-12.2699
▁medication	-12.2699
▁melted	-12.27
▁isabelle	-12.2702
road	-12.2704
▁kip	-12.2707
▁summoned	-12.2711
rou	-12.2713
▁sprinkle	-12.2714
▁consistent	-12.2714
▁ronnie	-12.2715
▁gospel	-12.2715
▁cheerio	-12.2715
▁faded	-12.2715
gold	-12.2717
▁jaws	-12.2718
kissing	-12.2718
▁scarce	-12.2719
▁51	-12.2721
▁wick	-12.2722
▁99	-12.2723
true	-12.2724
▁scholars	-12.2724
▁baking	-12.2724
▁coincidence	-12.2731
▁qualification	-12.2731
▁yawn	-12.2731
▁consultation	-12.2732
▁neo	-12.2734
▁tug	-12.2737
▁bul	-12.2739
▁fishes	-12.2744
▁tum	-12.2748
▁relationships	-12.2748
▁feller	-12.2748
▁fancied	-12.2748
▁guidance	-12.2748
▁conquest	-12.2748
▁steward	-12.275
ère	-12.275
▁closest	-12.2755
▁grover	-12.2755
▁broadcasting	-12.2762
▁plo	-12.2763
▁glee	-12.2767
▁bowling	-12.2768
▁tense	-12.2768
▁turtles	-12.2768
▁jock	-12.2769
▁explaining	-12.277
▁flora	-12.277
▁slippery	-12.2771
▁baskets	-12.2771
▁volumes	-12.2771
rge	-12.2773
▁undo	-12.2774
▁perish	-12.2775
▁uhhum	-12.2775
▁lever	-12.2777
▁condo	-12.2779
▁warmly	-12.278
▁declaration	-12.2782
▁strategic	-12.2782
▁vermont	-12.2783
eli	-12.2784
▁altar	-12.2784
vic	-12.2785
related	-12.2789
ety	-12.2794
▁sins	-12.2798
▁likewise	-12.2799
phil	-12.2801
▁thrill	-12.2802
mini	-12.2802
▁exceedingly	-12.2802
cake	-12.2803
zel	-12.2803
▁darted	-12.2803
odo	-12.2803
eff	-12.2804
▁kon	-12.2804
▁indiana	-12.2806
care	-12.2808
▁strikes	-12.2808
proof	-12.2809
▁weeping	-12.281
paper	-12.2811
ania	-12.2811
▁sections	-12.2812
▁wept	-12.2813
▁almighty	-12.2816
▁quebec	-12.2816
▁bouncy	-12.2816
igan	-12.2817
▁personnel	-12.2818
▁lola	-12.2819
▁detect	-12.282
▁athletic	-12.2821
▁clutch	-12.2823
▁mates	-12.2824
▁woe	-12.2825
▁whe	-12.2827
▁rejected	-12.2827
▁paula	-12.2827
maid	-12.2833
▁comfortably	-12.2834
▁interaction	-12.2835
▁pilgrim	-12.2836
▁tame	-12.2839
discards	-12.2845
▁novels	-12.2846
▁heel	-12.2847
/2	-12.2847
fulness	-12.2849
▁fugitive	-12.2851
▁kneeling	-12.2851
zzo	-12.2851
▁1921	-12.2852
▁parting	-12.2856
▁instruction	-12.2857
dorf	-12.2858
▁henri	-12.2859
▁managing	-12.286
▁seaman	-12.2861
▁colon	-12.2863
card	-12.2864
abe	-12.2864
▁sche	-12.2868
itu	-12.2869
▁classified	-12.2871
▁quo	-12.2872
▁84	-12.2873
▁pumpkins	-12.2874
▁athlete	-12.2874
▁crop	-12.2877
▁repeating	-12.2877
lake	-12.2878
▁sharon	-12.2882
▁vault	-12.2886
▁92	-12.2886
▁elite	-12.2891
uan	-12.2901
▁sentiment	-12.2902
▁phoenix	-12.2902
▁singular	-12.2904
▁profound	-12.2904
▁voting	-12.2904
▁failing	-12.2907
▁strangely	-12.2907
▁gy	-12.2909
▁prayed	-12.291
▁distinctly	-12.2911
▁emerged	-12.2912
▁brushed	-12.2916
▁considerably	-12.2921
▁attendant	-12.2921
▁pingu	-12.2924
▁archive	-12.2924
▁tribute	-12.2924
▁snatch	-12.2926
▁depths	-12.2926
▁moderate	-12.2928
▁legends	-12.2932
▁darker	-12.2932
▁willow	-12.2933
ár	-12.2936
▁clump	-12.2937
▁substantial	-12.2937
▁guild	-12.2937
▁attach	-12.2938
▁measurement	-12.2939
▁quaint	-12.294
▁aran	-12.294
mind	-12.2941
▁blonde	-12.2942
▁nile	-12.2943
por	-12.2945
▁brun	-12.2945
▁temples	-12.2946
----	-12.2951
▁spl	-12.2953
▁twelfth	-12.2954
▁unbelievable	-12.2954
▁remainder	-12.2957
▁hin	-12.2957
verse	-12.2957
▁fluffy	-12.2958
imp	-12.296
▁zach	-12.2961
better	-12.2963
shell	-12.2963
ril	-12.2967
mil	-12.2967
▁heck	-12.2968
▁caribbean	-12.2972
▁quantum	-12.2972
▁vampire	-12.2972
▁circular	-12.2972
▁dre	-12.2972
▁bidding	-12.2973
▁performances	-12.2973
▁conviction	-12.2973
▁plums	-12.2974
kl	-12.2976
▁otto	-12.2976
demonstrates	-12.2979
▁solemnly	-12.2982
▁particle	-12.2982
▁fenn	-12.2986
▁listing	-12.2987
▁57	-12.2988
▁watermelon	-12.2989
▁depressed	-12.2989
front	-12.2989
▁complaint	-12.2989
▁tess	-12.2992
)"	-12.2992
lac	-12.2997
▁characteristics	-12.2997
▁megan	-12.3004
▁indulge	-12.3006
▁salzburg	-12.3006
▁twww	-12.301
▁trainer	-12.3011
▁liv	-12.3013
▁bruin	-12.3015
▁cau	-12.3015
▁continuous	-12.3018
▁murmur	-12.302
ook	-12.3022
▁downward	-12.3023
▁immortal	-12.3024
▁mohammed	-12.3024
▁promising	-12.3024
▁whereupon	-12.3024
▁cromer	-12.3025
▁complications	-12.3025
▁gwen	-12.3025
didn	-12.3032
▁moan	-12.3032
▁seaside	-12.3033
▁xii	-12.3035
▁lev	-12.3036
▁crawls	-12.3036
shima	-12.3038
▁duchess	-12.3041
▁porridge	-12.3041
▁cruiser	-12.3042
▁grunting	-12.3043
▁pow	-12.305
rton	-12.3052
▁79	-12.3053
▁sped	-12.3053
knock	-12.3055
▁ahh	-12.3058
▁chemist	-12.3058
▁resent	-12.3059
▁onion	-12.3059
▁reverend	-12.3059
▁luncheon	-12.3059
▁cruz	-12.3059
▁gasps	-12.3059
▁ras	-12.3059
lady	-12.306
▁scores	-12.306
▁array	-12.306
▁awright	-12.306
july	-12.3061
mile	-12.3062
▁slay	-12.3064
▁fraud	-12.3065
yawns	-12.3067
camp	-12.3068
▁harmon	-12.3068
▁bravely	-12.3069
▁mol	-12.307
▁marcia	-12.3071
▁settlements	-12.3071
▁vera	-12.3076
▁teletubbies	-12.3076
▁zipper	-12.3078
▁glowing	-12.308
▁respectable	-12.3082
investigator	-12.3083
▁caution	-12.3083
heart	-12.3085
▁pep	-12.3087
▁trials	-12.3091
▁bulb	-12.3091
▁vor	-12.3093
nova	-12.3094
▁freddy	-12.3097
certainly	-12.3098
▁dumped	-12.3099
▁define	-12.31
▁fighters	-12.31
ifer	-12.31
▁acc	-12.3104
birds	-12.3104
stairs	-12.3105
▁bil	-12.3105
▁raced	-12.3108
▁announce	-12.3109
▁engineers	-12.311
once	-12.3111
▁submit	-12.3111
▁montgomery	-12.3112
▁rosamund	-12.3112
▁misunderstand	-12.3112
▁vegas	-12.3112
▁pledge	-12.3112
▁54	-12.3115
lord	-12.312
▁armenia	-12.3125
▁dil	-12.3126
lier	-12.3129
▁hedgehog	-12.3129
▁apology	-12.3129
▁banned	-12.313
▁arctic	-12.313
▁persuaded	-12.3131
▁pierce	-12.3132
ibility	-12.3133
▁rite	-12.3135
claps	-12.3136
songwriter	-12.3136
smith	-12.3138
▁78	-12.3143
cl	-12.3146
▁leopard	-12.3147
pound	-12.3147
▁curtis	-12.3149
▁demons	-12.3149
▁sup	-12.315
▁partially	-12.3153
kir	-12.3155
▁weston	-12.3156
iri	-12.3157
▁fasten	-12.3157
▁buckle	-12.3159
▁saga	-12.316
▁nigeria	-12.316
▁eth	-12.3162
▁ego	-12.3162
isa	-12.3162
▁creeping	-12.3163
▁dup	-12.3164
▁defendant	-12.3166
cular	-12.3166
▁cliffs	-12.3169
▁piglet	-12.317
▁suggesting	-12.317
▁darn	-12.3172
▁mainland	-12.3178
▁recommended	-12.3181
tier	-12.3184
▁playstation	-12.3187
▁controller	-12.3187
cum	-12.3189
▁hurriedly	-12.3189
▁warden	-12.3191
▁missy	-12.3191
▁eun	-12.3192
rai	-12.3198
mul	-12.3198
▁funding	-12.3199
step	-12.3201
▁inspect	-12.3201
▁1917	-12.3201
▁finn	-12.3205
▁terra	-12.3205
present	-12.3206
▁impatiently	-12.3207
arch	-12.321
▁threats	-12.321
▁91	-12.3215
▁whoosh	-12.3216
uli	-12.3216
▁squirrels	-12.3217
agon	-12.3218
▁compromise	-12.3218
▁congratulate	-12.3218
▁patricia	-12.3218
▁sesame	-12.3218
▁kil	-12.3219
lash	-12.3222
fil	-12.3229
▁quad	-12.3231
▁mcdonald	-12.3232
▁produces	-12.3233
gia	-12.3233
▁converted	-12.3234
▁hardest	-12.3234
▁barcelona	-12.3236
▁clicks	-12.3236
▁lolly	-12.3236
▁burrow	-12.3236
▁neigh	-12.3237
▁makeup	-12.3238
umi	-12.3241
screen	-12.3243
▁sweeties	-12.3245
▁ironing	-12.3249
▁xiv	-12.3249
▁bind	-12.3251
▁10,000	-12.3252
▁kw	-12.3252
much	-12.3252
▁suck	-12.3252
▁dainty	-12.3254
▁lyn	-12.3254
▁rex	-12.3254
▁stacker	-12.3255
▁disposition	-12.3255
▁insect	-12.3256
▁hopped	-12.3257
▁teaches	-12.3259
etta	-12.326
lish	-12.3263
▁bathing	-12.3267
▁hoarse	-12.3271
▁passionate	-12.3273
rl	-12.3281
▁corr	-12.3281
▁coughs	-12.3282
▁wad	-12.3285
▁tortoise	-12.3289
▁joshua	-12.3289
▁transition	-12.329
▁jas	-12.3292
▁georgie	-12.3292
▁audio	-12.3293
▁slaughter	-12.3294
▁mint	-12.3296
▁66	-12.3301
▁muck	-12.3302
▁swap	-12.3302
▁tae	-12.3304
▁presume	-12.3307
▁clues	-12.3308
▁warmth	-12.3308
▁plough	-12.3308
▁biology	-12.3308
▁carved	-12.3309
010	-12.331
dial	-12.3311
▁partial	-12.3316
▁cub	-12.3316
▁witches	-12.3317
▁disgust	-12.3321
▁yale	-12.3322
▁noodles	-12.3322
▁baggage	-12.3325
▁calculation	-12.3325
▁defensive	-12.3325
▁pyramid	-12.3325
▁mutual	-12.3325
ifying	-12.3326
▁pup	-12.3328
rh	-12.3329
▁93	-12.3334
▁defending	-12.3335
▁allied	-12.3335
▁clar	-12.3344
▁tempted	-12.3344
▁tisha	-12.3346
▁subway	-12.3347
▁spies	-12.3349
▁bout	-12.3349
▁charter	-12.335
▁holder	-12.3351
▁clad	-12.3355
▁tearing	-12.3355
chants	-12.3361
▁deserves	-12.3364
▁superman	-12.3364
▁tit	-12.3365
▁provision	-12.3367
▁enjoyment	-12.3368
▁bonus	-12.337
tropic	-12.3373
▁echoed	-12.3377
▁warmer	-12.3379
▁intake	-12.3379
later	-12.3382
rb	-12.3382
▁engage	-12.3382
▁settlers	-12.3382
▁reserved	-12.3382
▁morrow	-12.3384
national	-12.3384
south	-12.3392
▁scheduled	-12.3393
▁grunts	-12.3396
▁constellation	-12.3398
▁kathryn	-12.3398
▁pharaoh	-12.3398
▁ashley	-12.34
▁chemicals	-12.34
ctic	-12.3401
▁76	-12.3402
cock	-12.3404
▁tourists	-12.3405
▁publishing	-12.3406
▁marrying	-12.3406
rop	-12.3406
lessness	-12.3411
▁conn	-12.3411
▁cmon	-12.3414
▁[.6	-12.3414
▁shoo	-12.3415
▁primitive	-12.3416
▁shampoo	-12.3416
▁gossip	-12.3416
▁creator	-12.3416
▁doris	-12.3417
▁derwood	-12.3417
▁dillon	-12.3417
▁delhi	-12.3417
▁tipped	-12.3418
▁hike	-12.3418
▁pah	-12.3418
▁nell	-12.3424
▁youtube	-12.3425
quite	-12.3431
▁budd	-12.3432
▁initiative	-12.3434
▁cindy	-12.3434
▁essex	-12.3434
▁diameter	-12.3434
▁morrison	-12.3436
▁kai	-12.3436
▁addressing	-12.3438
▁collie	-12.3441
december	-12.3441
▁pickles	-12.3443
▁lark	-12.3443
▁cob	-12.3446
▁xvi	-12.3446
▁harmless	-12.3447
span	-12.345
▁retrieve	-12.3452
▁revolt	-12.3452
▁cyril	-12.3452
▁trauma	-12.3452
▁drummer	-12.3453
▁employee	-12.3453
▁involve	-12.3455
▁workshop	-12.3457
▁respected	-12.3458
▁aimed	-12.3458
▁litter	-12.3458
▁marty	-12.3459
sometimes	-12.346
,500	-12.3462
▁traces	-12.3462
weight	-12.3466
▁structures	-12.3469
▁coaches	-12.347
▁legislative	-12.347
▁toothpaste	-12.347
▁undoubtedly	-12.347
▁superintendent	-12.347
nee	-12.3471
▁gabriella	-12.3472
force	-12.3473
▁embarrassing	-12.3474
▁patent	-12.3475
change	-12.3477
▁intently	-12.3477
▁bub	-12.3482
must	-12.3482
▁pm	-12.3483
▁violently	-12.3484
▁brett	-12.3488
▁crimson	-12.3489
▁hippopotamus	-12.3489
▁humpty	-12.3489
half	-12.349
▁billboard	-12.349
▁seattle	-12.3492
▁airline	-12.3493
▁turner	-12.3494
▁mature	-12.3495
▁zen	-12.3503
▁untie	-12.3503
iver	-12.3504
▁glasgow	-12.3507
▁ketchup	-12.3507
cop	-12.3508
▁1,000	-12.3509
▁coax	-12.3509
▁glare	-12.3509
▁traveler	-12.3509
▁corrected	-12.3511
▁hog	-12.3513
scott	-12.3518
ended	-12.352
▁bertie	-12.3523
▁plymouth	-12.3525
▁ukrainian	-12.3525
▁worries	-12.3525
▁vivid	-12.3526
▁pillar	-12.3526
▁luckily	-12.3527
▁advertise	-12.3528
▁buh	-12.3533
▁announcer	-12.3534
raw	-12.3537
▁growling	-12.3539
▁colt	-12.354
▁shooter	-12.3541
▁coloured	-12.3541
||5	-12.3542
▁icing	-12.3543
▁heavier	-12.3544
▁puddle	-12.3544
▁ladders	-12.3544
▁sunrise	-12.3545
▁knit	-12.3546
▁trash	-12.3547
oro	-12.3547
▁carr	-12.3547
▁representation	-12.355
▁ry	-12.355
▁membership	-12.355
▁skies	-12.3551
▁calculated	-12.3552
▁essentially	-12.3553
▁mare	-12.3554
▁lofty	-12.3556
▁blink	-12.356
▁commonwealth	-12.3562
▁referee	-12.3564
brook	-12.3571
▁routes	-12.3572
▁awakened	-12.3572
▁peer	-12.3573
▁curls	-12.3574
▁doh	-12.3576
▁onions	-12.3578
▁treating	-12.358
▁fragments	-12.3581
▁probable	-12.3581
chel	-12.3586
▁recognise	-12.3587
▁transform	-12.3587
▁gaining	-12.3589
▁cooker	-12.3589
hou	-12.359
▁sentences	-12.359
▁canoes	-12.3592
▁naw	-12.3594
▁complaining	-12.3598
▁slumber	-12.3599
ée	-12.3601
▁resolve	-12.3602
▁raisins	-12.3605
▁willard	-12.3606
mid	-12.3606
august	-12.3607
third	-12.3607
relative	-12.3607
▁roused	-12.3607
▁tel	-12.3608
nette	-12.361
▁68	-12.3612
iron	-12.3613
▁fletcher	-12.3618
▁ven	-12.3618
▁export	-12.3619
stadt	-12.362
▁recalled	-12.3627
phe	-12.3628
▁graph	-12.3628
▁assignment	-12.3636
▁orchard	-12.3636
twas	-12.3637
ech	-12.3638
▁cafe	-12.3643
▁trembled	-12.3647
▁amsterdam	-12.3655
▁encouraging	-12.3655
▁stunt	-12.3655
▁audition	-12.3656
▁cia	-12.3656
▁tut	-12.3657
▁removing	-12.3659
▁ceo	-12.3659
▁ruling	-12.366
▁threaten	-12.366
neighbor	-12.3662
▁barge	-12.3663
▁wrestle	-12.3664
yells	-12.3664
▁dice	-12.3665
▁thirst	-12.3667
▁cran	-12.367
▁advancing	-12.3673
▁intellectual	-12.3673
▁74	-12.3674
▁offence	-12.3675
race	-12.3675
▁dew	-12.3676
cord	-12.3676
bot	-12.3678
▁tract	-12.368
january	-12.3681
▁decorated	-12.3682
hawk	-12.3687
▁cf	-12.3689
▁acres	-12.3691
▁situated	-12.3692
▁dexter	-12.3692
▁identical	-12.3692
▁jamaica	-12.3692
▁griffin	-12.3692
▁columbus	-12.3692
▁pebble	-12.3693
ego	-12.3693
▁hyun	-12.3693
_1	-12.3694
▁percentage	-12.3695
▁hesitate	-12.3695
nick	-12.3698
astic	-12.3699
▁absorb	-12.37
linda	-12.3701
▁snort	-12.3702
inter	-12.3703
▁lone	-12.3703
▁neatly	-12.3703
▁exc	-12.3704
isha	-12.3707
▁yells	-12.3708
▁reproach	-12.3711
▁mitchell	-12.3711
▁53	-12.3711
▁proposition	-12.3711
▁wiggle	-12.3711
▁documentary	-12.3712
▁hwww	-12.3712
▁abruptly	-12.3713
▁shawl	-12.3713
▁savings	-12.3715
minded	-12.3717
uka	-12.3718
zed	-12.3718
▁traditions	-12.372
ür	-12.3721
▁underwater	-12.3721
▁concerts	-12.3724
▁regulations	-12.3725
qual	-12.3725
hil	-12.3726
▁conc	-12.3726
▁renew	-12.3727
▁sv	-12.3729
▁cult	-12.3729
▁stubborn	-12.3729
▁♫	-12.373
▁ruby	-12.3731
▁urge	-12.3732
▁spared	-12.3739
▁awaiting	-12.3741
-17	-12.3741
asa	-12.3743
▁hab	-12.3743
▁options	-12.3744
vision	-12.3745
station	-12.3745
uel	-12.3747
▁dusty	-12.3748
▁endeavor	-12.3748
▁provincial	-12.3748
▁rwww	-12.375
▁dated	-12.375
fr	-12.3751
▁leeds	-12.3754
mw	-12.3757
pul	-12.3757
fla	-12.3758
zzi	-12.3759
▁cobb	-12.3759
1)	-12.3763
cream	-12.3767
simultaneous	-12.3767
▁firefighter	-12.3767
▁58	-12.3767
▁snug	-12.3767
▁blend	-12.3768
▁dipsy	-12.3768
▁dye	-12.377
▁coastal	-12.3771
▁discharge	-12.3771
ective	-12.378
▁vague	-12.378
▁nebraska	-12.3786
▁confined	-12.3786
▁atlanta	-12.3786
▁resignation	-12.3787
▁flourish	-12.3787
▁hyper	-12.3788
▁gwww	-12.3788
▁starboard	-12.3789
▁bruise	-12.379
ago	-12.379
bru	-12.3791
▁andrea	-12.3793
_)	-12.3794
▁voiced	-12.38
▁heather	-12.3802
▁pilchard	-12.3805
hurst	-12.3808
▁meter	-12.381
oria	-12.3816
▁fal	-12.3817
▁marvelous	-12.3817
▁yang	-12.3818
whisper	-12.3819
▁muhammad	-12.3822
▁atom	-12.3823
▁autonomous	-12.3823
▁commerce	-12.3823
▁shiva	-12.3824
▁uneasy	-12.3825
▁anytime	-12.3826
fen	-12.3828
▁pleaded	-12.383
rak	-12.383
sexual	-12.3832
▁endless	-12.3833
▁separation	-12.3842
▁throng	-12.3842
▁interference	-12.3844
▁recite	-12.3849
ör	-12.3849
▁taka	-12.3849
▁agreeable	-12.385
▁freezer	-12.3852
▁characteristic	-12.3854
ña	-12.3855
▁tau	-12.3855
lp	-12.3855
nau	-12.3856
▁indicates	-12.386
▁formally	-12.386
▁await	-12.386
▁marbles	-12.3861
▁grumpy	-12.3861
▁pneumonia	-12.3861
▁medieval	-12.3861
uction	-12.3862
▁mermaid	-12.3862
▁nora	-12.3862
▁wang	-12.3862
▁tina	-12.3863
▁enthusiastic	-12.3863
▁pho	-12.3865
▁assisted	-12.3865
▁honourable	-12.3865
▁resume	-12.3865
▁yarn	-12.3865
▁childish	-12.3867
▁bribe	-12.3867
▁71	-12.387
▁boxing	-12.3872
▁fellas	-12.3874
▁guarded	-12.3876
fair	-12.388
▁temperatures	-12.388
▁brennan	-12.388
▁slain	-12.388
▁mechanics	-12.3881
▁96	-12.3882
saint	-12.3883
▁missionary	-12.3883
▁muslims	-12.3883
nen	-12.3884
code	-12.3885
▁tilly	-12.3887
shouting	-12.3889
eta	-12.3889
▁fr	-12.3889
▁relieve	-12.389
▁firemen	-12.3891
enne	-12.3894
▁98	-12.3896
▁arabia	-12.3898
▁bertha	-12.3899
▁puppies	-12.3899
▁dripping	-12.39
▁[1.5	-12.39
▁tragic	-12.39
▁sworn	-12.3901
▁1912	-12.3901
▁surroundings	-12.3902
▁geese	-12.3903
family	-12.3908
squeak	-12.3908
▁stro	-12.3909
▁seals	-12.3912
▁sandra	-12.3915
▁bree	-12.3915
▁180	-12.3916
▁bends	-12.3918
▁overseas	-12.3919
▁parked	-12.392
▁ple	-12.392
▁kru	-12.393
▁intervals	-12.3933
▁recognised	-12.3937
▁supporters	-12.3938
▁constance	-12.3938
▁gasoline	-12.3938
▁invalid	-12.3938
▁mildred	-12.3938
▁timid	-12.3939
▁beggar	-12.3939
▁diaper	-12.394
▁frankie	-12.394
▁evolved	-12.3942
course	-12.3945
michael	-12.3946
▁cragg	-12.3948
wel	-12.3949
▁techniques	-12.3949
▁andré	-12.395
stream	-12.395
uru	-12.3952
owski	-12.3954
▁ö	-12.3955
▁lf	-12.3955
▁satisfactory	-12.3957
▁thrash	-12.3957
▁versus	-12.3957
pra	-12.3958
▁continually	-12.3959
▁speedily	-12.3959
▁acknowledge	-12.3961
▁withdraw	-12.3962
▁marketing	-12.3965
▁zara	-12.3969
smiles	-12.3971
▁epic	-12.3972
▁tidying	-12.3974
ready	-12.3975
▁conservation	-12.3976
▁judith	-12.3976
▁presidency	-12.3976
▁psychology	-12.3976
▁armstrong	-12.3976
cycl	-12.3977
▁admired	-12.3978
▁woah	-12.3979
▁mash	-12.3982
probably	-12.3984
▁haunted	-12.3987
type	-12.3988
anza	-12.3988
▁imitates	-12.3989
▁leisure	-12.399
▁nesta	-12.3992
▁sparkle	-12.3993
▁magistrate	-12.3995
▁aviation	-12.3995
▁exchanged	-12.3995
▁clung	-12.3996
▁lodging	-12.3996
▁vicious	-12.3997
▁volunteers	-12.3998
▁roam	-12.4001
amo	-12.4002
having	-12.4006
cco	-12.4007
▁token	-12.4008
▁englishman	-12.4008
▁altered	-12.4009
▁sexy	-12.4011
office	-12.4012
icle	-12.4014
▁pablo	-12.4015
▁hoot	-12.4015
▁1900	-12.4016
aha	-12.4016
▁2016)	-12.4019
▁openly	-12.4022
▁curled	-12.4024
dle	-12.4027
▁benson	-12.4028
▁frontier	-12.4028
▁oct	-12.4029
angel	-12.403
▁shaken	-12.4032
▁esc	-12.4032
▁sonny	-12.4033
▁syndrome	-12.4034
▁reptile	-12.4034
▁monthly	-12.4034
▁bailey	-12.4034
north	-12.4035
▁aspects	-12.4036
-7	-12.4039
▁ribs	-12.4043
▁cricketer	-12.4043
▁overlap	-12.4044
▁radical	-12.4047
▁kg	-12.4052
▁excellency	-12.4053
▁progressive	-12.4053
▁transmission	-12.4053
▁choosing	-12.4056
▁restaurants	-12.4058
▁theft	-12.4058
▁marcel	-12.4058
mma	-12.4062
▁manufacturer	-12.4064
▁offense	-12.4067
direct	-12.4069
aaa	-12.4072
▁apprentice	-12.4073
▁olivia	-12.4073
▁vicinity	-12.4073
▁alternate	-12.4073
▁atomic	-12.4074
▁meta	-12.4077
uber	-12.4077
▁dimension	-12.4079
▁gasp	-12.4081
chet	-12.4083
▁manor	-12.4083
▁vid	-12.4085
meaning	-12.4089
▁avail	-12.4091
▁microwave	-12.4092
▁chancellor	-12.4092
▁melody	-12.4092
▁feeble	-12.4093
▁blanche	-12.4093
▁wireless	-12.4099
▁offended	-12.41
▁construct	-12.41
neil	-12.4104
nde	-12.4104
▁dearly	-12.4105
▁merc	-12.4108
▁brandy	-12.4109
▁mack	-12.4111
▁logic	-12.4113
▁cheque	-12.4113
▁$3	-12.4114
▁embrace	-12.4115
▁derived	-12.4117
▁attempting	-12.4118
▁francs	-12.4127
▁complained	-12.413
▁contemporary	-12.4131
▁unwilling	-12.4131
▁disabled	-12.4131
▁gingerbread	-12.4131
▁shrub	-12.4131
▁costumes	-12.4132
▁chambers	-12.4134
▁fran	-12.4134
▁blamed	-12.4135
▁neglect	-12.414
▁nigh	-12.414
▁specialist	-12.4142
▁yoshi	-12.4148
▁presumably	-12.415
▁antenna	-12.415
▁antoine	-12.4151
▁carolyn	-12.4151
▁legacy	-12.4151
50,000	-12.4151
▁factories	-12.4152
én	-12.4152
▁pud	-12.4152
▁terrace	-12.4152
▁plea	-12.4154
▁alison	-12.4155
▁decline	-12.4155
▁mustard	-12.4155
turned	-12.4155
jay	-12.4157
▁hallway	-12.4158
▁lass	-12.4162
▁linger	-12.4168
▁jose	-12.417
xxx	-12.417
▁custody	-12.417
▁dioxide	-12.417
▁delegate	-12.417
▁sierra	-12.417
▁xiii	-12.417
▁copyright	-12.4171
▁são	-12.4172
anta	-12.4172
etti	-12.4173
hip	-12.4191
▁undertake	-12.4192
▁genes	-12.4193
▁greedy	-12.4194
▁participate	-12.4194
▁heave	-12.4196
shop	-12.4196
▁signor	-12.4198
rier	-12.42
▁tucked	-12.4202
▁dictionary	-12.4209
▁dwight	-12.4209
▁expansion	-12.4209
▁lucinda	-12.4209
▁roosevelt	-12.4209
▁jerk	-12.4209
▁oxide	-12.421
▁vigil	-12.421
▁recess	-12.4211
▁tac	-12.4212
▁mankind	-12.4216
▁mora	-12.4216
▁accomplish	-12.4217
kka	-12.4218
▁criminals	-12.4219
▁drawers	-12.4219
▁neglected	-12.422
find	-12.4226
▁liber	-12.4228
▁pint	-12.4228
▁faculty	-12.4229
▁courtesy	-12.4229
▁ranking	-12.423
mé	-12.4231
▁consumer	-12.4235
hro	-12.4236
▁missile	-12.4237
▁adore	-12.4241
▁haunt	-12.4242
▁decidedly	-12.4243
▁rai	-12.4247
ffin	-12.4247
text	-12.4247
ă	-12.4249
▁cucumber	-12.4249
▁daffodil	-12.4249
▁kilometres	-12.4249
▁sidewalk	-12.4249
▁vertical	-12.425
▁lick	-12.4251
▁requirements	-12.4252
▁maud	-12.4253
▁rally	-12.4256
▁joyous	-12.4258
▁lena	-12.4258
▁gloomy	-12.4258
▁mustache	-12.4259
▁someplace	-12.4262
fel	-12.4262
▁dusk	-12.4263
▁vowel	-12.4268
▁precaution	-12.4268
▁scrooge	-12.4268
▁testimony	-12.4268
▁decades	-12.4269
▁fireworks	-12.4269
▁flank	-12.4269
▁flatter	-12.4269
▁hamlet	-12.4273
▁chicks	-12.4276
▁basil	-12.4278
nese	-12.4284
org	-12.4286
alia	-12.4287
▁privacy	-12.4288
▁lindsay	-12.4288
▁venice	-12.4289
▁dispatch	-12.4289
▁beatrice	-12.4289
▁cedar	-12.4289
▁runway	-12.4289
▁respectively	-12.4292
▁comparatively	-12.4292
possum	-12.4292
▁quoted	-12.4295
▁predict	-12.4295
▁willis	-12.4298
▁goodnight	-12.43
oki	-12.4306
▁abby	-12.4306
▁eskimo	-12.4308
▁antony	-12.4309
▁profile	-12.4309
▁gambling	-12.4309
▁terence	-12.4309
▁oyster	-12.4309
▁trio	-12.4311
▁pall	-12.4311
▁mourn	-12.4312
▁raf	-12.4315
▁sobbing	-12.4316
▁nico	-12.4316
▁printing	-12.4316
▁expanded	-12.4318
▁resign	-12.4319
addressed	-12.4322
▁regards	-12.4324
lab	-12.4325
▁fastest	-12.4325
▁insert	-12.4326
▁pavement	-12.4328
▁testament	-12.4328
▁pollution	-12.4328
▁dublin	-12.4329
blow	-12.433
▁oxen	-12.4331
▁trend	-12.4335
▁kn	-12.4337
dec	-12.4338
▁gel	-12.4338
▁bha	-12.4341
paid	-12.4341
quo	-12.4342
▁solved	-12.4344
▁unlikely	-12.4345
▁losses	-12.4345
▁involves	-12.4347
sort	-12.4348
▁resource	-12.435
tech	-12.4351
▁combine	-12.4355
▁cr	-12.4355
▁buzzing	-12.4355
▁brr	-12.4355
▁consult	-12.436
neck	-12.4361
▁sonia	-12.4363
▁affectionate	-12.4363
deck	-12.4366
▁download	-12.4366
▁inviting	-12.4368
▁delta	-12.4373
gawa	-12.4373
▁speck	-12.4374
captain	-12.4377
▁viola	-12.438
▁timing	-12.4381
▁drowning	-12.4382
▁dome	-12.4387
▁argentine	-12.4388
▁constable	-12.4388
▁mailbox	-12.439
▁groans	-12.4392
▁ey	-12.4393
”!	-12.4395
▁[15	-12.4398
▁strat	-12.4403
▁adapt	-12.4404
lap	-12.4406
esse	-12.4406
▁collapsed	-12.4407
▁exposure	-12.4408
▁sturdy	-12.4408
ál	-12.4409
▁kwww	-12.441
▁diane	-12.4411
▁heating	-12.4411
▁pastor	-12.4412
ivy	-12.4413
▁73	-12.4416
▁households	-12.4417
zh	-12.442
ote	-12.4424
nei	-12.4424
▁lime	-12.4425
▁decrease	-12.4428
▁mademoiselle	-12.4428
▁flirt	-12.4428
▁bir	-12.4429
nh	-12.4433
▁tram	-12.4434
▁breeding	-12.4434
▁reporting	-12.4435
1/	-12.4435
style	-12.4436
▁ef	-12.4441
▁spelled	-12.4443
▁gust	-12.4444
▁groaning	-12.4447
▁ole	-12.4448
▁splinter	-12.4448
▁cbs	-12.445
▁reduction	-12.4451
▁hooked	-12.4451
▁infected	-12.4451
▁ultimately	-12.4454
▁signing	-12.4454
rib	-12.4455
▁filed	-12.4456
▁nfl	-12.4456
▁positively	-12.4457
▁marking	-12.4458
▁alden	-12.446
▁laser	-12.4461
▁sitcom	-12.4462
▁migration	-12.4468
▁shelves	-12.4468
▁buns	-12.4468
▁horace	-12.4469
▁doubtful	-12.447
▁panther	-12.447
▁120	-12.447
fc	-12.447
▁replacement	-12.447
▁pike	-12.4471
▁martyr	-12.4472
beep	-12.4472
holder	-12.4472
cil	-12.4476
▁63	-12.4476
/1	-12.4478
▁acton	-12.4484
bleep	-12.4487
▁62	-12.4487
▁prejudice	-12.4488
▁beverly	-12.4489
▁devour	-12.4489
▁incidents	-12.4489
▁trout	-12.449
check	-12.4491
▁physically	-12.4493
▁pha	-12.45
▁praying	-12.45
▁bach	-12.45
▁links	-12.4501
▁crater	-12.4504
ggin	-12.4504
▁outstanding	-12.4506
▁fiercely	-12.4507
▁thine	-12.4508
agne	-12.4508
ş	-12.4509
▁variable	-12.4509
▁database	-12.4509
▁giddy	-12.4509
growls	-12.4509
▁trotted	-12.451
--”	-12.4511
▁ov	-12.4511
▁eatin	-12.4511
▁gaga	-12.4514
▁boing	-12.4516
group	-12.4516
▁suited	-12.4517
▁experts	-12.4518
▁gravel	-12.4524
nap	-12.4526
▁mathematician	-12.4529
▁beheld	-12.4529
▁misses	-12.4529
lv	-12.453
▁advertisement	-12.453
▁performer	-12.453
▁viking	-12.4532
till	-12.4535
▁tying	-12.4536
▁legion	-12.4538
▁waterfall	-12.4538
attempts	-12.4539
▁splashing	-12.4539
▁rav	-12.4543
rain	-12.4544
drink	-12.4547
tina	-12.4549
▁dio	-12.4549
▁solitary	-12.4549
▁warfare	-12.4549
▁cherries	-12.455
rf	-12.455
▁knots	-12.455
▁boundaries	-12.455
▁auction	-12.4552
reaching	-12.4552
▁distinction	-12.4552
▁harper	-12.4552
haven	-12.4553
▁weighed	-12.4553
pour	-12.4562
▁berth	-12.4566
ivity	-12.4568
▁physicist	-12.457
▁shirley	-12.457
▁inscription	-12.457
▁ottoman	-12.4572
thought	-12.4574
▁arguments	-12.4574
▁daytime	-12.4575
▁mushroom	-12.4577
conti	-12.4582
▁rainy	-12.4586
▁hector	-12.4587
walk	-12.459
▁ignorance	-12.459
▁56	-12.4591
▁hesitation	-12.4591
▁spr	-12.4594
trust	-12.4595
▁reactions	-12.4596
▁repaired	-12.4602
▁saul	-12.4603
▁gli	-12.4604
imo	-12.4605
tip	-12.4607
founded	-12.4608
▁nur	-12.4608
▁whirl	-12.461
▁offensive	-12.4611
▁stephanie	-12.4611
▁syrup	-12.4611
▁keisha	-12.4611
▁gravy	-12.4611
▁cavern	-12.4611
▁disagreeable	-12.4612
▁horizontal	-12.4612
▁pest	-12.4613
▁filter	-12.4613
▁adaptation	-12.4614
▁flute	-12.4615
truck	-12.4616
▁stamped	-12.4619
should	-12.462
▁hatred	-12.4621
▁pleasantly	-12.4623
▁stoke	-12.4624
letter	-12.4624
▁athletics	-12.4625
▁grande	-12.4626
▁cured	-12.4627
▁amber	-12.4627
▁daw	-12.4627
▁hardship	-12.4627
▁tang	-12.4629
▁boldly	-12.4629
▁cathalina	-12.4631
▁catalogue	-12.4631
▁thither	-12.4631
▁supermarket	-12.4631
▁whipped	-12.4632
▁founding	-12.4632
▁1914	-12.4632
ifies	-12.4633
▁dirk	-12.4633
▁slipper	-12.4635
bian	-12.4636
wyn	-12.4638
▁94	-12.4642
▁estonia	-12.4643
▁transit	-12.4643
▁paulo	-12.4643
▁spine	-12.4644
church	-12.4645
liter	-12.4647
▁mixer	-12.4647
▁reservation	-12.4652
▁screenwriter	-12.4652
▁superhero	-12.4652
▁snarl	-12.4652
▁symbols	-12.4653
▁underwear	-12.4654
▁priority	-12.4654
zza	-12.4655
▁helper	-12.4658
▁petty	-12.4659
▁specimen	-12.466
▁institutions	-12.4667
▁aboriginal	-12.4672
▁elaborate	-12.4672
▁maintenance	-12.4672
▁heroic	-12.4673
rig	-12.4674
▁sermon	-12.4674
▁casey	-12.4675
meg	-12.4677
▁homeless	-12.4679
▁commend	-12.4679
▁machinery	-12.4681
september	-12.4682
nvr	-12.4684
▁static	-12.4684
▁weeds	-12.4686
vio	-12.4687
▁peered	-12.4687
▁snowy	-12.4689
▁peacock	-12.4693
▁grid	-12.4693
▁cluck	-12.4696
▁heated	-12.4696
rium	-12.4697
▁dine	-12.47
▁perfection	-12.4704
▁participant	-12.4706
▁naka	-12.4707
▁1910	-12.4708
▁grind	-12.4709
▁hauled	-12.471
dou	-12.4711
▁archbishop	-12.4713
▁frequency	-12.4713
▁babylon	-12.4714
lace	-12.4716
▁bounces	-12.4716
rome	-12.4716
inous	-12.4718
▁oriental	-12.4719
▁unnecessary	-12.472
pain	-12.472
▁yoon	-12.472
▁wellington	-12.472
alu	-12.4721
▁fling	-12.4723
century	-12.4723
▁67	-12.4724
cci	-12.4726
▁spears	-12.4728
▁update	-12.473
rine	-12.4731
▁abilities	-12.4734
▁probability	-12.4734
speaks	-12.4735
▁tinker	-12.4736
ool	-12.4737
▁koo	-12.4737
▁guided	-12.4737
▁explode	-12.4739
▁salute	-12.474
▁anglo	-12.4742
lion	-12.4746
▁peeping	-12.4746
▁xv	-12.4746
▁noddy	-12.4748
▁domain	-12.4752
▁mathematical	-12.4755
▁cancelled	-12.4756
▁denver	-12.4758
▁guessing	-12.4758
▁heavenly	-12.4758
lc	-12.4759
▁snowball	-12.4759
cie	-12.4762
ographic	-12.4762
fic	-12.4763
▁brighter	-12.4764
▁ignored	-12.4764
▁electron	-12.4765
crowd	-12.4765
▁traded	-12.4766
▁loom	-12.4768
▁input	-12.4769
▁maxim	-12.4774
▁imaginary	-12.4776
▁examining	-12.4776
▁mingled	-12.4776
▁providence	-12.4776
rhin	-12.4782
▁dismiss	-12.4783
▁rebels	-12.4784
▁nav	-12.4784
gillam	-12.4785
▁tara	-12.4786
▁clicking	-12.4786
suppose	-12.4787
hausen	-12.4788
▁overnight	-12.4788
▁hazel	-12.4789
▁assassin	-12.4795
▁jacques	-12.4797
▁withdrew	-12.4797
▁despatch	-12.4797
▁protocol	-12.4797
▁desmond	-12.4797
▁google	-12.4797
▁locate	-12.4803
▁oooo	-12.4806
▁reins	-12.4806
icia	-12.4808
running	-12.4809
morph	-12.4811
▁------------	-12.4817
▁mosque	-12.4817
▁churchyard	-12.4819
▁69	-12.482
rra	-12.482
▁rulers	-12.4821
guil	-12.4827
▁mushrooms	-12.4832
▁freed	-12.4832
▁declined	-12.4834
▁brussels	-12.4838
▁jupiter	-12.4838
▁varied	-12.4839
▁frigate	-12.4839
_--	-12.484
▁odor	-12.4848
february	-12.4848
▁regain	-12.4849
▁braid	-12.485
section	-12.4852
▁madness	-12.4852
bc	-12.4853
▁motionless	-12.4853
▁outlaw	-12.4855
▁abundant	-12.4859
▁manufacturing	-12.4859
▁monroe	-12.4859
▁canyon	-12.4861
▁cramp	-12.4861
▁derby	-12.4863
▁readiness	-12.4863
girls	-12.4865
▁garret	-12.4868
giving	-12.4869
▁stares	-12.4872
▁biden	-12.4873
▁sever	-12.4874
inus	-12.4876
▁earrings	-12.4876
▁rumble	-12.488
buck	-12.488
▁chauffeur	-12.488
▁corporate	-12.488
▁propeller	-12.488
▁swore	-12.488
▁regime	-12.488
▁dawson	-12.4881
▁elementary	-12.4881
▁chuckle	-12.4883
omo	-12.4883
▁eagerness	-12.4885
▁stumbled	-12.4886
▁ea	-12.4887
onia	-12.4891
since	-12.4895
▁drifted	-12.49
▁assurance	-12.4901
▁fatigue	-12.4901
▁prohibit	-12.4901
▁santiago	-12.4901
▁segment	-12.4901
née	-12.4901
▁urgh	-12.4902
aye	-12.4902
▁whereabouts	-12.4902
▁aew	-12.4903
▁destroying	-12.491
|	-12.4911
▁blush	-12.4916
▁ultimate	-12.4916
▁perch	-12.4921
jud	-12.4921
level	-12.4922
▁disturbing	-12.4922
▁java	-12.4922
▁assuming	-12.4922
▁nodding	-12.4923
▁brooke	-12.4924
▁whiz	-12.4927
▁drafted	-12.4927
▁translate	-12.4929
▁destroyer	-12.4931
whimpers	-12.4932
▁sustain	-12.4933
ario	-12.4935
||1||	-12.4938
1||	-12.494
▁yea	-12.494
▁groan	-12.4942
▁petition	-12.4944
erson	-12.4945
▁nought	-12.4946
▁gruff	-12.4946
▁grange	-12.4946
▁kee	-12.4947
▁cali	-12.495
▁(4	-12.4956
3)	-12.4957
psy	-12.4957
▁scratching	-12.496
▁sheila	-12.4961
▁recreation	-12.4965
mere	-12.4966
▁fisherman	-12.4968
mura	-12.4973
▁hasty	-12.4976
luk	-12.4977
▁entertaining	-12.4981
▁59	-12.4984
▁legislature	-12.4986
▁sparkling	-12.4989
guy	-12.4995
ility	-12.4995
getting	-12.4995
lina	-12.4997
summer	-12.4998
vil	-12.4998
▁renewed	-12.4998
▁crowned	-12.4999
▁(5	-12.5002
▁phillip	-12.5004
▁dancers	-12.5005
▁vengeance	-12.5007
▁kiwi	-12.5009
▁minority	-12.501
elia	-12.501
▁fossils	-12.5012
▁timmy	-12.5013
▁healing	-12.5013
november	-12.5018
▁merchants	-12.5022
▁influential	-12.5029
▁tak	-12.5029
▁amuse	-12.503
▁montana	-12.503
▁nwww	-12.5031
▁riddle	-12.5031
▁incorporated	-12.5033
▁dynamite	-12.5033
▁breakdown	-12.5034
▁pattie	-12.5041
▁orion	-12.5043
tag	-12.5044
▁hypo	-12.5049
▁carlo	-12.5049
▁astronaut	-12.505
▁external	-12.505
▁rake	-12.5051
▁chen	-12.5051
▁websites	-12.5054
▁oughta	-12.5054
▁kemp	-12.5055
bun	-12.5057
▁massa	-12.506
berries	-12.5061
ucci	-12.5062
hung	-12.5066
▁winky	-12.5067
hush	-12.5069
▁graduating	-12.5071
▁kindergarten	-12.5071
▁surviving	-12.5071
▁treason	-12.5071
▁interpretation	-12.5073
▁preschool	-12.5073
▁sympathetic	-12.5073
▁veranda	-12.5073
▁kenny	-12.5074
▁parliamentary	-12.5074
aud	-12.5075
happy	-12.5078
gil	-12.5078
▁groaned	-12.5082
▁athletes	-12.5085
▁stein	-12.5086
dell	-12.5092
▁balcony	-12.5093
▁draught	-12.5093
▁thailand	-12.5093
▁indication	-12.5093
▁oblast	-12.5093
▁matilda	-12.5094
▁yew	-12.5095
▁tinky	-12.5095
▁milo	-12.5095
bay	-12.5095
▁yun	-12.5095
▁keyboard	-12.5095
▁(16	-12.5097
▁awaken	-12.5098
▁wonderfully	-12.5099
▁xxii	-12.51
▁stooped	-12.51
▁scenery	-12.5101
ista	-12.5103
active	-12.5105
chester	-12.5106
▁miners	-12.5107
▁linen	-12.511
▁ecuador	-12.5114
▁bumble	-12.5115
▁laurel	-12.5115
▁eliza	-12.5115
▁otter	-12.5116
▁cruelty	-12.5118
▁jed	-12.5118
▁mik	-12.5122
ppe	-12.5123
▁expand	-12.5124
▁kah	-12.5125
▁baldy	-12.5126
▁avenge	-12.5126
▁thrilling	-12.5128
nice	-12.5135
▁obligation	-12.5136
▁sodium	-12.5136
▁nbc	-12.5137
▁lease	-12.5139
▁riley	-12.514
▁runaway	-12.5142
▁invaded	-12.5146
▁indoors	-12.5146
▁flown	-12.515
▁bwww	-12.5153
▁mush	-12.5153
▁muff	-12.5156
▁lighthouse	-12.5156
enti	-12.5157
▁julius	-12.5157
▁baldwin	-12.5158
▁thames	-12.5158
▁shim	-12.5159
▁organisms	-12.5163
▁usage	-12.5166
▁johnnie	-12.5167
▁fei	-12.5169
steve	-12.5171
▁syrian	-12.5173
means	-12.5174
legged	-12.5174
▁cheated	-12.5174
dance	-12.5176
▁menu	-12.5177
▁hou	-12.5178
▁descend	-12.5178
▁locomotive	-12.5179
▁mischievous	-12.5179
▁psychological	-12.5179
▁fraction	-12.5179
▁hue	-12.5181
▁historians	-12.5182
▁sensor	-12.5182
▁unusually	-12.5183
▁wilt	-12.5184
obi	-12.5187
trans	-12.5188
▁defended	-12.5189
▁politely	-12.5193
▁usher	-12.5193
ł	-12.5196
each	-12.5197
▁pearls	-12.5199
▁breathed	-12.5199
▁gertrude	-12.5201
▁volcanic	-12.5201
▁blacky	-12.5205
▁wailing	-12.5208
▁curt	-12.5208
standing	-12.521
rip	-12.5211
izz	-12.5213
doctor	-12.5215
▁objected	-12.5218
▁elevation	-12.5223
▁involving	-12.5223
▁rhoda	-12.5224
▁nazis	-12.5224
▁susie	-12.5224
sits	-12.5224
▁blooming	-12.5224
▁troy	-12.5225
▁fay	-12.5225
▁isolated	-12.5227
▁chow	-12.5227
▁intonation	-12.5229
▁predators	-12.5229
▁backpack	-12.523
▁(15	-12.5236
▁separately	-12.5236
▁thorough	-12.5238
▁duckie	-12.5241
sharp	-12.5243
▁shane	-12.5244
▁competing	-12.5244
▁perspective	-12.5244
▁wreath	-12.5244
▁interruption	-12.525
▁wrecked	-12.525
▁scooter	-12.5252
▁penn	-12.5254
▁furnish	-12.5256
election	-12.5256
▁tilt	-12.5257
▁detected	-12.5258
▁sporting	-12.5266
ß	-12.5266
▁featuring	-12.5266
▁spilt	-12.5267
▁61	-12.5267
kee	-12.5269
▁fum	-12.5271
▁roommate	-12.5271
▁tailor	-12.5273
▁wage	-12.5274
▁elmer	-12.5277
▁sei	-12.5279
▁manuel	-12.528
▁snatched	-12.528
▁acknowledged	-12.5284
▁cheered	-12.5286
▁controversial	-12.5288
▁asteroid	-12.5288
▁intercept	-12.5289
▁monica	-12.5289
▁venus	-12.529
▁shuttle	-12.5291
selle	-12.5291
▁regardless	-12.5291
colored	-12.5292
▁rowing	-12.5292
▁shattered	-12.5293
▁raja	-12.5293
▁appreciated	-12.5294
▁criticized	-12.5294
▁homeward	-12.5294
▁breathless	-12.5295
[...]
