<unk>	0
<s>	0
</s>	0
<pad>	0
<0x00>	0
<0x01>	0
<0x02>	0
<0x03>	0
<0x04>	0
<0x05>	0
<0x06>	0
<0x07>	0
<0x08>	0
<0x09>	0
<0x0A>	0
<0x0B>	0
<0x0C>	0
<0x0D>	0
<0x0E>	0
<0x0F>	0
<0x10>	0
<0x11>	0
<0x12>	0
<0x13>	0
<0x14>	0
<0x15>	0
<0x16>	0
<0x17>	0
<0x18>	0
<0x19>	0
<0x1A>	0
<0x1B>	0
<0x1C>	0
<0x1D>	0
<0x1E>	0
<0x1F>	0
<0x20>	0
<0x21>	0
<0x22>	0
<0x23>	0
<0x24>	0
<0x25>	0
<0x26>	0
<0x27>	0
<0x28>	0
<0x29>	0
<0x2A>	0
<0x2B>	0
<0x2C>	0
<0x2D>	0
<0x2E>	0
<0x2F>	0
<0x30>	0
<0x31>	0
<0x32>	0
<0x33>	0
<0x34>	0
<0x35>	0
<0x36>	0
<0x37>	0
<0x38>	0
<0x39>	0
<0x3A>	0
<0x3B>	0
<0x3C>	0
<0x3D>	0
<0x3E>	0
<0x3F>	0
<0x40>	0
<0x41>	0
<0x42>	0
<0x43>	0
<0x44>	0
<0x45>	0
<0x46>	0
<0x47>	0
<0x48>	0
<0x49>	0
<0x4A>	0
<0x4B>	0
<0x4C>	0
<0x4D>	0
<0x4E>	0
<0x4F>	0
<0x50>	0
<0x51>	0
<0x52>	0
<0x53>	0
<0x54>	0
<0x55>	0
<0x56>	0
<0x57>	0
<0x58>	0
<0x59>	0
<0x5A>	0
<0x5B>	0
<0x5C>	0
<0x5D>	0
<0x5E>	0
<0x5F>	0
<0x60>	0
<0x61>	0
<0x62>	0
<0x63>	0
<0x64>	0
<0x65>	0
<0x66>	0
<0x67>	0
<0x68>	0
<0x69>	0
<0x6A>	0
<0x6B>	0
<0x6C>	0
<0x6D>	0
<0x6E>	0
<0x6F>	0
<0x70>	0
<0x71>	0
<0x72>	0
<0x73>	0
<0x74>	0
<0x75>	0
<0x76>	0
<0x77>	0
<0x78>	0
<0x79>	0
<0x7A>	0
<0x7B>	0
<0x7C>	0
<0x7D>	0
<0x7E>	0
<0x7F>	0
<0x80>	0
<0x81>	0
<0x82>	0
<0x83>	0
<0x84>	0
<0x85>	0
<0x86>	0
<0x87>	0
<0x88>	0
<0x89>	0
<0x8A>	0
<0x8B>	0
<0x8C>	0
<0x8D>	0
<0x8E>	0
<0x8F>	0
<0x90>	0
<0x91>	0
<0x92>	0
<0x93>	0
<0x94>	0
<0x95>	0
<0x96>	0
<0x97>	0
<0x98>	0
<0x99>	0
<0x9A>	0
<0x9B>	0
<0x9C>	0
<0x9D>	0
<0x9E>	0
<0x9F>	0
<0xA0>	0
<0xA1>	0
<0xA2>	0
<0xA3>	0
<0xA4>	0
<0xA5>	0
<0xA6>	0
<0xA7>	0
<0xA8>	0
<0xA9>	0
<0xAA>	0
<0xAB>	0
<0xAC>	0
<0xAD>	0
<0xAE>	0
<0xAF>	0
<0xB0>	0
<0xB1>	0
<0xB2>	0
<0xB3>	0
<0xB4>	0
<0xB5>	0
<0xB6>	0
<0xB7>	0
<0xB8>	0
<0xB9>	0
<0xBA>	0
<0xBB>	0
<0xBC>	0
<0xBD>	0
<0xBE>	0
<0xBF>	0
<0xC0>	0
<0xC1>	0
<0xC2>	0
<0xC3>	0
<0xC4>	0
<0xC5>	0
<0xC6>	0
<0xC7>	0
<0xC8>	0
<0xC9>	0
<0xCA>	0
<0xCB>	0
<0xCC>	0
<0xCD>	0
<0xCE>	0
<0xCF>	0
<0xD0>	0
<0xD1>	0
<0xD2>	0
<0xD3>	0
<0xD4>	0
<0xD5>	0
<0xD6>	0
<0xD7>	0
<0xD8>	0
<0xD9>	0
<0xDA>	0
<0xDB>	0
<0xDC>	0
<0xDD>	0
<0xDE>	0
<0xDF>	0
<0xE0>	0
<0xE1>	0
<0xE2>	0
<0xE3>	0
<0xE4>	0
<0xE5>	0
<0xE6>	0
<0xE7>	0
<0xE8>	0
<0xE9>	0
<0xEA>	0
<0xEB>	0
<0xEC>	0
<0xED>	0
<0xEE>	0
<0xEF>	0
<0xF0>	0
<0xF1>	0
<0xF2>	0
<0xF3>	0
<0xF4>	0
<0xF5>	0
<0xF6>	0
<0xF7>	0
<0xF8>	0
<0xF9>	0
<0xFA>	0
<0xFB>	0
<0xFC>	0
<0xFD>	0
<0xFE>	0
<0xFF>	0
.	-2.91724
s	-3.38572
:	-3.39079
▁*	-3.44208
,	-3.5371
▁the	-3.6308
'	-3.85538
▁a	-4.18275
mot	-4.2309
▁you	-4.29297
▁and	-4.3117
▁i	-4.32637
▁to	-4.33256
?	-4.36697
chi	-4.44383
t	-4.49305
▁it	-4.57119
▁of	-4.60322
▁in	-4.71089
▁that	-4.79446
▁he	-5.17007
▁is	-5.20448
ed	-5.23972
ing	-5.27383
▁was	-5.28481
▁=	-5.32373
d	-5.40308
▁on	-5.41296
▁[	-5.44351
▁what	-5.46205
▁for	-5.4845
▁we	-5.54599
m	-5.57666
▁"	-5.58626
▁this	-5.67517
]	-5.68201
!	-5.69285
re	-5.70922
▁do	-5.72978
▁be	-5.74112
▁	-5.74998
▁no	-5.75411
▁with	-5.75883
▁have	-5.8294
▁me	-5.8327
▁there	-5.83491
▁they	-5.84046
▁she	-5.86174
y	-5.86343
▁not	-5.86768
-	-5.87229
▁-	-5.90344
▁can	-5.916
▁at	-5.94383
▁one	-5.94454
e	-5.94805
▁are	-5.97587
▁but	-5.981
▁his	-6.00889
▁so	-6.01199
n	-6.04811
i	-6.06794
ll	-6.09254
▁all	-6.10626
▁oh	-6.11247
▁as	-6.11693
▁go	-6.11936
▁yeah	-6.12486
ly	-6.14093
▁her	-6.16054
▁my	-6.16638
▁don	-6.17512
▁your	-6.18414
▁know	-6.19336
er	-6.20933
▁like	-6.21332
...	-6.21968
▁up	-6.22331
▁had	-6.22711
a	-6.25023
inv	-6.33796
▁out	-6.35352
▁from	-6.36527
ve	-6.39545
r	-6.3976
▁an	-6.42233
▁just	-6.42258
▁here	-6.42838
▁get	-6.4463
c	-6.47248
▁him	-6.47457
▁by	-6.48426
▁see	-6.4933
▁if	-6.49828
▁right	-6.51576
▁or	-6.53367
▁now	-6.54193
▁were	-6.56253
▁well	-6.56522
o	-6.56911
▁about	-6.56976
▁when	-6.57046
▁then	-6.57934
p	-6.58297
in	-6.59808
▁said	-6.62213
▁who	-6.64983
al	-6.65651
▁think	-6.66664
▁got	-6.67001
▁did	-6.67907
▁them	-6.68537
g	-6.68911
▁where	-6.70774
▁some	-6.71718
fat	-6.73136
▁come	-6.73136
▁will	-6.7579
▁look	-6.77174
▁would	-6.8085
;	-6.81139
▁yes	-6.8158
▁b	-6.81756
▁want	-6.82977
▁“	-6.84078
▁(	-6.84335
▁good	-6.85261
’	-6.88963
l	-6.89029
▁how	-6.89218
es	-6.90419
le	-6.90947
▁okay	-6.91717
▁down	-6.91814
▁put	-6.91899
].	-6.92307
▁back	-6.92392
▁little	-6.93884
."	-6.94313
▁time	-6.95977
▁has	-6.96505
▁been	-6.96835
▁over	-6.97632
b	-6.98077
▁more	-6.98178
▁very	-6.98616
▁xxx	-6.98979
▁going	-6.99816
▁which	-7.01083
▁two	-7.02112
"	-7.02652
▁let	-7.03715
or	-7.03764
h	-7.06098
k	-7.06328
)	-7.07216
▁'	-7.1025
f	-7.10929
▁their	-7.11421
w	-7.13603
th	-7.14378
▁could	-7.14815
▁man	-7.1507
▁say	-7.16269
▁take	-7.16587
it	-7.17277
▁de	-7.18594
,"	-7.19084
▁other	-7.20417
▁s	-7.20423
▁why	-7.21453
▁make	-7.2355
an	-7.2668
▁into	-7.28794
▁people	-7.30863
▁too	-7.32312
▁way	-7.32483
▁because	-7.33735
ar	-7.34745
ck	-7.35782
▁re	-7.36378
▁us	-7.37063
▁after	-7.3719
▁tell	-7.3853
en	-7.39747
on	-7.40057
▁any	-7.40365
il	-7.40651
▁gonna	-7.40745
▁off	-7.40764
▁first	-7.41678
ra	-7.41717
▁these	-7.41742
ion	-7.42259
▁only	-7.43773
u	-7.43873
▁uh	-7.46044
▁er	-7.46773
▁o	-7.47004
▁our	-7.47258
ch	-7.47424
ne	-7.47841
la	-7.48978
li	-7.49289
se	-7.49457
▁e	-7.4983
ro	-7.49927
▁something	-7.51847
▁again	-7.5194
v	-7.5264
--	-7.52992
na	-7.53629
lo	-7.53663
▁p	-7.54013
▁really	-7.54179
z	-7.54481
▁didn	-7.54765
ie	-7.5517
ma	-7.5689
▁car	-7.56913
▁mean	-7.57541
par	-7.57556
▁19	-7.57601
▁much	-7.59449
▁need	-7.59637
▁give	-7.59672
ter	-7.60641
el	-7.61385
▁play	-7.61467
▁name	-7.61802
▁made	-7.62374
▁big	-7.63789
de	-7.64102
▁day	-7.64997
▁before	-7.65377
ation	-7.66168
▁than	-7.66384
▁work	-7.66483
▁should	-7.66504
▁does	-7.67296
▁home	-7.67557
ce	-7.67729
▁three	-7.68102
▁came	-7.69303
ri	-7.69622
▁great	-7.70588
▁new	-7.70857
▁old	-7.71432
no	-7.72804
▁away	-7.72948
▁never	-7.73154
▁house	-7.73671
me	-7.73953
▁went	-7.73999
ry	-7.74273
exp	-7.74428
▁another	-7.74602
▁ma	-7.74948
▁mr	-7.75111
to	-7.76238
2	-7.76578
▁those	-7.76587
the	-7.77682
▁um	-7.77702
▁thought	-7.7783
▁am	-7.7787
▁help	-7.78276
▁un	-7.78406
▁wanna	-7.78612
▁also	-7.78622
▁doing	-7.7884
▁won	-7.79174
▁even	-7.80341
/	-7.80774
at	-7.81516
▁long	-7.81574
▁still	-7.8173
us	-7.82036
_	-7.82111
?"	-7.82453
▁through	-7.82613
3	-7.82692
▁must	-7.82816
▁thing	-7.83573
▁may	-7.83845
▁head	-7.83869
as	-7.84113
ur	-7.84195
▁place	-7.84269
▁c	-7.84558
▁g	-7.84582
▁many	-7.84982
ta	-7.85204
▁find	-7.85718
ment	-7.86142
▁things	-7.86381
▁ra	-7.86909
▁last	-7.87186
▁mm	-7.87406
sh	-7.88518
▁found	-7.88839
ic	-7.89915
ent	-7.90197
man	-7.9055
ha	-7.90698
ers	-7.90853
▁con	-7.91164
▁night	-7.91199
7	-7.91362
▁baby	-7.91725
est	-7.91943
▁hand	-7.92108
▁d	-7.92342
▁boy	-7.93466
te	-7.93943
▁thank	-7.94427
▁please	-7.94686
▁ba	-7.94899
ia	-7.95094
▁done	-7.95727
▁co	-7.95909
▁k	-7.96057
▁girl	-7.96183
▁show	-7.96293
▁bit	-7.96817
▁sure	-7.97133
un	-7.97205
▁nice	-7.97767
ge	-7.97888
▁isn	-7.97934
et	-7.98354
▁called	-7.98379
ul	-7.98684
▁part	-7.9915
.”	-8.00015
▁better	-8.0002
x	-8.00181
▁love	-8.00195
▁%	-8.00276
▁might	-8.00443
▁ha	-8.00854
▁men	-8.01013
▁end	-8.01128
and	-8.01237
▁water	-8.01316
▁mother	-8.01347
▁w	-8.01889
op	-8.01966
1	-8.02262
ba	-8.03343
▁chi	-8.0404
▁school	-8.04559
▁around	-8.04645
▁life	-8.0478
▁keep	-8.04793
ian	-8.05256
▁book	-8.05624
be	-8.0568
ted	-8.06306
▁erm	-8.06674
ies	-8.07547
co	-8.07593
▁anything	-8.07923
▁eat	-8.08538
is	-8.08798
▁f	-8.08936
▁kind	-8.09551
ton	-8.09678
,”	-8.09952
▁hey	-8.09992
▁doesn	-8.1012
▁la	-8.10154
vi	-8.10471
laughs	-8.11089
▁ah	-8.11732
▁dis	-8.11835
4	-8.12095
▁while	-8.12127
▁lot	-8.12363
do	-8.12662
▁di	-8.1294
▁mhm	-8.131
▁ta	-8.13327
▁miss	-8.13716
▁next	-8.14049
▁call	-8.14126
▁room	-8.14371
▁most	-8.14621
▁talk	-8.14778
ist	-8.14998
▁such	-8.15052
▁world	-8.15272
▁nothing	-8.16021
▁door	-8.16024
▁same	-8.16208
▁under	-8.16282
8	-8.16423
able	-8.16431
▁father	-8.16513
add	-8.16962
ine	-8.17595
son	-8.17731
▁own	-8.17832
▁being	-8.18274
he	-8.18584
▁li	-8.18622
pp	-8.18795
▁shall	-8.19176
▁always	-8.19287
▁turn	-8.19358
ke	-8.19419
5	-8.19629
▁told	-8.19641
▁po	-8.20148
▁mummy	-8.20323
ive	-8.2116
da	-8.21417
▁ro	-8.21728
▁ever	-8.22582
▁years	-8.22624
▁remember	-8.22676
▁high	-8.22679
▁left	-8.22681
id	-8.2295
▁use	-8.22966
▁open	-8.22985
9	-8.23145
!"	-8.23505
▁mar	-8.23514
6	-8.23899
ver	-8.24135
▁four	-8.24226
ate	-8.2438
pe	-8.24385
▁side	-8.24454
▁mo	-8.24776
sis	-8.25247
▁wait	-8.25731
▁used	-8.26031
▁maybe	-8.26226
▁leave	-8.26452
▁saw	-8.26531
ish	-8.2697
▁hi	-8.27443
▁every	-8.27558
▁start	-8.27781
▁else	-8.27873
▁once	-8.28089
ty	-8.28148
age	-8.28358
0	-8.28826
ol	-8.2904
▁stop	-8.29271
ity	-8.2938
▁na	-8.29685
am	-8.30818
▁t	-8.31204
▁sit	-8.31396
em	-8.31466
▁young	-8.31692
mp	-8.31961
ant	-8.32508
tion	-8.3295
▁gone	-8.33068
▁looks	-8.33618
▁pro	-8.3368
▁ca	-8.34365
▁sir	-8.34469
▁vi	-8.3478
ni	-8.35015
▁enough	-8.3507
▁sp	-8.35405
▁sorry	-8.35668
▁huh	-8.35843
▁course	-8.35969
ad	-8.36038
▁five	-8.36106
▁goes	-8.36166
▁hm	-8.36249
▁le	-8.36293
▁red	-8.36582
▁coming	-8.36624
we	-8.36642
ca	-8.36668
▁took	-8.36679
ness	-8.36729
hi	-8.36935
ling	-8.3718
▁until	-8.37188
▁hear	-8.37231
▁war	-8.37232
tea	-8.37252
um	-8.3766
▁ho	-8.38009
▁fire	-8.38427
▁face	-8.38447
▁bo	-8.38523
▁ball	-8.3888
▁box	-8.39136
▁morning	-8.39673
▁u	-8.39749
▁mi	-8.40303
▁best	-8.40384
▁light	-8.40755
▁second	-8.40931
you	-8.41382
▁money	-8.41581
▁eyes	-8.4159
bo	-8.41703
po	-8.4186
▁small	-8.4189
▁seen	-8.4195
ng	-8.42079
▁dear	-8.42448
wa	-8.42477
mi	-8.42906
dy	-8.43112
▁watch	-8.43113
▁run	-8.43121
ber	-8.43192
▁ga	-8.43336
▁m	-8.43623
▁dr	-8.43625
▁though	-8.44039
▁ja	-8.44102
▁quite	-8.44169
▁yet	-8.44611
▁daddy	-8.44841
ting	-8.44859
mo	-8.45215
▁bad	-8.45224
ir	-8.45417
ah	-8.45508
ny	-8.46012
▁_	-8.46097
▁mommy	-8.46165
▁close	-8.46376
▁hold	-8.46572
▁asked	-8.46629
▁says	-8.46737
▁sa	-8.46749
▁game	-8.46872
ous	-8.47394
▁l	-8.47406
▁god	-8.47539
▁today	-8.47684
led	-8.47698
▁ka	-8.47837
▁together	-8.47842
▁far	-8.4785
ga	-8.48262
▁se	-8.48352
▁friend	-8.48359
▁blue	-8.48526
▁week	-8.48546
▁city	-8.48582
▁year	-8.48625
tic	-8.48746
ho	-8.49071
▁haven	-8.49358
im	-8.49457
▁child	-8.49554
▁lo	-8.50224
▁each	-8.50606
go	-8.50664
ard	-8.50755
▁soon	-8.51035
bro	-8.51394
▁read	-8.51517
▁heard	-8.51692
▁pa	-8.51805
▁getting	-8.51876
▁mind	-8.52267
▁try	-8.52357
ance	-8.52429
▁both	-8.52639
▁since	-8.5273
▁believe	-8.5273
▁hard	-8.52759
▁ne	-8.52858
▁without	-8.52892
▁different	-8.53088
▁half	-8.53088
▁st	-8.5313
▁bar	-8.53142
▁mrs	-8.5327
▁train	-8.53533
▁al	-8.53653
▁ru	-8.53853
mch	-8.5414
▁dog	-8.54611
▁pre	-8.55154
▁stay	-8.55454
▁known	-8.55517
per	-8.55538
lu	-8.55613
bb	-8.5579
▁number	-8.56002
ful	-8.56127
▁move	-8.56196
▁looked	-8.56567
les	-8.57049
▁da	-8.57389
▁between	-8.57492
▁few	-8.57544
▁ya	-8.57943
▁fall	-8.5797
▁looking	-8.58009
▁ten	-8.58151
▁ex	-8.58581
ated	-8.58758
▁ask	-8.58844
ster	-8.59344
▁black	-8.59418
int	-8.59493
ci	-8.59525
▁feel	-8.59665
▁john	-8.59769
▁green	-8.5977
▁children	-8.59781
▁near	-8.60015
▁set	-8.60366
ph	-8.60876
▁alright	-8.60935
▁jack	-8.61001
oh	-8.61213
▁everything	-8.61317
mar	-8.61387
▁bring	-8.61421
▁round	-8.61757
▁real	-8.61765
che	-8.61956
▁land	-8.62148
▁himself	-8.62493
up	-8.62777
▁pick	-8.62874
▁sleep	-8.62888
▁hafta	-8.62889
▁air	-8.62942
▁american	-8.63014
cause	-8.63048
▁table	-8.6335
▁color	-8.63364
▁r	-8.63502
▁pretty	-8.63684
ow	-8.63736
ak	-8.63913
▁bed	-8.63945
▁moment	-8.64174
▁1	-8.64448
▁having	-8.64486
▁per	-8.64719
▁movie	-8.64889
▁♪	-8.64909
▁happened	-8.65145
▁3	-8.65148
▁dad	-8.65543
gma	-8.65552
ka	-8.65559
▁stand	-8.6579
▁heart	-8.65934
di	-8.6607
▁story	-8.66117
bi	-8.66216
▁star	-8.66247
▁cr	-8.66286
▁later	-8.66324
ary	-8.66331
▁wanted	-8.66538
▁rest	-8.66611
▁party	-8.6665
▁ready	-8.66841
▁knew	-8.66929
▁point	-8.67603
▁live	-8.67639
if	-8.68038
mon	-8.6812
".	-8.68179
▁six	-8.6819
▁piece	-8.68209
?”	-8.68631
▁north	-8.68742
min	-8.6886
▁18	-8.68952
▁drink	-8.69014
▁boys	-8.69039
▁en	-8.69293
▁cup	-8.69392
▁j	-8.69396
▁whole	-8.69399
▁white	-8.69445
▁idea	-8.69752
▁gra	-8.70048
va	-8.70163
ee	-8.70188
▁talking	-8.70322
cha	-8.70535
▁matter	-8.70736
que	-8.7075
▁making	-8.70754
▁sort	-8.7076
▁state	-8.70819
▁listen	-8.71676
▁gave	-8.71788
king	-8.71845
▁sha	-8.71891
sa	-8.71985
j	-8.72239
less	-8.73012
gra	-8.73013
land	-8.73091
▁wa	-8.73362
▁born	-8.73575
▁chair	-8.73734
ence	-8.74005
▁sh	-8.74018
▁th	-8.74049
▁line	-8.74075
▁feet	-8.74219
▁hope	-8.74234
yes	-8.74519
nk	-8.74619
▁family	-8.74642
▁top	-8.74711
▁order	-8.74763
▁care	-8.74855
▁paper	-8.75114
▁south	-8.75547
but	-8.75624
▁against	-8.75666
▁hands	-8.75686
▁along	-8.75759
▁brother	-8.76044
▁sea	-8.76138
▁n	-8.76295
▁upon	-8.76329
▁cut	-8.76433
rs	-8.76834
▁short	-8.76897
▁mom	-8.77015
▁fine	-8.77199
▁days	-8.77643
▁during	-8.77822
▁actually	-8.77852
▁king	-8.77923
▁pe	-8.78192
▁voice	-8.78275
my	-8.78685
▁win	-8.78718
▁wrong	-8.78733
▁music	-8.78816
▁mu	-8.79114
▁sound	-8.7924
▁rock	-8.7931
▁cla	-8.79392
▁team	-8.79581
▁food	-8.79666
▁h	-8.79934
by	-8.79949
mb	-8.79973
▁age	-8.80246
what	-8.80288
▁pay	-8.80984
▁wasn	-8.81144
▁4	-8.8128
well	-8.81314
▁floor	-8.81557
ner	-8.82068
▁pi	-8.82119
our	-8.82187
▁wouldn	-8.82299
▁ri	-8.8232
▁town	-8.82378
▁bear	-8.8242
▁sometimes	-8.82519
▁hello	-8.8253
▁outside	-8.82648
pi	-8.82683
nan	-8.82772
bu	-8.82942
é	-8.82999
▁question	-8.82999
▁county	-8.83207
▁sec	-8.83396
▁horse	-8.83486
▁guess	-8.83488
▁country	-8.83518
ud	-8.83524
fa	-8.83659
ja	-8.83718
fi	-8.83744
▁fun	-8.83951
▁united	-8.83974
▁tea	-8.84145
▁word	-8.84202
▁noise	-8.84361
▁v	-8.84797
▁died	-8.84805
▁present	-8.84957
▁mine	-8.85344
▁seven	-8.85451
▁wi	-8.85491
▁sun	-8.85643
▁sc	-8.86223
▁ste	-8.86334
ron	-8.86443
ey	-8.86445
ru	-8.86462
▁wonder	-8.8674
ki	-8.86865
▁fish	-8.8706
▁el	-8.87113
▁gotta	-8.87333
),	-8.87408
▁front	-8.87457
ten	-8.87465
▁walk	-8.87545
red	-8.87583
▁picture	-8.87628
▁hair	-8.88023
▁poor	-8.88129
childes	-8.88139
▁cat	-8.88581
ring	-8.89111
▁understand	-8.89508
ut	-8.89517
▁job	-8.89599
▁su	-8.89701
▁trying	-8.89729
▁son	-8.90056
▁bird	-8.90066
▁jo	-8.90194
▁able	-8.90447
+	-8.90541
|	-8.90541
▁brought	-8.90543
▁states	-8.90972
▁group	-8.91071
▁song	-8.91169
end	-8.9125
1:	-8.91371
▁minute	-8.91376
▁almost	-8.91594
▁saying	-8.91901
pa	-8.91957
▁tu	-8.92013
▁behind	-8.9212
▁happy	-8.9212
▁throw	-8.9212
▁person	-8.92326
▁va	-8.92632
▁already	-8.93186
▁pat	-8.93218
for	-8.93368
▁lady	-8.93381
▁page	-8.93466
▁late	-8.935
val	-8.93608
▁friends	-8.93628
▁change	-8.93813
ger	-8.93897
▁seemed	-8.94019
▁probably	-8.94265
▁national	-8.94308
ned	-8.94401
▁full	-8.94464
way	-8.94508
ally	-8.94602
▁sta	-8.94667
▁woman	-8.94808
▁ti	-8.94827
▁du	-8.94998
▁began	-8.95095
ial	-8.95163
▁wish	-8.95492
▁–	-8.95504
▁gr	-8.95505
ning	-8.95679
▁2	-8.95804
so	-8.95874
ok	-8.95885
▁thomas	-8.95904
▁sw	-8.96379
▁wh	-8.96977
▁mark	-8.97231
oo	-8.97452
▁eight	-8.97606
▁lost	-8.97631
▁qu	-8.97689
▁doctor	-8.97691
▁till	-8.97904
pat	-8.98052
▁playing	-8.98447
os	-8.98635
▁lu	-8.98644
▁bri	-8.99421
ure	-8.99855
▁boat	-8.99911
▁case	-9.0002
gi	-9.00046
▁guy	-9.0015
▁fact	-9.00229
▁record	-9.00412
▁stick	-9.00414
▁someone	-9.00493
▁sent	-9.00663
▁si	-9.0071
▁couldn	-9.00717
▁6	-9.00959
▁reason	-9.0099
cu	-9.01328
ily	-9.01389
ley	-9.01428
▁arm	-9.01561
▁hundred	-9.01571
▁fa	-9.01585
▁5	-9.01721
▁fl	-9.01933
ff	-9.02044
▁window	-9.02171
▁stuff	-9.02176
▁cha	-9.02504
▁letter	-9.02561
▁beautiful	-9.02744
▁however	-9.02838
▁taken	-9.0303
▁twenty	-9.03336
▁ben	-9.03369
▁fast	-9.03486
▁tra	-9.03506
",	-9.03818
▁cold	-9.03819
▁started	-9.03925
▁played	-9.04339
dad	-9.04354
▁hat	-9.04478
▁true	-9.04486
—	-9.04506
▁hu	-9.04763
ya	-9.04921
00	-9.0498
▁became	-9.05133
that	-9.0514
gu	-9.05303
▁fell	-9.05429
▁hot	-9.056
▁myself	-9.05738
▁touch	-9.05775
”	-9.06079
▁form	-9.0623
▁brown	-9.06353
▁pass	-9.06407
gan	-9.06415
▁inside	-9.06605
▁street	-9.06962
▁uhhuh	-9.0701
▁act	-9.07221
▁sal	-9.07261
ite	-9.07419
▁death	-9.07607
▁dead	-9.0773
▁laugh	-9.07838
▁ran	-9.07915
▁har	-9.07971
▁glad	-9.08202
nie	-9.08271
▁mum	-9.08425
con	-9.08585
▁cho	-9.08837
▁sister	-9.08849
▁free	-9.08894
▁em	-9.08903
▁early	-9.08994
ious	-9.09089
▁makes	-9.09093
!”	-9.09174
▁aren	-9.09361
▁visit	-9.0946
▁wood	-9.09495
▁turned	-9.09496
▁taking	-9.09498
car	-9.09541
▁dark	-9.09581
ran	-9.09937
▁plan	-9.09961
▁break	-9.10087
▁captain	-9.10093
▁jump	-9.10113
▁road	-9.1014
ble	-9.10195
tu	-9.10284
ler	-9.10474
aft	-9.10623
▁push	-9.1079
▁speak	-9.10886
au	-9.11015
▁pull	-9.1103
▁french	-9.11365
▁several	-9.11365
▁fi	-9.11442
ever	-9.11564
▁deal	-9.11606
▁gu	-9.11619
▁count	-9.11675
▁times	-9.11926
▁river	-9.12047
▁nor	-9.12091
▁pen	-9.12203
lin	-9.12246
ig	-9.1232
▁toward	-9.12456
lt	-9.12533
▁clear	-9.12668
▁wife	-9.12671
▁ring	-9.12678
▁perhaps	-9.12707
der	-9.1303
ag	-9.13096
men	-9.13163
▁across	-9.13313
▁problem	-9.13313
born	-9.13318
ham	-9.13378
▁7	-9.13585
▁ju	-9.13806
all	-9.13851
▁thanks	-9.13884
▁yourself	-9.13971
▁funny	-9.14
▁hit	-9.14132
▁draw	-9.14197
side	-9.14219
how	-9.1429
▁trouble	-9.14633
qui	-9.14765
).	-9.14906
▁comp	-9.14955
▁large	-9.15096
▁either	-9.153
iz	-9.15403
▁x	-9.15624
io	-9.1584
▁means	-9.15858
ise	-9.15949
▁minutes	-9.16245
▁girls	-9.16343
▁ni	-9.16384
▁meet	-9.16433
ice	-9.16467
▁rather	-9.16669
▁special	-9.17331
▁foot	-9.17364
▁fair	-9.17386
▁eye	-9.17427
out	-9.17952
▁ground	-9.18024
ap	-9.18194
▁given	-9.18437
▁words	-9.18631
▁yellow	-9.18701
▁hurt	-9.18705
▁2020	-9.18708
▁france	-9.18722
▁tree	-9.18803
▁cor	-9.19108
▁cl	-9.19455
vo	-9.19571
▁class	-9.19609
▁8	-9.19934
▁roll	-9.19992
▁#	-9.20112
▁phone	-9.20195
▁living	-9.208
▁buy	-9.2101
ac	-9.21079
▁past	-9.21154
▁fr	-9.21283
ries	-9.21293
ren	-9.21426
▁dress	-9.21523
▁working	-9.21793
▁main	-9.21837
read	-9.21901
▁toys	-9.22029
www	-9.2222
ric	-9.22356
▁hour	-9.22546
▁lay	-9.2266
▁tri	-9.22675
▁football	-9.22942
▁club	-9.22951
▁milk	-9.23028
▁area	-9.23059
▁animals	-9.23076
▁pu	-9.23216
▁bob	-9.23245
▁leg	-9.23364
▁lead	-9.23371
of	-9.23616
▁wind	-9.23637
▁business	-9.23667
▁clean	-9.23667
▁alone	-9.23692
▁among	-9.23697
▁!	-9.2378
▁fo	-9.2383
▁catch	-9.2386
▁cos	-9.23981
▁gun	-9.24084
▁ge	-9.24113
▁write	-9.24138
▁ab	-9.24174
▁ow	-9.24236
▁company	-9.24397
▁body	-9.24452
▁answer	-9.24599
ris	-9.24709
▁ago	-9.24871
▁march	-9.25026
und	-9.25125
▁important	-9.25132
▁ar	-9.25197
▁peter	-9.25479
▁te	-9.25688
huh	-9.25689
▁careful	-9.25805
cent	-9.25819
▁comes	-9.25905
▁safe	-9.2607
▁bra	-9.26104
han	-9.26156
▁bag	-9.26471
▁sat	-9.26521
▁camp	-9.26708
▁fe	-9.26768
ex	-9.26947
▁grow	-9.2702
▁ok	-9.27188
▁doll	-9.2734
▁somebody	-9.27371
▁figure	-9.27371
▁chance	-9.27372
▁uncle	-9.27372
▁felt	-9.27386
time	-9.27425
▁cool	-9.27469
mer	-9.27996
▁english	-9.28129
▁women	-9.28129
▁send	-9.28255
light	-9.28626
▁sign	-9.28716
▁wall	-9.28766
▁york	-9.28892
▁aunt	-9.28979
▁20	-9.28981
▁[1	-9.29056
ors	-9.29176
▁west	-9.29255
ship	-9.29392
tain	-9.29498
▁often	-9.29749
▁sam	-9.30126
rus	-9.30182
▁bla	-9.30272
▁sub	-9.30398
▁shop	-9.30492
▁10	-9.30508
▁ship	-9.30547
don	-9.31025
ear	-9.3104
▁guys	-9.31131
▁seat	-9.31164
▁ski	-9.31172
▁everybody	-9.31218
▁dinner	-9.31218
▁min	-9.31228
▁fellow	-9.31242
▁fight	-9.31515
line	-9.31591
▁drive	-9.31863
ward	-9.31953
á	-9.32005
▁series	-9.32049
tur	-9.32182
let	-9.32464
loi	-9.32525
▁force	-9.32671
▁sing	-9.32687
▁bill	-9.3276
adu	-9.32776
▁afraid	-9.32799
▁daughter	-9.32799
▁indian	-9.3287
▁others	-9.32887
ens	-9.32974
▁become	-9.33006
▁ear	-9.33058
▁kep	-9.33136
▁bye	-9.33275
▁je	-9.33377
▁law	-9.33457
▁president	-9.33599
▁strong	-9.33604
wn	-9.3364
▁wow	-9.33668
▁egg	-9.337
▁y	-9.33833
▁carry	-9.33857
▁fit	-9.33863
tra	-9.33951
▁player	-9.34259
▁ke	-9.34405
▁usually	-9.34464
▁sitting	-9.34482
je	-9.34675
▁island	-9.34711
nder	-9.34721
▁tomorrow	-9.34779
▁che	-9.34898
uff	-9.35118
she	-9.35131
▁bi	-9.35164
▁power	-9.352
▁darling	-9.35232
▁park	-9.35275
▁inv	-9.3554
2:	-9.35676
▁held	-9.35701
ating	-9.35759
▁bus	-9.35843
▁birthday	-9.3604
▁least	-9.3604
▁return	-9.36355
▁cover	-9.36439
▁mountain	-9.36864
▁garden	-9.36872
▁frank	-9.36878
▁finger	-9.36883
▁region	-9.3689
▁running	-9.369
▁mouth	-9.36922
▁imp	-9.37105
▁port	-9.3717
▁finished	-9.3728
br	-9.37421
▁happen	-9.37452
▁village	-9.37698
▁mor	-9.3771
▁kiss	-9.37721
▁report	-9.37735
▁human	-9.37788
▁ice	-9.3784
pped	-9.38004
▁step	-9.38076
▁whatever	-9.38252
▁art	-9.38259
▁joe	-9.38303
den	-9.38326
▁police	-9.38538
▁check	-9.38605
▁ve	-9.38633
▁grand	-9.38896
▁cow	-9.39091
▁ye	-9.39208
▁hill	-9.39312
▁history	-9.39388
▁thinking	-9.39519
▁15	-9.3957
▁field	-9.3958
ray	-9.39633
▁feeling	-9.39673
▁ooh	-9.39678
▁career	-9.39846
aw	-9.40012
▁general	-9.40022
▁wants	-9.40037
▁include	-9.4024
▁spoke	-9.40243
▁summer	-9.40246
▁hall	-9.40337
▁duck	-9.40341
▁station	-9.40405
▁cross	-9.40446
▁cause	-9.40504
▁inter	-9.4063
low	-9.40714
▁cook	-9.40818
▁rain	-9.40909
▁noises	-9.41018
▁herself	-9.41102
▁cried	-9.41106
▁super	-9.41137
▁fix	-9.41163
ii	-9.41203
ical	-9.41234
ile	-9.41252
day	-9.41296
wi	-9.41305
▁board	-9.41375
▁bell	-9.41451
ung	-9.41692
▁kid	-9.41744
▁paint	-9.41909
▁engine	-9.41972
▁block	-9.41972
▁dream	-9.41972
▁thousand	-9.41972
▁married	-9.41973
▁church	-9.41979
fe	-9.42005
▁points	-9.42278
▁killed	-9.42475
▁sad	-9.425
▁tried	-9.42611
▁z	-9.42616
▁east	-9.42649
like	-9.42744
ub	-9.42747
▁hang	-9.42967
▁bu	-9.43056
▁reach	-9.4309
▁seems	-9.43256
▁waiting	-9.43626
▁term	-9.43743
▁ki	-9.43959
▁suppose	-9.44175
▁army	-9.44184
ight	-9.44327
▁wear	-9.44344
▁str	-9.44544
▁col	-9.44609
▁cake	-9.44749
▁boo	-9.44851
cds	-9.44918
▁tonight	-9.44997
ncy	-9.45007
▁lie	-9.45032
bel	-9.45156
▁remain	-9.45529
uc	-9.45622
▁drop	-9.45636
▁master	-9.45639
▁earth	-9.45696
jo	-9.45708
▁met	-9.45895
▁rose	-9.45914
▁sweet	-9.46226
unk	-9.46255
▁cur	-9.46302
ew	-9.46346
▁department	-9.46437
▁november	-9.46437
▁possible	-9.46437
▁whether	-9.46437
▁attack	-9.46438
▁truck	-9.46468
▁cro	-9.46519
▁eating	-9.46712
not	-9.46892
rate	-9.46973
lic	-9.4711
▁government	-9.47354
▁system	-9.47354
▁lovely	-9.47377
▁forget	-9.47377
one	-9.47422
▁lived	-9.47437
▁wash	-9.47476
night	-9.47494
ina	-9.47677
▁building	-9.47728
▁char	-9.4774
ible	-9.47826
▁kill	-9.47996
av	-9.48032
ze	-9.48271
▁district	-9.4828
▁object	-9.4828
▁space	-9.48281
▁ko	-9.48322
▁moo	-9.48366
▁tape	-9.48497
▁fra	-9.48577
▁cap	-9.48623
ab	-9.4866
ov	-9.48773
makes	-9.48915
put	-9.48943
▁post	-9.49045
▁follow	-9.49106
ration	-9.49128
▁ob	-9.49315
ju	-9.49396
ug	-9.49418
▁rule	-9.49532
▁lots	-9.49635
▁mat	-9.49838
▁quiet	-9.49942
▁pop	-9.50027
▁couple	-9.50158
▁court	-9.50163
▁million	-9.50186
▁tired	-9.50187
▁mad	-9.5019
▁decided	-9.50306
▁pan	-9.50349
ker	-9.50571
▁member	-9.50669
friend	-9.50797
▁fu	-9.50827
ened	-9.50944
▁husband	-9.5111
▁excuse	-9.51111
▁christmas	-9.51111
▁wild	-9.51129
▁deep	-9.51135
▁frog	-9.51176
▁less	-9.512
ang	-9.51243
▁nose	-9.51478
▁key	-9.51578
▁dance	-9.51634
fully	-9.5168
▁german	-9.51817
▁race	-9.51854
▁tro	-9.51857
▁smile	-9.52079
▁9	-9.52231
▁stone	-9.52238
▁sounds	-9.52314
▁officer	-9.52423
her	-9.52428
▁bur	-9.52494
ana	-9.52752
▁plane	-9.52755
▁office	-9.52783
kin	-9.52911
▁evening	-9.52997
▁easy	-9.53044
▁straight	-9.5305
▁track	-9.53146
ple	-9.53282
▁cop	-9.53361
▁bru	-9.53474
lie	-9.53599
▁quick	-9.53807
ft	-9.53962
▁service	-9.54023
▁university	-9.54023
▁april	-9.54024
▁lunch	-9.54027
▁worry	-9.54054
▁nine	-9.54117
▁gar	-9.54394
▁12	-9.54666
▁january	-9.55013
▁public	-9.55013
▁spot	-9.55021
▁juice	-9.5503
▁die	-9.55046
▁...	-9.55055
▁trust	-9.55073
▁anyway	-9.55128
▁fear	-9.55137
ky	-9.55233
▁beat	-9.5536
gr	-9.55392
ities	-9.55548
▁nearly	-9.55575
▁eh	-9.5561
room	-9.55736
▁17	-9.55775
▁offer	-9.55805
▁wee	-9.55915
▁warm	-9.55935
▁august	-9.56013
▁yesterday	-9.56013
▁replied	-9.56014
▁chief	-9.56014
▁snow	-9.561
some	-9.56132
▁gold	-9.56199
act	-9.56492
▁nu	-9.56614
ney	-9.56794
ste	-9.56804
▁kids	-9.56928
ko	-9.56931
cer	-9.56936
▁award	-9.56982
▁chicken	-9.57024
▁british	-9.57024
▁shot	-9.5703
▁den	-9.57056
▁plate	-9.57073
▁list	-9.57094
▁shout	-9.57203
use	-9.57415
▁learn	-9.57511
▁beside	-9.5754
ld	-9.5755
now	-9.57633
▁returned	-9.57679
▁ride	-9.57848
▁character	-9.58044
▁support	-9.58044
▁england	-9.58044
▁sense	-9.58047
▁chapter	-9.58064
▁honey	-9.58067
▁band	-9.58077
take	-9.58147
▁cannot	-9.58366
▁sy	-9.58381
dic	-9.58449
▁bang	-9.58487
20	-9.5851
▁fle	-9.58514
▁van	-9.58558
ory	-9.58575
▁pet	-9.58605
▁hole	-9.58718
ev	-9.58892
▁former	-9.59012
ized	-9.59044
▁explain	-9.59075
▁language	-9.59075
▁above	-9.59083
▁card	-9.59126
▁single	-9.59262
cla	-9.59307
000	-9.59394
▁putting	-9.59468
▁dan	-9.59478
uk	-9.59534
▁reached	-9.597
▁ph	-9.59725
▁burn	-9.59734
lor	-9.60083
▁type	-9.60133
lan	-9.60135
ism	-9.6016
▁pretend	-9.60173
▁bright	-9.60223
▁quickly	-9.60347
▁nin	-9.60354
vis	-9.60439
▁expect	-9.60633
▁11	-9.60779
urs	-9.61063
▁bath	-9.61148
▁exactly	-9.61169
▁nobody	-9.61169
▁wheel	-9.6117
▁instead	-9.6117
▁promise	-9.61171
▁travel	-9.61178
▁apple	-9.61187
▁broken	-9.61348
mu	-9.61463
▁lad	-9.61668
▁books	-9.61675
▁finish	-9.61712
▁seem	-9.62123
▁although	-9.62233
▁blood	-9.62233
▁television	-9.62233
▁third	-9.62233
▁lord	-9.62238
▁lives	-9.62418
▁hol	-9.62769
▁news	-9.62806
ide	-9.6287
▁stra	-9.63065
▁secret	-9.63303
▁example	-9.63308
▁february	-9.63308
▁everyone	-9.63341
▁indeed	-9.63344
▁happens	-9.63356
▁common	-9.63367
▁june	-9.63446
▁longer	-9.6346
▁bread	-9.63479
▁shape	-9.63497
cy	-9.63513
▁billy	-9.63689
ake	-9.63759
▁answered	-9.64094
▁gi	-9.64114
house	-9.64127
▁mama	-9.64201
illustration	-9.64384
▁middle	-9.64396
▁caught	-9.64416
▁season	-9.64469
ark	-9.64597
▁moon	-9.64623
▁fly	-9.64822
▁cre	-9.6483
▁cookie	-9.64832
there	-9.64993
ier	-9.65182
▁strange	-9.65205
singing	-9.65439
▁hospital	-9.65494
▁anymore	-9.65495
▁store	-9.65534
▁sand	-9.65576
▁charge	-9.65651
▁standing	-9.65781
▁teacher	-9.65783
▁arms	-9.65804
▁mary	-9.65904
right	-9.65913
▁months	-9.66015
▁forward	-9.66087
rit	-9.6621
com	-9.66233
▁mid	-9.66369
gh	-9.66481
▁13	-9.6652
▁control	-9.66605
▁difficult	-9.66605
▁monkey	-9.66605
▁spring	-9.66659
▁grandma	-9.66675
ough	-9.67033
ched	-9.67158
bra	-9.67195
ign	-9.67266
▁shoes	-9.67469
▁begin	-9.67725
▁december	-9.67729
▁october	-9.67729
▁climb	-9.67729
▁pardon	-9.67729
▁hungry	-9.67748
▁clothes	-9.67775
▁truth	-9.67776
▁belong	-9.67844
fch	-9.67975
gue	-9.68041
rid	-9.68096
▁test	-9.68117
▁following	-9.68349
▁meeting	-9.68605
▁passed	-9.68715
▁bottom	-9.68865
▁george	-9.68865
▁stopped	-9.68869
▁continue	-9.68984
▁paul	-9.68992
hu	-9.69086
▁base	-9.691
rick	-9.69383
▁plant	-9.69394
▁holding	-9.69473
▁rec	-9.69508
▁hours	-9.69703
▁wide	-9.69705
▁farm	-9.69721
▁changed	-9.69824
▁16	-9.69897
⌉	-9.70015
▁council	-9.70015
▁exclaimed	-9.70015
▁enjoy	-9.70015
▁stood	-9.70015
▁afternoon	-9.70015
")	-9.70266
gle	-9.70494
ouch	-9.70587
ther	-9.70587
▁supposed	-9.706
▁members	-9.70622
▁dat	-9.70706
gen	-9.70972
nu	-9.71079
▁ahead	-9.71142
▁bro	-9.7116
í	-9.71177
▁leaving	-9.71177
▁glass	-9.71183
▁doubt	-9.71184
▁beginning	-9.71192
▁hunt	-9.71221
▁‘	-9.7124
▁anyone	-9.71262
▁flowers	-9.71294
▁comm	-9.71375
▁sail	-9.71403
▁rid	-9.71439
▁worked	-9.7177
▁cheer	-9.71802
▁rep	-9.71898
–	-9.72031
▁para	-9.72064
▁san	-9.72077
van	-9.72263
▁giving	-9.72354
▁lift	-9.72407
▁oo	-9.72434
▁sick	-9.72485
▁ce	-9.725
▁interest	-9.72544
▁opera	-9.72618
▁mon	-9.72746
▁mc	-9.72837
they	-9.73145
▁personal	-9.73172
▁vo	-9.73267
▁certain	-9.73327
▁college	-9.73544
▁effect	-9.73544
▁written	-9.73544
▁breath	-9.73545
▁orange	-9.73546
▁murder	-9.73553
▁tiger	-9.73576
▁guard	-9.73582
▁loud	-9.73602
▁phil	-9.73609
▁sport	-9.73616
▁sky	-9.73653
▁position	-9.73656
▁lock	-9.73767
▁cost	-9.73799
qua	-9.73951
▁join	-9.74277
▁pot	-9.74332
lon	-9.74344
ford	-9.74389
▁sight	-9.74452
▁save	-9.74689
▁low	-9.74696
▁heavy	-9.74751
▁battle	-9.74783
▁somewhere	-9.7485
ade	-9.75012
▁appeared	-9.75032
oc	-9.75044
▁mess	-9.75092
old	-9.75096
▁press	-9.75119
▁fan	-9.75129
▁bun	-9.75275
▁original	-9.753
ught	-9.75587
child	-9.75845
▁fat	-9.75857
▁within	-9.75932
▁accept	-9.75969
▁except	-9.75969
▁film	-9.75972
▁treat	-9.75986
▁⌈	-9.75986
▁winter	-9.76106
▁lake	-9.76143
▁released	-9.76177
▁certainly	-9.76192
yard	-9.76209
▁roman	-9.76213
▁bow	-9.76228
nic	-9.76248
▁tail	-9.76283
▁pictures	-9.76781
pro	-9.76936
▁particular	-9.77203
▁commune	-9.77203
▁opened	-9.77207
▁robert	-9.77213
pr	-9.77238
▁fail	-9.77344
▁miles	-9.77349
▁yep	-9.77404
▁pack	-9.77435
▁cast	-9.77839
du	-9.77932
▁scar	-9.78105
come	-9.78135
can	-9.78192
▁hop	-9.78397
▁century	-9.78453
▁spirit	-9.78453
▁program	-9.78453
▁produce	-9.78454
▁sharp	-9.78458
▁africa	-9.78467
▁refer	-9.7851
nor	-9.78635
▁pink	-9.78708
▁shi	-9.78722
▁corner	-9.78763
▁bank	-9.78783
▁]	-9.78988
▁build	-9.79205
▁london	-9.79719
▁hurry	-9.79719
▁knock	-9.79719
▁account	-9.7972
mic	-9.7974
▁ought	-9.79791
▁amy	-9.79942
▁14	-9.79987
▁telling	-9.80333
burg	-9.8049
▁using	-9.80511
board	-9.80757
▁fred	-9.80835
▁whom	-9.80853
▁30	-9.80996
▁breakfast	-9.81001
▁parents	-9.81001
▁teeth	-9.81002
▁japan	-9.81016
▁hasn	-9.811
▁wake	-9.81154
sure	-9.81269
▁shake	-9.81371
▁bomb	-9.81538
ition	-9.82009
▁crayon	-9.823
▁rabbit	-9.823
▁major	-9.823
▁video	-9.823
▁local	-9.82303
▁soldier	-9.82305
▁view	-9.82335
▁dry	-9.82403
▁taste	-9.82409
▁helen	-9.82529
▁tv	-9.82598
▁added	-9.82677
air	-9.8288
▁pee	-9.83037
▁row	-9.83051
▁watching	-9.83059
ttle	-9.8306
ative	-9.83095
why	-9.83367
▁hy	-9.83386
▁trip	-9.83537
laugh	-9.83591
ji	-9.836
▁distance	-9.83617
▁scene	-9.83618
▁louis	-9.83621
▁further	-9.83622
▁suddenly	-9.83718
ified	-9.8374
▁yo	-9.83847
▁soft	-9.83863
▁pur	-9.83875
▁direct	-9.84007
▁wal	-9.84109
▁leader	-9.84328
ong	-9.8454
▁ver	-9.84613
▁ser	-9.84738
▁september	-9.84949
▁themselves	-9.84949
▁cheese	-9.8495
▁corn	-9.8495
pen	-9.84996
har	-9.85124
▁button	-9.85127
▁worth	-9.85164
orn	-9.85183
▁moved	-9.85247
▁driver	-9.85305
▁july	-9.85395
▁match	-9.85423
▁fill	-9.8545
mother	-9.85457
11	-9.85517
▁pain	-9.85653
▁dun	-9.85821
▁pin	-9.8587
▁feed	-9.85908
▁america	-9.85924
ept	-9.85929
▁tr	-9.85944
%	-9.85979
▁broke	-9.86174
vocalize	-9.863
▁circle	-9.863
▁coffee	-9.863
▁including	-9.863
▁kitchen	-9.863
▁michael	-9.863
▁upstairs	-9.863
▁anybody	-9.863
▁cloud	-9.86301
▁bridge	-9.86302
▁speed	-9.8631
▁cream	-9.86334
▁shut	-9.86435
▁blow	-9.86483
▁ze	-9.86697
▁reading	-9.86924
iff	-9.86949
▁bal	-9.86999
▁month	-9.87171
▁ter	-9.87198
clock	-9.87347
▁trees	-9.87511
▁sur	-9.8752
gar	-9.87603
▁elephant	-9.8767
▁project	-9.8767
▁thirty	-9.8767
▁escape	-9.87671
▁dropped	-9.87671
▁shoot	-9.87672
▁health	-9.87682
▁trans	-9.87683
▁bottle	-9.87694
▁bought	-9.87699
▁lin	-9.87724
▁jim	-9.87743
▁harry	-9.87768
dding	-9.87972
▁woo	-9.8798
mor	-9.88442
▁fla	-9.88712
▁led	-9.88737
▁op	-9.88758
then	-9.88769
▁rich	-9.88844
▁pocket	-9.89059
▁forgot	-9.89063
▁fraser	-9.89069
▁wor	-9.89119
▁brush	-9.89173
▁rob	-9.89715
▁fur	-9.90062
▁gene	-9.90108
points	-9.90149
field	-9.90158
ville	-9.90181
▁popular	-9.90467
▁attention	-9.90468
▁protect	-9.90468
▁welcome	-9.90468
▁natural	-9.90468
▁david	-9.90469
▁betty	-9.90488
▁received	-9.90819
▁dig	-9.90858
▁share	-9.91003
amp	-9.91098
▁dar	-9.91165
fri	-9.91207
▁hate	-9.91243
▁carl	-9.91391
▁surprise	-9.91442
▁size	-9.91449
▁pla	-9.9185
▁smell	-9.91898
▁proper	-9.91964
pic	-9.92142
▁hide	-9.92251
▁bowl	-9.924
▁bull	-9.92432
▁below	-9.9244
miss	-9.92476
col	-9.93061
ium	-9.93105
▁accident	-9.93345
▁respect	-9.93345
▁wrote	-9.93345
▁famous	-9.93345
▁collect	-9.93346
▁kitty	-9.93346
▁serious	-9.93358
▁bunny	-9.93371
▁remark	-9.93389
rac	-9.93446
▁action	-9.93501
▁finally	-9.93517
▁paris	-9.93909
za	-9.93917
▁wonderful	-9.94067
▁25	-9.94188
noise	-9.94593
▁command	-9.94626
where	-9.94663
▁current	-9.94816
▁peace	-9.94816
▁silver	-9.94816
▁writing	-9.94816
▁spoon	-9.94817
▁built	-9.94817
▁2018	-9.94823
▁james	-9.94825
▁sheep	-9.94837
▁sunday	-9.94841
▁gate	-9.95244
ctor	-9.95249
▁allowed	-9.95321
▁crying	-9.9533
▁busy	-9.95343
▁union	-9.95345
▁whisper	-9.95471
who	-9.95489
▁sch	-9.95707
kay	-9.95726
q	-9.95891
this	-9.95935
=	-9.95987
cher	-9.96203
▁conversation	-9.96308
▁fifty	-9.96309
▁minister	-9.96309
▁level	-9.96309
▁monster	-9.96334
▁rising	-9.96368
name	-9.96505
▁ears	-9.96509
▁wave	-9.96611
▁soul	-9.96611
▁tall	-9.96635
▁tim	-9.96848
▁suit	-9.96924
▁interesting	-9.96963
▁luc	-9.97012
▁based	-9.97041
▁cry	-9.97167
▁range	-9.97343
▁fer	-9.97428
just	-9.97681
ob	-9.97783
▁shoulder	-9.97791
▁population	-9.97824
▁machine	-9.97831
▁information	-9.97842
▁knee	-9.97842
▁study	-9.97846
▁pitch	-9.97881
▁mouse	-9.97884
▁direction	-9.97893
lyn	-9.98209
▁host	-9.98279
▁directed	-9.98434
▁gro	-9.98441
sses	-9.98483
▁consider	-9.98536
▁choo	-9.98666
▁hum	-9.98683
▁animal	-9.99076
▁flat	-9.99118
80	-9.99166
▁ham	-9.99202
▁rub	-9.99286
▁international	-9.99362
▁observ	-9.99362
▁babies	-9.99362
▁weather	-9.99364
▁carried	-9.99365
▁tower	-9.99462
▁pause	-9.99478
30	-9.99609
▁rush	-9.9961
▁forest	-9.99629
▁lower	-9.99689
▁grass	-9.99842
▁flu	-10.0019
illa	-10.0021
▁none	-10.0026
▁joy	-10.0079
▁california	-10.0092
▁mistake	-10.0093
▁moving	-10.0093
▁beach	-10.0094
▁charles	-10.0096
▁stuck	-10.0099
▁contain	-10.01
▁adam	-10.0102
▁teach	-10.0105
port	-10.0106
▁mix	-10.0111
▁cy	-10.0112
drew	-10.0116
▁allow	-10.0136
▁germany	-10.0138
az	-10.014
▁sla	-10.0155
fer	-10.0156
head	-10.0162
/0	-10.0165
▁squ	-10.0168
▁legs	-10.0171
▁laughed	-10.0225
▁butter	-10.0226
▁laughing	-10.0242
▁twelve	-10.0251
▁entire	-10.0251
▁imagine	-10.0251
▁sandwich	-10.0251
▁capital	-10.0251
▁crash	-10.0251
▁square	-10.0252
▁grew	-10.0254
▁delight	-10.0268
▁arch	-10.0278
hood	-10.028
▁ger	-10.0287
▁ken	-10.033
▁mass	-10.0358
box	-10.0396
▁flower	-10.0412
▁province	-10.0412
▁governor	-10.0412
▁league	-10.0412
▁result	-10.0413
▁william	-10.0413
▁twin	-10.0415
▁bobby	-10.0416
▁prim	-10.042
▁russian	-10.0425
▁cal	-10.0425
▁yu	-10.0427
▁bigger	-10.0428
▁neck	-10.0442
▁mal	-10.0474
▁cell	-10.049
hy	-10.0503
▁mac	-10.0564
▁due	-10.0572
▁declared	-10.0576
▁election	-10.0576
▁suffer	-10.0576
▁(19	-10.0578
▁luck	-10.0579
▁honor	-10.058
▁weren	-10.0591
hold	-10.0592
▁angel	-10.0592
▁easter	-10.0615
elle	-10.0618
▁pour	-10.0631
▁merc	-10.0641
▁pounds	-10.0647
pl	-10.0671
▁bat	-10.0681
▁bert	-10.0681
▁sum	-10.0706
hand	-10.0709
▁prince	-10.072
pol	-10.0741
▁puppet	-10.0743
▁puzzle	-10.0743
▁situation	-10.0743
▁simple	-10.0743
▁depend	-10.0743
▁shirt	-10.0743
▁center	-10.0743
▁gather	-10.0748
▁extra	-10.0749
▁stu	-10.0759
▁unless	-10.076
▁alive	-10.0761
▁aye	-10.0771
▁lose	-10.0805
▁28	-10.0811
▁continued	-10.0829
▁trade	-10.0834
ica	-10.0853
▁sell	-10.0856
▁agree	-10.0867
▁chocolate	-10.0913
▁quarter	-10.0913
▁student	-10.0913
▁design	-10.0913
▁championship	-10.0913
▁repeat	-10.0914
▁title	-10.0915
▁thou	-10.0919
▁fox	-10.092
▁exist	-10.0926
▁nick	-10.0929
place	-10.0933
lou	-10.0942
▁prove	-10.1007
▁cu	-10.1031
▁path	-10.1034
▁enter	-10.1056
ix	-10.1069
gged	-10.108
→	-10.1085
▁2022	-10.1085
▁division	-10.1085
▁occasion	-10.1085
▁condition	-10.1085
▁pleasant	-10.1085
▁future	-10.1085
▁length	-10.1085
▁queen	-10.1085
▁address	-10.1085
▁purpose	-10.1085
bility	-10.1087
▁total	-10.1091
ograph	-10.1094
babble	-10.1109
▁jane	-10.1115
▁created	-10.1117
oth	-10.112
10	-10.112
▁ci	-10.1137
40	-10.1157
▁scared	-10.1158
▁connect	-10.126
▁republic	-10.126
▁medicine	-10.126
▁cousin	-10.126
▁remove	-10.1261
▁adult	-10.1261
▁search	-10.1261
▁2016	-10.1261
▁favorite	-10.1261
▁walked	-10.127
war	-10.1271
▁slowly	-10.1276
▁official	-10.1287
▁stage	-10.1288
▁29	-10.1289
ria	-10.129
▁24	-10.1295
▁coat	-10.1296
▁scream	-10.1299
▁dam	-10.1311
▁picked	-10.1322
12	-10.1383
▁needed	-10.1392
▁grave	-10.1397
▁success	-10.14
gasps	-10.1405
▁mur	-10.1425
ku	-10.1425
▁announced	-10.1439
▁asleep	-10.1439
▁attempt	-10.1439
▁experience	-10.1439
▁computer	-10.1439
▁2021	-10.144
▁hiding	-10.1441
▁gift	-10.1441
▁victor	-10.1442
▁fool	-10.1446
▁missing	-10.1459
▁loved	-10.146
counter	-10.1463
▁tax	-10.1464
▁uhoh	-10.1466
▁notice	-10.1473
▁relat	-10.1497
pick	-10.1503
▁shin	-10.1511
▁interested	-10.152
▁gain	-10.1536
▁vote	-10.1541
▁happening	-10.1551
▁pig	-10.1579
▁)	-10.1586
▁lid	-10.1588
▁complete	-10.1601
18	-10.1613
▁india	-10.1614
ath	-10.1615
▁author	-10.1618
▁turning	-10.162
▁2017	-10.1621
▁maggie	-10.1621
▁crazy	-10.1621
▁anxious	-10.1621
▁smoke	-10.1621
▁patient	-10.1621
▁judge	-10.1621
▁danger	-10.1621
▁magic	-10.1622
▁smart	-10.1623
▁regard	-10.1623
▁normal	-10.1624
▁colour	-10.1624
▁coast	-10.1625
▁arrived	-10.1637
arrow	-10.1639
pan	-10.1642
▁stan	-10.1653
▁director	-10.1669
▁needta	-10.1675
▁lap	-10.1692
▁singer	-10.1704
▁whoa	-10.1711
▁shouldn	-10.1715
▁date	-10.1732
▁covered	-10.174
▁suggest	-10.1752
▁gal	-10.1786
glo	-10.1787
▁handle	-10.1788
▁sue	-10.1793
ö	-10.1806
▁approach	-10.1806
▁professional	-10.1806
▁beyond	-10.1806
▁discuss	-10.1806
▁driving	-10.1806
▁snake	-10.1806
▁self	-10.1806
▁period	-10.1806
▁nature	-10.1806
▁crack	-10.1806
▁social	-10.1806
▁asking	-10.1807
▁edge	-10.1808
▁sugar	-10.1808
▁slip	-10.1808
▁clever	-10.1809
▁laura	-10.1809
▁walking	-10.1811
▁roof	-10.1813
▁martin	-10.1825
▁score	-10.1827
▁plain	-10.1848
▁clock	-10.185
▁signal	-10.1864
here	-10.1867
cul	-10.1883
▁realize	-10.1892
▁anna	-10.1944
▁drawing	-10.1953
play	-10.1961
wood	-10.1963
▁tru	-10.1969
▁mostly	-10.1974
▁opening	-10.1982
▁role	-10.1986
▁census	-10.1995
▁difference	-10.1995
▁eleanor	-10.1995
▁constant	-10.1995
▁civil	-10.1995
▁album	-10.1995
▁kingdom	-10.1995
▁branch	-10.1995
▁model	-10.1995
▁spell	-10.1996
▁bedroom	-10.1999
▁tight	-10.2001
▁silence	-10.201
▁comb	-10.2013
▁paid	-10.2015
▁weak	-10.2029
▁huge	-10.203
▁shoe	-10.2039
▁ty	-10.2044
▁bless	-10.2046
gro	-10.2057
▁closed	-10.206
▁papa	-10.2062
▁("	-10.2063
▁camera	-10.2069
fad	-10.2087
win	-10.2099
berg	-10.2101
▁lee	-10.2108
0,000	-10.2109
ette	-10.2126
--"	-10.2128
[	-10.2155
▁pulled	-10.2155
▁nap	-10.2166
▁final	-10.2176
▁absolutely	-10.2187
▁advance	-10.2187
▁blanket	-10.2187
▁subject	-10.2187
⌋	-10.2187
▁australia	-10.2187
▁central	-10.2187
▁express	-10.2187
▁background	-10.2187
▁folk	-10.2187
▁jesus	-10.2187
▁price	-10.2188
▁forgotten	-10.2189
▁richard	-10.219
▁issue	-10.219
▁bound	-10.2193
▁spread	-10.2193
▁kick	-10.2202
▁anne	-10.2206
▁trick	-10.221
▁laid	-10.2212
▁reaches	-10.2222
pose	-10.2227
▁crew	-10.2233
▁agreed	-10.2239
▁bite	-10.224
▁calm	-10.2245
▁apart	-10.2255
▁del	-10.226
verse	-10.2264
▁add	-10.2266
▁lion	-10.2286
▁caused	-10.2291
▁followed	-10.2298
▁tan	-10.23
ura	-10.23
▁wearing	-10.2303
▁bin	-10.2318
▁settle	-10.2343
▁develop	-10.2379
▁disappear	-10.2383
▁increase	-10.2383
▁wound	-10.2383
▁speech	-10.2383
▁fault	-10.2383
▁steven	-10.2383
▁teddy	-10.2383
▁fresh	-10.2383
▁therefore	-10.2383
▁gentleman	-10.2385
▁bump	-10.2392
▁spend	-10.2392
▁western	-10.2396
▁max	-10.2422
▁actor	-10.2436
chuckles	-10.2463
▁joined	-10.2472
▁flying	-10.2479
▁learned	-10.2487
west	-10.2492
▁artist	-10.2495
▁watched	-10.251
▁forty	-10.252
▁bone	-10.2527
cries	-10.2538
▁speaking	-10.2544
▁dare	-10.2553
▁perfect	-10.2563
▁singing	-10.2579
▁according	-10.2583
▁correct	-10.2583
▁effort	-10.2583
▁lieutenant	-10.2583
▁olympic	-10.2583
▁education	-10.2583
▁vessel	-10.2583
▁itself	-10.2583
▁washington	-10.2583
▁wolf	-10.2583
▁crowd	-10.2583
▁spain	-10.2583
▁pleasure	-10.2583
▁instant	-10.2583
▁royal	-10.2583
▁silly	-10.2584
▁2014	-10.2584
▁monday	-10.2584
▁dangerous	-10.2585
▁message	-10.2588
▁saint	-10.2596
▁thus	-10.2603
▁reg	-10.2603
▁tiny	-10.2617
▁jess	-10.2629
uh	-10.2634
lves	-10.2648
▁dolly	-10.2666
▁christ	-10.271
▁gen	-10.2711
▁mill	-10.2724
▁hug	-10.2756
▁describe	-10.2787
▁victim	-10.2787
▁easily	-10.2787
▁prepared	-10.2787
▁slide	-10.2787
▁centre	-10.2788
▁appearance	-10.2789
▁christian	-10.279
▁roger	-10.2798
▁lying	-10.2798
ize	-10.2805
▁manner	-10.2824
▁brain	-10.2835
sib	-10.2841
▁gil	-10.2848
▁farmer	-10.2871
▁tur	-10.2892
with	-10.2919
▁fighting	-10.2923
▁anti	-10.2923
▁mont	-10.2925
zo	-10.2934
▁bush	-10.2937
▁sigh	-10.2959
▁swing	-10.2981
▁radio	-10.299
▁perform	-10.2993
▁decision	-10.2995
▁especially	-10.2995
▁terrible	-10.2995
▁companion	-10.2995
▁holiday	-10.2995
▁fruit	-10.2995
▁science	-10.2995
▁affair	-10.2996
▁japanese	-10.2996
▁enemy	-10.2996
▁deliver	-10.2996
▁double	-10.2996
▁firm	-10.2996
▁charlie	-10.2997
▁attend	-10.2997
▁jwww	-10.3001
▁smith	-10.3001
▁batter	-10.3004
▁lesson	-10.301
▁grant	-10.3012
ology	-10.3017
fect	-10.3025
▁choose	-10.3028
▁tie	-10.3031
▁worse	-10.3039
vol	-10.3047
▁bark	-10.3054
▁serve	-10.3073
▁log	-10.3111
▁bother	-10.3122
▁wise	-10.3144
▁dust	-10.3154
▁()	-10.3173
14	-10.3174
▁pie	-10.3179
90	-10.3204
▁21	-10.3206
▁execut	-10.3208
▁destroy	-10.3208
▁journey	-10.3208
▁plenty	-10.3208
▁politician	-10.3208
▁professor	-10.3208
▁scott	-10.3208
▁conduct	-10.3208
▁spider	-10.3208
▁drama	-10.3208
▁storm	-10.3209
▁dozen	-10.3209
▁whoops	-10.3213
▁ladies	-10.3215
▁castle	-10.3227
riv	-10.323
▁spent	-10.3235
▁shown	-10.3235
▁lucky	-10.3246
▁discovered	-10.3257
▁prisoner	-10.3274
▁surprised	-10.3276
coming	-10.3279
▁skin	-10.3291
▁flag	-10.3309
▁meat	-10.3313
mate	-10.3334
▁hardly	-10.334
▁ku	-10.3358
▁rate	-10.337
95	-10.3405
64	-10.3411
▁site	-10.3414
▁custom	-10.3426
▁various	-10.3426
▁glance	-10.3426
▁border	-10.3426
▁honest	-10.3426
▁coach	-10.3426
▁angry	-10.3427
▁provide	-10.3428
▁countries	-10.3429
▁immediately	-10.3432
▁flash	-10.3434
▁santa	-10.3437
▁market	-10.344
▁hotel	-10.3444
▁golden	-10.3445
▁drug	-10.3448
▁rank	-10.3535
roz	-10.3581
off	-10.3584
mark	-10.3594
work	-10.3616
back	-10.3621
▁europe	-10.3642
▁adventure	-10.3648
▁airplane	-10.3648
▁excited	-10.3648
▁interrupt	-10.3648
▁political	-10.3648
▁similar	-10.3648
▁smiling	-10.3648
▁female	-10.3648
▁potato	-10.3648
▁prize	-10.3648
▁swimming	-10.3648
▁northern	-10.3648
▁crime	-10.3648
▁southern	-10.3648
▁everywhere	-10.3652
▁choice	-10.3652
▁horn	-10.3653
▁spec	-10.3654
▁desk	-10.3655
▁movement	-10.3672
▁pair	-10.3672
▁&	-10.3672
▁trail	-10.3673
▁awful	-10.3681
▁slave	-10.369
▁22	-10.3695
▁served	-10.3697
▁za	-10.3704
▁entered	-10.3717
▁writer	-10.3728
call	-10.3737
cap	-10.3762
turn	-10.3775
▁tin	-10.3779
75	-10.3818
▁appear	-10.382
▁2013	-10.3875
▁community	-10.3875
▁independent	-10.3875
▁saturday	-10.3875
▁establish	-10.3875
▁ourselves	-10.3875
▁twice	-10.3875
▁buddy	-10.3875
▁knowledge	-10.3875
▁engage	-10.3875
▁concern	-10.3875
▁process	-10.3875
▁heaven	-10.3875
▁memory	-10.3876
▁demand	-10.3876
▁2011	-10.3877
▁henry	-10.3877
▁julia	-10.3877
▁korea	-10.3887
will	-10.3904
▁shri	-10.391
▁haha	-10.3914
laughing	-10.3932
24	-10.3932
▁yum	-10.3935
87	-10.3951
▁ban	-10.396
ux	-10.3994
sighs	-10.3997
▁lean	-10.4015
▁thy	-10.4026
boy	-10.4034
▁deck	-10.4034
▁discover	-10.4057
▁snap	-10.407
aid	-10.4107
▁association	-10.4108
▁previous	-10.4108
▁regular	-10.4108
▁naughty	-10.4108
▁throat	-10.4108
▁2007	-10.4108
▁empire	-10.4108
▁guitar	-10.4108
▁located	-10.4108
▁stories	-10.4108
▁worried	-10.4108
▁version	-10.4108
▁dollars	-10.4108
▁formula	-10.4108
▁2012	-10.4109
▁bathroom	-10.4109
▁pressure	-10.411
▁image	-10.4113
▁taught	-10.4113
▁duty	-10.412
▁risk	-10.4121
shire	-10.4123
▁jean	-10.4129
▁dick	-10.4171
▁sold	-10.4185
▁considered	-10.4188
▁26	-10.4198
▁ven	-10.4205
▁weight	-10.4212
▁expected	-10.4228
▁pound	-10.4253
▁val	-10.429
looking	-10.4314
when	-10.4314
known	-10.4315
▁tha	-10.4328
ably	-10.4332
▁nurse	-10.4341
▁apparently	-10.4346
▁committee	-10.4346
▁microphone	-10.4346
▁nervous	-10.4346
▁pizza	-10.4346
▁recognize	-10.4346
▁society	-10.4346
▁2008	-10.4346
▁amount	-10.4346
▁arrange	-10.4346
▁spanish	-10.4346
▁empty	-10.4346
▁honour	-10.4346
▁brief	-10.4346
▁evil	-10.4346
▁telephone	-10.4346
▁critic	-10.4346
▁cabin	-10.4346
▁separate	-10.4346
▁municipality	-10.4347
▁slow	-10.4348
voc	-10.4349
▁native	-10.4349
▁operation	-10.4351
▁giant	-10.4352
▁flight	-10.4359
▁spin	-10.436
▁nation	-10.4375
▁motion	-10.4377
gon	-10.438
▁metal	-10.4397
▁stranger	-10.4409
▁china	-10.4413
▁fourth	-10.4418
titude	-10.442
▁tele	-10.4429
▁saved	-10.4438
▁toast	-10.4444
▁fin	-10.4462
▁roar	-10.4502
▁prison	-10.4515
▁mil	-10.4524
phone	-10.4565
book	-10.4567
▁tip	-10.4581
▁flow	-10.4583
`	-10.459
▁caterpillar	-10.459
▁military	-10.459
▁earlier	-10.459
▁dirty	-10.459
▁admit	-10.459
▁eager	-10.459
▁thick	-10.459
▁stock	-10.459
▁gentlemen	-10.4591
▁prefer	-10.4593
55	-10.4596
▁medal	-10.4596
▁select	-10.4597
▁largest	-10.4604
▁published	-10.4609
▁thin	-10.4614
▁pool	-10.4618
▁fallen	-10.4631
▁duh	-10.4634
▁rais	-10.4636
stand	-10.4638
21	-10.4639
▁lara	-10.4654
▁noticed	-10.4656
▁100	-10.4663
▁rail	-10.4668
ggy	-10.467
▁goodness	-10.4677
200	-10.4697
▁mate	-10.4722
▁23	-10.4783
▁eva	-10.4802
▁episode	-10.484
▁private	-10.484
▁introduc	-10.484
▁marriage	-10.484
▁museum	-10.484
▁photograph	-10.484
▁research	-10.484
▁opinion	-10.484
▁punish	-10.484
▁dancing	-10.484
▁arrest	-10.484
▁require	-10.484
▁tongue	-10.484
▁pirate	-10.4844
▁production	-10.4844
▁odd	-10.4845
▁percent	-10.4846
▁hung	-10.4851
▁mister	-10.4856
▁q	-10.4857
▁drum	-10.4858
▁partner	-10.4859
▁motor	-10.4862
▁gang	-10.4868
▁grace	-10.4869
▁completely	-10.487
▁raised	-10.4897
soa	-10.4909
▁50	-10.492
▁strip	-10.4928
▁chu	-10.4973
16	-10.501
▁boss	-10.5065
▁barn	-10.5076
▁pale	-10.5077
ü	-10.5096
▁biscuit	-10.5096
▁bonnet	-10.5096
▁disease	-10.5096
▁downstairs	-10.5096
▁necessary	-10.5096
▁statistics	-10.5096
▁chicago	-10.5096
▁neither	-10.5096
▁struck	-10.5096
▁silent	-10.5096
▁quack	-10.5096
▁launch	-10.5096
▁actress	-10.5097
calais	-10.5097
▁afterwards	-10.5097
▁forgive	-10.5097
▁2015	-10.5097
▁limit	-10.5097
▁2010	-10.5098
▁capture	-10.5098
▁swim	-10.5106
▁claim	-10.5108
▁proud	-10.511
▁quietly	-10.5156
▁nest	-10.5171
▁grown	-10.5179
▁receive	-10.5242
59	-10.5313
▁release	-10.5314
(	-10.5327
brother	-10.5332
▁wine	-10.5356
▁favor	-10.5358
ó	-10.5359
▁excellent	-10.5359
▁extreme	-10.5359
▁obviously	-10.5359
▁possibly	-10.5359
▁suspect	-10.5359
▁2004	-10.5359
▁friday	-10.5359
▁detail	-10.5359
▁shock	-10.5359
▁contact	-10.5359
▁defend	-10.5359
▁text	-10.536
▁buried	-10.536
▁threat	-10.536
▁blind	-10.536
▁carrot	-10.536
▁valley	-10.5361
▁curious	-10.5363
▁development	-10.5365
▁arab	-10.5367
25	-10.537
▁boots	-10.5371
▁mike	-10.5382
▁chairman	-10.5382
▁italy	-10.5394
▁softly	-10.5403
35	-10.5416
ella	-10.5418
▁settled	-10.5421
▁chain	-10.5422
▁suggested	-10.5436
▁maid	-10.5438
▁eaten	-10.5471
▁chap	-10.5544
63	-10.559
▁create	-10.5591
music	-10.5598
good	-10.5598
▁cloth	-10.5621
~	-10.563
▁2019	-10.563
▁channel	-10.563
▁dinosaur	-10.563
▁egypt	-10.563
▁feature	-10.563
▁fifteen	-10.563
▁influence	-10.563
▁colonel	-10.563
▁democrat	-10.563
▁security	-10.563
▁magnet	-10.563
▁temple	-10.563
▁pillow	-10.563
-19	-10.563
▁pepper	-10.563
▁complain	-10.563
▁fortune	-10.563
▁lawyer	-10.563
▁shore	-10.563
▁purple	-10.5631
▁species	-10.5634
▁secretary	-10.5634
▁rough	-10.5634
▁kim	-10.5636
▁european	-10.5638
▁alex	-10.564
▁leap	-10.564
▁jenn	-10.5641
▁load	-10.5648
▁perfectly	-10.5659
▁chew	-10.5681
▁pear	-10.5687
▁tries	-10.569
▁brave	-10.5697
▁larger	-10.5698
▁generally	-10.57
berry	-10.5763
▁lamp	-10.5766
▁27	-10.5778
▁chase	-10.581
15	-10.581
▁pray	-10.5853
▁sudden	-10.5886
▁comfort	-10.5904
▁champion	-10.5906
▁represent	-10.5907
ä	-10.5907
▁advice	-10.5907
▁opposite	-10.5907
▁retired	-10.5907
▁2006	-10.5907
▁environment	-10.5907
▁joseph	-10.5907
▁2003	-10.5907
▁prevent	-10.5907
▁splash	-10.5907
▁attract	-10.5907
▁supper	-10.5907
▁leaf	-10.5907
▁switch	-10.5907
▁edward	-10.5908
▁bessie	-10.5908
▁transport	-10.5908
▁zoo	-10.5908
▁desert	-10.5908
▁mamma	-10.5908
▁mount	-10.5909
▁novel	-10.591
▁shift	-10.591
▁beep	-10.5912
▁damage	-10.5912
▁comment	-10.5917
▁bike	-10.5917
▁rope	-10.5936
▁compete	-10.5941
▁rice	-10.5944
▁commander	-10.5952
stone	-10.5953
33	-10.5959
▁successful	-10.5968
▁wipe	-10.5998
▁cock	-10.5998
▁chris	-10.6009
▁yup	-10.6012
morrow	-10.6061
star	-10.6139
▁decide	-10.6148
▁seal	-10.6154
▁creature	-10.6193
▁culture	-10.6193
▁definitely	-10.6193
▁eleven	-10.6193
▁impossible	-10.6193
▁opportunity	-10.6193
▁strength	-10.6193
▁electric	-10.6193
▁emperor	-10.6193
▁greek	-10.6193
▁sausage	-10.6193
▁shook	-10.6193
▁simply	-10.6193
▁refuse	-10.6193
▁stream	-10.6193
▁sarah	-10.6193
▁doggie	-10.6193
▁gordon	-10.6193
▁whistle	-10.6193
▁average	-10.6193
▁pilot	-10.6193
▁stairs	-10.6194
▁desire	-10.6194
▁content	-10.6194
▁style	-10.6195
▁consist	-10.6196
▁brook	-10.6197
▁apartment	-10.6199
▁cheap	-10.6199
▁scout	-10.6199
▁tough	-10.6201
▁guest	-10.621
▁grape	-10.6212
▁sake	-10.6243
▁joke	-10.6268
29	-10.6281
two	-10.6337
peter	-10.6413
▁bug	-10.6427
54	-10.6445
&	-10.6455
▁usual	-10.6466
▁rosa	-10.647
▁academy	-10.6487
▁positive	-10.6487
▁succeed	-10.6487
▁utterance	-10.6487
▁basket	-10.6487
▁equal	-10.6487
▁scratch	-10.6487
▁studied	-10.6487
▁confess	-10.6487
▁modern	-10.6487
▁horsie	-10.6487
▁request	-10.6487
▁improve	-10.6487
▁purdie	-10.6487
▁canadian	-10.6487
▁polish	-10.6487
▁affect	-10.6487
▁goodbye	-10.6487
▁rifle	-10.6487
▁measure	-10.6487
▁shopping	-10.6487
▁manager	-10.6488
▁reveal	-10.6488
▁cheek	-10.6488
▁banana	-10.6488
▁value	-10.6489
▁grandmother	-10.6489
▁curtain	-10.649
▁sentence	-10.6496
▁fold	-10.6498
▁canoe	-10.6499
▁anywhere	-10.65
▁tribe	-10.6501
▁dump	-10.6504
▁uhuh	-10.6505
▁sixty	-10.6508
▁fence	-10.6508
▁lamb	-10.6509
▁spare	-10.6524
▁princess	-10.6529
▁cash	-10.6531
▁debut	-10.654
▁steal	-10.6565
▁trap	-10.6575
nods	-10.6667
▁vol	-10.6679
elect	-10.6683
hou	-10.6697
▁faith	-10.673
▁russia	-10.6767
town	-10.678
▁evidence	-10.679
▁involved	-10.679
▁magazine	-10.679
▁passenger	-10.679
▁understood	-10.679
▁access	-10.679
▁2009	-10.679
▁federal	-10.679
▁powder	-10.679
▁caroline	-10.679
script	-10.679
▁clown	-10.679
▁crawl	-10.679
▁stretch	-10.679
▁alarm	-10.679
▁delay	-10.6791
▁split	-10.6791
▁latter	-10.6791
▁polly	-10.6791
▁tomato	-10.6792
▁italian	-10.6792
▁tractor	-10.6793
▁performance	-10.6793
▁ladder	-10.6794
▁weekend	-10.6802
▁cities	-10.6803
▁section	-10.6806
▁auto	-10.6807
▁buck	-10.6808
▁robin	-10.6823
86	-10.6838
▁tank	-10.6859
66	-10.6876
▁rise	-10.688
▁disco	-10.6897
whispers	-10.6964
worth	-10.7071
about	-10.7074
istic	-10.7081
▁neighbor	-10.7102
▁frightened	-10.7103
▁knife	-10.7103
▁mirror	-10.7103
▁response	-10.7103
▁revolution	-10.7103
▁stomach	-10.7103
▁penguin	-10.7103
▁sixteen	-10.7103
▁chinese	-10.7103
▁jerry	-10.7103
▁spoil	-10.7103
▁threw	-10.7103
▁witness	-10.7103
▁sword	-10.7103
▁remind	-10.7103
▁daniel	-10.7104
▁merry	-10.7104
▁whiskers	-10.7106
▁bucket	-10.7106
▁towel	-10.7106
▁philip	-10.7106
▁fancy	-10.7109
▁garage	-10.7111
▁broad	-10.7112
▁agent	-10.7113
▁penny	-10.7113
▁firstname	-10.7116
▁stir	-10.7124
▁candle	-10.7127
▁chest	-10.7132
▁prayer	-10.7185
coughs	-10.7282
▁grab	-10.7286
▁rome	-10.7296
▁chuck	-10.7303
▁31	-10.7305
long	-10.7348
▁gentle	-10.7421
▁construct	-10.7425
ā	-10.7425
▁borrow	-10.7425
▁practice	-10.7425
▁progress	-10.7425
▁respond	-10.7425
▁surface	-10.7425
▁treasure	-10.7425
▁brazil	-10.7425
▁degree	-10.7425
▁texas	-10.7425
▁1992	-10.7425
▁2002	-10.7425
▁ancient	-10.7425
▁freedom	-10.7425
▁pencil	-10.7425
▁accus	-10.7425
▁balloon	-10.7425
▁print	-10.7425
▁turtle	-10.7426
▁priest	-10.7426
▁photo	-10.7426
▁defeat	-10.7426
▁strike	-10.7427
▁irish	-10.743
▁authority	-10.743
▁aware	-10.7431
▁nursery	-10.7431
▁cliff	-10.7435
most	-10.7436
▁worst	-10.7436
▁assum	-10.7437
▁postman	-10.7439
▁sink	-10.7441
▁poet	-10.7481
▁gasp	-10.7509
▁cough	-10.7585
▁fashion	-10.7593
▁quot	-10.7707
▁circumstance	-10.7759
▁confirm	-10.7759
▁exercise	-10.7759
▁individual	-10.7759
▁majesty	-10.7759
stitute	-10.7759
è	-10.7759
▁buzz	-10.7759
▁congress	-10.7759
▁instrument	-10.7759
▁peanut	-10.7759
▁chemical	-10.7759
▁disturb	-10.7759
▁matthew	-10.7759
▁butterfly	-10.7759
▁bubble	-10.7759
▁deserve	-10.7759
▁examine	-10.7759
▁beauty	-10.7759
▁method	-10.7759
▁session	-10.7759
▁steady	-10.7759
▁eighteen	-10.7759
▁soviet	-10.7759
▁source	-10.7759
▁proceed	-10.7759
filler	-10.7759
▁screen	-10.7759
▁jelly	-10.7759
▁credit	-10.7759
▁boston	-10.776
▁awake	-10.776
▁plot	-10.776
▁jones	-10.776
▁peggy	-10.7761
▁sauce	-10.7761
▁worship	-10.7761
▁achieve	-10.7761
▁narrow	-10.7762
▁stole	-10.7763
▁wander	-10.7766
▁powerful	-10.7767
keep	-10.7768
posta	-10.7769
▁comic	-10.7775
▁upset	-10.7776
▁duke	-10.7776
▁secure	-10.7777
▁staff	-10.779
▁dash	-10.7819
▁etc	-10.7854
▁gaze	-10.7869
▁grandpa	-10.7976
position	-10.8072
▁advantage	-10.8103
▁grandfather	-10.8103
▁newspaper	-10.8103
▁squirrel	-10.8103
▁structure	-10.8103
▁switzerland	-10.8103
▁underneath	-10.8103
▁campaign	-10.8103
▁hockey	-10.8103
▁parliament	-10.8103
▁turkey	-10.8103
▁1970	-10.8103
▁reaction	-10.8103
▁feather	-10.8103
▁tradition	-10.8103
▁cruel	-10.8103
▁ahhah	-10.8103
▁weapon	-10.8104
▁biggest	-10.8104
▁elected	-10.8104
▁arthur	-10.8104
▁presence	-10.8104
▁gently	-10.8104
▁invited	-10.8104
▁greet	-10.8104
▁sweat	-10.8105
▁(201	-10.8108
▁toilet	-10.8113
▁alien	-10.8113
▁rattle	-10.8114
▁crane	-10.8116
▁losing	-10.8121
▁brand	-10.8171
▁sweetie	-10.8185
▁multi	-10.835
round	-10.8401
walk	-10.8435
draw	-10.8437
▁product	-10.8454
▁birth	-10.846
vocalization	-10.8461
▁assembly	-10.8461
▁available	-10.8461
▁citizen	-10.8461
▁competition	-10.8461
▁economic	-10.8461
▁headquarter	-10.8461
▁meanwhile	-10.8461
▁restaurant	-10.8461
▁temperature	-10.8461
▁favour	-10.8461
▁servant	-10.8461
▁savage	-10.8461
▁studio	-10.8461
▁thunder	-10.8461
▁amazing	-10.8461
▁article	-10.8461
▁squash	-10.8461
▁snack	-10.8461
▁plastic	-10.8461
▁possess	-10.8461
▁internet	-10.8461
▁dutch	-10.8461
▁woke	-10.8461
▁shelter	-10.8462
▁occurred	-10.8462
▁israel	-10.8462
▁graduat	-10.8462
▁airport	-10.8465
▁resist	-10.8465
▁ellie	-10.8466
——	-10.8468
▁planning	-10.8469
▁household	-10.847
▁ninety	-10.8471
▁spite	-10.8475
▁hook	-10.8475
▁alice	-10.8476
▁tender	-10.8477
▁pants	-10.8478
▁burst	-10.8489
▁pony	-10.8491
▁cub	-10.8654
bird	-10.88
overlap	-10.883
giggles	-10.8831
▁arrival	-10.8831
▁circus	-10.8831
▁energy	-10.8831
▁icecream	-10.8831
▁pakistan	-10.8831
▁tournament	-10.8831
▁companies	-10.8831
▁florence	-10.8831
▁hurried	-10.8831
▁neighbour	-10.8831
▁smooth	-10.8831
▁austria	-10.8831
▁2001	-10.8831
▁courage	-10.8831
▁palace	-10.8831
▁material	-10.8831
▁policy	-10.8831
▁slept	-10.8831
▁supply	-10.8831
▁fifth	-10.8831
▁document	-10.8831
▁ocean	-10.8831
▁bodies	-10.8831
▁covid	-10.8831
▁mummie	-10.8831
▁habit	-10.8831
▁protest	-10.8832
▁rescue	-10.8832
▁medical	-10.8832
▁nerve	-10.8832
▁railway	-10.8833
▁detective	-10.8833
▁drove	-10.8833
▁latin	-10.8834
▁hammer	-10.8834
▁ireland	-10.8835
▁comfortable	-10.8835
▁2000	-10.8842
venue	-10.8842
▁steam	-10.8854
▁media	-10.8941
pointing	-10.8957
▁benefit	-10.9216
▁distribute	-10.9216
▁fortunate	-10.9216
▁frequent	-10.9216
▁industry	-10.9216
▁organization	-10.9216
▁squeeze	-10.9216
▁strawberry	-10.9216
▁sweetheart	-10.9216
▁2023	-10.9216
▁basketball	-10.9216
▁universe	-10.9216
▁carriage	-10.9216
▁management	-10.9216
▁earnest	-10.9216
▁hidden	-10.9216
▁occupied	-10.9216
▁widow	-10.9216
▁recently	-10.9216
▁focus	-10.9216
▁afford	-10.9216
▁click	-10.9216
▁representative	-10.9216
▁witch	-10.9216
▁wagon	-10.9218
footnote	-10.9219
▁jeff	-10.9222
▁display	-10.9222
▁grandad	-10.9226
▁elder	-10.9227
▁weird	-10.9228
▁urge	-10.9229
▁grey	-10.9229
▁warren	-10.9229
▁interfere	-10.931
▁origin	-10.9432
silence	-10.9585
▁inform	-10.9614
▁centuries	-10.9616
▁conference	-10.9616
▁elizabeth	-10.9616
▁excitement	-10.9616
▁spaghetti	-10.9616
▁territory	-10.9616
▁tunnel	-10.9616
▁alexander	-10.9616
▁gloves	-10.9616
▁1950	-10.9616
▁byebye	-10.9616
▁dragon	-10.9616
▁ticket	-10.9616
▁nicole	-10.9616
▁scarcely	-10.9616
▁explore	-10.9616
▁insect	-10.9616
▁meadow	-10.9616
▁contract	-10.9616
▁shadow	-10.9616
▁terror	-10.9616
▁eagle	-10.9616
▁expert	-10.9616
▁devil	-10.9616
▁foreign	-10.9616
▁barrel	-10.9616
▁fond	-10.9617
▁oven	-10.9617
▁zip	-10.9617
▁dragg	-10.9617
▁loose	-10.9617
▁plum	-10.9617
▁kidding	-10.9619
▁illustrations	-10.962
saxon	-10.9621
▁trunk	-10.9621
▁guide	-10.9622
▁property	-10.9624
▁dawn	-10.9625
▁pipe	-10.9721
count	-10.9723
talk	-10.9928
whine	-10.9954
which	-11
mhm	-11.0007
▁actual	-11.0011
▁brilliant	-11.0032
▁despite	-11.0032
▁expensive	-11.0032
▁florida	-11.0032
▁giraffe	-11.0032
▁mistress	-11.0032
▁responsibilit	-11.0032
▁easier	-11.0032
▁francis	-11.0032
▁participat	-11.0032
▁review	-11.0032
▁triumph	-11.0032
▁puppy	-11.0032
▁broadcast	-11.0032
▁composed	-11.0032
▁consult	-11.0032
▁temper	-11.0032
▁belief	-11.0032
▁avoid	-11.0032
▁piano	-11.0033
▁stroke	-11.0033
▁profit	-11.0033
▁transfer	-11.0034
▁constitution	-11.0034
▁backwards	-11.0034
▁stern	-11.0035
▁emotion	-11.0035
▁yummy	-11.0035
▁armenia	-11.0036
▁becky	-11.0036
▁harold	-11.0036
▁solid	-11.0037
▁relative	-11.0039
▁slice	-11.0039
▁julie	-11.0051
▁compare	-11.0071
▁virginia	-11.0085
▁flip	-11.0137
▁clip	-11.0321
rrie	-11.0341
shouts	-11.0401
perhaps	-11.0435
▁descend	-11.0448
▁audience	-11.0467
▁commission	-11.0467
▁corporation	-11.0467
▁desperate	-11.0467
▁entrance	-11.0467
▁hurricane	-11.0467
▁ordinary	-11.0467
▁peekaboo	-11.0467
▁principal	-11.0467
▁resident	-11.0467
▁satisfied	-11.0467
▁vehicle	-11.0467
▁wednesday	-11.0467
}	-11.0467
▁climate	-11.0467
▁sydney	-11.0467
▁tuesday	-11.0467
▁zzz	-11.0467
▁cricket	-11.0467
▁nineteen	-11.0467
▁swallow	-11.0467
▁zealand	-11.0467
▁1994	-11.0467
▁1998	-11.0467
▁barbara	-11.0467
▁network	-11.0467
▁struggl	-11.0467
▁otherwise	-11.0467
▁vacation	-11.0467
▁recover	-11.0467
▁crisp	-11.0467
▁kitten	-11.0467
▁glory	-11.0467
▁reckon	-11.0467
▁false	-11.0467
▁particle	-11.0467
▁tickle	-11.0467
▁punch	-11.0467
▁resign	-11.0468
▁susan	-11.0469
▁racing	-11.0469
▁advise	-11.047
▁plus	-11.0471
▁obtain	-11.0471
▁severe	-11.0477
▁cents	-11.0477
▁faithful	-11.0555
▁continu	-11.0664
ological	-11.0809
mouth	-11.089
▁whisk	-11.0917
ú	-11.0922
▁accompani	-11.0922
▁acquaintance	-11.0922
▁continent	-11.0922
▁emergency	-11.0922
▁experiment	-11.0922
▁familiar	-11.0922
▁illinois	-11.0922
▁mexico	-11.0922
▁relationship	-11.0922
▁responsible	-11.0922
▁scotland	-11.0922
▁thirteen	-11.0922
▁tissue	-11.0922
▁traffic	-11.0922
š	-11.0922
▁confident	-11.0922
▁embarrass	-11.0922
▁library	-11.0922
▁scholar	-11.0922
▁quality	-11.0922
▁volume	-11.0922
▁replaced	-11.0922
▁deputy	-11.0922
▁madame	-11.0922
▁survey	-11.0922
▁retreat	-11.0922
▁eddie	-11.0922
▁lonely	-11.0922
▁dreadful	-11.0922
▁slipped	-11.0922
▁detect	-11.0922
▁pattern	-11.0922
▁destin	-11.0922
▁feast	-11.0922
▁anchor	-11.0922
▁nepal	-11.0923
▁addition	-11.0923
▁fetch	-11.0923
▁piggy	-11.0924
▁isabel	-11.0928
▁scale	-11.093
groans	-11.0994
▁whip	-11.1003
▁plea	-11.1377
ologist	-11.1396
cultural	-11.1398
▁distinct	-11.1398
pronounce	-11.1398
▁anthony	-11.1398
▁budget	-11.1398
▁communication	-11.1398
▁congratulations	-11.1398
▁convince	-11.1398
▁families	-11.1398
▁horror	-11.1398
▁incident	-11.1398
▁lincoln	-11.1398
▁sergeant	-11.1398
▁splendid	-11.1398
▁target	-11.1398
▁unusual	-11.1398
ç	-11.1398
{	-11.1898
à	-11.1898
ô	-11.2424
*	-11.2947
‘	-11.3535
â	-11.3568
ø	-11.3568
♪	-11.4161
°	-11.4859
æ	-11.4859
ō	-11.6343
\	-11.7176
─	-11.7176
£	-11.8085
↗	-11.8085
“	-11.9053
ł	-11.9085
↫	-11.9085
å	-11.9085
ã	-12.0197
#	-12.1414
č	-12.1447
ū	-12.1447
ß	-12.2875
¿	-12.2875
ò	-12.2875
ē	-12.2875
@	-12.2875
′	-12.4542
♫	-12.4542
ś	-12.4542
ž	-12.4542
ș	-12.4542
⌈	-12.651
ì	-12.6542
î	-12.6542
ï	-12.6542
ı	-12.6542
×	-12.6542
ş	-12.6542
ù	-12.9042
œ	-12.9042
ê	-12.9042
ë	-12.9042
⁎	-12.9042
ð	-13.2375
ī	-13.2375
∙	-13.2375
∞	-13.2375
✿	-13.2375
‐	-13.7375
^	-13.7375
	-13.7375
ě	-13.7375
ņ	-13.7375
ố	-13.7375
ồ	-13.7375
ń	-13.7375
▔	-13.7375
ą	-14.7358
ă	-14.7359
¡	-14.736
	-14.7361
	-14.7362
đ	-14.7363
§	-14.7364
•	-14.7365
ř	-14.7366
⁄	-14.7367
་	-14.7368
́	-14.7369
―	-14.737
ñ	-14.7371
ć	-14.7372
¶	-14.7373
⌊	-14.7374
ý	-14.7375
þ	-14.7375
ġ	-14.7375
€	-14.7375
<	-14.7375
>	-14.7375
	-14.7375
©	-14.7375
·	-14.7375
ĕ	-14.7375
ĭ	-14.7375
İ	-14.7375
ő	-14.7375
ũ	-14.7375
ź	-14.7375
ż	-14.7375
ư	-14.7375
ǎ	-14.7375
ǫ	-14.7375
ɑ	-14.7375
ʃ	-14.7375
ʊ	-14.7375
ː	-14.7375
̶	-14.7375
η	-14.7375
ν	-14.7375
й	-14.7375
ј	-14.7375
॥	-14.7375
ṉ	-14.7375
ṛ	-14.7375
ṣ	-14.7375
ṯ	-14.7375
ả	-14.7375
ắ	-14.7375
ề	-14.7375
ệ	-14.7375
ọ	-14.7375
ớ	-14.7375
ờ	-14.7375
‡	-14.7375
‰	-14.7375
ɪ	-14.7375
$	-14.7375
ʾ	-14.7375
ṭ	-14.7375
