<unk>	0
<s>	0
</s>	0
<pad>	0
<0x00>	0
<0x01>	0
<0x02>	0
<0x03>	0
<0x04>	0
<0x05>	0
<0x06>	0
<0x07>	0
<0x08>	0
<0x09>	0
<0x0A>	0
<0x0B>	0
<0x0C>	0
<0x0D>	0
<0x0E>	0
<0x0F>	0
<0x10>	0
<0x11>	0
<0x12>	0
<0x13>	0
<0x14>	0
<0x15>	0
<0x16>	0
<0x17>	0
<0x18>	0
<0x19>	0
<0x1A>	0
<0x1B>	0
<0x1C>	0
<0x1D>	0
<0x1E>	0
<0x1F>	0
<0x20>	0
<0x21>	0
<0x22>	0
<0x23>	0
<0x24>	0
<0x25>	0
<0x26>	0
<0x27>	0
<0x28>	0
<0x29>	0
<0x2A>	0
<0x2B>	0
<0x2C>	0
<0x2D>	0
<0x2E>	0
<0x2F>	0
<0x30>	0
<0x31>	0
<0x32>	0
<0x33>	0
<0x34>	0
<0x35>	0
<0x36>	0
<0x37>	0
<0x38>	0
<0x39>	0
<0x3A>	0
<0x3B>	0
<0x3C>	0
<0x3D>	0
<0x3E>	0
<0x3F>	0
<0x40>	0
<0x41>	0
<0x42>	0
<0x43>	0
<0x44>	0
<0x45>	0
<0x46>	0
<0x47>	0
<0x48>	0
<0x49>	0
<0x4A>	0
<0x4B>	0
<0x4C>	0
<0x4D>	0
<0x4E>	0
<0x4F>	0
<0x50>	0
<0x51>	0
<0x52>	0
<0x53>	0
<0x54>	0
<0x55>	0
<0x56>	0
<0x57>	0
<0x58>	0
<0x59>	0
<0x5A>	0
<0x5B>	0
<0x5C>	0
<0x5D>	0
<0x5E>	0
<0x5F>	0
<0x60>	0
<0x61>	0
<0x62>	0
<0x63>	0
<0x64>	0
<0x65>	0
<0x66>	0
<0x67>	0
<0x68>	0
<0x69>	0
<0x6A>	0
<0x6B>	0
<0x6C>	0
<0x6D>	0
<0x6E>	0
<0x6F>	0
<0x70>	0
<0x71>	0
<0x72>	0
<0x73>	0
<0x74>	0
<0x75>	0
<0x76>	0
<0x77>	0
<0x78>	0
<0x79>	0
<0x7A>	0
<0x7B>	0
<0x7C>	0
<0x7D>	0
<0x7E>	0
<0x7F>	0
<0x80>	0
<0x81>	0
<0x82>	0
<0x83>	0
<0x84>	0
<0x85>	0
<0x86>	0
<0x87>	0
<0x88>	0
<0x89>	0
<0x8A>	0
<0x8B>	0
<0x8C>	0
<0x8D>	0
<0x8E>	0
<0x8F>	0
<0x90>	0
<0x91>	0
<0x92>	0
<0x93>	0
<0x94>	0
<0x95>	0
<0x96>	0
<0x97>	0
<0x98>	0
<0x99>	0
<0x9A>	0
<0x9B>	0
<0x9C>	0
<0x9D>	0
<0x9E>	0
<0x9F>	0
<0xA0>	0
<0xA1>	0
<0xA2>	0
<0xA3>	0
<0xA4>	0
<0xA5>	0
<0xA6>	0
<0xA7>	0
<0xA8>	0
<0xA9>	0
<0xAA>	0
<0xAB>	0
<0xAC>	0
<0xAD>	0
<0xAE>	0
<0xAF>	0
<0xB0>	0
<0xB1>	0
<0xB2>	0
<0xB3>	0
<0xB4>	0
<0xB5>	0
<0xB6>	0
<0xB7>	0
<0xB8>	0
<0xB9>	0
<0xBA>	0
<0xBB>	0
<0xBC>	0
<0xBD>	0
<0xBE>	0
<0xBF>	0
<0xC0>	0
<0xC1>	0
<0xC2>	0
<0xC3>	0
<0xC4>	0
<0xC5>	0
<0xC6>	0
<0xC7>	0
<0xC8>	0
<0xC9>	0
<0xCA>	0
<0xCB>	0
<0xCC>	0
<0xCD>	0
<0xCE>	0
<0xCF>	0
<0xD0>	0
<0xD1>	0
<0xD2>	0
<0xD3>	0
<0xD4>	0
<0xD5>	0
<0xD6>	0
<0xD7>	0
<0xD8>	0
<0xD9>	0
<0xDA>	0
<0xDB>	0
<0xDC>	0
<0xDD>	0
<0xDE>	0
<0xDF>	0
<0xE0>	0
<0xE1>	0
<0xE2>	0
<0xE3>	0
<0xE4>	0
<0xE5>	0
<0xE6>	0
<0xE7>	0
<0xE8>	0
<0xE9>	0
<0xEA>	0
<0xEB>	0
<0xEC>	0
<0xED>	0
<0xEE>	0
<0xEF>	0
<0xF0>	0
<0xF1>	0
<0xF2>	0
<0xF3>	0
<0xF4>	0
<0xF5>	0
<0xF6>	0
<0xF7>	0
<0xF8>	0
<0xF9>	0
<0xFA>	0
<0xFB>	0
<0xFC>	0
<0xFD>	0
<0xFE>	0
<0xFF>	0
.	-2.8854
:	-3.36487
▁*	-3.41472
s	-3.43964
,	-3.4966
▁the	-3.60747
'	-3.83186
▁a	-4.16306
mot	-4.21904
▁you	-4.26824
▁and	-4.28171
▁i	-4.28715
▁to	-4.31555
?	-4.33912
chi	-4.41658
▁it	-4.53528
▁of	-4.55525
t	-4.60935
▁in	-4.64688
▁that	-4.75811
▁he	-5.13494
▁is	-5.15803
▁was	-5.23933
▁=	-5.33964
▁on	-5.37603
▁[	-5.4037
▁what	-5.4298
▁for	-5.46819
ed	-5.51966
▁we	-5.52841
▁"	-5.56826
ing	-5.60481
]	-5.62432
▁this	-5.6363
!	-5.6471
▁with	-5.69184
▁do	-5.69436
m	-5.72165
d	-5.72857
▁no	-5.73112
▁be	-5.7452
▁they	-5.76225
▁have	-5.8028
▁there	-5.80416
re	-5.80511
▁me	-5.81798
▁-	-5.83886
▁not	-5.85445
▁she	-5.85833
-	-5.8687
▁at	-5.90942
▁one	-5.91007
▁are	-5.9124
▁can	-5.92499
▁but	-5.95222
▁his	-5.98303
▁so	-6.01494
▁as	-6.06724
▁all	-6.07926
▁her	-6.10032
▁oh	-6.10725
▁yeah	-6.11459
▁my	-6.1282
▁don	-6.13618
▁know	-6.14488
ll	-6.159
...	-6.16097
▁your	-6.17061
i	-6.18039
▁had	-6.18207
▁go	-6.18872
▁up	-6.20246
▁like	-6.21373
▁	-6.24788
y	-6.25961
inv	-6.31266
▁from	-6.33319
ly	-6.33709
▁out	-6.35366
a	-6.36156
▁here	-6.38429
ve	-6.40836
▁get	-6.4143
▁him	-6.4289
e	-6.43498
er	-6.44462
▁by	-6.46131
▁if	-6.46771
▁just	-6.47301
▁an	-6.47843
▁now	-6.48
▁were	-6.48153
▁see	-6.48668
▁right	-6.49475
▁well	-6.51225
n	-6.53609
▁about	-6.55769
▁when	-6.56436
▁or	-6.56488
▁then	-6.58216
▁got	-6.63201
▁think	-6.63579
▁them	-6.6424
▁who	-6.64466
▁did	-6.6634
▁said	-6.67472
▁some	-6.68408
fat	-6.7007
▁where	-6.71244
▁come	-6.73215
r	-6.73875
▁will	-6.74099
;	-6.75421
▁look	-6.75497
▁would	-6.76188
▁yes	-6.77116
▁good	-6.7799
▁want	-6.80182
▁(	-6.82292
▁how	-6.83327
▁xxx	-6.85307
▁okay	-6.8612
▁“	-6.87777
▁little	-6.8848
▁put	-6.88871
].	-6.89265
▁down	-6.89335
▁time	-6.89458
in	-6.91029
▁going	-6.92116
▁more	-6.92695
’	-6.93051
▁been	-6.93291
▁back	-6.93632
"	-6.94035
▁over	-6.95552
."	-6.95664
▁two	-6.95879
▁very	-6.96004
▁has	-6.9608
▁which	-6.96793
▁b	-6.97656
▁their	-7.00503
o	-7.03494
)	-7.03982
▁'	-7.04255
▁let	-7.04762
▁could	-7.05829
es	-7.08604
▁say	-7.11437
c	-7.13927
▁other	-7.18104
▁man	-7.18175
al	-7.18799
▁why	-7.20066
▁make	-7.21374
▁take	-7.21684
,"	-7.22326
b	-7.22481
g	-7.22916
▁into	-7.23997
p	-7.25057
▁way	-7.25065
l	-7.2541
▁people	-7.26802
▁too	-7.29724
▁off	-7.31603
th	-7.31961
▁because	-7.32269
▁tell	-7.33196
▁first	-7.33272
▁us	-7.34107
▁s	-7.35164
▁gonna	-7.35691
▁after	-7.37565
▁any	-7.38481
▁only	-7.40327
▁these	-7.40419
▁re	-7.40485
le	-7.41342
▁our	-7.43413
w	-7.43759
h	-7.44585
▁uh	-7.44801
▁didn	-7.46937
--	-7.47318
▁er	-7.477
▁de	-7.48401
en	-7.48705
▁something	-7.4978
▁really	-7.50211
▁car	-7.50318
▁again	-7.50521
▁much	-7.52265
k	-7.54637
it	-7.55434
▁made	-7.55749
par	-7.56709
on	-7.58723
▁before	-7.58742
▁new	-7.59445
▁than	-7.60235
▁day	-7.60418
▁play	-7.61373
▁should	-7.62301
▁big	-7.62316
▁19	-7.62386
▁away	-7.63112
▁give	-7.63567
▁need	-7.64945
▁three	-7.65532
f	-7.66281
▁home	-7.66891
▁does	-7.67296
▁went	-7.67464
▁never	-7.67702
na	-7.68281
▁those	-7.68776
▁um	-7.69088
▁house	-7.69325
▁long	-7.69576
▁mean	-7.69687
▁work	-7.71357
▁came	-7.71669
an	-7.71759
▁even	-7.73122
▁old	-7.73125
or	-7.73653
▁also	-7.74298
▁wanna	-7.74418
ation	-7.74549
ne	-7.75042
▁e	-7.75326
▁another	-7.76305
u	-7.76769
▁thought	-7.76849
▁many	-7.77245
▁must	-7.77568
▁doing	-7.77812
▁o	-7.78712
the	-7.78769
▁mr	-7.7878
▁thing	-7.78823
_	-7.81079
▁still	-7.8144
▁am	-7.816
▁great	-7.81816
la	-7.82839
?"	-7.8302
▁help	-7.83043
▁name	-7.83359
▁things	-7.83388
ie	-7.83568
▁boy	-7.83624
ar	-7.83773
▁last	-7.83839
ch	-7.83938
▁may	-7.83999
▁head	-7.84273
exp	-7.84938
▁won	-7.85554
▁through	-7.8613
▁find	-7.8675
el	-7.87346
de	-7.87703
▁night	-7.87929
▁baby	-7.90361
/	-7.91368
▁mm	-7.9156
se	-7.92224
▁isn	-7.92232
ck	-7.92301
▁p	-7.92666
li	-7.93653
▁please	-7.93735
▁done	-7.93802
▁%	-7.94262
▁called	-7.94266
▁might	-7.94511
▁love	-7.94534
▁thank	-7.94627
▁hand	-7.94709
z	-7.95623
▁mother	-7.95858
▁water	-7.96192
ro	-7.96256
▁d	-7.97195
ry	-7.97317
▁un	-7.97643
▁found	-7.9787
▁bit	-7.99006
ers	-7.99875
ter	-7.99887
il	-7.999
▁around	-7.9997
▁nice	-8.00186
▁mhm	-8.00202
▁part	-8.00293
man	-8.00541
▁book	-8.00642
▁girl	-8.00888
▁better	-8.01496
▁sure	-8.01783
.”	-8.02406
us	-8.02502
to	-8.02587
ra	-8.02611
▁chi	-8.02858
▁life	-8.03086
▁place	-8.03981
▁hey	-8.05211
▁eat	-8.05305
▁most	-8.05346
no	-8.05371
▁while	-8.05428
▁ma	-8.05879
▁c	-8.06373
▁anything	-8.06692
ma	-8.06922
▁ah	-8.07281
▁school	-8.08184
▁erm	-8.08719
▁kind	-8.10378
ion	-8.10507
▁under	-8.10549
▁doesn	-8.10663
▁such	-8.11352
▁years	-8.11382
▁keep	-8.11481
as	-8.11942
▁next	-8.12352
▁father	-8.12446
▁used	-8.12618
▁shall	-8.12654
▁own	-8.12765
▁being	-8.13218
▁same	-8.13965
ia	-8.14021
lo	-8.14304
be	-8.14341
▁lot	-8.14422
▁show	-8.14463
,”	-8.14776
▁room	-8.1501
▁else	-8.15095
ment	-8.15119
add	-8.15446
and	-8.16799
▁con	-8.16993
!"	-8.17442
▁world	-8.17472
▁four	-8.17709
▁end	-8.17851
laughs	-8.18167
able	-8.18556
▁mummy	-8.18598
▁talk	-8.19092
ke	-8.19308
▁k	-8.19683
▁always	-8.20024
▁men	-8.2029
ce	-8.20475
▁left	-8.20636
▁saw	-8.20656
▁told	-8.20795
ur	-8.20968
▁la	-8.20989
▁nothing	-8.21205
est	-8.21234
ic	-8.21695
ta	-8.22008
▁looks	-8.22087
ton	-8.22326
▁hi	-8.22447
▁door	-8.22672
▁every	-8.22702
sis	-8.23228
x	-8.23305
et	-8.23365
▁use	-8.2341
▁wait	-8.2406
▁ever	-8.24162
▁call	-8.24952
▁co	-8.25557
▁ba	-8.26252
v	-8.26258
co	-8.26825
ist	-8.2688
▁side	-8.27011
▁huh	-8.2715
ri	-8.27275
▁sorry	-8.27636
vi	-8.27976
▁remember	-8.28039
▁f	-8.28424
▁five	-8.28691
▁daddy	-8.28877
▁hear	-8.29698
▁sit	-8.29909
▁gone	-8.30056
▁open	-8.30141
ul	-8.30411
ted	-8.30691
id	-8.30864
▁t	-8.31014
▁money	-8.31376
is	-8.31461
▁coming	-8.31481
▁ha	-8.31766
me	-8.31769
▁though	-8.32046
▁took	-8.32546
tea	-8.32566
▁enough	-8.32661
▁face	-8.3275
▁maybe	-8.32954
we	-8.33256
ity	-8.33432
▁red	-8.33571
▁stop	-8.34009
▁number	-8.34539
ian	-8.35242
▁morning	-8.35777
▁g	-8.35821
▁turn	-8.36252
do	-8.36316
▁once	-8.36412
▁goes	-8.3642
▁war	-8.36569
▁light	-8.36821
▁until	-8.37147
1	-8.37295
▁sir	-8.37472
ent	-8.37484
he	-8.37723
▁leave	-8.37748
▁fire	-8.38693
ha	-8.3872
▁best	-8.38918
▁second	-8.38982
▁w	-8.38984
ir	-8.39083
▁try	-8.3916
▁course	-8.39204
you	-8.39362
▁_	-8.3976
▁dear	-8.398
▁quite	-8.40009
▁ball	-8.40099
▁miss	-8.40387
▁year	-8.40539
ies	-8.40749
▁eyes	-8.41121
▁god	-8.41133
▁hard	-8.41316
▁feel	-8.41486
go	-8.41493
▁both	-8.42038
▁read	-8.42217
▁young	-8.42243
▁m	-8.42589
▁today	-8.42652
▁city	-8.42833
▁hm	-8.43259
▁box	-8.43288
▁yet	-8.43496
▁looking	-8.43541
ting	-8.43674
▁run	-8.44536
▁each	-8.44557
▁seen	-8.44557
em	-8.44842
▁asked	-8.44935
sh	-8.45375
da	-8.45426
▁round	-8.45506
▁few	-8.45514
ol	-8.4567
▁mo	-8.45864
▁together	-8.45915
▁soon	-8.46081
3	-8.46099
te	-8.46296
▁different	-8.46396
▁di	-8.46762
▁blue	-8.46914
▁bad	-8.47274
ine	-8.47276
▁mind	-8.47978
▁po	-8.48026
▁1	-8.48371
▁ra	-8.48519
▁stay	-8.48654
ty	-8.4887
▁ten	-8.48905
▁says	-8.49434
▁children	-8.4962
po	-8.4966
▁getting	-8.49786
▁without	-8.50131
▁♪	-8.50137
▁high	-8.50154
▁pro	-8.50186
bro	-8.5081
▁everything	-8.5101
▁na	-8.51085
▁ta	-8.51208
ling	-8.51578
▁far	-8.51618
▁black	-8.51731
am	-8.51866
ah	-8.51878
mch	-8.51917
▁watch	-8.52075
▁vi	-8.5226
▁ready	-8.52407
▁bed	-8.52984
▁later	-8.53076
▁heard	-8.5308
▁dis	-8.5312
▁mommy	-8.53498
▁between	-8.53685
▁3	-8.53747
▁known	-8.54016
ness	-8.54028
▁set	-8.54676
▁since	-8.55371
▁li	-8.5554
▁bo	-8.55555
cause	-8.55777
pe	-8.55897
2	-8.56227
▁half	-8.56267
ba	-8.56578
▁upon	-8.56763
▁hold	-8.5687
ver	-8.56912
ant	-8.56922
▁white	-8.57072
▁story	-8.571
▁haven	-8.57445
▁having	-8.57728
▁live	-8.57797
▁himself	-8.57977
▁small	-8.58135
▁hafta	-8.58203
▁move	-8.5856
▁mrs	-8.58711
▁happened	-8.59264
▁six	-8.5929
▁close	-8.59543
▁alright	-8.59798
▁real	-8.59848
▁lo	-8.60465
▁wanted	-8.60528
▁american	-8.60532
at	-8.60586
▁color	-8.60841
▁table	-8.60958
um	-8.60972
yes	-8.61012
son	-8.61057
▁near	-8.61266
▁pretty	-8.61569
ga	-8.61615
age	-8.61672
per	-8.61795
▁ask	-8.61853
gma	-8.6186
va	-8.61872
ate	-8.62041
▁top	-8.6207
▁dog	-8.62262
▁matter	-8.62272
▁along	-8.62528
▁child	-8.62641
▁18	-8.62926
▁friend	-8.63292
▁looked	-8.63303
5	-8.63443
▁sort	-8.63601
▁point	-8.63651
▁knew	-8.63809
▁ro	-8.63916
▁talking	-8.64022
▁green	-8.64045
▁heart	-8.64066
▁care	-8.64265
▁hello	-8.64325
▁le	-8.64477
tic	-8.65345
▁cat	-8.65666
▁r	-8.65714
▁train	-8.6587
▁believe	-8.66809
▁hands	-8.67175
▁en	-8.67209
land	-8.67642
▁ka	-8.67709
▁united	-8.67835
▁hope	-8.68049
▁moment	-8.68065
▁making	-8.68067
▁mar	-8.68634
▁bring	-8.68638
▁idea	-8.68721
▁family	-8.68751
j	-8.68879
▁against	-8.68898
gra	-8.68917
▁line	-8.69062
1:	-8.6914
ary	-8.69355
▁ho	-8.69367
▁actually	-8.69494
▁town	-8.69539
▁air	-8.7015
ci	-8.70241
▁gave	-8.70251
▁bar	-8.70265
ge	-8.70271
▁start	-8.70273
▁king	-8.70407
".	-8.70479
▁bear	-8.70507
▁party	-8.70593
▁boys	-8.70594
▁fine	-8.7079
▁da	-8.70862
mar	-8.71101
ca	-8.71119
ance	-8.71135
▁sleep	-8.71159
▁l	-8.71434
▁son	-8.71968
mp	-8.72427
▁v	-8.72493
▁paper	-8.72495
▁mot	-8.72558
▁during	-8.72609
▁2	-8.73118
▁n	-8.73332
▁noise	-8.73376
hi	-8.73553
▁movie	-8.73553
▁brother	-8.73656
▁wasn	-8.73686
ful	-8.74062
▁sea	-8.74203
less	-8.7464
up	-8.75033
▁land	-8.7504
▁whole	-8.75052
mo	-8.75095
▁game	-8.75127
▁born	-8.75174
▁voice	-8.75541
▁pre	-8.75682
▁team	-8.75808
mi	-8.75886
oh	-8.75906
▁rest	-8.75953
ni	-8.76009
▁died	-8.7606
▁person	-8.76185
▁days	-8.76693
▁u	-8.76765
▁mom	-8.76798
▁wouldn	-8.76935
▁cup	-8.77263
▁al	-8.77306
?”	-8.77577
▁food	-8.77728
▁state	-8.77933
6	-8.78095
ee	-8.78378
▁almost	-8.78403
▁per	-8.78457
+	-8.78458
▁song	-8.78459
led	-8.78468
▁pay	-8.78662
▁started	-8.78701
▁happy	-8.78835
▁states	-8.78935
▁dad	-8.79202
▁trying	-8.79386
▁word	-8.79476
▁sa	-8.79547
but	-8.79624
▁understand	-8.7964
—	-8.79955
0	-8.80139
ff	-8.80149
ng	-8.80179
▁listen	-8.80246
ish	-8.80553
▁john	-8.8066
bo	-8.8089
▁jack	-8.81041
▁saying	-8.81244
▁floor	-8.81368
ho	-8.81504
▁st	-8.81505
▁ya	-8.81525
un	-8.81537
▁walk	-8.81751
▁stand	-8.81875
▁minute	-8.82346
lu	-8.8236
▁mi	-8.82483
▁wrong	-8.8258
▁mine	-8.82617
▁already	-8.83164
▁playing	-8.83195
▁ca	-8.836
nan	-8.83614
▁probably	-8.83737
▁guess	-8.8384
▁job	-8.83873
▁cut	-8.83901
),	-8.83905
▁chair	-8.83986
▁hair	-8.84063
▁country	-8.84138
▁feet	-8.84499
di	-8.84664
▁hat	-8.85337
well	-8.85436
dy	-8.85472
▁drink	-8.85804
▁sound	-8.85994
▁woman	-8.86241
▁ran	-8.86658
▁north	-8.8698
▁pick	-8.87097
▁picture	-8.87446
▁order	-8.87556
▁case	-8.87588
wa	-8.87695
▁star	-8.87699
▁poor	-8.87729
▁lost	-8.87868
▁fall	-8.87953
▁ne	-8.88177
▁became	-8.88304
ki	-8.88476
ard	-8.88695
▁sec	-8.88798
▁thomas	-8.88859
▁began	-8.8905
▁lady	-8.89367
op	-8.89403
▁front	-8.8951
▁gra	-8.89529
▁short	-8.89627
bi	-8.90098
what	-8.90135
▁doctor	-8.90263
▁gotta	-8.90401
im	-8.9048
cha	-8.90511
▁sometimes	-8.90676
min	-8.9071
▁sun	-8.90721
▁ri	-8.90754
▁pa	-8.90841
▁change	-8.90981
▁friends	-8.91555
▁aren	-8.91582
int	-8.91835
▁lu	-8.92041
▁behind	-8.92092
▁hundred	-8.92098
▁page	-8.92135
▁music	-8.92174
▁boat	-8.92196
▁late	-8.92408
ring	-8.92582
▁full	-8.92725
▁group	-8.93045
ak	-8.93155
▁se	-8.93255
les	-8.93427
▁week	-8.93642
▁4	-8.93679
pa	-8.93925
▁played	-8.94239
▁–	-8.94379
▁outside	-8.94878
▁captain	-8.95092
▁hot	-8.95228
▁brought	-8.95939
é	-8.95943
▁dead	-8.96168
▁rock	-8.96187
ka	-8.96376
▁couldn	-8.96403
by	-8.96432
ugh	-8.96453
▁county	-8.96567
",	-8.96743
that	-8.9694
ated	-8.97073
▁du	-8.97156
▁horse	-8.97468
▁stuff	-8.97519
ley	-8.97555
▁sister	-8.97696
▁girls	-8.97755
▁national	-8.97889
▁road	-8.98073
ron	-8.98581
▁j	-8.98582
▁age	-8.98658
▁river	-8.98982
▁break	-8.99009
▁south	-8.99135
ten	-8.99374
▁turned	-8.99705
▁present	-8.99758
▁ga	-8.99768
▁ju	-8.99881
4	-8.99946
ster	-8.99978
▁tea	-9.00179
▁seemed	-9.00246
▁hurt	-9.00353
red	-9.00368
▁pe	-9.00534
▁arm	-9.00621
pat	-9.00625
▁guy	-9.00649
▁business	-9.01378
▁however	-9.01506
▁mark	-9.0159
▁piece	-9.01634
▁death	-9.01746
▁seven	-9.01855
▁fish	-9.01946
▁often	-9.01948
▁wish	-9.01969
▁someone	-9.01972
”	-9.02018
way	-9.02135
▁el	-9.02354
▁able	-9.03117
▁beautiful	-9.03148
bu	-9.03312
).	-9.03419
▁taken	-9.03515
▁fi	-9.03535
▁hit	-9.03572
▁jo	-9.04127
mon	-9.04326
▁tree	-9.04392
▁buy	-9.044
tion	-9.04418
▁taking	-9.04607
▁sh	-9.04818
rs	-9.04892
ph	-9.04895
▁early	-9.05063
▁area	-9.05097
ru	-9.05132
▁twenty	-9.05319
▁myself	-9.05344
gu	-9.05586
▁gu	-9.05736
▁fell	-9.05748
▁sha	-9.06004
▁h	-9.06068
au	-9.06074
my	-9.06233
▁wa	-9.06274
▁ex	-9.06535
▁inside	-9.06548
▁th	-9.0658
ad	-9.06943
▁ja	-9.0695
▁ship	-9.06963
▁large	-9.07075
ow	-9.07445
▁cold	-9.07651
!”	-9.07694
▁ring	-9.07805
▁yourself	-9.07864
▁5	-9.08194
▁rather	-9.08482
▁free	-9.0879
dad	-9.0884
▁dr	-9.08999
▁yellow	-9.09138
▁till	-9.09281
▁times	-9.0935
que	-9.09563
▁fun	-9.09609
▁true	-9.09767
▁fact	-9.09886
men	-9.10013
▁perhaps	-9.10025
▁means	-9.10093
▁words	-9.10249
▁reason	-9.1047
▁eight	-9.10602
▁class	-9.10741
▁wife	-9.10793
if	-9.10886
||	-9.10905
▁hu	-9.11068
▁sent	-9.11172
▁ago	-9.11187
▁minutes	-9.11225
▁strong	-9.11278
ner	-9.1156
▁felt	-9.11563
▁speak	-9.11612
▁brown	-9.11653
▁sp	-9.11705
ous	-9.11767
▁comes	-9.11777
▁milk	-9.11906
▁alone	-9.1192
www	-9.12517
▁bag	-9.12528
ey	-9.12537
▁makes	-9.12574
▁march	-9.12602
▁power	-9.1278
▁funny	-9.12808
00	-9.12968
▁trouble	-9.13077
▁either	-9.1347
▁mum	-9.13741
▁pi	-9.13769
rn	-9.13777
▁!	-9.13871
▁wall	-9.14281
om	-9.1442
▁stick	-9.14485
▁chance	-9.14514
ence	-9.1471
▁wonder	-9.14808
▁women	-9.14888
▁company	-9.14989
▁given	-9.15027
▁tu	-9.15428
▁france	-9.1568
ating	-9.15749
car	-9.15804
lin	-9.15905
born	-9.15979
val	-9.15995
▁english	-9.16269
▁meet	-9.16639
▁street	-9.16689
ac	-9.16705
▁become	-9.17126
▁somebody	-9.1726
▁past	-9.17448
con	-9.17586
▁wind	-9.17615
▁ground	-9.1768
▁body	-9.17707
▁toys	-9.17862
fa	-9.17981
▁fit	-9.18274
ran	-9.18324
▁important	-9.18327
2:	-9.18399
▁bob	-9.18456
▁fast	-9.18464
huh	-9.18517
ud	-9.18532
▁10	-9.186
▁question	-9.18632
▁em	-9.18798
▁park	-9.18855
▁cha	-9.18887
▁ben	-9.18908
▁clear	-9.18922
ps	-9.18995
mb	-9.19093
▁deal	-9.19215
▁several	-9.19343
time	-9.19714
bb	-9.198
▁write	-9.19848
ger	-9.19902
▁phone	-9.20094
▁across	-9.20188
io	-9.20357
one	-9.20377
▁comp	-9.20756
▁working	-9.20805
▁win	-9.20847
▁glad	-9.20922
▁lay	-9.21091
▁su	-9.21116
▁clean	-9.21282
▁least	-9.21439
nie	-9.21653
▁draw	-9.21713
all	-9.21842
▁dinner	-9.22244
▁seat	-9.22377
side	-9.22641
ja	-9.22662
▁dark	-9.22927
▁cl	-9.23088
▁ar	-9.23104
▁answer	-9.23499
▁fight	-9.23686
▁ti	-9.23746
▁plan	-9.23914
qui	-9.24011
▁pull	-9.24046
der	-9.24128
▁island	-9.24212
▁york	-9.24415
▁uhhuh	-9.2442
▁wi	-9.24712
▁foot	-9.2475
▁football	-9.24914
ler	-9.25113
▁cross	-9.25478
loi	-9.25661
ial	-9.25695
▁west	-9.25701
▁camp	-9.2583
so	-9.25977
▁guys	-9.26204
▁thanks	-9.2629
▁throw	-9.26384
▁send	-9.26391
▁form	-9.26522
▁finished	-9.26561
▁darling	-9.2675
▁general	-9.2677
▁#	-9.26851
▁animals	-9.26939
▁among	-9.27027
▁bus	-9.27028
os	-9.27128
king	-9.27144
▁everybody	-9.27223
▁6	-9.27293
▁living	-9.27362
▁bird	-9.27501
▁catch	-9.27678
▁tomorrow	-9.27739
▁french	-9.27761
▁joe	-9.27771
▁government	-9.27917
▁sing	-9.27994
for	-9.2809
▁hour	-9.28296
▁fa	-9.28325
▁y	-9.28354
▁return	-9.28364
▁special	-9.28514
ism	-9.28548
▁frank	-9.28579
lt	-9.28636
▁count	-9.28795
▁touch	-9.28996
ex	-9.29195
▁drive	-9.29359
▁tried	-9.29541
ving	-9.29573
▁service	-9.29717
▁pop	-9.30041
▁church	-9.30089
▁7	-9.30124
▁main	-9.30578
▁push	-9.30588
ator	-9.30596
▁mouth	-9.3067
▁cos	-9.30728
7	-9.3085
▁president	-9.30904
▁frog	-9.30915
▁check	-9.30938
▁wow	-9.30965
▁fellow	-9.30985
▁herself	-9.3114
▁club	-9.31279
line	-9.3149
▁law	-9.31725
▁daughter	-9.31854
den	-9.32221
▁region	-9.32309
▁band	-9.32622
▁uncle	-9.32804
▁cried	-9.32814
tor	-9.32924
let	-9.32964
ect	-9.3309
read	-9.33254
▁building	-9.33329
▁thinking	-9.33331
▁feeling	-9.33347
▁anyway	-9.33385
▁usually	-9.33494
nt	-9.33563
▁police	-9.33581
▁nine	-9.33633
▁history	-9.33816
▁wants	-9.33859
ya	-9.33985
▁figure	-9.34038
▁letter	-9.34331
lan	-9.34378
▁window	-9.34383
▁human	-9.34416
▁afraid	-9.34506
nd	-9.34523
▁pan	-9.34531
▁running	-9.34543
ut	-9.34722
▁bye	-9.34765
▁eye	-9.34795
▁system	-9.34934
▁pen	-9.34953
▁va	-9.35235
▁nor	-9.35287
▁sta	-9.3535
▁summer	-9.35478
oo	-9.35479
▁east	-9.35519
▁sitting	-9.35548
▁held	-9.35756
▁...	-9.35861
▁player	-9.35956
▁8	-9.35982
ding	-9.36054
che	-9.36218
▁sat	-9.36461
▁less	-9.36486
ries	-9.3654
▁truck	-9.36594
ric	-9.36674
▁forget	-9.36676
▁act	-9.36934
▁station	-9.37026
adu	-9.37105
▁thousand	-9.37161
how	-9.37277
▁series	-9.37426
▁suppose	-9.375
▁kept	-9.37636
▁sweet	-9.37691
▁dream	-9.37713
▁20	-9.38043
▁office	-9.38072
▁tra	-9.38081
▁birthday	-9.38461
▁lived	-9.38566
tra	-9.38885
▁pat	-9.38959
▁fl	-9.38988
▁cap	-9.39001
▁happen	-9.39019
▁snow	-9.39026
ward	-9.39031
▁duck	-9.39172
ship	-9.39353
▁object	-9.39452
▁married	-9.39545
▁ce	-9.39564
nk	-9.39639
▁easy	-9.39668
▁master	-9.39715
▁ice	-9.39946
▁problem	-9.39955
lf	-9.40024
of	-9.40054
ung	-9.40058
▁ver	-9.40079
ham	-9.40144
▁others	-9.40154
▁department	-9.4018
▁single	-9.40198
▁attack	-9.40394
▁te	-9.40528
kin	-9.40767
cds	-9.40889
▁x	-9.41008
vo	-9.41141
▁fear	-9.41162
▁stood	-9.41191
▁shot	-9.41211
▁board	-9.41382
▁roll	-9.41549
▁ru	-9.41602
▁kiss	-9.41711
don	-9.41842
rus	-9.41876
ble	-9.42018
▁pass	-9.42043
▁books	-9.42183
▁peter	-9.42258
▁ooh	-9.42294
▁indian	-9.42303
▁university	-9.42447
▁sign	-9.42478
▁june	-9.426
▁tonight	-9.42634
ally	-9.42835
ber	-9.43061
▁whatever	-9.43091
▁language	-9.43102
▁dress	-9.43166
▁seems	-9.43178
▁ok	-9.4319
▁term	-9.43374
▁deep	-9.43442
▁rain	-9.43591
▁january	-9.43715
ical	-9.43784
▁earth	-9.43826
▁har	-9.44078
▁cover	-9.44143
▁member	-9.44221
▁field	-9.44255
▁orange	-9.44335
▁whether	-9.44369
▁bill	-9.44496
ise	-9.44538
▁safe	-9.44595
▁tired	-9.44709
▁garden	-9.44756
▁imp	-9.44803
▁tri	-9.44954
fe	-9.44979
▁visit	-9.45034
ned	-9.45047
▁post	-9.45068
▁straight	-9.45131
▁hours	-9.45409
▁17	-9.45474
▁gi	-9.45794
▁village	-9.45797
fi	-9.45827
▁card	-9.4585
▁lovely	-9.45902
nce	-9.4591
▁lord	-9.45948
ot	-9.45958
▁kid	-9.46081
▁cra	-9.46177
▁cause	-9.46282
▁clothes	-9.46334
▁ni	-9.46342
▁bur	-9.46533
▁force	-9.4664
▁hill	-9.46716
▁lie	-9.46761
▁si	-9.46803
ite	-9.46862
▁killed	-9.47018
▁dance	-9.47243
▁couple	-9.47255
▁wear	-9.47336
▁15	-9.47338
▁sounds	-9.47389
▁bell	-9.47408
▁cake	-9.47501
ning	-9.47502
▁list	-9.47514
ily	-9.47588
▁art	-9.47848
▁cow	-9.47871
▁waiting	-9.4793
▁eh	-9.4793
▁million	-9.47939
▁nose	-9.4803
▁kids	-9.48033
she	-9.48141
▁min	-9.48237
▁excuse	-9.48358
ig	-9.48363
▁rose	-9.48367
▁met	-9.48377
▁season	-9.48464
ade	-9.48489
▁replied	-9.48644
▁[1	-9.48663
▁named	-9.48747
▁sub	-9.48754
▁low	-9.48768
▁careful	-9.48794
▁themselves	-9.48808
▁quick	-9.49002
▁stone	-9.49185
▁ride	-9.4937
▁record	-9.49386
▁cool	-9.4951
za	-9.49573
ub	-9.49599
▁released	-9.49634
▁album	-9.497
▁ste	-9.49864
▁gun	-9.50027
▁fe	-9.50033
▁rule	-9.50101
▁follow	-9.50129
▁within	-9.5031
▁12	-9.50335
ches	-9.50354
wo	-9.5042
▁forward	-9.50589
makes	-9.50591
▁career	-9.5066
gg	-9.50793
▁district	-9.50827
▁character	-9.50926
gen	-9.51016
▁die	-9.51057
▁eating	-9.51204
▁spot	-9.51255
ris	-9.51262
▁answered	-9.51272
▁instead	-9.5142
▁shoes	-9.51498
lic	-9.51608
▁shop	-9.51637
▁warm	-9.51657
▁husband	-9.51818
▁lots	-9.51903
fch	-9.51957
▁months	-9.52002
▁possible	-9.52027
▁super	-9.52102
▁wood	-9.52203
▁gold	-9.52287
cy	-9.52308
▁evening	-9.52442
end	-9.52539
▁2020	-9.52542
▁british	-9.52567
▁christmas	-9.52638
▁middle	-9.52847
▁pu	-9.53098
▁film	-9.53131
▁juice	-9.53141
▁wheel	-9.53221
▁bank	-9.53263
▁common	-9.53288
▁den	-9.53496
▁doll	-9.53533
▁hall	-9.53594
▁august	-9.53595
▁bi	-9.53648
▁third	-9.53747
▁exactly	-9.53765
▁aunt	-9.53943
▁fair	-9.54082
▁sand	-9.54105
▁court	-9.54191
▁san	-9.54253
000	-9.54357
tro	-9.54366
▁plant	-9.54446
▁9	-9.54448
▁space	-9.54503
▁seem	-9.54506
▁points	-9.54524
▁passed	-9.54543
▁cannot	-9.5457
▁wild	-9.54573
day	-9.54684
▁apple	-9.547
▁type	-9.54721
▁putting	-9.54839
friend	-9.54884
ay	-9.549
▁report	-9.54929
▁above	-9.54936
▁quickly	-9.54975
unk	-9.55051
▁moved	-9.55065
▁app	-9.55194
▁toy	-9.55197
▁broken	-9.55268
▁breath	-9.55291
▁tape	-9.55389
▁key	-9.55485
▁although	-9.555
▁lives	-9.55509
▁award	-9.55677
▁worked	-9.55714
her	-9.5572
▁certain	-9.55724
▁mu	-9.55815
gi	-9.55851
▁fo	-9.55867
▁toward	-9.55978
sta	-9.56059
ations	-9.56163
jo	-9.56215
▁quiet	-9.56234
room	-9.56237
pi	-9.56251
▁german	-9.5626
▁arms	-9.56323
▁mary	-9.56469
▁honey	-9.56505
▁worry	-9.56608
▁finish	-9.5667
▁save	-9.56674
pped	-9.56913
▁kill	-9.56966
wi	-9.57167
▁hole	-9.5717
▁indeed	-9.57479
▁mor	-9.57683
▁longer	-9.57746
▁everyone	-9.57771
▁bra	-9.57801
▁television	-9.57806
tive	-9.57809
▁april	-9.57881
▁strange	-9.57891
pp	-9.58045
▁england	-9.58081
▁public	-9.58166
▁whose	-9.58167
ld	-9.5821
nder	-9.58269
▁race	-9.58422
▁control	-9.58474
▁support	-9.58548
▁ye	-9.58784
ping	-9.58785
tri	-9.5886
▁drop	-9.58868
▁beat	-9.58966
▁pretend	-9.59028
ze	-9.59037
▁bla	-9.59093
childes	-9.59116
▁anyone	-9.59122
▁ge	-9.59235
ii	-9.59374
ag	-9.59407
▁16	-9.59545
▁nearly	-9.59553
ren	-9.59574
▁october	-9.59597
▁childes	-9.59649
▁shape	-9.59748
br	-9.59853
▁trans	-9.59962
uff	-9.60021
▁enjoy	-9.60071
▁jump	-9.60211
▁mad	-9.60319
▁ain	-9.60384
▁position	-9.60583
▁build	-9.60705
▁example	-9.60853
▁test	-9.60952
▁mama	-9.61065
▁caught	-9.61071
▁towards	-9.61214
ded	-9.61246
▁learn	-9.61292
ip	-9.61313
▁plate	-9.61325
8	-9.61345
▁bath	-9.61448
▁ki	-9.61464
▁chief	-9.61477
▁store	-9.61563
▁gar	-9.61611
▁nobody	-9.61743
our	-9.61839
▁sight	-9.6184
▁broke	-9.62
▁november	-9.62059
▁travel	-9.62177
▁inter	-9.62336
▁grand	-9.62387
▁bright	-9.62388
▁standing	-9.6244
row	-9.62496
▁farm	-9.62554
han	-9.62588
▁grow	-9.62596
▁cook	-9.62622
▁takes	-9.62629
▁pardon	-9.62672
▁reached	-9.62749
▁charge	-9.62856
▁sal	-9.62996
▁wash	-9.63035
▁ahead	-9.6314
▁july	-9.63166
▁chapter	-9.63183
▁sam	-9.6321
und	-9.63226
ile	-9.63255
iv	-9.63261
▁september	-9.63379
▁former	-9.63454
▁david	-9.63637
rk	-9.63655
▁pet	-9.63871
▁blow	-9.63918
▁reach	-9.63942
▁tom	-9.6397
▁track	-9.64129
▁paul	-9.64204
▁hungry	-9.64354
▁miles	-9.6453
▁certainly	-9.64537
▁noises	-9.64582
▁leg	-9.6459
ide	-9.64631
▁cur	-9.64646
▁teacher	-9.64669
▁pot	-9.64706
mer	-9.64851
▁]	-9.64862
▁step	-9.64883
▁yesterday	-9.65012
▁climb	-9.65024
ab	-9.65078
▁army	-9.65099
▁view	-9.65105
▁blood	-9.65107
ang	-9.65135
▁sco	-9.65365
▁december	-9.65433
▁doubt	-9.65507
▁breakfast	-9.65948
▁hospital	-9.66085
▁george	-9.66252
gan	-9.66255
–	-9.66261
mu	-9.66403
▁ob	-9.66461
▁crayon	-9.66569
zz	-9.66625
▁kitchen	-9.668
ice	-9.6688
▁returned	-9.66899
▁february	-9.67007
▁changed	-9.67112
▁chicken	-9.6717
pro	-9.67192
20	-9.67219
▁yep	-9.67238
▁cor	-9.67295
▁bottle	-9.67333
▁begin	-9.6736
▁afternoon	-9.67391
▁moon	-9.67534
tan	-9.67654
▁queen	-9.67655
▁join	-9.67712
▁telling	-9.67756
▁carry	-9.6784
▁stopped	-9.67865
now	-9.67902
▁helen	-9.67935
od	-9.67967
laugh	-9.6797
▁je	-9.67979
▁london	-9.68045
▁following	-9.68166
▁bri	-9.68289
out	-9.683
▁char	-9.68338
▁van	-9.68382
▁bread	-9.68437
3:	-9.68482
▁gri	-9.68516
▁major	-9.68525
▁lunch	-9.68776
▁heavy	-9.68785
com	-9.69028
there	-9.69044
▁glo	-9.69176
ky	-9.69192
▁built	-9.69199
ign	-9.69252
▁roman	-9.69299
▁secret	-9.69303
▁engine	-9.69395
ep	-9.69441
▁supposed	-9.69514
ok	-9.69522
not	-9.69557
ach	-9.69568
▁news	-9.69649
▁loud	-9.69838
ging	-9.69911
▁suddenly	-9.69972
▁trust	-9.70004
▁bro	-9.70015
ious	-9.70052
")	-9.70103
▁decided	-9.70203
▁anybody	-9.70213
▁council	-9.70222
▁trees	-9.70458
cent	-9.70805
▁expect	-9.70805
right	-9.7084
▁written	-9.70846
▁sad	-9.70918
▁dec	-9.71084
▁dat	-9.71108
igh	-9.71223
▁port	-9.71532
▁(19	-9.7155
mber	-9.71655
▁lake	-9.71702
ped	-9.7175
ium	-9.71845
▁sick	-9.72107
▁truth	-9.72147
%	-9.72219
▁opened	-9.72219
light	-9.72229
▁wee	-9.72246
▁fix	-9.72253
att	-9.72328
▁hang	-9.72392
come	-9.72407
▁ed	-9.72822
▁followed	-9.72873
van	-9.72983
▁mess	-9.73003
nu	-9.73184
▁inv	-9.73294
▁ko	-9.73379
can	-9.73392
ray	-9.73405
▁fraser	-9.73658
ev	-9.73824
▁bridge	-9.73856
▁thirty	-9.73865
▁boo	-9.73997
▁games	-9.74146
▁tv	-9.74181
▁led	-9.742
▁sense	-9.74262
▁lead	-9.7431
▁cry	-9.74385
▁che	-9.74414
▁using	-9.74437
▁worth	-9.74497
nch	-9.74505
▁sto	-9.74536
hu	-9.74612
▁hurry	-9.74746
▁somewhere	-9.74811
house	-9.74812
▁11	-9.7487
▁press	-9.7499
child	-9.75045
▁wide	-9.75066
wn	-9.75072
gar	-9.75097
form	-9.75133
▁bunny	-9.75196
▁coffee	-9.75201
why	-9.75254
▁ear	-9.7528
▁giving	-9.7539
▁bought	-9.75403
▁bru	-9.75465
lie	-9.75585
rr	-9.75588
tur	-9.75632
ther	-9.75714
▁cre	-9.75716
▁hasn	-9.75924
ko	-9.75972
▁paint	-9.76002
▁belong	-9.76004
▁guard	-9.76025
cc	-9.76028
▁leaving	-9.76111
▁stuck	-9.76121
▁holding	-9.76245
▁ke	-9.76413
▁include	-9.7655
ory	-9.76566
ual	-9.76727
▁corner	-9.76744
▁added	-9.76812
▁bottom	-9.76901
▁cu	-9.76982
▁sell	-9.77006
▁leader	-9.7706
urs	-9.77223
▁cheese	-9.7725
▁hum	-9.77406
▁level	-9.77453
▁battle	-9.77561
▁interest	-9.78092
tle	-9.78094
ven	-9.78097
▁smile	-9.7811
▁meeting	-9.78264
▁health	-9.78362
▁share	-9.78423
▁yo	-9.78441
▁watching	-9.78453
▁tail	-9.78453
▁remain	-9.78465
á	-9.78589
▁elephant	-9.7859
▁college	-9.78694
▁weeks	-9.78695
▁pictures	-9.78758
▁busy	-9.78811
▁pink	-9.78842
singing	-9.78853
dic	-9.78867
ina	-9.78954
▁mc	-9.78956
▁fly	-9.78958
▁13	-9.78965
▁wrote	-9.79047
▁fifty	-9.79073
rd	-9.79169
ap	-9.79179
▁whom	-9.79212
sha	-9.79272
gue	-9.79364
they	-9.79421
ai	-9.79623
▁laugh	-9.79807
▁spirit	-9.79968
▁machine	-9.79982
▁result	-9.80018
▁carl	-9.8004
▁cookie	-9.8005
▁bow	-9.80169
dge	-9.80244
▁places	-9.80362
▁lose	-9.80376
▁silver	-9.80429
lor	-9.80435
ened	-9.80436
▁sky	-9.8063
▁soft	-9.80854
▁league	-9.80866
▁population	-9.80946
▁14	-9.80962
▁moving	-9.81015
▁30	-9.81076
▁minister	-9.81136
box	-9.812
▁dar	-9.81201
▁rabbit	-9.81253
▁welcome	-9.81253
▁amy	-9.81256
▁happens	-9.81276
▁moo	-9.81511
▁ought	-9.81603
▁commune	-9.81614
low	-9.81674
▁pain	-9.81686
▁animal	-9.81857
▁pieces	-9.81901
▁cro	-9.81945
í	-9.82139
▁spring	-9.82245
▁personal	-9.8225
▁america	-9.82307
act	-9.82508
▁difficult	-9.82517
fully	-9.82656
ju	-9.82689
▁international	-9.8272
uk	-9.82748
▁lad	-9.82764
▁flowers	-9.82789
▁finally	-9.8283
▁further	-9.82847
ford	-9.82955
▁anymore	-9.83011
▁month	-9.83015
▁spoke	-9.83109
▁cop	-9.83134
els	-9.83156
▁wonderful	-9.83197
▁natural	-9.83237
▁bu	-9.83253
▁rich	-9.83398
▁local	-9.83493
▁fat	-9.83554
▁effect	-9.83646
ities	-9.83694
▁turns	-9.83736
oth	-9.83759
▁tall	-9.83783
▁tro	-9.83793
ure	-9.83864
▁‘	-9.83949
▁treat	-9.84
▁except	-9.84273
▁grandma	-9.84359
▁base	-9.84418
▁hy	-9.84552
▁exp	-9.84684
▁parents	-9.84797
▁beginning	-9.84867
▁laughs	-9.84868
ever	-9.85051
▁cho	-9.85087
▁circle	-9.85149
▁escape	-9.85149
▁knee	-9.85209
▁legs	-9.85249
▁officer	-9.85273
▁exclaimed	-9.85288
▁received	-9.8529
▁gre	-9.85379
mother	-9.85438
▁cost	-9.85499
▁including	-9.85538
▁michael	-9.85566
▁robert	-9.85666
cu	-9.85668
gasps	-9.85703
▁dry	-9.85719
▁sail	-9.85758
▁murder	-9.85794
▁winter	-9.85831
▁phil	-9.85853
ized	-9.85883
▁wave	-9.85908
▁rising	-9.86017
noise	-9.86603
illustration	-9.86654
▁james	-9.86791
▁action	-9.86859
▁works	-9.86881
▁none	-9.86928
▁square	-9.87075
▁nin	-9.87157
▁needs	-9.87316
▁trip	-9.87341
▁hide	-9.87373
use	-9.87408
cing	-9.87481
▁attention	-9.87524
▁carried	-9.87596
▁self	-9.87803
▁para	-9.87938
▁suit	-9.87994
▁video	-9.88012
ier	-9.88144
ions	-9.88297
▁distance	-9.8831
ties	-9.88318
▁walking	-9.88361
shi	-9.88363
▁william	-9.88643
du	-9.88658
nic	-9.88659
▁accept	-9.88957
amp	-9.89041
▁sy	-9.89056
▁shut	-9.89062
9	-9.89133
▁members	-9.89274
cat	-9.89337
ny	-9.89365
med	-9.89446
▁direction	-9.8945
▁ow	-9.89629
lar	-9.89633
▁dan	-9.89668
▁century	-9.8971
▁rush	-9.89729
▁lion	-9.89772
▁weren	-9.8982
aw	-9.89848
board	-9.89997
▁role	-9.90084
▁choo	-9.90133
▁meant	-9.90141
▁knock	-9.90228
▁burn	-9.90233
▁pack	-9.90279
▁vo	-9.90279
▁appeared	-9.90372
▁design	-9.90679
▁sharp	-9.90795
▁grass	-9.90906
▁silence	-9.90927
▁writing	-9.91012
▁jim	-9.91099
▁popular	-9.91104
▁feed	-9.91212
▁crying	-9.91258
▁capital	-9.91307
▁pocket	-9.91351
fin	-9.9143
▁fer	-9.91506
▁harry	-9.91554
▁ch	-9.91785
▁pin	-9.91934
rate	-9.92067
like	-9.92074
▁match	-9.92142
points	-9.9216
▁shi	-9.92228
▁gro	-9.92264
▁nu	-9.92294
▁promise	-9.92395
▁egg	-9.92438
▁study	-9.92449
▁mis	-9.92474
▁camera	-9.925
▁contain	-9.92509
▁dropped	-9.9252
tu	-9.92552
har	-9.92647
▁peace	-9.92669
▁tre	-9.92727
▁billy	-9.9276
=	-9.92783
ose	-9.92785
▁cell	-9.92788
▁account	-9.92841
▁mid	-9.92884
▁gate	-9.92895
▁cal	-9.92899
rri	-9.93013
▁whi	-9.93028
▁shouldn	-9.93075
▁information	-9.93096
▁cru	-9.93177
▁spoon	-9.93267
▁hol	-9.93267
▁allowed	-9.93311
ong	-9.93481
cla	-9.93606
▁spend	-9.93807
▁favorite	-9.93855
▁gen	-9.9388
this	-9.93895
▁experience	-9.94032
tain	-9.94089
▁coat	-9.94156
▁taste	-9.94197
▁pounds	-9.9422
field	-9.94224
▁wake	-9.94235
ney	-9.94237
▁puzzle	-9.94276
hold	-9.94277
▁teeth	-9.94291
▁laughing	-9.94336
▁province	-9.94337
▁walked	-9.94406
▁bang	-9.94615
▁mon	-9.94685
▁joy	-9.94775
ified	-9.9487
▁continued	-9.95005
▁search	-9.95011
▁especially	-9.95101
▁based	-9.95143
duc	-9.95148
▁due	-9.95177
wood	-9.9521
▁stage	-9.95327
oc	-9.9548
▁cream	-9.95482
▁surprise	-9.95499
ste	-9.95534
▁fresh	-9.95557
▁interesting	-9.95674
clock	-9.95787
▁quarter	-9.95825
▁monkey	-9.95827
▁protect	-9.96058
▁ter	-9.96059
then	-9.96088
ddle	-9.96198
▁pri	-9.96214
▁command	-9.96349
some	-9.96457
▁2018	-9.96826
hel	-9.96876
▁respect	-9.96929
▁famous	-9.96944
▁horses	-9.96947
▁block	-9.97052
old	-9.97077
▁teddy	-9.97163
ative	-9.97399
sings	-9.97723
▁speed	-9.97731
where	-9.97838
▁reading	-9.97854
▁row	-9.97872
▁bomb	-9.97935
30	-9.98081
vin	-9.98131
▁seeing	-9.98134
▁letters	-9.98206
▁mistake	-9.98207
▁allow	-9.98285
ition	-9.98363
▁bobby	-9.98468
▁cheer	-9.98548
▁scene	-9.98567
▁itself	-9.98615
▁honor	-9.98615
10	-9.98619
▁shoulder	-9.98635
▁mountain	-9.98687
▁according	-9.9889
▁period	-9.98933
▁created	-9.98936
▁final	-9.99078
▁fur	-9.99098
▁pal	-9.99133
▁finger	-9.99205
▁japan	-9.99272
nny	-9.99308
sure	-9.99334
ology	-9.99345
▁pla	-9.99415
▁future	-9.99448
▁button	-9.99499
▁kitty	-9.99605
ture	-9.9972
▁conversation	-9.99749
ji	-9.99909
pping	-9.99981
bel	-10.0005
mic	-10.0007
▁qua	-10.0009
▁center	-10.0014
▁consider	-10.0023
fl	-10.0025
▁forest	-10.0045
▁prince	-10.0052
▁2021	-10.0053
▁chocolate	-10.0056
looks	-10.0057
▁martin	-10.0069
▁z	-10.0069
▁brush	-10.0072
▁forgot	-10.0081
▁fri	-10.0087
▁laughed	-10.01
▁lower	-10.01
▁perfect	-10.0108
▁offer	-10.0108
▁op	-10.0121
▁clever	-10.0122
▁smell	-10.0124
ably	-10.0139
▁uhoh	-10.014
▁germany	-10.0144
▁tower	-10.0145
ize	-10.0155
▁eggs	-10.0162
▁union	-10.0173
▁serious	-10.0182
▁twelve	-10.0184
▁tiger	-10.0188
ana	-10.0189
▁explain	-10.0194
▁glass	-10.0204
▁interested	-10.0205
▁luck	-10.0209
ville	-10.0209
▁grew	-10.0224
▁social	-10.0227
▁paid	-10.0232
▁sur	-10.024
▁flat	-10.0247
▁ears	-10.0259
▁ski	-10.0265
▁pie	-10.0267
▁alive	-10.0274
ef	-10.0284
▁slowly	-10.0291
▁radio	-10.0311
▁length	-10.0313
zi	-10.0313
▁singing	-10.0315
▁sw	-10.0316
▁qu	-10.0321
▁shake	-10.0323
▁storm	-10.0323
▁director	-10.034
▁fra	-10.0368
▁jane	-10.0371
bra	-10.0382
▁mouse	-10.0392
▁betty	-10.04
▁sheep	-10.041
ight	-10.0416
▁magic	-10.042
▁plane	-10.0438
▁25	-10.044
gro	-10.0448
ched	-10.0449
▁lying	-10.0462
▁below	-10.0463
▁price	-10.0464
▁program	-10.0465
▁stars	-10.0469
mal	-10.047
▁bat	-10.0484
▁fre	-10.0487
are	-10.0492
gged	-10.0494
▁snake	-10.0496
cul	-10.0497
▁rec	-10.05
ban	-10.0522
▁birds	-10.0528
▁dia	-10.0539
qu	-10.0542
▁appear	-10.0552
nor	-10.0558
▁exist	-10.0593
▁adult	-10.0597
▁kick	-10.0602
▁extra	-10.0604
▁cast	-10.0612
rop	-10.0617
▁coast	-10.0618
▁size	-10.0618
▁terrible	-10.0626
▁situation	-10.0626
work	-10.0627
▁fu	-10.0636
▁accident	-10.0645
▁attempt	-10.0652
ette	-10.0657
▁scared	-10.0658
⌋	-10.0662
play	-10.0663
▁neck	-10.0664
▁add	-10.0678
▁loved	-10.0682
▁date	-10.0693
▁christian	-10.0698
▁computer	-10.0701
▁approach	-10.0714
▁closed	-10.0714
cher	-10.0715
▁picks	-10.0715
▁gas	-10.0718
gle	-10.072
▁civil	-10.0724
▁official	-10.0724
▁whoa	-10.0729
▁par	-10.0739
▁politician	-10.0746
▁ph	-10.076
▁stu	-10.0761
port	-10.0765
▁actor	-10.0765
▁unless	-10.0776
▁stra	-10.0793
▁skin	-10.0793
▁pause	-10.0797
▁provide	-10.0799
▁bigger	-10.0799
▁danger	-10.08
hy	-10.0805
▁drawing	-10.0808
▁california	-10.0811
▁subject	-10.0813
▁corn	-10.0819
⌉	-10.082
▁showed	-10.0821
▁⌊	-10.0828
▁ty	-10.0836
▁lee	-10.0843
ew	-10.0853
▁plain	-10.0854
▁⌈	-10.0866
▁jwww	-10.0869
▁shore	-10.0874
▁hate	-10.0893
▁ci	-10.0896
cle	-10.09
ica	-10.0907
▁sleeping	-10.091
▁needed	-10.0913
ku	-10.0914
▁mac	-10.092
▁coll	-10.0926
▁henry	-10.0935
▁kingdom	-10.0939
▁stories	-10.0944
▁richard	-10.0948
▁bert	-10.0959
▁host	-10.0962
lia	-10.0968
▁thus	-10.097
▁difference	-10.0985
lea	-10.0991
▁success	-10.0996
▁yard	-10.0997
▁asleep	-10.0998
▁condition	-10.1009
kay	-10.101
▁driver	-10.1011
ell	-10.1014
▁mass	-10.1016
pen	-10.1022
▁bowl	-10.1026
▁ur	-10.1029
▁india	-10.103
▁trick	-10.1032
▁simple	-10.1037
▁asking	-10.1041
▁sue	-10.1047
▁questions	-10.1052
▁hardly	-10.1055
▁shoe	-10.1058
▁holds	-10.1064
▁species	-10.1078
▁hotel	-10.109
▁smart	-10.1091
▁awful	-10.1094
▁manner	-10.1109
ix	-10.1112
ria	-10.1118
▁forty	-10.1126
burg	-10.1135
▁countries	-10.1151
▁imagine	-10.1152
▁handle	-10.1161
▁shin	-10.1163
▁edge	-10.1167
▁slip	-10.1169
ute	-10.118
off	-10.1182
▁complete	-10.1187
▁pig	-10.119
▁fruit	-10.1196
berg	-10.12
lon	-10.1207
▁championship	-10.1213
▁stan	-10.1218
▁similar	-10.1221
▁)	-10.1231
▁2019	-10.1233
▁cloud	-10.1234
▁..	-10.1235
just	-10.1239
illa	-10.1249
▁beach	-10.1259
bar	-10.1289
▁sunday	-10.1291
▁central	-10.1292
▁hoo	-10.1297
▁iron	-10.1298
▁hung	-10.1301
eg	-10.1308
▁trade	-10.132
▁path	-10.1322
▁oo	-10.1322
▁pour	-10.1333
▁turning	-10.1334
night	-10.1347
▁crash	-10.1362
▁val	-10.1374
▁fla	-10.1393
▁crowd	-10.1404
▁fan	-10.1413
▁butter	-10.1421
▁education	-10.1422
▁leaves	-10.1423
aft	-10.1423
11	-10.1426
▁picked	-10.1432
▁served	-10.1441
▁aye	-10.1444
▁agree	-10.1446
counter	-10.1446
▁market	-10.1451
▁lift	-10.1458
▁judge	-10.1462
▁therefore	-10.1463
▁issue	-10.1464
ple	-10.1466
▁soul	-10.1474
▁tim	-10.1474
pu	-10.1486
18	-10.149
fri	-10.149
▁anna	-10.1504
▁title	-10.1511
fad	-10.1513
▁24	-10.1518
▁ate	-10.152
▁bee	-10.1525
▁liked	-10.1526
ker	-10.1529
▁lock	-10.153
▁spent	-10.1532
▁anne	-10.1534
▁election	-10.1538
▁professional	-10.1539
▁ken	-10.1539
▁pleasure	-10.1541
▁slow	-10.1548
▁bump	-10.1557
▁process	-10.1562
▁meat	-10.1565
▁bound	-10.1571
ug	-10.1571
▁folk	-10.1576
▁honest	-10.1581
▁native	-10.1584
▁spread	-10.1585
▁upstairs	-10.1586
▁cousin	-10.1588
dor	-10.1592
▁older	-10.1612
til	-10.1613
▁com	-10.1617
▁note	-10.1618
▁han	-10.1618
▁speaking	-10.1626
▁puppet	-10.1626
here	-10.1631
▁movement	-10.1636
laughing	-10.1639
▁purpose	-10.1642
▁nature	-10.1646
non	-10.1646
▁problems	-10.1657
▁western	-10.166
▁shoot	-10.1666
▁brave	-10.167
▁2017	-10.1671
▁del	-10.1671
▁starts	-10.1676
head	-10.1678
▁nest	-10.1679
▁double	-10.1689
▁cloth	-10.1694
▁learned	-10.1697
▁oops	-10.1706
▁beyond	-10.171
col	-10.1711
▁angel	-10.1713
▁royal	-10.1718
▁vote	-10.172
▁christ	-10.1725
ridge	-10.1737
▁amount	-10.1738
▁covered	-10.1739
▁reg	-10.1742
▁enter	-10.1742
▁calling	-10.1754
▁fingers	-10.1754
▁ger	-10.1754
who	-10.1754
mate	-10.1756
▁helped	-10.1762
▁("	-10.1765
sib	-10.1772
▁wo	-10.1774
lk	-10.1781
▁talked	-10.1782
rac	-10.1785
uch	-10.1798
ek	-10.1802
▁$	-10.1812
▁worse	-10.1825
▁21	-10.1826
win	-10.1832
▁artist	-10.1848
▁private	-10.1856
▁cy	-10.186
▁der	-10.1861
▁crack	-10.1862
gh	-10.1876
▁professor	-10.1878
▁joined	-10.1886
▁paris	-10.189
▁&	-10.1892
▁bite	-10.1893
▁ven	-10.1894
▁lean	-10.1895
▁ser	-10.1909
zo	-10.1927
▁message	-10.1929
▁load	-10.1935
▁gall	-10.1944
▁governor	-10.1945
▁monster	-10.195
▁shirt	-10.195
over	-10.1953
▁sch	-10.1957
▁japanese	-10.1958
▁tax	-10.1958
▁heat	-10.1962
▁bull	-10.1963
mor	-10.1967
▁wan	-10.1967
▁adam	-10.1976
▁charles	-10.1988
▁particular	-10.1989
▁caused	-10.1993
▁rough	-10.1995
▁driving	-10.2001
▁fox	-10.2002
▁silly	-10.2003
▁sarah	-10.2011
▁notice	-10.2013
▁deck	-10.2019
▁regard	-10.2026
▁fighting	-10.2028
ible	-10.2037
rit	-10.2039
▁heaven	-10.2048
ius	-10.2054
▁tiny	-10.2065
▁gain	-10.2068
▁grave	-10.2072
▁beside	-10.2072
▁ham	-10.2074
▁spanish	-10.2089
▁weather	-10.21
ö	-10.2104
ery	-10.2109
▁eleanor	-10.2116
▁clock	-10.2116
▁enemy	-10.2118
▁flying	-10.212
▁2022	-10.2126
▁project	-10.2127
▁represent	-10.2145
▁mill	-10.215
▁dollars	-10.2152
▁calm	-10.2153
▁dam	-10.2163
▁swing	-10.2165
ez	-10.218
▁electric	-10.2184
▁political	-10.2196
▁tony	-10.2196
▁address	-10.2202
bby	-10.2202
▁ban	-10.2205
▁smoke	-10.2206
▁anti	-10.2217
rie	-10.223
▁modern	-10.2237
▁stock	-10.2238
▁tin	-10.2239
▁various	-10.2244
▁bay	-10.2246
▁background	-10.2254
▁swa	-10.227
▁claim	-10.227
▁europe	-10.2271
place	-10.2282
▁lucky	-10.2287
▁entered	-10.2288
▁spi	-10.2291
▁nurse	-10.2291
▁lin	-10.2303
▁proud	-10.2308
▁declared	-10.2313
ock	-10.2314
▁flo	-10.232
▁sandwich	-10.2329
uh	-10.2333
▁rep	-10.2337
▁missing	-10.234
▁agreed	-10.2344
▁hiding	-10.2361
pose	-10.2364
unc	-10.2365
hand	-10.2369
▁ladies	-10.2382
mat	-10.2383
▁pair	-10.2393
▁mike	-10.2398
din	-10.2408
die	-10.2412
▁depend	-10.2413
▁deliver	-10.2415
▁crime	-10.2418
ec	-10.2418
▁directed	-10.242
serv	-10.2421
▁tight	-10.2431
▁affect	-10.2433
▁flower	-10.2437
▁arrived	-10.2438
▁23	-10.2443
▁crazy	-10.2444
▁drew	-10.2458
▁absolutely	-10.2468
▁angry	-10.2471
▁2010	-10.248
▁spell	-10.248
▁delight	-10.2482
▁bin	-10.2492
▁dressed	-10.2492
▁pleasant	-10.2497
fo	-10.2505
▁kar	-10.2511
▁mil	-10.2512
q	-10.2513
▁bone	-10.2534
▁dogs	-10.2551
▁attend	-10.2561
▁russian	-10.2562
▁original	-10.2562
bert	-10.2578
▁starting	-10.2588
▁science	-10.2591
▁saint	-10.2591
▁australia	-10.2595
▁dangerous	-10.26
▁trail	-10.26
▁nick	-10.2606
▁jesus	-10.2608
▁glance	-10.2612
▁strength	-10.2616
12	-10.2619
▁feature	-10.2622
ob	-10.2625
50	-10.2632
▁lid	-10.2633
▁regular	-10.2639
▁prisoner	-10.2645
▁sugar	-10.2645
▁sin	-10.2645
▁census	-10.2645
▁cri	-10.2646
▁happening	-10.2647
▁thou	-10.2649
▁rid	-10.2651
▁dolly	-10.2652
dra	-10.2664
▁falling	-10.2666
tis	-10.2671
▁largest	-10.2679
▁arch	-10.268
ison	-10.2682
▁choice	-10.2686
▁soldiers	-10.2689
▁ann	-10.27
▁apart	-10.2701
▁fred	-10.2701
▁separate	-10.2706
▁singer	-10.2707
▁northern	-10.2717
▁bless	-10.2727
▁barn	-10.2728
▁brain	-10.2729
yo	-10.2732
▁laid	-10.2737
▁considered	-10.2739
▁employ	-10.2744
▁slide	-10.2746
▁version	-10.2747
▁critic	-10.2757
▁likely	-10.2758
▁companion	-10.2759
▁anywhere	-10.2768
▁hero	-10.2771
▁thick	-10.2776
▁patient	-10.2778
ita	-10.2779
▁bother	-10.278
gin	-10.278
▁rob	-10.2784
▁basket	-10.2784
▁centre	-10.2788
▁bal	-10.2794
▁sold	-10.2821
▁military	-10.2827
▁coach	-10.2829
▁steps	-10.283
▁babies	-10.2832
▁crew	-10.2832
▁saturday	-10.2842
▁castle	-10.2844
▁tip	-10.2848
▁arrest	-10.2864
▁besides	-10.2879
▁scream	-10.2881
▁discovered	-10.2884
▁immediately	-10.2887
▁adventure	-10.2887
▁neither	-10.289
▁threw	-10.2896
▁dinosaur	-10.2905
▁100	-10.2905
▁clar	-10.2906
▁gene	-10.2909
▁hug	-10.291
▁pra	-10.2913
▁holiday	-10.2926
▁female	-10.2931
turn	-10.2937
▁easily	-10.2943
▁ocean	-10.2943
▁european	-10.295
▁scr	-10.2951
press	-10.2957
avi	-10.2958
▁research	-10.2972
▁surprised	-10.2985
▁score	-10.2993
▁farmer	-10.2995
▁demand	-10.2999
▁prize	-10.2999
▁completely	-10.3008
▁woods	-10.3017
▁energy	-10.3017
▁naughty	-10.3017
▁purple	-10.3018
▁correct	-10.3018
▁22	-10.3032
▁journey	-10.3033
▁weapon	-10.3033
▁increase	-10.3037
▁(20	-10.3044
▁fill	-10.3045
▁blocks	-10.3047
bling	-10.3047
▁fault	-10.3049
▁wearing	-10.3049
▁effort	-10.305
▁→	-10.3051
ik	-10.3055
▁exc	-10.3057
▁rat	-10.3057
▁china	-10.3067
▁twice	-10.3078
▁meaning	-10.3082
hood	-10.3086
▁hal	-10.3086
▁missed	-10.3093
/0	-10.3094
▁tone	-10.3097
▁spider	-10.3102
▁brick	-10.3102
19	-10.3103
ü	-10.3105
▁mate	-10.3106
ov	-10.3108
▁marry	-10.3112
▁roof	-10.3114
▁society	-10.3116
law	-10.3117
▁duty	-10.3122
▁empty	-10.3131
vent	-10.3138
▁placed	-10.3146
▁goodness	-10.315
▁municipality	-10.3156
▁max	-10.3158
▁current	-10.3164
▁watched	-10.3167
▁meal	-10.3184
have	-10.3186
▁forth	-10.319
▁slave	-10.3208
ari	-10.3212
spir	-10.3214
▁raised	-10.3216
▁organ	-10.322
▁2011	-10.3223
get	-10.3223
ye	-10.3226
▁opera	-10.3227
▁pulled	-10.3228
▁lieutenant	-10.3229
▁equal	-10.3235
vocalizes	-10.3239
late	-10.324
▁za	-10.3245
ken	-10.3248
▁goal	-10.3251
▁medicine	-10.3258
▁wal	-10.3261
▁model	-10.3266
▁zoo	-10.3268
▁windows	-10.3272
pri	-10.3283
▁flight	-10.329
▁supper	-10.3298
▁drug	-10.33
▁simply	-10.33
take	-10.3301
▁stream	-10.3305
▁previous	-10.3305
▁plenty	-10.3309
▁higher	-10.3309
▁spin	-10.332
▁jam	-10.3334
▁cheek	-10.3337
▁boss	-10.3346
▁serve	-10.3347
qua	-10.3348
▁mix	-10.3351
log	-10.336
▁nation	-10.3364
▁produced	-10.3366
▁italian	-10.3368
fu	-10.3371
▁balloon	-10.3374
▁charlie	-10.3376
▁filled	-10.3384
hal	-10.3387
▁range	-10.3388
▁def	-10.3392
▁unit	-10.3397
▁log	-10.3401
▁2016	-10.3407
▁mal	-10.341
▁cent	-10.3421
▁anxious	-10.3422
▁swim	-10.3439
▁huge	-10.3457
▁risk	-10.3457
▁zo	-10.3469
▁onto	-10.3469
▁advance	-10.3474
vy	-10.3476
▁fifteen	-10.3481
▁gentlemen	-10.3482
▁division	-10.3486
ability	-10.3489
ace	-10.3491
may	-10.3501
▁collect	-10.3504
▁studio	-10.3509
▁guest	-10.3509
▁weak	-10.3513
▁vessel	-10.3515
▁princess	-10.3522
▁express	-10.3523
▁fallen	-10.3531
▁flash	-10.3539
▁formed	-10.3541
▁flag	-10.3541
▁telephone	-10.355
▁rub	-10.3556
top	-10.3557
17	-10.358
ache	-10.3582
▁ancient	-10.3582
▁eleven	-10.3594
▁rate	-10.3597
▁practice	-10.3605
▁excited	-10.3605
▁pound	-10.3606
▁decision	-10.3607
gy	-10.3609
▁appearance	-10.361
▁prime	-10.3617
▁refer	-10.3622
▁goin	-10.3625
rya	-10.3625
▁scar	-10.3625
▁total	-10.3627
▁mission	-10.3628
▁prove	-10.363
▁evidence	-10.3637
▁teach	-10.364
▁whoops	-10.3642
▁steam	-10.3643
▁opening	-10.3646
▁choose	-10.3647
bble	-10.3649
▁southern	-10.3652
▁sum	-10.3657
▁()	-10.3664
▁broad	-10.3673
▁maggie	-10.3675
▁partner	-10.3676
▁lesson	-10.3682
▁expected	-10.3684
istic	-10.3685
▁degree	-10.3698
▁squ	-10.3703
▁hop	-10.3707
ify	-10.3708
▁steven	-10.3712
▁conf	-10.3719
▁affair	-10.3726
▁col	-10.3726
picks	-10.3728
▁channel	-10.3729
▁necessary	-10.3742
brother	-10.3746
[	-10.3746
▁announced	-10.3759
cal	-10.3771
▁tale	-10.3788
▁gift	-10.379
mel	-10.3792
len	-10.3796
▁swimming	-10.3799
▁needta	-10.38
gie	-10.38
▁prison	-10.3802
script	-10.3803
▁instant	-10.3804
▁promised	-10.3805
▁gil	-10.3805
▁gentleman	-10.3808
▁brief	-10.3811
▁motor	-10.3814
kar	-10.3825
▁papa	-10.3827
▁pleased	-10.3832
▁male	-10.3832
▁grace	-10.3835
▁content	-10.3861
▁mostly	-10.3862
▁hadn	-10.3865
▁tur	-10.3867
▁merc	-10.3868
▁50	-10.3871
gn	-10.3875
▁usual	-10.3883
▁tie	-10.3888
▁26	-10.389
takes	-10.3904
▁string	-10.391
back	-10.3916
ama	-10.3923
▁painting	-10.3926
▁believed	-10.3927
▁oil	-10.3929
▁community	-10.3929
▁faith	-10.3949
▁ended	-10.3954
▁rope	-10.3954
▁chap	-10.3957
chuckles	-10.3962
ela	-10.3971
bri	-10.3989
▁continues	-10.3993
uck	-10.3995
14	-10.3996
▁earlier	-10.3999
▁ze	-10.4019
▁firm	-10.4026
ou	-10.4034
▁print	-10.4046
▁episode	-10.4054
cker	-10.4054
▁bun	-10.4059
15	-10.4061
▁harm	-10.4067
▁measure	-10.4069
▁saved	-10.407
ett	-10.4076
▁2014	-10.4082
cus	-10.4083
▁sul	-10.4095
▁grown	-10.4095
▁marriage	-10.4098
▁laura	-10.4106
hor	-10.4109
13	-10.411
▁discover	-10.4111
▁ku	-10.4111
▁lips	-10.4121
▁tan	-10.4121
ency	-10.4123
▁disc	-10.4126
▁jess	-10.4133
▁salt	-10.4133
shire	-10.4137
▁27	-10.4138
▁writer	-10.4138
▁creature	-10.4151
▁dig	-10.4151
▁guns	-10.4154
▁proper	-10.4165
gun	-10.4169
▁gray	-10.4183
▁motion	-10.4195
▁stretch	-10.4195
with	-10.4197
fer	-10.42
▁material	-10.4205
gger	-10.421
▁bug	-10.4213
▁haha	-10.4228
▁grab	-10.4232
▁2012	-10.4233
▁comb	-10.4239
▁knife	-10.4244
▁mamma	-10.4247
▁drama	-10.4251
▁carefully	-10.4251
hum	-10.4254
(	-10.4257
run	-10.4262
▁2013	-10.4263
▁ram	-10.4267
soa	-10.427
▁non	-10.4275
▁cau	-10.4276
40	-10.4278
jen	-10.4295
▁border	-10.4296
puts	-10.4329
▁interrupt	-10.4333
bil	-10.4336
▁friday	-10.4337
▁golden	-10.4338
▁lap	-10.4343
fra	-10.4343
▁jean	-10.435
▁silent	-10.4351
▁dancing	-10.4352
▁arab	-10.4353
▁grant	-10.4361
▁weight	-10.4361
▁blanket	-10.4362
pan	-10.4363
▁style	-10.4364
▁value	-10.4367
▁toast	-10.4367
▁bike	-10.4377
war	-10.4383
put	-10.4385
▁santa	-10.4388
▁tears	-10.4389
▁texas	-10.4398
▁dirty	-10.4401
▁28	-10.4402
▁author	-10.4413
▁metal	-10.4414
cra	-10.4416
cries	-10.442
▁sudden	-10.4423
ura	-10.4426
▁fourth	-10.443
chan	-10.443
ami	-10.4435
▁rise	-10.4438
▁wolf	-10.444
gging	-10.4443
▁speech	-10.4455
▁forgive	-10.4456
▁mont	-10.446
▁limit	-10.4474
ration	-10.4476
▁mountains	-10.4477
▁est	-10.4481
▁bonnet	-10.4484
▁growing	-10.4484
▁listening	-10.4486
▁noticed	-10.4487
▁poet	-10.4491
▁obviously	-10.45
▁successful	-10.4505
▁sigh	-10.4505
hen	-10.4508
rous	-10.452
▁earn	-10.4522
▁development	-10.4524
ax	-10.4528
▁strip	-10.4531
▁downstairs	-10.4544
▁newspaper	-10.4544
▁detail	-10.4548
▁troop	-10.4552
▁suffer	-10.4556
▁2015	-10.4561
book	-10.4564
ball	-10.4566
shed	-10.4573
▁mag	-10.4573
▁comm	-10.4586
▁colonel	-10.4594
▁din	-10.4602
▁snap	-10.4603
▁struck	-10.4611
▁valley	-10.4612
▁remind	-10.4616
▁29	-10.4624
▁officers	-10.4625
pl	-10.4626
cut	-10.4627
▁desire	-10.4629
▁mus	-10.463
lau	-10.4631
▁smith	-10.4637
kh	-10.4639
▁ordered	-10.4641
▁ross	-10.4642
▁2008	-10.4645
▁steal	-10.4648
▁bud	-10.4648
▁site	-10.4652
▁dare	-10.4652
▁rad	-10.4653
▁nap	-10.4657
▁signal	-10.466
▁pitch	-10.4661
▁manager	-10.4663
▁sca	-10.4668
▁involved	-10.4674
ino	-10.4686
▁thy	-10.4691
▁keeping	-10.4701
▁lawyer	-10.4703
▁damage	-10.4706
▁qui	-10.4706
bell	-10.4706
▁otherwise	-10.4708
▁alice	-10.4711
▁horn	-10.4716
▁joke	-10.4722
▁stairs	-10.4752
▁eva	-10.4759
▁impossible	-10.4763
hear	-10.4765
▁flu	-10.4772
▁goodbye	-10.4773
▁pizza	-10.4789
ctor	-10.4796
▁[2	-10.4803
▁washington	-10.4804
75	-10.481
▁agent	-10.481
▁mail	-10.4816
45	-10.4823
▁colour	-10.4823
▁taught	-10.4825
kat	-10.4826
▁decide	-10.4834
▁magazine	-10.4841
▁published	-10.4844
▁ji	-10.4849
▁individual	-10.4851
▁conduct	-10.4892
good	-10.4896
more	-10.4908
▁stranger	-10.491
▁worried	-10.4912
▁beauty	-10.4914
▁gru	-10.4917
did	-10.4928
▁italy	-10.4934
▁normal	-10.4943
▁influence	-10.4943
▁wise	-10.4954
▁comment	-10.4956
▁giant	-10.4957
ane	-10.4957
▁training	-10.4958
▁pit	-10.4959
▁throat	-10.4964
▁canada	-10.4967
▁vol	-10.4968
▁occasion	-10.4969
è	-10.497
phone	-10.4973
▁crown	-10.4973
new	-10.4976
▁disease	-10.4983
▁operation	-10.499
&	-10.499
very	-10.4996
▁ninety	-10.4998
spect	-10.5002
▁comfort	-10.5007
▁honour	-10.5007
▁bedroom	-10.5023
▁everywhere	-10.5025
▁bark	-10.5025
▁spoken	-10.5034
▁mount	-10.5035
▁2007	-10.5045
▁planet	-10.5051
▁flow	-10.5052
▁ruth	-10.5053
▁2009	-10.5061
▁receive	-10.5065
▁pool	-10.5066
position	-10.5067
▁actress	-10.5068
▁yum	-10.5071
▁nineteen	-10.5073
▁prop	-10.5075
▁nut	-10.5078
ically	-10.5078
▁blind	-10.5082
ue	-10.5084
▁tongue	-10.5087
▁closer	-10.5104
uring	-10.5105
▁chris	-10.5113
▁entire	-10.5115
▁committee	-10.5116
wan	-10.5127
▁brand	-10.5129
peter	-10.5134
▁strike	-10.5143
rge	-10.5148
▁surface	-10.5157
▁buck	-10.5159
▁commander	-10.516
elle	-10.5161
▁tries	-10.519
ification	-10.5196
▁magnet	-10.5204
▁rev	-10.5206
zar	-10.5209
▁fence	-10.5209
je	-10.5214
▁eastern	-10.5216
▁blu	-10.5225
▁sixty	-10.5229
▁wedding	-10.5233
▁forgotten	-10.5235
▁towel	-10.5238
ann	-10.5243
▁finding	-10.5243
▁maid	-10.5257
--"	-10.5263
ó	-10.5263
▁loss	-10.527
▁roger	-10.5275
80	-10.5276
door	-10.5278
▁prepared	-10.528
▁dun	-10.5293
▁protest	-10.5296
▁fixed	-10.5297
▁republic	-10.531
▁sake	-10.532
voc	-10.532
▁sale	-10.5322
sighs	-10.5331
▁defend	-10.5332
▁poo	-10.534
iff	-10.5342
▁shadow	-10.535
▁medal	-10.5355
▁africa	-10.5362
▁ned	-10.5363
oon	-10.537
▁wine	-10.5371
▁rank	-10.5375
▁smaller	-10.5377
▁desert	-10.5384
cious	-10.5386
▁continue	-10.5396
▁louis	-10.5402
▁chinese	-10.5408
▁2006	-10.5409
▁hor	-10.5411
▁wha	-10.5411
▁owner	-10.5411
▁purdie	-10.5411
▁spain	-10.5413
ised	-10.5426
key	-10.5427
▁mister	-10.543
▁beep	-10.5446
▁sis	-10.5449
▁dump	-10.5449
▁treasure	-10.5453
▁rod	-10.5453
ection	-10.5457
▁remark	-10.5458
▁located	-10.5461
star	-10.5472
mark	-10.548
▁ticket	-10.5482
▁factor	-10.5484
▁len	-10.5484
90	-10.5486
▁managed	-10.5488
▁definitely	-10.5492
▁generally	-10.5494
vic	-10.5496
▁cabin	-10.5502
▁thin	-10.5507
▁formula	-10.552
▁chest	-10.5536
glo	-10.5548
jes	-10.555
▁quietly	-10.5553
▁prefer	-10.5562
▁drinking	-10.5562
▁cave	-10.5562
▁tar	-10.5563
▁fashion	-10.5565
▁reaches	-10.5566
▁dick	-10.557
▁gal	-10.5573
▁sports	-10.5584
▁upset	-10.5591
▁museum	-10.5595
▁var	-10.5598
▁shown	-10.5598
▁cher	-10.5604
▁greater	-10.5612
ese	-10.5613
when	-10.5615
▁empire	-10.5618
▁brook	-10.562
▁twin	-10.562
16	-10.5623
▁evil	-10.5624
▁aged	-10.5626
▁contract	-10.5629
ggle	-10.5636
nel	-10.5643
▁banana	-10.5644
▁jumped	-10.5648
▁shout	-10.5651
ounce	-10.5653
looking	-10.5661
▁clap	-10.5667
▁dust	-10.5668
▁uhuh	-10.5673
▁sword	-10.5675
▁founded	-10.5676
▁suggest	-10.5684
▁stir	-10.5686
worth	-10.5693
rated	-10.5697
▁odd	-10.5709
▁opportunity	-10.5712
▁possibly	-10.5712
pho	-10.5717
ppy	-10.5728
▁engineer	-10.573
▁addition	-10.5732
▁alarm	-10.5734
babbles	-10.5738
▁novel	-10.5739
bye	-10.574
▁hay	-10.5744
▁pipe	-10.5755
ux	-10.5763
▁copy	-10.5772
▁relationship	-10.5772
▁file	-10.5775
▁proceed	-10.5775
▁gordon	-10.5775
▁bon	-10.5776
▁pur	-10.5777
▁secretary	-10.5787
morrow	-10.5787
▁parliament	-10.5789
▁security	-10.5798
▁carrying	-10.5802
lock	-10.581
▁students	-10.5813
▁eli	-10.5816
▁softly	-10.5819
lish	-10.582
▁airport	-10.5821
▁prevent	-10.5823
lip	-10.5836
cho	-10.5838
▁victim	-10.5847
▁remained	-10.5851
▁riding	-10.5857
psych	-10.586
truct	-10.5862
▁greatest	-10.5868
▁release	-10.5872
▁scientist	-10.5873
▁chase	-10.5873
▁ray	-10.589
pit	-10.5894
▁opposite	-10.5896
▁awake	-10.5898
24	-10.5906
▁opinion	-10.5908
77	-10.5913
▁shock	-10.5914
will	-10.5917
64	-10.5918
▁pirate	-10.5925
▁crawl	-10.5926
47	-10.5926
cycl	-10.5929
▁monday	-10.5941
▁percent	-10.5946
▁servant	-10.5951
▁leading	-10.5958
▁section	-10.596
▁desk	-10.5964
▁julia	-10.5971
▁austria	-10.5972
▁defeat	-10.5975
▁constant	-10.5981
▁yell	-10.5983
▁yup	-10.5997
▁suggested	-10.5998
▁suspect	-10.6008
▁scout	-10.6009
▁soldier	-10.6017
lou	-10.6033
▁contact	-10.6039
▁ghost	-10.6048
▁hook	-10.605
65	-10.6063
▁temp	-10.6072
▁pray	-10.6073
▁loose	-10.6086
down	-10.6086
▁gla	-10.6086
▁favor	-10.6089
▁sentence	-10.6091
▁whisper	-10.6093
▁microphone	-10.6096
▁grandpa	-10.6098
pha	-10.6108
78	-10.6112
▁hunt	-10.6114
▁mud	-10.6114
▁realize	-10.6123
▁bessie	-10.6132
miss	-10.6137
▁nope	-10.6137
▁hmm	-10.6145
▁greek	-10.6147
▁champion	-10.6154
▁afterwards	-10.6156
▁guide	-10.6167
▁[3	-10.6193
▁ourselves	-10.6194
▁easier	-10.62
▁direct	-10.6201
bal	-10.6201
▁showing	-10.6202
▁switch	-10.6203
▁colon	-10.6214
48	-10.6216
▁olympics	-10.6217
▁wire	-10.6219
ously	-10.622
zy	-10.622
▁recover	-10.6228
▁40	-10.6228
▁production	-10.623
▁stayed	-10.6232
▁discuss	-10.6233
21	-10.6237
▁offered	-10.6243
▁rome	-10.6249
▁fool	-10.625
▁ruin	-10.625
▁roar	-10.6259
berry	-10.626
▁sex	-10.6267
▁chain	-10.6268
▁mari	-10.6272
▁matt	-10.6277
▁yyy	-10.6281
ural	-10.6286
tell	-10.6286
▁staff	-10.629
▁lamb	-10.6296
▁cities	-10.6298
▁yu	-10.63
▁scott	-10.6304
izing	-10.6306
▁foreign	-10.6314
▁jeff	-10.6318
▁rescue	-10.632
▁trunk	-10.6327
▁goat	-10.6333
66	-10.6339
▁performance	-10.634
▁apparently	-10.6342
look	-10.6353
▁excellent	-10.6366
▁directly	-10.6369
▁glasses	-10.637
▁fro	-10.6372
▁carrot	-10.6373
▁frightened	-10.6375
▁drum	-10.6379
▁safety	-10.6382
▁element	-10.6384
▁association	-10.6393
▁brilliant	-10.6396
▁disappoint	-10.6396
▁credit	-10.6397
▁sailor	-10.6397
▁standard	-10.6399
nods	-10.6402
▁narrow	-10.6403
▁tank	-10.6403
bor	-10.6405
cept	-10.6406
▁wipe	-10.6417
▁manage	-10.6423
▁dutch	-10.6431
▁younger	-10.6434
▁dozen	-10.6437
▁product	-10.6438
69	-10.6438
▁text	-10.6441
▁joseph	-10.6442
25	-10.6445
▁ladder	-10.6445
band	-10.645
▁perfectly	-10.6454
▁~	-10.6455
year	-10.6455
▁knight	-10.6456
▁retired	-10.6459
▁circum	-10.6461
▁presently	-10.6463
▁korea	-10.6474
▁neat	-10.6477
▁map	-10.6491
▁memory	-10.6492
▁academy	-10.6495
▁boots	-10.6497
▁2000	-10.6498
▁source	-10.6501
▁fancy	-10.6502
▁tap	-10.6504
▁shopping	-10.6507
▁code	-10.651
▁edward	-10.6513
silence	-10.6522
yard	-10.6523
▁tha	-10.6525
▁whispered	-10.6529
cou	-10.6531
▁comfortable	-10.6535
▁kim	-10.6538
▁settled	-10.6539
▁fortune	-10.6544
▁knowledge	-10.6544
▁clown	-10.6545
▁curious	-10.6549
▁surely	-10.6552
▁bringing	-10.6561
▁task	-10.6568
crib	-10.6568
stone	-10.6591
▁biscuit	-10.66
▁pile	-10.6606
▁horsie	-10.6607
▁pressure	-10.6608
▁screen	-10.6609
tom	-10.6612
▁airplane	-10.6613
`	-10.6619
▁chart	-10.6623
▁jones	-10.6623
▁doggie	-10.6625
▁buddy	-10.6627
▁eighty	-10.6627
▁nursery	-10.6633
▁elder	-10.664
most	-10.6648
▁response	-10.665
roz	-10.6657
▁tele	-10.6659
vol	-10.6659
▁forever	-10.6662
▁shouted	-10.6663
filler	-10.6663
▁smiled	-10.6669
bbing	-10.6672
▁bathroom	-10.6674
▁chairman	-10.6674
▁succeed	-10.6678
▁carriage	-10.6688
▁data	-10.6696
▁mention	-10.6697
name	-10.6704
aunt	-10.6704
▁transport	-10.6711
70	-10.6718
▁wondering	-10.6719
▁bush	-10.6721
67	-10.673
▁biggest	-10.6732
▁sport	-10.6736
▁habit	-10.6737
▁bubble	-10.6742
▁photograph	-10.6748
▁fairy	-10.6753
▁soup	-10.6753
-19	-10.6757
▁hammer	-10.6757
▁medical	-10.6768
▁forced	-10.6769
▁blame	-10.6774
▁palace	-10.6774
▁photo	-10.678
▁mile	-10.678
▁media	-10.6786
▁pencil	-10.6795
town	-10.6799
▁dada	-10.6799
▁q	-10.6815
63	-10.6819
▁bid	-10.6824
▁concern	-10.6826
gate	-10.683
▁culture	-10.6837
▁mur	-10.6841
rink	-10.6844
▁hanging	-10.6847
▁cute	-10.6848
▁trial	-10.6854
▁mirror	-10.6865
ject	-10.687
▁perform	-10.6873
▁destroy	-10.6874
▁mentioned	-10.6877
▁particularly	-10.6878
▁explained	-10.6882
▁rosa	-10.6885
▁shook	-10.6885
▁smiling	-10.6888
▁article	-10.6888
awa	-10.69
▁fairly	-10.6902
▁kr	-10.6907
▁threat	-10.6907
▁rap	-10.6913
▁network	-10.6917
▁tractor	-10.6921
▁eaten	-10.6928
▁gentle	-10.693
ological	-10.6931
▁barb	-10.6936
▁reply	-10.6939
bout	-10.6941
▁cash	-10.6953
42	-10.6954
▁upper	-10.6958
▁2005	-10.6969
▁birth	-10.6984
73	-10.6987
cro	-10.6988
▁powerful	-10.6996
range	-10.7008
▁developed	-10.7008
▁waste	-10.7016
▁congress	-10.7017
▁included	-10.7028
▁highest	-10.7029
▁somewhat	-10.7031
▁pilot	-10.704
▁launch	-10.705
▁studied	-10.7063
▁sweetie	-10.7064
▁chan	-10.7067
▁amazing	-10.7069
▁progress	-10.7069
▁penny	-10.7071
▁duh	-10.7074
▁faster	-10.7079
zu	-10.7089
▁2004	-10.7093
▁neighbor	-10.7095
▁larger	-10.7104
57	-10.7106
▁flew	-10.711
▁method	-10.7118
▁consist	-10.7124
toy	-10.7125
arian	-10.714
▁signed	-10.7141
▁avoid	-10.7145
37	-10.7145
rah	-10.7148
▁boom	-10.7148
▁witness	-10.7151
▁sho	-10.7154
▁faint	-10.7155
bird	-10.7156
▁clearly	-10.716
bury	-10.7164
▁washing	-10.7164
▁respond	-10.7164
▁owl	-10.7165
ground	-10.7172
▁expression	-10.7175
▁2001	-10.7186
ano	-10.7188
tti	-10.719
▁passing	-10.7193
▁holy	-10.7195
▁gang	-10.7197
▁kinda	-10.7199
▁dragon	-10.7203
▁improve	-10.7204
▁passenger	-10.7207
▁spec	-10.7208
▁leap	-10.7214
▁afford	-10.7221
▁gather	-10.7224
▁struggle	-10.7227
▁beast	-10.7235
▁splash	-10.7237
▁tribe	-10.7247
ization	-10.7249
cast	-10.7274
ati	-10.728
cli	-10.7284
49	-10.7285
wait	-10.7286
▁properly	-10.7295
▁cancer	-10.7304
▁repeated	-10.7306
*	-10.7308
▁turtle	-10.7315
▁railway	-10.7322
fall	-10.7332
▁lara	-10.7334
▁focus	-10.7342
23	-10.7342
▁justice	-10.7356
mond	-10.7366
▁florida	-10.7368
▁priest	-10.737
▁yay	-10.7371
▁chicago	-10.7371
▁environment	-10.7378
▁russia	-10.738
54	-10.7385
▁recording	-10.7389
▁scratch	-10.7395
fish	-10.7396
▁skill	-10.7404
55	-10.7421
▁madam	-10.7423
ella	-10.7427
pla	-10.7436
▁library	-10.7442
▁1990	-10.7451
▁australian	-10.7455
▁weird	-10.747
▁complain	-10.7473
▁temple	-10.7476
▁peas	-10.7489
▁nervous	-10.749
▁revolution	-10.749
▁average	-10.7493
▁organization	-10.7493
▁jar	-10.7499
stand	-10.7505
▁cub	-10.7509
▁raise	-10.7513
39	-10.752
▁related	-10.7524
▁elected	-10.7527
▁positive	-10.7537
▁spare	-10.7541
▁grandmother	-10.7553
▁shh	-10.7558
about	-10.7562
▁commission	-10.7562
▁baseball	-10.7562
22	-10.757
▁thrown	-10.7577
▁0	-10.758
▁philip	-10.7581
any	-10.7585
▁utter	-10.7585
▁hurried	-10.7589
▁concerned	-10.7594
▁property	-10.7596
▁acting	-10.7596
59	-10.7598
▁attract	-10.7603
▁latter	-10.7603
▁emperor	-10.761
▁leaf	-10.761
▁wound	-10.7612
▁available	-10.7613
▁alex	-10.7614
▁disappeared	-10.7625
▁wander	-10.7629
▁pale	-10.7631
▁apartment	-10.7632
58	-10.7635
▁debut	-10.764
gon	-10.7644
▁utterance	-10.7646
▁settle	-10.7646
▁feather	-10.7648
▁document	-10.7651
referring	-10.7655
▁sink	-10.766
46	-10.766
ister	-10.7661
▁african	-10.7668
▁relative	-10.7668
▁remarked	-10.7669
▁secure	-10.7669
▁understood	-10.7672
▁steve	-10.7683
43	-10.7689
44	-10.7691
▁marsh	-10.7693
▁request	-10.7696
▁burst	-10.7696
▁weekend	-10.7697
▁tickle	-10.77
▁garage	-10.7705
▁worst	-10.771
▁route	-10.7718
▁que	-10.7727
▁fought	-10.7728
whispers	-10.7732
▁cliff	-10.7735
▁unfortunate	-10.7745
▁function	-10.7745
boy	-10.7745
▁bend	-10.7748
▁mummie	-10.7749
▁pushed	-10.775
▁wil	-10.775
▁religion	-10.7752
▁detective	-10.7763
▁plastic	-10.7767
▁bunch	-10.7769
▁jerry	-10.7773
▁rear	-10.7775
ograph	-10.7776
▁chuck	-10.7778
▁structure	-10.7784
▁fond	-10.7788
34	-10.7789
▁slight	-10.7793
▁economic	-10.7798
▁soviet	-10.7805
▁seriously	-10.7811
talk	-10.7818
▁wagon	-10.7822
▁confirm	-10.7822
▁drove	-10.7823
ola	-10.7824
▁cooking	-10.7826
▁policy	-10.7826
▁gaze	-10.7827
▁rare	-10.7829
▁shooting	-10.7834
aries	-10.7834
▁aware	-10.7837
ada	-10.7837
▁knocked	-10.7844
▁competition	-10.7847
▁jan	-10.7848
▁merry	-10.7855
▁ellie	-10.7861
▁independent	-10.7865
▁noble	-10.7868
▁butterfly	-10.7868
hou	-10.7872
give	-10.7874
▁brad	-10.7874
rich	-10.7874
38	-10.7874
mmer	-10.7875
▁darkness	-10.7877
▁trap	-10.7881
▁scan	-10.7882
rap	-10.7883
▁create	-10.7883
▁failed	-10.7894
▁fishing	-10.7898
▁mode	-10.7908
▁advantage	-10.7911
▁coal	-10.7921
▁witch	-10.7923
▁jimmy	-10.7931
▁consul	-10.7934
ular	-10.7937
▁peanut	-10.7943
62	-10.7948
▁tommy	-10.7949
▁gently	-10.795
▁puppy	-10.7951
ckle	-10.7956
▁sno	-10.7956
▁prayer	-10.7964
▁span	-10.7969
▁throwing	-10.7969
▁clo	-10.797
▁drawn	-10.7981
▁plus	-10.7983
▁grin	-10.7984
▁owe	-10.7985
▁sweetheart	-10.7986
rick	-10.8005
thank	-10.8007
▁31	-10.8013
▁eu	-10.8014
hoo	-10.802
▁throughout	-10.803
▁disturb	-10.8032
▁temperature	-10.8039
▁freedom	-10.804
▁pole	-10.8045
▁friendly	-10.8058
▁quit	-10.8058
▁resist	-10.8063
▁wished	-10.8072
▁traffic	-10.8079
▁cheap	-10.8082
▁campaign	-10.8083
ington	-10.8083
▁active	-10.8083
▁review	-10.8094
▁1980	-10.8104
▁mayor	-10.8107
cular	-10.811
200	-10.811
▁wh	-10.811
▁grey	-10.8111
▁courage	-10.8115
cur	-10.8117
water	-10.8119
▁image	-10.8121
▁bullet	-10.8128
▁fully	-10.8136
▁jen	-10.8138
▁somehow	-10.8139
▁bou	-10.8147
▁hunting	-10.8148
▁mexico	-10.8159
▁smooth	-10.8159
▁statistics	-10.8166
▁benefit	-10.8181
▁activity	-10.8185
▁2003	-10.8186
itude	-10.8186
▁nana	-10.8198
▁elizabeth	-10.8206
▁familiar	-10.8214
▁hockey	-10.8217
▁¶	-10.8221
▁entirely	-10.8223
▁advice	-10.8228
▁hidden	-10.8229
▁aft	-10.8229
▁ahhah	-10.8232
▁shark	-10.824
▁daniel	-10.8248
▁buried	-10.8251
▁grandfather	-10.8255
▁nail	-10.8261
▁turkey	-10.8262
▁quack	-10.8263
▁mixed	-10.8264
▁split	-10.8273
▁fold	-10.8278
▁sposta	-10.828
▁vehicle	-10.8284
▁jacket	-10.8285
▁tied	-10.8304
▁admit	-10.8307
hop	-10.8308
▁israel	-10.831
▁candle	-10.8313
▁whistle	-10.8313
▁rum	-10.8314
▁canadian	-10.8321
▁becoming	-10.8321
▁citizen	-10.8324
▁presence	-10.8332
▁shower	-10.8336
▁eric	-10.8345
▁totally	-10.8355
▁majesty	-10.8361
▁candy	-10.8367
▁plum	-10.8368
▁caterpillar	-10.8373
28	-10.839
▁maria	-10.8396
▁dying	-10.8397
▁brian	-10.8397
▁gosh	-10.8398
▁branch	-10.8407
▁reflect	-10.841
▁ireland	-10.841
▁2002	-10.8411
▁determined	-10.8416
▁boxes	-10.8416
▁currently	-10.8417
▁chemical	-10.8425
▁pulling	-10.8431
▁sang	-10.8431
▁realized	-10.8437
cap	-10.8444
▁sauce	-10.8447
▁rice	-10.8449
▁student	-10.845
▁scotland	-10.8451
▁seal	-10.8452
under	-10.8453
▁visitor	-10.8454
▁thunder	-10.846
▁handsome	-10.846
▁madame	-10.8469
▁cab	-10.847
▁sar	-10.8471
▁latin	-10.8479
▁yummy	-10.849
▁repeat	-10.8491
▁occur	-10.8495
▁arthur	-10.8496
▁touched	-10.8498
▁reported	-10.8499
▁families	-10.8504
▁terror	-10.8504
▁float	-10.8509
60	-10.851
▁zzz	-10.8513
▁jumping	-10.8514
giggles	-10.8518
long	-10.8527
your	-10.8528
▁woo	-10.8551
▁labour	-10.8553
ä	-10.856
▁shame	-10.858
▁confess	-10.8591
▁reckon	-10.8599
sound	-10.86
▁described	-10.8601
▁volume	-10.8602
▁recently	-10.8604
oph	-10.8606
mbled	-10.8608
▁cough	-10.8611
▁excitement	-10.8621
▁survive	-10.8629
53	-10.864
▁exercise	-10.864
▁cutting	-10.8641
father	-10.8643
▁interview	-10.8644
▁fifth	-10.8644
▁produce	-10.8651
▁buzz	-10.8658
▁alien	-10.8658
▁representative	-10.866
▁extend	-10.8667
▁chamber	-10.8678
▁locked	-10.868
▁root	-10.8685
▁matches	-10.8686
app	-10.8705
tail	-10.8715
▁experiment	-10.8717
▁belt	-10.8721
▁seventy	-10.8724
▁height	-10.8728
▁doggy	-10.8744
▁dunno	-10.8745
▁fail	-10.8747
▁relax	-10.8756
27	-10.8761
▁pony	-10.8766
▁labor	-10.8779
▁dash	-10.8803
▁instrument	-10.8806
▁fund	-10.8811
▁wore	-10.8812
▁evidently	-10.8819
▁whenever	-10.882
▁catholic	-10.8822
51	-10.8825
▁duke	-10.8826
▁nan	-10.8827
ense	-10.8833
▁appreciate	-10.8837
▁legal	-10.8843
▁gay	-10.8848
▁festival	-10.8849
▁irish	-10.8851
▁develop	-10.8857
▁byebye	-10.8858
▁trace	-10.8859
--------------	-10.8861
▁pond	-10.8864
▁icecream	-10.8865
▁normally	-10.8867
▁eighteen	-10.8876
▁rifle	-10.8877
▁authority	-10.8888
▁gathered	-10.8888
▁etc	-10.8888
▁postman	-10.8895
▁physical	-10.89
▁obtain	-10.8902
vocalize	-10.8909
▁slightly	-10.8924
▁planning	-10.8936
▁target	-10.8936
▁drunk	-10.8936
▁chu	-10.8944
▁industry	-10.8947
▁dish	-10.8947
▁pooh	-10.8953
▁access	-10.8956
▁specific	-10.8958
▁climate	-10.8959
▁jimmie	-10.8959
▁wooden	-10.8963
▁rent	-10.8967
dale	-10.8975
▁lou	-10.8975
▁ox	-10.8978
▁shelter	-10.8987
26	-10.8997
▁sausage	-10.9006
▁spill	-10.9008
boo	-10.902
▁diamond	-10.9023
▁boston	-10.9023
▁musical	-10.9026
▁eager	-10.9029
▁require	-10.903
▁jigsaw	-10.9042
▁statement	-10.9051
▁boil	-10.9064
mouth	-10.9075
ulate	-10.9081
▁lack	-10.9088
▁rolling	-10.9097
▁gasp	-10.91
▁sixteen	-10.9102
▁queer	-10.911
▁whee	-10.9113
▁observed	-10.9114
▁guitar	-10.9118
▁xi	-10.9122
▁albert	-10.9122
gri	-10.9126
▁lisa	-10.9129
29	-10.9134
▁tender	-10.9141
▁federal	-10.915
▁eventually	-10.9158
▁slept	-10.9158
▁fleet	-10.9166
▁nina	-10.9179
▁lamp	-10.9183
▁scrap	-10.9196
▁tunnel	-10.9199
▁piano	-10.92
▁learning	-10.92
▁polly	-10.9207
▁cruel	-10.9212
▁cock	-10.922
▁exchange	-10.9235
▁sticker	-10.9236
empt	-10.9237
▁purse	-10.9238
▁spite	-10.924
▁burning	-10.9242
▁useful	-10.925
▁companies	-10.9251
▁victory	-10.9254
▁chew	-10.9255
▁passage	-10.9255
▁lane	-10.9257
▁pear	-10.926
▁gee	-10.9268
▁conference	-10.9268
▁origin	-10.9272
▁recorder	-10.9273
▁deserve	-10.9275
▁stack	-10.9278
▁scarcely	-10.928
▁swear	-10.9288
▁severe	-10.9289
▁destroyed	-10.9294
▁canoe	-10.9294
▁pillow	-10.9304
▁1970	-10.9307
▁disco	-10.9322
▁unknown	-10.9323
▁beneath	-10.9329
stein	-10.933
▁angeles	-10.9336
▁custom	-10.9336
fic	-10.9344
▁tick	-10.9348
▁wounded	-10.9352
99	-10.9353
▁bucket	-10.9353
▁tuesday	-10.9353
▁arrow	-10.9354
▁bloody	-10.9356
▁originally	-10.9356
▁link	-10.9368
▁racing	-10.9368
▁mainly	-10.937
▁dorothy	-10.9374
▁established	-10.9374
pointing	-10.9375
▁neighbour	-10.9378
ologist	-10.9381
▁pants	-10.9383
▁fourteen	-10.9386
▁lil	-10.9389
▁scale	-10.9403
▁stamp	-10.9404
▁stepped	-10.9408
even	-10.9414
▁soap	-10.9419
▁recorded	-10.9422
▁democratic	-10.9431
▁plot	-10.9432
▁robin	-10.9434
▁spoil	-10.9436
▁potato	-10.9439
▁bodies	-10.9449
▁restaurant	-10.9452
▁craft	-10.9454
▁pity	-10.9459
▁rail	-10.9462
cup	-10.9479
▁symbol	-10.9479
▁borrow	-10.9482
▁cord	-10.9482
▁stomach	-10.949
hara	-10.9503
making	-10.9505
▁cricket	-10.9507
▁describe	-10.9507
▁collection	-10.9509
▁2023	-10.9512
▁fireman	-10.9513
▁settlement	-10.9523
▁rapidly	-10.9525
▁speaker	-10.9526
▁spa	-10.9537
▁adopt	-10.9547
▁giraffe	-10.9548
▁peep	-10.9552
▁underneath	-10.9553
▁switzerland	-10.9557
▁proved	-10.9558
music	-10.9559
▁walter	-10.9576
▁auntie	-10.9581
cies	-10.9584
▁engaged	-10.9586
▁lonely	-10.9586
▁lifted	-10.9588
▁legend	-10.9589
▁guilty	-10.959
▁comedy	-10.9596
▁rug	-10.9598
▁challenge	-10.9603
▁click	-10.9607
▁exciting	-10.9611
poli	-10.9613
loud	-10.9618
▁achieve	-10.9619
▁woof	-10.9623
▁performed	-10.963
▁reveal	-10.9633
▁steady	-10.9641
▁horrible	-10.9645
▁thursday	-10.9645
▁unusual	-10.9645
▁warning	-10.9648
▁responsible	-10.9649
▁invited	-10.9662
▁steel	-10.9665
▁semi	-10.9666
▁lucy	-10.9668
▁removed	-10.9669
▁recognize	-10.9672
▁fate	-10.9674
▁couch	-10.9676
▁producer	-10.9678
▁oliver	-10.968
▁pakistan	-10.9692
▁counter	-10.9693
▁picnic	-10.9696
▁tomato	-10.9697
▁polish	-10.9699
▁divided	-10.97
▁senior	-10.9704
▁peggy	-10.9713
▁delicious	-10.9721
▁beans	-10.9722
▁uniform	-10.9726
▁cage	-10.9736
▁tear	-10.9751
▁delay	-10.9753
▁remove	-10.9755
▁wag	-10.9756
▁britain	-10.9757
▁ordinary	-10.9764
▁religious	-10.9768
▁comrade	-10.9768
▁rattle	-10.9776
▁concert	-10.9786
}	-10.9798
▁1960	-10.9804
coughs	-10.9808
▁dawn	-10.9809
▁emotion	-10.981
▁truly	-10.9814
▁incident	-10.9824
▁losing	-10.9832
▁shift	-10.9834
▁poison	-10.9837
▁sergeant	-10.9846
▁rode	-10.9867
▁kidding	-10.9872
▁jail	-10.9875
▁client	-10.9876
▁sweat	-10.9876
▁location	-10.9885
▁innocent	-10.9885
▁circus	-10.9893
▁1999	-10.9894
▁difficulty	-10.9906
▁zealand	-10.9911
▁relief	-10.9919
▁woke	-10.9921
▁curtain	-10.9926
▁hunter	-10.9927
▁vice	-10.9934
▁alexander	-10.9937
▁jelly	-10.9937
meter	-10.9944
▁frame	-10.9948
▁susan	-10.9952
▁stroke	-10.9953
▁donald	-10.9953
▁teaching	-10.9967
▁supply	-10.9967
▁entrance	-10.9976
▁regret	-10.9977
▁chop	-10.9985
▁becky	-10.9986
▁winner	-10.9988
▁wednesday	-10.9989
▁treatment	-10.9998
▁bishop	-11.0002
▁sim	-11.0002
▁winning	-11.0003
▁transfer	-11.0008
▁nicole	-11.0024
▁competed	-11.0027
▁spark	-11.0043
▁clip	-11.0046
▁associate	-11.0046
utter	-11.0047
▁jenny	-11.0057
▁sally	-11.0073
▁convince	-11.0077
▁florence	-11.0086
round	-11.0086
▁junior	-11.0108
▁descend	-11.0139
▁generation	-11.0144
five	-11.0147
▁sweep	-11.0148
▁firstname	-11.0153
dog	-11.0159
▁relation	-11.0165
▁hoping	-11.0167
▁slipped	-11.0167
▁sew	-11.0175
▁1996	-11.0192
▁changing	-11.0193
▁policeman	-11.0197
▁quality	-11.0206
▁shouting	-11.021
▁lorry	-11.0215
pur	-11.0218
▁scare	-11.0218
▁daily	-11.0223
▁balance	-11.0223
▁branches	-11.0226
▁pitcher	-11.023
▁1992	-11.0237
▁programme	-11.0239
▁thirteen	-11.0242
▁marvel	-11.0242
▁vegetable	-11.0251
▁zi	-11.0252
▁nik	-11.0264
▁caroline	-11.0264
▁annoy	-11.0274
▁setting	-11.0277
▁nancy	-11.0288
▁pattern	-11.0291
▁andrew	-11.0293
▁toilet	-11.0297
▁temper	-11.0305
▁lyn	-11.0312
▁swift	-11.0314
▁keen	-11.0319
comp	-11.0319
▁proof	-11.0329
▁examine	-11.0332
▁desperate	-11.0341
▁marie	-11.035
▁thorough	-11.0359
▁bond	-11.036
▁planned	-11.0364
▁bitter	-11.0365
▁pine	-11.0369
▁1998	-11.0377
▁tidy	-11.0386
▁happiness	-11.0386
▁eddie	-11.0388
▁refused	-11.0398
▁universe	-11.04
▁paw	-11.0401
▁solid	-11.0407
▁assume	-11.041
▁jackson	-11.0419
▁broadcast	-11.0423
▁expensive	-11.0427
▁drown	-11.0432
▁chosen	-11.0436
▁creek	-11.0438
▁divorce	-11.0441
▁auto	-11.0446
ō	-11.0446
mhm	-11.0448
▁farther	-11.0458
foot	-11.0468
▁oak	-11.0472
▁minor	-11.0476
▁connection	-11.0478
ré	-11.0483
▁flame	-11.0486
▁pride	-11.0489
▁uk	-11.0491
▁chum	-11.0495
▁captured	-11.0499
boat	-11.0502
▁shan	-11.0507
▁parties	-11.0515
▁introduced	-11.052
▁crocodile	-11.0524
nina	-11.0527
▁harris	-11.0529
▁molly	-11.0529
▁flip	-11.0532
▁favour	-11.0537
▁matthew	-11.0556
▁1995	-11.0556
▁devil	-11.056
▁display	-11.0562
▁principal	-11.0575
ttering	-11.0579
▁replaced	-11.0579
°	-11.0589
▁clay	-11.0593
▁trousers	-11.0593
▁brazil	-11.0596
▁required	-11.0603
scope	-11.0609
▁savage	-11.0612
▁arrive	-11.0616
▁actual	-11.0621
▁distinct	-11.0621
án	-11.0631
tribute	-11.0634
▁1994	-11.0635
▁$1	-11.0635
▁territory	-11.0635
voice	-11.0639
▁possess	-11.0648
▁satisfied	-11.0649
▁criminal	-11.0654
▁studies	-11.0659
▁indicate	-11.0659
▁whale	-11.067
▁egypt	-11.0675
▁mcdonald	-11.0677
▁platform	-11.0677
speak	-11.0677
▁intended	-11.0694
▁tummy	-11.0696
▁drag	-11.0698
▁pepper	-11.0706
▁scary	-11.0708
▁recognized	-11.0709
▁tropical	-11.0715
▁cooper	-11.0715
▁twist	-11.0715
▁stable	-11.0715
▁screw	-11.0721
▁dishes	-11.0722
▁audience	-11.0729
shouts	-11.0738
▁virginia	-11.0739
▁splendid	-11.0748
▁device	-11.0748
▁punch	-11.0766
which	-11.0776
▁daisy	-11.0776
▁multi	-11.0781
▁villa	-11.0783
▁rip	-11.0792
▁earnest	-11.08
▁patsy	-11.0808
▁saving	-11.0809
▁mun	-11.081
break	-11.0819
▁danny	-11.0826
▁instance	-11.0829
▁altogether	-11.0833
▁disappear	-11.0841
▁powder	-11.0843
▁oven	-11.0859
▁recommend	-11.0862
▁sara	-11.0862
▁permit	-11.0862
▁traditional	-11.0863
95	-11.0864
▁hur	-11.0869
▁household	-11.0871
dress	-11.0886
▁dreadful	-11.0886
▁basically	-11.0896
▁alter	-11.0899
▁2020)	-11.0901
▁lemon	-11.0905
▁practical	-11.0905
▁killer	-11.0906
▁customer	-11.091
▁eagerly	-11.0921
▁technology	-11.0924
▁obey	-11.0934
▁footnote	-11.0938
▁stole	-11.0938
▁penguin	-11.0958
▁syn	-11.0962
▁1997	-11.0967
actually	-11.0968
▁possession	-11.0969
▁cottage	-11.0977
▁jewel	-11.0978
▁stern	-11.0985
▁ouch	-11.0986
▁mistress	-11.0987
▁rachel	-11.0987
▁wealth	-11.0988
chair	-11.0988
▁sorrow	-11.1001
▁tune	-11.1003
▁fuss	-11.1004
▁mickey	-11.1006
▁reaction	-11.1006
▁connected	-11.1008
▁frequent	-11.1011
▁bounce	-11.1015
▁micro	-11.1018
▁assistant	-11.1021
▁flood	-11.1022
▁60	-11.1022
astic	-11.1025
▁belief	-11.1026
▁parish	-11.1036
▁entertainment	-11.1037
▁emergency	-11.1045
walk	-11.1047
▁pumpkin	-11.1055
▁baba	-11.1064
▁appointed	-11.1069
▁selected	-11.1069
borough	-11.1071
▁wrestling	-11.1074
▁enemies	-11.1074
▁plea	-11.1077
▁occurred	-11.1081
▁peekaboo	-11.1084
▁laughter	-11.1097
▁contest	-11.1099
▁navy	-11.1103
▁rocket	-11.1106
▁assembly	-11.1108
▁useta	-11.1115
▁squad	-11.1116
89	-11.1117
▁protection	-11.1119
after	-11.1129
▁wrap	-11.1133
▁sexual	-11.1149
▁suffering	-11.1154
▁margaret	-11.1157
▁squirrel	-11.1157
▁sunshine	-11.1157
▁bold	-11.116
▁johnny	-11.1163
involuntary	-11.1167
▁carpet	-11.1168
▁rick	-11.1171
▁[$	-11.1177
ctu	-11.1181
uction	-11.1182
▁scheme	-11.1182
▁graduate	-11.1192
▁barbara	-11.1202
▁cheerful	-11.1203
▁dude	-11.1211
▁sacrifice	-11.1212
▁reference	-11.1229
▁extremely	-11.1234
▁reduce	-11.1239
▁basketball	-11.1242
▁stro	-11.1243
found	-11.1246
▁description	-11.1246
▁trump	-11.1259
▁straw	-11.1262
load	-11.1265
wick	-11.1268
▁brig	-11.1277
▁hawk	-11.1279
▁georgia	-11.1282
▁tissue	-11.1291
▁ambulance	-11.1296
▁failure	-11.1297
00,000	-11.1303
▁bible	-11.1304
babble	-11.1307
▁tru	-11.1308
▁squeeze	-11.1311
▁explore	-11.1313
▁appeal	-11.1316
▁mask	-11.1319
▁fiction	-11.1326
▁praise	-11.1336
yeah	-11.134
▁comic	-11.1348
▁kir	-11.1359
97	-11.1364
▁fierce	-11.1366
▁1991	-11.1375
♪	-11.1382
▁victor	-11.1383
▁1988	-11.1391
▁recent	-11.1391
▁reward	-11.1392
▁distributed	-11.1406
▁breast	-11.1406
▁swallow	-11.1421
▁mystery	-11.1427
▁distant	-11.1432
▁repair	-11.1437
▁potatoes	-11.1448
▁scholar	-11.1452
▁warren	-11.1454
▁strawberry	-11.1462
▁argument	-11.1467
▁confidence	-11.1467
▁kitten	-11.1472
▁commercial	-11.1477
▁fortunate	-11.1482
▁jealous	-11.1482
face	-11.1483
▁mabel	-11.1485
▁theatre	-11.1494
▁arranged	-11.1498
▁peak	-11.1499
▁grateful	-11.1503
▁candidate	-11.1508
▁complex	-11.1513
▁rapid	-11.152
▁worm	-11.1529
▁nerve	-11.1529
▁musician	-11.153
▁raisin	-11.1537
moves	-11.1542
▁passion	-11.1547
▁tournament	-11.1549
▁warrior	-11.1554
▁venture	-11.1556
▁jason	-11.1565
▁disney	-11.1566
▁wales	-11.1566
body	-11.1569
▁sufficient	-11.1574
▁estate	-11.1583
▁reserve	-11.1595
▁equipment	-11.16
▁false	-11.161
▁sweden	-11.161
▁clark	-11.1617
print	-11.1627
▁murmur	-11.1631
▁intention	-11.1631
▁rude	-11.1642
▁unlike	-11.1643
▁prepare	-11.1645
▁instruction	-11.1656
▁groan	-11.1657
▁pace	-11.1661
▁epi	-11.1682
open	-11.1686
shakes	-11.169
▁julie	-11.1699
▁fever	-11.1702
▁grasp	-11.1703
▁kate	-11.1709
▁sneak	-11.1719
▁chess	-11.172
▁exhibit	-11.1724
▁strain	-11.173
▁celebrate	-11.1745
▁emma	-11.1747
▁cries	-11.176
▁silk	-11.176
▁institute	-11.176
▁register	-11.1761
▁worn	-11.1779
▁precious	-11.1784
▁hydro	-11.1785
▁encourage	-11.1792
mission	-11.1792
▁muscle	-11.1798
▁thrill	-11.1802
ú	-11.1808
▁spaghetti	-11.1813
▁lang	-11.1817
▁anchor	-11.1819
▁simon	-11.1819
▁jungle	-11.1823
▁horror	-11.1829
▁cereal	-11.1829
98	-11.1836
▁arrangement	-11.1844
▁financial	-11.185
▁construction	-11.1862
▁grade	-11.1867
▁louise	-11.1867
▁baker	-11.187
▁parent	-11.1872
▁ryan	-11.1882
87	-11.1886
▁granddad	-11.1903
▁lodge	-11.1911
▁despite	-11.1918
▁sylvia	-11.1918
▁somethin	-11.1924
▁permission	-11.1931
▁chose	-11.1932
88	-11.1945
▁helicopter	-11.1945
▁ginger	-11.1946
▁crisp	-11.1957
▁tramp	-11.1957
▁backwards	-11.1957
▁architect	-11.1961
▁gina	-11.1966
93	-11.1968
▁1993	-11.1971
▁reign	-11.1973
▁acid	-11.1977
▁expert	-11.1978
▁vision	-11.2001
overlap	-11.2002
calais	-11.2013
▁whisk	-11.2014
▁1989	-11.2014
▁sprang	-11.202
master	-11.2027
▁advise	-11.2036
whispered	-11.2038
▁management	-11.2041
▁tuck	-11.2042
▁romantic	-11.2047
92	-11.2056
▁ellen	-11.2066
stitution	-11.2076
▁noisy	-11.208
▁publish	-11.2082
▁operate	-11.2082
▁hurricane	-11.2084
▁fetch	-11.2086
agon	-11.2088
▁barrel	-11.2091
▁mul	-11.2099
▁wreck	-11.2101
▁ashamed	-11.2101
point	-11.2109
▁billion	-11.2114
▁christopher	-11.2117
▁netherlands	-11.2117
▁dollar	-11.2117
▁violent	-11.2122
▁salad	-11.2123
▁poem	-11.2123
▁solve	-11.213
▁missouri	-11.2138
▁basic	-11.214
▁prior	-11.2146
▁diver	-11.2148
▁label	-11.2156
▁stiff	-11.2163
▁republican	-11.2164
keeper	-11.2187
vocalization	-11.2197
moving	-11.2201
▁slice	-11.2204
▁maintain	-11.2229
▁proposed	-11.2253
jack	-11.2259
▁glen	-11.2266
▁package	-11.2282
86	-11.2283
▁marine	-11.229
▁michel	-11.2293
▁tradition	-11.2301
screams	-11.2301
▁glory	-11.2313
from	-11.2318
▁smash	-11.2319
▁claus	-11.2322
▁jersey	-11.2324
▁johnson	-11.2325
▁shaking	-11.2327
four	-11.2328
▁grandad	-11.2329
▁senate	-11.2336
▁cupboard	-11.2341
▁admitted	-11.2362
▁responsibility	-11.2374
ident	-11.2387
▁carolina	-11.2397
american	-11.24
link	-11.2402
▁replace	-11.2403
▁loving	-11.2404
▁patch	-11.2409
▁wool	-11.2428
▁ranger	-11.2434
▁crow	-11.2439
▁resource	-11.2441
▁grunt	-11.2443
▁recall	-11.2445
▁mental	-11.245
▁defense	-11.2458
▁franc	-11.2471
▁curl	-11.2475
▁highway	-11.2483
▁morgan	-11.249
▁occupied	-11.2492
▁squeak	-11.2492
▁explanation	-11.2497
▁talent	-11.25
▁200	-11.2501
june	-11.2501
▁expedition	-11.2503
▁triangle	-11.2509
▁cotton	-11.2509
ivity	-11.252
▁isabel	-11.2522
▁seized	-11.2525
▁battery	-11.2525
▁stolen	-11.2527
96	-11.2527
count	-11.2533
▁zero	-11.2536
▁agreement	-11.254
heim	-11.2551
▁1950	-11.2556
▁profit	-11.256
▁jeannine	-11.2565
▁francis	-11.2566
09	-11.2568
07	-11.257
▁norman	-11.2572
hmm	-11.2575
▁vocalises	-11.2576
▁loyal	-11.2577
▁flour	-11.2578
▁1984	-11.2581
▁bushes	-11.2587
▁triumph	-11.2599
▁valuable	-11.261
▁robber	-11.2614
▁headquarters	-11.2616
▁stadium	-11.2616
▁funeral	-11.2616
▁portion	-11.2616
68	-11.2619
▁costume	-11.2622
▁surrounded	-11.2627
▁stopping	-11.2637
▁furniture	-11.2645
▁beads	-11.2648
▁tide	-11.2652
▁punish	-11.2653
▁capture	-11.2672
▁drift	-11.2679
▁facing	-11.2683
▁investigation	-11.2685
▁constitution	-11.2693
▁crush	-11.2704
▁argue	-11.2706
▁oxford	-11.2708
▁edition	-11.271
perhaps	-11.2711
85	-11.2712
▁merchant	-11.2713
▁politics	-11.2719
▁embarrass	-11.2719
▁carbon	-11.272
▁inhabitants	-11.2731
▁faithful	-11.274
▁historical	-11.274
▁frost	-11.276
▁cowboy	-11.2761
▁midnight	-11.2767
▁voyage	-11.2771
▁neighborhood	-11.2771
▁meanwhile	-11.2775
tree	-11.2791
▁polite	-11.2794
▁heavily	-11.2794
▁vacation	-11.28
▁conscious	-11.28
▁fame	-11.2801
▁illinois	-11.2811
▁senator	-11.2811
▁economy	-11.2817
▁executive	-11.2817
▁communication	-11.2823
▁girlfriend	-11.283
08	-11.2831
▁worship	-11.284
known	-11.2845
▁victoria	-11.2862
▁typical	-11.2864
▁compared	-11.287
▁ugly	-11.287
▁nodded	-11.2882
while	-11.2893
▁1987	-11.291
▁merely	-11.2911
▁interfere	-11.2912
▁accomplish	-11.2916
▁suggestion	-11.292
▁editor	-11.2922
▁creep	-11.2926
crying	-11.2934
▁kur	-11.2936
▁refuse	-11.2937
▁nonsense	-11.294
▁defence	-11.2943
▁sydney	-11.2946
▁patrick	-11.2947
▁zip	-11.2956
▁growl	-11.2957
▁retire	-11.2966
▁chatter	-11.297
▁atlantic	-11.2975
▁eagle	-11.2975
▁principle	-11.2981
▁pacific	-11.2981
reaches	-11.2982
▁schedule	-11.2987
▁blew	-11.2993
▁charlotte	-11.2999
▁majority	-11.3005
▁yuck	-11.3009
▁arrival	-11.3011
unnecessary	-11.3017
▁nominated	-11.3017
▁stephen	-11.3018
▁attached	-11.3028
▁wilson	-11.3032
▁bernard	-11.3034
▁gabriel	-11.3046
94	-11.305
▁skirt	-11.3059
▁distinguish	-11.3064
▁1972	-11.3069
▁1986	-11.3076
▁percy	-11.3085
▁commit	-11.3092
▁internet	-11.3094
uous	-11.3098
▁dominic	-11.3101
▁exception	-11.3104
▁municipal	-11.3109
▁exhaust	-11.3118
▁mexican	-11.3118
▁significant	-11.3118
piece	-11.3123
▁liberal	-11.313
▁conquer	-11.313
▁independence	-11.3136
close	-11.3139
▁umbrella	-11.3142
----"	-11.3149
▁breed	-11.3151
investigator	-11.3154
conti	-11.3164
84	-11.3171
▁geography	-11.3172
▁compound	-11.3172
▁1981	-11.3176
▁obliged	-11.3178
▁clue	-11.3181
▁consequence	-11.3184
▁insurance	-11.3184
▁nuclear	-11.319
▁jolly	-11.319
▁aircraft	-11.3191
▁purchase	-11.3196
▁pursue	-11.3196
▁session	-11.3197
▁stress	-11.3202
▁jewish	-11.3208
▁considerable	-11.3212
▁flush	-11.3214
▁seventeen	-11.322
▁echo	-11.3223
▁hind	-11.3232
▁covid	-11.3232
▁estimate	-11.325
east	-11.3252
school	-11.3262
▁rubber	-11.3271
─	-11.3275
▁friendship	-11.3281
▁lincoln	-11.3287
▁gym	-11.3288
▁chr	-11.3289
▁vast	-11.3291
▁confused	-11.3305
æ	-11.3317
91	-11.3338
▁provision	-11.3348
▁adapt	-11.3358
▁budget	-11.3361
▁chimney	-11.3366
▁inquired	-11.3366
▁winnie	-11.3368
▁importance	-11.3372
▁berlin	-11.3372
whines	-11.3378
79	-11.3379
▁effective	-11.3391
▁draft	-11.3397
▁snack	-11.3403
▁mysterious	-11.3415
▁southeast	-11.3423
▁betray	-11.3423
▁application	-11.344
▁wicked	-11.344
▁connect	-11.3446
maker	-11.3449
claim	-11.345
▁intend	-11.3452
▁preparation	-11.3459
▁authorities	-11.3472
▁1976	-11.3476
▁negative	-11.3477
▁fuel	-11.3478
▁sunny	-11.3481
▁primary	-11.3483
grunts	-11.3491
▁conflict	-11.3496
▁delightful	-11.3496
▁piggy	-11.3503
▁impression	-11.3521
▁throne	-11.3521
▁initial	-11.354
▁retreat	-11.3552
▁ease	-11.3554
▁linda	-11.3556
▁orchestra	-11.3558
‘	-11.357
▁pearl	-11.3571
▁crystal	-11.3572
▁massachusetts	-11.3577
▁mobile	-11.3577
▁knot	-11.3592
▁generous	-11.3597
▁francisco	-11.3605
ession	-11.3607
▁1979	-11.3607
▁scientific	-11.3608
▁granny	-11.3614
please	-11.3617
▁dirt	-11.3625
▁surrounding	-11.3627
▁discussion	-11.3628
▁lung	-11.3633
▁thumb	-11.3634
▁peach	-11.3645
▁kansas	-11.3646
▁necklace	-11.3646
▁bicycle	-11.3659
▁injured	-11.3659
hhh	-11.3674
▁cattle	-11.3675
▁premier	-11.3684
▁corps	-11.3687
▁loft	-11.3688
▁hindu	-11.3691
▁zebra	-11.3691
▁solution	-11.3697
76	-11.3698
▁euro	-11.3705
▁theater	-11.3706
▁1985	-11.3715
▁envelope	-11.3716
83	-11.3716
▁punishment	-11.3719
▁resident	-11.3735
▁davis	-11.3737
▁confident	-11.3748
ective	-11.3764
▁violence	-11.3786
▁feast	-11.3795
▁exact	-11.3799
▁introduce	-11.3804
▁serving	-11.3808
▁concept	-11.3817
72	-11.3836
▁eliminated	-11.3856
▁strict	-11.3857
▁pump	-11.3861
▁prospect	-11.3875
▁survey	-11.3876
▁illustrations	-11.3878
▁referred	-11.3879
▁cheat	-11.3886
▁lemme	-11.3902
▁variety	-11.3908
▁volunteer	-11.3921
▁mechanic	-11.3926
still	-11.3927
▁solemn	-11.3934
▁olympic	-11.3948
ault	-11.3965
▁multiple	-11.3967
▁attitude	-11.3973
▁wrestle	-11.3979
▁illness	-11.3985
▁observe	-11.3988
▁1983	-11.3991
▁glue	-11.3991
▁debt	-11.3993
▁rustling	-11.4012
▁approve	-11.4012
▁presidential	-11.402
▁committed	-11.4022
82	-11.4026
▁entertain	-11.4037
▁cigarette	-11.4045
â	-11.4051
▁lecture	-11.4051
▁northwest	-11.4055
▁satisfaction	-11.4065
▁closing	-11.4073
▁foolish	-11.4074
▁deputy	-11.4084
▁ceremony	-11.4091
▁invitation	-11.4091
▁harbor	-11.4106
would	-11.4111
continues	-11.4118
▁1982	-11.4129
▁appointment	-11.4137
▁inspector	-11.4144
▁thrust	-11.4144
▁invite	-11.415
kov	-11.4155
▁lewis	-11.4157
ô	-11.4164
▁liquid	-11.4164
▁detect	-11.4168
▁fantastic	-11.417
▁pennsylvania	-11.417
though	-11.4183
▁admire	-11.419
pretend	-11.4191
▁drill	-11.4205
▁numerous	-11.421
▁widow	-11.421
▁1974	-11.4215
▁sacred	-11.4217
▁muslim	-11.4217
▁cathy	-11.4218
stick	-11.4218
▁zorg	-11.4224
▁kevin	-11.424
▁vietnam	-11.4244
▁surgery	-11.425
▁strawberries	-11.4271
▁regiment	-11.4271
74	-11.4279
▁larry	-11.4298
▁literature	-11.4311
▁occasionally	-11.4313
▁thirsty	-11.4318
▁apologize	-11.4331
▁intelligence	-11.4331
ographic	-11.4344
▁ashore	-11.436
▁limb	-11.4362
▁northeast	-11.4367
▁buffalo	-11.4379
▁michigan	-11.4385
▁gimme	-11.4392
▁cancel	-11.4399
▁cartoon	-11.4399
▁liberty	-11.4406
▁peculiar	-11.4413
▁column	-11.4419
81	-11.4422
▁cruise	-11.4427
▁intense	-11.4429
▁sample	-11.4443
▁anxiety	-11.4447
▁kelly	-11.4447
▁pregnant	-11.4454
▁hannah	-11.4454
▁digger	-11.4456
ñ	-11.446
▁stupid	-11.4467
▁bloom	-11.4467
▁slope	-11.4468
▁counsel	-11.4474
▁1968	-11.4487
▁conservative	-11.4495
▁helmet	-11.4495
▁raymond	-11.4495
▁slid	-11.4499
▁scu	-11.4512
▁conclusion	-11.4515
▁oink	-11.4517
▁hesitate	-11.4532
▁tremendous	-11.4543
▁unhappy	-11.4543
▁involve	-11.4552
▁extent	-11.4557
▁anthony	-11.457
▁breeze	-11.457
▁composer	-11.457
▁gradually	-11.4584
▁fanny	-11.459
▁egyptian	-11.4595
▁taylor	-11.4598
▁consent	-11.46
▁website	-11.4605
▁sniff	-11.4619
▁steep	-11.4625
✿	-11.4626
▁annual	-11.4629
▁brazilian	-11.4636
▁preserve	-11.4636
▁sought	-11.465
▁peasant	-11.4651
▁dallas	-11.4654
▁hollow	-11.4658
▁activities	-11.4675
▁amanda	-11.4697
▁cabinet	-11.4702
▁statue	-11.4704
▁cuddle	-11.4705
three	-11.4706
▁incredible	-11.471
▁depth	-11.4724
▁alphabet	-11.4731
▁gorgeous	-11.4731
▁journalist	-11.4735
▁ignore	-11.4738
▁impact	-11.4742
▁rainbow	-11.4745
▁swept	-11.4745
▁railroad	-11.4752
▁technical	-11.4752
▁leslie	-11.4752
▁animated	-11.4759
▁extreme	-11.4762
▁jordan	-11.4766
▁scottish	-11.477
▁parrot	-11.4773
▁lawrence	-11.478
▁promote	-11.479
▁monsieur	-11.4794
▁delicate	-11.4801
▁robinson	-11.4819
▁restore	-11.4833
▁congratulations	-11.4837
▁suspicion	-11.4837
gasp	-11.4855
▁administration	-11.4858
▁loire	-11.4881
▁dropping	-11.4884
▁sleeve	-11.4901
▁kenneth	-11.4901
▁explosion	-11.4908
▁option	-11.4921
▁peek	-11.4922
▁composed	-11.4923
▁harold	-11.4926
▁tennis	-11.4938
▁unexpected	-11.4951
▁dried	-11.4974
5,000	-11.4975
girl	-11.4983
▁orbit	-11.5006
▁compete	-11.5015
▁convert	-11.5019
▁alcohol	-11.5023
▁threatened	-11.5025
pushes	-11.503
▁flesh	-11.5038
▁essential	-11.5052
▁avenue	-11.5067
▁graeme	-11.5067
▁behavior	-11.5081
▁disaster	-11.5081
▁terribly	-11.5089
▁horizon	-11.5103
▁bundle	-11.5111
▁industrial	-11.5125
▁nickname	-11.5126
western	-11.5138
▁——	-11.5169
▁spear	-11.5177
#	-11.5231
ã	-11.5759
ā	-11.598
{	-11.6262
ç	-11.6766
|	-11.7162
~	-11.7696
š	-11.7916
£	-11.8052
ć	-11.8081
à	-11.8784
“	-11.9429
→	-11.989
ø	-12.0148
•	-12.0258
ū	-12.0619
\	-12.0707
ê	-12.072
↗	-12.0888
ł	-12.1192
↫	-12.1492
@	-12.1758
ë	-12.18
å	-12.1872
$	-12.2708
č	-12.2867
î	-12.3815
♫	-12.3938
ß	-12.4261
ă	-12.5057
ş	-12.5317
§	-12.571
¶	-12.5754
ï	-12.588
⁄	-12.5944
œ	-12.6075
ı	-12.711
ì	-12.7531
	-12.7582
ī	-12.7658
×	-12.7813
ž	-12.8077
¡	-12.9266
¿	-12.9696
©	-13.008
·	-13.0113
ý	-13.0582
ð	-13.086
ș	-13.1038
ń	-13.1479
€	-13.2138
ò	-13.234
−	-13.234
^	-13.293
ś	-13.3603
	-13.379
¤	-13.4324
′	-13.468
∆	-13.4836
ř	-13.5375
þ	-13.5431
∙	-13.5713
⌈	-13.5809
đ	-13.5887
û	-13.6063
ğ	-13.7193
ː	-13.7193
­	-13.7193
ˈ	-13.726
õ	-13.7327
ù	-13.76
ě	-13.76
⁎	-13.7952
ē	-13.8696
ə	-13.8696
―	-13.9416
	-13.9416
ț	-13.9668
ż	-14.0192
ő	-14.0745
İ	-14.0841
ę	-14.1432
¢	-14.1534
ą	-14.1741
±	-14.206
ţ	-14.239
ʻ	-14.3084
ʼ	-14.4224
„	-14.4224
‡	-14.4497
η	-14.4635
ṯ	-14.4635
ṭ	-14.5064
ả	-14.5064
ḥ	-14.5211
ệ	-14.536
ɪ	-14.6306
ー	-14.6306
ɛ	-14.6473
÷	-14.6642
	-14.699
ė	-14.699
ź	-14.7169
ư	-14.7169
®	-14.7536
>	-14.7724
ĕ	-14.8313
»	-14.8938
†	-14.8938
ʿ	-14.9155
«	-14.9605
ṉ	-14.9605
ṣ	-14.9605
ɑ	-14.9605
ň	-15.0075
ọ	-15.0319
ů	-15.0569
¦	-15.0569
ÿ	-15.0569
ǎ	-15.1359
	-15.1359
་	-15.1637
ŋ	-15.2217
¬	-15.2217
॥	-15.252
ɔ	-15.2832
▔	-15.2832
←	-15.3154
ʊ	-15.3155
ạ	-15.3488
	-15.3833
ʾ	-15.419
ũ	-15.456
ế	-15.456
¥	-15.4945
ṇ	-15.5345
∇	-15.5345
・	-15.5345
ứ	-15.5762
♭	-15.6197
ŭ	-15.6651
ʃ	-15.6651
⟩	-15.6651
	-15.7127
ŵ	-15.7127
ộ	-15.7127
ơ	-15.7627
ố	-15.7627
‐	-15.7627
ʒ	-15.8154
ν	-15.8154
।	-15.8154
ṃ	-15.8154
ˌ	-15.8709
∞	-15.9297
₹	-15.9922
█	-15.9922
○	-15.9922
ġ	-15.9922
ŏ	-16.0589
ε	-16.0589
٤	-16.0589
ề	-16.0589
ị	-16.0589
<	-16.1303
‚	-16.1303
ƒ	-16.1303
	-16.1303
ĭ	-16.2073
ǫ	-16.2073
ʔ	-16.2073
ο	-16.2073
؟	-16.2073
١	-16.2073
ḍ	-16.2073
∴	-16.2073
į	-16.2906
ť	-16.2906
ľ	-16.2906
ŷ	-16.2906
ǔ	-16.2906
ʌ	-16.2906
ɡ	-16.3815
ɐ	-16.3815
ɣ	-16.3815
↑	-16.3815
	-16.3815
	-16.3815
ɾ	-16.4815
٥	-16.4815
₤	-16.4815
≤	-16.4815
٢	-16.5926
ĩ	-16.5926
ʁ	-16.5926
٨	-16.5926
ẓ	-16.5926
♯	-16.5926
٧	-16.5926
ɫ	-16.5926
	-16.7176
	-16.7176
	-16.7176
ḻ	-16.7176
ď	-16.7176
ĝ	-16.7176
ļ	-16.7176
ớ	-16.7176
≥	-16.7176
☆	-16.7176
⬄	-16.7176
√	-16.7176
	-16.7176
१	-16.8605
ĥ	-16.8605
ǁ	-16.8605
ɦ	-16.8605
ǐ	-16.8605
ɒ	-16.8605
ˆ	-16.8605
٦	-16.8605
ẻ	-16.8605
ụ	-16.8605
ữ	-16.8605
⁂	-16.8605
	-16.8605
ʋ	-16.8605
ǒ	-17.0271
ɕ	-17.0271
ĉ	-17.0271
ħ	-17.0271
ŝ	-17.0271
ǝ	-17.0271
ủ	-17.0271
ỹ	-17.0271
★	-17.0271
☺	-17.0271
✡	-17.0271
ű	-17.0271
⁠	-17.0271
	-17.0271
	-17.0272
ṓ	-17.2271
ḷ	-17.2271
≈	-17.2271
ʏ	-17.2271
⋅	-17.2271
	-17.2271
ɯ	-17.2271
ɲ	-17.2271
ɹ	-17.2271
٩	-17.2271
ậ	-17.2271
ắ	-17.2271
ẹ	-17.2271
∘	-17.2271
	-17.2271
˧	-17.4771
ǂ	-17.4771
ĵ	-17.4771
ḫ	-17.4771
ǚ	-17.4771
ɨ	-17.4771
ɩ	-17.4771
ව	-17.4771
ṅ	-17.4771
ầ	-17.4771
ổ	-17.4771
ỳ	-17.4771
‖	-17.4771
※	-17.4771
₱	-17.4771
₵	-17.4771
≠	-17.4771
●	-17.4771
♥	-17.4771
、	-17.4771
	-17.4771
ẽ	-17.4771
	-17.4772
ʕ	-17.8105
ỉ	-17.8105
ƌ	-17.8105
ɘ	-17.8105
ɜ	-17.8105
ʇ	-17.8105
ˊ	-17.8105
ˋ	-17.8105
ṛ	-17.8105
ằ	-17.8105
ử	-17.8105
‬	-17.8105
‰	-17.8105
∈	-17.8105
∗	-17.8105
∝	-17.8105
「	-17.8105
」	-17.8105
ȝ	-17.8105
ấ	-17.8105
∂	-17.8105
≡	-17.8105
״	-17.8105
⌊	-18.3086
	-18.3105
ṁ	-18.3105
ʐ	-18.3105
ʹ	-18.3105
⊙	-18.3105
✙	-18.3105
〜	-18.3105
	-18.3105
ƿ	-18.3105
ǣ	-18.3105
ǧ	-18.3105
ɂ	-18.3105
ʂ	-18.3105
ʈ	-18.3105
ˇ	-18.3105
а	-18.3105
б	-18.3105
с	-18.3105
३	-18.3105
४	-18.3105
५	-18.3105
ය	-18.3105
ා	-18.3105
ේ	-18.3105
၁	-18.3105
ḿ	-18.3105
ṙ	-18.3105
ẏ	-18.3105
ể	-18.3105
ở	-18.3105
ự	-18.3105
◉	-18.3105
☃	-18.3105
☻	-18.3105
✅	-18.3105
ꜧ	-18.3105
ꞯ	-18.3105
ʎ	-18.3105
❌	-18.3105
ɳ	-18.3105
ǩ	-19.3083
ŧ	-19.3084
ǵ	-19.3085
‍	-19.3086
ـ	-19.3087
τ	-19.3088
ʘ	-19.3089
₩	-19.309
υ	-19.3091
།	-19.3092
ј	-19.3093
ķ	-19.3094
ņ	-19.3095
⟨	-19.3096
α	-19.3097
ễ	-19.3098
ờ	-19.3099
ẩ	-19.31
‭	-19.3101
ồ	-19.3102
̶	-19.3103
ṟ	-19.3104
០	-19.3104
១	-19.3104
й	-19.3105
м	-19.3105
∼	-19.3105
β	-19.3105
ḏ	-19.3105
ṗ	-19.3105
⬱	-19.3105
ģ	-19.3105
ĺ	-19.3105
ŕ	-19.3105
ų	-19.3105
ƅ	-19.3105
ǹ	-19.3105
ȁ	-19.3105
ȃ	-19.3105
ɗ	-19.3105
ɝ	-19.3105
ɟ	-19.3105
ɥ	-19.3105
ɮ	-19.3105
ɶ	-19.3105
ɷ	-19.3105
ɺ	-19.3105
ʙ	-19.3105
ʝ	-19.3105
ʟ	-19.3105
ʧ	-19.3105
ʽ	-19.3105
˥	-19.3105
˦	-19.3105
˩	-19.3105
̈	-19.3105
к	-19.3105
о	-19.3105
у	-19.3105
ш	-19.3105
я	-19.3105
־	-19.3105
۞	-19.3105
۰	-19.3105
०	-19.3105
६	-19.3105
७	-19.3105
८	-19.3105
९	-19.3105
ආ	-19.3105
ජ	-19.3105
බ	-19.3105
ු	-19.3105
ෝ	-19.3105
၀	-19.3105
၃	-19.3105
၄	-19.3105
၅	-19.3105
၆	-19.3105
၇	-19.3105
၈	-19.3105
၉	-19.3105
᚛	-19.3105
᚜	-19.3105
២	-19.3105
៧	-19.3105
៨	-19.3105
៩	-19.3105
ḋ	-19.3105
ḗ	-19.3105
ḡ	-19.3105
ḩ	-19.3105
ḱ	-19.3105
ḵ	-19.3105
ṫ	-19.3105
ṳ	-19.3105
ṹ	-19.3105
ẵ	-19.3105
ặ	-19.3105
ỏ	-19.3105
ỗ	-19.3105
ợ	-19.3105
‿	-19.3105
⁣	-19.3105
₣	-19.3105
₿	-19.3105
↊	-19.3105
↋	-19.3105
∉	-19.3105
≒	-19.3105
▼	-19.3105
☉	-19.3105
☐	-19.3105
☚	-19.3105
☛	-19.3105
☣	-19.3105
☭	-19.3105
☯	-19.3105
♄	-19.3105
♑	-19.3105
♒	-19.3105
♠	-19.3105
♡	-19.3105
♮	-19.3105
✚	-19.3105
❤	-19.3105
ⱡ	-19.3105
。	-19.3105
〉	-19.3105
ǃ	-19.3105
ɸ	-19.3105
ɖ	-19.3105
ʑ	-19.3105
ˀ	-19.3105
៣	-19.3105
៤	-19.3105
៥	-19.3105
៦	-19.3105
	-19.3105
́	-19.3105
