<unk>	0
<s>	0
</s>	0
<pad>	0
<0x00>	0
<0x01>	0
<0x02>	0
<0x03>	0
<0x04>	0
<0x05>	0
<0x06>	0
<0x07>	0
<0x08>	0
<0x09>	0
<0x0A>	0
<0x0B>	0
<0x0C>	0
<0x0D>	0
<0x0E>	0
<0x0F>	0
<0x10>	0
<0x11>	0
<0x12>	0
<0x13>	0
<0x14>	0
<0x15>	0
<0x16>	0
<0x17>	0
<0x18>	0
<0x19>	0
<0x1A>	0
<0x1B>	0
<0x1C>	0
<0x1D>	0
<0x1E>	0
<0x1F>	0
<0x20>	0
<0x21>	0
<0x22>	0
<0x23>	0
<0x24>	0
<0x25>	0
<0x26>	0
<0x27>	0
<0x28>	0
<0x29>	0
<0x2A>	0
<0x2B>	0
<0x2C>	0
<0x2D>	0
<0x2E>	0
<0x2F>	0
<0x30>	0
<0x31>	0
<0x32>	0
<0x33>	0
<0x34>	0
<0x35>	0
<0x36>	0
<0x37>	0
<0x38>	0
<0x39>	0
<0x3A>	0
<0x3B>	0
<0x3C>	0
<0x3D>	0
<0x3E>	0
<0x3F>	0
<0x40>	0
<0x41>	0
<0x42>	0
<0x43>	0
<0x44>	0
<0x45>	0
<0x46>	0
<0x47>	0
<0x48>	0
<0x49>	0
<0x4A>	0
<0x4B>	0
<0x4C>	0
<0x4D>	0
<0x4E>	0
<0x4F>	0
<0x50>	0
<0x51>	0
<0x52>	0
<0x53>	0
<0x54>	0
<0x55>	0
<0x56>	0
<0x57>	0
<0x58>	0
<0x59>	0
<0x5A>	0
<0x5B>	0
<0x5C>	0
<0x5D>	0
<0x5E>	0
<0x5F>	0
<0x60>	0
<0x61>	0
<0x62>	0
<0x63>	0
<0x64>	0
<0x65>	0
<0x66>	0
<0x67>	0
<0x68>	0
<0x69>	0
<0x6A>	0
<0x6B>	0
<0x6C>	0
<0x6D>	0
<0x6E>	0
<0x6F>	0
<0x70>	0
<0x71>	0
<0x72>	0
<0x73>	0
<0x74>	0
<0x75>	0
<0x76>	0
<0x77>	0
<0x78>	0
<0x79>	0
<0x7A>	0
<0x7B>	0
<0x7C>	0
<0x7D>	0
<0x7E>	0
<0x7F>	0
<0x80>	0
<0x81>	0
<0x82>	0
<0x83>	0
<0x84>	0
<0x85>	0
<0x86>	0
<0x87>	0
<0x88>	0
<0x89>	0
<0x8A>	0
<0x8B>	0
<0x8C>	0
<0x8D>	0
<0x8E>	0
<0x8F>	0
<0x90>	0
<0x91>	0
<0x92>	0
<0x93>	0
<0x94>	0
<0x95>	0
<0x96>	0
<0x97>	0
<0x98>	0
<0x99>	0
<0x9A>	0
<0x9B>	0
<0x9C>	0
<0x9D>	0
<0x9E>	0
<0x9F>	0
<0xA0>	0
<0xA1>	0
<0xA2>	0
<0xA3>	0
<0xA4>	0
<0xA5>	0
<0xA6>	0
<0xA7>	0
<0xA8>	0
<0xA9>	0
<0xAA>	0
<0xAB>	0
<0xAC>	0
<0xAD>	0
<0xAE>	0
<0xAF>	0
<0xB0>	0
<0xB1>	0
<0xB2>	0
<0xB3>	0
<0xB4>	0
<0xB5>	0
<0xB6>	0
<0xB7>	0
<0xB8>	0
<0xB9>	0
<0xBA>	0
<0xBB>	0
<0xBC>	0
<0xBD>	0
<0xBE>	0
<0xBF>	0
<0xC0>	0
<0xC1>	0
<0xC2>	0
<0xC3>	0
<0xC4>	0
<0xC5>	0
<0xC6>	0
<0xC7>	0
<0xC8>	0
<0xC9>	0
<0xCA>	0
<0xCB>	0
<0xCC>	0
<0xCD>	0
<0xCE>	0
<0xCF>	0
<0xD0>	0
<0xD1>	0
<0xD2>	0
<0xD3>	0
<0xD4>	0
<0xD5>	0
<0xD6>	0
<0xD7>	0
<0xD8>	0
<0xD9>	0
<0xDA>	0
<0xDB>	0
<0xDC>	0
<0xDD>	0
<0xDE>	0
<0xDF>	0
<0xE0>	0
<0xE1>	0
<0xE2>	0
<0xE3>	0
<0xE4>	0
<0xE5>	0
<0xE6>	0
<0xE7>	0
<0xE8>	0
<0xE9>	0
<0xEA>	0
<0xEB>	0
<0xEC>	0
<0xED>	0
<0xEE>	0
<0xEF>	0
<0xF0>	0
<0xF1>	0
<0xF2>	0
<0xF3>	0
<0xF4>	0
<0xF5>	0
<0xF6>	0
<0xF7>	0
<0xF8>	0
<0xF9>	0
<0xFA>	0
<0xFB>	0
<0xFC>	0
<0xFD>	0
<0xFE>	0
<0xFF>	0
.	-3.00491
s	-3.24365
:	-3.47554
▁*	-3.53339
,	-3.61921
▁the	-3.71408
'	-3.94566
▁a	-4.17866
t	-4.25526
mot	-4.31433
▁you	-4.38263
▁to	-4.38675
▁i	-4.38933
▁and	-4.40267
?	-4.45796
chi	-4.52297
▁it	-4.66249
▁of	-4.6846
▁in	-4.78074
▁that	-4.88577
ed	-4.9596
ing	-5.03772
d	-5.05163
▁he	-5.24642
n	-5.25156
m	-5.27508
y	-5.29747
▁is	-5.30221
▁was	-5.33426
▁=	-5.41506
e	-5.45078
▁for	-5.46052
▁	-5.46835
▁on	-5.50259
re	-5.50436
▁[	-5.53811
▁what	-5.5534
▁we	-5.58116
a	-5.60873
er	-5.65387
▁"	-5.67834
▁be	-5.68141
i	-5.72712
r	-5.75412
▁no	-5.75499
!	-5.75542
c	-5.75738
]	-5.76118
▁me	-5.76375
▁this	-5.76653
▁do	-5.78112
ll	-5.8194
▁with	-5.83187
ly	-5.88048
o	-5.88856
p	-5.9002
▁have	-5.91816
▁there	-5.93337
▁not	-5.94295
▁she	-5.94712
▁they	-5.95249
-	-5.95329
▁can	-5.97891
▁-	-5.99564
▁are	-5.9961
g	-6.02322
▁but	-6.02935
▁one	-6.03895
▁at	-6.04181
▁so	-6.04475
▁his	-6.09865
le	-6.12292
in	-6.15021
ve	-6.16543
al	-6.16937
▁all	-6.18693
▁go	-6.19524
▁oh	-6.20436
▁yeah	-6.21618
▁as	-6.22067
▁her	-6.2533
▁my	-6.25339
...	-6.26222
▁don	-6.26931
▁know	-6.28191
▁your	-6.284
▁up	-6.30394
▁like	-6.30482
▁had	-6.31937
u	-6.32625
w	-6.33152
▁s	-6.34632
l	-6.38724
inv	-6.42402
▁an	-6.43724
▁out	-6.44523
f	-6.45424
▁from	-6.45658
or	-6.46784
ck	-6.50522
▁by	-6.51112
▁just	-6.51298
▁here	-6.52476
▁get	-6.53908
▁see	-6.54329
▁him	-6.5669
h	-6.56715
ri	-6.56775
b	-6.56886
▁or	-6.58982
▁if	-6.59725
▁right	-6.60697
▁b	-6.6201
▁re	-6.62313
▁were	-6.62624
▁de	-6.62964
▁now	-6.6369
en	-6.64301
▁who	-6.6463
ra	-6.65525
▁well	-6.65911
▁about	-6.66101
▁when	-6.66197
k	-6.67944
▁think	-6.6944
"	-6.69799
▁said	-6.71366
th	-6.72421
▁then	-6.72507
▁come	-6.74575
an	-6.74885
▁got	-6.76674
▁did	-6.76926
ch	-6.78484
)	-6.79256
fat	-6.79394
il	-6.79832
▁where	-6.79929
se	-6.79993
▁them	-6.80689
▁some	-6.80887
es	-6.83732
ar	-6.83843
ne	-6.84255
▁want	-6.84502
▁will	-6.84958
▁(	-6.85261
▁look	-6.85393
1	-6.88665
▁good	-6.89505
lo	-6.89552
▁would	-6.89702
▁p	-6.9013
;	-6.9027
▁yes	-6.90987
la	-6.91938
ic	-6.92841
▁“	-6.9321
▁time	-6.94131
ce	-6.94199
v	-6.96469
on	-6.97423
’	-6.98095
▁how	-6.98636
ion	-6.99041
▁ma	-6.99065
▁back	-6.99889
].	-6.99953
▁c	-7.00124
▁has	-7.00829
▁okay	-7.00846
▁down	-7.00959
▁put	-7.01233
ent	-7.01383
▁e	-7.01594
ter	-7.01807
▁little	-7.03017
."	-7.05578
▁over	-7.06016
it	-7.06268
▁been	-7.06288
ro	-7.06809
▁more	-7.07428
▁very	-7.07742
▁xxx	-7.0811
▁going	-7.09308
▁which	-7.10209
▁two	-7.11235
▁co	-7.12641
▁let	-7.13237
▁man	-7.13294
de	-7.13688
te	-7.14374
na	-7.15559
▁other	-7.16299
li	-7.16508
ry	-7.16746
z	-7.17613
ur	-7.17722
▁make	-7.18333
▁19	-7.20551
2	-7.20639
▁their	-7.21617
▁'	-7.22085
us	-7.22607
▁con	-7.23268
▁could	-7.23671
▁say	-7.2498
ke	-7.25248
x	-7.25296
▁take	-7.25466
0	-7.26509
ie	-7.26934
sh	-7.2723
ma	-7.29
▁o	-7.2913
▁car	-7.29543
,"	-7.29573
▁ba	-7.30132
▁why	-7.30694
el	-7.31201
▁ro	-7.32552
▁g	-7.33812
▁off	-7.34319
▁us	-7.34528
ge	-7.34614
▁po	-7.34651
at	-7.35036
un	-7.36121
no	-7.3716
is	-7.37386
▁into	-7.3804
▁tell	-7.39177
▁people	-7.39989
▁way	-7.41833
▁da	-7.41909
▁pa	-7.4192
▁after	-7.42023
5	-7.42228
est	-7.42714
ta	-7.42716
id	-7.42839
▁because	-7.42871
▁too	-7.43546
▁la	-7.43722
et	-7.44177
3	-7.44536
ng	-7.45393
▁sa	-7.46446
▁work	-7.46456
vi	-7.46601
▁any	-7.46647
ation	-7.47049
▁first	-7.47112
9	-7.47354
▁ho	-7.47437
ment	-7.4758
▁uh	-7.48371
▁mean	-7.48471
▁gonna	-7.49877
▁t	-7.50017
age	-7.50564
▁un	-7.50667
me	-7.5068
▁bu	-7.51605
--	-7.51859
▁ra	-7.52588
▁only	-7.53403
▁these	-7.53797
▁mi	-7.53985
he	-7.54309
▁need	-7.54521
the	-7.54898
ist	-7.55045
mp	-7.55353
ir	-7.55359
ul	-7.56257
as	-7.56546
▁our	-7.56584
▁sp	-7.56733
ol	-7.56873
ate	-7.5739
▁d	-7.57486
co	-7.57645
to	-7.57667
ad	-7.5768
▁er	-7.58017
pp	-7.58486
▁should	-7.58911
ers	-7.59196
8	-7.59626
▁big	-7.60472
▁something	-7.60979
▁again	-7.61054
6	-7.61717
par	-7.62346
▁ta	-7.62683
▁lo	-7.62914
▁f	-7.62992
▁really	-7.63375
man	-7.64025
7	-7.64121
▁didn	-7.64558
ha	-7.6514
▁li	-7.65509
4	-7.65758
▁k	-7.66203
▁new	-7.66316
▁play	-7.68004
▁ha	-7.68061
▁give	-7.68607
▁much	-7.68628
▁bo	-7.68982
ty	-7.69419
pe	-7.69737
and	-7.69975
▁even	-7.70273
▁2	-7.70424
▁came	-7.70604
▁hi	-7.70831
▁di	-7.70925
exp	-7.70963
▁name	-7.71005
op	-7.71255
▁made	-7.71588
tion	-7.72454
ow	-7.73518
▁ar	-7.74015
▁day	-7.74219
▁before	-7.74508
ive	-7.7467
ted	-7.7499
ci	-7.75488
▁than	-7.75561
ia	-7.75603
▁long	-7.75634
▁dis	-7.76071
▁does	-7.76297
ver	-7.76418
les	-7.76434
▁w	-7.76636
▁home	-7.76709
▁thank	-7.77064
▁three	-7.77235
▁th	-7.77571
ies	-7.77681
ni	-7.77944
▁ri	-7.78294
▁house	-7.78375
▁mo	-7.78747
▁su	-7.78874
▁girl	-7.78936
ant	-7.79323
/	-7.79406
▁great	-7.7972
▁love	-7.79828
▁ga	-7.80407
▁old	-7.80638
ba	-7.81565
▁away	-7.8215
▁never	-7.82316
ian	-7.8243
▁went	-7.83248
mb	-7.83461
▁am	-7.83509
▁another	-7.83734
▁mr	-7.83838
bo	-7.8411
▁pro	-7.84137
▁le	-7.84902
▁um	-7.85384
▁those	-7.85719
po	-7.85731
ho	-7.86189
▁thought	-7.8712
▁help	-7.87412
▁hand	-7.87602
▁wanna	-7.87744
▁also	-7.87754
▁won	-7.88344
ff	-7.88503
ton	-7.88895
um	-7.88978
mi	-7.89049
▁ex	-7.89244
▁doing	-7.89277
▁eat	-7.89492
am	-7.89925
▁still	-7.90862
_	-7.91138
ca	-7.91219
▁part	-7.91313
▁through	-7.91744
▁must	-7.91983
▁fa	-7.92105
?"	-7.9266
▁thing	-7.92688
▁se	-7.92772
end	-7.93287
▁head	-7.93415
▁pre	-7.93437
▁place	-7.93465
▁may	-7.93869
▁many	-7.94743
▁find	-7.94823
▁pe	-7.94916
▁pi	-7.95177
nk	-7.95189
▁book	-7.95618
▁ne	-7.95658
▁du	-7.96039
▁things	-7.96093
tic	-7.96188
▁show	-7.96366
▁last	-7.96389
▁mm	-7.96784
▁mar	-7.96892
▁dr	-7.97407
ence	-7.97484
▁bit	-7.97961
▁found	-7.97981
be	-7.98075
▁ca	-7.9834
ine	-7.98449
di	-7.98623
able	-7.99119
▁gra	-7.99301
▁st	-7.99886
▁night	-8.0046
do	-8.00471
▁20	-8.00496
▁lot	-8.00548
▁ru	-8.00799
ster	-8.0083
▁baby	-8.00887
add	-8.01589
▁open	-8.01624
▁chi	-8.01656
lu	-8.02503
▁boy	-8.02512
ard	-8.02606
▁please	-8.038
go	-8.04021
ure	-8.0413
▁vi	-8.04464
▁miss	-8.04513
▁al	-8.04985
ful	-8.05117
ph	-8.05686
▁done	-8.06425
▁tri	-8.06728
ten	-8.06894
▁nice	-8.06938
▁wa	-8.07014
▁sure	-8.07085
▁called	-8.07661
▁wait	-8.08001
▁end	-8.08153
.”	-8.08968
▁better	-8.09161
▁%	-8.09423
▁fi	-8.09474
▁might	-8.09597
low	-8.09955
▁war	-8.09959
▁mother	-8.10456
▁water	-8.1052
ger	-8.10874
▁ti	-8.10986
▁m	-8.11054
▁most	-8.11572
▁isn	-8.11965
ated	-8.12495
ny	-8.12856
im	-8.13014
ity	-8.13054
▁school	-8.13682
▁around	-8.13683
▁keep	-8.13904
▁life	-8.13905
▁men	-8.13942
ous	-8.14635
▁turn	-8.14989
hi	-8.15262
ward	-8.15323
son	-8.15463
▁ah	-8.15482
ru	-8.15668
▁live	-8.15906
▁sc	-8.16028
▁erm	-8.16039
▁na	-8.16558
▁kind	-8.16656
▁anything	-8.17055
ance	-8.17264
▁je	-8.17507
▁watch	-8.17744
mo	-8.18629
▁te	-8.18637
▁hu	-8.18972
,”	-8.18984
▁four	-8.19239
oo	-8.19249
▁cr	-8.19429
▁doesn	-8.19679
▁fl	-8.20896
da	-8.2092
▁while	-8.21255
cu	-8.21497
▁under	-8.21791
laughs	-8.21912
▁mhm	-8.22213
▁comp	-8.2238
ness	-8.22406
ner	-8.22935
int	-8.23079
▁call	-8.23104
▁next	-8.23181
our	-8.23512
▁hey	-8.23526
▁va	-8.23552
per	-8.23623
▁room	-8.2363
▁talk	-8.23751
dy	-8.23929
▁such	-8.24337
▁world	-8.24418
ber	-8.24861
▁sw	-8.24984
ight	-8.25012
▁every	-8.25101
▁tra	-8.25113
ting	-8.25156
▁nothing	-8.25162
ish	-8.25183
▁che	-8.25287
bb	-8.25361
▁same	-8.25468
▁mu	-8.25498
▁father	-8.25671
▁door	-8.25768
▁si	-8.26344
▁bar	-8.26383
▁own	-8.27047
▁u	-8.27184
ling	-8.27388
▁sha	-8.27582
▁jo	-8.27633
we	-8.28057
▁always	-8.28419
▁shall	-8.2847
ok	-8.28472
▁wi	-8.28473
▁cha	-8.28501
▁move	-8.28891
▁told	-8.29444
▁mummy	-8.29459
▁hold	-8.29858
▁being	-8.30257
▁arm	-8.30429
che	-8.30751
▁ja	-8.31162
▁feel	-8.31605
▁ever	-8.31698
▁remember	-8.31804
▁high	-8.31807
▁left	-8.31808
▁years	-8.32189
led	-8.32475
if	-8.32537
▁3	-8.32557
▁sit	-8.32693
▁use	-8.32726
!"	-8.32883
ak	-8.33226
red	-8.33495
▁side	-8.33504
▁gr	-8.33559
ig	-8.3416
pa	-8.34253
wa	-8.34849
▁maybe	-8.35362
for	-8.35422
▁leave	-8.35584
sis	-8.35618
gu	-8.3581
▁saw	-8.35978
▁used	-8.36022
▁l	-8.36106
min	-8.36113
▁start	-8.3694
▁else	-8.37059
ey	-8.37394
▁read	-8.37668
▁sh	-8.37937
▁point	-8.38092
▁once	-8.38126
tur	-8.38203
▁stop	-8.38452
▁ball	-8.38585
ary	-8.38662
▁close	-8.39233
▁n	-8.39386
bi	-8.39417
que	-8.39431
ther	-8.39591
▁sea	-8.39622
▁word	-8.40067
fi	-8.40598
und	-8.42401
▁minute	-8.42709
▁gone	-8.42732
lie	-8.42767
▁young	-8.43031
▁fe	-8.43107
em	-8.43149
by	-8.43353
ka	-8.43379
▁stand	-8.4338
▁act	-8.43522
fa	-8.43651
▁h	-8.43893
▁red	-8.43952
▁enough	-8.44213
▁sir	-8.44578
▁z	-8.44709
▁sorry	-8.44802
▁course	-8.45101
▁huh	-8.45198
tea	-8.45221
▁goes	-8.45477
▁five	-8.45556
▁looks	-8.45634
▁hm	-8.45697
▁coming	-8.45722
▁until	-8.46322
▁cor	-8.46416
ition	-8.46418
▁per	-8.46525
ee	-8.46571
▁sta	-8.46654
▁took	-8.46752
▁hear	-8.46938
▁week	-8.46942
▁hard	-8.46967
ally	-8.47019
less	-8.47189
▁win	-8.47367
bro	-8.4755
▁face	-8.47733
ga	-8.4782
▁both	-8.48106
▁box	-8.48327
▁fire	-8.484
ical	-8.48458
▁noise	-8.48491
ap	-8.48724
▁morning	-8.48806
▁cho	-8.48821
▁sound	-8.4906
▁j	-8.4919
▁ka	-8.49336
▁wh	-8.49478
▁en	-8.49624
ries	-8.49947
▁second	-8.50063
▁light	-8.50073
▁best	-8.50126
▁v	-8.50407
oh	-8.50449
▁ni	-8.50549
▁fo	-8.50688
▁money	-8.50723
▁eyes	-8.51008
vo	-8.51016
▁small	-8.51023
my	-8.5107
you	-8.5144
der	-8.51516
▁pick	-8.51938
▁walk	-8.51994
▁dear	-8.52072
▁god	-8.52079
▁ge	-8.52753
▁cre	-8.52853
▁though	-8.52894
▁six	-8.53057
ut	-8.53107
▁fall	-8.53169
▁run	-8.53245
▁seen	-8.53286
▁quite	-8.5331
▁dog	-8.53572
ise	-8.53635
▁wor	-8.53637
▁r	-8.53916
▁daddy	-8.53977
▁yet	-8.54275
▁guy	-8.54375
▁ask	-8.54708
j	-8.54925
▁mommy	-8.55301
▁ju	-8.55331
▁_	-8.55427
▁stu	-8.55571
ld	-8.55999
▁asked	-8.56015
▁game	-8.56088
her	-8.56174
king	-8.56457
▁bad	-8.5647
land	-8.56739
▁friend	-8.56973
▁together	-8.56974
ud	-8.57046
lic	-8.57195
▁year	-8.57251
▁today	-8.57281
▁laugh	-8.57489
▁cl	-8.57569
▁blue	-8.57658
ial	-8.57724
ice	-8.57787
▁city	-8.57805
▁ste	-8.58023
▁says	-8.58054
ah	-8.58298
▁tu	-8.58382
ze	-8.5849
▁pu	-8.58771
00	-8.58896
▁ya	-8.59095
▁far	-8.59107
▁each	-8.59739
pi	-8.59948
▁child	-8.60123
▁north	-8.6018
▁pass	-8.6028
va	-8.60545
mon	-8.60558
▁bed	-8.60651
▁soon	-8.60677
cha	-8.60859
▁getting	-8.61075
▁heard	-8.61415
but	-8.6146
▁try	-8.61473
▁mind	-8.61533
▁believe	-8.61863
▁since	-8.61863
▁without	-8.6212
▁different	-8.62219
▁picture	-8.62219
▁half	-8.6222
▁har	-8.62449
▁haven	-8.62505
▁ke	-8.62535
▁vo	-8.62597
▁qu	-8.62751
▁train	-8.62934
▁plan	-8.63334
▁mrs	-8.63636
▁bra	-8.63863
▁mon	-8.6428
▁change	-8.64428
▁person	-8.64438
▁air	-8.64466
▁stay	-8.6501
▁number	-8.65134
▁ten	-8.65444
mch	-8.65477
▁happen	-8.6554
ite	-8.65595
ake	-8.65826
▁south	-8.663
▁wonder	-8.66301
▁between	-8.66623
▁bri	-8.66805
▁looked	-8.6682
▁few	-8.66848
tain	-8.67034
▁sec	-8.67062
▁ran	-8.67175
▁chair	-8.67457
▁known	-8.67626
▁looking	-8.67983
mar	-8.68336
▁reach	-8.68526
▁direct	-8.68538
▁black	-8.68593
▁john	-8.68902
▁children	-8.68903
▁green	-8.68904
gi	-8.69
▁near	-8.69237
▁ear	-8.69476
▁fr	-8.69483
wi	-8.69838
▁alright	-8.70059
ning	-8.70167
ough	-8.70178
▁jack	-8.70282
▁everything	-8.70449
▁bring	-8.70634
▁round	-8.70929
cent	-8.71422
qui	-8.71518
▁land	-8.71573
▁himself	-8.71624
▁tea	-8.71671
▁sleep	-8.7202
▁hafta	-8.7202
cause	-8.72047
▁gu	-8.72091
▁american	-8.72218
▁real	-8.72237
▁col	-8.72365
ious	-8.72438
▁table	-8.72545
▁color	-8.72583
▁pretty	-8.72816
▁set	-8.73065
▁lu	-8.73235
▁cla	-8.73306
▁moment	-8.73442
▁having	-8.73618
▁movie	-8.74022
▁♪	-8.74046
▁str	-8.74368
▁follow	-8.74425
▁happened	-8.74792
gra	-8.75107
gma	-8.75214
▁story	-8.75242
▁bur	-8.75547
▁heart	-8.75593
▁18	-8.75699
▁fla	-8.75716
▁later	-8.75833
▁pat	-8.75842
▁star	-8.75909
out	-8.76007
▁pen	-8.76011
▁rest	-8.7604
▁knew	-8.76061
▁el	-8.76241
▁ready	-8.76386
▁party	-8.76401
▁wanted	-8.77153
▁piece	-8.77307
val	-8.77576
?”	-8.77677
▁char	-8.78041
▁dad	-8.78052
▁drink	-8.78148
▁cup	-8.78274
lt	-8.78462
▁white	-8.78593
▁grand	-8.78638
▁idea	-8.7903
▁1	-8.79243
▁boys	-8.79398
▁meet	-8.79636
▁talking	-8.79697
▁ki	-8.79744
▁whole	-8.7976
▁state	-8.79835
▁matter	-8.79851
▁making	-8.79965
▁sort	-8.79978
▁listen	-8.80765
nan	-8.80845
day	-8.80903
▁hope	-8.80978
▁line	-8.8109
▁bro	-8.81119
▁gave	-8.81285
▁sing	-8.81857
▁answer	-8.82008
▁sur	-8.82043
▁ce	-8.82206
up	-8.82356
|	-8.82446
▁large	-8.82471
▁4	-8.82492
com	-8.82601
▁born	-8.8276
▁em	-8.82881
▁hour	-8.83229
▁feet	-8.83429
▁family	-8.83773
▁order	-8.8401
▁mark	-8.84119
lin	-8.84245
▁paper	-8.84336
ki	-8.84527
ctor	-8.8458
▁kid	-8.84613
—	-8.84668
▁along	-8.84675
▁against	-8.84859
▁cut	-8.84883
▁seven	-8.85122
▁brother	-8.85143
▁fun	-8.85506
▁doll	-8.85681
▁fine	-8.85806
▁care	-8.85836
night	-8.85849
▁cat	-8.85895
▁upon	-8.85905
ja	-8.85945
▁5	-8.85991
▁return	-8.86027
▁short	-8.86035
yes	-8.86087
é	-8.86482
ron	-8.86682
▁leg	-8.86782
▁mom	-8.8694
▁actually	-8.86941
▁tree	-8.86976
▁during	-8.86981
▁bill	-8.87092
▁hands	-8.87414
▁voice	-8.87431
bu	-8.87592
▁wrong	-8.87865
light	-8.87916
▁music	-8.87961
▁king	-8.88457
one	-8.88507
▁days	-8.8857
▁food	-8.888
▁lead	-8.88975
▁team	-8.89024
▁rock	-8.89048
▁ve	-8.89147
of	-8.89179
what	-8.89323
read	-8.89586
▁sun	-8.90051
way	-8.90124
▁bi	-8.90523
well	-8.90573
▁count	-8.90607
▁floor	-8.9069
▁ye	-8.9123
▁age	-8.91234
▁gi	-8.9131
▁eight	-8.91341
▁pull	-8.91585
▁outside	-8.91648
▁sometimes	-8.9165
▁hello	-8.91686
port	-8.91789
▁town	-8.9186
▁pay	-8.91899
▁question	-8.92131
▁speak	-8.92132
▁interest	-8.92197
rate	-8.92349
ever	-8.92515
▁horse	-8.92619
▁guess	-8.92622
▁county	-8.92639
▁country	-8.92696
▁sent	-8.92997
▁united	-8.93108
▁draw	-8.9311
▁bear	-8.93443
▁wouldn	-8.9352
▁animal	-8.93595
▁present	-8.94097
▁imp	-8.94305
▁hot	-8.94528
▁comm	-8.94535
▁drive	-8.94776
men	-8.9478
▁died	-8.94985
childes	-8.95087
▁hat	-8.95204
ring	-8.95372
▁mine	-8.95568
▁inter	-8.95988
▁suppose	-8.96082
▁fish	-8.96404
▁song	-8.96438
▁front	-8.9659
▁gotta	-8.9668
▁bob	-8.97004
room	-8.97241
▁sign	-8.97282
▁hair	-8.97299
▁cur	-8.97619
▁poor	-8.97898
con	-8.9821
ju	-8.98288
▁understand	-8.98633
▁able	-8.98787
▁job	-8.9892
▁trying	-8.99063
▁bird	-8.99158
+	-8.99672
▁brought	-8.99681
▁member	-8.99685
▁group	-9.00196
▁free	-9.00344
au	-9.00662
▁almost	-9.00722
▁states	-9.00813
▁behind	-9.01251
▁happy	-9.01252
▁throw	-9.01253
ating	-9.0174
www	-9.01827
▁saying	-9.01877
▁already	-9.02318
▁mum	-9.02624
▁seemed	-9.02903
▁lady	-9.02923
▁6	-9.0298
▁inv	-9.0306
▁late	-9.03302
▁probably	-9.03396
▁national	-9.03396
▁page	-9.03467
ign	-9.03506
▁friends	-9.03638
▁full	-9.03649
▁woman	-9.0394
ham	-9.03966
▁began	-9.04288
▁–	-9.04684
▁wish	-9.04758
▁thomas	-9.05035
▁write	-9.05077
▁son	-9.05575
gan	-9.05798
ship	-9.05879
pat	-9.06903
▁lost	-9.06938
aft	-9.06939
▁doctor	-9.07088
▁till	-9.07522
▁playing	-9.08199
▁appear	-9.08397
▁fight	-9.08515
▁cover	-9.08727
ncy	-9.0873
▁east	-9.09119
▁boat	-9.09247
▁bru	-9.09344
ative	-9.09427
▁case	-9.09461
▁ski	-9.09541
▁record	-9.09543
▁stick	-9.09551
▁grow	-9.09645
▁someone	-9.09689
nder	-9.09721
▁reason	-9.10123
▁lad	-9.10446
▁hundred	-9.10702
iz	-9.1076
wn	-9.10806
ex	-9.10879
▁window	-9.11324
▁stuff	-9.11352
▁couldn	-9.11637
▁beautiful	-9.11875
▁however	-9.1199
▁letter	-9.1203
nie	-9.12214
▁pla	-9.12337
▁twenty	-9.12467
huh	-9.12935
▁fact	-9.12989
▁sat	-9.12993
▁german	-9.13064
▁cause	-9.13196
▁started	-9.13461
elect	-9.13684
▁cold	-9.13852
▁true	-9.13896
▁taken	-9.13963
▁certain	-9.14264
▁became	-9.14264
▁played	-9.143
▁yu	-9.14567
that	-9.14719
▁fell	-9.1484
▁myself	-9.1487
▁inside	-9.14871
▁sweet	-9.14881
▁touch	-9.14945
▁fast	-9.15236
han	-9.15362
▁brown	-9.15499
▁month	-9.15686
▁wear	-9.16053
▁street	-9.16095
”	-9.16137
▁uhhuh	-9.16151
▁shop	-9.16252
▁camp	-9.16298
▁scar	-9.16329
dad	-9.16715
▁death	-9.16717
▁7	-9.16808
adu	-9.16867
▁8	-9.16898
▁glad	-9.17338
▁law	-9.17395
▁dead	-9.17404
▁wood	-9.17472
line	-9.17748
▁sister	-9.18053
!”	-9.18281
▁early	-9.18416
▁visit	-9.18597
▁dark	-9.18636
▁taking	-9.18683
▁break	-9.19219
▁captain	-9.19234
▁10	-9.19275
▁turned	-9.19319
▁jump	-9.19326
▁road	-9.19569
ker	-9.19811
▁push	-9.20012
▁french	-9.20496
▁several	-9.20497
▁foot	-9.21146
▁river	-9.21327
pped	-9.21691
▁perhaps	-9.21791
▁general	-9.21792
▁wife	-9.21793
▁clear	-9.21795
born	-9.2212
▁nine	-9.22241
▁problem	-9.22444
▁across	-9.22444
▁power	-9.22453
▁deal	-9.22692
▁ring	-9.22739
▁yourself	-9.23102
▁funny	-9.2315
▁trouble	-9.23764
▁[1	-9.23914
where	-9.24004
▁toward	-9.24143
ub	-9.2429
▁shi	-9.24325
▁either	-9.24432
car	-9.24734
▁less	-9.25066
ration	-9.25083
▁continue	-9.25102
▁learn	-9.25106
▁boo	-9.25574
▁fu	-9.25648
▁flower	-9.25781
▁rather	-9.25908
▁eye	-9.26109
▁special	-9.26472
▁fra	-9.26611
▁fair	-9.26751
how	-9.26869
▁x	-9.26899
▁ground	-9.27143
ler	-9.27531
▁gold	-9.27657
qua	-9.27833
▁yellow	-9.27833
▁quiet	-9.27837
▁hurt	-9.27854
▁2020	-9.27863
▁france	-9.27884
▁class	-9.28133
▁given	-9.28932
▁phone	-9.29228
▁#	-9.29249
▁cap	-9.29276
ities	-9.29553
▁ok	-9.29576
bra	-9.29749
▁living	-9.29934
▁shoe	-9.29976
▁dress	-9.30664
▁roll	-9.30684
▁tro	-9.30722
▁ob	-9.30758
▁past	-9.30769
▁west	-9.31131
▁fly	-9.31541
van	-9.31704
fully	-9.31812
▁football	-9.32074
▁milk	-9.32076
▁club	-9.32097
bel	-9.32305
ible	-9.3233
▁toys	-9.32615
▁business	-9.32798
▁expect	-9.32798
▁clean	-9.32802
▁among	-9.32811
▁alone	-9.32877
▁buy	-9.32957
je	-9.33029
▁catch	-9.33126
▁bath	-9.33364
▁post	-9.33453
▁wind	-9.33529
▁company	-9.3353
▁body	-9.33676
▁main	-9.33891
▁min	-9.34055
▁gun	-9.34184
▁march	-9.342
▁important	-9.34263
▁phil	-9.34308
▁trans	-9.34323
▁lay	-9.34395
▁peter	-9.34662
20	-9.34695
▁farm	-9.34732
▁careful	-9.3487
▁safe	-9.35043
▁ow	-9.35354
▁wall	-9.35922
time	-9.35991
▁step	-9.36345
▁somebody	-9.36502
▁figure	-9.36503
▁chance	-9.36506
▁uncle	-9.36507
▁join	-9.36514
▁felt	-9.36553
▁strange	-9.36562
▁cool	-9.37003
▁english	-9.3726
▁women	-9.3726
▁nu	-9.37362
▁bag	-9.37435
▁york	-9.38023
▁send	-9.38112
▁aunt	-9.3824
put	-9.38702
▁pan	-9.38711
▁secret	-9.38809
▁bla	-9.38869
▁gar	-9.39217
ark	-9.39728
old	-9.4023
▁everybody	-9.40349
▁dinner	-9.4035
▁fellow	-9.40407
▁hall	-9.40629
▁cast	-9.40813
▁sub	-9.40848
▁ship	-9.40896
á	-9.41136
▁indian	-9.41168
▁series	-9.41238
▁opera	-9.41368
clock	-9.41407
▁afraid	-9.4193
▁consider	-9.4193
▁daughter	-9.4193
▁become	-9.41938
▁president	-9.4273
▁strong	-9.42734
▁egg	-9.42933
▁wow	-9.42972
▁kep	-9.43267
▁carry	-9.43401
▁usually	-9.43537
▁forgot	-9.4356
laugh	-9.43595
▁sitting	-9.43648
▁tomorrow	-9.4389
▁island	-9.44049
▁9	-9.44128
▁darling	-9.4435
▁save	-9.4439
▁park	-9.44494
▁player	-9.44724
▁birthday	-9.45169
ught	-9.45174
▁least	-9.45176
▁held	-9.45713
▁mountain	-9.45996
▁mouth	-9.45997
▁garden	-9.45998
▁region	-9.46
▁frank	-9.46039
▁finger	-9.46041
▁running	-9.46047
▁final	-9.46151
▁kiss	-9.46368
▁finished	-9.4655
▁village	-9.4683
▁release	-9.46831
▁15	-9.46951
▁human	-9.47006
▁report	-9.4706
▁port	-9.4725
▁sam	-9.47442
▁whatever	-9.47511
▁police	-9.47671
▁paint	-9.47974
▁check	-9.48191
▁history	-9.48518
▁stra	-9.48607
▁squ	-9.48707
▁ooh	-9.48713
▁field	-9.48776
▁tape	-9.49091
▁career	-9.49287
illustration	-9.49371
▁include	-9.49371
▁surprise	-9.49371
▁summer	-9.49371
▁spoke	-9.49388
▁hill	-9.49415
▁joe	-9.49529
▁cross	-9.49533
▁enter	-9.49684
▁seems	-9.49761
▁station	-9.49776
ized	-9.49933
▁duck	-9.50076
▁cook	-9.50136
▁herself	-9.50234
▁cried	-9.50256
▁cro	-9.5036
▁super	-9.50408
▁board	-9.50434
▁fix	-9.50522
▁rain	-9.51037
▁engine	-9.51104
▁thousand	-9.51104
▁dream	-9.51105
▁block	-9.51106
▁married	-9.51108
▁church	-9.51118
▁term	-9.5136
▁killed	-9.51775
▁soft	-9.52151
like	-9.52354
▁hang	-9.52381
▁mor	-9.5334
jo	-9.54239
▁cake	-9.54326
▁remain	-9.54663
▁agree	-9.5477
cds	-9.54857
▁drop	-9.54939
▁earth	-9.54951
▁master	-9.55126
▁fan	-9.55181
▁department	-9.55568
▁november	-9.55568
▁possible	-9.55568
▁whether	-9.55568
▁attack	-9.55572
▁truck	-9.55677
▁rose	-9.56359
▁government	-9.56485
▁system	-9.56485
▁forget	-9.5655
makes	-9.56637
▁building	-9.56961
q	-9.57188
▁kill	-9.57375
▁district	-9.57411
▁object	-9.57411
▁space	-9.57415
▁luck	-9.57767
000	-9.5874
▁decided	-9.59289
▁couple	-9.5929
▁million	-9.59291
▁court	-9.59325
▁tired	-9.59422
friend	-9.59817
▁christmas	-9.60242
▁husband	-9.60242
▁excuse	-9.60242
▁deep	-9.60315
▁wild	-9.60335
▁frog	-9.60364
▁dance	-9.60488
▁12	-9.61072
▁smile	-9.61229
▁command	-9.61306
▁race	-9.61358
▁stone	-9.61368
ttle	-9.61492
▁officer	-9.6152
▁office	-9.62068
▁easy	-9.62179
▁straight	-9.62205
▁pound	-9.62397
▁rule	-9.6274
▁track	-9.62774
▁quick	-9.62876
▁service	-9.63155
▁university	-9.63155
▁april	-9.63155
▁chris	-9.63155
▁lunch	-9.63164
▁spec	-9.63247
▁worry	-9.63392
▁january	-9.64145
▁public	-9.64145
▁spot	-9.64192
▁juice	-9.64207
▁trust	-9.6423
▁17	-9.64261
▁anyway	-9.64269
some	-9.6446
▁ride	-9.64468
▁fear	-9.64523
▁relat	-9.64715
▁nearly	-9.64877
▁august	-9.65145
▁replied	-9.65145
▁yesterday	-9.65145
▁chief	-9.65149
▁snow	-9.65156
▁plane	-9.65598
name	-9.65741
▁british	-9.66156
▁chicken	-9.66156
▁beside	-9.66158
▁shot	-9.66186
▁shout	-9.66216
▁plate	-9.66361
▁11	-9.66407
▁list	-9.66802
▁character	-9.67175
▁england	-9.67175
▁support	-9.67175
▁chapter	-9.67176
▁honey	-9.67181
▁sense	-9.67188
▁cannot	-9.67212
▁band	-9.67408
▁bang	-9.6783
▁language	-9.68206
▁explain	-9.68206
▁above	-9.68226
▁putting	-9.68723
▁single	-9.68917
▁bright	-9.6925
▁type	-9.69252
▁pretend	-9.69252
▁quickly	-9.69548
▁exactly	-9.703
▁nobody	-9.70301
▁instead	-9.70301
▁broken	-9.70302
▁wheel	-9.70302
▁promise	-9.70306
▁complete	-9.70317
▁travel	-9.70336
▁apple	-9.70366
▁proper	-9.70479
▁finish	-9.70655
▁prince	-9.71364
▁although	-9.71364
▁blood	-9.71364
▁television	-9.71364
▁third	-9.71367
▁lord	-9.71384
▁example	-9.72439
▁february	-9.72439
ggy	-9.72501
▁everyone	-9.72504
▁indeed	-9.72522
▁common	-9.72653
▁bread	-9.72759
▁june	-9.72799
▁shape	-9.73076
house	-9.73113
▁moon	-9.73151
í	-9.73526
▁success	-9.73526
▁middle	-9.73526
▁suggest	-9.73526
▁caught	-9.73572
▁season	-9.73649
▁13	-9.73682
▁cookie	-9.7405
▁hospital	-9.74625
▁anymore	-9.74626
▁teacher	-9.74628
▁jim	-9.7474
▁store	-9.74755
▁charge	-9.75086
▁difficult	-9.75736
▁discover	-9.75737
▁control	-9.75737
▁monkey	-9.75738
▁spring	-9.75876
▁grandma	-9.75925
dding	-9.76312
▁yo	-9.76497
▁clothes	-9.7686
▁december	-9.7686
▁develop	-9.7686
▁october	-9.7686
▁hungry	-9.7686
▁pardon	-9.76861
▁climb	-9.76861
▁belong	-9.76864
▁begin	-9.76876
▁truth	-9.7697
▁16	-9.76995
▁settle	-9.76996
hold	-9.77242
▁bottom	-9.77996
▁george	-9.77997
▁prison	-9.77997
▁stopped	-9.78006
burg	-9.78208
⌈	-9.79146
⌉	-9.79146
▁council	-9.79146
▁exclaimed	-9.79146
▁enjoy	-9.79146
▁afternoon	-9.79146
▁stood	-9.79147
▁perfect	-9.79166
▁apart	-9.79478
▁wide	-9.79579
▁author	-9.80309
▁leaving	-9.80309
▁glass	-9.80311
▁doubt	-9.80318
▁beginning	-9.8033
▁‘	-9.80391
▁anyone	-9.80466
▁hunt	-9.80553
ouch	-9.80955
–	-9.81059
▁giving	-9.81487
▁lift	-9.81541
ept	-9.81951
arrow	-9.81981
▁written	-9.82676
▁effect	-9.82676
▁college	-9.82676
▁murder	-9.82676
▁breath	-9.82677
▁orange	-9.82678
▁sky	-9.82698
▁guard	-9.82777
▁tiger	-9.82855
▁loud	-9.82885
hood	-9.83565
▁original	-9.8388
▁heavy	-9.83881
▁battle	-9.83967
▁somewhere	-9.84083
▁accept	-9.851
▁europe	-9.851
▁except	-9.851
▁film	-9.85112
▁treat	-9.85152
gged	-9.85415
ified	-9.85484
fect	-9.85697
▁particular	-9.86334
▁perform	-9.86335
▁commune	-9.86336
▁robert	-9.86344
place	-9.86558
▁africa	-9.87584
▁century	-9.87584
▁produce	-9.87584
▁program	-9.87585
▁spirit	-9.87585
▁sharp	-9.87597
▁refer	-9.87607
▁14	-9.87729
▁pink	-9.87842
▁build	-9.88217
▁tru	-9.88322
play	-9.88451
▁account	-9.8885
▁london	-9.8885
&	-9.8885
▁knock	-9.88851
▁hurry	-9.88852
▁ought	-9.89004
▁breakfast	-9.90132
%	-9.95006
=	-10.0501
→	-10.1998
ö	-10.2719
[	-10.3058
⌋	-10.31
`	-10.5503
ü	-10.6009
(	-10.623
ó	-10.6272
~	-10.6543
ä	-10.682
ā	-10.8338
è	-10.8672
ú	-10.9374
}	-11.138
ù	-11.1835
š	-11.1835
ç	-11.2311
{	-11.2811
à	-11.2811
ô	-11.3337
*	-11.385
‘	-11.4438
â	-11.4481
ø	-11.4481
♪	-11.5063
å	-11.5106
°	-11.5773
æ	-11.5773
ō	-11.7256
\	-11.8089
─	-11.8089
£	-11.8999
ì	-11.8999
↗	-11.8999
“	-11.9956
↫	-11.9999
ł	-11.9999
ã	-12.111
#	-12.2317
č	-12.236
ū	-12.236
@	-12.3788
ē	-12.3788
¿	-12.3788
ò	-12.3788
ß	-12.3788
ž	-12.5455
ś	-12.5455
ș	-12.5455
′	-12.5455
♫	-12.5455
î	-12.7455
ı	-12.7455
×	-12.7455
ï	-12.7455
ş	-12.7455
ë	-12.9955
œ	-12.9955
⁎	-12.9955
ê	-12.9955
ī	-13.3288
∙	-13.3288
∞	-13.3288
✿	-13.3288
ð	-13.3288
^	-13.8288
	-13.8288
ě	-13.8288
ņ	-13.8288
ố	-13.8288
ồ	-13.8288
▔	-13.8288
ń	-13.8288
‐	-13.8288
ą	-14.8271
ă	-14.8272
¡	-14.8273
	-14.8274
	-14.8275
đ	-14.8276
§	-14.8277
•	-14.8278
ř	-14.8279
⁄	-14.828
་	-14.8281
́	-14.8282
―	-14.8283
ñ	-14.8284
ć	-14.8285
¶	-14.8286
⌊	-14.8287
ư	-14.8288
ờ	-14.8288
<	-14.8288
ý	-14.8288
ġ	-14.8288
η	-14.8288
€	-14.8288
>	-14.8288
	-14.8288
©	-14.8288
·	-14.8288
þ	-14.8288
ĕ	-14.8288
ĭ	-14.8288
İ	-14.8288
ő	-14.8288
ũ	-14.8288
ź	-14.8288
ż	-14.8288
ǎ	-14.8288
ɑ	-14.8288
ʃ	-14.8288
ʊ	-14.8288
ʾ	-14.8288
ː	-14.8288
̶	-14.8288
ν	-14.8288
й	-14.8288
ј	-14.8288
॥	-14.8288
ṉ	-14.8288
ṣ	-14.8288
ṭ	-14.8288
ṯ	-14.8288
ả	-14.8288
ắ	-14.8288
ề	-14.8288
ệ	-14.8288
ọ	-14.8288
ớ	-14.8288
‡	-14.8288
‰	-14.8288
ɪ	-14.8288
ṛ	-14.8288
$	-14.8288
ǫ	-14.8288
