<unk>	0
<s>	0
</s>	0
<pad>	0
<0x00>	0
<0x01>	0
<0x02>	0
<0x03>	0
<0x04>	0
<0x05>	0
<0x06>	0
<0x07>	0
<0x08>	0
<0x09>	0
<0x0A>	0
<0x0B>	0
<0x0C>	0
<0x0D>	0
<0x0E>	0
<0x0F>	0
<0x10>	0
<0x11>	0
<0x12>	0
<0x13>	0
<0x14>	0
<0x15>	0
<0x16>	0
<0x17>	0
<0x18>	0
<0x19>	0
<0x1A>	0
<0x1B>	0
<0x1C>	0
<0x1D>	0
<0x1E>	0
<0x1F>	0
<0x20>	0
<0x21>	0
<0x22>	0
<0x23>	0
<0x24>	0
<0x25>	0
<0x26>	0
<0x27>	0
<0x28>	0
<0x29>	0
<0x2A>	0
<0x2B>	0
<0x2C>	0
<0x2D>	0
<0x2E>	0
<0x2F>	0
<0x30>	0
<0x31>	0
<0x32>	0
<0x33>	0
<0x34>	0
<0x35>	0
<0x36>	0
<0x37>	0
<0x38>	0
<0x39>	0
<0x3A>	0
<0x3B>	0
<0x3C>	0
<0x3D>	0
<0x3E>	0
<0x3F>	0
<0x40>	0
<0x41>	0
<0x42>	0
<0x43>	0
<0x44>	0
<0x45>	0
<0x46>	0
<0x47>	0
<0x48>	0
<0x49>	0
<0x4A>	0
<0x4B>	0
<0x4C>	0
<0x4D>	0
<0x4E>	0
<0x4F>	0
<0x50>	0
<0x51>	0
<0x52>	0
<0x53>	0
<0x54>	0
<0x55>	0
<0x56>	0
<0x57>	0
<0x58>	0
<0x59>	0
<0x5A>	0
<0x5B>	0
<0x5C>	0
<0x5D>	0
<0x5E>	0
<0x5F>	0
<0x60>	0
<0x61>	0
<0x62>	0
<0x63>	0
<0x64>	0
<0x65>	0
<0x66>	0
<0x67>	0
<0x68>	0
<0x69>	0
<0x6A>	0
<0x6B>	0
<0x6C>	0
<0x6D>	0
<0x6E>	0
<0x6F>	0
<0x70>	0
<0x71>	0
<0x72>	0
<0x73>	0
<0x74>	0
<0x75>	0
<0x76>	0
<0x77>	0
<0x78>	0
<0x79>	0
<0x7A>	0
<0x7B>	0
<0x7C>	0
<0x7D>	0
<0x7E>	0
<0x7F>	0
<0x80>	0
<0x81>	0
<0x82>	0
<0x83>	0
<0x84>	0
<0x85>	0
<0x86>	0
<0x87>	0
<0x88>	0
<0x89>	0
<0x8A>	0
<0x8B>	0
<0x8C>	0
<0x8D>	0
<0x8E>	0
<0x8F>	0
<0x90>	0
<0x91>	0
<0x92>	0
<0x93>	0
<0x94>	0
<0x95>	0
<0x96>	0
<0x97>	0
<0x98>	0
<0x99>	0
<0x9A>	0
<0x9B>	0
<0x9C>	0
<0x9D>	0
<0x9E>	0
<0x9F>	0
<0xA0>	0
<0xA1>	0
<0xA2>	0
<0xA3>	0
<0xA4>	0
<0xA5>	0
<0xA6>	0
<0xA7>	0
<0xA8>	0
<0xA9>	0
<0xAA>	0
<0xAB>	0
<0xAC>	0
<0xAD>	0
<0xAE>	0
<0xAF>	0
<0xB0>	0
<0xB1>	0
<0xB2>	0
<0xB3>	0
<0xB4>	0
<0xB5>	0
<0xB6>	0
<0xB7>	0
<0xB8>	0
<0xB9>	0
<0xBA>	0
<0xBB>	0
<0xBC>	0
<0xBD>	0
<0xBE>	0
<0xBF>	0
<0xC0>	0
<0xC1>	0
<0xC2>	0
<0xC3>	0
<0xC4>	0
<0xC5>	0
<0xC6>	0
<0xC7>	0
<0xC8>	0
<0xC9>	0
<0xCA>	0
<0xCB>	0
<0xCC>	0
<0xCD>	0
<0xCE>	0
<0xCF>	0
<0xD0>	0
<0xD1>	0
<0xD2>	0
<0xD3>	0
<0xD4>	0
<0xD5>	0
<0xD6>	0
<0xD7>	0
<0xD8>	0
<0xD9>	0
<0xDA>	0
<0xDB>	0
<0xDC>	0
<0xDD>	0
<0xDE>	0
<0xDF>	0
<0xE0>	0
<0xE1>	0
<0xE2>	0
<0xE3>	0
<0xE4>	0
<0xE5>	0
<0xE6>	0
<0xE7>	0
<0xE8>	0
<0xE9>	0
<0xEA>	0
<0xEB>	0
<0xEC>	0
<0xED>	0
<0xEE>	0
<0xEF>	0
<0xF0>	0
<0xF1>	0
<0xF2>	0
<0xF3>	0
<0xF4>	0
<0xF5>	0
<0xF6>	0
<0xF7>	0
<0xF8>	0
<0xF9>	0
<0xFA>	0
<0xFB>	0
<0xFC>	0
<0xFD>	0
<0xFE>	0
<0xFF>	0
▁t	-0
he	-1
▁a	-2
▁i	-3
▁w	-4
▁the	-5
▁s	-6
▁*	-7
ou	-8
re	-9
in	-10
▁o	-11
ha	-12
▁b	-13
hi	-14
▁m	-15
ot	-16
▁c	-17
er	-18
nd	-19
▁y	-20
▁d	-21
▁f	-22
on	-23
ing	-24
▁you	-25
▁p	-26
ll	-27
▁to	-28
▁g	-29
▁l	-30
an	-31
mot	-32
▁n	-33
es	-34
ed	-35
or	-36
▁and	-37
en	-38
hat	-39
ar	-40
▁he	-41
chi	-42
at	-43
▁in	-44
▁of	-45
it	-46
as	-47
▁it	-48
om	-49
ow	-50
▁ha	-51
▁that	-52
st	-53
et	-54
▁on	-55
ve	-56
le	-57
ay	-58
▁we	-59
▁be	-60
▁e	-61
▁u	-62
ri	-63
gh	-64
▁is	-65
se	-66
his	-67
ld	-68
id	-69
al	-70
oo	-71
ut	-72
ic	-73
▁h	-74
▁was	-75
▁re	-76
▁k	-77
▁do	-78
ad	-79
▁st	-80
ac	-81
▁th	-82
ver	-83
..	-84
▁for	-85
▁=	-86
ght	-87
▁[	-88
ro	-89
ke	-90
▁what	-91
ly	-92
ent	-93
▁j	-94
ir	-95
am	-96
ion	-97
is	-98
ch	-99
out	-100
▁an	-101
▁me	-102
▁"	-103
▁se	-104
ith	-105
▁li	-106
▁go	-107
▁no	-108
▁with	-109
ea	-110
▁this	-111
her	-112
▁as	-113
ome	-114
all	-115
▁not	-116
▁at	-117
ur	-118
▁they	-119
▁there	-120
▁have	-121
▁are	-122
▁so	-123
▁she	-124
▁-	-125
ce	-126
ould	-127
ra	-128
▁can	-129
ter	-130
▁whe	-131
ill	-132
▁kn	-133
▁hi	-134
▁but	-135
ust	-136
ook	-137
▁one	-138
im	-139
▁ne	-140
▁don	-141
▁his	-142
ho	-143
ct	-144
un	-145
ant	-146
▁all	-147
▁know	-148
...	-149
il	-150
▁fr	-151
▁her	-152
▁r	-153
▁my	-154
▁up	-155
au	-156
▁mo	-157
▁your	-158
eah	-159
▁oh	-160
▁yeah	-161
pp	-162
▁ri	-163
▁de	-164
um	-165
xx	-166
▁sa	-167
▁al	-168
▁had	-169
ge	-170
us	-171
▁like	-172
ain	-173
ie	-174
▁ab	-175
ack	-176
▁pl	-177
and	-178
▁1	-179
▁out	-180
op	-181
ck	-182
our	-183
ood	-184
▁did	-185
▁get	-186
inv	-187
art	-188
▁look	-189
ry	-190
▁him	-191
▁su	-192
▁see	-193
ink	-194
▁from	-195
ab	-196
▁or	-197
ake	-198
red	-199
▁here	-200
▁v	-201
ol	-202
very	-203
th	-204
ers	-205
▁by	-206
qu	-207
ight	-208
han	-209
ul	-210
ation	-211
▁were	-212
▁sp	-213
ess	-214
ell	-215
ig	-216
ound	-217
est	-218
▁just	-219
▁if	-220
▁bo	-221
▁now	-222
▁some	-223
▁com	-224
▁who	-225
▁whi	-226
ind	-227
ame	-228
▁sh	-229
▁right	-230
▁well	-231
▁wor	-232
el	-233
ard	-234
▁them	-235
▁got	-236
ong	-237
one	-238
own	-239
▁when	-240
▁then	-241
▁about	-242
itt	-243
▁think	-244
ak	-245
▁want	-246
na	-247
res	-248
nt	-249
ast	-250
ally	-251
▁2	-252
▁ex	-253
▁would	-254
▁man	-255
fe	-256
▁con	-257
ive	-258
▁ro	-259
os	-260
fat	-261
▁said	-262
▁(	-263
▁any	-264
▁tw	-265
▁di	-266
▁will	-267
ate	-268
].	-269
▁where	-270
▁yes	-271
▁how	-272
ap	-273
▁good	-274
ep	-275
▁cl	-276
▁tim	-277
▁say	-278
▁us	-279
ber	-280
em	-281
▁ar	-282
ough	-283
▁come	-284
ine	-285
▁lo	-286
▁ok	-287
▁pro	-288
ven	-289
hing	-290
ort	-291
▁le	-292
▁put	-293
ice	-294
▁xx	-295
▁ag	-296
▁xxx	-297
▁int	-298
▁okay	-299
▁down	-300
ittle	-301
▁“	-302
hy	-303
▁am	-304
▁back	-305
ther	-306
▁little	-307
▁pe	-308
ous	-309
▁let	-310
other	-311
ore	-312
way	-313
▁af	-314
▁co	-315
ag	-316
▁going	-317
."	-318
▁could	-319
▁more	-320
▁been	-321
▁br	-322
ist	-323
▁fe	-324
▁time	-325
▁has	-326
ies	-327
ause	-328
▁qu	-329
▁chi	-330
▁over	-331
▁than	-332
▁very	-333
▁two	-334
ft	-335
▁un	-336
▁which	-337
▁tr	-338
▁bl	-339
▁bec	-340
dy	-341
▁too	-342
▁'	-343
▁off	-344
▁their	-345
--	-346
ick	-347
ide	-348
▁19	-349
▁er	-350
▁en	-351
ace	-352
lf	-353
▁20	-354
▁other	-355
ity	-356
end	-357
▁play	-358
ree	-359
ose	-360
are	-361
▁car	-362
▁cha	-363
▁thing	-364
alk	-365
ure	-366
▁does	-367
▁mar	-368
reat	-369
▁po	-370
,"	-371
orn	-372
▁sc	-373
ear	-374
omet	-375
ment	-376
▁gr	-377
ish	-378
▁why	-379
urn	-380
nder	-381
pe	-382
▁fl	-383
hed	-384
my	-385
▁sha	-386
ud	-387
▁again	-388
age	-389
▁into	-390
▁tell	-391
▁fir	-392
▁somet	-393
ought	-394
▁after	-395
pl	-396
▁way	-397
▁take	-398
▁make	-399
▁uh	-400
ople	-401
ff	-402
ian	-403
ass	-404
▁people	-405
ps	-406
▁jo	-407
ade	-408
▁bet	-409
ue	-410
▁first	-411
▁work	-412
ble	-413
ase	-414
ia	-415
▁because	-416
▁every	-417
ving	-418
int	-419
▁may	-420
▁call	-421
▁day	-422
▁gon	-423
▁wat	-424
ite	-425
we	-426
▁gonna	-427
ount	-428
ty	-429
▁part	-430
▁mu	-431
ved	-432
iss	-433
▁ad	-434
▁these	-435
ves	-436
▁only	-437
▁our	-438
so	-439
▁te	-440
▁bu	-441
mp	-442
▁need	-443
▁mr	-444
▁mean	-445
▁new	-446
▁hand	-447
▁gu	-448
ci	-449
▁should	-450
bo	-451
wn	-452
▁thr	-453
▁pr	-454
co	-455
ary	-456
▁didn	-457
▁ch	-458
▁pre	-459
ord	-460
▁ho	-461
pt	-462
self	-463
ren	-464
fore	-465
▁fo	-466
act	-467
▁boy	-468
per	-469
the	-470
▁something	-471
▁big	-472
▁really	-473
les	-474
uh	-475
ful	-476
▁happ	-477
ouse	-478
▁sm	-479
day	-480
▁much	-481
▁hel	-482
ach	-483
ance	-484
be	-485
thing	-486
augh	-487
▁ac	-488
ather	-489
▁year	-490
▁long	-491
▁mom	-492
ady	-493
ress	-494
▁made	-495
par	-496
ang	-497
▁fi	-498
iz	-499
▁dis	-500
ting	-501
able	-502
▁ra	-503
▁per	-504
▁before	-505
te	-506
man	-507
ool	-508
cl	-509
▁gir	-510
ull	-511
▁talk	-512
▁under	-513
▁away	-514
uck	-515
▁rem	-516
▁ple	-517
ory	-518
▁old	-519
▁never	-520
▁wa	-521
ated	-522
▁act	-523
▁three	-524
ne	-525
hes	-526
▁um	-527
▁wr	-528
▁went	-529
▁har	-530
ub	-531
▁fri	-532
▁child	-533
▁wan	-534
▁ke	-535
▁those	-536
▁girl	-537
ions	-538
▁thank	-539
▁even	-540
ise	-541
▁app	-542
▁great	-543
▁turn	-544
ence	-545
ex	-546
▁bab	-547
av	-548
ward	-549
▁el	-550
▁home	-551
▁lea	-552
▁ask	-553
▁give	-554
▁came	-555
▁house	-556
▁also	-557
ffe	-558
▁wanna	-559
▁doing	-560
gg	-561
▁min	-562
de	-563
▁dad	-564
tain	-565
▁thought	-566
▁another	-567
00	-568
▁cr	-569
▁many	-570
▁must	-571
▁eat	-572
▁book	-573
yes	-574
▁mum	-575
▁count	-576
?"	-577
▁find	-578
▁things	-579
▁sl	-580
get	-581
▁ser	-582
▁head	-583
▁through	-584
ried	-585
▁help	-586
▁still	-587
▁che	-588
hm	-589
▁comp	-590
ors	-591
▁mat	-592
no	-593
▁ind	-594
ens	-595
▁comm	-596
▁last	-597
akes	-598
ma	-599
▁start	-600
ans	-601
ds	-602
▁love	-603
▁tra	-604
▁dr	-605
ons	-606
▁gl	-607
▁bel	-608
▁won	-609
ark	-610
exp	-611
▁op	-612
▁night	-613
▁try	-614
ings	-615
▁show	-616
▁gra	-617
▁chan	-618
▁isn	-619
ict	-620
▁cont	-621
land	-622
▁baby	-623
ened	-624
▁found	-625
laugh	-626
▁lot	-627
▁mm	-628
ect	-629
▁sw	-630
ily	-631
▁res	-632
▁done	-633
▁bot	-634
▁sho	-635
▁sch	-636
if	-637
▁str	-638
▁called	-639
▁%	-640
▁its	-641
▁bit	-642
▁might	-643
aking	-644
▁please	-645
▁sure	-646
mo	-647
ss	-648
xt	-649
▁name	-650
ms	-651
▁mother	-652
ling	-653
▁miss	-654
▁most	-655
ious	-656
ys	-657
ng	-658
▁care	-659
▁ma	-660
▁201	-661
▁friend	-662
up	-663
unn	-664
ign	-665
air	-666
add	-667
body	-668
▁wait	-669
▁pri	-670
med	-671
▁around	-672
▁cat	-673
▁mhm	-674
ix	-675
.”	-676
side	-677
ank	-678
ath	-679
▁war	-680
▁better	-681
▁ah	-682
▁water	-683
▁hey	-684
▁col	-685
ock	-686
anc	-687
▁keep	-688
▁four	-689
▁nice	-690
als	-691
▁mon	-692
▁kind	-693
ually	-694
ates	-695
oney	-696
▁fin	-697
▁own	-698
▁end	-699
▁bre	-700
▁while	-701
li	-702
▁la	-703
.]	-704
▁anything	-705
▁pres	-706
▁life	-707
▁des	-708
▁feel	-709
▁erm	-710
▁place	-711
▁school	-712
ember	-713
▁gi	-714
▁years	-715
▁ele	-716
▁looks	-717
▁char	-718
▁nor	-719
▁doesn	-720
▁att	-721
rent	-722
▁ear	-723
▁cap	-724
▁cour	-725
ways	-726
▁such	-727
▁used	-728
▁eng	-729
▁imp	-730
▁gre	-731
▁being	-732
▁bri	-733
▁next	-734
▁father	-735
▁shall	-736
▁sit	-737
mer	-738
led	-739
vers	-740
▁bus	-741
ited	-742
,”	-743
▁supp	-744
ip	-745
▁same	-746
▁far	-747
▁pol	-748
▁world	-749
ek	-750
ins	-751
▁room	-752
▁hold	-753
▁else	-754
▁3	-755
▁cle	-756
ince	-757
▁beg	-758
!"	-759
amp	-760
og	-761
ww	-762
laughs	-763
▁sor	-764
ied	-765
▁z	-766
ta	-767
▁set	-768
ute	-769
▁mummy	-770
▁rep	-771
▁.	-772
ult	-773
inn	-774
▁always	-775
ical	-776
▁told	-777
▁left	-778
▁saw	-779
▁nothing	-780
▁mot	-781
bb	-782
ild	-783
ations	-784
▁men	-785
▁read	-786
ah	-787
▁pret	-788
▁sec	-789
▁lat	-790
▁tri	-791
ug	-792
ition	-793
der	-794
ction	-795
uc	-796
eric	-797
▁fam	-798
for	-799
row	-800
▁num	-801
▁ever	-802
▁ball	-803
▁use	-804
pped	-805
▁open	-806
rest	-807
▁bir	-808
▁list	-809
▁huh	-810
vel	-811
▁red	-812
aught	-813
▁sorry	-814
▁unt	-815
▁diffe	-816
ars	-817
me	-818
iv	-819
▁ob	-820
▁acc	-821
▁daddy	-822
ump	-823
▁wom	-824
▁pers	-825
leep	-826
▁sing	-827
▁rec	-828
ew	-829
ung	-830
▁five	-831
oss	-832
ream	-833
▁gone	-834
ail	-835
▁spe	-836
▁tom	-837
▁point	-838
▁walk	-839
▁sur	-840
▁reg	-841
ever	-842
cc	-843
▁dra	-844
▁coming	-845
▁money	-846
▁young	-847
▁took	-848
▁door	-849
ave	-850
▁enough	-851
▁hm	-852
▁bro	-853
outh	-854
▁maybe	-855
br	-856
▁though	-857
▁bed	-858
ire	-859
ness	-860
ents	-861
▁hard	-862
ton	-863
▁morn	-864
▁dist	-865
oun	-866
▁stand	-867
▁watch	-868
▁mil	-869
▁americ	-870
▁stop	-871
▁box	-872
▁hear	-873
▁ste	-874
eak	-875
▁inv	-876
▁ed	-877
cond	-878
▁goes	-879
▁once	-880
ts	-881
▁hur	-882
oh	-883
▁light	-884
▁until	-885
▁morning	-886
▁200	-887
▁stay	-888
▁says	-889
▁ret	-890
hip	-891
▁gen	-892
mber	-893
hir	-894
▁mus	-895
▁wo	-896
gether	-897
▁remember	-898
▁pass	-899
▁six	-900
right	-901
▁best	-902
ye	-903
ows	-904
ger	-905
▁real	-906
ont	-907
▁sk	-908
▁vo	-909
▁side	-910
▁second	-911
ished	-912
▁_	-913
gr	-914
▁eyes	-915
▁ter	-916
▁quite	-917
▁wind	-918
▁belie	-919
cha	-920
▁god	-921
▁sy	-922
pect	-923
▁sir	-924
▁pick	-925
▁inter	-926
▁leave	-927
▁course	-928
▁looking	-929
▁bar	-930
▁air	-931
you	-932
▁today	-933
▁ent	-934
▁both	-935
▁near	-936
▁sn	-937
▁sound	-938
son	-939
sis	-940
▁city	-941
ces	-942
▁yet	-943
▁fire	-944
ower	-945
▁dog	-946
".	-947
ross	-948
▁seen	-949
lo	-950
▁dear	-951
▁ev	-952
oup	-953
io	-954
▁high	-955
here	-956
▁each	-957
▁asked	-958
▁hop	-959
tea	-960
bab	-961
▁small	-962
▁foot	-963
▁round	-964
▁few	-965
▁soon	-966
▁lar	-967
ister	-968
rist	-969
▁together	-970
▁grand	-971
▁different	-972
to	-973
▁dri	-974
ible	-975
but	-976
llo	-977
ets	-978
▁pat	-979
▁mind	-980
ange	-981
und	-982
▁fell	-983
llow	-984
▁inst	-985
▁bad	-986
tle	-987
ane	-988
▁fall	-989
▁sleep	-990
▁face	-991
ef	-992
▁pie	-993
ased	-994
une	-995
▁getting	-996
▁children	-997
ident	-998
▁dep	-999
▁without	-1000
▁♪	-1001
▁rel	-1002
▁id	-1003
▁hands	-1004
▁pap	-1005
ten	-1006
▁everything	-1007
▁black	-1008
ational	-1009
▁mrs	-1010
▁run	-1011
aster	-1012
ween	-1013
▁blue	-1014
mch	-1015
ctor	-1016
▁ready	-1017
▁number	-1018
▁heard	-1019
uff	-1020
▁known	-1021
▁pict	-1022
cle	-1023
▁person	-1024
uring	-1025
▁later	-1026
▁cent	-1027
huh	-1028
▁mommy	-1029
▁between	-1030
hn	-1031
ret	-1032
lic	-1033
▁hat	-1034
▁par	-1035
▁202	-1036
mb	-1037
ile	-1038
pri	-1039
▁rest	-1040
ial	-1041
▁haven	-1042
▁king	-1043
▁move	-1044
ures	-1045
cal	-1046
▁since	-1047
▁upon	-1048
▁half	-1049
▁met	-1050
ason	-1051
cause	-1052
ph	-1053
▁4	-1054
▁pop	-1055
▁story	-1056
▁hor	-1057
fta	-1058
che	-1059
ject	-1060
▁having	-1061
less	-1062
▁week	-1063
▁himself	-1064
),	-1065
▁wanted	-1066
▁hafta	-1067
az	-1068
▁cons	-1069
vie	-1070
▁im	-1071
▁happened	-1072
aut	-1073
▁jack	-1074
▁alright	-1075
).	-1076
dd	-1077
unny	-1078
▁white	-1079
ina	-1080
▁follow	-1081
▁looked	-1082
bro	-1083
ib	-1084
▁heart	-1085
ames	-1086
ries	-1087
▁18	-1088
po	-1089
▁dec	-1090
ared	-1091
▁pretty	-1092
ired	-1093
ines	-1094
ating	-1095
▁dire	-1096
ular	-1097
eter	-1098
1:	-1099
▁top	-1100
▁along	-1101
ork	-1102
▁exc	-1103
▁flo	-1104
▁train	-1105
▁matter	-1106
▁ju	-1107
▁boys	-1108
▁talking	-1109
▁john	-1110
ertain	-1111
▁knew	-1112
▁sort	-1113
stand	-1114
most	-1115
▁hello	-1116
▁bring	-1117
enn	-1118
sing	-1119
gma	-1120
▁live	-1121
ann	-1122
iet	-1123
▁ans	-1124
unt	-1125
sel	-1126
enty	-1127
▁ph	-1128
ched	-1129
ale	-1130
▁green	-1131
▁anim	-1132
▁hot	-1133
▁days	-1134
▁kid	-1135
osed	-1136
▁hour	-1137
▁united	-1138
sh	-1139
▁sat	-1140
ric	-1141
its	-1142
▁spo	-1143
▁break	-1144
▁making	-1145
▁mag	-1146
▁family	-1147
▁against	-1148
ball	-1149
▁drink	-1150
▁town	-1151
▁wasn	-1152
▁5	-1153
▁christ	-1154
▁pur	-1155
▁nat	-1156
▁chair	-1157
▁actually	-1158
▁aw	-1159
▁coll	-1160
ged	-1161
▁table	-1162
aw	-1163
vis	-1164
cial	-1165
▁party	-1166
▁cut	-1167
▁gave	-1168
▁american	-1169
▁land	-1170
▁thir	-1171
vo	-1172
ics	-1173
iness	-1174
▁cho	-1175
▁sub	-1176
▁speak	-1177
▁doll	-1178
▁bra	-1179
▁199	-1180
▁sil	-1181
▁squ	-1182
▁believe	-1183
▁ge	-1184
▁kill	-1185
▁during	-1186
ster	-1187
ush	-1188
not	-1189
rew	-1190
▁swe	-1191
▁mark	-1192
cept	-1193
▁wonder	-1194
▁gener	-1195
▁brother	-1196
ier	-1197
▁ger	-1198
▁add	-1199
▁wi	-1200
▁listen	-1201
▁compan	-1202
▁son	-1203
▁born	-1204
▁tre	-1205
▁song	-1206
▁close	-1207
▁died	-1208
what	-1209
▁team	-1210
▁stra	-1211
▁states	-1212
▁inte	-1213
ual	-1214
where	-1215
▁sim	-1216
▁wouldn	-1217
",	-1218
ters	-1219
▁laugh	-1220
▁return	-1221
▁noise	-1222
?”	-1223
▁build	-1224
▁state	-1225
▁meet	-1226
▁whole	-1227
ined	-1228
uary	-1229
clud	-1230
▁food	-1231
▁moment	-1232
vern	-1233
ced	-1234
▁fine	-1235
▁cup	-1236
een	-1237
▁started	-1238
▁almost	-1239
▁eight	-1240
uth	-1241
▁pay	-1242
▁full	-1243
▁trying	-1244
▁happy	-1245
wards	-1246
▁friends	-1247
▁game	-1248
▁dro	-1249
▁understand	-1250
▁saying	-1251
▁es	-1252
▁beaut	-1253
ready	-1254
cted	-1255
▁sign	-1256
▁pull	-1257
▁north	-1258
▁probab	-1259
----	-1260
▁music	-1261
▁interest	-1262
ru	-1263
ered	-1264
▁quest	-1265
ither	-1266
▁playing	-1267
▁inc	-1268
▁med	-1269
▁comes	-1270
ash	-1271
▁wrong	-1272
▁quick	-1273
▁word	-1274
wer	-1275
▁eas	-1276
▁already	-1277
▁thom	-1278
▁ten	-1279
▁leg	-1280
▁sometim	-1281
▁probably	-1282
mar	-1283
▁guess	-1284
▁job	-1285
▁bill	-1286
▁times	-1287
▁country	-1288
ying	-1289
▁floor	-1290
igh	-1291
▁exp	-1292
▁hair	-1293
arn	-1294
zz	-1295
ustr	-1296
▁feet	-1297
▁poss	-1298
▁pain	-1299
▁ass	-1300
▁hum	-1301
aken	-1302
▁rock	-1303
▁minute	-1304
▁sent	-1305
cess	-1306
▁cook	-1307
▁woman	-1308
▁wh	-1309
▁ben	-1310
▁lead	-1311
||	-1312
aces	-1313
▁conf	-1314
▁lost	-1315
▁bat	-1316
▁vis	-1317
▁ton	-1318
▁became	-1319
unk	-1320
▁bear	-1321
ants	-1322
▁aren	-1323
▁fact	-1324
ield	-1325
▁cur	-1326
▁began	-1327
▁thomas	-1328
▁yell	-1329
▁lady	-1330
orrow	-1331
▁govern	-1332
▁poor	-1333
▁girls	-1334
▁paper	-1335
ding	-1336
hind	-1337
▁idea	-1338
ple	-1339
ted	-1340
▁gotta	-1341
▁contin	-1342
▁front	-1343
▁sometimes	-1344
▁certain	-1345
ama	-1346
▁mid	-1347
ches	-1348
▁color	-1349
▁6	-1350
▁mic	-1351
▁ref	-1352
undred	-1353
▁fore	-1354
▁fight	-1355
▁cal	-1356
read	-1357
▁tou	-1358
cy	-1359
ues	-1360
▁behind	-1361
▁hundred	-1362
▁fun	-1363
▁mine	-1364
▁picture	-1365
form	-1366
▁198	-1367
ize	-1368
▁played	-1369
▁record	-1370
▁makes	-1371
ital	-1372
ring	-1373
▁includ	-1374
▁boat	-1375
▁hope	-1376
▁sto	-1377
well	-1378
oud	-1379
▁voice	-1380
▁expl	-1381
▁offic	-1382
▁present	-1383
ots	-1384
ense	-1385
▁short	-1386
▁–	-1387
ities	-1388
uss	-1389
▁draw	-1390
ages	-1391
▁captain	-1392
▁ext	-1393
cer	-1394
▁south	-1395
▁sun	-1396
elt	-1397
▁couldn	-1398
aul	-1399
▁art	-1400
▁sum	-1401
▁pu	-1402
▁brought	-1403
▁fro	-1404
▁dead	-1405
ient	-1406
airs	-1407
▁county	-1408
jo	-1409
▁outside	-1410
www	-1411
ken	-1412
key	-1413
child	-1414
▁month	-1415
▁bas	-1416
▁stuff	-1417
▁dar	-1418
▁form	-1419
ention	-1420
▁,	-1421
▁means	-1422
▁hon	-1423
lish	-1424
ully	-1425
▁prod	-1426
▁road	-1427
kes	-1428
that	-1429
haps	-1430
▁wood	-1431
▁7	-1432
utes	-1433
▁compl	-1434
▁stick	-1435
▁turned	-1436
▁cor	-1437
lly	-1438
▁dou	-1439
▁movie	-1440
ron	-1441
▁main	-1442
▁em	-1443
by	-1444
▁late	-1445
▁seemed	-1446
pping	-1447
▁national	-1448
ury	-1449
use	-1450
▁wants	-1451
▁mer	-1452
▁da	-1453
▁8	-1454
ee	-1455
ape	-1456
dad	-1457
▁line	-1458
▁horse	-1459
▁uni	-1460
▁often	-1461
19	-1462
nan	-1463
▁win	-1464
▁business	-1465
▁however	-1466
▁ty	-1467
▁tele	-1468
▁proble	-1469
▁death	-1470
▁able	-1471
▁someone	-1472
▁doctor	-1473
iful	-1474
ffic	-1475
▁taken	-1476
gan	-1477
▁adv	-1478
▁cry	-1479
ided	-1480
▁hist	-1481
▁import	-1482
ured	-1483
▁serv	-1484
▁law	-1485
ments	-1486
ii	-1487
▁guy	-1488
dge	-1489
▁ber	-1490
unch	-1491
▁dark	-1492
ese	-1493
room	-1494
inner	-1495
▁taking	-1496
sc	-1497
▁ones	-1498
▁stud	-1499
▁197	-1500
▁sal	-1501
▁pub	-1502
rat	-1503
▁early	-1504
▁clot	-1505
urs	-1506
▁less	-1507
▁piece	-1508
▁twenty	-1509
▁myself	-1510
▁ann	-1511
▁learn	-1512
sp	-1513
▁cra	-1514
▁trans	-1515
▁words	-1516
▁sweet	-1517
dden	-1518
▁star	-1519
▁mill	-1520
▁cir	-1521
ises	-1522
▁dress	-1523
▁mad	-1524
▁inside	-1525
▁happen	-1526
ey	-1527
do	-1528
▁minutes	-1529
▁german	-1530
olog	-1531
!”	-1532
▁large	-1533
▁cold	-1534
pat	-1535
ik	-1536
▁repl	-1537
els	-1538
▁age	-1539
▁beautiful	-1540
▁!	-1541
▁yourself	-1542
0,	-1543
▁stre	-1544
▁rather	-1545
▁power	-1546
▁tree	-1547
▁thanks	-1548
▁case	-1549
2:	-1550
▁till	-1551
ming	-1552
▁del	-1553
head	-1554
▁yellow	-1555
itting	-1556
▁perhaps	-1557
sed	-1558
▁trou	-1559
ards	-1560
ized	-1561
▁sea	-1562
▁gent	-1563
▁class	-1564
▁true	-1565
▁river	-1566
▁wife	-1567
▁cri	-1568
▁prot	-1569
▁seven	-1570
selves	-1571
▁prof	-1572
gra	-1573
▁sand	-1574
▁brown	-1575
▁page	-1576
▁milk	-1577
▁alone	-1578
▁felt	-1579
ney	-1580
▁order	-1581
▁rele	-1582
men	-1583
▁strong	-1584
▁mess	-1585
▁funny	-1586
▁nin	-1587
▁pen	-1588
▁fair	-1589
▁bye	-1590
ised	-1591
▁bag	-1592
▁ago	-1593
▁prom	-1594
▁either	-1595
vision	-1596
▁step	-1597
1.	-1598
▁clear	-1599
▁hit	-1600
arent	-1601
▁sister	-1602
▁change	-1603
▁camp	-1604
aughter	-1605
fully	-1606
▁given	-1607
eth	-1608
▁others	-1609
▁9	-1610
▁birth	-1611
▁toys	-1612
adu	-1613
▁phi	-1614
▁company	-1615
▁women	-1616
anger	-1617
▁je	-1618
ering	-1619
▁occ	-1620
▁?	-1621
ner	-1622
▁wall	-1623
▁corn	-1624
▁past	-1625
▁sever	-1626
let	-1627
born	-1628
▁english	-1629
▁hung	-1630
▁reac	-1631
aim	-1632
▁jan	-1633
▁group	-1634
▁ran	-1635
go	-1636
ze	-1637
▁forg	-1638
col	-1639
amed	-1640
ones	-1641
▁ill	-1642
▁somebody	-1643
▁pot	-1644
▁ground	-1645
▁body	-1646
▁ice	-1647
▁wear	-1648
▁emp	-1649
▁ce	-1650
▁gold	-1651
fri	-1652
▁important	-1653
gin	-1654
bs	-1655
▁bur	-1656
▁fast	-1657
rench	-1658
▁mount	-1659
▁park	-1660
▁wish	-1661
0.	-1662
ley	-1663
mon	-1664
▁several	-1665
ides	-1666
▁tea	-1667
▁working	-1668
unning	-1669
▁free	-1670
▁196	-1671
owing	-1672
▁across	-1673
▁ap	-1674
▁buy	-1675
▁lay	-1676
fect	-1677
fl	-1678
▁prov	-1679
artment	-1680
iting	-1681
ald	-1682
▁gets	-1683
▁least	-1684
▁distri	-1685
ote	-1686
▁shi	-1687
▁fav	-1688
▁area	-1689
▁question	-1690
▁guys	-1691
app	-1692
ept	-1693
▁jump	-1694
ks	-1695
▁maj	-1696
▁president	-1697
▁fil	-1698
▁west	-1699
▁plan	-1700
gy	-1701
ham	-1702
min	-1703
ana	-1704
▁vill	-1705
▁fish	-1706
▁hurt	-1707
▁deal	-1708
▁island	-1709
ative	-1710
▁roll	-1711
▁def	-1712
ls	-1713
▁clean	-1714
▁gun	-1715
▁march	-1716
ator	-1717
▁uhhuh	-1718
arth	-1719
▁york	-1720
▁dinner	-1721
dle	-1722
▁football	-1723
▁univers	-1724
cks	-1725
▁fig	-1726
gn	-1727
uro	-1728
▁animals	-1729
▁creat	-1730
ians	-1731
ience	-1732
▁glad	-1733
▁ins	-1734
▁bob	-1735
▁pos	-1736
cri	-1737
vered	-1738
2.	-1739
▁finished	-1740
ax	-1741
ists	-1742
tern	-1743
▁brit	-1744
▁france	-1745
▁quiet	-1746
▁post	-1747
▁toy	-1748
look	-1749
▁send	-1750
▁#	-1751
fort	-1752
▁polit	-1753
▁cross	-1754
ately	-1755
▁among	-1756
rence	-1757
ety	-1758
▁sold	-1759
▁cos	-1760
▁everybody	-1761
ider	-1762
▁arm	-1763
▁living	-1764
▁tomorrow	-1765
▁egg	-1766
▁fly	-1767
bed	-1768
▁darling	-1769
▁thinking	-1770
▁x	-1771
▁rece	-1772
▁lang	-1773
▁chance	-1774
▁french	-1775
ime	-1776
ove	-1777
bert	-1778
▁frank	-1779
▁opp	-1780
▁stor	-1781
▁write	-1782
▁expect	-1783
▁tried	-1784
▁chur	-1785
come	-1786
cent	-1787
▁tem	-1788
▁reason	-1789
▁...	-1790
▁general	-1791
com	-1792
▁lad	-1793
ats	-1794
iously	-1795
▁sudden	-1796
stem	-1797
ete	-1798
▁herself	-1799
▁wow	-1800
▁books	-1801
▁ring	-1802
▁mouth	-1803
raid	-1804
▁bird	-1805
▁club	-1806
▁alb	-1807
▁phone	-1808
ges	-1809
▁band	-1810
▁fift	-1811
]?	-1812
▁takes	-1813
oth	-1814
ific	-1815
▁coun	-1816
rap	-1817
▁cried	-1818
▁sam	-1819
▁chap	-1820
▁jim	-1821
how	-1822
▁government	-1823
1,	-1824
▁mur	-1825
▁surpri	-1826
ike	-1827
▁usually	-1828
▁cam	-1829
▁carry	-1830
▁const	-1831
ilt	-1832
▁history	-1833
▁rom	-1834
000	-1835
▁trouble	-1836
▁lie	-1837
▁jap	-1838
▁partic	-1839
▁afraid	-1840
▁running	-1841
cil	-1842
▁teac	-1843
▁soft	-1844
eared	-1845
▁ya	-1846
▁uncle	-1847
▁system	-1848
iter	-1849
▁special	-1850
aced	-1851
▁held	-1852
▁ve	-1853
oof	-1854
eng	-1855
▁earth	-1856
▁sitting	-1857
▁nine	-1858
sy	-1859
▁become	-1860
▁ship	-1861
val	-1862
▁geor	-1863
ris	-1864
ousand	-1865
ery	-1866
▁fing	-1867
▁check	-1868
▁fix	-1869
band	-1870
ution	-1871
▁forget	-1872
▁answer	-1873
▁clim	-1874
ued	-1875
▁port	-1876
▁truck	-1877
▁ori	-1878
▁anyway	-1879
▁street	-1880
▁catch	-1881
▁stri	-1882
▁cond	-1883
▁frog	-1884
▁thousand	-1885
▁val	-1886
king	-1887
▁sus	-1888
▁letter	-1889
▁series	-1890
▁super	-1891
ford	-1892
▁window	-1893
▁kept	-1894
▁police	-1895
owed	-1896
▁dream	-1897
ances	-1898
▁dav	-1899
▁lived	-1900
▁low	-1901
▁suppose	-1902
velop	-1903
ler	-1904
▁birthday	-1905
▁gentle	-1906
▁touch	-1907
▁det	-1908
uct	-1909
▁exact	-1910
▁duck	-1911
ining	-1912
arch	-1913
▁profess	-1914
▁15	-1915
▁object	-1916
▁married	-1917
▁gard	-1918
▁japan	-1919
▁hang	-1920
▁easy	-1921
ically	-1922
tom	-1923
▁lots	-1924
▁report	-1925
▁seems	-1926
▁195	-1927
inning	-1928
▁est	-1929
ai	-1930
20	-1931
▁summer	-1932
▁attack	-1933
▁ain	-1934
osp	-1935
▁exper	-1936
▁bath	-1937
▁fre	-1938
▁blood	-1939
ices	-1940
▁langu	-1941
▁press	-1942
cket	-1943
ained	-1944
▁master	-1945
ead	-1946
▁stood	-1947
hen	-1948
▁17	-1949
con	-1950
mas	-1951
▁kiss	-1952
▁hours	-1953
att	-1954
itten	-1955
cds	-1956
▁fur	-1957
▁euro	-1958
▁choo	-1959
▁sounds	-1960
▁tonight	-1961
ism	-1962
▁bes	-1963
▁heav	-1964
umb	-1965
▁[1	-1966
▁ooh	-1967
▁university	-1968
▁hus	-1969
▁luck	-1970
loi	-1971
net	-1972
▁whatever	-1973
▁june	-1974
▁block	-1975
▁joe	-1976
▁vi	-1977
eed	-1978
▁problem	-1979
▁pleas	-1980
▁deep	-1981
▁wee	-1982
▁pound	-1983
2,	-1984
▁january	-1985
ium	-1986
▁oct	-1987
3.	-1988
▁aunt	-1989
▁reco	-1990
▁field	-1991
▁bow	-1992
▁appro	-1993
▁whether	-1994
vi	-1995
ract	-1996
alth	-1997
▁fort	-1998
▁yours	-1999
▁church	-2000
▁10	-2001
▁tired	-2002
▁194	-2003
▁pa	-2004
▁daughter	-2005
▁region	-2006
▁kids	-2007
▁fit	-2008
▁lovely	-2009
▁straight	-2010
▁ow	-2011
▁secret	-2012
ked	-2013
port	-2014
▁department	-2015
don	-2016
▁within	-2017
▁cow	-2018
▁office	-2019
ural	-2020
▁clothes	-2021
▁lord	-2022
▁killed	-2023
▁waiting	-2024
▁snow	-2025
▁throw	-2026
▁dat	-2027
▁tur	-2028
▁knows	-2029
▁eye	-2030
▁cast	-2031
▁points	-2032
▁named	-2033
ility	-2034
▁rad	-2035
▁hill	-2036
▁news	-2037
▁commun	-2038
▁abs	-2039
ives	-2040
though	-2041
▁sail	-2042
▁contro	-2043
▁hors	-2044
owers	-2045
▁replied	-2046
▁kit	-2047
ude	-2048
point	-2049
▁themselves	-2050
▁careful	-2051
wered	-2052
▁board	-2053
▁coup	-2054
▁lives	-2055
▁eh	-2056
▁slow	-2057
▁elect	-2058
ond	-2059
▁mart	-2060
▁released	-2061
ality	-2062
gue	-2063
iff	-2064
▁eating	-2065
▁months	-2066
▁album	-2067
▁mountain	-2068
more	-2069
▁dece	-2070
▁aug	-2071
▁hen	-2072
▁shoes	-2073
▁engine	-2074
▁sol	-2075
▁appear	-2076
ony	-2077
▁answered	-2078
▁oper	-2079
▁var	-2080
▁district	-2081
uts	-2082
▁command	-2083
▁charac	-2084
uk	-2085
makes	-2086
▁shar	-2087
▁east	-2088
▁mist	-2089
▁gar	-2090
▁lou	-2091
▁station	-2092
▁instead	-2093
▁bell	-2094
▁nose	-2095
fch	-2096
▁husband	-2097
▁champ	-2098
▁major	-2099
gas	-2100
▁common	-2101
mother	-2102
▁possible	-2103
pes	-2104
▁proper	-2105
▁succ	-2106
▁lau	-2107
▁ang	-2108
▁member	-2109
▁cool	-2110
▁safe	-2111
▁danger	-2112
▁cop	-2113
▁chick	-2114
▁ru	-2115
car	-2116
▁hol	-2117
fer	-2118
▁bank	-2119
chen	-2120
▁christmas	-2121
▁doub	-2122
▁worked	-2123
▁british	-2124
▁16	-2125
▁career	-2126
ober	-2127
▁august	-2128
▁exactly	-2129
▁forgot	-2130
▁visit	-2131
5.	-2132
▁peter	-2133
▁passed	-2134
3:	-2135
la	-2136
▁wild	-2137
4.	-2138
▁moved	-2139
stairs	-2140
▁cannot	-2141
▁juice	-2142
▁vict	-2143
▁seat	-2144
▁putting	-2145
que	-2146
ager	-2147
▁quickly	-2148
▁hall	-2149
▁single	-2150
▁disco	-2151
▁couple	-2152
▁above	-2153
▁shot	-2154
yed	-2155
▁orange	-2156
▁excuse	-2157
▁diffic	-2158
▁breat	-2159
▁evening	-2160
ara	-2161
▁forward	-2162
ses	-2163
▁human	-2164
▁although	-2165
▁recei	-2166
▁third	-2167
▁broken	-2168
bye	-2169
▁knock	-2170
▁adm	-2171
▁terri	-2172
▁treat	-2173
▁arms	-2174
ned	-2175
▁apri	-2176
▁building	-2177
▁pal	-2178
▁mary	-2179
▁develop	-2180
phone	-2181
▁worry	-2182
friend	-2183
▁success	-2184
erv	-2185
▁longer	-2186
3,	-2187
fast	-2188
gen	-2189
▁europe	-2190
▁middle	-2191
char	-2192
▁noises	-2193
vember	-2194
▁garden	-2195
▁arri	-2196
▁equ	-2197
▁]	-2198
uit	-2199
▁puts	-2200
▁whose	-2201
▁indeed	-2202
▁toward	-2203
▁ted	-2204
▁prin	-2205
itch	-2206
▁everyone	-2207
▁drive	-2208
▁dut	-2209
▁mor	-2210
ulation	-2211
▁towards	-2212
▁disc	-2213
pper	-2214
▁circ	-2215
▁april	-2216
▁england	-2217
ptember	-2218
▁favor	-2219
▁honey	-2220
ato	-2221
▁public	-2222
▁pet	-2223
sk	-2224
▁television	-2225
oop	-2226
uri	-2227
▁glass	-2228
hern	-2229
▁smo	-2230
▁tape	-2231
▁dest	-2232
▁pretend	-2233
▁anyone	-2234
▁nearly	-2235
▁childes	-2236
▁seem	-2237
childes	-2238
▁enjo	-2239
ndon	-2240
ardon	-2241
7.	-2242
▁jud	-2243
▁excl	-2244
▁grow	-2245
ently	-2246
▁october	-2247
▁193	-2248
▁origin	-2249
ene	-2250
gram	-2251
▁mis	-2252
▁cre	-2253
rop	-2254
▁feeling	-2255
▁cost	-2256
phan	-2257
lex	-2258
▁clos	-2259
8.	-2260
▁test	-2261
▁strange	-2262
cher	-2263
▁caught	-2264
▁sight	-2265
ott	-2266
iny	-2267
▁esc	-2268
▁wel	-2269
▁organ	-2270
bruary	-2271
9.	-2272
▁needs	-2273
▁nobody	-2274
▁ham	-2275
▁gri	-2276
aser	-2277
▁hosp	-2278
▁parent	-2279
6.	-2280
▁november	-2281
▁save	-2282
sha	-2283
▁cau	-2284
▁phil	-2285
aimed	-2286
▁fill	-2287
▁ahead	-2288
▁cover	-2289
she	-2290
bby	-2291
▁bright	-2292
▁standing	-2293
▁reached	-2294
▁lab	-2295
▁dev	-2296
ional	-2297
▁vie	-2298
▁million	-2299
▁effe	-2300
▁cray	-2301
nday	-2302
▁july	-2303
ral	-2304
ging	-2305
▁former	-2306
▁shout	-2307
▁pardon	-2308
4,	-2309
ert	-2310
▁places	-2311
▁works	-2312
▁september	-2313
▁mama	-2314
▁except	-2315
▁service	-2316
▁miles	-2317
▁chief	-2318
▁hy	-2319
▁fear	-2320
▁david	-2321
▁ant	-2322
▁tick	-2323
terday	-2324
▁butter	-2325
▁track	-2326
▁telling	-2327
▁warm	-2328
▁village	-2329
▁hungry	-2330
▁certainly	-2331
▁trees	-2332
▁teacher	-2333
work	-2334
▁perfect	-2335
▁bud	-2336
▁army	-2337
▁yesterday	-2338
▁direct	-2339
now	-2340
▁intern	-2341
▁player	-2342
▁tor	-2343
▁cause	-2344
gar	-2345
▁season	-2346
▁effect	-2347
▁december	-2348
▁ride	-2349
ugg	-2350
▁prison	-2351
▁games	-2352
▁cake	-2353
▁breakfast	-2354
▁push	-2355
▁rob	-2356
▁view	-2357
▁led	-2358
ston	-2359
▁returned	-2360
▁ut	-2361
▁meant	-2362
▁changed	-2363
▁chapter	-2364
▁ver	-2365
▁pack	-2366
▁sugg	-2367
▁broke	-2368
amb	-2369
▁swim	-2370
noon	-2371
▁rose	-2372
▁february	-2373
▁cand	-2374
▁suggest	-2375
▁pupp	-2376
▁support	-2377
▁whis	-2378
▁yep	-2379
vocal	-2380
▁disapp	-2381
used	-2382
▁rain	-2383
▁prev	-2384
▁kitchen	-2385
▁following	-2386
od	-2387
▁stopped	-2388
gest	-2389
ample	-2390
▁thi	-2391
mbers	-2392
▁protect	-2393
uced	-2394
▁london	-2395
▁bread	-2396
▁ital	-2397
▁farm	-2398
aged	-2399
ich	-2400
rod	-2401
▁heavy	-2402
hold	-2403
▁vol	-2404
▁supposed	-2405
▁built	-2406
emy	-2407
▁resp	-2408
lin	-2409
▁helen	-2410
▁van	-2411
▁suddenly	-2412
5,	-2413
iam	-2414
▁base	-2415
▁trust	-2416
▁concer	-2417
gu	-2418
▁decided	-2419
▁gas	-2420
▁cab	-2421
▁fellow	-2422
▁anybody	-2423
▁quar	-2424
▁afternoon	-2425
▁et	-2426
▁using	-2427
there	-2428
▁mass	-2429
ement	-2430
▁opened	-2431
ino	-2432
▁written	-2433
--------	-2434
▁turns	-2435
▁pictures	-2436
▁card	-2437
ament	-2438
▁paul	-2439
iled	-2440
▁space	-2441
▁dam	-2442
▁weeks	-2443
▁(19	-2444
lt	-2445
▁burn	-2446
▁2020	-2447
▁sick	-2448
ob	-2449
▁ur	-2450
▁truth	-2451
▁inform	-2452
chan	-2453
▁followed	-2454
▁george	-2455
▁whom	-2456
oops	-2457
▁program	-2458
▁position	-2459
cially	-2460
idence	-2461
▁indian	-2462
▁stu	-2463
▁beat	-2464
▁sad	-2465
zy	-2466
▁complete	-2467
bor	-2468
lie	-2469
▁language	-2470
.'	-2471
bur	-2472
▁spot	-2473
▁auth	-2474
ustral	-2475
▁hasn	-2476
▁coffe	-2477
▁tot	-2478
▁fraser	-2479
▁decl	-2480
▁thirty	-2481
uce	-2482
▁court	-2483
ray	-2484
ror	-2485
▁hospital	-2486
▁moon	-2487
▁russ	-2488
8,	-2489
▁tv	-2490
▁requ	-2491
hael	-2492
▁12	-2493
ceed	-2494
▁hurry	-2495
hel	-2496
▁spir	-2497
▁finish	-2498
▁nic	-2499
▁pieces	-2500
▁bon	-2501
aur	-2502
uel	-2503
har	-2504
▁prop	-2505
▁somewhere	-2506
▁giving	-2507
▁particular	-2508
▁bought	-2509
▁ange	-2510
why	-2511
ater	-2512
▁pract	-2513
bit	-2514
▁colle	-2515
▁bunny	-2516
▁belong	-2517
▁austral	-2518
▁leaving	-2519
▁stuck	-2520
ground	-2521
▁shop	-2522
9,	-2523
va	-2524
▁fa	-2525
▁added	-2526
▁coffee	-2527
▁happens	-2528
▁sell	-2529
▁worth	-2530
▁rabb	-2531
▁den	-2532
▁amy	-2533
▁bottom	-2534
omb	-2535
▁members	-2536
ended	-2537
▁watching	-2538
ya	-2539
▁mach	-2540
▁mun	-2541
▁holding	-2542
omin	-2543
7,	-2544
ask	-2545
▁net	-2546
▁mal	-2547
▁imag	-2548
▁lunch	-2549
ician	-2550
▁fle	-2551
▁neigh	-2552
▁camer	-2553
▁dan	-2554
▁doubt	-2555
▁figure	-2556
oon	-2557
▁lift	-2558
play	-2559
singing	-2560
▁hig	-2561
▁elephan	-2562
they	-2563
ste	-2564
ushed	-2565
▁agre	-2566
ien	-2567
▁pink	-2568
▁remain	-2569
▁busy	-2570
▁cheese	-2571
'.	-2572
▁wrote	-2573
▁ba	-2574
▁fifty	-2575
▁tail	-2576
▁carl	-2577
▁div	-2578
▁wal	-2579
ula	-2580
▁repres	-2581
icip	-2582
▁shoot	-2583
▁tast	-2584
▁sar	-2585
▁author	-2586
▁descri	-2587
▁jer	-2588
▁health	-2589
▁example	-2590
empt	-2591
▁level	-2592
▁laughs	-2593
board	-2594
ature	-2595
▁flowers	-2596
▁moving	-2597
time	-2598
▁dem	-2599
▁bang	-2600
oint	-2601
6,	-2602
▁ell	-2603
▁legs	-2604
▁loc	-2605
box	-2606
▁ought	-2607
▁queen	-2608
▁dig	-2609
▁character	-2610
▁spec	-2611
▁fail	-2612
dom	-2613
die	-2614
▁apple	-2615
iling	-2616
▁ord	-2617
▁express	-2618
▁finally	-2619
▁council	-2620
▁difficult	-2621
▁film	-2622
▁ca	-2623
▁fat	-2624
ior	-2625
ograp	-2626
tered	-2627
yn	-2628
▁anymore	-2629
▁further	-2630
▁force	-2631
▁die	-2632
▁$	-2633
ped	-2634
▁defe	-2635
▁stone	-2636
▁‘	-2637
▁parents	-2638
▁chicken	-2639
▁vir	-2640
▁kitt	-2641
▁tall	-2642
▁mod	-2643
▁sky	-2644
yal	-2645
▁cou	-2646
▁hu	-2647
▁dry	-2648
▁weren	-2649
▁received	-2650
▁jour	-2651
▁animal	-2652
▁hole	-2653
▁current	-2654
▁race	-2655
▁accord	-2656
▁college	-2657
▁exclaimed	-2658
▁lake	-2659
▁dance	-2660
ishing	-2661
ustration	-2662
▁cas	-2663
▁reach	-2664
▁cars	-2665
▁including	-2666
whi	-2667
▁pig	-2668
▁priv	-2669
▁silver	-2670
▁stat	-2671
▁result	-2672
iers	-2673
▁population	-2674
▁rising	-2675
▁none	-2676
gasps	-2677
ored	-2678
▁rub	-2679
▁sense	-2680
▁plays	-2681
▁aut	-2682
▁mc	-2683
▁america	-2684
▁nort	-2685
itted	-2686
ancy	-2687
▁obs	-2688
ology	-2689
▁seeing	-2690
▁bottle	-2691
▁michael	-2692
ning	-2693
▁design	-2694
▁collect	-2695
mit	-2696
▁walking	-2697
▁loud	-2698
▁league	-2699
▁beginning	-2700
ada	-2701
enny	-2702
▁vide	-2703
▁carried	-2704
▁self	-2705
▁commune	-2706
▁han	-2707
like	-2708
▁neck	-2709
▁james	-2710
▁international	-2711
▁span	-2712
▁bridge	-2713
ille	-2714
▁officer	-2715
▁spoke	-2716
▁horses	-2717
▁william	-2718
▁oop	-2719
▁sen	-2720
▁compet	-2721
▁wed	-2722
▁accept	-2723
gie	-2724
▁rul	-2725
anny	-2726
illy	-2727
bles	-2728
▁washing	-2729
▁comfort	-2730
▁wonderful	-2731
▁bull	-2732
rel	-2733
▁norm	-2734
▁convers	-2735
house	-2736
▁century	-2737
▁event	-2738
pecially	-2739
▁store	-2740
▁dor	-2741
night	-2742
bl	-2743
▁appeared	-2744
▁bask	-2745
▁attention	-2746
▁corner	-2747
▁tit	-2748
ented	-2749
▁champions	-2750
resh	-2751
▁feed	-2752
▁danc	-2753
▁local	-2754
▁ep	-2755
▁welcome	-2756
icks	-2757
rupt	-2758
▁crying	-2759
ggy	-2760
▁grass	-2761
,--	-2762
view	-2763
oul	-2764
▁minister	-2765
▁popular	-2766
rer	-2767
▁hun	-2768
▁pit	-2769
▁sau	-2770
▁educ	-2771
▁cong	-2772
▁harry	-2773
▁puzz	-2774
can	-2775
▁winter	-2776
▁shouldn	-2777
mie	-2778
▁lose	-2779
rit	-2780
▁conne	-2781
▁ta	-2782
▁sport	-2783
▁meeting	-2784
teen	-2785
points	-2786
ison	-2787
▁pounds	-2788
iger	-2789
▁cell	-2790
▁recogn	-2791
▁control	-2792
▁ye	-2793
▁letters	-2794
▁type	-2795
▁study	-2796
▁crow	-2797
riage	-2798
▁wash	-2799
▁billy	-2800
▁contain	-2801
▁dropped	-2802
ified	-2803
▁twel	-2804
▁fut	-2805
▁battle	-2806
sings	-2807
▁account	-2808
▁plate	-2809
whis	-2810
illustration	-2811
▁allowed	-2812
▁mem	-2813
▁lock	-2814
▁stars	-2815
▁cy	-2816
▁walked	-2817
za	-2818
▁likes	-2819
▁information	-2820
estern	-2821
light	-2822
▁exam	-2823
▁laughing	-2824
of	-2825
▁rac	-2826
vin	-2827
ura	-2828
▁spend	-2829
▁grandma	-2830
▁rail	-2831
▁wet	-2832
▁wide	-2833
▁invest	-2834
▁silence	-2835
plo	-2836
bers	-2837
ghed	-2838
▁distance	-2839
▁shut	-2840
▁based	-2841
uation	-2842
▁continued	-2843
▁vers	-2844
▁192	-2845
▁du	-2846
▁especially	-2847
▁afric	-2848
▁nar	-2849
▁capital	-2850
▁drop	-2851
▁interesting	-2852
▁award	-2853
▁cream	-2854
▁broad	-2855
▁jul	-2856
iced	-2857
▁remark	-2858
ization	-2859
lished	-2860
nes	-2861
▁spring	-2862
▁tear	-2863
▁trad	-2864
▁delight	-2865
wood	-2866
clock	-2867
▁spl	-2868
▁entire	-2869
▁peace	-2870
▁key	-2871
acy	-2872
ously	-2873
▁polic	-2874
▁scar	-2875
▁roman	-2876
▁consider	-2877
izes	-2878
▁hide	-2879
▁holds	-2880
▁yum	-2881
▁teeth	-2882
▁sout	-2883
olute	-2884
▁ate	-2885
▁writing	-2886
▁respect	-2887
▁picks	-2888
▁mir	-2889
ounced	-2890
▁teddy	-2891
▁leaves	-2892
▁match	-2893
▁pan	-2894
▁shape	-2895
ume	-2896
▁sharp	-2897
▁ban	-2898
▁guard	-2899
▁speed	-2900
▁viol	-2901
ashi	-2902
olved	-2903
▁phot	-2904
cell	-2905
▁joy	-2906
aint	-2907
▁bal	-2908
▁ze	-2909
▁bobby	-2910
▁reading	-2911
▁itself	-2912
▁dir	-2913
▁created	-2914
hoh	-2915
oose	-2916
▁perio	-2917
▁according	-2918
▁mam	-2919
▁eggs	-2920
▁forest	-2921
▁birds	-2922
▁necess	-2923
▁famous	-2924
▁wheel	-2925
ission	-2926
looks	-2927
ipp	-2928
▁san	-2929
▁ears	-2930
▁mel	-2931
▁favorite	-2932
▁rid	-2933
▁liked	-2934
▁chocol	-2935
▁luc	-2936
por	-2937
▁municip	-2938
▁kitty	-2939
▁din	-2940
itions	-2941
▁pray	-2942
▁14	-2943
▁..	-2944
▁future	-2945
▁parts	-2946
▁laughed	-2947
▁bis	-2948
ault	-2949
▁mix	-2950
▁11	-2951
▁names	-2952
▁phy	-2953
noise	-2954
▁germany	-2955
▁uhoh	-2956
▁smell	-2957
▁suit	-2958
▁tech	-2959
▁hous	-2960
▁plant	-2961
this	-2962
▁interested	-2963
▁comput	-2964
▁colon	-2965
▁charge	-2966
▁capt	-2967
phi	-2968
▁elephant	-2969
▁cro	-2970
▁civ	-2971
▁serious	-2972
▁mention	-2973
▁ir	-2974
▁singing	-2975
▁grew	-2976
medi	-2977
▁paid	-2978
▁whoa	-2979
▁surprise	-2980
▁13	-2981
chard	-2982
▁mac	-2983
▁explain	-2984
▁due	-2985
▁smile	-2986
▁rabbit	-2987
▁sev	-2988
yle	-2989
▁leng	-2990
▁alive	-2991
▁twelve	-2992
▁basket	-2993
▁slowly	-2994
▁questions	-2995
▁loved	-2996
▁clever	-2997
▁los	-2998
▁rich	-2999
▁promise	-3000
dered	-3001
pered	-3002
▁alex	-3003
nds	-3004
ades	-3005
▁video	-3006
▁hast	-3007
ids	-3008
▁incre	-3009
▁sle	-3010
▁starts	-3011
▁sheep	-3012
▁robert	-3013
▁rev	-3014
▁anx	-3015
▁betty	-3016
▁climb	-3017
ky	-3018
▁wol	-3019
▁gives	-3020
▁below	-3021
nded	-3022
antly	-3023
▁prep	-3024
▁jes	-3025
iles	-3026
▁square	-3027
▁lying	-3028
name	-3029
▁needed	-3030
ashed	-3031
▁crayon	-3032
astic	-3033
▁camera	-3034
▁activ	-3035
field	-3036
ov	-3037
▁fresh	-3038
▁faith	-3039
▁aff	-3040
▁finger	-3041
▁showed	-3042
▁closed	-3043
▁shir	-3044
▁social	-3045
ustom	-3046
▁fol	-3047
▁iss	-3048
▁scared	-3049
▁lu	-3050
da	-3051
ays	-3052
▁rese	-3053
▁terrible	-3054
ilar	-3055
ech	-3056
tt	-3057
▁attempt	-3058
old	-3059
set	-3060
▁fed	-3061
▁absolute	-3062
iforn	-3063
isted	-3064
▁comb	-3065
rom	-3066
ka	-3067
▁radio	-3068
▁poo	-3069
eral	-3070
▁moder	-3071
▁soci	-3072
▁share	-3073
▁californ	-3074
▁tow	-3075
▁unless	-3076
▁sleeping	-3077
▁bigger	-3078
▁bi	-3079
▁repe	-3080
▁union	-3081
ounded	-3082
▁subject	-3083
_,	-3084
ida	-3085
▁ii	-3086
▁asking	-3087
▁extra	-3088
▁lion	-3089
▁immedi	-3090
soci	-3091
af	-3092
▁gro	-3093
▁fred	-3094
▁⌊	-3095
itary	-3096
▁gall	-3097
ublic	-3098
▁arr	-3099
▁rap	-3100
▁period	-3101
▁⌈	-3102
▁infl	-3103
▁jwww	-3104
▁circle	-3105
gged	-3106
▁machine	-3107
▁forty	-3108
▁chocolate	-3109
ius	-3110
▁(1	-3111
then	-3112
▁eff	-3113
▁host	-3114
▁henry	-3115
▁conversation	-3116
▁kingdom	-3117
▁stories	-3118
▁fer	-3119
ressed	-3120
▁hardly	-3121
igg	-3122
▁thus	-3123
▁pocket	-3124
▁civil	-3125
,'	-3126
cut	-3127
▁aud	-3128
▁stage	-3129
▁california	-3130
▁ox	-3131
▁problems	-3132
▁asleep	-3133
▁adult	-3134
▁associ	-3135
under	-3136
asure	-3137
▁dogs	-3138
▁separ	-3139
▁mi	-3140
▁sant	-3141
bre	-3142
hood	-3143
▁destro	-3144
▁fem	-3145
▁mouse	-3146
▁species	-3147
▁coat	-3148
itive	-3149
▁pun	-3150
▁coast	-3151
omes	-3152
lymp	-3153
isf	-3154
gl	-3155
▁turning	-3156
▁countries	-3157
▁direction	-3158
▁wake	-3159
▁center	-3160
pers	-3161
▁hea	-3162
▁bey	-3163
▁shows	-3164
ils	-3165
▁sna	-3166
ency	-3167
▁province	-3168
▁similar	-3169
▁republic	-3170
▁medic	-3171
▁spoon	-3172
cat	-3173
just	-3174
▁breath	-3175
xic	-3176
▁techn	-3177
")	-3178
ument	-3179
den	-3180
▁straw	-3181
▁fright	-3182
▁search	-3183
iment	-3184
ination	-3185
▁sunday	-3186
▁famil	-3187
▁picked	-3188
wa	-3189
▁phys	-3190
▁india	-3191
▁leader	-3192
▁action	-3193
ca	-3194
▁sue	-3195
▁olymp	-3196
anor	-3197
▁prince	-3198
▁natural	-3199
▁iron	-3200
▁cult	-3201
▁helped	-3202
▁final	-3203
▁micro	-3204
▁fingers	-3205
▁accom	-3206
▁paris	-3207
ads	-3208
▁slight	-3209
▁easter	-3210
▁flat	-3211
▁kick	-3212
▁monkey	-3213
▁served	-3214
▁central	-3215
zer	-3216
uction	-3217
ustri	-3218
▁anne	-3219
▁therefore	-3220
uten	-3221
olution	-3222
wise	-3223
▁aye	-3224
▁jew	-3225
cious	-3226
▁("	-3227
▁nest	-3228
▁talked	-3229
lyn	-3230
▁cous	-3231
father	-3232
▁dun	-3233
ergy	-3234
▁older	-3235
▁calling	-3236
▁blank	-3237
▁speaking	-3238
▁spent	-3239
▁tal	-3240
ird	-3241
._	-3242
yer	-3243
▁spirit	-3244
▁purp	-3245
cul	-3246
▁amaz	-3247
▁process	-3248
off	-3249
conom	-3250
▁spread	-3251
▁honest	-3252
▁upstairs	-3253
laughing	-3254
▁max	-3255
▁smart	-3256
pa	-3257
▁30	-3258
▁plain	-3259
fad	-3260
mat	-3261
▁perform	-3262
inite	-3263
▁learned	-3264
▁tower	-3265
▁ways	-3266
▁occas	-3267
▁covered	-3268
▁drawing	-3269
ably	-3270
▁obv	-3271
▁sex	-3272
▁amount	-3273
▁western	-3274
▁beyond	-3275
▁meat	-3276
line	-3277
▁nur	-3278
▁relig	-3279
str	-3280
▁av	-3281
▁politician	-3282
kn	-3283
▁possib	-3284
▁beha	-3285
▁accident	-3286
aker	-3287
bour	-3288
ny	-3289
▁join	-3290
▁situation	-3291
▁cart	-3292
▁crack	-3293
▁likely	-3294
outs	-3295
▁director	-3296
▁represent	-3297
inary	-3298
▁joined	-3299
▁advent	-3300
zen	-3301
▁oops	-3302
▁include	-3303
▁term	-3304
▁&	-3305
▁apart	-3306
▁enjoy	-3307
▁tend	-3308
▁tiger	-3309
ville	-3310
▁econom	-3311
▁beach	-3312
▁lower	-3313
▁inf	-3314
rect	-3315
▁caused	-3316
▁tour	-3317
▁nature	-3318
▁fighting	-3319
▁hero	-3320
oe	-3321
▁boo	-3322
▁wha	-3323
▁tax	-3324
▁ros	-3325
▁earli	-3326
orm	-3327
▁honor	-3328
▁trip	-3329
▁carol	-3330
▁japanese	-3331
▁pi	-3332
▁scient	-3333
ife	-3334
▁)	-3335
▁driving	-3336
▁silly	-3337
▁mov	-3338
▁sarah	-3339
▁der	-3340
▁lee	-3341
▁dollars	-3342
▁cens	-3343
▁worse	-3344
▁tiny	-3345
ica	-3346
▁heaven	-3347
aff	-3348
▁hotel	-3349
▁satisf	-3350
▁wand	-3351
▁flying	-3352
ption	-3353
▁clock	-3354
▁introd	-3355
▁spanish	-3356
▁jane	-3357
▁size	-3358
▁adam	-3359
▁simple	-3360
▁100	-3361
gon	-3362
▁stren	-3363
▁missing	-3364
▁enemy	-3365
▁naught	-3366
▁wit	-3367
▁tony	-3368
▁project	-3369
▁bay	-3370
▁fox	-3371
▁1,	-3372
▁eleanor	-3373
ushing	-3374
▁(2	-3375
▁personal	-3376
▁stan	-3377
▁crit	-3378
▁lines	-3379
▁bomb	-3380
▁deli	-3381
coun	-3382
▁weather	-3383
▁gate	-3384
▁note	-3385
order	-3386
▁stock	-3387
▁pil	-3388
▁entered	-3389
▁royal	-3390
▁background	-3391
reek	-3392
▁shore	-3393
▁lucky	-3394
▁movies	-3395
▁nick	-3396
'?	-3397
kay	-3398
▁hate	-3399
▁modern	-3400
iar	-3401
erve	-3402
▁sandw	-3403
▁agreed	-3404
▁beside	-3405
▁declared	-3406
▁numbers	-3407
▁length	-3408
ighs	-3409
inct	-3410
▁steps	-3411
▁suff	-3412
tr	-3413
isy	-3414
▁hiding	-3415
▁oppos	-3416
gs	-3417
▁bound	-3418
▁plann	-3419
hol	-3420
▁various	-3421
urday	-3422
▁rough	-3423
▁ladies	-3424
▁pleasure	-3425
▁professor	-3426
▁spr	-3427
▁nap	-3428
aded	-3429
▁directed	-3430
roll	-3431
▁proud	-3432
▁market	-3433
▁non	-3434
▁dressed	-3435
▁starting	-3436
nel	-3437
tur	-3438
▁ide	-3439
▁arrived	-3440
▁tight	-3441
▁forth	-3442
▁respons	-3443
▁que	-3444
▁crazy	-3445
▁cookie	-3446
▁windows	-3447
▁sens	-3448
▁soldiers	-3449
▁absolutely	-3450
▁drew	-3451
▁angry	-3452
▁spell	-3453
▁fool	-3454
10	-3455
▁driver	-3456
▁role	-3457
▁richard	-3458
shi	-3459
▁woods	-3460
▁falling	-3461
essie	-3462
epend	-3463
▁besides	-3464
▁path	-3465
▁cheer	-3466
▁plane	-3467
over	-3468
▁cabin	-3469
▁sac	-3470
ply	-3471
▁manage	-3472
▁ara	-3473
▁charles	-3474
erved	-3475
▁25	-3476
▁price	-3477
▁streng	-3478
▁jesus	-3479
▁und	-3480
▁blocks	-3481
▁australia	-3482
▁nav	-3483
▁saint	-3484
▁temper	-3485
▁ti	-3486
▁relations	-3487
]!	-3488
ode	-3489
▁utter	-3490
▁census	-3491
▁tar	-3492
aper	-3493
▁difference	-3494
des	-3495
▁largest	-3496
▁storm	-3497
▁pill	-3498
reme	-3499
▁political	-3500
▁bless	-3501
counter	-3502
sidered	-3503
▁deter	-3504
▁considered	-3505
lli	-3506
▁bite	-3507
wor	-3508
▁thou	-3509
▁bert	-3510
▁dinos	-3511
▁computer	-3512
▁shoe	-3513
atic	-3514
▁decis	-3515
alley	-3516
▁northern	-3517
▁motor	-3518
▁emplo	-3519
▁laid	-3520
▁crowd	-3521
▁colors	-3522
rage	-3523
▁songs	-3524
▁handle	-3525
who	-3526
▁private	-3527
ference	-3528
ites	-3529
▁christian	-3530
▁escape	-3531
ago	-3532
▁lid	-3533
▁education	-3534
▁ves	-3535
▁refer	-3536
▁anywhere	-3537
▁dolly	-3538
▁missed	-3539
▁military	-3540
▁babies	-3541
▁mater	-3542
▁placed	-3543
▁yo	-3544
/0	-3545
kin	-3546
▁scream	-3547
▁saturday	-3548
▁deck	-3549
▁discovered	-3550
▁regular	-3551
▁original	-3552
▁professional	-3553
cient	-3554
▁demo	-3555
▁happening	-3556
▁arrest	-3557
▁oce	-3558
aps	-3559
▁flower	-3560
antic	-3561
▁governor	-3562
ole	-3563
anda	-3564
▁fac	-3565
▁immediately	-3566
mes	-3567
ums	-3568
▁neither	-3569
▁quarter	-3570
▁curi	-3571
▁threw	-3572
sen	-3573
enth	-3574
▁scene	-3575
sil	-3576
▁mike	-3577
▁puzzle	-3578
▁louis	-3579
ially	-3580
ables	-3581
▁holid	-3582
▁paint	-3583
action	-3584
ching	-3585
▁calm	-3586
▁watched	-3587
▁cere	-3588
reen	-3589
▁magic	-3590
▁dangerous	-3591
ga	-3592
chie	-3593
▁taste	-3594
▁surprised	-3595
▁easily	-3596
eds	-3597
▁actor	-3598
▁sett	-3599
▁wearing	-3600
▁hadn	-3601
▁dust	-3602
▁completely	-3603
▁lem	-3604
utenant	-3605
▁pin	-3606
▁eager	-3607
▁demand	-3608
itude	-3609
▁date	-3610
su	-3611
▁amb	-3612
heart	-3613
ories	-3614
▁naughty	-3615
fa	-3616
▁goin	-3617
▁onto	-3618
▁thinks	-3619
...?	-3620
▁energy	-3621
▁weap	-3622
▁cu	-3623
▁begin	-3624
▁row	-3625
▁→	-3626
▁effort	-3627
nie	-3628
▁ble	-3629
▁independ	-3630
▁dim	-3631
▁fruit	-3632
hered	-3633
▁sugar	-3634
▁goodness	-3635
▁twice	-3636
▁crew	-3637
▁marry	-3638
▁acad	-3639
▁purple	-3640
formed	-3641
ests	-3642
▁pulled	-3643
▁duty	-3644
▁society	-3645
face	-3646
▁kat	-3647
▁trave	-3648
cky	-3649
▁houses	-3650
▁influ	-3651
▁empty	-3652
▁meaning	-3653
bra	-3654
▁regard	-3655
ope	-3656
▁municipality	-3657
▁custom	-3658
ached	-3659
▁chat	-3660
▁travel	-3661
▁conv	-3662
▁imagine	-3663
▁allow	-3664
▁bor	-3665
ising	-3666
▁raised	-3667
▁wag	-3668
▁offe	-3669
▁arg	-3670
▁higher	-3671
▁lights	-3672
ita	-3673
▁anna	-3674
▁threat	-3675
▁franc	-3676
▁youth	-3677
asons	-3678
▁edge	-3679
▁snake	-3680
edy	-3681
pan	-3682
oc	-3683
▁neg	-3684
▁flight	-3685
▁notice	-3686
ples	-3687
▁simply	-3688
▁soul	-3689
sey	-3690
▁stream	-3691
▁plenty	-3692
▁tex	-3693
▁brush	-3694
▁boss	-3695
cast	-3696
▁roof	-3697
▁depend	-3698
▁formed	-3699
▁cheek	-3700
ography	-3701
▁filled	-3702
▁moves	-3703
hin	-3704
ram	-3705
▁produced	-3706
ivid	-3707
ashion	-3708
uckles	-3709
▁shirt	-3710
rid	-3711
▁scott	-3712
ship	-3713
▁mexic	-3714
▁double	-3715
▁settle	-3716
▁charlie	-3717
||0	-3718
▁experience	-3719
▁huge	-3720
oming	-3721
▁pleased	-3722
▁lieutenant	-3723
▁puppet	-3724
▁agree	-3725
▁gentlemen	-3726
▁deg	-3727
▁assist	-3728
fo	-3729
▁detect	-3730
vocalizes	-3731
▁wis	-3732
▁thick	-3733
▁fallen	-3734
▁vessel	-3735
illa	-3736
▁skin	-3737
▁supper	-3738
▁flag	-3739
11	-3740
ensive	-3741
ingly	-3742
▁princess	-3743
▁chem	-3744
▁ended	-3745
ctions	-3746
▁excited	-3747
▁expected	-3748
▁brave	-3749
▁manner	-3750
▁centre	-3751
▁opport	-3752
▁whoops	-3753
ival	-3754
ki	-3755
▁hug	-3756
▁martin	-3757
▁investig	-3758
fill	-3759
itor	-3760
▁feat	-3761
▁castle	-3762
▁maggie	-3763
▁mostly	-3764
may	-3765
▁offer	-3766
▁nea	-3767
▁button	-3768
▁doc	-3769
▁steven	-3770
▁continues	-3771
sib	-3772
▁singer	-3773
▁southern	-3774
▁necessary	-3775
▁believed	-3776
▁epis	-3777
▁susp	-3778
ession	-3779
▁purpose	-3780
▁promised	-3781
tw	-3782
picks	-3783
▁needta	-3784
▁definite	-3785
▁announced	-3786
brother	-3787
▁discuss	-3788
▁peas	-3789
sa	-3790
▁tone	-3791
elly	-3792
ette	-3793
▁drug	-3794
▁swing	-3795
▁journey	-3796
▁gift	-3797
▁ident	-3798
▁ocean	-3799
▁ancient	-3800
▁swimming	-3801
▁european	-3802
▁gentleman	-3803
cus	-3804
▁iv	-3805
▁brief	-3806
▁jose	-3807
▁opportun	-3808
anced	-3809
▁potato	-3810
rey	-3811
▁painting	-3812
berry	-3813
▁opening	-3814
▁ray	-3815
▁barb	-3816
▁thro	-3817
▁cousin	-3818
aches	-3819
▁bowl	-3820
▁flor	-3821
▁emb	-3822
ker	-3823
▁usual	-3824
.,	-3825
▁judge	-3826
▁total	-3827
▁choice	-3828
▁pleasant	-3829
▁jam	-3830
▁community	-3831
▁inj	-3832
▁symp	-3833
▁awful	-3834
▁saved	-3835
▁imm	-3836
▁hell	-3837
▁excell	-3838
▁earlier	-3839
▁evidence	-3840
▁blow	-3841
▁emer	-3842
▁smoke	-3843
▁mountains	-3844
puts	-3845
▁pra	-3846
▁officers	-3847
▁24	-3848
▁nurs	-3849
▁grown	-3850
▁wil	-3851
ushes	-3852
verse	-3853
▁craw	-3854
ledge	-3855
▁italian	-3856
▁pour	-3857
▁heads	-3858
▁message	-3859
▁guns	-3860
ba	-3861
ppy	-3862
▁orders	-3863
▁steam	-3864
▁moo	-3865
▁china	-3866
vere	-3867
▁impro	-3868
▁scot	-3869
▁stret	-3870
▁rat	-3871
▁election	-3872
lv	-3873
▁sele	-3874
▁democ	-3875
▁eld	-3876
▁runs	-3877
▁exe	-3878
▁fifteen	-3879
ero	-3880
usion	-3881
▁apparent	-3882
▁tears	-3883
▁carefully	-3884
▁laura	-3885
lor	-3886
▁piz	-3887
▁haha	-3888
ander	-3889
nal	-3890
▁earn	-3891
▁fault	-3892
▁env	-3893
▁shake	-3894
▁trail	-3895
▁phili	-3896
ruction	-3897
back	-3898
▁electric	-3899
tering	-3900
▁strength	-3901
▁grou	-3902
▁mistake	-3903
▁myster	-3904
▁jun	-3905
▁mut	-3906
▁medicine	-3907
▁grace	-3908
▁rapid	-3909
ators	-3910
▁listening	-3911
▁weight	-3912
▁gray	-3913
▁brothers	-3914
abel	-3915
bered	-3916
▁rule	-3917
▁movement	-3918
▁gaz	-3919
▁monster	-3920
▁terms	-3921
▁nurse	-3922
▁tong	-3923
▁keeping	-3924
nic	-3925
▁exist	-3926
▁friday	-3927
▁pic	-3928
▁seconds	-3929
iel	-3930
rot	-3931
▁delic	-3932
▁prime	-3933
▁attract	-3934
▁dancing	-3935
nding	-3936
▁fellows	-3937
takes	-3938
cip	-3939
▁fourth	-3940
▁deb	-3941
▁eve	-3942
▁interrupt	-3943
▁pir	-3944
▁knife	-3945
▁dirty	-3946
ossible	-3947
▁texas	-3948
▁growing	-3949
known	-3950
cries	-3951
▁golden	-3952
▁enc	-3953
▁russian	-3954
▁bark	-3955
▁occup	-3956
▁murder	-3957
▁kne	-3958
▁enter	-3959
▁noticed	-3960
▁slide	-3961
▁ordered	-3962
▁pause	-3963
▁choose	-3964
▁strugg	-3965
lling	-3966
▁glo	-3967
ening	-3968
arm	-3969
▁mult	-3970
▁telephone	-3971
▁science	-3972
▁newsp	-3973
▁obviously	-3974
with	-3975
▁relie	-3976
▁remo	-3977
kins	-3978
▁heat	-3979
ena	-3980
▁pair	-3981
gress	-3982
▁liber	-3983
soa	-3984
▁downstairs	-3985
▁detail	-3986
rie	-3987
▁lin	-3988
▁thee	-3989
▁shad	-3990
▁ly	-3991
▁bee	-3992
▁disp	-3993
cing	-3994
▁por	-3995
burg	-3996
▁estab	-3997
▁sli	-3998
▁191	-3999
▁oil	-4000
▁eleven	-4001
▁struck	-4002
▁horn	-4003
▁falls	-4004
▁remind	-4005
▁appoint	-4006
▁mission	-4007
cu	-4008
book	-4009
▁lap	-4010
lla	-4011
ration	-4012
▁rout	-4013
▁gal	-4014
▁thy	-4015
▁cards	-4016
▁dise	-4017
▁liter	-4018
mond	-4019
▁involved	-4020
▁meal	-4021
▁histor	-4022
ja	-4023
▁colonel	-4024
hal	-4025
ggie	-4026
rya	-4027
west	-4028
▁tells	-4029
▁otherwise	-4030
icated	-4031
▁alice	-4032
itation	-4033
iding	-4034
lle	-4035
urity	-4036
▁occur	-4037
▁vac	-4038
▁inqu	-4039
sm	-4040
▁lips	-4041
▁address	-4042
wing	-4043
▁stairs	-4044
▁sour	-4045
▁training	-4046
▁saf	-4047
see	-4048
▁bonnet	-4049
▁product	-4050
▁barn	-4051
▁impossible	-4052
▁brain	-4053
▁individ	-4054
▁calls	-4055
▁shoulder	-4056
▁washington	-4057
▁ross	-4058
▁grave	-4059
▁trade	-4060
istan	-4061
▁taught	-4062
▁published	-4063
▁weak	-4064
inese	-4065
▁magaz	-4066
▁teach	-4067
lebr	-4068
▁ned	-4069
▁plants	-4070
▁correct	-4071
▁smith	-4072
▁marriage	-4073
bri	-4074
▁bother	-4075
▁tap	-4076
hop	-4077
▁walks	-4078
▁evident	-4079
▁worried	-4080
aled	-4081
▁beauty	-4082
▁goodbye	-4083
▁italy	-4084
▁begins	-4085
▁bump	-4086
fly	-4087
▁remem	-4088
▁crown	-4089
▁prize	-4090
▁canada	-4091
30	-4092
ko	-4093
berg	-4094
▁native	-4095
▁ninety	-4096
▁title	-4097
good	-4098
▁desp	-4099
▁spoken	-4100
▁rocks	-4101
▁sis	-4102
isters	-4103
▁groups	-4104
▁bedroom	-4105
▁areas	-4106
▁championship	-4107
▁acqu	-4108
▁everywhere	-4109
▁tu	-4110
▁research	-4111
bel	-4112
▁bart	-4113
▁closer	-4114
▁na	-4115
▁plat	-4116
▁normal	-4117
▁spider	-4118
▁muse	-4119
▁toast	-4120
ordon	-4121
▁surr	-4122
▁actress	-4123
▁occasion	-4124
▁2018	-4125
▁crime	-4126
▁committ	-4127
▁dere	-4128
▁blind	-4129
wr	-4130
jen	-4131
▁rank	-4132
▁firm	-4133
▁range	-4134
▁rights	-4135
fic	-4136
▁celebr	-4137
▁sides	-4138
▁tum	-4139
istics	-4140
▁appre	-4141
lled	-4142
▁santa	-4143
mel	-4144
ively	-4145
▁print	-4146
▁produc	-4147
▁founded	-4148
▁wolf	-4149
▁grant	-4150
zil	-4151
ashing	-4152
hah	-4153
hest	-4154
llen	-4155
▁version	-4156
▁cred	-4157
▁uk	-4158
▁loss	-4159
ett	-4160
▁fixed	-4161
▁sixty	-4162
▁[?	-4163
ping	-4164
▁wrest	-4165
▁forgotten	-4166
▁plans	-4167
▁eastern	-4168
▁ram	-4169
▁loves	-4170
▁claim	-4171
▁motion	-4172
▁changes	-4173
gi	-4174
▁prepared	-4175
▁papa	-4176
▁finding	-4177
oured	-4178
▁smaller	-4179
erson	-4180
rish	-4181
▁development	-4182
▁wheels	-4183
▁beep	-4184
▁tries	-4185
gypt	-4186
▁division	-4187
rs	-4188
ez	-4189
▁shell	-4190
▁female	-4191
,000	-4192
▁pool	-4193
⌉.	-4194
yy	-4195
▁lor	-4196
▁greater	-4197
▁drinking	-4198
▁pizza	-4199
▁africa	-4200
▁spain	-4201
▁chinese	-4202
▁som	-4203
bes	-4204
peter	-4205
----------------	-4206
▁purdie	-4207
aked	-4208
▁generally	-4209
pet	-4210
sighs	-4211
ndered	-4212
▁shown	-4213
bell	-4214
▁mister	-4215
▁aged	-4216
host	-4217
▁artist	-4218
▁managed	-4219
▁located	-4220
ences	-4221
▁oli	-4222
▁mud	-4223
▁rang	-4224
▁brazil	-4225
▁entertain	-4226
▁definitely	-4227
▁kim	-4228
▁studio	-4229
aling	-4230
▁quietly	-4231
eman	-4232
▁rules	-4233
▁egypt	-4234
1)	-4235
▁batter	-4236
iction	-4237
▁reaches	-4238
⌋.	-4239
▁oo	-4240
▁jumped	-4241
▁rate	-4242
▁tract	-4243
▁students	-4244
▁whist	-4245
▁channel	-4246
▁21	-4247
▁tie	-4248
oughs	-4249
▁uses	-4250
▁ninet	-4251
▁risk	-4252
mn	-4253
new	-4254
▁throat	-4255
▁unc	-4256
▁manager	-4257
▁speech	-4258
ify	-4259
▁ast	-4260
ano	-4261
▁salt	-4262
▁farmer	-4263
▁contract	-4264
▁fif	-4265
▁admin	-4266
▁events	-4267
▁valley	-4268
looking	-4269
turn	-4270
▁cases	-4271
▁sandwich	-4272
ele	-4273
▁()	-4274
▁cru	-4275
▁shel	-4276
▁trick	-4277
▁uhuh	-4278
pr	-4279
cra	-4280
lands	-4281
▁stir	-4282
▁rust	-4283
▁sword	-4284
▁coach	-4285
▁records	-4286
▁libr	-4287
dies	-4288
||1	-4289
▁possibly	-4290
▁opportunity	-4291
▁carrying	-4292
▁practice	-4293
▁sports	-4294
oted	-4295
▁fashion	-4296
-1	-4297
▁fra	-4298
▁continue	-4299
▁gor	-4300
▁remained	-4301
▁proceed	-4302
▁model	-4303
▁softly	-4304
▁scr	-4305
▁parli	-4306
▁secretary	-4307
▁doors	-4308
▁neighbor	-4309
▁papers	-4310
▁showing	-4311
▁security	-4312
▁mail	-4313
aud	-4314
▁riding	-4315
▁poet	-4316
▁airport	-4317
▁gordon	-4318
▁greatest	-4319
▁bits	-4320
▁perm	-4321
▁victim	-4322
▁commander	-4323
▁surface	-4324
2)	-4325
▁appearance	-4326
▁si	-4327
▁ladd	-4328
▁’	-4329
▁hmm	-4330
▁leading	-4331
▁zoo	-4332
▁wedding	-4333
▁cit	-4334
▁wine	-4335
▁determ	-4336
▁condition	-4337
▁bac	-4338
▁bike	-4339
▁peek	-4340
when	-4341
▁nope	-4342
▁faces	-4343
▁ruth	-4344
▁upset	-4345
▁stayed	-4346
▁opin	-4347
atives	-4348
ems	-4349
rick	-4350
boy	-4351
▁boats	-4352
▁crash	-4353
babbles	-4354
▁monday	-4355
▁23	-4356
▁percent	-4357
▁services	-4358
▁dick	-4359
▁islands	-4360
cho	-4361
▁swit	-4362
▁parliament	-4363
ela	-4364
▁suggested	-4365
▁kinds	-4366
▁fund	-4367
--"	-4368
buted	-4369
▁austri	-4370
▁committee	-4371
igs	-4372
▁avail	-4373
▁artic	-4374
note	-4375
▁bare	-4376
▁style	-4377
▁(20	-4378
▁suspect	-4379
▁novel	-4380
met	-4381
▁helping	-4382
▁dread	-4383
▁rings	-4384
▁stands	-4385
▁nineteen	-4386
▁empire	-4387
▁contact	-4388
hic	-4389
▁ghost	-4390
▁hind	-4391
▁instit	-4392
▁tool	-4393
hips	-4394
aning	-4395
▁evil	-4396
▁[2	-4397
▁rope	-4398
▁penn	-4399
▁olympics	-4400
▁intell	-4401
▁suc	-4402
▁yup	-4403
het	-4404
sta	-4405
▁addition	-4406
▁hook	-4407
▁walls	-4408
▁q	-4409
▁kar	-4410
worth	-4411
▁decision	-4412
▁ships	-4413
▁psy	-4414
▁bessie	-4415
iron	-4416
mark	-4417
▁mont	-4418
▁francis	-4419
▁dare	-4420
▁swed	-4421
▁afterwards	-4422
▁awards	-4423
eted	-4424
▁forces	-4425
dra	-4426
▁offered	-4427
▁arab	-4428
▁tradition	-4429
▁opposite	-4430
isa	-4431
▁mate	-4432
▁formula	-4433
▁ourselves	-4434
▁holiday	-4435
▁sake	-4436
▁easier	-4437
▁official	-4438
▁ski	-4439
▁hal	-4440
▁constit	-4441
▁marg	-4442
▁domin	-4443
▁keeps	-4444
▁tongue	-4445
▁balloon	-4446
▁vocal	-4447
▁victor	-4448
▁extreme	-4449
▁pow	-4450
ala	-4451
ounce	-4452
iety	-4453
▁sees	-4454
▁hay	-4455
▁pump	-4456
▁staff	-4457
▁shock	-4458
▁chris	-4459
▁illustr	-4460
▁rod	-4461
▁yyy	-4462
rely	-4463
▁cities	-4464
▁younger	-4465
fr	-4466
▁ideas	-4467
ours	-4468
▁bringing	-4469
cont	-4470
ounds	-4471
▁surely	-4472
▁foreign	-4473
▁jeff	-4474
cise	-4475
▁willing	-4476
ola	-4477
▁trunk	-4478
▁inn	-4479
▁lawyer	-4480
▁apparently	-4481
▁mort	-4482
▁reck	-4483
▁soldier	-4484
▁directly	-4485
any	-4486
▁fis	-4487
▁wise	-4488
▁glasses	-4489
▁administ	-4490
▁bum	-4491
tles	-4492
▁kore	-4493
▁presently	-4494
▁gab	-4495
▁safety	-4496
▁frightened	-4497
▁freed	-4498
▁string	-4499
▁tank	-4500
▁attend	-4501
▁brilli	-4502
▁disappoint	-4503
▁asse	-4504
▁maid	-4505
▁players	-4506
▁22	-4507
bu	-4508
▁sits	-4509
▁gy	-4510
▁perfectly	-4511
▁aver	-4512
▁retired	-4513
▁~	-4514
▁190	-4515
▁harm	-4516
▁knight	-4517
▁50	-4518
onse	-4519
▁narrow	-4520
▁chic	-4521
▁desk	-4522
ases	-4523
▁les	-4524
▁towel	-4525
▁schools	-4526
mus	-4527
▁whispered	-4528
▁patient	-4529
did	-4530
▁knee	-4531
▁male	-4532
chuckles	-4533
▁trop	-4534
▁democrat	-4535
▁lim	-4536
▁memory	-4537
▁ven	-4538
▁2000	-4539
▁academy	-4540
▁magn	-4541
aret	-4542
▁settled	-4543
▁shopping	-4544
▁virgin	-4545
▁excellent	-4546
▁eighty	-4547
▁avo	-4548
ini	-4549
eping	-4550
▁furn	-4551
▁successful	-4552
▁comfortable	-4553
▁clown	-4554
▁joseph	-4555
year	-4556
▁cloth	-4557
▁boots	-4558
▁doin	-4559
war	-4560
stood	-4561
abeth	-4562
chester	-4563
▁forever	-4564
▁indust	-4565
▁tid	-4566
▁eliz	-4567
▁smiled	-4568
silence	-4569
kar	-4570
▁fest	-4571
▁ou	-4572
....	-4573
▁airpl	-4574
▁benef	-4575
▁dutch	-4576
ais	-4577
ression	-4578
▁circum	-4579
▁anxious	-4580
▁knowing	-4581
izing	-4582
▁shouted	-4583
bon	-4584
vey	-4585
▁pier	-4586
▁buddy	-4587
▁nursery	-4588
▁silent	-4589
▁microphone	-4590
▁copy	-4591
▁text	-4592
▁feels	-4593
▁forced	-4594
▁chairman	-4595
▁jones	-4596
▁knowledge	-4597
▁decide	-4598
▁museum	-4599
ials	-4600
law	-4601
▁bathroom	-4602
rif	-4603
▁succeed	-4604
▁dinosaur	-4605
__	-4606
ji	-4607
▁lind	-4608
▁metal	-4609
▁waited	-4610
will	-4611
▁2,	-4612
nods	-4613
jam	-4614
▁resc	-4615
▁fancy	-4616
filler	-4617
-19	-4618
jes	-4619
▁biggest	-4620
▁fairy	-4621
▁prove	-4622
iano	-4623
▁neat	-4624
▁coo	-4625
▁thor	-4626
▁struct	-4627
ern	-4628
mad	-4629
50	-4630
fection	-4631
▁writer	-4632
ado	-4633
ota	-4634
▁admir	-4635
rows	-4636
▁explained	-4637
vert	-4638
▁rome	-4639
fortun	-4640
▁mamma	-4641
lig	-4642
esty	-4643
▁mentioned	-4644
▁sav	-4645
▁stro	-4646
▁wings	-4647
▁fairly	-4648
▁particularly	-4649
▁cute	-4650
▁pencil	-4651
▁bern	-4652
▁eaten	-4653
ev	-4654
▁soup	-4655
▁ry	-4656
▁inno	-4657
▁hills	-4658
itar	-4659
▁shook	-4660
▁smiling	-4661
put	-4662
▁rush	-4663
▁appreci	-4664
▁upper	-4665
▁log	-4666
▁teams	-4667
▁reply	-4668
▁network	-4669
▁diam	-4670
▁realize	-4671
aching	-4672
▁medical	-4673
▁keys	-4674
”.	-4675
▁included	-4676
▁somewhat	-4677
▁kinda	-4678
▁hanging	-4679
▁developed	-4680
▁brook	-4681
▁sla	-4682
inger	-4683
hs	-4684
▁jean	-4685
▁signed	-4686
▁faster	-4687
▁yard	-4688
▁fence	-4689
▁highest	-4690
mend	-4691
▁26	-4692
▁brilliant	-4693
▁holy	-4694
▁congress	-4695
▁metho	-4696
ckey	-4697
▁vent	-4698
than	-4699
▁shr	-4700
▁larger	-4701
▁archi	-4702
▁forgive	-4703
wh	-4704
hab	-4705
▁pages	-4706
▁passing	-4707
▁studied	-4708
▁thoughts	-4709
uly	-4710
▁ni	-4711
▁bid	-4712
▁duh	-4713
▁matters	-4714
▁clearly	-4715
ental	-4716
▁roger	-4717
sequ	-4718
▁escap	-4719
▁territ	-4720
▁flew	-4721
▁pau	-4722
▁chuck	-4723
▁ron	-4724
▁witness	-4725
▁fal	-4726
▁scarce	-4727
▁disease	-4728
▁andy	-4729
▁site	-4730
▁respo	-4731
reg	-4732
aries	-4733
atory	-4734
▁pred	-4735
▁giant	-4736
▁nerv	-4737
▁indians	-4738
▁vote	-4739
iii	-4740
urb	-4741
ache	-4742
▁cub	-4743
▁powerful	-4744
▁yay	-4745
▁speci	-4746
voc	-4747
oned	-4748
▁afford	-4749
di	-4750
cel	-4751
▁transport	-4752
▁hunt	-4753
▁beast	-4754
▁release	-4755
ners	-4756
▁sin	-4757
▁assemb	-4758
▁nomin	-4759
▁waste	-4760
▁veget	-4761
▁response	-4762
acher	-4763
▁gang	-4764
▁hearing	-4765
chief	-4766
▁properly	-4767
▁repeated	-4768
▁--	-4769
▁ren	-4770
▁exer	-4771
▁serve	-4772
aft	-4773
bar	-4774
▁gain	-4775
▁surv	-4776
▁wondering	-4777
hum	-4778
▁opens	-4779
▁shh	-4780
▁pressure	-4781
"]	-4782
ere	-4783
▁prefer	-4784
▁fran	-4785
▁talks	-4786
▁blanket	-4787
bbles	-4788
aren	-4789
down	-4790
▁[3	-4791
ires	-4792
▁gather	-4793
▁environ	-4794
▁episode	-4795
miss	-4796
▁folks	-4797
place	-4798
▁horsie	-4799
▁wid	-4800
▁scrat	-4801
▁depart	-4802
▁planet	-4803
▁reve	-4804
▁skill	-4805
▁ess	-4806
▁florida	-4807
▁prepar	-4808
rol	-4809
▁arth	-4810
▁pear	-4811
fall	-4812
▁haw	-4813
▁russia	-4814
umn	-4815
▁chicago	-4816
erp	-4817
▁madam	-4818
▁library	-4819
▁feelings	-4820
▁chest	-4821
rison	-4822
▁mile	-4823
▁types	-4824
sit	-4825
▁acting	-4826
ania	-4827
ingu	-4828
▁gat	-4829
▁cancer	-4830
kat	-4831
▁bran	-4832
▁palace	-4833
eg	-4834
▁amazing	-4835
▁screw	-4836
▁justice	-4837
▁cats	-4838
▁goal	-4839
▁magazine	-4840
unts	-4841
▁thrown	-4842
▁association	-4843
▁related	-4844
▁elected	-4845
ification	-4846
▁os	-4847
raph	-4848
▁sink	-4849
▁value	-4850
▁concerned	-4851
▁grandmother	-4852
fle	-4853
holic	-4854
▁fired	-4855
▁theory	-4856
▁baseball	-4857
bly	-4858
▁emper	-4859
▁—	-4860
▁boom	-4861
▁pushed	-4862
▁arrange	-4863
▁hurried	-4864
oura	-4865
ulty	-4866
▁bol	-4867
▁property	-4868
▁disappeared	-4869
▁map	-4870
▁latter	-4871
tons	-4872
▁27	-4873
▁available	-4874
uments	-4875
▁kenn	-4876
▁remarked	-4877
aly	-4878
bout	-4879
▁positive	-4880
▁serge	-4881
▁1.	-4882
▁squir	-4883
▁trains	-4884
lend	-4885
▁ken	-4886
▁lara	-4887
▁cher	-4888
▁remembered	-4889
▁favour	-4890
▁tractor	-4891
▁canad	-4892
▁burst	-4893
▁understood	-4894
▁progress	-4895
asp	-4896
▁fishing	-4897
▁opinion	-4898
ware	-4899
▁weeke	-4900
▁promot	-4901
7)	-4902
rael	-4903
donald	-4904
▁rot	-4905
holds	-4906
▁worst	-4907
▁tip	-4908
▁cooking	-4909
▁steve	-4910
mic	-4911
pret	-4912
▁woo	-4913
▁fought	-4914
ansas	-4915
cream	-4916
▁bin	-4917
▁unfortun	-4918
▁brand	-4919
▁cliff	-4920
nam	-4921
▁grandpa	-4922
ift	-4923
▁fan	-4924
dro	-4925
▁knocked	-4926
▁tough	-4927
▁languages	-4928
▁atl	-4929
▁qual	-4930
▁doggie	-4931
▁edward	-4932
lim	-4933
aws	-4934
▁pean	-4935
▁jerry	-4936
▁seriously	-4937
▁angel	-4938
▁ali	-4939
▁clou	-4940
▁thin	-4941
▁dozen	-4942
▁throwing	-4943
▁magnet	-4944
▁tha	-4945
ension	-4946
▁weird	-4947
▁confir	-4948
bow	-4949
▁agent	-4950
▁lone	-4951
▁policy	-4952
viet	-4953
▁aware	-4954
▁wished	-4955
▁penny	-4956
0,000	-4957
▁protest	-4958
▁29	-4959
opher	-4960
ona	-4961
▁relationship	-4962
▁merry	-4963
▁staying	-4964
aign	-4965
▁failed	-4966
▁screen	-4967
▁revolution	-4968
iggles	-4969
▁darkness	-4970
▁butterfly	-4971
▁ellie	-4972
whispers	-4973
▁stones	-4974
▁ire	-4975
▁greek	-4976
▁treasure	-4977
▁jon	-4978
▁advant	-4979
▁friendly	-4980
inated	-4981
▁drawn	-4982
▁wave	-4983
▁bent	-4984
▁fond	-4985
▁rise	-4986
road	-4987
▁cups	-4988
▁tent	-4989
▁jimmy	-4990
▁voices	-4991
▁joke	-4992
▁tommy	-4993
▁nation	-4994
ients	-4995
▁dada	-4996
▁gently	-4997
▁average	-4998
▁gradu	-4999
▁ign	-5000
▁fully	-5001
etch	-5002
▁init	-5003
▁previous	-5004
▁garage	-5005
quar	-5006
▁[$	-5007
▁sweetheart	-5008
▁189	-5009
▁compos	-5010
▁fortune	-5011
▁medal	-5012
arr	-5013
▁commission	-5014
▁throughout	-5015
▁ga	-5016
eta	-5017
▁material	-5018
craft	-5019
▁drama	-5020
▁environment	-5021
▁freedom	-5022
▁section	-5023
▁cot	-5024
▁ends	-5025
▁lies	-5026
_.	-5027
scream	-5028
▁hunting	-5029
▁tied	-5030
fficient	-5031
▁odd	-5032
vering	-5033
▁mirror	-5034
▁buck	-5035
was	-5036
morrow	-5037
▁dom	-5038
▁campaign	-5039
▁somehow	-5040
▁blo	-5041
rying	-5042
▁execut	-5043
▁shooting	-5044
▁bush	-5045
▁crayons	-5046
▁"'	-5047
7]	-5048
▁courage	-5049
▁leaf	-5050
▁drove	-5051
▁australian	-5052
▁28	-5053
hire	-5054
mary	-5055
▁loose	-5056
asc	-5057
▁fant	-5058
bble	-5059
▁cookies	-5060
▁mexico	-5061
ti	-5062
▁statistics	-5063
sn	-5064
▁candy	-5065
▁hammer	-5066
▁activity	-5067
▁communic	-5068
▁sang	-5069
▁african	-5070
▁airplane	-5071
▁production	-5072
▁entirely	-5073
dis	-5074
▁pak	-5075
▁mixed	-5076
▁plastic	-5077
▁comment	-5078
▁feather	-5079
▁¶	-5080
▁hockey	-5081
▁nail	-5082
▁familiar	-5083
▁hidden	-5084
▁troops	-5085
▁excit	-5086
▁frequ	-5087
▁robb	-5088
▁buried	-5089
▁fart	-5090
▁ahhah	-5091
▁pulling	-5092
▁shoulders	-5093
▁anti	-5094
▁knees	-5095
▁quack	-5096
▁strike	-5097
▁grandfather	-5098
▁aim	-5099
▁review	-5100
▁fold	-5101
erpill	-5102
rees	-5103
▁dump	-5104
▁mummie	-5105
▁advice	-5106
▁signal	-5107
▁drops	-5108
▁sposta	-5109
▁entr	-5110
▁jos	-5111
▁cash	-5112
▁pros	-5113
▁figures	-5114
▁media	-5115
▁shan	-5116
▁vic	-5117
▁touched	-5118
ilities	-5119
▁israel	-5120
▁boxes	-5121
▁citiz	-5122
hh	-5123
▁totally	-5124
▁becoming	-5125
▁bul	-5126
▁reasons	-5127
mbol	-5128
some	-5129
▁plus	-5130
▁caterpill	-5131
▁ko	-5132
▁gosh	-5133
▁dreams	-5134
▁characters	-5135
▁aft	-5136
▁newspaper	-5137
▁socks	-5138
▁reported	-5139
▁task	-5140
▁ward	-5141
▁majesty	-5142
▁presence	-5143
▁pant	-5144
ishment	-5145
▁objects	-5146
▁refle	-5147
▁currently	-5148
mi	-5149
▁puppy	-5150
▁jumping	-5151
▁realized	-5152
▁dying	-5153
▁stops	-5154
angle	-5155
▁mayor	-5156
yl	-5157
ibility	-5158
▁ireland	-5159
▁circumst	-5160
▁determined	-5161
roz	-5162
▁damage	-5163
sar	-5164
▁horri	-5165
▁stranger	-5166
▁expression	-5167
foot	-5168
sters	-5169
▁winn	-5170
▁aside	-5171
▁	-5172
e	-5173
t	-5174
o	-5175
a	-5176
i	-5177
n	-5178
h	-5179
s	-5180
r	-5181
l	-5182
d	-5183
m	-5184
u	-5185
c	-5186
.	-5187
y	-5188
w	-5189
g	-5190
f	-5191
p	-5192
b	-5193
:	-5194
*	-5195
,	-5196
k	-5197
v	-5198
'	-5199
?	-5200
"	-5201
-	-5202
x	-5203
j	-5204
=	-5205
]	-5206
[	-5207
!	-5208
1	-5209
0	-5210
2	-5211
z	-5212
9	-5213
q	-5214
)	-5215
(	-5216
;	-5217
3	-5218
“	-5219
”	-5220
’	-5221
8	-5222
5	-5223
4	-5224
7	-5225
6	-5226
_	-5227
%	-5228
/	-5229
|	-5230
♪	-5231
–	-5232
—	-5233
+	-5234
é	-5235
#	-5236
$	-5237
á	-5238
&	-5239
‘	-5240
í	-5241
⌈	-5242
⌋	-5243
⌉	-5244
⌊	-5245
→	-5246
ö	-5247
ü	-5248
~	-5249
è	-5250
ó	-5251
`	-5252
¶	-5253
ä	-5254
―	-5255
}	-5256
ō	-5257
ñ	-5258
°	-5259
{	-5260
ú	-5261
─	-5262
æ	-5263
ç	-5264
â	-5265
ô	-5266
\	-5267
✿	-5268
ã	-5269
ā	-5270
š	-5271
£	-5272
ć	-5273
à	-5274
́	-5275
ø	-5276
•	-5277
ū	-5278
ê	-5279
↗	-5280
ł	-5281
↫	-5282
@	-5283
ë	-5284
å	-5285
č	-5286
î	-5287
♫	-5288
ß	-5289
ă	-5290
ş	-5291
§	-5292
ï	-5293
⁄	-5294
œ	-5295
ı	-5296
ì	-5297
	-5298
ī	-5299
×	-5300
ž	-5301
¡	-5302
¿	-5303
©	-5304
·	-5305
ý	-5306
ð	-5307
ș	-5308
ń	-5309
€	-5310
ò	-5311
−	-5312
^	-5313
ś	-5314
	-5315
¤	-5316
′	-5317
∆	-5318
ř	-5319
þ	-5320
∙	-5321
đ	-5322
û	-5323
­	-5324
ğ	-5325
ː	-5326
ˈ	-5327
õ	-5328
ù	-5329
ě	-5330
⁎	-5331
ē	-5332
ə	-5333
	-5334
ț	-5335
ż	-5336
ő	-5337
İ	-5338
ę	-5339
¢	-5340
ą	-5341
±	-5342
ţ	-5343
ʻ	-5344
ʼ	-5345
ṟ	-5346
„	-5347
‡	-5348
η	-5349
ṯ	-5350
ṭ	-5351
ả	-5352
ḥ	-5353
ệ	-5354
ɪ	-5355
ー	-5356
ɛ	-5357
÷	-5358
	-5359
ė	-5360
ź	-5361
ư	-5362
®	-5363
>	-5364
̶	-5365
ĕ	-5366
ồ	-5367
»	-5368
†	-5369
ʿ	-5370
«	-5371
ɑ	-5372
ṉ	-5373
ṣ	-5374
‭	-5375
ň	-5376
ọ	-5377
¦	-5378
ÿ	-5379
ů	-5380
	-5381
ǎ	-5382
་	-5383
¬	-5384
ŋ	-5385
॥	-5386
ɔ	-5387
▔	-5388
ʊ	-5389
←	-5390
ạ	-5391
	-5392
ẩ	-5393
ờ	-5394
ʾ	-5395
ũ	-5396
ế	-5397
¥	-5398
ṇ	-5399
ễ	-5400
∇	-5401
・	-5402
ứ	-5403
♭	-5404
ŭ	-5405
ʃ	-5406
α	-5407
⟨	-5408
⟩	-5409
	-5410
ŵ	-5411
ộ	-5412
ņ	-5413
ơ	-5414
ố	-5415
‐	-5416
ʒ	-5417
ν	-5418
।	-5419
ṃ	-5420
ˌ	-5421
∞	-5422
ġ	-5423
₹	-5424
█	-5425
○	-5426
ķ	-5427
ŏ	-5428
ε	-5429
ј	-5430
٤	-5431
ề	-5432
ị	-5433
<	-5434
	-5435
ƒ	-5436
‚	-5437
ĭ	-5438
ǫ	-5439
ʔ	-5440
ο	-5441
؟	-5442
١	-5443
ḍ	-5444
∴	-5445
į	-5446
ľ	-5447
ť	-5448
ŷ	-5449
ǔ	-5450
ʌ	-5451
	-5452
	-5453
ɐ	-5454
ɡ	-5455
ɣ	-5456
↑	-5457
ɾ	-5458
٥	-5459
₤	-5460
≤	-5461
ĩ	-5462
ɫ	-5463
ʁ	-5464
٢	-5465
٧	-5466
٨	-5467
།	-5468
ẓ	-5469
♯	-5470
	-5471
	-5472
	-5473
	-5474
ď	-5475
ĝ	-5476
ļ	-5477
υ	-5478
ḻ	-5479
ớ	-5480
₩	-5481
√	-5482
≥	-5483
☆	-5484
⬄	-5485
	-5486
ĥ	-5487
ǁ	-5488
ǐ	-5489
ɒ	-5490
ɦ	-5491
ʋ	-5492
ʘ	-5493
ˆ	-5494
τ	-5495
ـ	-5496
٦	-5497
१	-5498
ẻ	-5499
ụ	-5500
ữ	-5501
‍	-5502
⁂	-5503
	-5504
	-5505
ĉ	-5506
ħ	-5507
ŝ	-5508
ű	-5509
ǒ	-5510
ǝ	-5511
ɕ	-5512
ủ	-5513
ỹ	-5514
⁠	-5515
★	-5516
☺	-5517
✡	-5518
	-5519
	-5520
ɯ	-5521
ɲ	-5522
ɹ	-5523
ʏ	-5524
٩	-5525
ḷ	-5526
ṓ	-5527
ậ	-5528
ắ	-5529
ẹ	-5530
∘	-5531
≈	-5532
⋅	-5533
	-5534
	-5535
ĵ	-5536
ǂ	-5537
ǚ	-5538
ǵ	-5539
ɨ	-5540
ɩ	-5541
˧	-5542
ව	-5543
ḫ	-5544
ṅ	-5545
ầ	-5546
ẽ	-5547
ổ	-5548
ỳ	-5549
‖	-5550
※	-5551
₱	-5552
₵	-5553
≠	-5554
●	-5555
♥	-5556
、	-5557
ƌ	-5558
ȝ	-5559
ɘ	-5560
ɜ	-5561
ʇ	-5562
ʕ	-5563
ˊ	-5564
ˋ	-5565
״	-5566
ṛ	-5567
ấ	-5568
ằ	-5569
ỉ	-5570
ử	-5571
‬	-5572
‰	-5573
∂	-5574
∈	-5575
∗	-5576
∝	-5577
≡	-5578
「	-5579
」	-5580
	-5581
	-5582
ŧ	-5583
ƿ	-5584
ǣ	-5585
ǧ	-5586
ǩ	-5587
ɂ	-5588
ɳ	-5589
ʂ	-5590
ʈ	-5591
ʎ	-5592
ʐ	-5593
ʹ	-5594
ˇ	-5595
а	-5596
б	-5597
с	-5598
३	-5599
४	-5600
५	-5601
ය	-5602
ා	-5603
ේ	-5604
၁	-5605
ḿ	-5606
ṁ	-5607
ṙ	-5608
ẏ	-5609
ể	-5610
ở	-5611
ự	-5612
⊙	-5613
◉	-5614
☃	-5615
☻	-5616
✅	-5617
✙	-5618
❌	-5619
〜	-5620
ꜧ	-5621
ꞯ	-5622
	-5623
ģ	-5624
ĺ	-5625
ŕ	-5626
ų	-5627
ƅ	-5628
ǃ	-5629
ǹ	-5630
ȁ	-5631
ȃ	-5632
ɖ	-5633
ɗ	-5634
ɝ	-5635
ɟ	-5636
ɥ	-5637
ɮ	-5638
ɶ	-5639
ɷ	-5640
ɸ	-5641
ɺ	-5642
ʑ	-5643
ʙ	-5644
ʝ	-5645
ʟ	-5646
ʧ	-5647
ʽ	-5648
ˀ	-5649
˥	-5650
˦	-5651
˩	-5652
̈	-5653
β	-5654
й	-5655
к	-5656
м	-5657
о	-5658
у	-5659
ш	-5660
я	-5661
־	-5662
۞	-5663
۰	-5664
०	-5665
६	-5666
७	-5667
८	-5668
९	-5669
ආ	-5670
ජ	-5671
බ	-5672
ු	-5673
ෝ	-5674
၀	-5675
၃	-5676
၄	-5677
၅	-5678
၆	-5679
၇	-5680
၈	-5681
၉	-5682
᚛	-5683
᚜	-5684
០	-5685
១	-5686
២	-5687
៣	-5688
៤	-5689
៥	-5690
៦	-5691
៧	-5692
៨	-5693
៩	-5694
ḋ	-5695
ḏ	-5696
ḗ	-5697
ḡ	-5698
ḩ	-5699
ḱ	-5700
ḵ	-5701
ṗ	-5702
ṫ	-5703
ṳ	-5704
ṹ	-5705
ẵ	-5706
ặ	-5707
ỏ	-5708
ỗ	-5709
ợ	-5710
‿	-5711
⁣	-5712
₣	-5713
₿	-5714
↊	-5715
↋	-5716
∉	-5717
∼	-5718
≒	-5719
▼	-5720
☉	-5721
☐	-5722
☚	-5723
☛	-5724
☣	-5725
☭	-5726
☯	-5727
♄	-5728
♑	-5729
♒	-5730
♠	-5731
♡	-5732
♮	-5733
✚	-5734
❤	-5735
⬱	-5736
ⱡ	-5737
。	-5738
〉	-5739
