<unk>	0
<s>	0
</s>	0
<pad>	0
<0x00>	0
<0x01>	0
<0x02>	0
<0x03>	0
<0x04>	0
<0x05>	0
<0x06>	0
<0x07>	0
<0x08>	0
<0x09>	0
<0x0A>	0
<0x0B>	0
<0x0C>	0
<0x0D>	0
<0x0E>	0
<0x0F>	0
<0x10>	0
<0x11>	0
<0x12>	0
<0x13>	0
<0x14>	0
<0x15>	0
<0x16>	0
<0x17>	0
<0x18>	0
<0x19>	0
<0x1A>	0
<0x1B>	0
<0x1C>	0
<0x1D>	0
<0x1E>	0
<0x1F>	0
<0x20>	0
<0x21>	0
<0x22>	0
<0x23>	0
<0x24>	0
<0x25>	0
<0x26>	0
<0x27>	0
<0x28>	0
<0x29>	0
<0x2A>	0
<0x2B>	0
<0x2C>	0
<0x2D>	0
<0x2E>	0
<0x2F>	0
<0x30>	0
<0x31>	0
<0x32>	0
<0x33>	0
<0x34>	0
<0x35>	0
<0x36>	0
<0x37>	0
<0x38>	0
<0x39>	0
<0x3A>	0
<0x3B>	0
<0x3C>	0
<0x3D>	0
<0x3E>	0
<0x3F>	0
<0x40>	0
<0x41>	0
<0x42>	0
<0x43>	0
<0x44>	0
<0x45>	0
<0x46>	0
<0x47>	0
<0x48>	0
<0x49>	0
<0x4A>	0
<0x4B>	0
<0x4C>	0
<0x4D>	0
<0x4E>	0
<0x4F>	0
<0x50>	0
<0x51>	0
<0x52>	0
<0x53>	0
<0x54>	0
<0x55>	0
<0x56>	0
<0x57>	0
<0x58>	0
<0x59>	0
<0x5A>	0
<0x5B>	0
<0x5C>	0
<0x5D>	0
<0x5E>	0
<0x5F>	0
<0x60>	0
<0x61>	0
<0x62>	0
<0x63>	0
<0x64>	0
<0x65>	0
<0x66>	0
<0x67>	0
<0x68>	0
<0x69>	0
<0x6A>	0
<0x6B>	0
<0x6C>	0
<0x6D>	0
<0x6E>	0
<0x6F>	0
<0x70>	0
<0x71>	0
<0x72>	0
<0x73>	0
<0x74>	0
<0x75>	0
<0x76>	0
<0x77>	0
<0x78>	0
<0x79>	0
<0x7A>	0
<0x7B>	0
<0x7C>	0
<0x7D>	0
<0x7E>	0
<0x7F>	0
<0x80>	0
<0x81>	0
<0x82>	0
<0x83>	0
<0x84>	0
<0x85>	0
<0x86>	0
<0x87>	0
<0x88>	0
<0x89>	0
<0x8A>	0
<0x8B>	0
<0x8C>	0
<0x8D>	0
<0x8E>	0
<0x8F>	0
<0x90>	0
<0x91>	0
<0x92>	0
<0x93>	0
<0x94>	0
<0x95>	0
<0x96>	0
<0x97>	0
<0x98>	0
<0x99>	0
<0x9A>	0
<0x9B>	0
<0x9C>	0
<0x9D>	0
<0x9E>	0
<0x9F>	0
<0xA0>	0
<0xA1>	0
<0xA2>	0
<0xA3>	0
<0xA4>	0
<0xA5>	0
<0xA6>	0
<0xA7>	0
<0xA8>	0
<0xA9>	0
<0xAA>	0
<0xAB>	0
<0xAC>	0
<0xAD>	0
<0xAE>	0
<0xAF>	0
<0xB0>	0
<0xB1>	0
<0xB2>	0
<0xB3>	0
<0xB4>	0
<0xB5>	0
<0xB6>	0
<0xB7>	0
<0xB8>	0
<0xB9>	0
<0xBA>	0
<0xBB>	0
<0xBC>	0
<0xBD>	0
<0xBE>	0
<0xBF>	0
<0xC0>	0
<0xC1>	0
<0xC2>	0
<0xC3>	0
<0xC4>	0
<0xC5>	0
<0xC6>	0
<0xC7>	0
<0xC8>	0
<0xC9>	0
<0xCA>	0
<0xCB>	0
<0xCC>	0
<0xCD>	0
<0xCE>	0
<0xCF>	0
<0xD0>	0
<0xD1>	0
<0xD2>	0
<0xD3>	0
<0xD4>	0
<0xD5>	0
<0xD6>	0
<0xD7>	0
<0xD8>	0
<0xD9>	0
<0xDA>	0
<0xDB>	0
<0xDC>	0
<0xDD>	0
<0xDE>	0
<0xDF>	0
<0xE0>	0
<0xE1>	0
<0xE2>	0
<0xE3>	0
<0xE4>	0
<0xE5>	0
<0xE6>	0
<0xE7>	0
<0xE8>	0
<0xE9>	0
<0xEA>	0
<0xEB>	0
<0xEC>	0
<0xED>	0
<0xEE>	0
<0xEF>	0
<0xF0>	0
<0xF1>	0
<0xF2>	0
<0xF3>	0
<0xF4>	0
<0xF5>	0
<0xF6>	0
<0xF7>	0
<0xF8>	0
<0xF9>	0
<0xFA>	0
<0xFB>	0
<0xFC>	0
<0xFD>	0
<0xFE>	0
<0xFF>	0
.	-2.83698
:	-3.31404
▁*	-3.36214
,	-3.46112
▁the	-3.558
s	-3.61307
'	-3.7759
mot	-4.15306
▁a	-4.18022
▁you	-4.21728
▁and	-4.23249
▁i	-4.27459
▁to	-4.28323
?	-4.28753
chi	-4.36823
▁it	-4.48866
▁of	-4.52347
▁in	-4.67146
▁that	-4.71449
t	-4.75835
▁is	-5.11036
▁he	-5.12131
▁was	-5.20986
▁=	-5.24379
▁on	-5.33661
▁what	-5.38305
▁[	-5.38785
▁for	-5.42987
▁we	-5.49484
▁"	-5.5062
▁this	-5.5953
!	-5.61331
]	-5.62435
▁with	-5.68296
▁do	-5.6989
▁no	-5.70864
ing	-5.7269
▁they	-5.74765
▁there	-5.74849
▁have	-5.75079
ed	-5.75846
▁be	-5.79135
▁she	-5.79947
▁not	-5.80303
-	-5.81696
▁me	-5.82561
▁-	-5.83037
m	-5.83583
▁one	-5.86135
▁can	-5.87385
▁at	-5.87463
▁are	-5.89484
▁but	-5.90117
▁	-5.90441
d	-5.92851
▁his	-5.9331
re	-5.94495
▁so	-6.01128
▁oh	-6.03706
▁yeah	-6.04493
▁all	-6.04871
▁as	-6.05253
▁my	-6.09324
▁her	-6.10104
▁your	-6.10106
▁don	-6.11136
▁know	-6.12704
▁go	-6.14048
...	-6.15539
▁had	-6.16421
▁up	-6.16637
▁like	-6.16914
inv	-6.25988
ll	-6.26308
▁from	-6.28537
▁out	-6.2948
▁here	-6.34395
▁just	-6.35749
▁him	-6.39432
▁get	-6.39538
▁by	-6.40552
▁if	-6.41367
i	-6.42121
▁right	-6.43575
▁see	-6.43917
▁an	-6.45156
▁now	-6.46562
▁then	-6.47278
▁were	-6.48389
▁about	-6.49002
▁well	-6.49012
▁when	-6.50409
▁or	-6.50569
▁said	-6.54216
▁got	-6.58453
▁them	-6.58696
▁think	-6.58856
▁who	-6.59256
▁did	-6.59969
y	-6.60819
ve	-6.611
▁where	-6.6324
e	-6.6532
fat	-6.66309
▁come	-6.68115
▁will	-6.69146
▁some	-6.69281
▁look	-6.71146
▁would	-6.73001
;	-6.73145
▁yes	-6.7343
▁want	-6.75916
ly	-6.76905
▁“	-6.76949
▁good	-6.7727
▁(	-6.79161
a	-6.79935
▁how	-6.81827
’	-6.83514
▁okay	-6.83724
▁put	-6.8403
▁down	-6.84445
▁back	-6.8546
].	-6.85569
▁little	-6.85892
."	-6.87372
▁time	-6.88658
▁been	-6.88724
▁more	-6.90113
▁very	-6.90615
▁has	-6.90705
▁xxx	-6.90987
▁going	-6.91306
▁over	-6.9201
er	-6.9243
▁which	-6.93089
▁two	-6.94117
"	-6.95794
▁let	-6.96719
▁'	-7.01086
▁their	-7.03106
)	-7.06712
▁could	-7.06968
n	-7.0812
▁say	-7.09127
▁b	-7.09507
,"	-7.11322
▁other	-7.13126
▁why	-7.13413
r	-7.1597
▁make	-7.16272
▁take	-7.17599
▁man	-7.19578
▁into	-7.21013
▁people	-7.22869
▁too	-7.23985
o	-7.25057
▁because	-7.25736
▁way	-7.28399
▁us	-7.28994
▁after	-7.3056
▁tell	-7.30712
c	-7.3115
▁these	-7.32103
▁off	-7.32538
▁gonna	-7.32751
in	-7.33536
▁first	-7.33691
▁any	-7.34162
▁only	-7.35024
▁uh	-7.38019
▁our	-7.39167
▁something	-7.43857
▁again	-7.4396
▁really	-7.46135
▁didn	-7.46426
▁er	-7.47843
▁much	-7.51441
▁give	-7.51796
al	-7.54278
▁made	-7.55198
--	-7.55715
▁big	-7.55761
▁before	-7.57393
▁than	-7.5841
▁does	-7.59024
▁should	-7.59137
▁three	-7.60113
▁day	-7.6026
▁name	-7.61047
l	-7.61066
es	-7.6126
g	-7.61337
▁home	-7.63877
▁came	-7.64142
▁away	-7.64792
▁new	-7.64983
▁went	-7.65965
▁need	-7.66065
par	-7.66394
▁house	-7.66451
▁another	-7.6661
▁mean	-7.67333
▁never	-7.67441
▁play	-7.67538
▁mr	-7.67789
▁those	-7.68596
▁doing	-7.6929
▁um	-7.69483
▁wanna	-7.7062
▁also	-7.70628
▁old	-7.70893
▁won	-7.71151
▁work	-7.71384
p	-7.71737
▁thought	-7.72954
▁still	-7.73742
▁long	-7.74541
?"	-7.74679
▁car	-7.76106
▁thing	-7.76121
▁great	-7.76181
exp	-7.76503
▁many	-7.76651
▁things	-7.77658
it	-7.77753
▁am	-7.78953
▁through	-7.78966
▁last	-7.79182
/	-7.80228
_	-7.82482
the	-7.82618
▁may	-7.83037
▁must	-7.83088
▁mm	-7.83632
▁baby	-7.83726
▁even	-7.85288
▁find	-7.85963
▁boy	-7.86037
▁night	-7.86306
▁done	-7.86596
▁head	-7.86816
▁isn	-7.87474
▁thank	-7.89784
▁called	-7.90149
▁hand	-7.90735
▁help	-7.90936
.”	-7.91945
▁better	-7.92028
▁girl	-7.92101
▁%	-7.92257
▁might	-7.92446
h	-7.93223
▁mother	-7.93344
▁nice	-7.94051
le	-7.94086
th	-7.9451
▁sure	-7.95222
▁please	-7.95633
▁found	-7.96381
▁love	-7.96527
▁school	-7.96564
▁around	-7.9662
▁keep	-7.9694
▁water	-7.97254
w	-7.97688
▁erm	-7.98474
▁book	-7.98724
▁bit	-7.98892
▁life	-7.99239
▁hey	-7.99344
▁o	-7.99419
▁anything	-7.99932
▁eat	-8.00733
▁s	-8.00767
▁ah	-8.01328
▁place	-8.01662
▁de	-8.01894
▁doesn	-8.01902
,”	-8.01911
▁while	-8.04136
f	-8.04509
b	-8.05053
▁mhm	-8.05103
▁lot	-8.0574
laughs	-8.05921
▁next	-8.06055
▁room	-8.06353
on	-8.06371
▁most	-8.06696
▁such	-8.07038
▁end	-8.07689
▁being	-8.07744
▁nothing	-8.08031
▁same	-8.0812
▁father	-8.08531
en	-8.09229
▁under	-8.09788
▁world	-8.10281
k	-8.10392
▁always	-8.11293
▁told	-8.11489
or	-8.11702
▁un	-8.11916
▁mummy	-8.12327
▁men	-8.13116
na	-8.13178
▁years	-8.14084
▁c	-8.14109
▁shall	-8.14444
▁ever	-8.14579
▁left	-8.1468
▁re	-8.15279
▁open	-8.15388
add	-8.15507
and	-8.15569
!"	-8.15607
▁four	-8.16254
▁used	-8.1727
▁own	-8.1798
▁maybe	-8.18208
▁saw	-8.18376
▁side	-8.19087
▁door	-8.19199
▁talk	-8.19219
▁once	-8.19565
▁part	-8.19973
man	-8.20323
▁kind	-8.2071
▁chi	-8.2104
▁d	-8.21978
▁looks	-8.22206
▁else	-8.22389
▁every	-8.22812
▁remember	-8.22929
▁gone	-8.24726
▁e	-8.24947
an	-8.25155
no	-8.25746
▁sir	-8.25897
▁stop	-8.26199
▁p	-8.26345
ers	-8.26842
▁enough	-8.27072
▁goes	-8.27558
▁show	-8.27647
▁sorry	-8.27678
▁huh	-8.27786
▁course	-8.27981
▁five	-8.28028
▁took	-8.28034
▁coming	-8.28643
▁until	-8.29196
sis	-8.29724
▁call	-8.29982
to	-8.30016
▁wait	-8.30183
▁morning	-8.31675
ie	-8.3204
▁seen	-8.32883
▁red	-8.33214
▁eyes	-8.33237
▁best	-8.3329
▁money	-8.33578
▁turn	-8.34149
▁dear	-8.34263
us	-8.35324
▁sit	-8.35852
▁says	-8.36152
▁quite	-8.36182
▁though	-8.36306
▁yet	-8.36357
tea	-8.36504
▁miss	-8.36701
▁daddy	-8.36836
▁god	-8.37181
u	-8.37622
▁_	-8.37972
you	-8.38062
▁mommy	-8.38165
▁hm	-8.38336
▁hear	-8.38378
ion	-8.38401
▁asked	-8.3844
▁box	-8.38497
▁leave	-8.38854
el	-8.39061
▁haven	-8.39323
▁face	-8.39445
▁today	-8.39614
▁together	-8.3985
▁use	-8.40531
▁city	-8.40551
▁blue	-8.40552
ch	-8.40794
▁high	-8.41111
▁year	-8.41344
▁young	-8.4139
▁watch	-8.42275
▁each	-8.42614
se	-8.42655
▁ball	-8.42836
▁heard	-8.43061
▁second	-8.43099
ar	-8.43217
li	-8.4338
▁read	-8.43696
▁mrs	-8.43728
▁getting	-8.43778
as	-8.43949
▁mind	-8.44083
▁try	-8.44448
▁both	-8.44577
▁without	-8.44817
▁small	-8.44995
▁half	-8.45096
▁different	-8.45096
mch	-8.45304
▁known	-8.45969
▁since	-8.46185
ma	-8.46406
ton	-8.46426
▁m	-8.46638
▁ma	-8.46902
▁looked	-8.47269
em	-8.47423
▁bad	-8.47482
▁far	-8.47821
▁looking	-8.48844
ro	-8.49089
▁between	-8.49498
▁few	-8.49506
la	-8.49684
▁g	-8.49858
▁bed	-8.49918
▁ask	-8.50505
we	-8.51259
▁children	-8.5178
v	-8.51841
▁soon	-8.52065
ne	-8.52077
bro	-8.52487
7	-8.52555
▁hard	-8.52845
▁alright	-8.52937
▁everything	-8.5333
▁bring	-8.53384
▁round	-8.53738
▁himself	-8.54507
▁hafta	-8.54895
▁american	-8.5498
▁table	-8.55348
▁fire	-8.55481
is	-8.55516
ation	-8.55536
▁pretty	-8.5569
1	-8.56016
▁run	-8.56057
▁green	-8.56099
▁moment	-8.56112
▁having	-8.56492
▁♪	-8.56912
▁friend	-8.57023
▁happened	-8.57046
▁wanted	-8.57204
▁train	-8.57386
▁hi	-8.57696
z	-8.58095
▁black	-8.58125
▁story	-8.58128
▁later	-8.58221
▁start	-8.58279
▁party	-8.58313
gma	-8.58375
▁ready	-8.5868
▁child	-8.5874
▁hold	-8.58877
▁knew	-8.58937
▁dog	-8.5909
he	-8.59135
de	-8.59173
▁boys	-8.59533
▁believe	-8.59566
▁light	-8.59792
▁top	-8.59805
▁real	-8.60549
▁point	-8.60568
?”	-8.60604
▁whole	-8.609
▁war	-8.61252
ry	-8.6138
▁white	-8.61452
▁close	-8.61821
▁feel	-8.61824
▁talking	-8.61938
".	-8.62014
▁t	-8.62269
▁live	-8.62629
▁sort	-8.62731
▁matter	-8.62747
▁making	-8.62781
▁heart	-8.62843
▁gave	-8.63624
cause	-8.63852
ra	-8.64193
▁rest	-8.64732
co	-8.64769
▁move	-8.65155
ter	-8.6527
▁born	-8.65508
mar	-8.65758
▁hands	-8.66128
▁feet	-8.66237
▁game	-8.66658
▁family	-8.66658
▁number	-8.67093
yes	-8.67269
▁days	-8.67274
est	-8.67456
▁against	-8.67622
▁week	-8.67642
▁dad	-8.67781
▁k	-8.67798
▁upon	-8.67933
▁wasn	-8.68413
x	-8.68414
▁set	-8.68568
▁fine	-8.68591
▁king	-8.68868
oh	-8.68934
▁six	-8.69319
▁stay	-8.69658
ness	-8.69733
▁during	-8.69844
▁actually	-8.69844
2	-8.70122
▁wrong	-8.7074
▁co	-8.71032
childes	-8.71074
▁john	-8.71191
▁food	-8.71673
▁sleep	-8.71813
▁north	-8.71943
▁sea	-8.72353
▁care	-8.72445
but	-8.7257
▁movie	-8.72772
▁air	-8.72933
▁wouldn	-8.73229
▁floor	-8.73567
ce	-8.73861
▁state	-8.73901
ic	-8.74388
▁hello	-8.74539
▁outside	-8.74572
▁sometimes	-8.74733
ia	-8.75017
▁county	-8.75075
▁guess	-8.75492
ta	-8.75642
▁along	-8.75681
▁mom	-8.75692
▁died	-8.75817
▁united	-8.76029
▁la	-8.76421
▁word	-8.76789
▁sec	-8.76862
▁noise	-8.76923
▁1	-8.76969
▁bear	-8.77125
▁chair	-8.77211
▁mine	-8.77431
cha	-8.77756
ent	-8.77823
able	-8.7789
▁18	-8.78069
▁pick	-8.78891
▁jack	-8.78929
▁south	-8.7901
▁gotta	-8.79108
un	-8.79915
▁country	-8.79978
▁hair	-8.8
▁f	-8.80025
▁son	-8.80033
▁ha	-8.8014
▁drink	-8.80157
do	-8.80185
▁idea	-8.8028
▁picture	-8.80356
1:	-8.81091
▁able	-8.81104
▁trying	-8.81477
▁stand	-8.81704
▁color	-8.81742
▁near	-8.81794
▁states	-8.81821
te	-8.81899
8	-8.82355
+	-8.82547
▁brought	-8.82548
▁saying	-8.82818
▁brother	-8.83051
▁sound	-8.83273
▁short	-8.83385
▁almost	-8.83599
what	-8.83724
me	-8.83737
▁friends	-8.83931
▁minute	-8.84102
▁behind	-8.84126
▁happy	-8.84126
▁ten	-8.8506
▁person	-8.8516
▁already	-8.85193
▁voice	-8.85204
▁page	-8.85281
▁hope	-8.85549
il	-8.85591
▁front	-8.8574
▁paper	-8.85747
▁seemed	-8.85882
▁al	-8.86127
▁probably	-8.86278
▁national	-8.86294
▁land	-8.86489
▁team	-8.86527
▁woman	-8.86838
▁began	-8.86915
▁–	-8.87481
▁2	-8.87769
▁thomas	-8.87919
▁cup	-8.87954
▁u	-8.88256
▁lady	-8.88548
nan	-8.8899
well	-8.89014
▁poor	-8.89505
▁playing	-8.8958
▁doctor	-8.8962
▁lost	-8.89694
▁ya	-8.89697
▁mo	-8.89726
▁till	-8.89776
ine	-8.90112
ment	-8.90606
▁town	-8.91591
▁couldn	-8.918
am	-8.92025
▁present	-8.9231
▁someone	-8.92479
▁understand	-8.92597
▁guy	-8.92684
▁fall	-8.92928
6	-8.93105
▁job	-8.93205
▁cat	-8.93261
),	-8.93391
▁dis	-8.93535
▁hundred	-8.93577
ity	-8.9384
▁l	-8.93869
3	-8.93944
▁music	-8.93955
0	-8.9396
▁taken	-8.94068
ba	-8.94282
▁3	-8.94526
▁beautiful	-8.94753
▁however	-8.94765
▁line	-8.94881
▁r	-8.94934
▁piece	-8.95048
▁started	-8.95216
▁played	-8.95287
▁listen	-8.9532
▁twenty	-8.95342
▁cold	-8.95517
▁hot	-8.95918
ies	-8.95953
sh	-8.96112
▁true	-8.96138
ri	-8.9614
▁n	-8.96507
▁makes	-8.96655
gra	-8.96659
int	-8.96703
▁pay	-8.96856
that	-8.97008
▁age	-8.97111
▁became	-8.97151
",	-8.97174
▁fell	-8.97349
▁aren	-8.97409
▁full	-8.97649
▁myself	-8.97761
▁times	-8.9798
▁inside	-8.98059
▁brown	-8.98408
▁w	-8.98416
▁dr	-8.98892
▁seven	-8.98921
5	-8.98998
▁uhhuh	-8.99018
▁mar	-8.9917
▁death	-8.99592
▁dead	-8.99601
pat	-8.9962
ir	-9.00049
▁glad	-9.00294
ty	-9.00687
▁turned	-9.0082
▁sister	-9.00839
▁early	-9.00889
▁order	-9.01026
▁sent	-9.0113
▁con	-9.01142
!”	-9.01167
▁taking	-9.0152
▁cut	-9.01575
son	-9.01734
▁fun	-9.01878
▁walk	-9.02012
▁captain	-9.02104
▁road	-9.02109
▁break	-9.02121
ian	-9.02384
▁group	-9.02584
▁st	-9.0261
▁means	-9.02948
▁stuff	-9.0305
▁late	-9.0335
▁french	-9.03371
▁several	-9.03371
go	-9.03381
▁mum	-9.0347
▁river	-9.04018
▁fish	-9.04059
▁toward	-9.04066
▁wife	-9.04668
▁perhaps	-9.04706
▁fact	-9.04844
dad	-9.05169
▁boat	-9.05269
▁across	-9.05319
▁girls	-9.05751
▁funny	-9.05985
▁yourself	-9.05995
▁trouble	-9.06639
▁sun	-9.0679
▁tea	-9.06904
▁ta	-9.07044
▁large	-9.0722
▁either	-9.07306
up	-9.07326
▁minutes	-9.07345
ah	-9.07389
9	-9.07409
”	-9.0744
▁song	-9.07727
▁change	-9.07737
▁meet	-9.0793
j	-9.08145
at	-9.08201
ant	-9.08327
4	-9.086
▁rather	-9.08656
um	-9.08756
ting	-9.0884
▁comes	-9.08842
—	-9.0943
be	-9.0948
▁na	-9.09529
lo	-9.09554
▁words	-9.09636
▁given	-9.09738
▁ground	-9.10041
▁horse	-9.101
▁5	-9.10275
▁eye	-9.10301
id	-9.10305
▁wish	-9.10349
▁deal	-9.10613
ous	-9.1066
▁yellow	-9.10709
age	-9.10727
▁france	-9.10728
▁tree	-9.11543
ling	-9.11562
▁cos	-9.11672
born	-9.11834
▁thanks	-9.12083
less	-9.12439
▁phone	-9.12523
ha	-9.12663
▁working	-9.1273
▁mark	-9.13437
▁special	-9.13745
▁bob	-9.13762
▁throw	-9.13829
▁lay	-9.1394
▁!	-9.142
▁animals	-9.14751
▁club	-9.14967
▁milk	-9.14978
▁reason	-9.15113
▁hour	-9.15187
▁toys	-9.15215
▁eight	-9.15535
▁ago	-9.15584
▁hat	-9.156
▁business	-9.15673
▁among	-9.15681
▁alone	-9.15683
ge	-9.15826
dy	-9.15878
▁hit	-9.16018
▁lead	-9.16119
▁write	-9.16273
▁question	-9.16315
ish	-9.1638
▁company	-9.16409
▁body	-9.16451
▁march	-9.16554
▁6	-9.16743
▁di	-9.16785
▁answer	-9.16821
▁important	-9.17138
▁peter	-9.17285
).	-9.17586
▁wonder	-9.17724
▁foot	-9.17912
▁living	-9.18097
▁case	-9.18215
land	-9.18263
ted	-9.18567
ive	-9.18661
▁v	-9.18852
▁#	-9.1895
▁free	-9.19107
▁others	-9.19159
▁star	-9.19214
▁past	-9.19238
▁chance	-9.1938
▁cool	-9.19386
▁somebody	-9.19396
▁felt	-9.19444
2:	-9.19536
▁uncle	-9.1955
▁4	-9.1994
▁fast	-9.20045
▁english	-9.20135
▁women	-9.20136
▁dark	-9.20179
▁send	-9.20194
▁rock	-9.20205
▁window	-9.20495
car	-9.20549
huh	-9.20659
ki	-9.20766
▁touch	-9.2079
et	-9.20869
▁often	-9.20953
▁j	-9.21233
ur	-9.21244
ck	-9.2127
▁street	-9.2127
ul	-9.21361
▁west	-9.21405
▁sat	-9.21486
▁seat	-9.21893
▁bar	-9.21948
mo	-9.22038
▁buy	-9.22144
▁guys	-9.22169
ga	-9.22722
▁hurt	-9.23015
▁arm	-9.23104
▁bye	-9.23121
▁wants	-9.23216
▁dinner	-9.23226
▁everybody	-9.23228
ng	-9.23339
▁ok	-9.23551
if	-9.23557
▁kep	-9.23828
▁per	-9.23875
▁drive	-9.23923
▁fight	-9.23985
▁series	-9.24019
ho	-9.24186
▁pull	-9.24277
by	-9.24538
▁afraid	-9.24805
ver	-9.24812
▁catch	-9.24818
▁daughter	-9.24819
▁ran	-9.24962
adu	-9.25195
▁president	-9.25609
▁wow	-9.25621
▁wind	-9.26344
▁bird	-9.26356
▁usually	-9.26443
▁sitting	-9.26461
▁pro	-9.26567
led	-9.26576
▁tomorrow	-9.26805
▁le	-9.26836
▁20	-9.26904
▁7	-9.26964
▁h	-9.27189
▁darling	-9.27228
▁power	-9.27249
é	-9.27442
▁held	-9.27491
▁2020	-9.27925
don	-9.27955
▁least	-9.28046
▁birthday	-9.28046
▁8	-9.28459
▁cover	-9.28581
▁ba	-9.28687
▁thinking	-9.28722
▁york	-9.28868
▁garden	-9.28873
▁running	-9.28878
▁mouth	-9.28908
▁region	-9.28911
▁finished	-9.29117
▁10	-9.29549
ist	-9.29626
▁human	-9.29723
▁village	-9.29724
▁whatever	-9.29789
my	-9.29959
vi	-9.30027
▁happen	-9.30593
▁park	-9.30682
for	-9.31278
▁history	-9.3143
▁letter	-9.31438
▁ooh	-9.3151
▁career	-9.31628
▁noises	-9.31773
ley	-9.31924
so	-9.32056
▁area	-9.32106
▁football	-9.32108
▁general	-9.32144
▁summer	-9.32248
▁station	-9.32276
ary	-9.32324
▁win	-9.32351
ja	-9.32411
way	-9.32503
loi	-9.32506
▁cause	-9.32528
▁points	-9.32753
▁east	-9.32878
▁ro	-9.32922
▁cried	-9.3311
▁herself	-9.33131
▁board	-9.33185
▁ice	-9.33226
▁married	-9.33978
▁thousand	-9.33978
▁camp	-9.34035
▁tried	-9.34157
▁killed	-9.34162
ner	-9.34197
▁seems	-9.34319
men	-9.3459
tic	-9.34765
▁hall	-9.34778
▁waiting	-9.34901
ful	-9.3514
▁bus	-9.35652
ya	-9.35694
▁bag	-9.3585
▁army	-9.359
▁suppose	-9.36373
che	-9.36396
▁tonight	-9.36405
▁cake	-9.36648
cds	-9.36688
▁pass	-9.36857
▁ben	-9.37216
▁strong	-9.37434
▁master	-9.37611
▁sp	-9.37785
▁eating	-9.37959
▁fit	-9.38005
ca	-9.38035
▁rose	-9.38041
all	-9.38067
▁sweet	-9.38332
▁ho	-9.38424
▁possible	-9.38443
▁whether	-9.38443
▁department	-9.38445
▁aunt	-9.38456
▁november	-9.38459
▁lots	-9.38652
▁clean	-9.38712
pe	-9.38824
▁lovely	-9.3892
▁lived	-9.39029
▁system	-9.39361
▁government	-9.39362
▁joe	-9.3946
▁forget	-9.39547
▁speak	-9.39624
▁19	-9.39664
ance	-9.39895
▁district	-9.40286
▁post	-9.40395
▁wear	-9.40593
hi	-9.40723
▁clear	-9.40806
▁ca	-9.40992
▁sa	-9.40996
▁tape	-9.41023
ger	-9.41483
makes	-9.41495
▁count	-9.41504
▁nose	-9.41588
▁draw	-9.41604
▁quiet	-9.4205
▁couple	-9.42164
▁tired	-9.42169
▁decided	-9.42263
▁sounds	-9.42263
▁da	-9.4231
ster	-9.42508
▁less	-9.42601
▁check	-9.42786
que	-9.42857
▁el	-9.43044
▁husband	-9.43117
▁christmas	-9.43117
▁excuse	-9.43118
▁race	-9.43242
▁15	-9.43419
▁evening	-9.4374
▁bill	-9.44048
im	-9.44278
▁return	-9.44451
▁ra	-9.44803
da	-9.4494
▁careful	-9.44951
how	-9.44972
mi	-9.44986
▁office	-9.45024
▁easy	-9.45049
▁tom	-9.45057
▁track	-9.45092
ci	-9.45116
▁become	-9.45449
▁se	-9.45479
▁...	-9.45567
▁ring	-9.45661
▁y	-9.45719
á	-9.45796
▁nine	-9.45855
▁quick	-9.45916
▁nor	-9.45946
▁police	-9.46001
▁university	-9.4603
▁worry	-9.46033
▁april	-9.46047
let	-9.46094
▁bo	-9.46479
val	-9.46886
▁church	-9.46978
▁court	-9.4702
▁juice	-9.47023
▁fear	-9.47032
▁january	-9.47035
wa	-9.47067
▁anyway	-9.47095
▁earth	-9.47128
▁nearly	-9.47241
▁warm	-9.47308
▁shop	-9.47324
bb	-9.47377
po	-9.47607
▁kids	-9.4767
▁12	-9.47802
sa	-9.47818
▁pen	-9.4784
▁toy	-9.47937
▁replied	-9.4802
▁yesterday	-9.4802
▁chief	-9.4802
▁august	-9.48032
▁million	-9.48036
▁space	-9.48047
▁gold	-9.48134
▁wee	-9.48161
ka	-9.4827
▁kid	-9.48525
▁eh	-9.48609
ow	-9.48721
▁class	-9.49023
▁list	-9.49035
▁british	-9.4904
▁chicken	-9.49043
▁frank	-9.49052
▁plate	-9.49054
▁shot	-9.49073
▁cow	-9.49124
▁returned	-9.49362
▁news	-9.49411
▁stick	-9.49434
▁17	-9.49518
▁band	-9.49551
ated	-9.49776
▁carry	-9.49822
ny	-9.49937
▁sing	-9.49997
▁england	-9.5005
▁chapter	-9.50055
▁sense	-9.50062
▁en	-9.50101
▁snow	-9.50126
▁cannot	-9.503
▁ship	-9.50353
▁former	-9.50466
os	-9.5104
▁above	-9.51099
▁safe	-9.51112
▁single	-9.51142
▁wa	-9.51153
▁putting	-9.51284
▁reached	-9.51374
▁problem	-9.51507
▁books	-9.51538
ni	-9.51686
▁cross	-9.51849
ten	-9.51998
▁bright	-9.52173
▁vi	-9.52216
▁act	-9.52244
▁quickly	-9.52246
▁lives	-9.52417
▁follow	-9.52499
▁duck	-9.5256
ate	-9.52606
day	-9.52641
▁dress	-9.5286
gu	-9.52909
▁grand	-9.53147
▁exactly	-9.53194
▁11	-9.53236
▁broken	-9.53242
▁nobody	-9.53244
▁instead	-9.53288
▁dance	-9.53336
▁push	-9.53535
▁member	-9.53724
▁finish	-9.53944
▁laugh	-9.54134
▁ride	-9.54223
▁public	-9.54225
▁television	-9.54239
▁third	-9.5424
▁although	-9.54241
▁lord	-9.5429
▁[1	-9.54305
▁happens	-9.54434
▁longer	-9.5483
▁field	-9.54942
bi	-9.55121
there	-9.55192
▁lunch	-9.55314
▁february	-9.55315
▁secret	-9.55324
▁indeed	-9.55339
▁everyone	-9.55339
▁june	-9.5538
▁bread	-9.55387
▁billy	-9.55479
▁visit	-9.55744
▁answered	-9.55781
▁fellow	-9.55883
les	-9.55897
▁mama	-9.55907
▁takes	-9.55928
▁attack	-9.56078
3:	-9.56363
illustration	-9.56394
▁middle	-9.56403
▁caught	-9.56404
▁season	-9.56451
singing	-9.56528
▁arms	-9.5672
va	-9.56972
ru	-9.57014
▁ain	-9.57024
▁standing	-9.57092
▁strange	-9.57373
▁months	-9.57444
▁hospital	-9.575
▁ka	-9.57516
▁anymore	-9.57521
ph	-9.57531
▁charge	-9.57554
▁teacher	-9.57669
rs	-9.5779
▁forward	-9.5788
▁island	-9.57942
▁met	-9.58015
▁indian	-9.58028
▁truck	-9.58117
friend	-9.58301
▁honey	-9.58616
▁spring	-9.58617
▁plan	-9.58663
▁deep	-9.58726
▁sam	-9.59036
▁reach	-9.59039
▁shoes	-9.59056
fch	-9.59121
▁straight	-9.59225
▁z	-9.59407
▁trust	-9.59422
▁support	-9.59705
▁pardon	-9.59739
▁hungry	-9.59741
▁truth	-9.59743
▁december	-9.59749
▁clothes	-9.5975
▁october	-9.59759
▁following	-9.60086
▁passed	-9.60137
▁meeting	-9.60287
▁13	-9.60376
▁hours	-9.60554
▁holding	-9.60662
▁fly	-9.60871
▁bottom	-9.60871
▁stopped	-9.60872
▁george	-9.60889
▁paul	-9.60905
▁player	-9.61115
▁feeling	-9.61313
▁figure	-9.61329
▁changed	-9.61418
▁members	-9.61478
ey	-9.61535
▁x	-9.61548
ag	-9.61682
▁wall	-9.61778
▁worked	-9.61838
")	-9.61928
▁afternoon	-9.62021
▁stood	-9.62023
▁exclaimed	-9.62033
▁supposed	-9.62368
▁bath	-9.62512
▁grandma	-9.62535
▁flowers	-9.62778
▁ahead	-9.62894
▁9	-9.62921
▁leaving	-9.63185
▁beginning	-9.63186
▁‘	-9.63195
▁doubt	-9.63238
▁anyone	-9.63249
she	-9.63254
▁wild	-9.63332
▁pat	-9.63501
▁jump	-9.63611
▁german	-9.63858
they	-9.63995
▁mad	-9.64043
▁include	-9.64089
ally	-9.64163
▁gu	-9.64184
▁building	-9.64227
▁within	-9.6423
▁cost	-9.64384
▁giving	-9.64388
▁lift	-9.64429
ler	-9.6447
of	-9.64781
▁low	-9.64871
▁interest	-9.64892
ber	-9.64919
▁moon	-9.64943
▁pre	-9.65054
one	-9.65074
▁gun	-9.6521
▁certain	-9.65436
▁college	-9.65551
▁orange	-9.65551
▁sky	-9.65574
▁written	-9.65576
▁position	-9.65576
▁tiger	-9.65577
▁leg	-9.65754
▁sight	-9.65974
unk	-9.66192
ard	-9.66396
▁dream	-9.66462
▁rain	-9.66511
▁spoke	-9.66671
not	-9.66754
▁heavy	-9.66756
▁seem	-9.66758
▁battle	-9.66759
▁somewhere	-9.66831
▁save	-9.66865
▁boo	-9.66892
▁appeared	-9.66923
▁lie	-9.67006
▁pictures	-9.67067
▁hill	-9.67107
▁fix	-9.67673
room	-9.67689
▁]	-9.67754
▁⌈	-9.6799
▁lake	-9.67995
▁winter	-9.68001
▁certainly	-9.68119
▁released	-9.68121
▁opened	-9.68205
per	-9.68289
▁bow	-9.68314
▁needs	-9.68425
ad	-9.6844
▁amy	-9.68791
▁engine	-9.68951
▁fair	-9.68956
bu	-9.69166
▁robert	-9.69214
▁yep	-9.69246
▁beat	-9.69259
▁commune	-9.69288
▁ti	-9.69444
▁mary	-9.69567
▁frog	-9.69648
▁ow	-9.69749
▁farm	-9.69904
▁miles	-9.69968
time	-9.7012
–	-9.70184
tion	-9.70215
▁ga	-9.70219
▁service	-9.70244
▁telling	-9.70262
▁using	-9.70347
▁stone	-9.70359
line	-9.70388
▁century	-9.70459
▁super	-9.70464
▁pink	-9.70499
jo	-9.70554
▁hasn	-9.70581
▁corner	-9.70604
▁whom	-9.7075
▁force	-9.71114
now	-9.71352
▁remain	-9.71409
ud	-9.71575
▁london	-9.71725
▁account	-9.71725
▁hurry	-9.7173
▁ought	-9.71741
ham	-9.71899
ke	-9.71907
lin	-9.71984
▁wood	-9.72008
▁lu	-9.7201
child	-9.72304
op	-9.72319
ward	-9.72768
▁film	-9.72865
read	-9.72886
▁tu	-9.72934
▁pan	-9.72973
put	-9.72976
▁council	-9.73005
▁breakfast	-9.73007
▁teeth	-9.73009
▁japan	-9.7301
▁wake	-9.73078
▁16	-9.73322
▁lad	-9.73371
▁dry	-9.73376
fi	-9.73465
▁turns	-9.73514
▁parents	-9.73599
▁sad	-9.73802
tur	-9.73841
ig	-9.74053
▁ex	-9.74069
like	-9.74104
▁language	-9.74195
▁common	-9.74199
▁watching	-9.7422
▁rabbit	-9.74306
▁video	-9.74306
▁local	-9.74308
▁view	-9.74353
▁tv	-9.74387
▁added	-9.74502
▁14	-9.74513
▁ne	-9.74527
ism	-9.74569
▁row	-9.74634
▁die	-9.7487
▁art	-9.74951
▁learn	-9.74971
▁places	-9.75027
au	-9.75033
▁van	-9.75058
ial	-9.75064
▁sign	-9.75065
min	-9.75067
▁pretend	-9.75349
why	-9.75363
di	-9.75498
▁bang	-9.75599
▁distance	-9.75622
▁further	-9.75624
▁hole	-9.7567
▁suddenly	-9.75676
▁30	-9.75889
▁helen	-9.75984
▁hang	-9.76048
▁dat	-9.76073
▁led	-9.76141
www	-9.76382
▁moved	-9.76435
▁kiss	-9.76638
ff	-9.76691
mother	-9.7672
▁sand	-9.7683
▁drop	-9.7692
▁themselves	-9.76955
▁cheese	-9.76956
▁september	-9.76972
▁july	-9.7706
▁worth	-9.77067
▁driver	-9.77129
▁main	-9.77146
▁form	-9.77241
mp	-9.77276
qui	-9.77425
bo	-9.77431
io	-9.77581
fa	-9.77688
der	-9.77963
▁nin	-9.77971
▁america	-9.78062
▁trees	-9.78109
▁reading	-9.78201
▁broke	-9.78266
▁example	-9.78294
▁coffee	-9.78307
▁upstairs	-9.78307
▁kitchen	-9.78307
▁cream	-9.78316
▁including	-9.7832
▁anybody	-9.78324
▁bridge	-9.78328
▁speed	-9.78336
▁michael	-9.78339
▁bank	-9.78487
▁wide	-9.78563
▁key	-9.78643
pa	-9.7892
▁th	-9.79091
▁te	-9.79241
▁jo	-9.79257
clock	-9.79417
urs	-9.79457
▁blood	-9.79539
▁project	-9.79676
▁dropped	-9.79677
▁bottle	-9.7968
▁harry	-9.79689
▁elephant	-9.7969
▁thirty	-9.79694
▁month	-9.79778
▁rich	-9.79937
▁su	-9.79956
ana	-9.79963
▁bought	-9.80091
00	-9.80142
▁report	-9.8049
▁mi	-9.80505
▁pi	-9.80569
▁shake	-9.80758
▁paint	-9.80767
▁hop	-9.80801
king	-9.80912
fe	-9.81029
▁sc	-9.81054
▁forgot	-9.81066
▁fraser	-9.81066
▁tail	-9.8107
▁games	-9.81105
▁spot	-9.81128
▁monkey	-9.81129
▁spirit	-9.81195
pp	-9.81318
▁law	-9.81327
▁award	-9.8139
▁mess	-9.81453
▁record	-9.81805
▁ko	-9.81857
tra	-9.8203
▁po	-9.82324
▁difficult	-9.82336
▁grow	-9.82471
▁sick	-9.82472
▁attention	-9.82474
▁popular	-9.82475
▁welcome	-9.82488
▁betty	-9.8249
▁david	-9.82497
▁shape	-9.82619
▁received	-9.8265
points	-9.82805
▁pa	-9.82866
▁apple	-9.82903
▁size	-9.82941
mer	-9.82984
▁pieces	-9.83249
▁va	-9.83363
uk	-9.8346
▁surprise	-9.83632
ite	-9.8377
▁trip	-9.83862
▁control	-9.83903
ric	-9.83948
▁pet	-9.84052
▁below	-9.84084
▁smell	-9.84155
▁ar	-9.84217
í	-9.84446
ee	-9.84513
▁ears	-9.84792
▁base	-9.85225
▁pop	-9.85293
▁weeks	-9.85319
▁famous	-9.85352
▁wrote	-9.85352
▁bunny	-9.85354
▁kitty	-9.85355
▁finally	-9.85441
▁step	-9.85465
▁sw	-9.85526
ily	-9.85627
▁wonderful	-9.85741
ex	-9.85767
▁shut	-9.85811
pi	-9.86056
▁cook	-9.86148
red	-9.8616
noise	-9.86567
ko	-9.86637
▁bell	-9.86646
ris	-9.86755
▁hate	-9.86786
▁writing	-9.86822
▁sheep	-9.86826
▁sunday	-9.86839
▁built	-9.86845
▁type	-9.86851
▁james	-9.86851
▁silver	-9.86874
▁soft	-9.8691
▁union	-9.86999
▁gate	-9.87041
▁busy	-9.8705
▁allowed	-9.87066
▁ju	-9.87159
▁crying	-9.87214
▁soul	-9.87301
den	-9.87318
▁lo	-9.87435
this	-9.87465
▁25	-9.87489
▁tall	-9.8781
▁travel	-9.87968
field	-9.88042
▁li	-9.88055
▁smile	-9.8809
▁except	-9.88133
▁pot	-9.88202
▁cry	-9.88233
▁leaves	-9.88236
▁major	-9.88301
▁fifty	-9.88315
▁level	-9.88315
▁minister	-9.88317
▁conversation	-9.88318
▁monster	-9.88319
▁rising	-9.8832
out	-9.8833
who	-9.88434
▁store	-9.88502
▁object	-9.88526
▁based	-9.88657
▁interesting	-9.8876
▁leader	-9.88896
▁kill	-9.89098
▁ye	-9.89324
ren	-9.89473
▁carl	-9.89475
▁enjoy	-9.89507
▁sha	-9.89572
▁none	-9.89753
▁ate	-9.89822
▁population	-9.8983
▁machine	-9.89832
▁information	-9.89834
ol	-9.89843
▁direction	-9.8986
▁forest	-9.89862
▁mouse	-9.8989
▁choo	-9.90023
▁directed	-9.90076
▁legs	-9.90166
▁egg	-9.90336
att	-9.90419
ville	-9.90467
▁tri	-9.90575
▁works	-9.90939
▁roll	-9.91116
▁press	-9.91133
amp	-9.91221
▁spoon	-9.91319
▁pocket	-9.91366
▁babies	-9.91368
▁carried	-9.91369
▁international	-9.91369
▁weather	-9.91369
▁tower	-9.914
,000	-9.91415
lt	-9.91504
ure	-9.91507
▁flat	-9.9152
▁lower	-9.91556
▁rush	-9.91585
▁character	-9.91759
▁cookie	-9.91788
▁animal	-9.9181
▁officer	-9.91899
gi	-9.92117
end	-9.92483
▁weren	-9.92848
▁sharp	-9.92923
▁california	-9.92931
▁stuck	-9.92933
▁moving	-9.92981
▁beach	-9.93035
▁doll	-9.93056
▁port	-9.93072
▁germany	-9.93111
▁join	-9.93391
▁laughed	-9.934
then	-9.93603
ier	-9.93738
▁laughing	-9.93793
▁laughs	-9.93978
▁cast	-9.9402
▁mc	-9.94095
▁twelve	-9.94518
▁capital	-9.94519
▁crash	-9.9452
▁square	-9.94521
▁grew	-9.94522
▁respect	-9.94538
▁brush	-9.94539
▁hide	-9.94628
her	-9.94701
▁fred	-9.94716
pl	-9.94792
▁sail	-9.94819
20	-9.94851
come	-9.95115
ries	-9.95272
▁due	-9.95739
▁mountain	-9.95763
▁accept	-9.95807
▁plays	-9.95889
▁du	-9.9591
▁accident	-9.95985
ens	-9.96028
▁protect	-9.96107
▁wash	-9.9612
▁province	-9.96131
▁governor	-9.96141
▁neck	-9.96145
▁league	-9.9616
▁bobby	-9.96178
▁russian	-9.96203
▁bigger	-9.96223
▁card	-9.96283
▁flower	-9.96773
▁wi	-9.97114
ring	-9.97403
com	-9.97431
ran	-9.97451
▁em	-9.97476
ina	-9.97688
▁phil	-9.97731
▁election	-9.97784
▁honor	-9.97786
▁personal	-9.97801
▁grass	-9.97824
▁declared	-9.97889
▁pounds	-9.97973
ak	-9.98352
▁finger	-9.98422
▁sh	-9.98428
▁wheel	-9.98699
▁lines	-9.98726
▁build	-9.98746
▁ear	-9.98901
▁dan	-9.98927
▁plane	-9.99154
ub	-9.99163
▁promise	-9.99166
▁horses	-9.99302
▁original	-9.99358
▁puppet	-9.99437
▁puzzle	-9.99437
▁situation	-9.99437
▁center	-9.99438
▁simple	-9.99439
▁shirt	-9.99496
▁aye	-9.99502
▁unless	-9.99511
▁alive	-9.99534
▁pe	-9.9959
laugh	-9.99598
▁continued	-9.99732
▁ni	-9.99814
ron	-9.99887
▁taste	-10.001
▁lose	-10.0014
ju	-10.0029
▁corn	-10.0037
lic	-10.0064
▁eggs	-10.0072
ji	-10.0096
▁health	-10.01
gan	-10.0111
▁chocolate	-10.0113
▁championship	-10.0113
▁title	-10.0114
▁glass	-10.0115
▁thou	-10.0115
▁fox	-10.0117
▁mountains	-10.0152
▁easter	-10.0165
▁tony	-10.017
gr	-10.0179
▁inter	-10.018
our	-10.019
▁blocks	-10.0201
ste	-10.0208
▁expect	-10.0218
▁meant	-10.0225
ut	-10.0248
fri	-10.0248
▁needed	-10.0276
▁feed	-10.028
▁si	-10.0282
▁den	-10.0283
▁birds	-10.0283
→	-10.0286
▁future	-10.0286
▁queen	-10.0286
▁purpose	-10.0286
▁division	-10.0286
▁pleasant	-10.0288
▁trade	-10.029
▁meal	-10.0292
▁scared	-10.0309
▁created	-10.0311
▁button	-10.0315
▁yo	-10.032
ors	-10.0328
▁joy	-10.0347
ence	-10.0363
▁scene	-10.0364
▁walked	-10.0373
br	-10.0381
ile	-10.0383
▁design	-10.0387
▁picked	-10.0396
▁bowl	-10.0405
pped	-10.0407
▁2018	-10.0447
▁missing	-10.046
▁medicine	-10.0461
▁adult	-10.0461
▁search	-10.0461
▁favorite	-10.0461
▁2016	-10.0462
▁cousin	-10.0463
▁stage	-10.0466
▁jim	-10.0468
▁slowly	-10.047
▁coat	-10.047
▁share	-10.0471
▁tone	-10.0475
lu	-10.0485
▁oo	-10.0487
▁grave	-10.0488
▁loved	-10.0488
▁official	-10.049
▁lid	-10.0496
▁fat	-10.053
▁circle	-10.0543
gasps	-10.0546
tu	-10.0554
▁block	-10.0555
▁gar	-10.0563
▁problems	-10.0566
▁ve	-10.057
▁fingers	-10.0572
▁climb	-10.0574
▁24	-10.0595
▁)	-10.0599
▁success	-10.0609
▁cor	-10.0614
mon	-10.0628
pick	-10.0637
▁charles	-10.0638
right	-10.0638
▁announced	-10.064
▁asleep	-10.064
▁attempt	-10.064
▁computer	-10.064
▁gift	-10.064
▁hiding	-10.064
▁turning	-10.0642
▁whoa	-10.0643
▁cr	-10.0643
▁notice	-10.0644
▁uhoh	-10.0665
▁san	-10.0672
▁mat	-10.0685
▁interested	-10.0688
ious	-10.0694
▁happening	-10.071
▁29	-10.0729
ice	-10.0734
ii	-10.0737
▁shouldn	-10.074
▁starts	-10.0745
▁peace	-10.0761
▁ru	-10.0766
▁date	-10.0768
▁bin	-10.0772
▁command	-10.0778
▁youth	-10.0783
▁knock	-10.0794
box	-10.0795
just	-10.0801
▁sue	-10.0805
▁luck	-10.081
▁danger	-10.0821
▁2017	-10.0821
▁crazy	-10.0821
▁smoke	-10.0821
▁maggie	-10.0822
▁coast	-10.0822
ld	-10.0824
▁imp	-10.0827
▁arrived	-10.0831
▁asking	-10.0833
▁woods	-10.0834
▁director	-10.0838
▁needta	-10.084
▁india	-10.0842
oo	-10.0847
▁suit	-10.0848
▁handle	-10.0857
▁singer	-10.0862
kin	-10.0871
kay	-10.0884
▁pain	-10.0893
▁covered	-10.0896
▁judge	-10.0897
▁walking	-10.0917
▁holds	-10.0921
▁mu	-10.0921
ise	-10.0931
▁jane	-10.0946
▁questions	-10.0947
tie	-10.0949
ita	-10.0955
▁gas	-10.097
▁study	-10.0973
can	-10.0974
du	-10.0983
ized	-10.099
night	-10.0994
side	-10.0995
▁serious	-10.0995
▁gets	-10.1006
▁driving	-10.1007
▁clever	-10.1007
▁nature	-10.1007
▁edge	-10.1007
▁match	-10.1007
▁sugar	-10.1007
▁laura	-10.1007
▁professional	-10.1007
▁beyond	-10.1008
▁roof	-10.1008
▁score	-10.1009
▁plain	-10.102
▁signal	-10.1029
▁role	-10.1031
▁lap	-10.1032
▁sta	-10.1035
▁bro	-10.1036
ze	-10.1037
▁clock	-10.1046
▁opening	-10.1048
aw	-10.1065
uff	-10.1066
▁drawing	-10.1072
▁mor	-10.1094
▁mostly	-10.1096
▁mis	-10.1097
▁stars	-10.1114
▁cla	-10.112
▁col	-10.1124
▁closed	-10.1126
▁wh	-10.113
▁bite	-10.1138
▁lee	-10.1156
=	-10.1168
▁escape	-10.1168
▁sub	-10.1169
▁prince	-10.1173
▁lock	-10.1176
ened	-10.1195
▁census	-10.1195
▁difference	-10.1195
▁eleanor	-10.1195
▁album	-10.1195
▁kingdom	-10.1196
▁tight	-10.1197
▁bedroom	-10.1199
▁paid	-10.1202
▁model	-10.1202
▁huge	-10.1204
▁showed	-10.1205
drew	-10.1206
▁silence	-10.1208
su	-10.1216
▁camera	-10.1217
▁path	-10.1223
▁meaning	-10.1225
▁letters	-10.1229
fad	-10.1269
▁pulled	-10.1272
▁("	-10.1273
▁bet	-10.1287
▁inv	-10.1307
▁shoe	-10.1311
▁begin	-10.1312
▁murder	-10.1315
mu	-10.1319
▁term	-10.133
cat	-10.1335
▁har	-10.1338
ical	-10.1371
▁final	-10.1378
▁natural	-10.138
▁offer	-10.1383
▁central	-10.1388
▁subject	-10.1388
▁jesus	-10.1388
▁blanket	-10.1388
▁price	-10.1388
▁richard	-10.1388
▁forgotten	-10.1389
▁kick	-10.1389
▁trick	-10.1389
▁background	-10.139
▁absolutely	-10.1391
▁spread	-10.1392
▁laid	-10.1393
uh	-10.1397
▁allow	-10.1402
▁reaches	-10.1406
▁crew	-10.1407
▁agreed	-10.1407
▁papa	-10.1408
▁lion	-10.1414
▁che	-10.1426
ew	-10.1427
▁28	-10.1445
▁followed	-10.1447
▁anne	-10.1447
▁caused	-10.1449
▁wearing	-10.1457
▁apart	-10.1457
▁actor	-10.147
iz	-10.1496
gen	-10.1499
▁explain	-10.1518
▁soldiers	-10.1521
act	-10.1531
▁forty	-10.1536
▁ja	-10.1541
looks	-10.1545
▁test	-10.1546
house	-10.1553
▁watched	-10.1566
▁particular	-10.1572
▁loud	-10.1582
▁⌊	-10.1584
▁fault	-10.1584
▁fresh	-10.1584
▁teddy	-10.1584
▁spend	-10.1585
▁gentleman	-10.1585
▁length	-10.1586
▁speech	-10.1588
uc	-10.1589
▁steven	-10.159
▁therefore	-10.159
▁shi	-10.1592
▁western	-10.1594
▁host	-10.16
▁bull	-10.1602
▁joined	-10.1624
▁learned	-10.1632
▁min	-10.1638
▁flying	-10.1641
▁aw	-10.1644
⌉.	-10.1645
▁speaking	-10.1659
oth	-10.1663
ified	-10.1669
ac	-10.1685
▁fi	-10.1698
▁singing	-10.1699
where	-10.17
▁action	-10.1714
▁crayon	-10.1719
▁program	-10.172
▁shoot	-10.1751
▁imagine	-10.1756
▁perfect	-10.1772
▁africa	-10.1775
▁missed	-10.1778
nd	-10.1779
▁royal	-10.1784
▁spain	-10.1784
▁pleasure	-10.1784
▁monday	-10.1784
▁2014	-10.1784
▁washington	-10.1785
▁dangerous	-10.1785
▁lieutenant	-10.1785
▁message	-10.1785
ps	-10.1785
▁thus	-10.1787
▁silly	-10.1788
▁wolf	-10.1789
▁according	-10.1791
▁saint	-10.1791
▁tiny	-10.1796
▁dolly	-10.1804
▁itself	-10.1811
▁likely	-10.1813
▁blow	-10.1813
▁cap	-10.1827
▁mid	-10.1833
▁liked	-10.184
head	-10.1845
pr	-10.1848
▁besides	-10.1848
az	-10.1899
▁bi	-10.1902
▁bert	-10.1902
▁parts	-10.1904
q	-10.1915
▁cloud	-10.1921
za	-10.1924
▁bark	-10.1935
▁tim	-10.1942
van	-10.1948
▁beside	-10.1957
▁pour	-10.1961
▁pie	-10.1963
▁bri	-10.1964
sha	-10.197
▁address	-10.1982
▁easily	-10.1988
▁centre	-10.1988
▁appearance	-10.1989
▁christian	-10.1989
▁roger	-10.199
▁lying	-10.1991
▁bat	-10.1993
▁brain	-10.1993
▁prepared	-10.2
▁calling	-10.2001
▁manner	-10.2006
▁continues	-10.2015
▁names	-10.2017
▁slide	-10.2027
vis	-10.2032
▁farmer	-10.204
▁hadn	-10.2049
hu	-10.2065
▁fighting	-10.2074
▁wise	-10.2082
▁ki	-10.2111
,--	-10.2113
▁falls	-10.2123
▁butter	-10.2126
▁knee	-10.2135
ev	-10.215
ky	-10.2155
▁extra	-10.2179
▁companion	-10.2196
▁constant	-10.2196
▁decision	-10.2196
▁fruit	-10.2196
▁holiday	-10.2196
▁science	-10.2196
▁terrible	-10.2196
▁enemy	-10.2196
▁double	-10.2196
▁charlie	-10.2196
▁especially	-10.2197
▁jwww	-10.2198
▁radio	-10.2198
bel	-10.2199
▁japanese	-10.22
▁worse	-10.2205
▁choose	-10.2218
▁meat	-10.2219
11	-10.2236
▁placed	-10.2239
ang	-10.2245
▁shown	-10.2255
▁ended	-10.2257
▁smith	-10.2268
▁je	-10.2275
ok	-10.2276
▁moo	-10.2299
▁site	-10.2299
▁bee	-10.2312
▁()	-10.2321
▁roman	-10.2326
ela	-10.2327
▁period	-10.2329
▁oops	-10.2335
▁direct	-10.2342
▁runs	-10.2346
▁fur	-10.235
av	-10.2357
aft	-10.2361
han	-10.2372
▁contain	-10.2394
▁journey	-10.2409
▁plenty	-10.2409
▁politician	-10.2409
▁professor	-10.2409
▁spider	-10.2409
▁dozen	-10.2409
▁whoops	-10.241
▁numbers	-10.2411
▁ladies	-10.2412
▁spent	-10.2413
▁castle	-10.2414
▁bound	-10.2416
▁skin	-10.2419
coming	-10.2425
▁lucky	-10.2429
▁storm	-10.2429
▁discovered	-10.243
▁talked	-10.244
▁surprised	-10.2449
ette	-10.2462
▁range	-10.2468
▁breath	-10.247
▁hardly	-10.2473
▁rate	-10.2487
ship	-10.2494
▁vote	-10.251
▁fan	-10.2514
▁ver	-10.2527
▁dare	-10.2542
▁gr	-10.2558
▁tie	-10.2567
col	-10.2581
▁anna	-10.2587
▁ste	-10.2589
light	-10.2595
▁gra	-10.2597
wood	-10.26
sings	-10.2611
▁rank	-10.2616
▁add	-10.2618
▁mistake	-10.2621
▁cl	-10.2621
▁louis	-10.2621
▁border	-10.2626
▁various	-10.2626
▁angry	-10.2626
▁coach	-10.2627
▁countries	-10.2627
▁immediately	-10.2629
▁sports	-10.263
▁market	-10.263
▁santa	-10.263
▁golden	-10.2636
▁hotel	-10.2638
ning	-10.2685
▁adam	-10.2692
mor	-10.2705
▁founded	-10.2727
▁planet	-10.2745
▁older	-10.2753
▁hero	-10.2756
ade	-10.2767
ov	-10.2775
ari	-10.2776
mat	-10.2789
air	-10.2789
cy	-10.2805
▁starting	-10.2807
nor	-10.2815
▁teach	-10.2823
▁2022	-10.2837
▁sandwich	-10.2843
gged	-10.2843
▁europe	-10.2845
▁female	-10.2848
▁political	-10.2848
▁similar	-10.2848
▁swimming	-10.2849
▁smiling	-10.2849
▁airplane	-10.2849
▁choice	-10.2849
▁desk	-10.285
▁northern	-10.285
▁southern	-10.285
▁prize	-10.2851
▁crime	-10.2851
▁everywhere	-10.2852
▁excited	-10.2852
▁pair	-10.2853
▁movement	-10.2856
▁ab	-10.286
▁&	-10.2869
▁served	-10.2873
▁entered	-10.2875
get	-10.2889
▁writer	-10.2893
ford	-10.2893
▁horn	-10.29
ions	-10.2902
▁flag	-10.2903
ible	-10.2914
old	-10.2932
▁falling	-10.2976
▁cha	-10.2988
sib	-10.3008
takes	-10.3036
▁guard	-10.3037
▁iron	-10.3041
▁appear	-10.3043
▁treat	-10.3047
▁experience	-10.3052
port	-10.3056
▁forth	-10.3067
▁community	-10.3076
▁independent	-10.3076
▁ourselves	-10.3076
▁saturday	-10.3076
▁2013	-10.3076
▁knowledge	-10.3076
▁process	-10.3076
▁memory	-10.3076
▁henry	-10.3076
▁twice	-10.3076
▁2011	-10.3077
▁heaven	-10.3079
▁buddy	-10.3079
▁haha	-10.3083
%	-10.3086
▁deck	-10.3086
▁max	-10.3088
laughing	-10.3093
▁yum	-10.3096
ide	-10.311
rac	-10.3115
rus	-10.3123
|	-10.313
▁bal	-10.3134
▁sell	-10.3137
▁julia	-10.3154
some	-10.3165
▁lean	-10.3168
sighs	-10.3177
▁shoulder	-10.3181
ek	-10.3188
take	-10.3191
ight	-10.3206
▁finding	-10.3225
▁paris	-10.3247
▁ty	-10.3261
▁result	-10.3268
back	-10.3289
lan	-10.33
▁fill	-10.3301
▁association	-10.3308
▁empire	-10.3308
▁located	-10.3308
▁naughty	-10.3308
▁throat	-10.3308
▁worried	-10.3308
▁version	-10.3308
▁formula	-10.3308
▁social	-10.3308
chuckles	-10.3309
▁stories	-10.3309
▁2007	-10.3309
▁pressure	-10.3309
▁taught	-10.3309
▁2012	-10.3309
▁bathroom	-10.331
▁image	-10.331
▁risk	-10.331
▁duty	-10.331
▁dick	-10.3313
▁doo	-10.3317
▁pig	-10.3324
▁considered	-10.333
▁ann	-10.3335
▁ku	-10.3337
▁21	-10.3338
▁sold	-10.3344
▁gen	-10.3347
con	-10.3347
▁expected	-10.3352
▁jean	-10.3352
▁colors	-10.3355
▁pleased	-10.3363
▁ke	-10.337
▁guns	-10.337
▁weight	-10.3374
▁formed	-10.3378
over	-10.3383
30	-10.339
low	-10.3406
name	-10.3414
▁wave	-10.3415
▁dollars	-10.343
pen	-10.3434
▁fl	-10.3439
with	-10.344
ans	-10.3467
▁goin	-10.3502
▁spell	-10.3513
▁colour	-10.3514
▁shows	-10.3517
when	-10.3519
▁martin	-10.3532
here	-10.3537
▁pound	-10.3537
▁slow	-10.3539
▁thin	-10.3539
▁empty	-10.3546
▁nervous	-10.3546
▁pizza	-10.3546
▁society	-10.3546
▁telephone	-10.3547
▁municipality	-10.3547
▁spanish	-10.3547
▁evil	-10.3547
▁2008	-10.3547
▁operation	-10.3547
▁committee	-10.3547
▁giant	-10.3547
▁native	-10.3548
▁flight	-10.3548
▁apparently	-10.3549
▁amount	-10.3549
▁drama	-10.355
▁nurse	-10.3551
▁microphone	-10.3551
▁motion	-10.3553
▁songs	-10.3553
vo	-10.3557
▁metal	-10.3563
▁calm	-10.3571
▁stranger	-10.3579
▁fourth	-10.3579
▁china	-10.358
▁moves	-10.3587
▁toast	-10.359
els	-10.3596
▁ze	-10.3597
▁bay	-10.3612
▁saved	-10.3613
wi	-10.3624
▁tr	-10.3624
use	-10.3662
zi	-10.3664
▁drinking	-10.3702
▁mate	-10.3718
▁log	-10.3723
rin	-10.3741
ble	-10.3755
are	-10.376
vocalizes	-10.376
▁pause	-10.3769
▁bump	-10.3771
fully	-10.3775
mic	-10.3776
▁2021	-10.3779
▁correct	-10.3782
▁prison	-10.3783
▁education	-10.3785
▁republic	-10.3785
▁ram	-10.3789
▁rules	-10.3789
▁caterpillar	-10.379
▁military	-10.379
▁thick	-10.3791
▁gentlemen	-10.3791
▁stock	-10.3791
▁medal	-10.3792
▁earlier	-10.3793
▁published	-10.3795
▁dirty	-10.3795
▁self	-10.3797
▁largest	-10.3799
▁angel	-10.3799
ung	-10.3803
▁fallen	-10.3803
▁total	-10.3808
▁lara	-10.3811
rat	-10.3813
▁bra	-10.3822
looking	-10.3823
did	-10.3826
▁noticed	-10.3828
▁stan	-10.3829
▁goodness	-10.3853
▁dig	-10.3862
▁christ	-10.3877
law	-10.3886
▁bla	-10.391
▁helped	-10.392
▁mac	-10.3921
▁wondering	-10.3926
▁fe	-10.3939
ez	-10.3941
▁cases	-10.3945
12	-10.3948
▁100	-10.3953
▁pool	-10.3962
▁pin	-10.3965
▁22	-10.3977
ap	-10.3988
soa	-10.4
▁continue	-10.4002
▁steps	-10.4003
▁serve	-10.4006
▁tin	-10.4008
▁pack	-10.4009
▁effect	-10.4019
▁anxious	-10.4028
▁current	-10.4029
mb	-10.4036
▁marriage	-10.404
▁museum	-10.404
▁opinion	-10.404
▁private	-10.404
▁research	-10.404
▁episode	-10.404
▁dancing	-10.404
▁tongue	-10.404
▁pirate	-10.4041
▁odd	-10.4041
▁photograph	-10.4042
▁production	-10.4044
▁mister	-10.4044
▁gang	-10.4045
▁partner	-10.4049
▁completely	-10.4051
▁plants	-10.4063
▁raised	-10.4065
▁par	-10.4071
▁plant	-10.409
▁bend	-10.4108
▁glance	-10.4108
▁higher	-10.4113
▁boss	-10.4114
▁26	-10.4117
▁dust	-10.412
▁magic	-10.4123
▁terms	-10.4143
10	-10.4146
ned	-10.4159
gar	-10.4164
▁players	-10.4177
▁windows	-10.4177
▁dar	-10.4182
▁lights	-10.4205
ign	-10.4211
ö	-10.4218
jes	-10.4218
▁sleeping	-10.4219
▁pit	-10.422
ker	-10.4228
▁officers	-10.4231
ept	-10.4238
▁rocks	-10.424
▁23	-10.4242
glo	-10.4261
▁regard	-10.4264
roz	-10.4267
▁smart	-10.4269
cries	-10.4279
▁patient	-10.4281
lon	-10.4282
▁quarter	-10.4285
▁civil	-10.4295
▁chicago	-10.4297
▁disease	-10.4297
▁downstairs	-10.4297
▁necessary	-10.4297
▁neither	-10.4297
▁statistics	-10.4297
▁launch	-10.4297
▁slip	-10.4297
▁bonnet	-10.4297
calais	-10.4297
▁actress	-10.4297
▁struck	-10.4297
▁2015	-10.4297
▁quack	-10.4298
▁2010	-10.4298
▁proud	-10.4299
▁duh	-10.4306
▁nest	-10.4314
▁forgive	-10.4316
▁thy	-10.4325
▁quietly	-10.4329
▁rid	-10.4347
ix	-10.4358
▁walks	-10.4362
▁mass	-10.4362
▁prove	-10.4363
▁wine	-10.4372
▁mill	-10.4374
▁afterwards	-10.438
▁male	-10.4413
▁char	-10.4414
ku	-10.4416
ack	-10.4432
▁kinda	-10.4437
▁bu	-10.4437
▁[2	-10.444
▁comp	-10.444
rit	-10.4453
▁william	-10.4454
war	-10.446
▁believed	-10.447
ern	-10.4474
▁calls	-10.4477
burg	-10.4491
ball	-10.4494
gle	-10.4498
--"	-10.4505
ius	-10.4505
▁doin	-10.4514
▁agree	-10.453
(	-10.4532
brother	-10.4534
▁fr	-10.4534
▁tour	-10.4537
▁release	-10.4537
jen	-10.4541
aid	-10.4542
_,	-10.4545
▁burn	-10.4549
▁snake	-10.4551
▁weak	-10.4552
▁excellent	-10.456
▁possibly	-10.456
▁friday	-10.456
▁contact	-10.456
▁papers	-10.456
▁blind	-10.456
▁buried	-10.456
▁curious	-10.456
▁shock	-10.456
▁valley	-10.4561
▁sport	-10.4561
▁detail	-10.4562
▁obviously	-10.4562
▁development	-10.4562
▁2004	-10.4564
▁text	-10.4564
▁boots	-10.4565
▁chain	-10.4568
▁italy	-10.4569
▁mike	-10.4569
▁chairman	-10.4575
16	-10.4581
cu	-10.4582
▁softly	-10.4586
▁settled	-10.4587
▁suggested	-10.4589
hand	-10.4597
▁mud	-10.4604
▁bart	-10.4618
▁hanging	-10.4626
▁event	-10.4629
▁eaten	-10.463
af	-10.4635
kar	-10.464
ney	-10.4653
▁plans	-10.4672
▁stra	-10.4688
▁gi	-10.4712
cent	-10.4714
▁claim	-10.4727
fer	-10.4744
ium	-10.4749
bra	-10.4753
tz	-10.4762
▁enter	-10.4771
▁cars	-10.4782
very	-10.4783
▁del	-10.4788
▁rule	-10.479
ab	-10.4791
▁collect	-10.4793
▁complete	-10.4794
berg	-10.4799
music	-10.4803
good	-10.4805
▁tip	-10.4808
nie	-10.4815
▁create	-10.4816
▁crowd	-10.4817
ino	-10.4819
▁express	-10.4827
▁fle	-10.4827
▁channel	-10.483
▁colonel	-10.483
▁dinosaur	-10.483
▁fifteen	-10.483
▁security	-10.483
▁pepper	-10.483
▁lawyer	-10.483
▁shore	-10.483
▁purple	-10.483
▁temple	-10.483
▁pillow	-10.483
▁influence	-10.4831
▁species	-10.4831
▁2019	-10.4831
▁leap	-10.4831
▁rough	-10.4831
▁fortune	-10.4832
▁secretary	-10.4832
▁european	-10.4837
▁load	-10.4843
▁perfectly	-10.4846
nic	-10.4852
▁tries	-10.4859
▁larger	-10.4863
▁generally	-10.4867
bye	-10.4869
▁offered	-10.4876
▁gay	-10.4878
▁smiled	-10.488
star	-10.4882
▁sits	-10.4889
▁tale	-10.4906
▁younger	-10.4909
▁dressed	-10.4913
▁salt	-10.4923
set	-10.4943
▁begins	-10.4945
miss	-10.4949
▁aged	-10.4964
ken	-10.4968
▁awful	-10.4971
▁brave	-10.4971
▁ways	-10.4979
aun	-10.4986
▁lamp	-10.4992
▁vo	-10.5003
▁chris	-10.5007
▁movies	-10.502
⌉	-10.5021
▁refer	-10.5024
ai	-10.5036
pas	-10.505
▁ham	-10.5066
▁seal	-10.5073
▁’	-10.5078
▁exist	-10.5081
▁jam	-10.5095
ft	-10.5095
▁sudden	-10.5096
▁honest	-10.5096
▁pray	-10.5098
▁discuss	-10.5103
▁advice	-10.5108
▁joseph	-10.5108
▁opposite	-10.5108
▁prevent	-10.5108
▁splash	-10.5108
▁supper	-10.5108
▁desert	-10.5108
▁bessie	-10.5108
▁edward	-10.5108
▁mount	-10.5108
▁transport	-10.5108
▁represent	-10.5108
▁switch	-10.5108
▁2006	-10.5109
▁leaf	-10.5109
▁novel	-10.5109
▁rope	-10.511
▁compete	-10.5111
▁rice	-10.5112
▁shift	-10.5112
▁2003	-10.5112
▁retired	-10.5114
▁yup	-10.5116
▁changes	-10.5117
▁beep	-10.5122
▁bike	-10.5126
▁gray	-10.5127
▁commander	-10.5127
▁mentioned	-10.5129
▁cal	-10.5131
▁showing	-10.5132
▁string	-10.5135
▁swing	-10.5139
▁27	-10.5147
▁successful	-10.5156
▁heat	-10.5164
▁barn	-10.517
▁growing	-10.5174
▁painting	-10.5177
▁orders	-10.5192
▁honour	-10.5193
sure	-10.5195
▁anti	-10.5197
▁harm	-10.5218
▁fellows	-10.5246
orn	-10.5254
morrow	-10.5254
ating	-10.5262
▁rat	-10.5262
nk	-10.5263
hy	-10.5272
▁dogs	-10.5273
▁landed	-10.5275
▁bare	-10.5282
▁bur	-10.5292
▁tears	-10.5294
▁ob	-10.5297
▁sis	-10.5297
▁--	-10.5308
▁sch	-10.5317
nder	-10.5326
ks	-10.5335
▁ger	-10.5344
▁suggest	-10.5355
▁deliver	-10.5362
▁flash	-10.5363
counter	-10.5368
▁decide	-10.5371
▁entire	-10.5382
▁normal	-10.5386
▁branch	-10.5388
▁opera	-10.539
▁rub	-10.5392
▁culture	-10.5394
▁emperor	-10.5394
▁sausage	-10.5394
▁simply	-10.5394
▁greek	-10.5394
▁strength	-10.5394
▁doggie	-10.5394
▁gordon	-10.5394
▁average	-10.5394
▁stairs	-10.5394
▁opportunity	-10.5394
▁content	-10.5394
▁desire	-10.5394
▁creature	-10.5394
▁pilot	-10.5394
▁shook	-10.5394
▁eleven	-10.5394
til	-10.5396
▁impossible	-10.5396
▁apartment	-10.5396
▁whistle	-10.5396
▁stream	-10.5397
▁sarah	-10.5398
▁guest	-10.5398
▁definitely	-10.5399
▁sake	-10.5399
▁nick	-10.5401
▁style	-10.5406
▁slave	-10.5411
▁firm	-10.5412
zy	-10.5417
-19	-10.5417
▁joke	-10.5417
▁consist	-10.5419
▁rep	-10.542
▁shouted	-10.5424
voc	-10.5425
▁fu	-10.5427
▁tough	-10.5431
▁promised	-10.5441
▁explained	-10.5443
▁knowing	-10.5444
ther	-10.5444
mate	-10.545
▁cooking	-10.5459
▁jumped	-10.5473
▁rap	-10.5482
▁1,	-10.549
▁ri	-10.5498
gue	-10.5513
▁bother	-10.5526
▁cho	-10.5528
nods	-10.5529
▁bug	-10.553
ada	-10.5531
21	-10.5548
▁q	-10.5552
▁listening	-10.5556
▁mal	-10.5556
mr	-10.5573
▁critic	-10.5575
▁wheels	-10.5577
▁favor	-10.5602
▁artist	-10.5634
▁spin	-10.5636
▁pu	-10.5649
▁sin	-10.5653
&	-10.566
▁realize	-10.5662
two	-10.5665
rid	-10.5667
▁proper	-10.5677
▁usual	-10.5679
▁hunt	-10.568
▁conduct	-10.568
▁ned	-10.5686
▁kim	-10.5688
▁equal	-10.5688
▁modern	-10.5688
▁request	-10.5688
▁studied	-10.5688
▁polish	-10.5688
▁positive	-10.5688
▁rifle	-10.5688
▁scratch	-10.5688
▁shopping	-10.5688
▁horsie	-10.5688
▁purdie	-10.5688
▁value	-10.5688
▁banana	-10.5688
▁grandmother	-10.5689
▁sentence	-10.569
▁canadian	-10.569
▁academy	-10.569
▁tribe	-10.5691
▁canoe	-10.5691
▁fence	-10.5691
▁fool	-10.5691
▁basket	-10.5692
▁cash	-10.5696
▁manager	-10.5696
▁sixty	-10.5697
▁anywhere	-10.5698
▁steve	-10.5698
▁goodbye	-10.57
▁spare	-10.5701
▁uhuh	-10.5703
▁grown	-10.5706
▁remarked	-10.5707
▁managed	-10.5709
▁spoken	-10.5709
▁debut	-10.5709
sses	-10.5714
▁rail	-10.5716
▁mail	-10.5717
▁justice	-10.5717
▁princess	-10.572
▁carefully	-10.5726
▁holy	-10.5734
▁groups	-10.5757
▁engineer	-10.576
▁fixed	-10.5766
▁sigh	-10.577
je	-10.5785
▁nope	-10.5791
▁lips	-10.5796
▁yay	-10.5802
toy	-10.582
▁author	-10.5825
▁islands	-10.5828
▁folks	-10.5835
lie	-10.5837
see	-10.585
▁eric	-10.5874
mark	-10.5887
▁bru	-10.5896
▁han	-10.5899
▁50	-10.5901
▁trans	-10.5903
whispers	-10.5915
ock	-10.5931
cap	-10.5937
▁faith	-10.5943
har	-10.5956
▁unit	-10.5958
▁aid	-10.5959
▁advance	-10.5963
▁receive	-10.5965
▁fail	-10.5971
▁dolls	-10.5976
▁russia	-10.5982
▁belong	-10.5984
will	-10.5987
ett	-10.5989
▁scott	-10.599
▁select	-10.599
▁percent	-10.5991
▁access	-10.5991
▁evidence	-10.5991
▁magazine	-10.5991
▁understood	-10.5991
▁federal	-10.5991
▁split	-10.5991
▁latter	-10.5991
▁polly	-10.5991
▁powder	-10.5991
▁tractor	-10.5991
▁buck	-10.5991
▁italian	-10.5991
▁delay	-10.5991
▁caroline	-10.5991
▁performance	-10.5991
▁2009	-10.5991
▁swim	-10.5992
▁ladder	-10.5993
▁cities	-10.5994
▁weekend	-10.5994
▁hum	-10.5997
▁clown	-10.5997
▁involved	-10.5999
▁section	-10.6002
▁alarm	-10.6005
▁cock	-10.6007
▁developed	-10.6008
▁lin	-10.601
▁produced	-10.6013
▁tank	-10.6016
▁code	-10.6019
▁vessel	-10.6024
▁condition	-10.6027
gon	-10.6029
vocalize	-10.6029
▁clearly	-10.6029
▁mayor	-10.6039
▁matt	-10.604
▁cute	-10.6056
▁mont	-10.6064
▁shout	-10.6075
▁smaller	-10.6076
14	-10.6085
▁poo	-10.6089
▁fully	-10.6095
peter	-10.6104
▁sur	-10.6105
▁non	-10.6106
▁indians	-10.6127
▁bomb	-10.6137
▁streets	-10.6151
run	-10.6168
▁net	-10.6175
▁wings	-10.6176
ug	-10.6179
▁wha	-10.6204
▁hug	-10.6207
▁crack	-10.6224
dor	-10.6259
▁owner	-10.6259
ught	-10.6262
▁cups	-10.6271
▁ski	-10.6271
▁tan	-10.6271
▁mix	-10.6278
phone	-10.6278
▁hmm	-10.6285
▁rod	-10.6285
about	-10.6287
▁za	-10.6292
▁regular	-10.6292
▁australia	-10.6295
▁occasion	-10.6297
▁gain	-10.6299
▁knife	-10.6303
▁mirror	-10.6303
▁penguin	-10.6303
▁response	-10.6303
▁sixteen	-10.6303
▁stomach	-10.6303
▁threw	-10.6303
▁chinese	-10.6303
▁merry	-10.6303
▁daniel	-10.6304
▁jerry	-10.6304
▁fancy	-10.6304
▁bucket	-10.6304
▁towel	-10.6304
▁sword	-10.6305
▁whiskers	-10.6305
▁garage	-10.6305
▁neighbor	-10.6305
▁penny	-10.6306
▁agent	-10.6306
ano	-10.6307
▁jar	-10.6312
▁firstname	-10.6312
▁frightened	-10.6314
▁remind	-10.6315
▁spoil	-10.6318
▁br	-10.6323
▁areas	-10.6326
▁ross	-10.6329
▁repeated	-10.633
▁greatest	-10.6334
▁mixed	-10.6335
▁whispered	-10.6337
qua	-10.634
▁filled	-10.6347
▁victim	-10.6347
▁bush	-10.6357
▁upper	-10.636
▁closer	-10.6362
▁included	-10.6376
▁rome	-10.6377
▁dreams	-10.6381
oy	-10.6382
▁remained	-10.6384
▁fa	-10.6402
ake	-10.6406
table	-10.6426
▁hy	-10.6465
▁fishing	-10.6466
coughs	-10.6469
▁tro	-10.6471
▁ce	-10.6475
:00	-10.6479
▁helping	-10.6486
▁comfort	-10.6487
15	-10.65
▁mon	-10.6505
▁nap	-10.6511
ath	-10.6513
"]	-10.6521
▁note	-10.6522
▁sy	-10.6535
pose	-10.654
oc	-10.6544
ark	-10.6549
▁pla	-10.6556
▁training	-10.6563
cher	-10.6566
▁boom	-10.6572
net	-10.6577
lyn	-10.6578
win	-10.6578
▁discover	-10.6581
40	-10.6595
▁increase	-10.6598
▁tax	-10.66
▁keys	-10.6603
▁hay	-10.6613
▁instant	-10.6614
▁gentle	-10.6623
▁photo	-10.6623
▁trail	-10.6625
ā	-10.6626
▁degree	-10.6626
▁pencil	-10.6626
▁practice	-10.6626
▁texas	-10.6626
▁treasure	-10.6626
▁ancient	-10.6626
▁respond	-10.6626
▁balloon	-10.6626
▁turtle	-10.6626
▁priest	-10.6626
▁surface	-10.6626
top	-10.6626
▁freedom	-10.6626
▁1992	-10.6626
▁irish	-10.6627
▁2002	-10.6627
▁print	-10.6627
▁authority	-10.6627
▁worst	-10.6627
▁aware	-10.6628
▁comment	-10.6628
▁nursery	-10.6628
▁cliff	-10.663
▁bless	-10.6633
▁drum	-10.6634
boy	-10.6634
▁postman	-10.6636
▁waited	-10.6637
▁sla	-10.6638
▁reply	-10.6639
▁lamb	-10.6645
▁trap	-10.6645
▁ruth	-10.6648
▁fireman	-10.6649
▁canada	-10.6659
▁failed	-10.666
▁shouting	-10.6666
▁events	-10.667
▁sale	-10.6672
▁brothers	-10.6673
rd	-10.6675
▁31	-10.668
▁locked	-10.6681
cer	-10.6685
▁sink	-10.6691
▁val	-10.6693
say	-10.6695
dic	-10.6695
▁issue	-10.6702
▁recording	-10.6703
ella	-10.6733
▁figures	-10.6745
▁feelings	-10.6753
board	-10.6765
▁oil	-10.6769
place	-10.6772
pan	-10.6775
▁affairs	-10.6778
▁prime	-10.6785
▁cough	-10.6789
▁cur	-10.679
▁olympics	-10.6797
▁surely	-10.6803
▁peas	-10.6803
rate	-10.6806
zo	-10.6817
▁seconds	-10.6835
▁picking	-10.6843
tain	-10.6854
▁fashion	-10.6855
▁fired	-10.6861
▁comm	-10.6864
shed	-10.6866
illa	-10.6872
ay	-10.6874
▁cre	-10.688
▁students	-10.6881
▁rings	-10.6886
▁goals	-10.6889
▁ee	-10.689
▁approach	-10.6892
ery	-10.6893
▁iii	-10.6898
play	-10.6898
ec	-10.6907
▁ser	-10.6912
▁belongs	-10.6921
▁tra	-10.693
▁delight	-10.6931
year	-10.6943
▁aside	-10.6943
▁ken	-10.6944
▁hung	-10.6952
▁teams	-10.6952
▁hearing	-10.6955
▁congress	-10.6959
▁exercise	-10.6959
▁individual	-10.6959
▁beauty	-10.6959
▁butterfly	-10.6959
▁instrument	-10.6959
▁majesty	-10.6959
▁matthew	-10.6959
▁soviet	-10.6959
▁deserve	-10.6959
▁method	-10.6959
▁source	-10.6959
▁eighteen	-10.6959
▁session	-10.6959
▁steady	-10.6959
▁credit	-10.6959
▁jelly	-10.6959
filler	-10.6959
▁peanut	-10.6959
▁peggy	-10.6959
▁boston	-10.6959
▁narrow	-10.696
▁brook	-10.696
posta	-10.696
▁duke	-10.696
▁plot	-10.6961
▁consider	-10.6962
stand	-10.6963
▁powerful	-10.6963
▁buzz	-10.6963
▁chemical	-10.6963
▁jones	-10.6964
▁secure	-10.6965
▁scare	-10.6967
▁examine	-10.6967
▁staff	-10.6971
▁voices	-10.6971
▁trial	-10.6972
▁african	-10.6973
▁wedding	-10.6978
▁particularly	-10.6979
▁removed	-10.6984
▁etc	-10.6988
▁rear	-10.6991
▁upset	-10.6991
▁remembered	-10.6997
▁hunting	-10.6997
▁verse	-10.6999
▁dee	-10.7
▁der	-10.7008
▁jan	-10.7017
last	-10.7025
▁comic	-10.7029
▁arch	-10.7044
▁comb	-10.7063
▁troops	-10.7087
▁pulling	-10.7102
boo	-10.7115
▁(19	-10.7119
▁forms	-10.7124
▁nana	-10.7126
▁ordered	-10.7133
was	-10.7147
pol	-10.7163
▁cu	-10.7163
▁yards	-10.7165
▁cell	-10.7175
ities	-10.7179
ere	-10.7188
▁stayed	-10.7198
ome	-10.7241
▁fer	-10.7264
ala	-10.7275
▁grace	-10.7283
▁snap	-10.7289
▁woo	-10.729
▁tha	-10.7299
▁ph	-10.7301
▁guitar	-10.7303
▁advantage	-10.7304
▁campaign	-10.7304
▁hockey	-10.7304
▁squirrel	-10.7304
▁switzerland	-10.7304
▁underneath	-10.7304
▁ahhah	-10.7304
▁biggest	-10.7304
▁presence	-10.7304
▁gently	-10.7304
▁newspaper	-10.7304
▁turkey	-10.7304
▁1970	-10.7305
▁grandfather	-10.7305
▁crane	-10.7306
▁alex	-10.7307
▁toilet	-10.7307
▁arthur	-10.731
▁mamma	-10.7311
▁~	-10.7311
▁crown	-10.7313
▁alien	-10.7316
▁invited	-10.7316
▁lucy	-10.7317
▁properly	-10.7318
▁pitcher	-10.7319
▁elected	-10.732
pro	-10.7321
▁highest	-10.7322
ria	-10.7322
▁brand	-10.7322
▁fed	-10.7326
▁losing	-10.7332
▁sweetie	-10.7347
▁roar	-10.7354
cus	-10.7355
rah	-10.736
▁wire	-10.7361
▁grant	-10.7363
lor	-10.7365
▁eighty	-10.737
ea	-10.737
▁presently	-10.7375
▁washing	-10.7377
0,000	-10.7378
▁ray	-10.7382
▁student	-10.7385
dis	-10.7386
▁dada	-10.7389
▁lesson	-10.7395
ttle	-10.7399
▁friendly	-10.7406
▁structure	-10.7407
▁ash	-10.7421
more	-10.7422
▁heads	-10.7423
ray	-10.7431
▁para	-10.7432
▁bomba	-10.7447
▁hu	-10.7447
ize	-10.747
▁vol	-10.7482
▁listened	-10.7497
▁paying	-10.7498
ica	-10.751
▁rode	-10.7511
bout	-10.7518
gro	-10.7522
▁pile	-10.7527
▁waste	-10.7534
▁pale	-10.7537
▁bon	-10.7544
▁shops	-10.7554
⌋.	-10.7559
▁yu	-10.7559
▁goal	-10.7564
▁flu	-10.7584
▁sal	-10.7586
▁wal	-10.7588
his	-10.7588
elle	-10.759
ike	-10.759
▁shower	-10.7602
▁tam	-10.7615
shire	-10.7621
work	-10.7628
`	-10.7633
worth	-10.7633
▁describe	-10.7634
walk	-10.7634
▁laws	-10.764
book	-10.7641
gh	-10.7642
ax	-10.7644
▁chase	-10.7646
▁grandpa	-10.7649
▁brief	-10.7649
▁previous	-10.7649
▁awards	-10.765
▁types	-10.7655
▁beg	-10.7657
▁magnet	-10.766
▁sum	-10.766
▁birth	-10.766
▁product	-10.7661
vocalization	-10.7661
▁assembly	-10.7661
▁available	-10.7661
▁competition	-10.7661
▁economic	-10.7661
▁restaurant	-10.7661
▁studio	-10.7661
▁temperature	-10.7661
▁article	-10.7661
▁snack	-10.7661
▁plastic	-10.7661
▁amazing	-10.7661
▁dutch	-10.7661
▁shelter	-10.7661
▁squash	-10.7661
▁occurred	-10.7661
▁internet	-10.7662
▁savage	-10.7662
▁ellie	-10.7662
▁planning	-10.7662
bl	-10.7662
▁meanwhile	-10.7663
▁pony	-10.7663
▁airport	-10.7664
▁ninety	-10.7666
▁alice	-10.7666
▁burst	-10.7668
▁chosen	-10.7668
▁established	-10.7669
▁jacket	-10.7669
▁pants	-10.767
▁spite	-10.767
▁setting	-10.7673
▁motor	-10.7674
▁eva	-10.7675
▁tender	-10.7675
▁entirely	-10.7676
▁observed	-10.7677
▁currently	-10.7678
▁directly	-10.7681
▁skill	-10.7684
▁woke	-10.7692
▁mainly	-10.7693
bury	-10.77
▁hook	-10.7702
▁household	-10.7702
cal	-10.7702
▁riding	-10.7708
▁spy	-10.7718
aud	-10.7719
▁bond	-10.7719
ini	-10.7721
pin	-10.7725
▁nearer	-10.7731
▁map	-10.7736
▁rolled	-10.7737
▁stands	-10.774
▁chat	-10.7741
▁forced	-10.7745
die	-10.7747
bert	-10.7749
▁signed	-10.775
▁whale	-10.775
▁quit	-10.7753
▁effort	-10.7757
▁settle	-10.7757
▁[3	-10.7759
your	-10.7759
▁pushed	-10.7772
ux	-10.7777
▁soup	-10.78
ough	-10.7809
mad	-10.781
▁mustn	-10.7822
▁musical	-10.7824
ably	-10.7839
▁ci	-10.7839
▁goat	-10.7842
▁bricks	-10.7872
ré	-10.7876
▁brad	-10.7882
▁greatly	-10.7899
ura	-10.79
▁ban	-10.7901
ory	-10.7903
▁cy	-10.791
tis	-10.7917
▁referr	-10.7919
▁stepp	-10.792
▁cards	-10.7926
▁cookies	-10.794
lau	-10.7947
pointing	-10.7949
uch	-10.7955
nes	-10.7969
▁pur	-10.797
▁dish	-10.7994
▁produce	-10.7997
▁wound	-10.7999
▁faces	-10.8004
▁str	-10.8006
▁speaks	-10.8007
▁recognize	-10.8007
eva	-10.8007
▁repeat	-10.8009
▁arrange	-10.801
80	-10.8018
▁silent	-10.802
▁depend	-10.8022
▁potato	-10.8026
hood	-10.8027
▁remove	-10.8029
▁circus	-10.8032
▁companies	-10.8032
▁energy	-10.8032
▁fifth	-10.8032
▁icecream	-10.8032
▁material	-10.8032
▁policy	-10.8032
▁slept	-10.8032
▁supply	-10.8032
▁arrival	-10.8032
▁pakistan	-10.8032
▁smooth	-10.8032
▁tournament	-10.8032
▁ocean	-10.8032
▁protest	-10.8032
▁habit	-10.8032
▁mummie	-10.8032
▁medical	-10.8032
▁nerve	-10.8032
▁detective	-10.8032
▁bodies	-10.8032
▁palace	-10.8032
▁hammer	-10.8032
▁covid	-10.8032
▁railway	-10.8033
▁latin	-10.8033
▁2001	-10.8033
▁ireland	-10.8033
▁bruce	-10.8034
▁bre	-10.8034
▁florence	-10.8034
▁shame	-10.8035
▁comfortable	-10.8035
▁cabin	-10.8036
▁2000	-10.8036
▁dun	-10.8037
▁frame	-10.8038
▁darkness	-10.804
▁victory	-10.804
▁pooh	-10.8041
▁cop	-10.8042
▁marry	-10.8043
▁craft	-10.8043
▁glasses	-10.8044
▁whenever	-10.8044
▁fla	-10.8046
19	-10.8057
▁customer	-10.8059
▁link	-10.8064
fall	-10.8069
babbles	-10.8071
yo	-10.8082
fra	-10.8087
▁dave	-10.8087
▁media	-10.8087
64	-10.8098
ates	-10.8101
▁expecting	-10.8104
▁drove	-10.8109
24	-10.8114
▁rent	-10.8125
▁jumping	-10.8138
▁acting	-10.8152
▁carrying	-10.8154
stone	-10.8155
▁scream	-10.8155
▁legal	-10.8162
▁crayons	-10.8167
wan	-10.8181
eth	-10.8196
200	-10.8198
fu	-10.8202
▁twin	-10.8211
▁measure	-10.8211
▁gran	-10.8213
▁eve	-10.8215
▁lou	-10.8221
▁ge	-10.8222
▁sticker	-10.8246
cla	-10.8268
▁disc	-10.827
▁characters	-10.8318
▁bits	-10.8321
▁grab	-10.8326
▁lies	-10.8348
long	-10.8364
▁luc	-10.8369
▁confess	-10.837
▁suspect	-10.8383
▁destroy	-10.8384
[	-10.8388
▁records	-10.8388
▁clap	-10.8388
▁chest	-10.8398
▁qua	-10.8404
▁admit	-10.8415
ou	-10.8415
▁benefit	-10.8416
▁carriage	-10.8416
▁fortunate	-10.8416
▁industry	-10.8416
▁universe	-10.8416
▁hidden	-10.8416
▁sweetheart	-10.8416
▁widow	-10.8416
▁organization	-10.8416
▁afford	-10.8416
▁strawberry	-10.8416
▁focus	-10.8416
▁chew	-10.8417
▁basketball	-10.8417
▁2023	-10.8417
▁dump	-10.8417
footnote	-10.8417
▁management	-10.8418
▁grey	-10.8418
▁occupied	-10.8418
▁elder	-10.8419
▁fever	-10.8419
▁grandad	-10.842
▁broad	-10.842
▁manage	-10.842
▁warren	-10.8421
▁passage	-10.8421
▁straw	-10.8422
▁weird	-10.8422
▁trace	-10.8422
▁click	-10.8422
ied	-10.8423
▁recently	-10.8424
▁prefer	-10.8426
▁related	-10.8426
▁determined	-10.8428
▁limb	-10.8429
▁nearest	-10.843
▁copy	-10.8432
door	-10.8432
▁witch	-10.8435
▁nail	-10.8437
whine	-10.8439
▁saving	-10.844
▁alter	-10.844
▁warning	-10.844
▁performed	-10.8443
▁gathered	-10.8445
▁bone	-10.8445
▁owe	-10.8446
▁disappeared	-10.8447
▁cloth	-10.8447
five	-10.8447
sung	-10.8448
▁owl	-10.845
▁arts	-10.8453
▁pole	-10.8456
off	-10.8459
▁fairy	-10.8459
▁thrown	-10.8463
▁display	-10.8477
▁beans	-10.8481
ncy	-10.8485
rum	-10.8487
py	-10.8489
▁hills	-10.8514
▁sooner	-10.8518
▁uses	-10.8529
▁parish	-10.853
▁tent	-10.8537
▁adventure	-10.8538
▁nation	-10.8543
▁soldier	-10.8543
▁shoulders	-10.856
▁file	-10.8562
▁flow	-10.8566
turns	-10.8569
▁introduce	-10.8586
▁rev	-10.8594
▁asian	-10.86
uring	-10.861
▁chap	-10.8614
▁tend	-10.8617
▁squeeze	-10.8619
▁beam	-10.8643
▁gil	-10.8646
ann	-10.8668
▁pad	-10.868
hall	-10.8688
▁fra	-10.8692
▁staying	-10.8702
▁aft	-10.8707
▁blo	-10.8713
▁din	-10.8718
ash	-10.8739
▁arab	-10.8739
ale	-10.8744
ear	-10.8746
▁conditions	-10.8769
▁doors	-10.8769
▁chang	-10.8774
ingly	-10.8782
▁disappear	-10.8784
silence	-10.8788
down	-10.879
25	-10.8791
▁cheap	-10.8807
ara	-10.8809
▁cart	-10.8809
▁ker	-10.881
▁alexander	-10.8816
▁centuries	-10.8816
▁conference	-10.8816
▁elizabeth	-10.8816
▁nicole	-10.8816
▁scarcely	-10.8816
▁spaghetti	-10.8816
▁territory	-10.8816
▁tunnel	-10.8816
▁shadow	-10.8816
▁contract	-10.8816
▁eagle	-10.8816
▁meadow	-10.8816
▁barrel	-10.8816
▁expert	-10.8816
▁foreign	-10.8816
▁plum	-10.8816
▁1950	-10.8816
▁oven	-10.8816
▁sauce	-10.8816
▁excitement	-10.8816
▁fond	-10.8817
▁kidding	-10.8817
▁dawn	-10.8817
▁ticket	-10.8817
▁trunk	-10.8817
▁festival	-10.8818
▁guide	-10.8818
▁byebye	-10.8818
▁dragon	-10.8818
▁property	-10.8818
▁rattle	-10.8818
▁devil	-10.8819
▁illustrations	-10.8819
▁flame	-10.8819
▁winner	-10.8821
▁safety	-10.8821
▁invent	-10.8822
▁extremely	-10.8822
▁keen	-10.8823
▁rapidly	-10.8825
▁blame	-10.883
▁ballet	-10.883
▁shining	-10.884
18	-10.8842
▁effects	-10.8849
▁loose	-10.8849
▁wore	-10.8851
3]	-10.8854
▁fairly	-10.8855
▁recorder	-10.8856
▁burning	-10.8868
▁tar	-10.8869
▁dragg	-10.887
▁mission	-10.8873
▁pr	-10.8875
▁waves	-10.8878
55	-10.8879
▁seeds	-10.8882
▁rise	-10.8888
▁op	-10.8892
▁fate	-10.89
▁rolling	-10.8904
▁gloves	-10.8914
▁height	-10.892
nu	-10.8921
hoo	-10.8935
▁ideas	-10.8937
▁belt	-10.8947
iling	-10.8949
▁clouds	-10.8952
▁feels	-10.896
▁prisoner	-10.8972
▁bun	-10.8988
▁iv	-10.8991
▁oop	-10.8993
▁pas	-10.8995
▁chairs	-10.9004
▁provide	-10.9005
late	-10.901
▁drug	-10.9021
▁fields	-10.9035
under	-10.9055
▁uk	-10.9075
▁bones	-10.9113
giggles	-10.9115
▁deer	-10.9123
87	-10.9128
▁rec	-10.913
▁organ	-10.9132
▁complain	-10.9144
▁sim	-10.9168
▁tap	-10.9181
awa	-10.9186
rya	-10.9187
ik	-10.9188
bus	-10.9198
▁apples	-10.9198
town	-10.9199
▁zoo	-10.9204
which	-10.9205
mhm	-10.9207
▁separate	-10.9209
▁steal	-10.9209
▁mention	-10.9211
▁mus	-10.9213
▁lil	-10.9218
▁cheek	-10.922
▁eager	-10.9221
▁actual	-10.9222
ration	-10.9222
▁korea	-10.9224
▁wipe	-10.9228
▁egypt	-10.9232
▁brilliant	-10.9233
▁consult	-10.9233
▁despite	-10.9233
▁easier	-10.9233
▁expensive	-10.9233
▁florida	-10.9233
▁giraffe	-10.9233
▁mistress	-10.9233
▁puppy	-10.9233
▁composed	-10.9233
▁temper	-10.9233
▁belief	-10.9233
▁avoid	-10.9233
▁affect	-10.9233
▁broadcast	-10.9233
ology	-10.9233
▁worship	-10.9233
▁transfer	-10.9233
▁stroke	-10.9233
▁constitution	-10.9233
▁tear	-10.9233
▁1999	-10.9234
▁piano	-10.9234
▁harold	-10.9234
▁salad	-10.9234
▁solid	-10.9234
▁backwards	-10.9234
▁review	-10.9234
▁slice	-10.9234
▁yummy	-10.9235
▁stern	-10.9235
▁beads	-10.9236
▁standard	-10.9238
▁dishes	-10.9239
▁brian	-10.924
▁compare	-10.924
▁baba	-10.924
▁bunch	-10.9241
▁becky	-10.9243
▁peak	-10.9243
tri	-10.9243
▁throughout	-10.9245
▁emotion	-10.9245
▁maid	-10.9245
▁engaged	-10.9245
▁relative	-10.9249
wing	-10.9253
fire	-10.9256
▁40	-10.9262
▁jess	-10.9262
▁nu	-10.9262
ob	-10.9266
▁wooden	-10.9267
▁wounded	-10.9269
▁breed	-10.9273
▁forever	-10.9275
▁ter	-10.9275
▁gained	-10.9276
▁paused	-10.928
▁upside	-10.9283
▁virginia	-10.9286
▁yell	-10.9287
▁robber	-10.9289
▁noble	-10.9296
/0	-10.9298
▁circumstances	-10.9299
▁fin	-10.9304
▁knocked	-10.9308
▁comedy	-10.931
ify	-10.9311
▁hasta	-10.9326
▁sar	-10.9331
⌋	-10.9354
▁reaching	-10.9359
▁buildings	-10.9365
▁allah	-10.939
▁sara	-10.9393
riv	-10.9398
▁peep	-10.9406
▁williams	-10.9409
▁ted	-10.9409
▁kindly	-10.9411
▁wondered	-10.9419
▁fund	-10.9421
ability	-10.9437
▁mur	-10.9438
▁socks	-10.9445
tti	-10.9446
yard	-10.9448
shouts	-10.9458
▁clip	-10.9466
▁(1	-10.9467
kh	-10.9467
eous	-10.9473
ctor	-10.9474
key	-10.9485
▁asia	-10.9488
mel	-10.9492
west	-10.95
▁wo	-10.9518
▁depends	-10.9545
▁squ	-10.9552
▁reasons	-10.9557
▁chart	-10.9563
▁becomes	-10.9571
▁cells	-10.9575
nar	-10.9592
86	-10.9593
▁defend	-10.9598
making	-10.9599
▁suffer	-10.9602
▁gather	-10.9602
non	-10.9614
▁crow	-10.9628
▁loss	-10.9628
ograph	-10.963
000	-10.963
▁attend	-10.9635
▁demand	-10.9638
perhaps	-10.964
▁damage	-10.9641
tail	-10.9652
most	-10.9657
bed	-10.9657
▁[5	-10.9659
▁descend	-10.966
after	-10.9664
▁progress	-10.9667
▁revolution	-10.9667
▁electric	-10.9667
è	-10.9667
▁climate	-10.9668
▁corporation	-10.9668
▁cricket	-10.9668
▁desperate	-10.9668
▁entrance	-10.9668
▁hurricane	-10.9668
▁nineteen	-10.9668
▁ordinary	-10.9668
▁peekaboo	-10.9668
▁principal	-10.9668
▁resident	-10.9668
▁swallow	-10.9668
▁sydney	-10.9668
▁tuesday	-10.9668
▁vacation	-10.9668
▁vehicle	-10.9668
▁wednesday	-10.9668
▁zealand	-10.9668
▁zzz	-10.9668
}	-10.9668
▁1994	-10.9668
▁glory	-10.9668
▁reckon	-10.9668
ü	-10.9668
▁false	-10.9668
▁particle	-10.9668
▁crisp	-10.9668
▁commission	-10.9668
▁barbara	-10.9668
▁susan	-10.9668
▁network	-10.9668
▁kitten	-10.9668
▁thunder	-10.9668
▁racing	-10.9668
▁severe	-10.9669
▁agency	-10.9669
▁legend	-10.9669
▁cents	-10.967
▁faint	-10.967
▁walter	-10.967
▁plus	-10.967
▁audience	-10.9671
▁lisa	-10.9671
▁poet	-10.9671
▁construction	-10.9671
▁satisfied	-10.9672
▁otherwise	-10.9672
▁julie	-10.9673
▁dunno	-10.9673
▁neat	-10.9673
▁robin	-10.9674
▁screen	-10.9674
▁tommy	-10.9674
▁steel	-10.9676
▁tune	-10.9677
var	-10.9677
father	-10.9677
▁seventy	-10.9677
▁seized	-10.9677
▁cutting	-10.9678
▁label	-10.9678
▁punch	-10.9679
▁statement	-10.968
▁succeeded	-10.9683
▁profit	-10.9683
▁chess	-10.9684
▁stable	-10.9685
▁kisses	-10.9686
▁required	-10.9688
▁connected	-10.9688
▁sailor	-10.9692
▁rob	-10.9693
ole	-10.9693
▁concerned	-10.9697
▁sally	-10.9698
▁originally	-10.9699
▁suffered	-10.97
▁holes	-10.9701
▁tickle	-10.9707
▁bud	-10.9707
▁drawn	-10.9708
▁lit	-10.9709
▁headquarters	-10.9724
▁somehow	-10.9726
▁faster	-10.9727
▁3,	-10.9733
▁2020)	-10.9735
▁dam	-10.9737
▁faithful	-10.9737
▁boxes	-10.9739
▁shooting	-10.9741
▁frogs	-10.9744
▁forces	-10.9749
▁ward	-10.9749
▁killing	-10.9766
▁somewhat	-10.9775
len	-10.9775
▁kissed	-10.9775
▁coal	-10.9777
▁coin	-10.9786
▁kan	-10.9787
▁counter	-10.9797
▁visited	-10.98
▁mmm	-10.9817
▁ringing	-10.982
▁hut	-10.9822
▁los	-10.9827
▁seek	-10.9829
▁blu	-10.9842
▁ec	-10.9845
▁candy	-10.9848
▁carrots	-10.9851
lop	-10.9854
▁cro	-10.9854
▁mood	-10.9855
▁sheet	-10.9866
▁anton	-10.9875
▁throwing	-10.9876
▁wished	-10.9878
▁yard	-10.988
▁quot	-10.9898
▁ali	-10.9913
itch	-10.9927
ean	-10.9933
▁sounded	-10.9943
pic	-10.9945
mond	-10.9956
▁prisoners	-10.9971
▁mile	-10.9984
▁shh	-10.9998
▁efforts	-11.0004
▁1998	-11.0006
▁willing	-11.0008
omed	-11.0009
▁gla	-11.0014
▁stores	-11.0046
pot	-11.0049
▁ry	-11.0064
▁continu	-11.0072
▁flo	-11.0086
▁perform	-11.0089
eh	-11.0089
▁stretch	-11.009
▁pal	-11.0092
▁fold	-11.0093
▁pitch	-11.0105
▁witness	-11.0118
▁brazil	-11.0121
▁parliament	-11.0121
▁neighbour	-11.0122
ú	-11.0122
▁acquaintance	-11.0122
▁continent	-11.0122
▁embarrass	-11.0122
▁experiment	-11.0122
▁illinois	-11.0122
▁library	-11.0122
▁mexico	-11.0122
▁quality	-11.0122
▁responsible	-11.0122
▁scotland	-11.0122
▁thirteen	-11.0122
▁tissue	-11.0122
▁traffic	-11.0122
▁volume	-11.0122
▁accompani	-11.0122
▁deputy	-11.0122
▁pattern	-11.0122
▁retreat	-11.0122
▁slipped	-11.0122
▁survey	-11.0122
▁nepal	-11.0122
▁anchor	-11.0122
▁emergency	-11.0122
▁fought	-11.0122
▁relationship	-11.0122
▁fetch	-11.0122
▁eddie	-11.0122
▁piggy	-11.0122
▁addition	-11.0123
▁britain	-11.0123
▁maintain	-11.0123
▁feast	-11.0123
▁wilson	-11.0123
▁winnie	-11.0124
▁foolish	-11.0124
▁familiar	-11.0124
▁donald	-11.0124
▁danny	-11.0124
▁thread	-11.0124
▁task	-11.0124
▁scale	-11.0124
▁draft	-11.0125
▁lonely	-11.0126
▁fuel	-11.0127
▁woof	-11.0127
▁(201	-11.0127
▁winning	-11.0132
▁chips	-11.0132
▁patsy	-11.0132
▁handsome	-11.0132
▁madame	-11.0132
▁soil	-11.0134
▁useful	-11.0134
▁chick	-11.0134
▁0	-11.0136
▁replaced	-11.0137
▁doggy	-11.0141
▁worm	-11.0148
▁billion	-11.0148
▁anyhow	-11.0154
▁exp	-11.0154
▁bags	-11.0157
groans	-11.0166
▁fuss	-11.0167
▁soap	-11.0168
▁blessing	-11.0169
▁hunter	-11.0173
▁dreadful	-11.0174
▁lest	-11.0179
▁ur	-11.0179
▁fc	-11.0184
▁boats	-11.0188
▁andrew	-11.0192
▁footballer	-11.02
▁nina	-11.0201
▁services	-11.0202
▁rocky	-11.0206
▁guards	-11.0213
▁drawer	-11.0214
▁gall	-11.0227
▁whisper	-11.0235
zer	-11.024
▁learning	-11.024
kf	-11.026
▁aah	-11.0266
▁187	-11.0267
▁programme	-11.0269
fect	-11.0272
ever	-11.0273
▁wing	-11.028
▁walls	-11.0286
babble	-11.0297
hou	-11.0305
▁mel	-11.0309
make	-11.0316
▁touched	-11.032
▁rip	-11.0328
▁brick	-11.0329
rio	-11.0336
▁aboard	-11.034
▁pear	-11.0355
udge	-11.0365
▁grade	-11.0373
▁greater	-11.0381
▁chan	-11.0388
▁ducks	-11.04
ched	-11.0403
▁reg	-11.0404
29	-11.0416
▁doc	-11.0424
▁drugs	-11.0431
▁jobs	-11.0437
▁sticks	-11.0442
nda	-11.0452
▁sno	-11.0463
▁towns	-11.0477
▁pee	-11.0486
ika	-11.0497
▁strip	-11.0498
▁issues	-11.0515
bin	-11.0521
▁mak	-11.0528
▁iran	-11.0542
28	-11.0547
▁wan	-11.0552
minated	-11.0565
▁arrest	-11.0566
▁concern	-11.0566
▁hire	-11.0566
bird	-11.057
hmm	-11.0572
known	-11.0575
▁mil	-11.0576
und	-11.0583
because	-11.0584
22	-11.0585
▁strike	-11.0588
▁wil	-11.0589
▁chose	-11.0594
59	-11.0595
▁cruel	-11.0597
▁bells	-11.0598
▁$1	-11.0598
▁anthony	-11.0598
▁communication	-11.0598
▁convince	-11.0598
▁exciting	-11.0598
▁families	-11.0598
▁ghost	-11.0598
▁horror	-11.0598
▁incident	-11.0598
▁jealous	-11.0598
▁jeannine	-11.0598
▁lincoln	-11.0598
▁sergeant	-11.0598
▁splendid	-11.0598
▁survive	-11.0598
▁unusual	-11.0598
▁injured	-11.0598
▁sneak	-11.0598
▁daisy	-11.0598
▁cartoon	-11.0598
▁nodded	-11.0598
▁reef	-11.0598
▁congratulations	-11.0598
▁studies	-11.0598
▁carpet	-11.0599
▁regret	-11.0599
▁grasp	-11.0599
▁molly	-11.0599
▁flood	-11.0599
▁neighborhood	-11.0599
▁target	-11.0599
▁budget	-11.0599
▁creek	-11.0599
▁swear	-11.0599
▁senate	-11.0599
▁1984	-11.0599
▁aircraft	-11.0599
▁2005	-11.0599
▁dying	-11.06
▁crawl	-11.06
▁vocalises	-11.06
▁settlement	-11.06
▁exam	-11.06
▁jungle	-11.0601
▁treatment	-11.0601
▁jail	-11.0602
▁knight	-11.0603
ón	-11.0605
▁knot	-11.0607
▁squeak	-11.0607
song	-11.0608
bon	-11.0608
▁oak	-11.0609
nina	-11.0609
▁proof	-11.061
▁jackson	-11.0611
▁battery	-11.0611
▁auntie	-11.0612
▁matches	-11.0614
▁portion	-11.0617
▁sings	-11.0618
▁sex	-11.0621
▁captured	-11.0622
istic	-11.0622
▁totally	-11.0627
▁limit	-11.0628
ong	-11.0629
mail	-11.0634
▁demanded	-11.0634
▁described	-11.0635
▁destroyed	-11.0639
ists	-11.0641
▁democrati	-11.0645
▁bloody	-11.0647
▁realized	-11.0648
▁proved	-11.065
▁von	-11.065
99	-11.0651
▁wrapp	-11.066
▁cries	-11.0664
▁awww	-11.0679
ila	-11.0682
lock	-11.0682
▁stones	-11.0683
ook	-11.0684
mont	-11.0687
▁cheerful	-11.069
▁chuckle	-11.0695
▁fork	-11.0698
▁enjoyed	-11.0702
▁ranger	-11.0703
▁washed	-11.0703
▁shortly	-11.0708
▁recorded	-11.071
▁cass	-11.0711
▁reported	-11.0712
▁claus	-11.0722
▁cheer	-11.0734
sur	-11.0734
▁closely	-11.0734
▁patch	-11.0743
▁shan	-11.0745
▁crossed	-11.075
▁badly	-11.0756
tell	-11.0768
▁curtains	-11.0772
▁utterances	-11.0772
dress	-11.0776
▁gee	-11.0782
——	-11.0803
▁partly	-11.0805
▁armed	-11.081
▁champion	-11.0819
▁speaker	-11.0821
▁marked	-11.0821
bie	-11.0827
chen	-11.0831
▁web	-11.0833
stop	-11.0835
▁hol	-11.0839
lves	-11.0841
▁ven	-11.0847
dan	-11.0857
▁nicely	-11.0867
▁remark	-11.087
pher	-11.0871
ative	-11.0871
▁joint	-11.0878
ola	-11.0878
▁dora	-11.0881
▁palm	-11.0885
▁popp	-11.0897
▁disco	-11.09
▁nucle	-11.0905
▁pure	-11.0918
▁bou	-11.0924
▁km	-11.0926
▁lover	-11.0926
▁ep	-11.0934
▁understanding	-11.0945
▁bake	-11.0945
▁aha	-11.0945
dies	-11.095
rou	-11.0971
ich	-11.0972
54	-11.0977
▁considerabl	-11.0981
nut	-11.0985
▁wool	-11.1003
▁awake	-11.1009
pur	-11.1012
body	-11.102
▁cub	-11.1029
92	-11.1033
1]	-11.1057
fish	-11.1062
▁borrow	-11.1065
▁tick	-11.1066
would	-11.1071
▁arrive	-11.1071
voice	-11.1072
▁belle	-11.1081
▁ruin	-11.1084
▁batter	-11.1088
▁qui	-11.109
never	-11.1092
bob	-11.1093
▁cer	-11.1096
▁courage	-11.1097
▁apologize	-11.1098
▁appreciate	-11.1098
▁challenge	-11.1098
▁convention	-11.1098
▁delicious	-11.1098
▁enemies	-11.1098
▁expedition	-11.1098
▁fantastic	-11.1098
▁happiness	-11.1098
▁helicopter	-11.1098
▁jigsaw	-11.1098
▁jonathan	-11.1098
▁location	-11.1098
▁mexican	-11.1098
▁practical	-11.1098
▁reception	-11.1098
▁senator	-11.1098
▁seventeen	-11.1098
▁specific	-11.1098
▁thumb	-11.1098
▁variety	-11.1098
▁chamber	-11.1098
▁gimme	-11.1098
▁muttered	-11.1098
▁sorrow	-11.1098
▁tummy	-11.1098
▁cereal	-11.1098
▁concert	-11.1098
grunts	-11.1098
▁activity	-11.1099
▁jon	-11.1099
▁pumpkin	-11.1099
▁carolina	-11.1099
▁organized	-11.1099
▁provision	-11.1099
▁punishment	-11.1099
▁assistant	-11.1099
▁generation	-11.1099
▁1980	-11.1099
tropical	-11.1099
▁betray	-11.11
▁planned	-11.11
▁labor	-11.1101
▁dried	-11.1101
▁albert	-11.1101
▁daily	-11.1101
▁symbol	-11.1102
▁purse	-11.1102
▁couch	-11.1103
▁physical	-11.1103
▁karen	-11.1104
▁impressed	-11.1104
▁peach	-11.1104
▁mental	-11.1105
▁stir	-11.1107
▁divided	-11.1108
▁korean	-11.1109
▁angeles	-11.111
▁independence	-11.111
▁australian	-11.1112
▁johnson	-11.1113
gate	-11.1113
▁louise	-11.1114
▁useless	-11.1116
▁producer	-11.1118
▁normally	-11.1119
nia	-11.112
dog	-11.1123
▁starring	-11.1123
▁parties	-11.1125
▁kate	-11.1126
▁quarters	-11.1126
▁drops	-11.1128
▁ouch	-11.1132
new	-11.1132
▁cannon	-11.1132
▁historical	-11.1133
▁kong	-11.1134
▁annie	-11.1134
▁resources	-11.1135
▁sweat	-11.1138
cut	-11.1138
used	-11.1139
▁increased	-11.1141
▁languages	-11.1145
▁cancer	-11.1147
▁flush	-11.115
▁screaming	-11.115
▁pity	-11.1154
▁amos	-11.1156
▁hail	-11.1157
▁shy	-11.1162
▁fleet	-11.1168
▁escaped	-11.1172
▁float	-11.1173
▁breathing	-11.1177
▁watches	-11.1178
scot	-11.1183
him	-11.1185
▁rosa	-11.1186
▁mah	-11.1187
▁dere	-11.1192
open	-11.1193
▁accepted	-11.1201
▁[7	-11.1208
37	-11.1217
án	-11.1221
▁feathers	-11.1222
only	-11.1224
lung	-11.1226
▁pretending	-11.1228
▁sang	-11.1232
▁gro	-11.1233
▁nord	-11.1237
bell	-11.1239
23	-11.1245
▁gasp	-11.126
▁pine	-11.1262
ach	-11.1263
elli	-11.1269
sea	-11.1278
have	-11.1291
▁gosh	-11.1294
▁tied	-11.1295
▁baker	-11.1297
tha	-11.131
▁grapes	-11.1311
bag	-11.1311
ition	-11.1327
kat	-11.1328
▁peg	-11.1331
ben	-11.1333
▁curl	-11.1334
▁trucks	-11.1334
look	-11.1337
▁biscuit	-11.1346
▁olympic	-11.1349
▁dollar	-11.1358
▁biscuits	-11.137
▁wor	-11.1376
▁origin	-11.1381
hear	-11.1395
▁prim	-11.1403
▁gene	-11.1408
call	-11.1413
▁tur	-11.1418
▁baron	-11.1427
84	-11.1428
ral	-11.1434
▁ships	-11.1438
round	-11.1439
▁rang	-11.1444
▁adventures	-11.1459
izing	-11.1477
utter	-11.148
▁dim	-11.148
hard	-11.1483
turn	-11.1486
▁lessons	-11.1504
▁mag	-11.1505
▁tool	-11.1531
▁remi	-11.1556
borough	-11.1558
tries	-11.1569
▁shapes	-11.1584
▁custom	-11.1586
▁greet	-11.1591
▁steam	-11.1593
foot	-11.1597
girl	-11.1597
boat	-11.1602
ä	-11.1603
▁notes	-11.1612
▁hurried	-11.1612
▁rapid	-11.1615
▁stor	-11.1618
▁terror	-11.162
▁basic	-11.1624
▁1960	-11.1625
▁1985	-11.1625
▁ambulance	-11.1625
▁appointed	-11.1625
▁catholic	-11.1625
▁charlotte	-11.1625
▁despair	-11.1625
▁eventually	-11.1625
▁junior	-11.1625
▁license	-11.1625
▁literature	-11.1625
▁nephew	-11.1625
▁picnic	-11.1625
▁religion	-11.1625
▁thursday	-11.1625
▁triumph	-11.1625
▁uniform	-11.1625
▁valuable	-11.1625
š	-11.1625
▁client	-11.1625
▁disaster	-11.1625
▁heavily	-11.1625
▁swedish	-11.1625
▁geography	-11.1625
▁suprem	-11.1625
▁admire	-11.1625
▁scatter	-11.1625
▁lewis	-11.1625
▁distant	-11.1625
▁interfere	-11.1625
▁permit	-11.1625
▁queer	-11.1625
▁pierre	-11.1625
▁altogether	-11.1625
▁exchange	-11.1625
▁oxford	-11.1625
▁labour	-11.1625
▁ashamed	-11.1625
▁1993	-11.1625
▁1996	-11.1625
▁hawk	-11.1625
▁pursue	-11.1625
▁outfit	-11.1626
▁preparation	-11.1626
▁clark	-11.1626
▁executive	-11.1626
▁device	-11.1626
▁baseball	-11.1626
▁indicate	-11.1627
▁effective	-11.1627
▁package	-11.1627
▁bullet	-11.1628
▁consideration	-11.1628
▁responsibility	-11.1628
▁connection	-11.1628
▁sufficient	-11.1629
▁farther	-11.1629
▁lodge	-11.1629
▁pickle	-11.163
▁examples	-11.163
▁function	-11.163
▁dash	-11.163
▁sexual	-11.163
▁shark	-11.163
▁merely	-11.1631
▁oliver	-11.1632
▁lend	-11.1632
▁rocket	-11.1633
▁airline	-11.1633
▁poem	-11.1633
▁collection	-11.1633
▁slightly	-11.1634
▁jenny	-11.1634
▁minor	-11.1634
▁beast	-11.1635
▁truly	-11.1636
▁suggestion	-11.1637
▁wales	-11.1637
▁lack	-11.1639
▁yeh	-11.1639
▁highway	-11.1639
▁mask	-11.164
▁raise	-11.1641
▁whoever	-11.1641
▁pipe	-11.1642
▁nut	-11.1642
uz	-11.1643
▁instantly	-11.1644
▁honk	-11.1646
▁helpful	-11.1648
rog	-11.1649
▁lemm	-11.1651
▁useta	-11.1651
▁interview	-11.1652
▁helpless	-11.1654
▁naturally	-11.1658
▁lar	-11.166
holds	-11.166
▁cage	-11.166
▁arrested	-11.1661
▁bol	-11.1662
▁attended	-11.1664
▁clay	-11.1664
▁chu	-11.1667
▁bitter	-11.1669
▁advanced	-11.1673
▁foundation	-11.1673
▁steer	-11.1675
▁difficulty	-11.1677
▁lads	-11.1686
▁lane	-11.1696
▁kar	-11.1696
▁cave	-11.1703
▁teaching	-11.1705
▁georgia	-11.1706
wick	-11.1708
▁mir	-11.1709
▁killer	-11.1715
▁murdered	-11.1716
▁results	-11.1717
▁lately	-11.1724
63	-11.173
mann	-11.1733
iff	-11.1733
too	-11.1736
▁jaw	-11.1742
any	-11.1744
hara	-11.1749
▁idol	-11.1751
▁hur	-11.1756
▁builder	-11.1757
▁heap	-11.1759
▁zip	-11.1762
▁pok	-11.1764
▁jet	-11.1775
▁bubbles	-11.1786
▁bib	-11.1792
▁pushing	-11.1795
▁cab	-11.1798
▁germans	-11.1799
▁distribute	-11.1806
▁candles	-11.1809
ode	-11.1812
▁actions	-11.1827
▁(18	-11.1829
rock	-11.1838
▁features	-11.1856
▁chin	-11.1862
bea	-11.1866
▁gon	-11.1869
god	-11.1871
▁sen	-11.188
▁neu	-11.1891
▁60	-11.1895
▁folk	-11.191
▁scenes	-11.1926
western	-11.1929
ouch	-11.1935
▁tru	-11.1949
▁headed	-11.1957
▁landing	-11.1962
▁leo	-11.1985
▁mau	-11.1986
▁dal	-11.2001
▁lt	-11.2004
▁35	-11.2005
▁twins	-11.2014
▁adams	-11.2019
▁hoped	-11.2033
shakes	-11.2039
▁nat	-11.2059
▁reli	-11.2074
▁objects	-11.2076
has	-11.2081
▁sock	-11.2084
▁bid	-11.2087
cul	-11.209
▁whee	-11.209
dale	-11.2098
▁whoo	-11.2121
▁dread	-11.213
org	-11.214
lac	-11.2144
▁develop	-11.2147
cted	-11.215
member	-11.215
▁[4	-11.215
continues	-11.2152
▁refuse	-11.2153
*	-11.2153
▁capture	-11.2153
sound	-11.2154
▁monkeys	-11.2155
▁spots	-11.2155
▁reports	-11.2162
▁environment	-11.2175
▁tomato	-11.2176
▁com	-11.2176
▁recent	-11.2177
▁euro	-11.218
▁1989	-11.218
▁appeal	-11.218
▁appointment	-11.218
▁bleeding	-11.218
▁criminal	-11.218
▁defence	-11.218
▁diamond	-11.218
▁encourage	-11.218
▁intelligence	-11.218
▁memorial	-11.218
▁minnesota	-11.218
▁precious	-11.218
▁pregnant	-11.218
▁proposal	-11.218
▁proposed	-11.218
▁rachel	-11.218
▁sacrifice	-11.218
▁strawberries	-11.218
▁surrounded	-11.218
▁wrestling	-11.218
▁beneath	-11.218
▁conflict	-11.218
▁madison	-11.218
▁jimmie	-11.218
▁regiment	-11.218
▁relax	-11.218
▁senior	-11.218
▁voyage	-11.218
▁warrior	-11.218
▁kelly	-11.218
▁berlin	-11.218
▁colleague	-11.218
▁smash	-11.218
▁administration	-11.218
▁threatened	-11.2181
▁crystal	-11.2181
▁mickey	-11.2181
▁wendy	-11.2181
▁wages	-11.2181
▁pride	-11.2181
▁skipper	-11.2181
▁hollow	-11.2181
▁eliminate	-11.2181
▁beetle	-11.2181
▁closing	-11.2181
▁copper	-11.2181
▁route	-11.2182
▁talent	-11.2182
▁evidently	-11.2182
▁lorry	-11.2182
▁larry	-11.2182
▁charm	-11.2182
▁balance	-11.2182
▁guardian	-11.2183
▁hermit	-11.2184
▁unknown	-11.2184
▁jake	-11.2184
▁flock	-11.2184
▁guilty	-11.2185
▁environmental	-11.2186
▁mansion	-11.2186
▁stack	-11.2186
▁rude	-11.2186
▁occasionally	-11.2186
▁drunk	-11.2187
▁bacon	-11.2187
▁theatre	-11.2187
▁potatoes	-11.2188
▁mercy	-11.2189
▁missile	-11.2189
▁enable	-11.2189
▁johnny	-11.219
▁branches	-11.2191
▁hindu	-11.2191
▁discussion	-11.2191
▁reward	-11.2194
▁sandwiches	-11.2194
▁lois	-11.2194
▁gina	-11.2194
▁sack	-11.2196
▁adopted	-11.2196
▁rug	-11.2196
▁scary	-11.2197
▁70	-11.2199
▁glen	-11.22
▁mistaken	-11.2203
▁gap	-11.2206
▁vain	-11.2207
▁ease	-11.2209
▁revealed	-11.2209
▁louder	-11.221
▁classes	-11.2211
ori	-11.2212
oid	-11.2215
▁limited	-11.2218
▁angle	-11.2222
▁signs	-11.2223
▁separated	-11.2224
▁tele	-11.2232
hey	-11.2233
▁rio	-11.2234
▁tramp	-11.2235
▁delighted	-11.2235
▁completed	-11.2238
▁jr	-11.224
▁data	-11.2243
▁dull	-11.2252
▁chas	-11.2255
▁todd	-11.2256
▁1972	-11.2258
▁ou	-11.2268
aki	-11.227
▁fro	-11.227
▁aloud	-11.2276
▁traditional	-11.2279
▁somers	-11.2287
▁bass	-11.2294
▁camel	-11.2299
▁poorly	-11.2301
▁moore	-11.2318
rug	-11.2322
▁raining	-11.2339
ida	-11.2349
▁meow	-11.235
▁knees	-11.2351
eye	-11.2351
▁attacked	-11.2352
▁weapons	-11.2352
keeper	-11.2364
stro	-11.2369
▁burnt	-11.2372
▁abe	-11.2374
▁returning	-11.2378
dah	-11.2379
▁counting	-11.2384
▁cops	-11.2386
▁outer	-11.2388
▁earl	-11.2395
▁visitors	-11.2403
▁beck	-11.2404
hop	-11.241
▁passengers	-11.2418
90	-11.2422
eau	-11.2436
▁kin	-11.244
▁scouts	-11.2451
wn	-11.2453
▁wand	-11.2455
▁semi	-11.2457
tree	-11.2462
▁painful	-11.2462
▁gal	-11.2467
jan	-11.2477
▁baa	-11.248
▁scout	-11.2492
▁circles	-11.2492
▁affair	-11.2493
▁tools	-11.2504
ural	-11.2506
▁prayer	-11.2509
▁cheers	-11.2513
▁acted	-11.2514
▁parent	-11.2518
▁breathe	-11.2521
▁buttons	-11.2527
▁sav	-11.253
▁mend	-11.2531
▁tastes	-11.2542
▁hatch	-11.2543
▁weary	-11.2551
▁glu	-11.2557
▁tube	-11.2558
▁rag	-11.2561
▁wit	-11.2566
▁lied	-11.2567
bur	-11.2573
▁dem	-11.2591
▁melt	-11.2602
▁israel	-11.2606
iko	-11.2616
abe	-11.2617
▁rolls	-11.262
▁flip	-11.2622
eating	-11.2635
▁victor	-11.2649
38	-11.2658
70	-11.2663
▁shin	-11.2678
▁prob	-11.2681
▁victims	-11.2686
▁vessels	-11.2703
▁beth	-11.2715
▁ox	-11.2716
lus	-11.2726
▁math	-11.2735
▁confirm	-11.2736
▁disturb	-11.2736
▁accus	-11.2736
▁scar	-11.2737
▁maria	-11.2739
▁rescue	-11.274
reaches	-11.2741
pretend	-11.2741
crying	-11.2741
▁require	-11.2741
from	-11.2741
▁kat	-11.2745
little	-11.2745
▁declare	-11.2748
▁skip	-11.2749
pull	-11.2752
ó	-11.276
▁madam	-11.2763
▁crop	-11.2767
▁document	-11.2768
75	-11.2768
â	-11.2768
ø	-11.2768
▁1967	-11.2768
▁1976	-11.2768
▁1988	-11.2768
▁1991	-11.2768
▁argument	-11.2768
▁associate	-11.2768
▁christopher	-11.2768
▁cushion	-11.2768
▁description	-11.2768
▁dorothy	-11.2768
▁equipment	-11.2768
▁fiction	-11.2768
▁hamilton	-11.2768
▁leather	-11.2768
▁massachusetts	-11.2768
▁monsieur	-11.2768
▁religious	-11.2768
▁solemn	-11.2768
▁sunshine	-11.2768
▁sylvia	-11.2768
▁terribly	-11.2768
▁tremendous	-11.2768
▁trousers	-11.2768
▁universal	-11.2768
▁miserable	-11.2768
▁relief	-11.2768
▁douglas	-11.2768
▁inquired	-11.2768
▁stephen	-11.2768
▁thrill	-11.2768
▁wheat	-11.2768
▁screw	-11.2768
▁sweden	-11.2768
▁smack	-11.2769
▁duties	-11.2769
▁convict	-11.2769
▁scrub	-11.2769
▁zoe	-11.2769
▁reform	-11.2769
▁application	-11.2769
▁creep	-11.2769
▁stove	-11.2769
▁wolves	-11.2769
▁stopping	-11.2769
▁drift	-11.2769
▁spill	-11.2769
▁root	-11.2769
▁basically	-11.2769
▁wealth	-11.2769
▁genius	-11.2769
▁goose	-11.2769
▁failure	-11.2769
▁burden	-11.277
▁cherry	-11.277
▁midnight	-11.277
▁morgan	-11.277
▁timber	-11.2771
▁tamil	-11.2771
▁romantic	-11.2771
▁begun	-11.2771
▁auto	-11.2771
▁flesh	-11.2772
▁jessie	-11.2772
▁boring	-11.2772
▁flies	-11.2772
▁jason	-11.2773
▁confused	-11.2773
hol	-11.2773
▁leak	-11.2773
▁poland	-11.2773
▁twist	-11.2773
▁alongside	-11.2774
▁glow	-11.2774
▁frequently	-11.2775
▁active	-11.2775
▁stamp	-11.2776
▁decent	-11.2776
||0||	-11.2777
▁ceased	-11.2778
▁pace	-11.2778
▁raid	-11.2779
▁bushes	-11.2779
▁musician	-11.2781
▁payment	-11.2783
umbling	-11.2783
▁eagerly	-11.2785
▁policeman	-11.2786
ital	-11.2786
tumble	-11.2788
▁attitude	-11.2788
▁vision	-11.2788
▁attached	-11.2789
give	-11.2791
▁earned	-11.2796
▁bible	-11.2796
▁chatter	-11.2797
▁refused	-11.2798
▁200	-11.28
won	-11.2809
▁container	-11.2813
▁dominic	-11.2821
▁sixth	-11.2826
ple	-11.2827
▁ruled	-11.2833
▁hood	-11.2834
▁burned	-11.2843
▁treated	-11.2855
▁hath	-11.2855
▁cord	-11.2861
▁sung	-11.2873
▁fo	-11.2875
▁climbed	-11.2879
▁feeding	-11.2886
82	-11.2892
▁ability	-11.2896
▁casting	-11.2897
▁insects	-11.2898
▁chum	-11.29
▁peel	-11.2905
▁loo	-11.2912
ripped	-11.2917
▁babe	-11.2926
▁harder	-11.2928
pop	-11.2934
▁gum	-11.2937
master	-11.2947
▁marie	-11.2955
▁fac	-11.2962
▁ron	-11.2963
▁struggle	-11.2972
▁lor	-11.2974
▁brass	-11.2981
▁stu	-11.3021
ese	-11.3027
▁hurting	-11.3032
▁[6	-11.3032
▁squeal	-11.3036
▁philip	-11.3037
itive	-11.3045
▁pea	-11.3048
▁lip	-11.3059
▁scan	-11.3065
tory	-11.3078
point	-11.308
▁mou	-11.3081
▁joan	-11.3096
▁mini	-11.3104
▁merri	-11.3138
▁1956	-11.3139
away	-11.314
▁boil	-11.3158
▁ew	-11.3174
▁warn	-11.3185
▁nations	-11.3199
▁ren	-11.3231
places	-11.3237
aga	-11.3244
stin	-11.3244
▁dart	-11.3247
▁theory	-11.3256
▁chill	-11.3277
▁expos	-11.3283
rab	-11.33
▁nee	-11.3313
▁democrat	-11.3332
playing	-11.3332
lee	-11.3346
▁artists	-11.3347
58	-11.3348
overlap	-11.335
▁defeat	-11.3361
▁reveal	-11.3361
♪	-11.3366
break	-11.3366
thank	-11.3366
lot	-11.3379
talk	-11.338
▁exact	-11.3384
same	-11.3385
▁somethin	-11.3389
▁execut	-11.3389
▁whisk	-11.339
unnecessary	-11.3393
▁1979	-11.3393
▁behalf	-11.3393
▁complex	-11.3393
▁defense	-11.3393
▁domestic	-11.3393
▁employed	-11.3393
▁estimate	-11.3393
▁horrible	-11.3393
▁investigation	-11.3393
▁kentucky	-11.3393
▁lantern	-11.3393
▁margaret	-11.3393
▁melissa	-11.3393
▁netherlands	-11.3393
▁platform	-11.3393
▁potential	-11.3393
▁prairie	-11.3393
▁principle	-11.3393
▁revenge	-11.3393
▁surrounding	-11.3393
▁composer	-11.3393
▁interpret	-11.3393
▁literally	-11.3393
▁missouri	-11.3393
▁register	-11.3393
▁reserve	-11.3393
▁mechanic	-11.3393
▁muscle	-11.3393
▁thrust	-11.3393
▁candidate	-11.3393
▁grateful	-11.3394
▁dropping	-11.3394
▁composition	-11.3394
▁ignore	-11.3394
▁sultan	-11.3394
▁yyy	-11.3394
▁fierce	-11.3394
▁breast	-11.3394
▁mystery	-11.3394
▁reject	-11.3394
▁venture	-11.3394
▁ceiling	-11.3394
▁drill	-11.3394
▁departure	-11.3394
▁patrick	-11.3394
▁solar	-11.3394
▁assistance	-11.3394
▁wander	-11.3394
▁ashore	-11.3394
▁bernard	-11.3394
▁scrap	-11.3394
▁random	-11.3394
▁antonio	-11.3394
▁1990	-11.3394
▁gallop	-11.3394
▁pension	-11.3394
▁reference	-11.3394
▁destin	-11.3395
▁jeff	-11.3395
▁sector	-11.3395
▁cattle	-11.3395
▁oink	-11.3395
▁fifa	-11.3395
▁nancy	-11.3396
▁moses	-11.3396
▁shaking	-11.3396
▁corps	-11.3396
▁percy	-11.3396
▁jimmy	-11.3397
▁fastened	-11.3397
▁hopefully	-11.3397
▁illustrated	-11.3398
▁travelling	-11.3398
▁rubber	-11.3399
▁stout	-11.3399
▁bloom	-11.3399
▁metres	-11.3399
▁poison	-11.34
▁sew	-11.3401
▁granddad	-11.3401
▁cancel	-11.3401
▁approved	-11.3403
▁frost	-11.3405
▁republican	-11.3407
▁intended	-11.3407
▁startled	-11.3409
▁mock	-11.341
▁bench	-11.341
▁theater	-11.3411
▁globe	-11.3414
▁reality	-11.3414
▁bade	-11.3415
▁doorway	-11.3415
▁operated	-11.3415
▁snakes	-11.3415
▁laughter	-11.3417
▁loving	-11.3419
▁brig	-11.3422
▁interrupted	-11.3422
▁vest	-11.3422
▁tray	-11.3425
▁cj	-11.3426
▁marine	-11.3431
▁bash	-11.3432
▁seventh	-11.3432
▁unable	-11.3433
▁patients	-11.3434
▁behave	-11.3439
▁supplies	-11.344
▁pushes	-11.344
▁resist	-11.344
▁utter	-11.344
▁sharply	-11.3442
▁ruler	-11.3443
▁items	-11.345
▁jill	-11.3452
load	-11.3452
▁carlo	-11.3454
▁granted	-11.3455
▁ideal	-11.3462
▁smartie	-11.3464
liness	-11.3467
▁wah	-11.3469
▁surf	-11.3473
▁hal	-11.3476
▁regarding	-11.3477
▁selling	-11.3488
42	-11.3491
▁bold	-11.3495
▁anger	-11.3509
▁prof	-11.351
▁pill	-11.3513
▁dur	-11.3517
▁peek	-11.3519
▁shared	-11.3521
▁climbing	-11.3521
ace	-11.3521
atory	-11.3525
▁vic	-11.3528
▁shells	-11.3529
▁pressed	-11.353
▁stake	-11.3547
▁banging	-11.3558
tification	-11.356
▁fled	-11.3563
▁rare	-11.3567
hhh	-11.3584
▁interrupts	-11.3599
heim	-11.3599
▁feature	-11.3601
▁servants	-11.3607
▁creat	-11.3625
▁arrows	-11.3625
inch	-11.3646
35	-11.3649
▁beating	-11.3652
▁hip	-11.3662
▁provid	-11.3673
▁questioned	-11.3683
4]	-11.3703
▁chuck	-11.3709
▁graduat	-11.372
screams	-11.3721
handed	-11.3724
▁nuts	-11.3728
▁thi	-11.3735
love	-11.3736
▁lan	-11.3749
▁pearl	-11.3756
▁champions	-11.3757
squeals	-11.3765
▁lib	-11.3766
▁passenger	-11.3781
▁carrot	-11.3783
▁grape	-11.3784
▁coloring	-11.3818
haw	-11.383
cast	-11.3831
lou	-11.3833
dear	-11.3847
▁flows	-11.3852
▁sometime	-11.3856
3)	-11.3864
▁emb	-11.3865
▁alan	-11.3865
cular	-11.3874
▁qu	-11.3877
illy	-11.3883
▁nell	-11.3884
▁govern	-11.3887
▁passion	-11.3889
▁chop	-11.3894
▁canton	-11.3924
95	-11.3928
▁beard	-11.3932
▁intention	-11.394
vid	-11.3949
ficial	-11.3951
bill	-11.3952
▁plac	-11.4001
▁connect	-11.4023
people	-11.4033
first	-11.4033
yeah	-11.4033
piece	-11.4034
track	-11.4038
bank	-11.4042
stein	-11.4042
▁elect	-11.4043
lib	-11.4046
water	-11.4046
▁villa	-11.4047
style	-11.4049
▁detect	-11.4053
▁stole	-11.4054
▁diet	-11.4058
▁plea	-11.4058
▁favour	-11.406
▁slight	-11.406
▁alcohol	-11.406
▁alphabet	-11.406
▁catherine	-11.406
▁communist	-11.406
▁complicated	-11.406
▁enormous	-11.406
▁explanation	-11.406
▁furniture	-11.406
▁grief	-11.406
▁guarantee	-11.406
▁handkerchief	-11.406
▁instructions	-11.406
▁lollipop	-11.406
▁magnificent	-11.406
▁opposed	-11.406
▁orchestra	-11.406
▁pennsylvania	-11.406
▁persuade	-11.406
▁politics	-11.406
▁procedure	-11.406
▁quarrel	-11.406
▁scissors	-11.406
▁surgeon	-11.406
▁unexpected	-11.406
▁vegetable	-11.406
°	-11.406
ç	-11.406
▁atlantic	-11.406
▁delicate	-11.406
▁endeavour	-11.406
▁flavor	-11.406
▁fourteen	-11.406
▁harbor	-11.406
▁mysterious	-11.406
▁parallel	-11.406
▁patrol	-11.406
▁surgery	-11.406
▁pioneer	-11.406
▁polite	-11.406
▁column	-11.406
▁parcel	-11.406
▁wreck	-11.406
▁gerald	-11.406
▁loyal	-11.406
▁superior	-11.406
▁depth	-11.406
▁unique	-11.406
▁austin	-11.406
▁innocent	-11.406
▁compound	-11.406
▁jacob	-11.406
▁crush	-11.406
▁status	-11.406
▁blew	-11.406
▁drain	-11.406
▁kansas	-11.406
▁intense	-11.406
▁prior	-11.406
▁bundle	-11.406
▁abroad	-11.406
▁alaska	-11.4061
▁consent	-11.4061
▁authorities	-11.4061
▁1997	-11.4061
▁kennedy	-11.4061
▁nickname	-11.4061
▁1995	-11.4061
▁permission	-11.4061
▁summon	-11.4061
▁bloke	-11.4061
▁preferred	-11.4061
▁fried	-11.4061
▁1987	-11.4062
▁spear	-11.4062
▁praise	-11.4062
▁stiff	-11.4062
▁flour	-11.4062
▁iowa	-11.4062
▁delightful	-11.4062
▁cabinet	-11.4062
▁admitted	-11.4062
▁organic	-11.4063
▁blossom	-11.4063
▁playground	-11.4063
▁thorn	-11.4064
▁disney	-11.4064
▁parson	-11.4064
▁linda	-11.4064
▁unlike	-11.4064
▁relation	-11.4065
▁possession	-11.4065
▁tomatoes	-11.4067
▁austrian	-11.4067
▁bride	-11.4068
▁fairies	-11.4068
▁midst	-11.4068
▁expression	-11.4068
▁stolen	-11.4069
▁script	-11.4069
▁fanny	-11.407
▁comin	-11.4073
ulous	-11.4076
▁previously	-11.4083
▁girlfriend	-11.4083
▁coral	-11.4088
▁monte	-11.4088
▁arti	-11.4089
▁snapp	-11.409
▁withdraw	-11.4091
▁momma	-11.4091
▁objection	-11.4091
▁anxiously	-11.4093
▁2021)	-11.4093
page	-11.4093
▁uttered	-11.4095
▁defeated	-11.4095
01	-11.4097
ask	-11.4097
high	-11.41
▁loudly	-11.4102
▁seriously	-11.4104
does	-11.4107
▁cheering	-11.4107
▁arranged	-11.4111
▁amid	-11.4111
▁suffering	-11.4113
▁missus	-11.4113
▁jay	-11.4114
▁wishes	-11.4115
▁sought	-11.4116
▁damn	-11.4116
▁recognized	-11.4117
▁pitched	-11.4118
▁archer	-11.4118
▁fry	-11.4121
▁tak	-11.4121
▁institute	-11.4124
state	-11.4133
▁deeply	-11.4134
▁dough	-11.4135
8]	-11.4135
▁shave	-11.4135
▁provided	-11.414
96	-11.4141
▁exception	-11.4144
▁monk	-11.4146
▁vii	-11.4159
▁elements	-11.4169
▁defender	-11.4169
▁blowing	-11.4175
▁blade	-11.4176
▁kit	-11.4187
▁ohio	-11.419
▁sofa	-11.4191
made	-11.4192
▁pod	-11.4203
verse	-11.4207
nsky	-11.4211
▁sul	-11.4213
por	-11.4216
▁recit	-11.4218
▁figured	-11.4227
rak	-11.423
▁recall	-11.4248
▁hor	-11.425
cie	-11.4278
▁bern	-11.428
▁sticking	-11.429
dding	-11.4295
▁rais	-11.4295
ima	-11.4302
uzz	-11.4312
▁cleaning	-11.4316
▁reactions	-11.4329
▁insist	-11.4338
case	-11.4353
bot	-11.4353
bol	-11.4358
▁bella	-11.4388
▁prayers	-11.4396
▁northwest	-11.4398
going	-11.44
-4	-11.4411
▁stuffed	-11.4416
▁quin	-11.4423
mmed	-11.4447
rais	-11.4451
▁clo	-11.4456
▁36	-11.4457
▁behold	-11.4464
ood	-11.4472
ille	-11.4474
▁cure	-11.4478
gasp	-11.4483
▁dey	-11.4491
▁reaction	-11.4496
▁tomb	-11.4497
▁spit	-11.45
▁troop	-11.4502
rov	-11.4514
▁visitor	-11.4516
▁nan	-11.4551
hush	-11.4554
kan	-11.4554
hang	-11.4561
rob	-11.4575
▁glanc	-11.4578
800	-11.4636
46	-11.4644
▁growl	-11.4644
▁lab	-11.4657
gai	-11.4657
▁yah	-11.4675
▁donna	-11.4685
▁mun	-11.4694
▁era	-11.4701
65	-11.4704
mouth	-11.4708
app	-11.4715
uth	-11.4715
ndra	-11.4717
▁bot	-11.4719
eur	-11.4726
▁whip	-11.4731
▁vice	-11.4739
▁dive	-11.4742
▁recover	-11.4742
▁inform	-11.4743
woman	-11.4747
smith	-11.4747
taking	-11.4757
whispered	-11.4758
▁cam	-11.4758
baby	-11.476
game	-11.4762
▁dirt	-11.4762
▁nah	-11.4762
▁observ	-11.4766
bul	-11.4767
home	-11.4769
▁tuck	-11.477
▁francis	-11.4773
▁33	-11.4773
▁stupid	-11.4774
▁1939	-11.4774
▁1968	-11.4774
▁[$=	-11.4774
▁appetite	-11.4774
▁arkansas	-11.4774
▁autumn	-11.4774
▁birmingham	-11.4774
▁caliph	-11.4774
▁celebrate	-11.4774
▁comrade	-11.4774
▁disappointed	-11.4774
▁electronic	-11.4774
▁entertainment	-11.4774
▁essential	-11.4774
▁explode	-11.4774
▁fridge	-11.4774
▁increasing	-11.4774
▁lecture	-11.4774
▁moscow	-11.4774
▁oxygen	-11.4774
▁pacific	-11.4774
▁perceive	-11.4774
▁simpson	-11.4774
▁sleeve	-11.4774
▁technology	-11.4774
▁throne	-11.4774
▁vietnam	-11.4774
▁drank	-11.4774
▁graeme	-11.4774
▁herakles	-11.4774
▁muslim	-11.4774
▁ralph	-11.4774
▁terminal	-11.4774
▁1983	-11.4774
▁nevertheless	-11.4774
▁serving	-11.4774
▁michigan	-11.4774
▁sentiment	-11.4774
▁absence	-11.4774
▁navy	-11.4774
▁swift	-11.4774
▁tempt	-11.4774
▁calculat	-11.4774
▁chalk	-11.4774
▁dennis	-11.4775
▁administrative	-11.4775
▁predict	-11.4775
▁wicked	-11.4775
▁imagination	-11.4775
▁confidence	-11.4775
▁skirt	-11.4775
▁necklace	-11.4775
▁lemonade	-11.4775
▁bureau	-11.4775
▁paddle	-11.4775
▁annual	-11.4775
▁hastily	-11.4775
▁costume	-11.4775
▁kettle	-11.4775
▁molecul	-11.4775
▁otto	-11.4775
▁apron	-11.4775
▁arose	-11.4775
▁nanny	-11.4775
▁repair	-11.4775
▁zebra	-11.4775
▁napkin	-11.4775
▁noisy	-11.4775
▁pump	-11.4776
▁debt	-11.4776
▁stress	-11.4776
▁suspicious	-11.4776
▁—	-11.4776
▁slightest	-11.4776
▁underground	-11.4777
▁promotion	-11.4777
▁factory	-11.4777
▁scottish	-11.4777
▁peasant	-11.4777
▁numero	-11.4777
▁guitarist	-11.4777
▁estate	-11.4777
▁rosy	-11.4777
▁cupboard	-11.4778
▁depart	-11.4778
▁childhood	-11.4778
▁lemon	-11.4778
▁erect	-11.4778
▁electora	-11.4779
▁orbit	-11.4779
▁franklin	-11.4779
▁ryan	-11.4781
▁chapel	-11.4781
▁fog	-11.4781
▁maiden	-11.4782
▁dislike	-11.4782
▁calf	-11.4783
azz	-11.4783
▁lick	-11.4784
▁clara	-11.4784
▁emma	-11.4784
▁entit	-11.4787
▁hong	-11.4788
▁wax	-11.4789
▁sank	-11.4789
▁equi	-11.479
----"	-11.479
▁digger	-11.479
▁holly	-11.4792
▁hack	-11.4792
▁buster	-11.4793
▁growth	-11.4794
▁norman	-11.4797
▁trailer	-11.4797
▁briefly	-11.4799
ado	-11.4799
▁mason	-11.4801
every	-11.4807
▁tide	-11.4808
▁partial	-11.4809
▁shade	-11.481
▁wandering	-11.4813
▁youngest	-11.4813
▁flora	-11.4814
▁donkey	-11.4814
▁accused	-11.4815
▁churches	-11.4815
▁bait	-11.4816
sail	-11.4817
stick	-11.4818
ttering	-11.4818
▁charming	-11.4819
▁poop	-11.4819
▁internal	-11.4822
▁swell	-11.4832
▁healthy	-11.4835
had	-11.4839
▁widely	-11.4839
▁taxi	-11.4842
▁mcdonalds	-11.4849
▁snu	-11.485
▁belonged	-11.4853
▁sighed	-11.4855
▁stronger	-11.4857
pple	-11.4858
▁earn	-11.4859
▁lily	-11.4865
▁considering	-11.4874
▁maine	-11.4877
▁ela	-11.4879
roach	-11.4884
▁90	-11.4884
▁robb	-11.4885
▁merit	-11.4892
▁tested	-11.4898
watch	-11.49
▁clan	-11.4901
▁testing	-11.4902
▁coke	-11.4914
33	-11.4916
▁lena	-11.492
▁avenue	-11.4924
rich	-11.4926
-1	-11.4935
▁mic	-11.4935
eight	-11.494
wise	-11.4942
▁citizens	-11.4956
▁dc	-11.4957
-3	-11.496
big	-11.4969
abad	-11.4972
▁luna	-11.4973
band	-11.4977
▁fitt	-11.5003
▁representatives	-11.5021
▁wagons	-11.5021
▁cleared	-11.5036
▁checking	-11.5038
▁cleaned	-11.5042
▁demon	-11.5048
hold	-11.5052
geo	-11.506
▁freeze	-11.5064
▁44	-11.5074
ami	-11.5087
▁straighten	-11.5116
ick	-11.5119
▁cad	-11.5123
moves	-11.5132
even	-11.5139
▁pond	-11.5168
03	-11.5175
▁80	-11.5186
wine	-11.5199
▁swam	-11.5205
▁marg	-11.5207
▁tal	-11.5214
▁income	-11.523
dder	-11.5235
newman	-11.5236
▁fran	-11.5244
▁45	-11.5254
32	-11.5264
▁curtain	-11.5266
▁utterance	-11.5267
▁kha	-11.5275
▁candle	-11.5281
▁arrow	-11.5282
▁hated	-11.5283
5%	-11.5292
still	-11.5295
ata	-11.5305
▁halt	-11.5311
hl	-11.5313
kee	-11.5319
pel	-11.5332
ania	-11.5337
▁nothin	-11.5381
venue	-11.539
may	-11.5395
atic	-11.543
boris	-11.5442
▁hare	-11.5457
rap	-11.546
amy	-11.5467
draw	-11.5483
ological	-11.5488
▁oy	-11.549
gel	-11.5494
▁isabel	-11.5496
kov	-11.5501
73	-11.5508
▁attract	-11.551
▁obtain	-11.5511
▁achieve	-11.5514
crayon	-11.5516
actually	-11.5516
american	-11.5516
sometimes	-11.5516
horse	-11.5516
silver	-11.5516
nothing	-11.5517
before	-11.5517
free	-11.5517
shirt	-11.5518
▁gaze	-11.5519
▁invite	-11.5519
▁paw	-11.5527
jack	-11.5529
▁pope	-11.553
▁advise	-11.5531
▁distinct	-11.5531
▁violent	-11.5531
▁extreme	-11.5532
▁immediate	-11.5532
▁earnest	-11.5534
▁armenia	-11.5535
▁prepare	-11.5536
▁olive	-11.5537
▁plug	-11.5538
▁possess	-11.5538
▁resign	-11.5542
▁occur	-11.5543
pronounce	-11.5544
▁1945	-11.5544
▁ammunition	-11.5544
▁arnold	-11.5544
▁atmosphere	-11.5544
▁benjamin	-11.5544
▁bicycle	-11.5544
▁calendar	-11.5544
▁commercial	-11.5544
▁counsel	-11.5544
▁crocodile	-11.5544
▁curiosity	-11.5544
▁dakota	-11.5544
▁disappointment	-11.5544
▁distinguished	-11.5544
▁dynasty	-11.5544
▁editor	-11.5544
▁equivalent	-11.5544
▁financial	-11.5544
▁gradually	-11.5544
▁kangaroo	-11.5544
▁messenger	-11.5544
▁mobile	-11.5544
▁peculiar	-11.5544
▁phrase	-11.5544
▁recommend	-11.5544
▁reindeer	-11.5544
▁resolve	-11.5544
▁rhyme	-11.5544
▁scientist	-11.5544
▁scramble	-11.5544
▁skeleton	-11.5544
▁strategy	-11.5544
▁triangle	-11.5544
▁umbrella	-11.5544
▁verstappen	-11.5544
ō	-11.5544
▁disgust	-11.5544
▁exhaust	-11.5544
▁pupil	-11.5544
▁tobacco	-11.5544
▁transform	-11.5544
▁volcano	-11.5544
▁wisdom	-11.5544
▁1974	-11.5544
▁generous	-11.5544
▁grammy	-11.5544
▁rooster	-11.5544
▁typical	-11.5544
▁chimney	-11.5544
▁synthe	-11.5544
▁adapt	-11.5544
▁bishop	-11.5544
▁porch	-11.5544
▁patricia	-11.5544
▁premier	-11.5544
▁confident	-11.5544
▁funeral	-11.5544
▁hymn	-11.5544
▁parrot	-11.5544
▁vincent	-11.5544
▁pennies	-11.5544
▁headache	-11.5544
▁leslie	-11.5544
▁extent	-11.5544
▁urban	-11.5544
▁murmur	-11.5544
▁hungarian	-11.5544
▁contest	-11.5544
▁cigarette	-11.5544
▁shriek	-11.5544
▁tennis	-11.5544
▁comedian	-11.5544
▁roast	-11.5544
▁atoms	-11.5544
▁altar	-11.5544
▁favourite	-11.5544
▁thanksgiving	-11.5544
▁apply	-11.5545
▁brenda	-11.5545
▁1963	-11.5545
▁foul	-11.5545
▁southeast	-11.5545
▁pul	-11.5545
▁salut	-11.5545
▁jenn	-11.5545
▁dimple	-11.5545
▁1955	-11.5545
▁ellen	-11.5545
▁interven	-11.5545
▁slope	-11.5545
hearted	-11.5546
▁cowboy	-11.5546
▁distribution	-11.5546
née	-11.5546
▁efficien	-11.5546
▁impression	-11.5546
▁encounter	-11.5546
▁egyptian	-11.5546
▁delhi	-11.5546
▁decade	-11.5546
▁brake	-11.5546
▁emily	-11.5546
▁1930	-11.5547
▁“‘	-11.5547
▁davis	-11.5547
▁jerusalem	-11.5547
▁selfish	-11.5547
▁operating	-11.5548
▁blond	-11.5548
▁skate	-11.5548
▁1920	-11.5548
▁marble	-11.5548
elect	-11.5548
▁shiver	-11.5548
▁acid	-11.5548
▁township	-11.5549
▁expand	-11.5549
▁judy	-11.555
▁personality	-11.555
▁tidy	-11.5551
▁zero	-11.5551
▁thirsty	-11.5551
▁friendship	-11.5551
▁peck	-11.5551
▁lightning	-11.5551
▁humor	-11.5553
▁creation	-11.5553
▁roland	-11.5553
▁render	-11.5553
▁gau	-11.5553
▁innit	-11.5553
keep	-11.5554
▁heartily	-11.5554
▁earnestly	-11.5556
▁beef	-11.5557
poor	-11.5557
▁drowned	-11.5558
▁nearby	-11.5559
▁torn	-11.5559
▁explorer	-11.5561
▁careless	-11.5563
▁beaten	-11.5565
▁strain	-11.5565
ribe	-11.5567
▁improved	-11.5567
▁shallow	-11.5567
500	-11.5569
▁conductor	-11.5569
▁assured	-11.5569
▁alleg	-11.557
▁wig	-11.557
▁gazed	-11.5572
person	-11.5574
▁warner	-11.5575
▁obey	-11.5576
▁firmly	-11.5577
▁thankful	-11.5579
▁shovel	-11.5584
▁stain	-11.5585
▁shu	-11.5586
▁rig	-11.5587
▁confirmed	-11.5587
▁disturbed	-11.5587
▁2022)	-11.5587
▁grain	-11.5588
▁teen	-11.559
▁classical	-11.5592
▁kite	-11.5592
▁kindness	-11.5594
▁damaged	-11.5594
▁ruined	-11.5595
▁mitt	-11.5596
▁marvel	-11.5596
mission	-11.5596
▁pajamas	-11.5601
▁geo	-11.5604
▁`	-11.5607
▁apt	-11.5607
deb	-11.5608
▁fist	-11.5609
▁cable	-11.5614
▁lookee	-11.5615
▁roared	-11.5619
▁messy	-11.5627
▁dug	-11.5627
far	-11.5627
▁whispering	-11.5627
▁dna	-11.5632
▁bothered	-11.5634
▁delivered	-11.5634
▁safely	-11.5636
▁existed	-11.5637
▁collected	-11.564
▁crowded	-11.564
▁swinging	-11.564
▁bomber	-11.5648
▁sticky	-11.5653
▁imagined	-11.5654
▁coloured	-11.5661
▁joey	-11.5669
▁commanded	-11.5688
▁needle	-11.5706
▁bowling	-11.5706
▁murderer	-11.5711
▁complaint	-11.5713
▁www	-11.5716
▁radi	-11.5716
▁karl	-11.5722
▁cooked	-11.5723
▁500	-11.5725
▁dub	-11.5729
▁swis	-11.5735
▁alley	-11.5736
▁assum	-11.5737
66	-11.5752
▁invad	-11.5757
▁dared	-11.5759
49	-11.5765
mple	-11.5767
▁peer	-11.5785
isse	-11.5792
▁berg	-11.5795
aff	-11.5798
▁kam	-11.5805
sisted	-11.5811
▁peaceful	-11.5812
▁panic	-11.5831
▁starr	-11.5835
▁grove	-11.5842
▁curse	-11.5843
▁devi	-11.5845
illo	-11.5861
etta	-11.5862
▁chopp	-11.5863
▁lighter	-11.5868
anna	-11.5873
▁emerge	-11.5887
▁buying	-11.5897
▁stared	-11.5899
▁carol	-11.5916
▁fen	-11.5921
aries	-11.5952
▁graduate	-11.596
▁seeming	-11.5962
▁fisher	-11.5967
▁formal	-11.598
bee	-11.5987
dom	-11.5989
both	-11.6002
▁kang	-11.6011
▁75	-11.6015
▁rage	-11.6016
kai	-11.602
▁casual	-11.6035
▁raisin	-11.6043
▁kay	-11.6069
▁representative	-11.6096
▁servant	-11.6097
▁wagon	-11.6098
▁berth	-11.6101
▁var	-11.613
▁bough	-11.6142
▁afterward	-11.6148
▁identifi	-11.6159
▁assume	-11.6181
▁hun	-11.6192
▁1942	-11.6218
self	-11.6228
▁ev	-11.6256
04	-11.6262
▁seth	-11.6263
von	-11.6273
▁inclin	-11.6275
▁receiv	-11.6287
ggy	-11.6299
east	-11.6319
loo	-11.6324
▁classic	-11.6344
engine	-11.6349
school	-11.6349
moving	-11.635
view	-11.635
green	-11.635
bound	-11.635
maybe	-11.6351
▁participat	-11.6351
mac	-11.6352
▁explore	-11.6359
june	-11.636
▁wy	-11.636
whispering	-11.6362
total	-11.6362
based	-11.6363
know	-11.6363
▁austria	-11.6368
▁contribut	-11.637
▁replace	-11.6371
▁goddess	-11.6371
lady	-11.6374
▁interrupt	-11.6376
▁threat	-11.6377
ologist	-11.6377
▁scholar	-11.6377
---------------	-11.6377
▁$2	-11.6377
▁blank	-11.6377
▁collapse	-11.6377
▁concept	-11.6377
▁explosion	-11.6377
▁illegal	-11.6377
▁mississippi	-11.6377
▁suburb	-11.6377
transcribed	-11.6377
─	-11.6377
▁activist	-11.6377
▁alternative	-11.6377
▁athletic	-11.6377
▁bacteria	-11.6377
▁buttercup	-11.6377
▁category	-11.6377
▁cemetery	-11.6377
▁chemistry	-11.6377
▁connecticut	-11.6377
▁conscience	-11.6377
▁consequence	-11.6377
▁coyote	-11.6377
▁fantasy	-11.6377
▁halloween	-11.6377
▁historian	-11.6377
▁liberal	-11.6377
▁ministry	-11.6377
▁nathalie	-11.6377
▁neglect	-11.6377
▁pandemic	-11.6377
▁rebellion	-11.6377
▁rubbish	-11.6377
▁sequel	-11.6377
▁spaniard	-11.6377
▁submarine	-11.6377
▁surprising	-11.6377
▁technical	-11.6377
▁teletubbies	-11.6377
▁tweet	-11.6377
▁ukraine	-11.6377
▁unhappy	-11.6377
▁volunteer	-11.6377
▁worldwide	-11.6377
▁advertising	-11.6377
▁debbie	-11.6377
▁invasion	-11.6377
▁kevin	-11.6377
▁sensible	-11.6377
▁distract	-11.6377
▁jersey	-11.6377
spiration	-11.6377
▁animated	-11.6377
▁distress	-11.6377
▁interior	-11.6377
▁rattling	-11.6377
▁scheme	-11.6377
▁barrier	-11.6377
▁crunch	-11.6377
▁eldest	-11.6377
▁gloom	-11.6377
▁summit	-11.6377
▁dentist	-11.6377
▁sheriff	-11.6377
▁visual	-11.6377
▁bavaria	-11.6377
▁merchant	-11.6377
▁clyde	-11.6377
▁constable	-11.6377
▁opposition	-11.6377
▁warrant	-11.6377
▁absent	-11.6377
▁snatch	-11.6377
▁crumb	-11.6377
▁jolly	-11.6377
▁aspect	-11.6377
▁steep	-11.6377
▁saddle	-11.6377
▁frown	-11.6377
▁cotton	-11.6377
▁vanished	-11.6377
▁freight	-11.6377
▁fabric	-11.6377
▁sponge	-11.6377
▁nightmare	-11.6377
▁suitcase	-11.6377
▁consume	-11.6378
▁prix	-11.6378
▁beaver	-11.6378
▁squad	-11.6378
▁ginger	-11.6378
▁stump	-11.6378
/020	-11.6378
▁gorgeous	-11.6378
▁1946	-11.6378
▁inspection	-11.6378
▁zorg	-11.6378
▁resistance	-11.6378
▁phase	-11.6378
▁1975	-11.6378
▁leima	-11.6378
▁denied	-11.6378
▁1959	-11.6378
▁crook	-11.6378
▁nhl	-11.6379
▁prettie	-11.6379
▁northeast	-11.6379
▁holland	-11.6379
▁1964	-11.6379
▁blake	-11.6379
▁housing	-11.6379
▁devot	-11.6379
▁spray	-11.6379
▁observation	-11.6379
▁kenneth	-11.6379
▁graham	-11.6379
▁electricity	-11.638
▁stanley	-11.638
▁choir	-11.6381
▁scientific	-11.6381
▁allowance	-11.6381
▁fame	-11.6381
▁ellis	-11.6381
▁agreement	-11.6382
▁execution	-11.6382
▁armour	-11.6382
▁remarkable	-11.6382
▁crab	-11.6383
▁buffalo	-11.6383
▁canvas	-11.6383
▁diana	-11.6384
▁burton	-11.6384
▁panda	-11.6384
▁remote	-11.6384
▁zone	-11.6385
▁mabel	-11.6386
▁lwww	-11.6386
▁polo	-11.6387
▁hoof	-11.6387
▁stripes	-11.6387
▁sunny	-11.6387
▁patty	-11.6387
▁jury	-11.6388
▁appropriate	-11.6388
▁alert	-11.6388
▁yucky	-11.6389
▁react	-11.6389
▁significant	-11.6389
▁150	-11.639
▁moose	-11.639
▁luke	-11.639
▁fbi	-11.639
▁parade	-11.639
▁puff	-11.6391
▁cmon	-11.6392
▁drowning	-11.6393
▁khan	-11.6394
▁stroll	-11.6394
▁ewww	-11.6395
▁rick	-11.6395
▁hiya	-11.6397
▁runner	-11.6398
▁barry	-11.6398
▁extended	-11.6399
▁reduced	-11.6399
▁everyday	-11.64
▁heroes	-11.64
▁campus	-11.6402
▁participate	-11.6403
▁inches	-11.6403
▁pence	-11.6405
▁silently	-11.6405
▁latest	-11.641
▁attracted	-11.6413
▁discovery	-11.6415
also	-11.6418
▁vale	-11.6418
▁eighth	-11.6422
jw	-11.6423
▁vine	-11.6428
▁curly	-11.6431
▁martine	-11.6433
▁wiped	-11.6434
▁crawling	-11.6437
▁catches	-11.6438
▁folded	-11.6439
▁zoom	-11.644
▁spec	-11.644
▁homeless	-11.6441
▁lung	-11.6441
▁assure	-11.6444
▁pinch	-11.6447
▁suspected	-11.645
▁personally	-11.6451
kirk	-11.6452
ional	-11.6455
▁touches	-11.6456
▁dining	-11.6457
▁sadly	-11.6458
bai	-11.6458
▁approached	-11.6462
▁och	-11.6464
▁approaching	-11.6464
▁nun	-11.6467
▁miller	-11.6467
▁belonging	-11.6473
▁sandy	-11.6473
▁stall	-11.648
▁hugh	-11.648
kka	-11.6483
▁experienced	-11.649
▁packed	-11.6491
eration	-11.65
▁fade	-11.6516
▁cracker	-11.652
▁nik	-11.652
▁pouring	-11.6522
▁workers	-11.6528
▁offering	-11.6532
▁victoria	-11.6533
▁studying	-11.6536
stead	-11.6536
▁liz	-11.6537
▁hank	-11.6546
kia	-11.6555
dorf	-11.6561
▁sean	-11.6571
▁traveling	-11.6574
▁32	-11.6582
eyed	-11.6588
▁nowhere	-11.659
▁marker	-11.6599
aving	-11.6603
▁soda	-11.6608
▁founder	-11.6612
▁trusted	-11.6634
▁sid	-11.6634
ashi	-11.6642
rang	-11.6651
▁visiting	-11.6651
1.5	-11.6652
4)	-11.6652
▁dame	-11.6658
▁tub	-11.6658
▁imitate	-11.6674
▁(199	-11.668
▁lang	-11.668
▁dealer	-11.67
▁ol	-11.6701
ual	-11.6726
▁hoo	-11.6729
tches	-11.6729
▁bore	-11.6732
nik	-11.6738
▁300	-11.6741
▁solo	-11.6762
iji	-11.6802
kind	-11.6806
later	-11.681
eck	-11.6877
▁shar	-11.6878
▁cher	-11.6899
▁hob	-11.691
▁mali	-11.6915
▁dean	-11.6917
refers	-11.6927
eller	-11.6929
ín	-11.6933
blanc	-11.695
26	-11.6956
▁distribut	-11.6972
blows	-11.6995
vision	-11.7005
▁weapon	-11.7007
▁bubble	-11.7007
otted	-11.7008
▁dah	-11.7016
▁gale	-11.7044
▁barb	-11.7047
▁hind	-11.7055
▁waiter	-11.7064
called	-11.7073
▁pub	-11.7074
clear	-11.7117
▁hue	-11.7123
▁tradition	-11.7124
▁abd	-11.7129
▁poke	-11.7157
bah	-11.7167
main	-11.7168
▁virgin	-11.7168
▁bored	-11.7171
▁commence	-11.7194
urg	-11.7206
▁southwest	-11.721
loud	-11.7218
▁demo	-11.7223
ular	-11.7224
arabic	-11.7226
berry	-11.7233
▁twi	-11.7237
count	-11.7246
bef	-11.7247
rept	-11.725
▁succeed	-11.7254
word	-11.7255
▁attach	-11.7255
craft	-11.7256
titude	-11.7256
▁improve	-11.7257
manchester	-11.7257
▁frighten	-11.7257
▁engage	-11.7257
space	-11.7259
referr	-11.726
three	-11.726
mination	-11.7261
trying	-11.7265
teacher	-11.7266
▁operate	-11.7266
flow	-11.727
class	-11.7278
▁95	-11.7282
front	-11.7285
stitution	-11.7285
nick	-11.7285
▁architect	-11.7286
æ	-11.7286
▁$5	-11.7286
▁artillery	-11.7286
▁automobile	-11.7286
▁awkward	-11.7286
▁disorder	-11.7286
▁envelope	-11.7286
▁examination	-11.7286
▁fuzzy	-11.7286
▁gabriel	-11.7286
▁lobster	-11.7286
▁pharaoh	-11.7286
▁refuge	-11.7286
▁revelation	-11.7286
▁specimen	-11.7286
▁trolley	-11.7286
▁virtual	-11.7286
involuntary	-11.7286
↗	-11.7286
▁1931	-11.7286
▁1978	-11.7286
▁1981	-11.7286
▁admiral	-11.7286
▁anniversary	-11.7286
▁anxiety	-11.7286
▁athlete	-11.7286
▁bounce	-11.7286
▁committed	-11.7286
▁confusion	-11.7286
▁cottage	-11.7286
▁czech	-11.7286
▁diploma	-11.7286
▁economy	-11.7286
▁exclusive	-11.7286
▁greece	-11.7286
▁humphrey	-11.7286
▁humpty	-11.7286
▁investigate	-11.7286
▁jacque	-11.7286
▁jewish	-11.7286
▁lancaster	-11.7286
▁nitrogen	-11.7286
▁nonsense	-11.7286
▁oatmeal	-11.7286
▁oklahoma	-11.7286
▁pancake	-11.7286
▁paradise	-11.7286
▁philadelphia	-11.7286
▁portrait	-11.7286
▁priscilla	-11.7286
▁prospect	-11.7286
▁raccoon	-11.7286
▁rhode	-11.7286
▁screwdriver	-11.7286
▁singapore	-11.7286
▁stadium	-11.7286
▁steadily	-11.7286
▁suicide	-11.7286
▁suspicion	-11.7286
▁sympathy	-11.7286
▁taylor	-11.7286
▁ultimate	-11.7286
▁volleyball	-11.7286
▁waffle	-11.7286
▁yoghurt	-11.7286
▁baptis	-11.7286
▁echoed	-11.7286
▁expense	-11.7286
▁guinea	-11.7286
▁hebrew	-11.7286
▁inhabitants	-11.7286
▁monroe	-11.7286
▁permanent	-11.7286
hausen	-11.7286
▁manipur	-11.7286
▁plunged	-11.7286
▁vocals	-11.7286
▁niece	-11.7286
▁scandal	-11.7286
▁stuart	-11.7286
▁website	-11.7286
▁captive	-11.7286
▁purchase	-11.7286
▁octopus	-11.7286
▁farewell	-11.7286
gutenberg	-11.7286
▁disabled	-11.7286
▁ornament	-11.7286
▁phillip	-11.7286
▁collar	-11.7286
▁infection	-11.7286
▁breeze	-11.7286
▁ethel	-11.7286
▁nibble	-11.7286
▁sensation	-11.7286
▁awesome	-11.7286
▁clutch	-11.7286
▁johann	-11.7286
▁multiple	-11.7286
▁ascend	-11.7286
▁edition	-11.7286
▁naked	-11.7286
▁ugly	-11.7286
▁doughnut	-11.7286
▁instance	-11.7286
▁cornflakes	-11.7286
▁raven	-11.7286
▁felix	-11.7286
▁welsh	-11.7286
▁impressive	-11.7286
▁embrace	-11.7286
▁golf	-11.7287
▁grind	-11.7287
▁evelyn	-11.7287
▁cloak	-11.7287
possum	-11.7287
▁cyrus	-11.7287
▁sprang	-11.7287
▁1966	-11.7287
▁veins	-11.7287
▁duncan	-11.7287
▁1973	-11.7287
▁retirement	-11.7287
▁1958	-11.7287
▁attractive	-11.7287
▁waving	-11.7288
arctic	-11.7288
▁inspector	-11.7288
▁1954	-11.7288
▁dismay	-11.7288
▁foam	-11.7288
▁adjust	-11.7288
▁aaron	-11.7288
▁martha	-11.7289
▁massive	-11.729
▁shone	-11.729
▁sample	-11.729
▁anderson	-11.729
▁exclamation	-11.729
▁thoroughly	-11.7291
▁viking	-11.7291
▁fright	-11.7292
▁raspberry	-11.7293
▁incredible	-11.7293
▁limp	-11.7293
▁gettin	-11.7293
▁drag	-11.7293
▁suck	-11.7293
▁garment	-11.7294
▁maryland	-11.7294
▁potty	-11.7295
▁socialist	-11.7295
▁spotted	-11.7296
▁unfortunately	-11.7296
▁haut	-11.7296
arrington	-11.7296
▁armenian	-11.7296
▁neil	-11.7297
▁gear	-11.7297
okay	-11.7298
▁junk	-11.7298
▁dude	-11.7298
▁reign	-11.7298
▁compassionat	-11.7298
▁homework	-11.7299
▁potter	-11.73
▁tourist	-11.7301
▁counties	-11.7301
▁bruno	-11.7301
▁taxes	-11.7302
▁accomplished	-11.7303
▁rarely	-11.7304
▁armies	-11.7304
▁virus	-11.7305
▁coward	-11.7305
▁scheduled	-11.7306
▁cultural	-11.7307
▁hopeless	-11.7307
▁reasonable	-11.7307
▁merc	-11.7308
▁daylight	-11.7309
▁piper	-11.7309
▁gross	-11.7309
▁à	-11.7309
▁metro	-11.7311
▁promoted	-11.7312
▁punished	-11.7313
▁lifetime	-11.7313
▁followers	-11.7313
▁viii	-11.7314
▁ugh	-11.7314
mumbles	-11.7314
▁idle	-11.7314
▁proceeded	-11.7316
▁corona	-11.7317
▁hose	-11.7319
▁gilli	-11.732
▁regularly	-11.7322
▁observer	-11.7322
äu	-11.7324
▁gown	-11.7324
otic	-11.7324
▁diary	-11.7324
▁mice	-11.7327
▁ji	-11.7329
▁informed	-11.7329
▁sewing	-11.7338
▁dashed	-11.7347
▁borrowed	-11.7348
▁sheila	-11.7353
▁cargo	-11.7353
▁stretched	-11.7354
▁graceful	-11.7355
▁ashes	-11.7356
▁owen	-11.7358
hums	-11.7359
▁gathering	-11.736
▁acquire	-11.736
▁2018)	-11.7364
parent	-11.7368
▁clothing	-11.7369
▁jumper	-11.7369
▁multi	-11.7369
▁chewing	-11.737
2/	-11.7372
▁gb	-11.7373
▁commonly	-11.7374
▁assist	-11.7377
▁skiing	-11.7389
▁jin	-11.7389
▁dial	-11.739
▁haze	-11.7392
▁dae	-11.7393
▁flashed	-11.7396
▁rim	-11.7397
▁earlie	-11.7401
▁entering	-11.7405
▁mia	-11.7409
▁voted	-11.7413
pie	-11.742
▁spelling	-11.7422
▁abuse	-11.7422
▁birdie	-11.7424
oop	-11.7426
lé	-11.7426
93	-11.7431
hubert	-11.7439
▁swan	-11.7447
▁explaining	-11.7452
▁jer	-11.7453
think	-11.7455
▁tab	-11.7487
rick	-11.7496
▁mast	-11.7502
face	-11.7505
▁beak	-11.7513
▁simon	-11.753
▁grabb	-11.7532
▁lyn	-11.7533
▁hou	-11.7533
▁hon	-11.754
pec	-11.7543
▁israeli	-11.7547
▁rider	-11.7561
fashioned	-11.7584
▁organis	-11.7595
hir	-11.7602
▁amuse	-11.761
▁reviv	-11.7614
osaurus	-11.7618
fore	-11.7618
▁clare	-11.763
▁duch	-11.7643
▁budd	-11.768
▁rib	-11.7708
shima	-11.7735
▁define	-11.7742
rner	-11.7764
▁dale	-11.7765
▁gail	-11.7769
▁wade	-11.778
▁cone	-11.7785
▁terra	-11.7787
▁46	-11.7812
▁kra	-11.7857
roman	-11.786
▁convers	-11.7875
▁cooper	-11.7886
holding	-11.7888
hole	-11.7891
bred	-11.7931
▁shine	-11.7934
anne	-11.7955
olo	-11.7958
▁hence	-11.7995
▁66	-11.803
▁evolution	-11.8036
▁brun	-11.8037
▁viv	-11.8054
▁65	-11.8061
▁git	-11.8079
▁jab	-11.8094
jer	-11.811
ization	-11.8112
▁wrap	-11.8158
arian	-11.8166
▁weigh	-11.8179
stitute	-11.8188
▁proceed	-11.8219
▁flee	-11.8221
rrie	-11.8233
▁brow	-11.824
diary	-11.8244
▁fel	-11.8249
ground	-11.825
aux	-11.8252
▁conquer	-11.8253
build	-11.8255
▁determin	-11.8256
knock	-11.8258
wolf	-11.8258
world	-11.8259
“	-11.8259
▁involve	-11.8259
please	-11.8261
guard	-11.8265
▁apparent	-11.8275
▁yuck	-11.8275
▁pap	-11.8278
change	-11.8278
▁journal	-11.8284
▁gorge	-11.8285
↫	-11.8286
olivia	-11.8286
▁1917	-11.8286
▁1948	-11.8286
▁1969	-11.8286
▁1977	-11.8286
▁activities	-11.8286
▁amsterdam	-11.8286
▁analysis	-11.8286
▁approval	-11.8286
▁assassin	-11.8286
▁bronze	-11.8286
▁ceremony	-11.8286
▁comparison	-11.8286
▁destruction	-11.8286
▁dialect	-11.8286
▁diameter	-11.8286
▁dizzy	-11.8286
▁dolphin	-11.8286
▁earthquake	-11.8286
▁emphasis	-11.8286
▁enterprise	-11.8286
▁glorious	-11.8286
▁hannah	-11.8286
▁instinct	-11.8286
▁joshua	-11.8286
▁knives	-11.8286
▁magistrate	-11.8286
▁marvellous	-11.8286
▁mediterranean	-11.8286
▁nebraska	-11.8286
▁negative	-11.8286
▁oblige	-11.8286
▁obstruct	-11.8286
▁piercing	-11.8286
▁portugal	-11.8286
▁prophecy	-11.8286
▁qualified	-11.8286
▁resolution	-11.8286
▁rhythm	-11.8286
▁sculpture	-11.8286
▁sequence	-11.8286
▁smoking	-11.8286
▁syndrome	-11.8286
▁taperecorder	-11.8286
▁terrific	-11.8286
▁trembling	-11.8286
▁velvet	-11.8286
▁vicinity	-11.8286
▁wardrobe	-11.8286
▁wildlife	-11.8286
▁wrestle	-11.8286
politan	-11.8286
{	-11.8286
å	-11.8286
▁affectionate	-11.8286
▁alfred	-11.8286
▁cocoon	-11.8286
▁condemn	-11.8286
▁eruption	-11.8286
▁gracious	-11.8286
▁hamburger	-11.8286
▁louisiana	-11.8286
▁monument	-11.8286
▁possibility	-11.8286
▁preserve	-11.8286
▁reputation	-11.8286
▁satisfy	-11.8286
▁striking	-11.8286
▁traitor	-11.8286
▁uefa	-11.8286
▁{\	-11.8286
▁bargain	-11.8286
▁biography	-11.8286
▁gulf	-11.8286
▁hydro	-11.8286
▁kaiser	-11.8286
▁practis	-11.8286
▁clerk	-11.8286
▁manifest	-11.8286
▁xiv	-11.8286
▁bosom	-11.8286
▁henderson	-11.8286
▁monarch	-11.8286
▁cambridge	-11.8286
▁sophie	-11.8286
▁collins	-11.8286
▁abbey	-11.8286
▁wrist	-11.8286
▁iraq	-11.8286
leicester	-11.8286
▁swore	-11.8286
demonstrate	-11.8286
▁shrink	-11.8286
▁entry	-11.8286
▁errand	-11.8286
sumption	-11.8286
▁basque	-11.8286
▁esther	-11.8286
▁twilight	-11.8286
▁horrid	-11.8287
▁ronald	-11.8287
▁scholarship	-11.8287
▁bbc	-11.8287
▁picard	-11.8287
▁convert	-11.8287
▁belgi	-11.8287
▁accurate	-11.8287
▁addict	-11.8287
▁rainbow	-11.8287
▁rosalie	-11.8287
▁nigel	-11.8287
▁sparrow	-11.8287
▁profile	-11.8287
▁rustling	-11.8287
▁strict	-11.8287
▁helmet	-11.8287
▁musket	-11.8287
▁bradford	-11.8287
▁?[	-11.8287
▁1949	-11.8287
▁terence	-11.8287
▁gym	-11.8287
▁vector	-11.8287
▁1965	-11.8287
▁1933	-11.8287
▁oyster	-11.8287
▁oscar	-11.8287
zip	-11.8287
▁wallace	-11.8287
▁dispute	-11.8288
▁1982	-11.8288
▁adele	-11.8288
▁improvement	-11.8288
▁stoop	-11.8288
▁documentary	-11.8288
▁compact	-11.8288
▁existence	-11.8288
▁polar	-11.8288
http	-11.8288
▁tangle	-11.8288
▁tsar	-11.8288
/030	-11.8288
▁furious	-11.8288
▁1924	-11.8288
▁geneva	-11.8289
▁hedge	-11.8289
▁vivid	-11.8289
▁michelle	-11.8289
▁francisco	-11.8289
▁resignation	-11.8289
▁yorkshire	-11.8289
speaking	-11.8289
▁plaster	-11.8289
▁slaughter	-11.8289
▁harrison	-11.8289
▁dollhouse	-11.8289
▁robinson	-11.8289
▁loft	-11.829
▁membership	-11.829
▁1912	-11.829
▁charley	-11.829
▁mound	-11.829
▁pram	-11.829
▁fern	-11.829
▁patron	-11.829
▁joking	-11.8291
▁packet	-11.8291
▁hillside	-11.8291
▁marshall	-11.8291
▁controller	-11.8291
▁cathy	-11.8291
▁micro	-11.8292
▁connor	-11.8292
▁controlled	-11.8294
▁hbo	-11.8294
▁slavery	-11.8294
▁syrian	-11.8294
▁derek	-11.8294
▁capable	-11.8294
▁thud	-11.8295
▁reverse	-11.8295
▁sammy	-11.8296
▁rusty	-11.8296
▁dancers	-11.8296
▁majority	-11.8296
▁retain	-11.8296
▁fake	-11.8296
▁carbon	-11.8296
▁gamb	-11.8296
soft	-11.8296
▁lump	-11.8296
▁alec	-11.8296
▁diego	-11.8296
▁lighthouse	-11.8296
▁frontier	-11.8297
▁expectation	-11.8298
▁witnesses	-11.8299
▁sickness	-11.8299
▁divorced	-11.8299
▁iceland	-11.83
▁rita	-11.83
▁sadness	-11.83
▁acknowledged	-11.8302
▁sweeping	-11.8302
▁ricky	-11.8303
▁adviser	-11.8304
▁tread	-11.8304
▁vast	-11.8304
▁temporary	-11.8305
▁whining	-11.8306
▁peril	-11.8306
▁hitting	-11.8308
▁relieved	-11.8308
▁striker	-11.8309
▁josh	-11.8312
▁cheaper	-11.8312
▁tug	-11.8314
hv	-11.8316
▁masses	-11.8316
▁reflected	-11.8317
▁torch	-11.8317
▁hunger	-11.8319
▁firing	-11.832
1-2	-11.832
▁cheeky	-11.8321
coat	-11.8323
▁achieved	-11.8323
▁deeds	-11.8329
▁tuh	-11.8329
▁thoughtful	-11.8329
▁obtained	-11.833
▁sharing	-11.833
▁honestly	-11.8331
great	-11.8333
▁chow	-11.8333
▁raw	-11.8333
▁singh	-11.8334
▁rescued	-11.8335
▁lance	-11.8335
▁buff	-11.8338
▁calmly	-11.8339
▁jackie	-11.834
▁colin	-11.8342
▁oct	-11.8346
▁sai	-11.835
▁gasped	-11.8351
▁400	-11.8351
▁greeting	-11.8353
▁lawn	-11.8355
▁somme	-11.8365
▁disk	-11.8365
▁hah	-11.8367
▁hugg	-11.8369
▁tailor	-11.837
▁stealing	-11.8371
▁bumper	-11.8372
▁kara	-11.8375
▁screamed	-11.8378
▁moth	-11.8379
▁blaze	-11.8381
▁foe	-11.839
▁howard	-11.8392
▁sill	-11.8393
▁cracked	-11.8397
▁moral	-11.8408
▁pud	-11.8409
▁stro	-11.841
▁gary	-11.8412
▁chased	-11.8434
▁scarf	-11.8436
▁conv	-11.844
▁kur	-11.8445
▁painter	-11.8448
▁gem	-11.8451
▁persist	-11.8457
▁awaken	-11.8474
tendo	-11.8477
▁mild	-11.848
▁kil	-11.8534
▁nil	-11.8547
▁tae	-11.8555
diff	-11.8561
gold	-11.8569
5||	-11.8607
uncle	-11.8608
▁slate	-11.8614
▁aero	-11.8615
bility	-11.8624
azar	-11.8639
▁pp	-11.8656
▁cape	-11.8666
▁strap	-11.8673
▁glue	-11.868
▁purr	-11.869
claimed	-11.8697
wag	-11.8714
▁leon	-11.8738
bark	-11.8753
horn	-11.8754
▁romania	-11.8755
▁overlap	-11.8793
▁cruise	-11.8824
▁phon	-11.8827
elts	-11.884
ieu	-11.8841
▁babble	-11.8852
pole	-11.8858
cumb	-11.8872
▁screech	-11.8884
▁deposit	-11.8887
lene	-11.891
▁52	-11.8918
▁#1	-11.8924
▁reflect	-11.8938
▁ranch	-11.8944
▁bail	-11.8946
▁trapp	-11.8951
onic	-11.8954
fun	-11.896
▁sv	-11.898
wah	-11.8987
burn	-11.8999
cio	-11.9018
▁dane	-11.9034
▁via	-11.9041
▁settl	-11.9044
race	-11.908
wfully	-11.9102
▁citizen	-11.9115
▁feather	-11.9119
▁glove	-11.9127
viation	-11.9153
▁adj	-11.9214
eppe	-11.9237
growls	-11.9243
agging	-11.926
▁robe	-11.9279
▁chand	-11.9291
pu	-11.9292
lace	-11.9299
▁lucia	-11.9301
▁cube	-11.9306
riel	-11.9311
▁pala	-11.9312
▁fir	-11.9314
cab	-11.9316
▁shove	-11.934
speak	-11.9343
closes	-11.9349
▁declar	-11.9353
▁punish	-11.9364
▁abandon	-11.9364
while	-11.9365
▁adopt	-11.9365
giving	-11.9368
à	-11.9368
▁retire	-11.9369
▁reduce	-11.9369
speech	-11.9369
breath	-11.9369
wheel	-11.9369
michael	-11.937
glass	-11.937
club	-11.937
white	-11.937
something	-11.937
plane	-11.937
throw	-11.937
black	-11.9371
listen	-11.9371
▁urge	-11.9372
▁grip	-11.9374
office	-11.9375
beep	-11.9379
▁pow	-11.938
hello	-11.9382
france	-11.9383
▁prepar	-11.9385
▁unfortunate	-11.9385
▁frequent	-11.9385
▁definite	-11.9386
▁quart	-11.9387
▁syria	-11.9389
four	-11.9392
▁occup	-11.9395
▁franco	-11.9395
▁horizon	-11.9397
▁decrease	-11.9397
▁negotia	-11.9397
▁prosecut	-11.9397
investigator	-11.9397
necessarily	-11.9397
undercurrent	-11.9397
▁1947	-11.9397
▁1957	-11.9397
▁advancing	-11.9397
▁alabama	-11.9397
▁applied	-11.9397
▁assault	-11.9397
▁astonishment	-11.9397
▁attorney	-11.9397
▁automatic	-11.9397
▁capacity	-11.9397
▁champagne	-11.9397
▁circuit	-11.9397
▁cluster	-11.9397
▁coincidence	-11.9397
▁collaborat	-11.9397
▁cupcake	-11.9397
▁cyclone	-11.9397
▁democracy	-11.9397
▁discipline	-11.9397
▁disguise	-11.9397
▁doctrine	-11.9397
▁extraordinary	-11.9397
▁ferdinand	-11.9397
▁frigate	-11.9397
▁frozen	-11.9397
▁geoffrey	-11.9397
▁gesture	-11.9397
▁gharib	-11.9397
▁glimpse	-11.9397
▁gravity	-11.9397
▁happily	-11.9397
▁harbour	-11.9397
▁haunted	-11.9397
▁immense	-11.9397
▁importance	-11.9397
▁investigating	-11.9397
▁investment	-11.9397
▁jordan	-11.9397
▁kindergarten	-11.9397
▁lawrence	-11.9397
▁legislati	-11.9397
▁legislature	-11.9397
▁luggage	-11.9397
▁manufacturing	-11.9397
▁mechanism	-11.9397
▁mermaid	-11.9397
▁mohammed	-11.9397
▁mushroom	-11.9397
▁natalie	-11.9397
▁paralympic	-11.9397
▁philosophy	-11.9397
▁pistol	-11.9397
▁playgroup	-11.9397
▁popcorn	-11.9397
▁practicing	-11.9397
▁prefecture	-11.9397
▁privilege	-11.9397
▁puppies	-11.9397
▁rehearsal	-11.9397
▁reservation	-11.9397
▁rhoda	-11.9397
▁ridiculous	-11.9397
▁scotch	-11.9397
▁sovereign	-11.9397
▁sparkling	-11.9397
▁sprinkle	-11.9397
▁survivor	-11.9397
▁suspended	-11.9397
▁symptoms	-11.9397
▁telescope	-11.9397
▁vampire	-11.9397
▁vigorously	-11.9397
▁yield	-11.9397
▁zelenka	-11.9397
▁brennan	-11.9397
▁caesar	-11.9397
▁deliberately	-11.9397
▁dignity	-11.9397
▁effie	-11.9397
▁geographic	-11.9397
▁identify	-11.9397
▁jamaica	-11.9397
▁landlord	-11.9397
▁nelson	-11.9397
▁pledge	-11.9397
▁resembl	-11.9397
▁ribbit	-11.9397
▁selena	-11.9397
▁statue	-11.9397
▁thief	-11.9397
▁torpedo	-11.9397
▁wrath	-11.9397
▁yourselves	-11.9397
▁alligator	-11.9397
▁cycle	-11.9397
▁invisible	-11.9397
▁lumber	-11.9397
▁vanessa	-11.9397
▁wilderness	-11.9397
▁accompany	-11.9397
▁agricultur	-11.9397
▁cardinal	-11.9397
▁envy	-11.9397
▁siege	-11.9397
▁stewart	-11.9397
▁sunrise	-11.9397
▁bathtub	-11.9397
▁twinkle	-11.9397
▁luncheon	-11.9397
▁rhine	-11.9397
▁rotten	-11.9397
▁width	-11.9397
▁slippers	-11.9397
▁xxi	-11.9397
natured	-11.9397
▁causing	-11.9397
▁floyd	-11.9397
▁visible	-11.9397
▁injury	-11.9397
▁municipalities	-11.9397
▁misfortune	-11.9397
▁orphan	-11.9397
▁beloved	-11.9397
▁gregory	-11.9397
▁shipping	-11.9397
▁dallas	-11.9397
▁ethan	-11.9397
▁harris	-11.9397
▁josé	-11.9397
▁compass	-11.9397
▁childsname	-11.9397
▁scoot	-11.9397
▁whirl	-11.9397
malley	-11.9397
▁console	-11.9397
▁dedicate	-11.9397
▁nappie	-11.9398
▁operator	-11.9398
▁descent	-11.9398
▁silk	-11.9398
▁yacht	-11.9398
▁install	-11.9398
▁xviii	-11.9398
▁galicia	-11.9398
▁yankee	-11.9398
▁patriot	-11.9398
▁gallery	-11.9398
▁jessica	-11.9398
▁solomon	-11.9398
▁susie	-11.9398
▁tasty	-11.9398
▁cigar	-11.9398
▁crust	-11.9398
▁clasp	-11.9398
▁leonard	-11.9398
▁pork	-11.9398
▁confidential	-11.9398
▁bryan	-11.9398
▁cruz	-11.9398
▁wretch	-11.9398
▁establishment	-11.9398
▁beware	-11.9398
▁apollo	-11.9398
echoing	-11.9399
▁abdul	-11.9399
▁spinning	-11.9399
▁lyon	-11.9399
▁engagement	-11.9399
▁1929	-11.9399
▁councillor	-11.9399
▁1928	-11.9399
▁tension	-11.94
▁creak	-11.94
▁granny	-11.94
▁drummer	-11.94
▁impact	-11.94
▁ambition	-11.94
pathetic	-11.94
▁optic	-11.94
▁petrol	-11.94
▁ballot	-11.94
▁franz	-11.94
▁leadership	-11.94
▁revolutionary	-11.94
▁lame	-11.94
▁rival	-11.94
▁wives	-11.9401
groaning	-11.9401
▁ensure	-11.9401
▁burke	-11.9401
bourne	-11.9401
▁ragged	-11.9402
▁robbie	-11.9402
▁koran	-11.9402
▁liking	-11.9402
▁jingle	-11.9402
▁slim	-11.9402
▁ridge	-11.9402
▁£	-11.9402
▁magnetic	-11.9403
▁civilian	-11.9403
▁insert	-11.9403
▁gyp	-11.9403
▁geese	-11.9404
assic	-11.9404
▁agreeable	-11.9404
▁jung	-11.9404
▁choke	-11.9405
▁trent	-11.9405
▁cellar	-11.9405
▁collie	-11.9405
▁brazilian	-11.9406
▁stalk	-11.9406
▁aisle	-11.9406
▁xvi	-11.9407
▁plantation	-11.9407
▁dumb	-11.9407
▁katie	-11.9407
▁gunner	-11.9407
://	-11.9407
▁vroom	-11.9408
▁archie	-11.9408
▁saxon	-11.9409
▁educated	-11.9409
▁hesitated	-11.9409
▁zach	-11.9409
▁incorporate	-11.9409
▁sneeze	-11.9409
▁raft	-11.941
▁ruff	-11.941
▁concealed	-11.9411
▁bulgaria	-11.9411
▁levi	-11.9411
▁nickel	-11.9412
▁elsewhere	-11.9414
▁protection	-11.9415
▁concluded	-11.9416
▁waist	-11.9416
▁ferry	-11.9417
▁songwriter	-11.9417
▁curve	-11.9418
descendants	-11.9418
▁countrymen	-11.9419
▁quote	-11.9421
▁sweater	-11.9421
▁fab	-11.9422
▁haul	-11.9423
▁risen	-11.9423
▁sadie	-11.9423
▁educational	-11.9424
▁hint	-11.9424
▁rosie	-11.9425
▁curved	-11.9426
▁urged	-11.9426
▁stew	-11.9426
▁downtown	-11.9428
▁supporters	-11.9429
▁addresses	-11.9429
▁chronicle	-11.9429
▁shiny	-11.943
▁ruh	-11.943
▁abandoned	-11.9431
▁norse	-11.9431
▁thoughtfully	-11.9433
▁manchester	-11.9433
▁berry	-11.9434
▁conquered	-11.9435
▁gases	-11.9435
▁proceeding	-11.9436
▁bio	-11.9437
▁brushes	-11.9438
bow	-11.9439
▁publisher	-11.9441
though	-11.9444
fax	-11.9447
▁slay	-11.9447
▁blown	-11.9449
▁dj	-11.9453
▁recovered	-11.9453
▁correctly	-11.9455
▁recognise	-11.9459
▁dresses	-11.9459
▁eun	-11.9461
▁overnight	-11.9464
▁hull	-11.9464
▁closest	-11.9465
▁spank	-11.9468
▁whipp	-11.9469
acon	-11.947
▁passes	-11.9473
▁jae	-11.9479
▁spur	-11.9481
▁server	-11.9482
▁43	-11.9506
whinn	-11.9513
rhin	-11.9514
▁moderat	-11.9515
▁evolv	-11.952
▁sniff	-11.9523
▁hush	-11.9533
▁isabelle	-11.9534
lapping	-11.9537
▁mul	-11.9538
▁marian	-11.9539
▁robot	-11.9541
▁raci	-11.9565
bang	-11.957
ugh	-11.9574
pound	-11.9582
▁vera	-11.9598
▁terminat	-11.9599
▁shorten	-11.9609
▁burp	-11.9618
▁kon	-11.9623
▁fee	-11.9638
▁roller	-11.964
▁quant	-11.9644
▁mule	-11.9644
mpuls	-11.9657
gilla	-11.9658
▁reporter	-11.9667
▁dollie	-11.9667
50.	-11.9669
▁poly	-11.9679
▁featur	-11.9707
▁transit	-11.9707
▁tig	-11.972
arrow	-11.9724
▁juan	-11.9752
bach	-11.9753
kö	-11.9764
rik	-11.9765
franc	-11.978
▁esp	-11.9781
lude	-11.9783
97	-11.9784
▁fatal	-11.979
▁jap	-11.9841
htm	-11.9852
▁overlook	-11.9884
▁genera	-11.9886
▁pun	-11.9891
▁sap	-11.9902
static	-11.9917
2.5	-11.9931
olin	-11.994
▁mack	-11.9942
eiro	-11.9947
▁fann	-11.9956
▁85	-11.9996
▁tink	-12.004
▁camb	-12.0047
hav	-12.0072
yuki	-12.0077
▁prussia	-12.0091
adi	-12.0098
▁48	-12.0107
itzer	-12.0109
rung	-12.0128
liver	-12.0138
▁span	-12.0139
▁philipp	-12.0141
▁harp	-12.0146
hsl	-12.0162
imitates	-12.0209
nspired	-12.0215
▁magical	-12.0221
vol	-12.0246
▁mug	-12.0278
oiled	-12.0334
position	-12.0338
▁ferr	-12.0342
▁insect	-12.0368
▁slid	-12.0401
▁smi	-12.0417
lara	-12.0482
▁mode	-12.0521
▁1953	-12.0527
▁wink	-12.0549
observe	-12.055
▁relat	-12.0563
▁historic	-12.0582
haired	-12.059
▁extend	-12.0614
covered	-12.0615
saxon	-12.0618
section	-12.0619
pushes	-12.0619
▁relieve	-12.0619
~	-12.0619
▁schedule	-12.0619
drops	-12.0619
clown	-12.0619
certainly	-12.062
written	-12.062
october	-12.062
#	-12.062
brush	-12.062
movie	-12.062
john	-12.062
natural	-12.062
could	-12.062
large	-12.062
cloth	-12.062
power	-12.062
meaning	-12.062
second	-12.062
brown	-12.0628
help	-12.0628
▁nurs	-12.0631
speed	-12.0632
▁flap	-12.0634
softly	-12.0635
▁argentin	-12.0635
paul	-12.0635
▁obvious	-12.0636
▁grim	-12.0641
nfl	-12.0641
prison	-12.0642
▁construct	-12.0644
saint	-12.0647
instruct	-12.0647
▁phenomen	-12.0647
ū	-12.0647
▁disagree	-12.0647
▁disgrace	-12.0647
▁liquor	-12.0647
▁schooner	-12.0647
▁señor	-12.0647
arrondissement	-12.0647
č	-12.0647
▁1936	-12.0647
▁1941	-12.0647
▁1962	-12.0647
▁advertisement	-12.0647
▁ambassador	-12.0647
▁behaviour	-12.0647
▁binoculars	-12.0647
▁bouncing	-12.0647
▁cabbage	-12.0647
▁cathedral	-12.0647
▁cautious	-12.0647
▁cavalry	-12.0647
▁columbia	-12.0647
▁communities	-12.0647
▁comparative	-12.0647
▁concentrate	-12.0647
▁conquest	-12.0647
▁convenient	-12.0647
▁correspond	-12.0647
▁custody	-12.0647
▁dictionary	-12.0647
▁easiest	-12.0647
▁elegant	-12.0647
▁exploration	-12.0647
▁explosive	-12.0647
▁facilities	-12.0647
▁fountain	-12.0647
▁frederick	-12.0647
▁frequency	-12.0647
▁garbage	-12.0647
▁garrison	-12.0647
▁grinned	-12.0647
▁harvard	-12.0647
▁honeymoon	-12.0647
▁intelligent	-12.0647
▁interaction	-12.0647
▁jasmine	-12.0647
▁landscape	-12.0647
▁liberty	-12.0647
▁manhattan	-12.0647
▁mathematics	-12.0647
▁murphy	-12.0647
▁napoleon	-12.0647
▁opponent	-12.0647
▁palestine	-12.0647
▁propeller	-12.0647
▁prophet	-12.0647
▁psychology	-12.0647
▁punjab	-12.0647
▁qualify	-12.0647
▁recognition	-12.0647
▁rejoice	-12.0647
▁retorted	-12.0647
▁revolver	-12.0647
▁seldom	-12.0647
▁snoopy	-12.0647
▁spectacle	-12.0647
▁splinter	-12.0647
▁taiwan	-12.0647
▁technique	-12.0647
▁tennessee	-12.0647
▁thieves	-12.0647
▁trevor	-12.0647
▁trigger	-12.0647
▁ungrateful	-12.0647
▁unsuccessful	-12.0647
▁veteran	-12.0647
▁watermelon	-12.0647
▁whistling	-12.0647
▁whitney	-12.0647
▁wisconsin	-12.0647
▁1971	-12.0647
▁ethnic	-12.0647
▁fluffy	-12.0647
▁invitation	-12.0647
▁lettuce	-12.0647
▁malcolm	-12.0647
▁nowadays	-12.0647
▁patience	-12.0647
▁sacred	-12.0647
▁samurai	-12.0647
▁sponsor	-12.0647
▁surrender	-12.0647
▁1944	-12.0647
▁shrub	-12.0647
▁software	-12.0647
▁arguing	-12.0647
▁bunnies	-12.0647
▁dummy	-12.0647
▁gavin	-12.0647
▁grammar	-12.0647
▁slug	-12.0647
▁snail	-12.0647
▁windmill	-12.0647
abilities	-12.0647
▁cindy	-12.0647
▁memories	-12.0647
▁shield	-12.0647
▁utmost	-12.0647
▁freak	-12.0647
▁threatening	-12.0647
▁crisis	-12.0647
▁piggie	-12.0647
▁bulb	-12.0647
▁pierce	-12.0647
▁decay	-12.0647
▁dissolv	-12.0647
▁whereupon	-12.0647
▁combined	-12.0647
▁amazed	-12.0647
▁dillon	-12.0647
▁urgent	-12.0647
▁compost	-12.0647
▁thump	-12.0647
babbling	-12.0647
▁peacock	-12.0647
▁clue	-12.0647
▁pronounced	-12.0647
▁serena	-12.0647
▁ariane	-12.0647
▁illuminat	-12.0647
▁playstation	-12.0647
▁xxv	-12.0647
▁apology	-12.0647
▁moaning	-12.0647
▁ribbon	-12.0647
nvr	-12.0647
▁thames	-12.0647
▁bliss	-12.0647
▁trauma	-12.0647
▁detach	-12.0647
▁wessex	-12.0647
▁munich	-12.0647
▁carrier	-12.0648
▁hooray	-12.0648
▁serbia	-12.0648
▁forehead	-12.0648
▁querie	-12.0648
▁isobel	-12.0648
▁idaho	-12.0648
stadt	-12.0648
▁forbidden	-12.0648
▁medium	-12.0648
▁buggy	-12.0648
▁insane	-12.0648
▁accent	-12.0648
▁unbelievable	-12.0648
▁wiggle	-12.0648
▁marshal	-12.0648
ão	-12.0648
▁persian	-12.0648
▁programming	-12.0648
▁raymond	-12.0648
▁basil	-12.0648
▁toxic	-12.0648
▁architecture	-12.0648
▁judgment	-12.0648
▁abbot	-12.0648
▁violin	-12.0648
▁scoop	-12.0648
▁dustbin	-12.0648
▁trumpet	-12.0648
▁context	-12.0648
▁elbow	-12.0648
▁impulse	-12.0648
▁pilgrimage	-12.0648
sibility	-12.0648
▁plague	-12.0648
▁satisfaction	-12.0648
▁edda	-12.0649
▁banned	-12.0649
▁fiddle	-12.0649
▁manuel	-12.0649
▁disposition	-12.0649
▁petition	-12.0649
▁gambling	-12.0649
▁1932	-12.0649
▁tracy	-12.0649
▁travis	-12.0649
▁cheerio	-12.0649
▁padding	-12.0649
▁bravo	-12.0649
▁scarlet	-12.0649
▁amusement	-12.0649
▁foster	-12.0649
▁denmark	-12.0649
▁discount	-12.0649
▁recess	-12.0649
▁yonder	-12.0649
▁journalist	-12.0649
▁occupation	-12.0649
▁option	-12.0649
▁latitude	-12.065
▁primary	-12.065
▁extension	-12.065
▁cider	-12.065
▁vague	-12.065
▁strategic	-12.065
▁1986	-12.065
▁impose	-12.065
▁1918	-12.065
▁rumor	-12.065
▁burial	-12.065
▁extinction	-12.065
▁basin	-12.065
▁hostile	-12.065
▁gobble	-12.065
▁gallant	-12.065
▁progressive	-12.065
▁carved	-12.065
▁radiation	-12.0651
▁titan	-12.0651
▁1914	-12.0651
▁teenage	-12.0651
▁salary	-12.0651
▁anthem	-12.0651
▁digg	-12.0651
▁cruelty	-12.0651
▁alexandr	-12.0651
-17	-12.0651
▁ankle	-12.0651
▁tyler	-12.0651
▁slack	-12.0651
▁moonlight	-12.0651
▁horton	-12.0651
▁bennie	-12.0652
protein	-12.0652
▁dumpty	-12.0652
▁exile	-12.0652
▁combat	-12.0652
▁spaceship	-12.0652
▁edna	-12.0652
▁pulse	-12.0653
▁stabb	-12.0653
▁poetry	-12.0653
▁dependent	-12.0653
▁drake	-12.0653
▁dispose	-12.0653
▁griev	-12.0653
▁terry	-12.0653
grand	-12.0654
▁flute	-12.0654
▁quaint	-12.0654
▁trash	-12.0654
▁shaft	-12.0655
▁waking	-12.0655
▁sunlight	-12.0655
▁communicate	-12.0655
▁christine	-12.0655
▁trifl	-12.0655
▁illness	-12.0656
▁emmy	-12.0656
▁johnnie	-12.0656
▁goddesses	-12.0656
▁ruling	-12.0656
▁weakness	-12.0656
▁pasture	-12.0657
▁freddy	-12.0657
▁viola	-12.0657
▁objective	-12.0657
▁footsteps	-12.0657
▁rook	-12.0657
▁slot	-12.0657
▁selection	-12.0658
▁initially	-12.0658
▁romance	-12.0658
▁shack	-12.0659
▁occasional	-12.0659
▁argentina	-12.0659
▁coop	-12.0659
▁grimly	-12.0659
▁emir	-12.066
▁waterfall	-12.066
▁petty	-12.066
▁shri	-12.0661
▁edinburgh	-12.0661
▁grunting	-12.0661
▁jock	-12.0661
▁mercer	-12.0662
▁saxony	-12.0663
▁charleston	-12.0664
▁discharged	-12.0664
▁grandson	-12.0665
▁mince	-12.0666
▁maple	-12.0666
▁tucker	-12.0666
▁distinctly	-12.0668
▁violently	-12.0668
▁dense	-12.0668
▁humming	-12.0669
▁orient	-12.0669
▁chef	-12.067
▁unlikely	-12.0671
▁rite	-12.0671
omo	-12.0671
▁gaga	-12.0672
▁helm	-12.0672
▁formation	-12.0673
▁kenne	-12.0677
▁hurriedly	-12.0677
alpes	-12.0679
▁marsh	-12.0681
▁frankie	-12.0681
▁backyard	-12.0682
▁lava	-12.0682
cock	-12.0682
▁subsid	-12.0683
▁wang	-12.0683
▁youngster	-12.0683
▁ninth	-12.0684
▁endure	-12.0684
▁irri	-12.0685
▁loan	-12.0685
▁overboard	-12.0689
▁mustard	-12.0693
▁barber	-12.0694
▁cutter	-12.0698
▁freeman	-12.0699
▁meantime	-12.07
pause	-12.07
proving	-12.0701
▁shane	-12.0702
▁restore	-12.0708
consol	-12.0715
▁1961	-12.0715
cultural	-12.0717
aggie	-12.0725
▁pawn	-12.0729
▁mick	-12.073
▁chester	-12.0731
▁bates	-12.0732
▁receiver	-12.0733
▁plank	-12.0735
▁steamer	-12.0736
feeble	-12.0736
dispens	-12.076
ovich	-12.0767
▁rigg	-12.0782
▁luk	-12.0798
▁confession	-12.0805
hour	-12.0807
▁snip	-12.0814
▁sab	-12.083
unwal	-12.0833
▁oxid	-12.0868
conti	-12.0884
▁decline	-12.0886
▁graphic	-12.0896
pascal	-12.0919
jj	-12.0929
istan	-12.0965
▁promote	-12.097
mamma	-12.0984
▁rubbe	-12.0996
▁160	-12.1035
▁presid	-12.1054
▁weaken	-12.1096
eater	-12.113
▁dye	-12.1161
▁reins	-12.1166
▁criticiz	-12.1169
▁swap	-12.1202
▁gir	-12.1223
▁triple	-12.1261
▁presume	-12.128
▁damp	-12.1293
1.2	-12.1296
kri	-12.1301
▁cruis	-12.1339
▁measur	-12.1376
phil	-12.138
efined	-12.1386
▁introduc	-12.1436
▁hub	-12.1441
▁[17	-12.1492
▁clari	-12.1508
▁greg	-12.1531
▁lash	-12.1563
▁juli	-12.1585
gular	-12.1625
▁livingston	-12.1637
▁rica	-12.1704
▁quantit	-12.1766
egg	-12.1782
▁spiritual	-12.1791
barrow	-12.1799
▁georg	-12.1822
iddle	-12.1914
▁dunn	-12.1964
ternal	-12.199
lifts	-12.1992
sitting	-12.1996
▁tama	-12.2008
▁colonial	-12.2016
▁glob	-12.2027
duced	-12.2037
▁establish	-12.2042
historic	-12.2047
writer	-12.2047
whining	-12.2047
gilli	-12.2047
touches	-12.2047
league	-12.2048
microphone	-12.2048
lucky	-12.2048
fox	-12.2048
november	-12.2048
april	-12.2048
daughter	-12.2048
everything	-12.2048
anything	-12.2048
finish	-12.2048
▁divide	-12.2048
better	-12.2049
▁seize	-12.2052
course	-12.2052
season	-12.2053
▁intend	-12.2055
patsy	-12.2057
helen	-12.206
block	-12.2061
laughter	-12.2061
▁thirst	-12.2062
▁academ	-12.2062
strange	-12.2063
▁initial	-12.2064
road	-12.2065
communicat	-12.2067
▁exhibit	-12.2069
limit	-12.207
▁forbid	-12.2071
▁festiv	-12.2072
▁michel	-12.2073
▁pilgrim	-12.2075
▁fulfil	-12.2075
▁accur	-12.2075
ß	-12.2076
▁$3	-12.2076
enthusiastic	-12.2076
icameral	-12.2076
ović	-12.2076
¿	-12.2076
ò	-12.2076
ł	-12.2076
▁abortion	-12.2076
▁agrippa	-12.2076
▁anticipate	-12.2076
▁applause	-12.2076
▁augeias	-12.2076
▁baboon	-12.2076
▁balochistan	-12.2076
▁broccoli	-12.2076
▁burglar	-12.2076
▁catastrophe	-12.2076
▁conclusion	-12.2076
▁conscious	-12.2076
▁conservative	-12.2076
▁constance	-12.2076
▁constituency	-12.2076
▁coordinat	-12.2076
▁corporal	-12.2076
▁corridor	-12.2076
▁cragg	-12.2076
▁crawford	-12.2076
▁dishwasher	-12.2076
▁elaborate	-12.2076
▁employee	-12.2076
▁employment	-12.2076
▁eugene	-12.2076
▁gingerbread	-12.2076
▁glooskap	-12.2076
▁grocery	-12.2076
▁hiccup	-12.2076
▁identity	-12.2076
▁ignorant	-12.2076
▁industrial	-12.2076
▁interference	-12.2076
▁kilometers	-12.2076
▁langridge	-12.2076
▁limestone	-12.2076
▁liverpool	-12.2076
▁luxury	-12.2076
▁macdonald	-12.2076
▁magnitude	-12.2076
▁maximum	-12.2076
▁motorcycle	-12.2076
▁namibia	-12.2076
▁necessity	-12.2076
▁neigh	-12.2076
▁neutral	-12.2076
▁nielsen	-12.2076
▁paragraph	-12.2076
▁penetrate	-12.2076
▁policies	-12.2076
▁provoke	-12.2076
▁psychiatrist	-12.2076
▁racket	-12.2076
▁receipt	-12.2076
▁redouble	-12.2076
▁rejoicing	-12.2076
▁residence	-12.2076
▁satellite	-12.2076
▁scrooge	-12.2076
▁shattered	-12.2076
▁signature	-12.2076
▁societies	-12.2076
▁subtitle	-12.2076
▁sunglasses	-12.2076
▁tadpoles	-12.2076
▁terrified	-12.2076
▁twelfth	-12.2076
▁twinkling	-12.2076
▁uncomfortable	-12.2076
▁unemployed	-12.2076
▁venezuela	-12.2076
▁violence	-12.2076
▁whilst	-12.2076
▁wikipedia	-12.2076
ē	-12.2076
▁accelerat	-12.2076
▁amendment	-12.2076
▁ancestor	-12.2076
▁annoyed	-12.2076
▁applaud	-12.2076
▁behavior	-12.2076
▁burrow	-12.2076
▁caradoc	-12.2076
▁celebration	-12.2076
▁celebrity	-12.2076
▁colonies	-12.2076
▁combination	-12.2076
▁conclave	-12.2076
▁craig	-12.2076
▁dangling	-12.2076
▁disregard	-12.2076
▁ethiopia	-12.2076
▁immigrant	-12.2076
▁intensity	-12.2076
▁laurie	-12.2076
▁matilda	-12.2076
▁minimum	-12.2076
▁miracle	-12.2076
▁norwegian	-12.2076
▁occurrence	-12.2076
▁pluck	-12.2076
▁premises	-12.2076
▁reduction	-12.2076
▁resumed	-12.2076
▁ritual	-12.2076
▁turbine	-12.2076
▁uncertain	-12.2076
▁unconscious	-12.2076
▁vienna	-12.2076
▁(2018)	-12.2076
▁coffin	-12.2076
▁deceive	-12.2076
▁depressi	-12.2076
▁diagnos	-12.2076
▁edith	-12.2076
▁fancied	-12.2076
▁gravy	-12.2076
▁hudson	-12.2076
▁psyche	-12.2076
▁recycl	-12.2076
▁serpent	-12.2076
▁simultaneously	-12.2076
▁sledge	-12.2076
▁spencer	-12.2076
▁suppress	-12.2076
▁syllable	-12.2076
▁translation	-12.2076
▁wagner	-12.2076
@	-12.2076
acquaint	-12.2076
▁giddy	-12.2076
▁laurel	-12.2076
▁ncaa	-12.2076
▁pigeon	-12.2076
▁sprout	-12.2076
▁1934	-12.2076
▁essex	-12.2076
▁insurance	-12.2076
▁obsess	-12.2076
▁renewed	-12.2076
libretto	-12.2076
▁backpack	-12.2076
▁leopard	-12.2076
▁warehouse	-12.2076
▁caleb	-12.2076
▁philippines	-12.2076
▁restrain	-12.2076
▁caravan	-12.2076
▁crease	-12.2076
▁resort	-12.2076
▁skating	-12.2076
predator	-12.2076
▁antenna	-12.2076
▁entreat	-12.2076
▁melody	-12.2076
desirable	-12.2076
▁randall	-12.2076
▁begging	-12.2076
▁regain	-12.2076
▁sketch	-12.2076
▁properties	-12.2076
▁rahal	-12.2076
▁gazing	-12.2076
▁ponies	-12.2076
▁serene	-12.2076
▁unwilling	-12.2076
▁diving	-12.2076
▁fortress	-12.2076
▁vault	-12.2076
exhales	-12.2076
▁submit	-12.2076
▁invalid	-12.2076
▁deedee	-12.2076
▁elena	-12.2076
▁hoarse	-12.2076
▁hopping	-12.2076
▁kyle	-12.2076
▁railroad	-12.2076
▁emblem	-12.2076
grease	-12.2076
▁harvest	-12.2076
▁squire	-12.2076
▁valentin	-12.2076
▁margot	-12.2076
▁essay	-12.2076
▁agnes	-12.2076
▁gully	-12.2076
▁cedar	-12.2076
▁edwin	-12.2076
."--_	-12.2076
▁cunningham	-12.2076
▁uneas	-12.2076
▁brumm	-12.2076
▁fleming	-12.2076
▁mammals	-12.2076
▁mosque	-12.2076
▁amateur	-12.2076
▁external	-12.2076
▁hurrah	-12.2076
▁fowl	-12.2076
▁introduction	-12.2076
▁pudding	-12.2076
▁shrimp	-12.2076
[37	-12.2076
owitz	-12.2077
▁hollywood	-12.2077
▁alliance	-12.2077
▁breach	-12.2077
▁murray	-12.2077
▁nasty	-12.2077
▁screenplay	-12.2077
▁brigade	-12.2077
▁lettice	-12.2077
▁bernice	-12.2077
▁fulfilled	-12.2077
▁hiram	-12.2077
▁therapy	-12.2077
/010	-12.2077
▁elsie	-12.2077
▁griff	-12.2077
▁cavern	-12.2077
▁snort	-12.2077
▁lauren	-12.2077
arriving	-12.2077
▁insult	-12.2077
▁miaow	-12.2077
▁glide	-12.2077
▁gospel	-12.2077
▁sherman	-12.2077
▁kenai	-12.2077
aternity	-12.2077
▁compliment	-12.2077
▁bunker	-12.2077
▁testify	-12.2077
▁1926	-12.2077
▁buoy	-12.2077
▁jewelry	-12.2077
▁windsor	-12.2077
▁characteristic	-12.2077
▁sikh	-12.2077
▁quest	-12.2077
▁humble	-12.2078
▁loire	-12.2078
▁frantic	-12.2078
▁chorus	-12.2078
▁cromer	-12.2078
▁rational	-12.2078
▁1935	-12.2078
▁audition	-12.2078
▁misery	-12.2078
▁rift	-12.2078
▁pocketbook	-12.2078
▁wellington	-12.2078
▁antoine	-12.2078
▁minnie	-12.2078
▁portray	-12.2078
▁seizing	-12.2078
▁stubb	-12.2078
▁flourish	-12.2078
▁canyon	-12.2078
▁achievement	-12.2079
▁rugby	-12.2079
▁cadet	-12.2079
▁eternal	-12.2079
▁campbell	-12.2079
▁serial	-12.2079
▁mosquitoes	-12.2079
▁choking	-12.2079
▁parliamentary	-12.2079
▁finance	-12.2079
▁fortnight	-12.2079
▁1925	-12.2079
▁shawn	-12.2079
▁lengthened	-12.2079
▁steak	-12.2079
▁courageous	-12.2079
▁argue	-12.2079
▁grub	-12.2079
▁fraud	-12.208
▁sync	-12.208
▁shaky	-12.208
▁prolong	-12.208
▁preach	-12.208
ogne	-12.208
▁scold	-12.208
▁clapping	-12.208
▁oars	-12.208
▁woah	-12.208
▁batteries	-12.208
▁rebuild	-12.208
▁kidney	-12.208
——”	-12.2081
▁prick	-12.2081
▁farmhouse	-12.2081
▁glee	-12.2082
▁percentage	-12.2082
▁mehme	-12.2082
▁xbox	-12.2082
▁spade	-12.2082
▁cheated	-12.2082
▁copies	-12.2082
▁mortal	-12.2082
▁exhibition	-12.2082
▁10%	-12.2082
▁1911	-12.2082
▁approximately	-12.2082
▁cuddle	-12.2083
▁venus	-12.2083
▁magician	-12.2084
▁50,000	-12.2084
▁barbie	-12.2084
▁promptly	-12.2084
▁muck	-12.2084
▁hostage	-12.2085
▁garland	-12.2085
▁flint	-12.2086
▁induct	-12.2086
▁pouch	-12.2086
▁yank	-12.2086
produce	-12.2087
▁harsh	-12.2087
dication	-12.2087
gnac	-12.2087
▁hideous	-12.2087
▁plugg	-12.2088
▁wright	-12.2088
▁imperi	-12.2088
north	-12.2088
▁exert	-12.2088
▁mainland	-12.2088
▁detector	-12.2088
4%	-12.2089
▁markham	-12.209
▁jamie	-12.209
▁kira	-12.209
▁hitler	-12.2091
▁joyce	-12.2091
▁koda	-12.2092
▁greenhouse	-12.2092
▁pail	-12.2092
▁oath	-12.2093
▁manual	-12.2093
▁282	-12.2093
▁hoist	-12.2094
▁princeton	-12.2094
▁saul	-12.2094
▁musk	-12.2095
▁publicity	-12.2096
▁kwww	-12.2097
enburg	-12.2097
▁laser	-12.2097
▁drape	-12.2098
▁turk	-12.2099
▁lola	-12.2101
—”	-12.2102
clap	-12.2103
▁giles	-12.2103
▁lone	-12.2104
deep	-12.2104
▁luis	-12.2107
▁factori	-12.2108
▁trini	-12.2111
▁pix	-12.2112
topeka	-12.2112
okine	-12.2112
▁lenn	-12.2113
▁litera	-12.2114
▁scent	-12.2118
onym	-12.2127
▁[56	-12.2129
▁shun	-12.2132
▁brace	-12.2135
danda	-12.2136
came	-12.2142
▁mournful	-12.2147
39]	-12.2148
▁compli	-12.215
armed	-12.2151
rrr	-12.2151
▁update	-12.2177
▁jerk	-12.221
▁accidental	-12.2214
llaby	-12.2251
▁rash	-12.2259
▁hoop	-12.2264
onnell	-12.227
▁arise	-12.227
▁rotat	-12.2282
▁211	-12.2306
▁heave	-12.2311
hô	-12.2329
quate	-12.2363
bidding	-12.2373
▁dodge	-12.2406
||3	-12.2415
▁flipp	-12.2458
opus	-12.2505
▁adore	-12.2547
▁ayl	-12.2552
▁logic	-12.2623
▁rust	-12.2651
▁periodic	-12.2668
▁pyr	-12.2678
operative	-12.2706
russian	-12.2731
600	-12.2768
ivy	-12.2772
27.	-12.2813
▁arabia	-12.2885
▁authoriz	-12.294
jak	-12.2974
▁lov	-12.3
▁[13	-12.3006
merged	-12.3009
▁stripp	-12.3023
spoonful	-12.3041
fighter	-12.3084
▁struggl	-12.3157
▁gig	-12.3183
paid	-12.3205
▁honourabl	-12.321
▁salle	-12.3277
earn	-12.3306
▁lynn	-12.3452
shake	-12.346
▁element	-12.3461
comb	-12.3461
▁circumstance	-12.3465
tipped	-12.3512
winning	-12.3518
ivity	-12.3541
volving	-12.3556
▁specializ	-12.3568
scoffs	-12.357
1000	-12.3581
tickle	-12.3601
▁acquir	-12.3603
communes	-12.3628
▁publish	-12.3643
▁mourn	-12.366
▁drown	-12.3676
▁accord	-12.3696
xxx	-12.3709
▁accomplish	-12.3709
present	-12.3712
humming	-12.3713
songwriter	-12.3714
▁excite	-12.3714
▁conclude	-12.3714
screen	-12.3714
arthur	-12.3715
click	-12.3715
basket	-12.3715
correct	-12.3715
crack	-12.3715
bridge	-12.3715
japanese	-12.3715
shouting	-12.3715
founded	-12.3715
january	-12.3715
picture	-12.3715
sixth	-12.3715
thomas	-12.3715
▁approve	-12.3715
record	-12.3715
family	-12.3715
built	-12.3715
▁cease	-12.3715
above	-12.3715
blue	-12.3715
those	-12.3716
indeed	-12.3716
indian	-12.3716
captain	-12.3716
spread	-12.3716
hunt	-12.3717
david	-12.3717
storm	-12.3717
arrange	-12.3718
bobby	-12.3718
proof	-12.3719
country	-12.3719
sorry	-12.3719
orient	-12.3719
virus	-12.3721
since	-12.3722
paper	-12.3723
text	-12.3724
leave	-12.3724
▁guilt	-12.3729
▁incredibl	-12.3729
clean	-12.3731
▁absolute	-12.3731
▁malay	-12.3734
▁vocalis	-12.3737
▁inspect	-12.3737
uspicious	-12.3738
▁extinct	-12.3738
▁extensi	-12.3739
▁audit	-12.3741
▁confid	-12.3741
▁cunning	-12.3742
▁advent	-12.3742
▁bumble	-12.3742
ś	-12.3742
′	-12.3742
▁energetic	-12.3742
▁superstition	-12.3742
abigail	-12.3742
frigerator	-12.3742
ž	-12.3742
ș	-12.3742
▁1909	-12.3742
▁1943	-12.3742
▁1952	-12.3742
▁absurd	-12.3742
▁activate	-12.3742
▁adelaide	-12.3742
▁afghanistan	-12.3742
▁afloat	-12.3742
▁aggressive	-12.3742
▁albany	-12.3742
▁amazement	-12.3742
▁analyst	-12.3742
▁announcement	-12.3742
▁archbishop	-12.3742
▁arquette	-12.3742
▁arsacid	-12.3742
▁astonished	-12.3742
▁asylum	-12.3742
▁auvergne	-12.3742
▁bangladesh	-12.3742
▁bankrupt	-12.3742
▁barcelona	-12.3742
▁battalion	-12.3742
▁blackpool	-12.3742
▁captivity	-12.3742
▁categori	-12.3742
▁cavendish	-12.3742
▁cheetah	-12.3742
▁choreograph	-12.3742
▁colombia	-12.3742
▁columbus	-12.3742
▁competitor	-12.3742
▁compromise	-12.3742
▁conspiracy	-12.3742
▁cornelia	-12.3742
▁cradle	-12.3742
▁crimson	-12.3742
▁crucial	-12.3742
▁cylinder	-12.3742
▁czechoslovakia	-12.3742
▁decimal	-12.3742
▁definition	-12.3742
▁depressed	-12.3742
▁diagram	-12.3742
▁dimitra	-12.3742
▁electromagnetic	-12.3742
▁elliot	-12.3742
▁employer	-12.3742
▁endangered	-12.3742
▁escort	-12.3742
▁exquisite	-12.3742
▁faculty	-12.3742
▁fascinating	-12.3742
▁fekmah	-12.3742
▁flickering	-12.3742
▁foliage	-12.3742
▁fragments	-12.3742
▁fragrant	-12.3742
▁françois	-12.3742
▁fundamental	-12.3742
▁galaxies	-12.3742
▁gendarme	-12.3742
▁guidance	-12.3742
▁handwriting	-12.3742
▁hannibal	-12.3742
▁happier	-12.3742
▁hippopotamus	-12.3742
▁hollister	-12.3742
▁immune	-12.3742
▁indignant	-12.3742
▁indignation	-12.3742
▁indistinct	-12.3742
▁infinite	-12.3742
▁intrusion	-12.3742
▁istanbul	-12.3742
▁jaguar	-12.3742
▁jefferson	-12.3742
▁junction	-12.3742
▁katherine	-12.3742
▁kathleen	-12.3742
▁kathryn	-12.3742
▁kellogg	-12.3742
▁kurdistan	-12.3742
▁leipzig	-12.3742
▁locomotive	-12.3742
▁lydia	-12.3742
▁mackinder	-12.3742
▁mademoiselle	-12.3742
▁manufactured	-12.3742
▁manufacturer	-12.3742
▁microscopic	-12.3742
▁microwave	-12.3742
▁migration	-12.3742
▁mischief	-12.3742
▁mitchell	-12.3742
▁morocco	-12.3742
▁mortgage	-12.3742
▁notwithstanding	-12.3742
▁obscure	-12.3742
▁opposing	-12.3742
▁overwhelming	-12.3742
▁paradox	-12.3742
▁persuasi	-12.3742
▁philosopher	-12.3742
▁portuguese	-12.3742
▁poverty	-12.3742
▁pradesh	-12.3742
▁precaution	-12.3742
▁precisely	-12.3742
▁presidency	-12.3742
▁pretzel	-12.3742
▁privacy	-12.3742
▁provincial	-12.3742
▁qatar	-12.3742
▁qualities	-12.3742
▁rainforest	-12.3742
▁rebecca	-12.3742
▁recollect	-12.3742
▁santiago	-12.3742
▁sebastian	-12.3742
▁shakespeare	-12.3742
▁shanghai	-12.3742
▁shrank	-12.3742
▁slender	-12.3742
▁solitary	-12.3742
▁stradivari	-12.3742
▁supposing	-12.3742
▁surviving	-12.3742
▁tortoise	-12.3742
▁transplant	-12.3742
▁trembled	-12.3742
▁tribunal	-12.3742
▁universities	-12.3742
▁virtue	-12.3742
▁volcanic	-12.3742
▁winchester	-12.3742
▁ùìåù	-12.3742
▁ùúééí	-12.3742
♫	-12.3742
▁1860	-12.3742
▁1861	-12.3742
▁absorb	-12.3742
▁albania	-12.3742
▁annoying	-12.3742
▁arrayed	-12.3742
▁dawson	-12.3742
▁despise	-12.3742
▁dessert	-12.3742
▁duplo	-12.3742
▁dwarf	-12.3742
▁exceeding	-12.3742
▁falcon	-12.3742
▁gasoline	-12.3742
▁hammock	-12.3742
▁hustle	-12.3742
▁lyrics	-12.3742
▁massacre	-12.3742
▁nicola	-12.3742
▁penalty	-12.3742
▁pittsburgh	-12.3742
▁ravine	-12.3742
▁respectively	-12.3742
▁samuel	-12.3742
▁sergei	-12.3742
▁shirley	-12.3742
▁spectator	-12.3742
▁surveillance	-12.3742
▁syrup	-12.3742
▁terrier	-12.3742
▁trophy	-12.3742
▁vodka	-12.3742
awiya	-12.3742
▁centimet	-12.3742
▁clinton	-12.3742
▁fletcher	-12.3742
▁fritz	-12.3742
▁furthest	-12.3742
▁harriet	-12.3742
▁humiliat	-12.3742
▁liquid	-12.3742
▁millionaire	-12.3742
▁ounce	-12.3742
▁outburst	-12.3742
▁pamela	-12.3742
▁pavement	-12.3742
▁playwright	-12.3742
▁slippery	-12.3742
▁sprite	-12.3742
▁summary	-12.3742
▁theodore	-12.3742
▁vinny	-12.3742
▁wolver	-12.3742
▁anguish	-12.3742
▁electrons	-12.3742
▁groaned	-12.3742
▁instructor	-12.3742
▁jeremy	-12.3742
▁ontario	-12.3742
▁shawl	-12.3742
▁stool	-12.3742
▁tribute	-12.3742
▁underwear	-12.3742
||7	-12.3742
▁abolish	-12.3742
▁alpha	-12.3742
▁blazing	-12.3742
▁clarissa	-12.3742
▁furnish	-12.3742
▁pliers	-12.3742
▁rumour	-12.3742
▁vowel	-12.3742
▁bennett	-12.3742
▁injuries	-12.3742
▁noodle	-12.3742
▁thrash	-12.3742
▁enlist	-12.3742
▁jeep	-12.3742
▁lattice	-12.3742
▁mersey	-12.3742
▁skull	-12.3742
▁divine	-12.3742
▁guild	-12.3742
▁horizontal	-12.3742
▁puddle	-12.3742
▁colony	-12.3742
▁exploit	-12.3742
▁knob	-12.3742
▁lodging	-12.3742
▁squirm	-12.3742
▁unesco	-12.3742
▁worshipped	-12.3742
▁aquatic	-12.3742
▁exclud	-12.3742
▁franchise	-12.3742
▁scorch	-12.3742
côte	-12.3743
▁indigen	-12.3743
▁isolated	-12.3743
▁rubbing	-12.3743
▁criteri	-12.3743
▁eliot	-12.3743
▁orchard	-12.3743
▁squirt	-12.3743
▁aeroplane	-12.3743
▁funnel	-12.3743
▁mizu	-12.3743
▁clench	-12.3743
▁rectus	-12.3743
thorpe	-12.3743
▁jasper	-12.3743
▁invested	-12.3743
▁autonom	-12.3743
▁bosnia	-12.3743
▁vlad	-12.3743
▁watson	-12.3743
▁relay	-12.3743
▁therapist	-12.3743
▁shudder	-12.3743
▁circula	-12.3743
▁diane	-12.3743
▁fireworks	-12.3743
▁melbourne	-12.3743
▁indulge	-12.3743
▁vegas	-12.3743
▁bulkhead	-12.3743
▁stubborn	-12.3743
▁twitch	-12.3743
▁lottery	-12.3743
▁nikola	-12.3743
▁tornado	-12.3743
▁toronto	-12.3743
▁stony	-12.3743
▁pruden	-12.3743
▁slumber	-12.3743
▁daycare	-12.3743
assemble	-12.3743
▁gaunt	-12.3743
▁sneer	-12.3743
▁federation	-12.3743
izzle	-12.3743
▁tragic	-12.3743
▁salami	-12.3743
▁inherit	-12.3743
▁traits	-12.3743
▁carving	-12.3743
▁gratitude	-12.3743
▁grill	-12.3743
▁edgar	-12.3743
▁wallpaper	-12.3743
fensive	-12.3743
▁bouncy	-12.3743
▁algeria	-12.3743
▁tutor	-12.3743
▁boeing	-12.3743
▁trump	-12.3743
▁santos	-12.3743
▁biologist	-12.3743
▁elementary	-12.3743
▁error	-12.3743
▁squadron	-12.3743
▁bracelet	-12.3743
▁doodle	-12.3743
▁gilbert	-12.3743
▁kathy	-12.3743
▁tokyo	-12.3744
▁hammond	-12.3744
▁shelf	-12.3744
/040	-12.3744
▁captor	-12.3744
▁infected	-12.3744
wulf	-12.3744
▁linux	-12.3744
▁vicious	-12.3744
▁turkish	-12.3744
▁lizard	-12.3744
esteem	-12.3744
▁notebook	-12.3744
▁infantry	-12.3744
▁74.	-12.3744
chants	-12.3744
▁sideways	-12.3744
▁parlor	-12.3744
▁darwin	-12.3744
▁berries	-12.3744
▁rodney	-12.3744
▁compell	-12.3744
▁stirring	-12.3744
▁catalan	-12.3744
▁trough	-12.3744
▁regime	-12.3744
▁renaissance	-12.3744
▁narrator	-12.3744
▁whiskey	-12.3744
▁grouch	-12.3744
▁nikki	-12.3745
▁copyright	-12.3745
▁zipper	-12.3745
▁stirred	-12.3745
▁batala	-12.3745
▁salmon	-12.3745
▁infest	-12.3745
▁champ	-12.3745
▁pleading	-12.3745
▁russes	-12.3745
▁cheating	-12.3745
▁anime	-12.3745
▁1938	-12.3745
▁ernest	-12.3745
▁negro	-12.3746
▁annabel	-12.3746
▁hayden	-12.3746
▁georgie	-12.3746
▁hippo	-12.3746
▁vanilla	-12.3746
▁attendance	-12.3746
▁tiptoe	-12.3746
▁torment	-12.3746
▁trend	-12.3746
▁organisation	-12.3746
▁starfish	-12.3746
▁hemings	-12.3747
steroid	-12.3747
▁swimmer	-12.3747
▁broadway	-12.3747
▁oooo	-12.3747
▁bozo	-12.3747
▁haiti	-12.3747
▁madrid	-12.3747
▁seesaw	-12.3747
▁finland	-12.3747
▁2024	-12.3747
▁germs	-12.3748
▁ladybird	-12.3748
▁pbs	-12.3748
▁tanya	-12.3748
▁luckily	-12.3748
▁destination	-12.3748
▁hamlet	-12.3748
▁fifi	-12.3748
▁sindh	-12.3749
▁bulg	-12.3749
▁pingu	-12.3749
▁1910	-12.3749
▁fiber	-12.3749
▁steward	-12.3749
▁nimbl	-12.3749
▁measurement	-12.3749
▁walsh	-12.375
▁xii	-12.375
llusion	-12.375
▁cheque	-12.3751
▁chaos	-12.3751
▁quiz	-12.3751
▁cement	-12.3751
▁shrine	-12.3751
▁telegraph	-12.3752
▁alida	-12.3752
▁modest	-12.3752
▁linger	-12.3753
▁nazi	-12.3753
▁rico	-12.3754
▁varies	-12.3755
▁clack	-12.3755
▁youtube	-12.3756
clined	-12.3756
▁terrorist	-12.3757
▁contribution	-12.3757
▁weenie	-12.3758
▁mallor	-12.3759
tuary	-12.3759
nbc	-12.376
▁convey	-12.3762
▁yoke	-12.3768
▁radish	-12.3775
flakes	-12.3776
▁marquis	-12.3777
hardware	-12.378
▁henri	-12.379
martial	-12.3792
▁extract	-12.3806
▁francois	-12.3833
▁dominan	-12.3833
extraterrestrial	-12.3837
▁whimper	-12.3857
yeong	-12.3869
ndez	-12.3892
▁yawn	-12.3894
inviting	-12.3894
▁scoff	-12.3921
▁commenc	-12.3922
▁fringe	-12.3943
ippo	-12.3943
▁fami	-12.397
▁jewel	-12.4041
flick	-12.4082
1.6	-12.4137
▁solve	-12.4234
▁pimp	-12.4234
ectar	-12.4256
rudder	-12.426
▁giggle	-12.4263
favorable	-12.4274
▁(196	-12.4288
▁hyun	-12.4288
▁(197	-12.4321
hencefor	-12.4328
chuckling	-12.4342
▁inspire	-12.4364
lulu	-12.4431
designate	-12.453
▁originat	-12.4583
kawa	-12.4613
sigh	-12.4679
▁presum	-12.4772
numer	-12.4796
lator	-12.4856
divisi	-12.4888
▁tibet	-12.4925
lived	-12.5016
▁slovak	-12.5075
imagin	-12.5141
223	-12.5183
ibn	-12.5307
graphics	-12.5342
capita	-12.536
▁clinic	-12.5371
whisper	-12.5382
▁headquarter	-12.5465
wyn	-12.5479
sniffs	-12.5509
yawns	-12.5568
ivor	-12.5631
interviews	-12.5634
doubted	-12.5645
▁chronic	-12.5682
ggling	-12.5697
▁sweep	-12.5708
▁acknowledg	-12.5709
temporary	-12.5714
appropriate	-12.5714
script	-12.5714
▁discharge	-12.5714
pitched	-12.5714
screaming	-12.5714
▁divorce	-12.5714
product	-12.5714
fleet	-12.5715
chemical	-12.5715
complete	-12.5715
crowd	-12.5715
examine	-12.5715
crime	-12.5715
absolutely	-12.5715
pleasant	-12.5715
length	-12.5715
original	-12.5715
control	-12.5715
respect	-12.5715
september	-12.5715
⌈	-12.5715
december	-12.5715
directed	-12.5715
august	-12.5715
thirty	-12.5715
amount	-12.5715
minute	-12.5715
probably	-12.5715
general	-12.5715
secret	-12.5715
should	-12.5715
drama	-12.5715
sharp	-12.5716
national	-12.5716
shift	-12.5717
another	-12.5717
normal	-12.5718
[48	-12.5724
▁responsibilit	-12.5729
▁thorough	-12.573
▁prompt	-12.5731
▁numb	-12.5732
finger	-12.5737
▁influen	-12.574
▁municipal	-12.5741
▁infant	-12.5742
lodg	-12.5742
ecutive	-12.5742
▁congratulat	-12.5742
▁------------	-12.5742
simultaneous	-12.5742
ì	-12.5742
î	-12.5742
ï	-12.5742
▁horrified	-12.5742
▁krispie	-12.5742
▁psychologi	-12.5742
▁seizure	-12.5742
▁trenches	-12.5742
▁yugoslav	-12.5742
ediatric	-12.5742
kikuyu	-12.5742
misunderstanding	-12.5742
neapolis	-12.5742
×	-12.5742
▁affirmative	-12.5742
▁alaeddin	-12.5742
▁alfgar	-12.5742
▁allergic	-12.5742
▁annihilat	-12.5742
▁antarctica	-12.5742
▁anticipation	-12.5742
▁apostle	-12.5742
▁aquarium	-12.5742
▁authentic	-12.5742
▁ayodhya	-12.5742
▁bachelor	-12.5742
▁baltimore	-12.5742
▁baobab	-12.5742
▁barracks	-12.5742
▁benedict	-12.5742
▁bhagava	-12.5742
▁biochemist	-12.5742
▁blackhawks	-12.5742
▁brigantine	-12.5742
▁brussels	-12.5742
▁bundesliga	-12.5742
▁cafeteria	-12.5742
▁carpenter	-12.5742
▁cartridge	-12.5742
▁celebrating	-12.5742
▁chipperton	-12.5742
▁cinderella	-12.5742
▁circumference	-12.5742
▁clarence	-12.5742
▁coconut	-12.5742
▁commonwealth	-12.5742
▁compartment	-12.5742
▁conceived	-12.5742
▁concentration	-12.5742
▁concrete	-12.5742
▁confederate	-12.5742
▁confederation	-12.5742
▁constantinople	-12.5742
▁constellation	-12.5742
▁contrary	-12.5742
▁controversial	-12.5742
▁convincing	-12.5742
▁corporate	-12.5742
▁craven	-12.5742
▁cucumber	-12.5742
▁daffodil	-12.5742
▁demonstration	-12.5742
▁deploy	-12.5742
▁diligent	-12.5742
▁dramatically	-12.5742
▁elijah	-12.5742
▁emmanuel	-12.5742
▁emphasize	-12.5742
▁enclose	-12.5742
▁encouraging	-12.5742
▁enthusiasm	-12.5742
▁escobar	-12.5742
▁excellence	-12.5742
▁expansion	-12.5742
▁flannel	-12.5742
▁fossil	-12.5742
▁fugitive	-12.5742
▁gervaise	-12.5742
▁giovanni	-12.5742
▁groceries	-12.5742
▁grumbled	-12.5742
▁grumpy	-12.5742
▁grunted	-12.5742
▁hampshire	-12.5742
▁hawthorn	-12.5742
▁hedgehog	-12.5742
▁homicide	-12.5742
▁housewife	-12.5742
▁immortal	-12.5742
▁inferior	-12.5742
▁initiative	-12.5742
▁innocence	-12.5742
▁intellectual	-12.5742
▁jenkins	-12.5742
▁jennifer	-12.5742
▁kambira	-12.5742
▁katharine	-12.5742
▁kawasaki	-12.5742
▁ketchup	-12.5742
▁kidnapped	-12.5742
▁knitting	-12.5742
▁lafayette	-12.5742
▁lgbt	-12.5742
▁lisbeth	-12.5742
▁lloyd	-12.5742
▁lorraine	-12.5742
▁lucinda	-12.5742
▁marjorie	-12.5742
▁mcgregor	-12.5742
▁miguel	-12.5742
▁militia	-12.5742
▁miniature	-12.5742
▁mischievous	-12.5742
▁moccasins	-12.5742
▁monastery	-12.5742
▁mongolia	-12.5742
▁morrison	-12.5742
▁motorbike	-12.5742
▁nicholas	-12.5742
▁obliging	-12.5742
▁outstretched	-12.5742
▁pathogen	-12.5742
▁pebbles	-12.5742
▁perfume	-12.5742
▁phosgene	-12.5742
▁pinocchio	-12.5742
▁platinum	-12.5742
▁populated	-12.5742
▁preceding	-12.5742
▁prescription	-12.5742
▁prevailed	-12.5742
▁pygmies	-12.5742
▁recipient	-12.5742
▁reconcile	-12.5742
▁regulations	-12.5742
▁relevant	-12.5742
▁reluctantly	-12.5742
▁remnant	-12.5742
▁routine	-12.5742
▁rudolph	-12.5742
▁russell	-12.5742
▁samantha	-12.5742
▁sassoon	-12.5742
▁scallop	-12.5742
▁schnapps	-12.5742
▁snuggle	-12.5742
▁staircase	-12.5742
▁subsequent	-12.5742
▁substance	-12.5742
▁substantial	-12.5742
▁superintendent	-12.5742
▁supermarket	-12.5742
▁theoretical	-12.5742
▁tragedy	-12.5742
▁tranquil	-12.5742
▁treason	-12.5742
▁tressidar	-12.5742
▁turmoil	-12.5742
▁twentie	-12.5742
▁unanimous	-12.5742
▁utensils	-12.5742
▁vitamin	-12.5742
▁vocabulary	-12.5742
▁vulgar	-12.5742
▁1907	-12.5742
▁aristocrat	-12.5742
▁ascertain	-12.5742
▁carnival	-12.5742
▁chivalry	-12.5742
▁cluck	-12.5742
▁cocaine	-12.5742
▁commemorat	-12.5742
▁commentator	-12.5742
▁conservation	-12.5742
▁contradict	-12.5742
▁countenance	-12.5742
▁cultivat	-12.5742
▁delegate	-12.5742
▁despatch	-12.5742
▁fatigue	-12.5742
▁fraction	-12.5742
▁gustav	-12.5742
▁hawaii	-12.5742
▁intimate	-12.5742
▁kimberly	-12.5742
▁kirby	-12.5742
▁lawsuit	-12.5742
▁manipulat	-12.5742
▁multiply	-12.5742
▁olympia	-12.5742
▁pippin	-12.5742
▁precipit	-12.5742
▁reggie	-12.5742
▁removal	-12.5742
▁shampoo	-12.5742
▁situated	-12.5742
▁sleek	-12.5742
▁thailand	-12.5742
▁triumphantly	-12.5742
▁vacuum	-12.5742
orpheus	-12.5742
ş	-12.5742
▁angrily	-12.5742
▁astronom	-12.5742
▁baxter	-12.5742
▁cyril	-12.5742
▁doorstep	-12.5742
▁enchant	-12.5742
▁encircl	-12.5742
▁huddle	-12.5742
▁lagoon	-12.5742
▁llama	-12.5742
▁regulator	-12.5742
▁sinister	-12.5742
▁telegram	-12.5742
▁unfair	-12.5742
▁verdict	-12.5742
______________	-12.5742
spirator	-12.5742
▁ballerina	-12.5742
▁comfy	-12.5742
▁hazard	-12.5742
▁hpv	-12.5742
▁kendall	-12.5742
▁kenyon	-12.5742
▁kyung	-12.5742
▁miffy	-12.5742
▁monitor	-12.5742
▁rahul	-12.5742
▁repaint	-12.5742
▁smuggl	-12.5742
▁whatsoever	-12.5742
pokémon	-12.5742
▁recreation	-12.5742
▁wharf	-12.5742
ı	-12.5742
▁hesitation	-12.5742
▁inscription	-12.5742
▁maureen	-12.5742
▁mythology	-12.5742
▁tattoo	-12.5742
▁corinth	-12.5742
▁firewire	-12.5742
▁hilda	-12.5742
▁investor	-12.5742
▁yadav	-12.5742
empress	-12.5742
▁agatha	-12.5742
▁devour	-12.5742
▁fumble	-12.5742
▁gleam	-12.5742
▁hercules	-12.5742
▁intimac	-12.5742
▁keith	-12.5742
▁rupert	-12.5742
▁abraham	-12.5742
▁animation	-12.5742
▁freud	-12.5742
▁mutual	-12.5742
▁nottingham	-12.5742
▁regulate	-12.5742
▁bruises	-12.5743
▁ransom	-12.5743
▁uttar	-12.5743
/22370	-12.5743
▁crib	-12.5743
▁slick	-12.5743
▁spicy	-12.5743
▁gulp	-12.5743
▁bumblebee	-12.5743
▁crosby	-12.5743
▁rehab	-12.5743
▁vexed	-12.5743
▁google	-12.5743
▁pompe	-12.5743
▁rascal	-12.5743
▁flynn	-12.5743
▁folly	-12.5743
▁innovat	-12.5743
▁instructed	-12.5743
▁mustache	-12.5743
▁retrieve	-12.5743
▁sterling	-12.5743
▁courtesy	-12.5743
▁mooshas	-12.5743
▁tapping	-12.5743
▁berwick	-12.5743
▁commotion	-12.5743
▁estonia	-12.5743
▁filth	-12.5743
▁freezing	-12.5743
▁murree	-12.5743
▁tusks	-12.5743
▁gwen	-12.5743
▁barnsley	-12.5743
▁minerals	-12.5743
▁ramsey	-12.5743
▁vomit	-12.5743
▁mollie	-12.5743
▁starving	-12.5743
▁thunderstorm	-12.5743
▁harvey	-12.5743
▁merciful	-12.5743
▁wellesley	-12.5743
▁grownups	-12.5743
▁decoy	-12.5743
▁swedes	-12.5743
-27	-12.5743
atjara	-12.5743
▁yarn	-12.5743
||11	-12.5743
▁crater	-12.5743
▁venom	-12.5743
▁weeping	-12.5743
tabasco	-12.5743
▁tackle	-12.5743
▁detour	-12.5743
▁homesick	-12.5743
▁lassie	-12.5743
▁vineyard	-12.5743
▁renown	-12.5743
▁utah	-12.5743
▁scoob	-12.5743
muffled	-12.5743
▁meteor	-12.5743
▁shuffl	-12.5743
▁aileen	-12.5743
▁tantal	-12.5743
▁inject	-12.5743
▁damsel	-12.5743
▁civilization	-12.5743
▁merger	-12.5743
▁fasci	-12.5743
▁improving	-12.5743
▁citizenship	-12.5743
▁dispers	-12.5743
▁circulation	-12.5743
▁thyself	-12.5743
▁intersection	-12.5743
▁varied	-12.5743
▁poult	-12.5743
▁sofia	-12.5743
▁substitute	-12.5743
▁boundaries	-12.5743
▁neighbourhood	-12.5743
▁shuttle	-12.5744
▁ronnie	-12.5744
▁beverly	-12.5744
▁urgh	-12.5744
▁mtv	-12.5744
▁biological	-12.5744
▁jockey	-12.5744
▁vista	-12.5744
▁longships	-12.5744
▁discord	-12.5744
▁perugi	-12.5744
▁stunt	-12.5744
▁muttering	-12.5744
▁saucepan	-12.5744
▁bailey	-12.5744
▁priss	-12.5744
▁flank	-12.5744
▁brooklyn	-12.5744
▁jeong	-12.5744
▁relics	-12.5744
▁bonnie	-12.5744
▁odin	-12.5744
▁proportion	-12.5744
▁flitt	-12.5744
▁vibrat	-12.5744
▁reassur	-12.5744
▁amends	-12.5745
▁hiroshi	-12.5745
▁utc	-12.5745
lès	-12.5746
pseud	-12.5746
▁miami	-12.5746
ediment	-12.5747
▁assert	-12.5749
plications	-12.5749
▁bulk	-12.5749
gunshot	-12.5749
▁debate	-12.575
▁blend	-12.575
infrared	-12.5751
▁skel	-12.5754
▁saturat	-12.5754
▁husk	-12.5758
discards	-12.5758
▁quadr	-12.5759
leading	-12.5759
▁delete	-12.5769
odious	-12.5772
▁pont	-12.5783
giggling	-12.5788
▁dusk	-12.5813
shanti	-12.5814
1.1	-12.5836
▁domini	-12.584
▁participant	-12.5901
alvado	-12.5902
▁relativ	-12.591
ustac	-12.5942
▁utili	-12.5958
rotting	-12.599
harmon	-12.6011
vasive	-12.6012
▁clappe	-12.6029
humph	-12.6093
▁travers	-12.6123
1942)	-12.6162
sprung	-12.6225
fluori	-12.6344
▁comfortabl	-12.673
remove	-12.674
▁latch	-12.6787
walz	-12.6881
forcing	-12.6942
▁believ	-12.6967
▁hype	-12.7101
▁judg	-12.7139
4||	-12.7186
ippe	-12.7206
450	-12.7324
gator	-12.7376
||5	-12.7429
▁structur	-12.7448
colored	-12.7503
||1||	-12.7594
smelling	-12.7758
ô	-12.779
challenging	-12.79
imitation	-12.794
▁mcdonald	-12.7962
waterloo	-12.7981
▁submissi	-12.8003
156	-12.8009
72)	-12.8033
whimpers	-12.8065
terrestrial	-12.8097
crimina	-12.8099
▁releas	-12.8164
▁decid	-12.8172
squeaks	-12.8193
▁impress	-12.8202
‘	-12.8203
▁conceal	-12.8209
edinburgh	-12.8213
grunting	-12.8213
incorporate	-12.8213
sneeze	-12.8213
coloured	-12.8214
climbing	-12.8214
poison	-12.8214
▁educate	-12.8214
function	-12.8214
▁hesitate	-12.8214
ê	-12.8242
ë	-12.8242
œ	-12.8242
ù	-12.8242
⁎	-12.8242
ī	-13.1576
ð	-13.1576
∙	-13.1576
∞	-13.1576
✿	-13.1576
£	-13.6547
\	-13.6576
ń	-13.6576
‐	-13.6576
	-13.6576
ě	-13.6576
ņ	-13.6576
ố	-13.6576
ồ	-13.6576
^	-13.6576
▔	-13.6576
ą	-14.6559
ă	-14.656
¡	-14.6561
	-14.6562
	-14.6563
đ	-14.6564
§	-14.6565
•	-14.6566
ř	-14.6567
⁄	-14.6568
ã	-14.6569
་	-14.6569
́	-14.657
―	-14.6571
ñ	-14.6572
ć	-14.6573
¶	-14.6574
⌊	-14.6575
ṣ	-14.6576
<	-14.6576
ả	-14.6576
>	-14.6576
©	-14.6576
·	-14.6576
ý	-14.6576
þ	-14.6576
ġ	-14.6576
ĭ	-14.6576
İ	-14.6576
ő	-14.6576
ũ	-14.6576
ź	-14.6576
ż	-14.6576
ư	-14.6576
ǎ	-14.6576
ǫ	-14.6576
ɑ	-14.6576
ɪ	-14.6576
ʃ	-14.6576
ʊ	-14.6576
ʾ	-14.6576
ː	-14.6576
̶	-14.6576
η	-14.6576
ν	-14.6576
й	-14.6576
ј	-14.6576
॥	-14.6576
ṉ	-14.6576
ṛ	-14.6576
ṭ	-14.6576
ṯ	-14.6576
ắ	-14.6576
ề	-14.6576
ệ	-14.6576
ọ	-14.6576
ớ	-14.6576
ờ	-14.6576
‡	-14.6576
‰	-14.6576
€	-14.6576
ĕ	-14.6576
$	-14.6576
	-14.6576
