<unk>	0
<s>	0
</s>	0
<pad>	0
<0x00>	0
<0x01>	0
<0x02>	0
<0x03>	0
<0x04>	0
<0x05>	0
<0x06>	0
<0x07>	0
<0x08>	0
<0x09>	0
<0x0A>	0
<0x0B>	0
<0x0C>	0
<0x0D>	0
<0x0E>	0
<0x0F>	0
<0x10>	0
<0x11>	0
<0x12>	0
<0x13>	0
<0x14>	0
<0x15>	0
<0x16>	0
<0x17>	0
<0x18>	0
<0x19>	0
<0x1A>	0
<0x1B>	0
<0x1C>	0
<0x1D>	0
<0x1E>	0
<0x1F>	0
<0x20>	0
<0x21>	0
<0x22>	0
<0x23>	0
<0x24>	0
<0x25>	0
<0x26>	0
<0x27>	0
<0x28>	0
<0x29>	0
<0x2A>	0
<0x2B>	0
<0x2C>	0
<0x2D>	0
<0x2E>	0
<0x2F>	0
<0x30>	0
<0x31>	0
<0x32>	0
<0x33>	0
<0x34>	0
<0x35>	0
<0x36>	0
<0x37>	0
<0x38>	0
<0x39>	0
<0x3A>	0
<0x3B>	0
<0x3C>	0
<0x3D>	0
<0x3E>	0
<0x3F>	0
<0x40>	0
<0x41>	0
<0x42>	0
<0x43>	0
<0x44>	0
<0x45>	0
<0x46>	0
<0x47>	0
<0x48>	0
<0x49>	0
<0x4A>	0
<0x4B>	0
<0x4C>	0
<0x4D>	0
<0x4E>	0
<0x4F>	0
<0x50>	0
<0x51>	0
<0x52>	0
<0x53>	0
<0x54>	0
<0x55>	0
<0x56>	0
<0x57>	0
<0x58>	0
<0x59>	0
<0x5A>	0
<0x5B>	0
<0x5C>	0
<0x5D>	0
<0x5E>	0
<0x5F>	0
<0x60>	0
<0x61>	0
<0x62>	0
<0x63>	0
<0x64>	0
<0x65>	0
<0x66>	0
<0x67>	0
<0x68>	0
<0x69>	0
<0x6A>	0
<0x6B>	0
<0x6C>	0
<0x6D>	0
<0x6E>	0
<0x6F>	0
<0x70>	0
<0x71>	0
<0x72>	0
<0x73>	0
<0x74>	0
<0x75>	0
<0x76>	0
<0x77>	0
<0x78>	0
<0x79>	0
<0x7A>	0
<0x7B>	0
<0x7C>	0
<0x7D>	0
<0x7E>	0
<0x7F>	0
<0x80>	0
<0x81>	0
<0x82>	0
<0x83>	0
<0x84>	0
<0x85>	0
<0x86>	0
<0x87>	0
<0x88>	0
<0x89>	0
<0x8A>	0
<0x8B>	0
<0x8C>	0
<0x8D>	0
<0x8E>	0
<0x8F>	0
<0x90>	0
<0x91>	0
<0x92>	0
<0x93>	0
<0x94>	0
<0x95>	0
<0x96>	0
<0x97>	0
<0x98>	0
<0x99>	0
<0x9A>	0
<0x9B>	0
<0x9C>	0
<0x9D>	0
<0x9E>	0
<0x9F>	0
<0xA0>	0
<0xA1>	0
<0xA2>	0
<0xA3>	0
<0xA4>	0
<0xA5>	0
<0xA6>	0
<0xA7>	0
<0xA8>	0
<0xA9>	0
<0xAA>	0
<0xAB>	0
<0xAC>	0
<0xAD>	0
<0xAE>	0
<0xAF>	0
<0xB0>	0
<0xB1>	0
<0xB2>	0
<0xB3>	0
<0xB4>	0
<0xB5>	0
<0xB6>	0
<0xB7>	0
<0xB8>	0
<0xB9>	0
<0xBA>	0
<0xBB>	0
<0xBC>	0
<0xBD>	0
<0xBE>	0
<0xBF>	0
<0xC0>	0
<0xC1>	0
<0xC2>	0
<0xC3>	0
<0xC4>	0
<0xC5>	0
<0xC6>	0
<0xC7>	0
<0xC8>	0
<0xC9>	0
<0xCA>	0
<0xCB>	0
<0xCC>	0
<0xCD>	0
<0xCE>	0
<0xCF>	0
<0xD0>	0
<0xD1>	0
<0xD2>	0
<0xD3>	0
<0xD4>	0
<0xD5>	0
<0xD6>	0
<0xD7>	0
<0xD8>	0
<0xD9>	0
<0xDA>	0
<0xDB>	0
<0xDC>	0
<0xDD>	0
<0xDE>	0
<0xDF>	0
<0xE0>	0
<0xE1>	0
<0xE2>	0
<0xE3>	0
<0xE4>	0
<0xE5>	0
<0xE6>	0
<0xE7>	0
<0xE8>	0
<0xE9>	0
<0xEA>	0
<0xEB>	0
<0xEC>	0
<0xED>	0
<0xEE>	0
<0xEF>	0
<0xF0>	0
<0xF1>	0
<0xF2>	0
<0xF3>	0
<0xF4>	0
<0xF5>	0
<0xF6>	0
<0xF7>	0
<0xF8>	0
<0xF9>	0
<0xFA>	0
<0xFB>	0
<0xFC>	0
<0xFD>	0
<0xFE>	0
<0xFF>	0
▁t	-0
he	-1
▁a	-2
▁i	-3
▁w	-4
▁the	-5
▁s	-6
▁*	-7
ou	-8
re	-9
in	-10
▁o	-11
ha	-12
▁b	-13
hi	-14
▁m	-15
ot	-16
▁c	-17
er	-18
nd	-19
▁y	-20
▁d	-21
▁f	-22
on	-23
ing	-24
▁you	-25
▁p	-26
ll	-27
▁g	-28
▁to	-29
▁l	-30
mot	-31
an	-32
▁n	-33
es	-34
ed	-35
or	-36
▁and	-37
en	-38
hat	-39
chi	-40
▁he	-41
ar	-42
at	-43
▁of	-44
▁in	-45
it	-46
as	-47
▁it	-48
om	-49
ow	-50
▁ha	-51
▁that	-52
st	-53
et	-54
▁on	-55
ve	-56
le	-57
ay	-58
▁we	-59
▁be	-60
▁e	-61
▁u	-62
ri	-63
gh	-64
▁is	-65
se	-66
his	-67
id	-68
ld	-69
al	-70
oo	-71
ut	-72
ic	-73
▁h	-74
▁was	-75
▁k	-76
▁do	-77
▁re	-78
ad	-79
ac	-80
▁=	-81
ver	-82
▁th	-83
▁st	-84
▁for	-85
ght	-86
..	-87
ke	-88
▁[	-89
▁what	-90
ro	-91
ly	-92
▁j	-93
am	-94
is	-95
ir	-96
ent	-97
out	-98
ch	-99
▁an	-100
▁me	-101
ion	-102
▁"	-103
▁se	-104
▁go	-105
▁li	-106
ith	-107
ea	-108
▁no	-109
▁this	-110
her	-111
▁with	-112
▁as	-113
ome	-114
▁not	-115
all	-116
▁at	-117
ur	-118
▁there	-119
▁they	-120
▁have	-121
▁she	-122
▁so	-123
ter	-124
ill	-125
ra	-126
▁are	-127
▁whe	-128
▁can	-129
ce	-130
▁-	-131
ould	-132
▁but	-133
▁hi	-134
ust	-135
▁kn	-136
▁one	-137
ook	-138
im	-139
▁his	-140
▁don	-141
▁ne	-142
ct	-143
un	-144
ho	-145
ant	-146
▁all	-147
▁fr	-148
▁know	-149
au	-150
▁my	-151
...	-152
▁up	-153
▁r	-154
▁oh	-155
eah	-156
▁your	-157
▁yeah	-158
il	-159
▁her	-160
▁mo	-161
▁sa	-162
pp	-163
▁de	-164
▁ri	-165
ge	-166
um	-167
▁al	-168
▁had	-169
▁like	-170
ie	-171
us	-172
ack	-173
▁out	-174
ain	-175
▁ab	-176
xx	-177
▁pl	-178
and	-179
our	-180
ck	-181
op	-182
▁get	-183
▁did	-184
art	-185
inv	-186
▁look	-187
▁1	-188
▁see	-189
ink	-190
▁him	-191
▁from	-192
▁or	-193
▁su	-194
red	-195
ake	-196
ood	-197
ab	-198
ry	-199
ers	-200
▁v	-201
th	-202
▁here	-203
▁by	-204
qu	-205
▁just	-206
very	-207
ol	-208
▁sp	-209
han	-210
ul	-211
ight	-212
ame	-213
▁if	-214
ound	-215
ell	-216
ess	-217
▁sh	-218
est	-219
▁right	-220
▁who	-221
▁com	-222
ation	-223
ig	-224
ind	-225
▁bo	-226
▁were	-227
▁whi	-228
▁now	-229
▁some	-230
▁then	-231
▁got	-232
▁wor	-233
▁well	-234
▁them	-235
▁about	-236
▁when	-237
own	-238
one	-239
ard	-240
ak	-241
nt	-242
ong	-243
itt	-244
el	-245
▁think	-246
▁want	-247
▁said	-248
▁2	-249
na	-250
ast	-251
▁ex	-252
▁man	-253
▁would	-254
os	-255
▁ro	-256
res	-257
fe	-258
ally	-259
ive	-260
▁where	-261
fat	-262
▁con	-263
▁will	-264
▁(	-265
▁any	-266
▁tw	-267
ate	-268
▁di	-269
▁yes	-270
].	-271
▁ar	-272
ap	-273
ep	-274
▁how	-275
ber	-276
▁say	-277
▁come	-278
em	-279
▁cl	-280
▁good	-281
▁tim	-282
▁us	-283
ven	-284
hing	-285
▁ok	-286
ine	-287
ough	-288
ort	-289
▁“	-290
▁le	-291
▁put	-292
▁lo	-293
▁pro	-294
▁back	-295
▁co	-296
▁ag	-297
▁down	-298
ice	-299
▁pe	-300
▁am	-301
▁let	-302
."	-303
▁af	-304
ther	-305
▁okay	-306
other	-307
▁int	-308
ittle	-309
ag	-310
ous	-311
▁br	-312
hy	-313
▁little	-314
▁has	-315
ore	-316
▁chi	-317
ause	-318
▁been	-319
▁over	-320
▁xx	-321
way	-322
▁than	-323
ft	-324
▁more	-325
ist	-326
▁very	-327
▁going	-328
▁fe	-329
ide	-330
▁xxx	-331
▁qu	-332
▁tr	-333
▁time	-334
▁could	-335
▁too	-336
▁which	-337
▁er	-338
▁'	-339
▁two	-340
▁bl	-341
ies	-342
▁un	-343
▁20	-344
▁bec	-345
ick	-346
dy	-347
▁other	-348
ace	-349
▁off	-350
▁en	-351
▁play	-352
end	-353
▁their	-354
▁cha	-355
lf	-356
are	-357
▁19	-358
ree	-359
ity	-360
▁thing	-361
,"	-362
ose	-363
▁fl	-364
▁does	-365
▁car	-366
ure	-367
--	-368
orn	-369
▁gre	-370
omet	-371
ish	-372
my	-373
▁why	-374
nder	-375
▁po	-376
alk	-377
▁sc	-378
▁after	-379
▁uh	-380
▁somet	-381
▁gr	-382
age	-383
ought	-384
pl	-385
hed	-386
urn	-387
▁again	-388
▁mar	-389
▁make	-390
ear	-391
ud	-392
▁take	-393
▁sha	-394
pe	-395
▁into	-396
ople	-397
▁tell	-398
ps	-399
ment	-400
▁fir	-401
▁bet	-402
▁people	-403
ount	-404
▁way	-405
▁may	-406
▁jo	-407
▁because	-408
▁wat	-409
ian	-410
int	-411
ass	-412
ving	-413
iss	-414
ite	-415
ia	-416
▁call	-417
ue	-418
▁day	-419
ff	-420
▁part	-421
▁work	-422
▁mr	-423
▁every	-424
ade	-425
▁gon	-426
▁first	-427
▁these	-428
ble	-429
▁ad	-430
▁gonna	-431
▁our	-432
▁only	-433
ase	-434
▁mean	-435
ved	-436
we	-437
ves	-438
▁te	-439
▁mu	-440
so	-441
ty	-442
▁need	-443
▁gu	-444
co	-445
mp	-446
▁hand	-447
▁thr	-448
▁sm	-449
▁ho	-450
▁should	-451
▁bu	-452
uh	-453
the	-454
cl	-455
▁fo	-456
▁big	-457
▁mom	-458
▁pre	-459
▁something	-460
ouse	-461
ren	-462
day	-463
be	-464
▁new	-465
ach	-466
ool	-467
per	-468
▁ac	-469
fore	-470
self	-471
▁really	-472
▁didn	-473
ys	-474
▁happ	-475
ful	-476
iz	-477
bo	-478
augh	-479
pt	-480
man	-481
ary	-482
ci	-483
ather	-484
les	-485
wn	-486
▁ch	-487
ated	-488
▁hel	-489
thing	-490
▁much	-491
ord	-492
▁dis	-493
act	-494
▁rem	-495
ang	-496
▁pr	-497
ance	-498
ress	-499
able	-500
▁ra	-501
▁made	-502
ting	-503
te	-504
ady	-505
ub	-506
▁gir	-507
▁per	-508
▁under	-509
▁before	-510
▁year	-511
▁wa	-512
par	-513
▁long	-514
ull	-515
▁fi	-516
▁wr	-517
▁thank	-518
▁give	-519
uck	-520
▁three	-521
▁bab	-522
▁talk	-523
ory	-524
▁ke	-525
ex	-526
▁great	-527
▁fri	-528
▁ple	-529
hes	-530
▁came	-531
▁app	-532
▁old	-533
▁child	-534
00	-535
▁girl	-536
ne	-537
▁away	-538
▁home	-539
▁never	-540
▁ask	-541
ions	-542
▁went	-543
▁another	-544
▁wan	-545
▁doing	-546
▁act	-547
▁even	-548
▁um	-549
▁lea	-550
▁house	-551
▁turn	-552
▁count	-553
▁those	-554
pen	-555
▁thought	-556
▁head	-557
▁also	-558
▁wanna	-559
de	-560
▁eat	-561
?"	-562
▁mum	-563
▁won	-564
ma	-565
▁dr	-566
gg	-567
ise	-568
▁har	-569
▁cr	-570
akes	-571
ward	-572
▁min	-573
▁still	-574
▁through	-575
▁must	-576
▁things	-577
ffe	-578
▁el	-579
ried	-580
▁dad	-581
av	-582
▁many	-583
▁gra	-584
▁comp	-585
▁che	-586
exp	-587
yes	-588
▁find	-589
get	-590
ence	-591
▁gl	-592
▁book	-593
▁tra	-594
▁mm	-595
tain	-596
▁last	-597
▁bel	-598
▁sl	-599
▁help	-600
no	-601
▁lot	-602
▁found	-603
▁comm	-604
▁start	-605
▁ind	-606
▁sch	-607
▁love	-608
ark	-609
▁mat	-610
ors	-611
▁night	-612
▁happen	-613
hm	-614
▁ser	-615
▁name	-616
ict	-617
laugh	-618
▁open	-619
ds	-620
ans	-621
▁done	-622
ings	-623
▁baby	-624
▁isn	-625
▁bre	-626
▁miss	-627
ath	-628
ect	-629
side	-630
ily	-631
▁its	-632
▁show	-633
▁boy	-634
▁chan	-635
▁sure	-636
als	-637
land	-638
▁bit	-639
▁sho	-640
ng	-641
▁sw	-642
▁mon	-643
▁end	-644
▁called	-645
.”	-646
xt	-647
▁res	-648
▁friend	-649
▁201	-650
▁wait	-651
▁try	-652
unn	-653
▁better	-654
▁%	-655
▁might	-656
air	-657
▁bot	-658
aking	-659
ss	-660
ons	-661
▁nice	-662
▁mother	-663
med	-664
▁care	-665
add	-666
▁most	-667
up	-668
▁cont	-669
▁col	-670
ms	-671
▁str	-672
▁ma	-673
▁around	-674
▁school	-675
li	-676
anc	-677
ock	-678
▁keep	-679
ank	-680
▁hey	-681
▁please	-682
body	-683
▁ah	-684
▁erm	-685
▁water	-686
ember	-687
ious	-688
ling	-689
▁kind	-690
if	-691
▁cour	-692
▁anything	-693
ars	-694
,”	-695
ix	-696
mo	-697
▁la	-698
▁des	-699
ways	-700
▁doesn	-701
ek	-702
right	-703
▁four	-704
▁life	-705
▁gi	-706
oney	-707
ates	-708
ip	-709
ign	-710
▁cat	-711
▁nor	-712
.]	-713
▁char	-714
▁while	-715
led	-716
▁place	-717
▁mhm	-718
▁war	-719
▁sit	-720
ually	-721
laughs	-722
▁next	-723
▁room	-724
▁being	-725
▁pri	-726
▁such	-727
▁pres	-728
▁world	-729
▁beg	-730
▁fin	-731
ince	-732
▁eng	-733
▁nothing	-734
▁same	-735
ens	-736
▁father	-737
mer	-738
▁.	-739
▁own	-740
▁sec	-741
ited	-742
rent	-743
▁ele	-744
▁supp	-745
vers	-746
▁att	-747
▁looks	-748
▁shall	-749
ied	-750
▁told	-751
▁always	-752
▁far	-753
▁men	-754
▁years	-755
▁mummy	-756
▁hold	-757
inn	-758
ins	-759
▁imp	-760
!"	-761
▁3	-762
▁feel	-763
▁left	-764
ah	-765
▁z	-766
▁door	-767
▁cle	-768
▁used	-769
me	-770
amp	-771
ton	-772
ute	-773
ta	-774
▁ever	-775
▁cap	-776
ug	-777
▁pret	-778
▁bir	-779
▁maybe	-780
der	-781
▁pol	-782
▁saw	-783
▁tri	-784
▁sor	-785
bb	-786
▁once	-787
row	-788
▁cre	-789
▁else	-790
ult	-791
▁set	-792
▁read	-793
▁watch	-794
eric	-795
▁point	-796
ww	-797
arly	-798
outh	-799
▁tom	-800
▁ball	-801
ever	-802
▁bus	-803
▁spe	-804
▁unt	-805
aught	-806
▁mot	-807
cc	-808
ave	-809
rest	-810
▁red	-811
og	-812
ye	-813
▁wi	-814
▁acc	-815
ail	-816
▁lat	-817
▁young	-818
ump	-819
pped	-820
rect	-821
ung	-822
▁dist	-823
▁fam	-824
▁rep	-825
▁gone	-826
▁remember	-827
oh	-828
▁sur	-829
vel	-830
▁side	-831
▁stand	-832
si	-833
▁ob	-834
▁vo	-835
▁stop	-836
iv	-837
▁says	-838
▁enough	-839
for	-840
▁bed	-841
▁goes	-842
ew	-843
cond	-844
▁huh	-845
ition	-846
▁took	-847
▁diffe	-848
▁sorry	-849
▁list	-850
raw	-851
▁hm	-852
gr	-853
▁five	-854
▁coming	-855
▁ret	-856
▁course	-857
oun	-858
▁reg	-859
▁americ	-860
▁grand	-861
▁until	-862
▁use	-863
▁morn	-864
pect	-865
▁200	-866
▁air	-867
mber	-868
▁rec	-869
▁wo	-870
ical	-871
▁sir	-872
▁pers	-873
▁inter	-874
ents	-875
▁box	-876
▁sing	-877
ness	-878
▁best	-879
▁sound	-880
▁wom	-881
▁eyes	-882
▁seen	-883
▁pos	-884
▁sle	-885
gether	-886
▁light	-887
hir	-888
▁morning	-889
▁second	-890
ger	-891
ont	-892
ane	-893
ows	-894
▁small	-895
ru	-896
▁ed	-897
▁god	-898
▁wind	-899
▁belie	-900
▁money	-901
cha	-902
ished	-903
▁bar	-904
▁ste	-905
▁high	-906
▁walk	-907
▁hear	-908
▁real	-909
sis	-910
▁bri	-911
▁fall	-912
mb	-913
eak	-914
▁inv	-915
▁pat	-916
▁foot	-917
▁pick	-918
▁sk	-919
▁dri	-920
▁yet	-921
ations	-922
▁quite	-923
▁ter	-924
ces	-925
oup	-926
son	-927
▁daddy	-928
".	-929
but	-930
▁six	-931
▁though	-932
▁_	-933
▁sy	-934
▁hur	-935
▁num	-936
ef	-937
ret	-938
▁mrs	-939
▁asked	-940
▁haven	-941
▁mommy	-942
▁mus	-943
▁hard	-944
▁lar	-945
lo	-946
huh	-947
▁sn	-948
▁202	-949
▁today	-950
tea	-951
cle	-952
here	-953
▁bad	-954
▁bro	-955
▁hop	-956
▁dear	-957
▁fell	-958
▁together	-959
hip	-960
▁mil	-961
aster	-962
▁city	-963
▁week	-964
cal	-965
ross	-966
you	-967
▁gen	-968
▁tre	-969
ire	-970
ower	-971
hn	-972
▁run	-973
ister	-974
▁leave	-975
pri	-976
▁soon	-977
▁each	-978
▁pass	-979
▁heard	-980
▁id	-981
▁pap	-982
vie	-983
▁dec	-984
▁cent	-985
▁getting	-986
tle	-987
▁blue	-988
▁mind	-989
ets	-990
ational	-991
▁dog	-992
▁without	-993
ared	-994
rist	-995
▁pict	-996
▁known	-997
▁different	-998
▁im	-999
▁both	-1000
▁half	-1001
▁looked	-1002
mch	-1003
▁fire	-1004
▁since	-1005
▁dep	-1006
▁ent	-1007
▁face	-1008
ts	-1009
ction	-1010
▁rest	-1011
▁looking	-1012
ason	-1013
uring	-1014
▁stay	-1015
eter	-1016
ween	-1017
bab	-1018
ced	-1019
ream	-1020
▁pie	-1021
ial	-1022
une	-1023
ject	-1024
▁few	-1025
▁between	-1026
▁hu	-1027
ased	-1028
llow	-1029
lic	-1030
▁move	-1031
▁par	-1032
ph	-1033
ile	-1034
▁inst	-1035
),	-1036
▁ev	-1037
ident	-1038
▁black	-1039
▁chair	-1040
▁hands	-1041
▁direct	-1042
uff	-1043
▁john	-1044
▁children	-1045
to	-1046
ange	-1047
▁king	-1048
▁alright	-1049
fta	-1050
ries	-1051
ures	-1052
▁everything	-1053
less	-1054
▁hat	-1055
▁jack	-1056
▁land	-1057
▁green	-1058
▁round	-1059
che	-1060
ating	-1061
▁boys	-1062
▁heart	-1063
▁person	-1064
▁himself	-1065
vis	-1066
▁hafta	-1067
▁sleep	-1068
▁squ	-1069
▁wanted	-1070
llo	-1071
ten	-1072
cause	-1073
▁pretty	-1074
aw	-1075
▁ph	-1076
▁flo	-1077
▁train	-1078
▁having	-1079
▁♪	-1080
enty	-1081
▁spo	-1082
▁happened	-1083
po	-1084
io	-1085
ired	-1086
iet	-1087
ild	-1088
ric	-1089
▁met	-1090
▁cons	-1091
▁later	-1092
▁party	-1093
ash	-1094
▁18	-1095
ames	-1096
▁top	-1097
▁ready	-1098
▁story	-1099
ale	-1100
▁cho	-1101
▁knew	-1102
ines	-1103
?”	-1104
vo	-1105
▁mag	-1106
▁coll	-1107
▁days	-1108
).	-1109
▁kid	-1110
gma	-1111
cial	-1112
dd	-1113
▁sat	-1114
▁drink	-1115
ann	-1116
arn	-1117
unny	-1118
▁wonder	-1119
▁talking	-1120
▁doll	-1121
aut	-1122
bro	-1123
ush	-1124
uss	-1125
▁pop	-1126
stand	-1127
ster	-1128
▁bring	-1129
ball	-1130
▁exc	-1131
▁making	-1132
▁matter	-1133
▁sort	-1134
▁4	-1135
ched	-1136
ctor	-1137
▁anim	-1138
▁gave	-1139
az	-1140
▁ans	-1141
▁follow	-1142
▁listen	-1143
▁close	-1144
▁whole	-1145
▁meet	-1146
▁table	-1147
▁moment	-1148
▁believe	-1149
ged	-1150
unt	-1151
▁ger	-1152
▁born	-1153
▁hour	-1154
▁wasn	-1155
▁north	-1156
▁white	-1157
▁american	-1158
osed	-1159
▁rel	-1160
▁family	-1161
▁5	-1162
ics	-1163
ina	-1164
▁ge	-1165
imes	-1166
▁pen	-1167
▁feet	-1168
▁mark	-1169
its	-1170
▁kill	-1171
▁upon	-1172
▁along	-1173
▁against	-1174
ork	-1175
▁brother	-1176
not	-1177
aken	-1178
cept	-1179
most	-1180
sing	-1181
▁hor	-1182
▁live	-1183
▁christ	-1184
du	-1185
clud	-1186
▁break	-1187
▁laugh	-1188
▁return	-1189
sh	-1190
mar	-1191
where	-1192
▁bill	-1193
▁during	-1194
▁actually	-1195
cy	-1196
▁ju	-1197
ined	-1198
▁add	-1199
▁dro	-1200
▁game	-1201
▁state	-1202
uth	-1203
▁inte	-1204
▁wrong	-1205
▁number	-1206
▁hot	-1207
▁rock	-1208
▁team	-1209
▁cal	-1210
▁food	-1211
▁lead	-1212
▁quest	-1213
sel	-1214
▁pur	-1215
▁thir	-1216
ters	-1217
what	-1218
▁pay	-1219
▁compan	-1220
▁wouldn	-1221
ual	-1222
1:	-1223
▁nat	-1224
▁swe	-1225
▁vis	-1226
▁town	-1227
▁short	-1228
▁bat	-1229
▁pull	-1230
▁eight	-1231
▁friends	-1232
▁cook	-1233
▁sent	-1234
▁hello	-1235
▁outside	-1236
▁sometimes	-1237
▁fine	-1238
▁floor	-1239
▁county	-1240
▁interest	-1241
▁aw	-1242
▁inc	-1243
▁died	-1244
▁guess	-1245
▁movie	-1246
▁south	-1247
▁speak	-1248
▁country	-1249
",	-1250
▁ton	-1251
▁united	-1252
ier	-1253
▁med	-1254
ertain	-1255
vern	-1256
▁ben	-1257
▁sim	-1258
▁ten	-1259
wards	-1260
key	-1261
ully	-1262
▁199	-1263
▁beaut	-1264
ield	-1265
▁cur	-1266
child	-1267
▁song	-1268
ered	-1269
▁times	-1270
ize	-1271
ouch	-1272
▁cup	-1273
▁leg	-1274
▁gener	-1275
▁gotta	-1276
▁states	-1277
read	-1278
▁near	-1279
▁word	-1280
▁noise	-1281
▁quick	-1282
▁wh	-1283
ustr	-1284
▁sign	-1285
▁mic	-1286
iness	-1287
▁able	-1288
▁front	-1289
ues	-1290
▁bra	-1291
ither	-1292
▁hair	-1293
▁saying	-1294
▁trying	-1295
airs	-1296
▁job	-1297
▁win	-1298
ready	-1299
▁makes	-1300
▁understand	-1301
br	-1302
kes	-1303
omas	-1304
▁poor	-1305
▁contin	-1306
▁brought	-1307
zz	-1308
▁idea	-1309
▁comes	-1310
▁includ	-1311
hind	-1312
ises	-1313
▁cor	-1314
▁cut	-1315
▁son	-1316
bably	-1317
orrow	-1318
▁expl	-1319
▁pain	-1320
▁almost	-1321
▁6	-1322
▁happy	-1323
▁music	-1324
▁behind	-1325
ama	-1326
oud	-1327
wer	-1328
room	-1329
▁eas	-1330
▁build	-1331
ants	-1332
▁color	-1333
▁already	-1334
▁picture	-1335
ring	-1336
▁adv	-1337
▁hum	-1338
▁conf	-1339
▁seemed	-1340
ee	-1341
ert	-1342
ple	-1343
▁pu	-1344
aces	-1345
▁lady	-1346
▁probably	-1347
aul	-1348
ming	-1349
ular	-1350
▁mid	-1351
▁mine	-1352
▁began	-1353
▁woman	-1354
▁–	-1355
▁stre	-1356
▁govern	-1357
▁minute	-1358
▁sil	-1359
▁bear	-1360
▁draw	-1361
▁thomas	-1362
een	-1363
ages	-1364
well	-1365
▁art	-1366
▁paper	-1367
▁playing	-1368
▁fun	-1369
▁sub	-1370
▁national	-1371
▁sum	-1372
▁lost	-1373
▁till	-1374
▁present	-1375
▁sun	-1376
ots	-1377
ches	-1378
haps	-1379
ided	-1380
▁ext	-1381
▁hon	-1382
▁ones	-1383
▁es	-1384
unch	-1385
▁compl	-1386
▁fight	-1387
▁couldn	-1388
▁ann	-1389
▁fact	-1390
▁voice	-1391
ii	-1392
ding	-1393
▁bas	-1394
pping	-1395
▁boat	-1396
▁stick	-1397
▁record	-1398
▁someone	-1399
▁late	-1400
▁reac	-1401
▁means	-1402
use	-1403
▁sto	-1404
▁uni	-1405
ndred	-1406
▁hope	-1407
▁taken	-1408
▁hundred	-1409
iful	-1410
ital	-1411
ying	-1412
▁stuff	-1413
▁played	-1414
utes	-1415
▁star	-1416
▁however	-1417
▁started	-1418
gan	-1419
men	-1420
nan	-1421
sed	-1422
▁aren	-1423
▁cold	-1424
▁yell	-1425
ention	-1426
▁offic	-1427
▁thanks	-1428
▁twenty	-1429
ik	-1430
▁guy	-1431
▁pub	-1432
ouble	-1433
▁forg	-1434
itting	-1435
▁wants	-1436
rat	-1437
▁german	-1438
ape	-1439
▁mer	-1440
▁became	-1441
▁certain	-1442
▁7	-1443
▁8	-1444
ken	-1445
ner	-1446
that	-1447
▁ass	-1448
▁cir	-1449
▁del	-1450
▁full	-1451
▁girls	-1452
▁piece	-1453
▁doctor	-1454
▁myself	-1455
ib	-1456
ks	-1457
arent	-1458
rench	-1459
▁true	-1460
▁brown	-1461
▁inside	-1462
▁beautiful	-1463
▁ap	-1464
▁fel	-1465
vision	-1466
▁month	-1467
▁uhhuh	-1468
▁,	-1469
ury	-1470
www	-1471
▁dead	-1472
▁hist	-1473
▁death	-1474
jo	-1475
sc	-1476
||	-1477
pat	-1478
ured	-1479
▁tele	-1480
▁wood	-1481
▁possi	-1482
▁others	-1483
▁turned	-1484
!”	-1485
ese	-1486
▁dar	-1487
▁page	-1488
▁early	-1489
cess	-1490
cted	-1491
ense	-1492
lish	-1493
▁dark	-1494
▁mill	-1495
▁sever	-1496
▁taking	-1497
by	-1498
let	-1499
▁glad	-1500
▁road	-1501
▁seven	-1502
▁captain	-1503
rew	-1504
▁[1	-1505
amed	-1506
▁corn	-1507
▁gent	-1508
▁mount	-1509
ana	-1510
▁da	-1511
ized	-1512
▁198	-1513
▁ref	-1514
▁sand	-1515
▁french	-1516
▁several	-1517
dad	-1518
▁bye	-1519
▁mad	-1520
▁occ	-1521
▁const	-1522
▁order	-1523
▁minutes	-1524
lly	-1525
net	-1526
ron	-1527
▁ice	-1528
▁less	-1529
▁wife	-1530
▁perhaps	-1531
▁!	-1532
ted	-1533
▁ty	-1534
▁cry	-1535
▁fore	-1536
▁group	-1537
▁across	-1538
▁proble	-1539
ey	-1540
dge	-1541
urs	-1542
born	-1543
▁prof	-1544
▁funny	-1545
▁words	-1546
▁yourself	-1547
0,	-1548
▁law	-1549
▁mess	-1550
▁produ	-1551
artment	-1552
▁distri	-1553
ham	-1554
ffic	-1555
▁age	-1556
▁cos	-1557
inner	-1558
▁camp	-1559
▁form	-1560
▁birth	-1561
▁large	-1562
▁either	-1563
▁import	-1564
0.	-1565
gra	-1566
igh	-1567
min	-1568
head	-1569
▁emp	-1570
▁sea	-1571
ities	-1572
▁deal	-1573
▁question	-1574
go	-1575
▁fast	-1576
▁stra	-1577
▁rather	-1578
do	-1579
adu	-1580
ern	-1581
ote	-1582
unk	-1583
▁197	-1584
▁lad	-1585
▁stud	-1586
▁given	-1587
gin	-1588
olog	-1589
▁fro	-1590
▁ill	-1591
▁gold	-1592
▁main	-1593
▁vill	-1594
aughter	-1595
▁ground	-1596
▁reason	-1597
aim	-1598
▁lu	-1599
▁wear	-1600
▁class	-1601
▁sweet	-1602
▁change	-1603
ls	-1604
ney	-1605
ider	-1606
ient	-1607
▁fly	-1608
▁pot	-1609
anger	-1610
▁yellow	-1611
▁working	-1612
2:	-1613
ze	-1614
▁#	-1615
app	-1616
oub	-1617
ards	-1618
▁bur	-1619
▁dra	-1620
▁exp	-1621
▁throw	-1622
ley	-1623
▁em	-1624
▁je	-1625
▁ta	-1626
▁fig	-1627
▁shi	-1628
fully	-1629
▁fish	-1630
▁hung	-1631
▁line	-1632
▁news	-1633
▁past	-1634
▁roll	-1635
▁toys	-1636
▁horse	-1637
▁living	-1638
ept	-1639
fri	-1640
▁ya	-1641
dden	-1642
▁bow	-1643
▁cri	-1644
▁lay	-1645
unning	-1646
▁dress	-1647
▁animals	-1648
tern	-1649
▁repl	-1650
▁special	-1651
ened	-1652
king	-1653
▁hit	-1654
▁club	-1655
▁learn	-1656
▁quiet	-1657
▁football	-1658
bs	-1659
col	-1660
els	-1661
▁bag	-1662
▁plan	-1663
▁wish	-1664
▁alone	-1665
▁among	-1666
▁river	-1667
▁expect	-1668
▁sister	-1669
▁business	-1670
eth	-1671
▁arm	-1672
▁mur	-1673
iting	-1674
▁body	-1675
▁post	-1676
▁company	-1677
▁phi	-1678
▁tree	-1679
▁trans	-1680
▁important	-1681
oof	-1682
▁ago	-1683
▁jan	-1684
▁jap	-1685
▁sam	-1686
▁milk	-1687
▁clean	-1688
▁partic	-1689
2.	-1690
▁guys	-1691
▁jump	-1692
▁west	-1693
19	-1694
ald	-1695
ible	-1696
raid	-1697
▁sal	-1698
ments	-1699
▁felt	-1700
▁serv	-1701
▁power	-1702
▁somebody	-1703
mon	-1704
----	-1705
bert	-1706
▁bob	-1707
▁eye	-1708
▁fre	-1709
▁lie	-1710
▁tem	-1711
▁wee	-1712
▁cond	-1713
▁free	-1714
▁send	-1715
▁wall	-1716
▁uncle	-1717
▁women	-1718
▁france	-1719
▁english	-1720
▁ear	-1721
▁cool	-1722
▁rece	-1723
▁rele	-1724
▁york	-1725
▁often	-1726
gn	-1727
ove	-1728
val	-1729
▁cra	-1730
eared	-1731
▁case	-1732
selves	-1733
▁touch	-1734
▁secret	-1735
▁nin	-1736
▁bird	-1737
▁step	-1738
▁surpri	-1739
▁univers	-1740
▁x	-1741
how	-1742
oth	-1743
▁ve	-1744
▁cast	-1745
▁chap	-1746
▁oper	-1747
▁phone	-1748
▁write	-1749
▁window	-1750
▁everybody	-1751
]?	-1752
▁9	-1753
ised	-1754
iter	-1755
▁ins	-1756
▁opp	-1757
▁fair	-1758
▁gard	-1759
inning	-1760
▁allow	-1761
▁peter	-1762
▁indian	-1763
▁series	-1764
▁street	-1765
▁thinking	-1766
ery	-1767
ime	-1768
arth	-1769
come	-1770
▁fing	-1771
▁japan	-1772
▁press	-1773
▁afraid	-1774
▁trouble	-1775
uts	-1776
▁buy	-1777
▁egg	-1778
▁tea	-1779
▁wow	-1780
vered	-1781
▁grow	-1782
▁kept	-1783
▁prom	-1784
▁carry	-1785
▁island	-1786
▁strong	-1787
▁?	-1788
▁ow	-1789
fect	-1790
form	-1791
ists	-1792
▁fav	-1793
▁bath	-1794
▁brit	-1795
▁coun	-1796
▁fort	-1797
▁seat	-1798
▁catch	-1799
▁forgot	-1800
▁sitting	-1801
▁usually	-1802
▁tomorrow	-1803
▁ce	-1804
orts	-1805
▁196	-1806
▁ori	-1807
▁toy	-1808
▁held	-1809
▁park	-1810
▁prov	-1811
▁ring	-1812
▁noises	-1813
▁points	-1814
la	-1815
sy	-1816
cket	-1817
▁sus	-1818
ances	-1819
ering	-1820
▁whis	-1821
▁answer	-1822
▁dinner	-1823
▁birthday	-1824
▁president	-1825
eng	-1826
▁gun	-1827
▁aunt	-1828
▁kiss	-1829
▁lots	-1830
▁chick	-1831
▁frank	-1832
▁least	-1833
▁running	-1834
▁finished	-1835
▁mountain	-1836
gy	-1837
rap	-1838
▁15	-1839
ides	-1840
look	-1841
▁def	-1842
itten	-1843
▁geor	-1844
▁sold	-1845
▁teac	-1846
▁mouth	-1847
▁whatever	-1848
ny	-1849
ges	-1850
band	-1851
nday	-1852
ately	-1853
ining	-1854
▁takes	-1855
▁darling	-1856
bed	-1857
dle	-1858
mas	-1859
osp	-1860
▁ran	-1861
owers	-1862
▁area	-1863
▁bell	-1864
▁hill	-1865
▁check	-1866
▁field	-1867
▁knows	-1868
childes	-1869
▁commun	-1870
▁gentle	-1871
▁childes	-1872
▁history	-1873
20	-1874
fl	-1875
cil	-1876
tom	-1877
aced	-1878
▁195	-1879
▁fur	-1880
▁hus	-1881
ience	-1882
rence	-1883
▁duck	-1884
▁lang	-1885
stairs	-1886
vember	-1887
▁appro	-1888
▁march	-1889
▁named	-1890
▁seems	-1891
▁thous	-1892
4.	-1893
hen	-1894
ator	-1895
ices	-1896
more	-1897
▁lou	-1898
▁ooh	-1899
ained	-1900
ative	-1901
▁chur	-1902
▁excl	-1903
▁cried	-1904
▁cross	-1905
▁pleas	-1906
▁herself	-1907
ete	-1908
fort	-1909
▁cam	-1910
▁det	-1911
▁clim	-1912
▁east	-1913
▁block	-1914
▁dream	-1915
▁super	-1916
▁tried	-1917
▁visit	-1918
▁killed	-1919
▁letter	-1920
▁married	-1921
▁waiting	-1922
▁thousand	-1923
vi	-1924
com	-1925
uro	-1926
▁gar	-1927
▁hang	-1928
▁career	-1929
cher	-1930
stem	-1931
uary	-1932
▁fix	-1933
phone	-1934
▁army	-1935
▁choo	-1936
▁soft	-1937
▁tonight	-1938
cds	-1939
cri	-1940
ony	-1941
▁tur	-1942
iling	-1943
▁hall	-1944
▁hurt	-1945
▁port	-1946
▁prot	-1947
▁books	-1948
▁eating	-1949
▁sudden	-1950
▁general	-1951
▁suppose	-1952
ones	-1953
▁exact	-1954
▁region	-1955
1.	-1956
cks	-1957
ler	-1958
que	-1959
▁oct	-1960
▁gets	-1961
▁earth	-1962
▁lived	-1963
▁truck	-1964
▁attack	-1965
▁chance	-1966
▁lovely	-1967
▁sounds	-1968
▁summer	-1969
▁whether	-1970
▁daughter	-1971
▁november	-1972
▁possible	-1973
▁department	-1974
1,	-1975
2,	-1976
now	-1977
▁...	-1978
▁maj	-1979
▁polit	-1980
▁forget	-1981
▁system	-1982
ai	-1983
000	-1984
ene	-1985
▁cu	-1986
▁bes	-1987
▁est	-1988
▁fift	-1989
▁luck	-1990
mother	-1991
▁board	-1992
▁master	-1993
▁object	-1994
▁district	-1995
don	-1996
ead	-1997
ike	-1998
ilt	-1999
ked	-2000
pes	-2001
ses	-2002
ural	-2003
makes	-2004
▁champ	-2005
ara	-2006
ety	-2007
▁ut	-2008
ford	-2009
ints	-2010
▁cow	-2011
▁fil	-2012
▁arri	-2013
▁disc	-2014
▁heav	-2015
▁shar	-2016
▁vict	-2017
▁exper	-2018
▁tired	-2019
▁decided	-2020
▁government	-2021
3.	-2022
ti	-2023
loi	-2024
cent	-2025
▁ain	-2026
▁joe	-2027
mbers	-2028
ution	-2029
▁deep	-2030
▁safe	-2031
▁wild	-2032
ession	-2033
▁yours	-2034
▁husband	-2035
▁christmas	-2036
ams	-2037
eed	-2038
ond	-2039
aimed	-2040
velop	-2041
▁clot	-2042
iously	-2043
▁origin	-2044
▁command	-2045
3:	-2046
ka	-2047
▁pa	-2048
▁ru	-2049
▁aug	-2050
▁lau	-2051
▁sad	-2052
▁apri	-2053
▁coup	-2054
▁easy	-2055
▁kids	-2056
▁cover	-2057
▁pound	-2058
▁track	-2059
▁careful	-2060
▁evening	-2061
▁straight	-2062
orm	-2063
▁10	-2064
ility	-2065
▁cost	-2066
▁dece	-2067
▁doub	-2068
▁hors	-2069
▁russ	-2070
ically	-2071
though	-2072
▁april	-2073
▁lives	-2074
▁worry	-2075
▁university	-2076
ya	-2077
▁17	-2078
▁bud	-2079
ature	-2080
▁mist	-2081
▁nose	-2082
▁disco	-2083
▁recei	-2084
▁trust	-2085
▁garden	-2086
▁nearly	-2087
▁public	-2088
▁january	-2089
▁station	-2090
ued	-2091
uel	-2092
umb	-2093
vent	-2094
▁gas	-2095
▁decl	-2096
▁frog	-2097
▁succ	-2098
terday	-2099
▁juice	-2100
▁august	-2101
▁become	-2102
▁members	-2103
▁replied	-2104
▁yesterday	-2105
bru	-2106
gar	-2107
ino	-2108
▁eh	-2109
ific	-2110
pper	-2111
▁band	-2112
▁euro	-2113
▁nine	-2114
▁cause	-2115
▁chief	-2116
▁clear	-2117
▁organ	-2118
▁shout	-2119
▁couple	-2120
▁engine	-2121
▁village	-2122
▁returned	-2123
att	-2124
car	-2125
erv	-2126
ris	-2127
▁ba	-2128
▁abs	-2129
▁pet	-2130
▁bang	-2131
▁honey	-2132
▁human	-2133
▁langu	-2134
▁cannot	-2135
▁charac	-2136
▁church	-2137
▁danger	-2138
▁excuse	-2139
▁former	-2140
▁parent	-2141
▁police	-2142
▁england	-2143
gu	-2144
ats	-2145
yed	-2146
ober	-2147
▁194	-2148
▁fit	-2149
▁mis	-2150
▁smo	-2151
▁shop	-2152
▁above	-2153
▁drive	-2154
▁needs	-2155
▁anyway	-2156
▁contro	-2157
▁british	-2158
▁happens	-2159
▁putting	-2160
▁reached	-2161
mit	-2162
▁du	-2163
alth	-2164
like	-2165
▁ham	-2166
▁hol	-2167
▁rom	-2168
▁arms	-2169
▁ship	-2170
▁tape	-2171
▁bright	-2172
▁office	-2173
▁chapter	-2174
▁pretend	-2175
▁quickly	-2176
bye	-2177
arch	-2178
hern	-2179
▁var	-2180
ality	-2181
wered	-2182
▁reco	-2183
▁stri	-2184
bruary	-2185
▁broken	-2186
▁nobody	-2187
▁proper	-2188
▁exactly	-2189
▁instead	-2190
lt	-2191
amb	-2192
con	-2193
oop	-2194
ray	-2195
▁low	-2196
ardon	-2197
vocal	-2198
▁2020	-2199
▁lord	-2200
▁slow	-2201
▁blood	-2202
▁third	-2203
▁longer	-2204
▁problem	-2205
▁although	-2206
▁television	-2207
8.	-2208
▁]	-2209
ato	-2210
gen	-2211
▁van	-2212
there	-2213
▁hosp	-2214
▁june	-2215
▁phil	-2216
▁pupp	-2217
▁sugg	-2218
▁billy	-2219
▁bread	-2220
▁lunch	-2221
▁terri	-2222
▁appear	-2223
▁butter	-2224
▁indeed	-2225
▁months	-2226
▁answered	-2227
▁everyone	-2228
▁february	-2229
rd	-2230
bur	-2231
ude	-2232
ager	-2233
port	-2234
▁den	-2235
▁pit	-2236
▁tig	-2237
▁cake	-2238
▁mama	-2239
▁mary	-2240
▁push	-2241
▁warm	-2242
▁hours	-2243
singing	-2244
▁caught	-2245
▁member	-2246
▁suggest	-2247
ustration	-2248
6,	-2249
ky	-2250
fer	-2251
▁et	-2252
ians	-2253
phan	-2254
▁jim	-2255
ently	-2256
▁snow	-2257
ground	-2258
▁report	-2259
▁single	-2260
▁anymore	-2261
▁million	-2262
▁teacher	-2263
▁standing	-2264
gue	-2265
ives	-2266
ract	-2267
▁ang	-2268
▁dav	-2269
▁equ	-2270
tered	-2271
▁clos	-2272
▁shot	-2273
friend	-2274
▁court	-2275
▁elect	-2276
▁shoes	-2277
▁space	-2278
▁diffic	-2279
11	-2280
uk	-2281
fch	-2282
ich	-2283
iny	-2284
rop	-2285
she	-2286
chen	-2287
hold	-2288
▁cop	-2289
▁dut	-2290
▁hen	-2291
▁pal	-2292
▁rad	-2293
▁val	-2294
▁wel	-2295
▁beat	-2296
▁test	-2297
▁favor	-2298
▁reach	-2299
▁truth	-2300
▁belong	-2301
▁hungry	-2302
▁pardon	-2303
▁passed	-2304
▁worked	-2305
▁clothes	-2306
▁develop	-2307
▁october	-2308
▁strange	-2309
▁december	-2310
▁following	-2311
od	-2312
uc	-2313
zy	-2314
ism	-2315
lie	-2316
iled	-2317
oops	-2318
ston	-2319
▁193	-2320
▁cau	-2321
▁spl	-2322
▁circ	-2323
▁enjo	-2324
▁mart	-2325
▁ride	-2326
▁tast	-2327
▁bottom	-2328
▁fellow	-2329
▁middle	-2330
▁places	-2331
▁within	-2332
▁changed	-2333
▁flowers	-2334
▁stopped	-2335
▁pictures	-2336
9.	-2337
cer	-2338
gas	-2339
▁13	-2340
noon	-2341
▁ber	-2342
▁kit	-2343
▁imag	-2344
▁moon	-2345
▁ahead	-2346
▁neigh	-2347
▁sense	-2348
▁stood	-2349
▁common	-2350
▁prison	-2351
▁success	-2352
▁supposed	-2353
▁exclaimed	-2354
▁‘	-2355
gie	-2356
iff	-2357
ura	-2358
aged	-2359
they	-2360
▁dat	-2361
▁tor	-2362
▁auth	-2363
▁dest	-2364
▁farm	-2365
▁rose	-2366
▁seem	-2367
▁glass	-2368
▁whose	-2369
ulation	-2370
▁anyone	-2371
▁player	-2372
▁feeling	-2373
▁holding	-2374
▁leaving	-2375
illustration	-2376
5.	-2377
7,	-2378
7.	-2379
bby	-2380
lex	-2381
▁cas	-2382
▁dam	-2383
▁esc	-2384
▁mor	-2385
▁fear	-2386
▁lift	-2387
▁paul	-2388
▁resp	-2389
▁sick	-2390
▁whom	-2391
▁colle	-2392
▁turns	-2393
▁figure	-2394
▁finish	-2395
▁giving	-2396
▁forward	-2397
4,	-2398
5,	-2399
oul	-2400
uct	-2401
▁vi	-2402
hael	-2403
▁amy	-2404
▁dan	-2405
▁sau	-2406
▁ver	-2407
▁effe	-2408
▁rain	-2409
▁swim	-2410
▁sight	-2411
▁disapp	-2412
▁perfect	-2413
▁written	-2414
▁hospital	-2415
▁afternoon	-2416
emy	-2417
sha	-2418
▁12	-2419
ndon	-2420
▁jud	-2421
▁rul	-2422
▁sky	-2423
night	-2424
ograp	-2425
▁prin	-2426
▁puts	-2427
▁race	-2428
▁heavy	-2429
▁using	-2430
▁opened	-2431
▁chicken	-2432
▁telling	-2433
▁appeared	-2434
▁building	-2435
sa	-2436
▁⌈	-2437
bor	-2438
fast	-2439
▁bom	-2440
▁spir	-2441
▁tail	-2442
▁accept	-2443
▁effect	-2444
▁europe	-2445
▁except	-2446
▁george	-2447
▁intern	-2448
▁support	-2449
▁released	-2450
▁certainly	-2451
'.	-2452
.'	-2453
sp	-2454
ils	-2455
aser	-2456
chan	-2457
▁los	-2458
▁stu	-2459
▁yep	-2460
▁cray	-2461
▁fail	-2462
▁hasn	-2463
▁pack	-2464
▁prop	-2465
▁spot	-2466
▁miles	-2467
▁works	-2468
▁author	-2469
▁beginning	-2470
▁somewhere	-2471
hel	-2472
iew	-2473
ott	-2474
iers	-2475
▁gri	-2476
ample	-2477
house	-2478
▁bank	-2479
▁kitt	-2480
▁mass	-2481
▁pink	-2482
▁afric	-2483
▁progr	-2484
ptember	-2485
▁spring	-2486
▁century	-2487
▁grandma	-2488
▁consider	-2489
nes	-2490
▁ur	-2491
▁cab	-2492
▁vol	-2493
▁burn	-2494
▁cand	-2495
▁fred	-2496
▁rabb	-2497
▁save	-2498
▁wide	-2499
▁hurry	-2500
▁knock	-2501
▁ought	-2502
▁london	-2503
▁remain	-2504
▁season	-2505
▁account	-2506
▁college	-2507
▁towards	-2508
▁washing	-2509
ium	-2510
used	-2511
▁dry	-2512
▁lab	-2513
▁moo	-2514
▁rob	-2515
ories	-2516
▁force	-2517
▁games	-2518
▁plate	-2519
▁plays	-2520
▁trees	-2521
▁inform	-2522
▁winter	-2523
▁council	-2524
▁parents	-2525
▁watching	-2526
▁breakfast	-2527
por	-2528
ral	-2529
▁jul	-2530
▁led	-2531
▁sol	-2532
▁ital	-2533
▁vide	-2534
▁view	-2535
▁added	-2536
▁stone	-2537
▁toward	-2538
▁meeting	-2539
▁complete	-2540
rel	-2541
whi	-2542
why	-2543
▁tv	-2544
ceed	-2545
gest	-2546
play	-2547
▁dev	-2548
▁ell	-2549
▁mem	-2550
▁rub	-2551
▁ted	-2552
▁thi	-2553
ament	-2554
ended	-2555
ushed	-2556
▁quar	-2557
▁requ	-2558
▁stat	-2559
ressed	-2560
▁coffe	-2561
▁dance	-2562
▁doubt	-2563
▁major	-2564
▁moved	-2565
▁teeth	-2566
▁tiger	-2567
▁further	-2568
▁service	-2569
▁position	-2570
▁suddenly	-2571
6.	-2572
ov	-2573
oon	-2574
ror	-2575
▁cy	-2576
▁ye	-2577
ades	-2578
ging	-2579
oint	-2580
▁net	-2581
▁tit	-2582
▁wol	-2583
▁agre	-2584
▁exam	-2585
▁feed	-2586
▁fill	-2587
▁july	-2588
▁spoke	-2589
▁weeks	-2590
▁cheese	-2591
▁leaves	-2592
▁pieces	-2593
▁distance	-2594
▁language	-2595
▁champions	-2596
▁september	-2597
▁themselves	-2598
,--	-2599
ech	-2600
ien	-2601
ped	-2602
ste	-2603
▁hy	-2604
aint	-2605
▁ate	-2606
▁bon	-2607
▁fat	-2608
▁fle	-2609
▁jer	-2610
▁loc	-2611
▁obs	-2612
▁hole	-2613
▁helen	-2614
▁likes	-2615
▁speed	-2616
▁perfor	-2617
▁anybody	-2618
▁kitchen	-2619
▁reading	-2620
▁upstairs	-2621
▁including	-2622
8,	-2623
ob	-2624
sk	-2625
▁$	-2626
uit	-2627
bers	-2628
gged	-2629
icip	-2630
▁mun	-2631
▁nic	-2632
clock	-2633
▁card	-2634
▁carl	-2635
▁conc	-2636
▁defe	-2637
▁drop	-2638
▁broke	-2639
▁harry	-2640
▁sharp	-2641
▁worth	-2642
▁bought	-2643
▁orange	-2644
▁thirty	-2645
▁america	-2646
▁convers	-2647
▁dropped	-2648
▁elephan	-2649
▁project	-2650
dom	-2651
ket	-2652
nds	-2653
ille	-2654
oura	-2655
ourn	-2656
▁dem	-2657
▁die	-2658
▁oop	-2659
▁pig	-2660
▁lock	-2661
▁neck	-2662
ounced	-2663
▁local	-2664
▁meant	-2665
▁pract	-2666
▁coffee	-2667
▁corner	-2668
▁fraser	-2669
▁commune	-2670
▁example	-2671
ba	-2672
lin	-2673
rer	-2674
▁fa	-2675
▁hig	-2676
▁key	-2677
▁ord	-2678
ician	-2679
▁cong	-2680
▁ears	-2681
▁mach	-2682
▁phot	-2683
▁shir	-2684
▁shut	-2685
estern	-2686
points	-2687
▁award	-2688
▁betty	-2689
▁health	-2690
▁michael	-2691
▁protect	-2692
▁received	-2693
▁difficult	-2694
__	-2695
af	-2696
ggy	-2697
ancy	-2698
illy	-2699
teen	-2700
▁alb	-2701
▁fed	-2702
▁ken	-2703
▁mod	-2704
▁rac	-2705
▁vir	-2706
▁base	-2707
▁twel	-2708
lished	-2709
▁below	-2710
▁cream	-2711
▁david	-2712
▁shoot	-2713
▁smell	-2714
▁straw	-2715
▁monkey	-2716
▁robert	-2717
▁attention	-2718
▁character	-2719
aur	-2720
can	-2721
▁mc	-2722
icks	-2723
name	-2724
ored	-2725
reat	-2726
▁sen	-2727
▁tot	-2728
▁wit	-2729
ously	-2730
▁film	-2731
▁lake	-2732
▁conne	-2733
▁wrote	-2734
▁descri	-2735
▁remark	-2736
▁collect	-2737
▁finally	-2738
het	-2739
ula	-2740
yal	-2741
▁16	-2742
empt	-2743
nded	-2744
ours	-2745
work	-2746
▁aut	-2747
▁yum	-2748
▁legs	-2749
▁pray	-2750
▁built	-2751
▁bunny	-2752
▁james	-2753
▁kitty	-2754
▁sheep	-2755
▁charge	-2756
▁compet	-2757
▁crying	-2758
▁driver	-2759
▁sunday	-2760
▁allowed	-2761
▁current	-2762
▁respect	-2763
bly	-2764
ids	-2765
ior	-2766
▁11	-2767
▁ze	-2768
hood	-2769
rupt	-2770
▁mal	-2771
epend	-2772
olute	-2773
▁busy	-2774
▁crow	-2775
▁tall	-2776
itions	-2777
▁apple	-2778
▁based	-2779
▁fifty	-2780
▁level	-2781
▁battle	-2782
▁bridge	-2783
▁famous	-2784
▁laughs	-2785
▁rising	-2786
▁popular	-2787
▁welcome	-2788
▁interesting	-2789
,'	-2790
rit	-2791
rom	-2792
eral	-2793
ghed	-2794
ison	-2795
just	-2796
▁anx	-2797
▁hun	-2798
▁wal	-2799
▁wha	-2800
ching	-2801
▁bull	-2802
▁hate	-2803
▁host	-2804
▁nort	-2805
▁situ	-2806
▁swit	-2807
▁tick	-2808
▁type	-2809
idence	-2810
▁canad	-2811
▁names	-2812
▁study	-2813
▁video	-2814
▁weren	-2815
▁forest	-2816
▁program	-2817
▁directed	-2818
▁surprise	-2819
▁population	-2820
▁information	-2821
iced	-2822
uten	-2823
▁eff	-2824
▁row	-2825
▁danc	-2826
▁educ	-2827
▁loud	-2828
▁vers	-2829
▁wake	-2830
▁grass	-2831
▁incre	-2832
▁lines	-2833
▁peace	-2834
▁babies	-2835
▁rabbit	-2836
▁recogn	-2837
▁seeing	-2838
▁carried	-2839
▁writing	-2840
▁independ	-2841
▁fu	-2842
anny	-2843
cell	-2844
then	-2845
▁aff	-2846
▁rev	-2847
▁wed	-2848
ified	-2849
iforn	-2850
▁capt	-2851
▁hide	-2852
▁none	-2853
▁prep	-2854
▁sant	-2855
▁carol	-2856
▁medic	-2857
▁stuck	-2858
▁union	-2859
ifornia	-2860
▁horses	-2861
▁invest	-2862
▁moving	-2863
▁silver	-2864
▁contain	-2865
▁germany	-2866
▁laughed	-2867
▁weather	-2868
▁laughing	-2869
▁wonderful	-2870
▁california	-2871
▁international	-2872
/0	-2873
cut	-2874
die	-2875
era	-2876
shi	-2877
▁ep	-2878
ault	-2879
izes	-2880
miss	-2881
pers	-2882
soci	-2883
whis	-2884
▁joy	-2885
▁rap	-2886
asion	-2887
ising	-2888
▁grew	-2889
▁puzz	-2890
▁sout	-2891
resent	-2892
▁blank	-2893
▁mouse	-2894
▁sandw	-2895
▁youth	-2896
▁animal	-2897
▁cookie	-2898
▁entire	-2899
▁delight	-2900
▁officer	-2901
▁conversation	-2902
ev	-2903
oe	-2904
sta	-2905
cing	-2906
this	-2907
▁dor	-2908
▁pil	-2909
field	-2910
isted	-2911
▁alex	-2912
▁ange	-2913
▁cell	-2914
▁birds	-2915
▁bobby	-2916
▁climb	-2917
▁picks	-2918
▁spoon	-2919
▁willi	-2920
▁associ	-2921
▁bigger	-2922
▁finger	-2923
▁pounds	-2924
▁starts	-2925
▁twelve	-2926
▁capital	-2927
▁explain	-2928
box	-2929
▁14	-2930
▁ca	-2931
leep	-2932
medi	-2933
omin	-2934
▁(19	-2935
▁ban	-2936
▁dun	-2937
▁poo	-2938
▁pun	-2939
▁sar	-2940
▁wet	-2941
noise	-2942
ology	-2943
▁cart	-2944
▁conv	-2945
▁eggs	-2946
▁rich	-2947
▁wash	-2948
▁beach	-2949
▁guard	-2950
▁holds	-2951
▁shape	-2952
▁pocket	-2953
▁accident	-2954
▁declared	-2955
▁personal	-2956
3,	-2957
fa	-2958
ais	-2959
kay	-2960
plo	-2961
zen	-2962
ency	-2963
ends	-2964
view	-2965
▁bal	-2966
▁dig	-2967
▁dir	-2968
▁div	-2969
▁fol	-2970
▁fut	-2971
▁jes	-2972
▁mac	-2973
▁mix	-2974
▁cens	-2975
▁hero	-2976
▁hous	-2977
▁leng	-2978
▁tony	-2979
▁ways	-2980
▁alive	-2981
▁event	-2982
▁loved	-2983
▁blocks	-2984
▁bottle	-2985
▁easter	-2986
▁flower	-2987
▁needed	-2988
▁spirit	-2989
▁unless	-2990
▁continued	-2991
▁mountains	-2992
9,	-2993
ago	-2994
isc	-2995
ums	-2996
who	-2997
zer	-2998
anor	-2999
ater	-3000
time	-3001
▁192	-3002
▁adm	-3003
▁aye	-3004
▁fox	-3005
▁mel	-3006
▁tou	-3007
astic	-3008
lling	-3009
ublic	-3010
▁cust	-3011
▁flat	-3012
▁gall	-3013
▁repe	-3014
▁sail	-3015
▁size	-3016
▁span	-3017
▁tear	-3018
▁micro	-3019
▁parts	-3020
▁store	-3021
▁wheel	-3022
ization	-3023
▁chocol	-3024
▁design	-3025
▁immedi	-3026
▁comfort	-3027
▁problems	-3028
bl	-3029
da	-3030
za	-3031
acy	-3032
ays	-3033
ita	-3034
nie	-3035
▁ox	-3036
lymp	-3037
pose	-3038
▁due	-3039
▁han	-3040
▁mir	-3041
antly	-3042
ashed	-3043
ement	-3044
riage	-3045
under	-3046
▁cous	-3047
▁norm	-3048
▁priv	-3049
▁whoa	-3050
ishing	-3051
olutely	-3052
▁comput	-3053
▁future	-3054
▁picked	-3055
▁scared	-3056
▁walked	-3057
▁control	-3058
▁created	-3059
▁fingers	-3060
▁mention	-3061
▁missing	-3062
▁minister	-3063
▁questions	-3064
▁represent	-3065
18	-3066
hoh	-3067
mie	-3068
xic	-3069
▁op	-3070
erve	-3071
yond	-3072
▁iss	-3073
▁nea	-3074
light	-3075
▁earn	-3076
▁soci	-3077
▁spec	-3078
▁thou	-3079
cially	-3080
▁liked	-3081
▁olymp	-3082
▁smile	-3083
▁tower	-3084
▁treat	-3085
▁woods	-3086
▁button	-3087
▁result	-3088
▁scream	-3089
▁slowly	-3090
▁turning	-3091
▁governor	-3092
▁original	-3093
▁republic	-3094
'?	-3095
fo	-3096
of	-3097
▁)	-3098
ius	-3099
aker	-3100
outs	-3101
▁gro	-3102
inite	-3103
oured	-3104
pered	-3105
ument	-3106
▁fool	-3107
▁gift	-3108
▁scar	-3109
▁soul	-3110
▁uhoh	-3111
ording	-3112
ounded	-3113
▁broad	-3114
▁faith	-3115
▁gives	-3116
▁louis	-3117
▁oppos	-3118
▁polic	-3119
▁stars	-3120
▁asking	-3121
▁asleep	-3122
▁hiding	-3123
▁league	-3124
▁attempt	-3125
▁charles	-3126
▁letters	-3127
▁municip	-3128
▁shouldn	-3129
▁elephant	-3130
▁province	-3131
▁announced	-3132
▁direction	-3133
▁interested	-3134
ca	-3135
yn	-3136
kin	-3137
rid	-3138
yle	-3139
▁ir	-3140
ashi	-3141
omes	-3142
puts	-3143
resh	-3144
▁lap	-3145
▁rid	-3146
dered	-3147
essie	-3148
gasps	-3149
itive	-3150
itted	-3151
order	-3152
▁acqu	-3153
▁coat	-3154
▁lose	-3155
▁crazy	-3156
▁queen	-3157
▁taste	-3158
cessary	-3159
▁maggie	-3160
▁needta	-3161
▁arrived	-3162
▁covered	-3163
▁opening	-3164
▁promise	-3165
▁walking	-3166
▁profession	-3167
gl	-3168
pa	-3169
phi	-3170
sen	-3171
set	-3172
▁("	-3173
▁ti	-3174
ival	-3175
reek	-3176
▁boo	-3177
▁civ	-3178
▁lem	-3179
▁mam	-3180
▁sli	-3181
▁sna	-3182
▁sue	-3183
▁tax	-3184
berry	-3185
chard	-3186
iment	-3187
looks	-3188
olved	-3189
▁prev	-3190
▁rail	-3191
▁runs	-3192
▁self	-3193
uckles	-3194
▁adult	-3195
▁clock	-3196
▁crack	-3197
▁laura	-3198
▁lower	-3199
▁paint	-3200
▁perio	-3201
ination	-3202
▁basket	-3203
▁beyond	-3204
▁circle	-3205
▁closed	-3206
▁fright	-3207
▁leader	-3208
▁mostly	-3209
▁showed	-3210
▁simple	-3211
▁social	-3212
▁discuss	-3213
▁driving	-3214
▁machine	-3215
▁serious	-3216
▁pleasant	-3217
▁chocolate	-3218
▁happening	-3219
._	-3220
_,	-3221
cts	-3222
ica	-3223
igg	-3224
▁..	-3225
reme	-3226
rodu	-3227
wood	-3228
▁191	-3229
▁ble	-3230
▁din	-3231
▁enc	-3232
▁glo	-3233
▁inf	-3234
▁lid	-3235
▁nap	-3236
asure	-3237
ledge	-3238
verse	-3239
ville	-3240
▁cult	-3241
▁demo	-3242
▁huge	-3243
▁paid	-3244
▁pill	-3245
▁roof	-3246
▁austr	-3247
▁bless	-3248
▁falls	-3249
▁india	-3250
▁spell	-3251
▁tight	-3252
olution	-3253
▁census	-3254
▁clever	-3255
▁likely	-3256
▁nature	-3257
▁pulled	-3258
▁bedroom	-3259
▁drawing	-3260
▁eleanor	-3261
▁kingdom	-3262
▁numbers	-3263
▁favorite	-3264
▁situation	-3265
gs	-3266
tw	-3267
tur	-3268
▁30	-3269
▁ii	-3270
▁ant	-3271
▁cro	-3272
▁fem	-3273
▁lin	-3274
▁pan	-3275
board	-3276
▁curi	-3277
▁laid	-3278
▁trip	-3279
father	-3280
▁apart	-3281
▁earli	-3282
▁extra	-3283
▁forty	-3284
▁jesus	-3285
▁plane	-3286
▁roman	-3287
▁shirt	-3288
▁agreed	-3289
▁caused	-3290
▁center	-3291
▁regard	-3292
▁spread	-3293
▁square	-3294
▁austral	-3295
▁monster	-3296
▁reaches	-3297
▁subject	-3298
▁watched	-3299
▁wearing	-3300
▁apparent	-3301
▁followed	-3302
▁soldiers	-3303
▁forgotten	-3304
▁absolutely	-3305
▁background	-3306
▁⌊	-3307
ask	-3308
fad	-3309
har	-3310
omp	-3311
▁yo	-3312
...?	-3313
aled	-3314
elly	-3315
▁aud	-3316
▁max	-3317
▁pow	-3318
▁ski	-3319
▁ves	-3320
essor	-3321
▁crew	-3322
▁espe	-3323
▁hadn	-3324
▁path	-3325
▁sett	-3326
▁suff	-3327
▁suit	-3328
▁thro	-3329
▁begin	-3330
▁civil	-3331
▁scene	-3332
▁share	-3333
▁shows	-3334
▁sugar	-3335
▁teddy	-3336
▁advent	-3337
▁flying	-3338
▁joined	-3339
▁missed	-3340
▁prince	-3341
▁steven	-3342
▁besides	-3343
▁learned	-3344
▁natural	-3345
▁silence	-3346
▁singing	-3347
▁western	-3348
▁speaking	-3349
▁gentleman	-3350
▁therefore	-3351
ae	-3352
ax	-3353
kn	-3354
oc	-3355
⌉.	-3356
▁→	-3357
bit	-3358
eds	-3359
hin	-3360
ume	-3361
aven	-3362
ning	-3363
▁emb	-3364
▁jen	-3365
▁pir	-3366
▁tow	-3367
hered	-3368
itude	-3369
▁bark	-3370
▁bert	-3371
▁blow	-3372
▁desp	-3373
▁gate	-3374
▁kick	-3375
▁rese	-3376
▁thus	-3377
▁tiny	-3378
▁bound	-3379
▁cheer	-3380
▁decis	-3381
▁match	-3382
▁plain	-3383
▁plant	-3384
▁silly	-3385
▁spain	-3386
▁stage	-3387
utenant	-3388
▁africa	-3389
▁escape	-3390
▁itself	-3391
▁manage	-3392
▁monday	-3393
▁period	-3394
▁vessel	-3395
--------	-3396
▁calling	-3397
▁central	-3398
▁correct	-3399
▁imagine	-3400
▁respons	-3401
▁computer	-3402
▁medicine	-3403
▁according	-3404
▁continues	-3405
")	-3406
ads	-3407
cky	-3408
flu	-3409
isf	-3410
mus	-3411
uce	-3412
yer	-3413
oose	-3414
ship	-3415
▁arr	-3416
▁nar	-3417
▁rat	-3418
▁spr	-3419
▁und	-3420
itary	-3421
▁anne	-3422
▁calm	-3423
▁cars	-3424
▁deli	-3425
▁jane	-3426
▁nick	-3427
▁remo	-3428
▁stan	-3429
▁term	-3430
▁tone	-3431
ctions	-3432
ration	-3433
▁activ	-3434
▁dolly	-3435
▁ended	-3436
▁honor	-3437
▁lying	-3438
▁satur	-3439
▁smart	-3440
▁trave	-3441
▁utter	-3442
▁action	-3443
▁crayon	-3444
▁detect	-3445
▁easily	-3446
▁handle	-3447
▁length	-3448
▁placed	-3449
▁temper	-3450
▁victim	-3451
▁meaning	-3452
▁purpose	-3453
▁russian	-3454
▁fighting	-3455
▁prepared	-3456
▁washington	-3457
▁professional	-3458
su	-3459
lyn	-3460
ole	-3461
oss	-3462
ugg	-3463
▁(2	-3464
▁av	-3465
▁bi	-3466
▁mi	-3467
aded	-3468
chie	-3469
ette	-3470
line	-3471
ples	-3472
reen	-3473
sigh	-3474
▁exe	-3475
▁mov	-3476
▁scr	-3477
anced	-3478
ander	-3479
sings	-3480
▁beha	-3481
▁comb	-3482
▁dust	-3483
▁join	-3484
▁jwww	-3485
▁meal	-3486
▁oops	-3487
▁viol	-3488
▁enemy	-3489
▁enjoy	-3490
▁holid	-3491
▁moves	-3492
▁plann	-3493
▁shown	-3494
▁title	-3495
▁beside	-3496
▁camera	-3497
▁colors	-3498
▁search	-3499
▁singer	-3500
▁slight	-3501
▁speech	-3502
▁talked	-3503
▁charlie	-3504
▁include	-3505
▁keeping	-3506
▁division	-3507
▁japanese	-3508
▁occasion	-3509
▁terrible	-3510
▁especially	-3511
▁lieutenant	-3512
▁particular	-3513
gi	-3514
tr	-3515
aps	-3516
aud	-3517
bes	-3518
cul	-3519
den	-3520
ena	-3521
ker	-3522
▁--	-3523
▁1,	-3524
▁pi	-3525
▁bor	-3526
▁doc	-3527
▁env	-3528
▁lee	-3529
▁mut	-3530
▁nur	-3531
▁tal	-3532
alley	-3533
conom	-3534
ially	-3535
▁chat	-3536
▁drew	-3537
▁jour	-3538
▁meat	-3539
▁papa	-3540
▁stro	-3541
▁brush	-3542
▁calls	-3543
▁coast	-3544
▁lucky	-3545
▁paris	-3546
▁radio	-3547
▁scott	-3548
▁simil	-3549
▁smith	-3550
▁smoke	-3551
▁spent	-3552
▁centre	-3553
▁destro	-3554
▁hardly	-3555
▁ladies	-3556
▁plenty	-3557
▁thinks	-3558
▁whoops	-3559
▁founded	-3560
▁pleasure	-3561
▁dangerous	-3562
▁surprised	-3563
▁discovered	-3564
ki	-3565
erp	-3566
lls	-3567
▁25	-3568
berg	-3569
cles	-3570
fill	-3571
itar	-3572
omer	-3573
west	-3574
▁amb	-3575
▁ide	-3576
▁obv	-3577
▁piz	-3578
oming	-3579
ption	-3580
▁bite	-3581
▁carr	-3582
▁flag	-3583
▁rank	-3584
▁reve	-3585
▁shoe	-3586
ularly	-3587
▁angry	-3588
▁democ	-3589
▁final	-3590
▁forth	-3591
▁fresh	-3592
▁grant	-3593
▁older	-3594
▁saint	-3595
▁separ	-3596
▁shake	-3597
▁songs	-3598
▁spend	-3599
ference	-3600
▁econom	-3601
▁excell	-3602
▁honest	-3603
▁lights	-3604
▁travel	-3605
▁election	-3606
▁starting	-3607
▁countries	-3608
▁professor	-3609
▁immediately	-3610
mn	-3611
▁&	-3612
▁q	-3613
edy	-3614
iel	-3615
mat	-3616
pal	-3617
rie	-3618
▁oo	-3619
burg	-3620
▁fer	-3621
▁reb	-3622
▁tab	-3623
▁wag	-3624
▁wid	-3625
asons	-3626
erved	-3627
inary	-3628
ingly	-3629
picks	-3630
plane	-3631
takes	-3632
▁amaz	-3633
▁chem	-3634
▁firm	-3635
▁guns	-3636
▁horn	-3637
▁kore	-3638
▁offe	-3639
▁sens	-3640
▁sits	-3641
▁surf	-3642
▁tend	-3643
lected	-3644
ushing	-3645
▁cloud	-3646
▁heads	-3647
▁refer	-3648
▁royal	-3649
▁assist	-3650
▁breath	-3651
▁castle	-3652
▁naught	-3653
▁notice	-3654
▁potato	-3655
▁puppet	-3656
▁satisf	-3657
▁served	-3658
▁settle	-3659
▁sports	-3660
▁entered	-3661
▁excited	-3662
▁falling	-3663
▁richard	-3664
▁science	-3665
▁smiling	-3666
▁various	-3667
▁northern	-3668
▁sandwich	-3669
▁swimming	-3670
▁interrupt	-3671
▁everywhere	-3672
ju	-3673
bre	-3674
gon	-3675
hal	-3676
ili	-3677
ird	-3678
nel	-3679
ode	-3680
▁24	-3681
▁iv	-3682
▁uk	-3683
▁dim	-3684
▁san	-3685
▁thy	-3686
▁wis	-3687
aches	-3688
ences	-3689
istan	-3690
▁adam	-3691
▁anna	-3692
▁aust	-3693
▁dare	-3694
▁date	-3695
▁edge	-3696
▁goin	-3697
▁haha	-3698
▁peas	-3699
▁wolf	-3700
ounter	-3701
▁album	-3702
▁buddy	-3703
▁cases	-3704
▁estab	-3705
▁fault	-3706
▁henry	-3707
▁impro	-3708
▁slide	-3709
▁twice	-3710
▁whist	-3711
▁cousin	-3712
▁demand	-3713
▁heaven	-3714
▁memory	-3715
▁murder	-3716
laughing	-3717
▁address	-3718
▁concern	-3719
▁illustr	-3720
▁knowing	-3721
▁pleased	-3722
▁process	-3723
▁definite	-3724
▁saturday	-3725
▁southern	-3726
▁community	-3727
▁knowledge	-3728
▁ourselves	-3729
▁independent	-3730
aff	-3731
chn	-3732
gro	-3733
hol	-3734
off	-3735
old	-3736
ugs	-3737
wor	-3738
▁29	-3739
aper	-3740
bles	-3741
▁ara	-3742
▁bee	-3743
▁eve	-3744
▁jam	-3745
▁kat	-3746
▁vac	-3747
▁wil	-3748
acing	-3749
sighs	-3750
ushes	-3751
▁2018	-3752
▁bowl	-3753
▁chic	-3754
▁crit	-3755
▁duty	-3756
▁iron	-3757
▁wand	-3758
istics	-3759
▁crowd	-3760
▁influ	-3761
▁mexic	-3762
▁moder	-3763
▁occup	-3764
▁occur	-3765
▁offer	-3766
▁roger	-3767
▁storm	-3768
▁swing	-3769
▁walks	-3770
▁worse	-3771
sidered	-3772
▁formed	-3773
▁papers	-3774
▁taught	-3775
▁weight	-3776
▁dollars	-3777
▁finding	-3778
▁located	-3779
▁message	-3780
▁naughty	-3781
▁stories	-3782
▁windows	-3783
▁worried	-3784
▁bathroom	-3785
▁expected	-3786
▁official	-3787
▁shoulder	-3788
▁political	-3789
▁considered	-3790
▁politician	-3791
10	-3792
ga	-3793
lv	-3794
cra	-3795
eer	-3796
isy	-3797
lli	-3798
mes	-3799
▁28	-3800
▁ly	-3801
back	-3802
ggie	-3803
mark	-3804
oned	-3805
pens	-3806
rish	-3807
will	-3808
with	-3809
▁100	-3810
▁pra	-3811
bered	-3812
heart	-3813
oughs	-3814
sible	-3815
▁deck	-3816
▁dogs	-3817
▁evil	-3818
▁muse	-3819
▁nerv	-3820
▁note	-3821
▁tong	-3822
▁trad	-3823
action	-3824
▁brief	-3825
▁cabin	-3826
▁dozen	-3827
▁empty	-3828
▁hotel	-3829
▁impos	-3830
▁liter	-3831
▁model	-3832
▁rocks	-3833
▁rules	-3834
▁santa	-3835
▁saved	-3836
▁steps	-3837
▁tells	-3838
looking	-3839
ruction	-3840
▁amount	-3841
▁caterp	-3842
▁choose	-3843
▁flight	-3844
▁fourth	-3845
▁golden	-3846
▁helped	-3847
▁histor	-3848
▁market	-3849
▁movies	-3850
▁committ	-3851
▁formula	-3852
▁players	-3853
▁similar	-3854
▁society	-3855
▁spanish	-3856
▁director	-3857
▁drinking	-3858
▁investig	-3859
▁apparently	-3860
▁championship	-3861
▁municipality	-3862
.,	-3863
ja	-3864
wa	-3865
ari	-3866
ida	-3867
lla	-3868
ope	-3869
ota	-3870
sil	-3871
▁au	-3872
▁tu	-3873
atic	-3874
rely	-3875
rows	-3876
wing	-3877
▁bac	-3878
▁bay	-3879
▁duh	-3880
▁jon	-3881
▁ros	-3882
ached	-3883
▁acad	-3884
▁dick	-3885
▁doin	-3886
▁fran	-3887
▁jose	-3888
▁lara	-3889
▁pier	-3890
▁swed	-3891
ourage	-3892
▁crash	-3893
▁dirty	-3894
▁eager	-3895
▁judge	-3896
▁squir	-3897
▁stock	-3898
▁terms	-3899
ography	-3900
▁batter	-3901
▁fallen	-3902
▁martin	-3903
▁neighb	-3904
▁plants	-3905
▁spider	-3906
chuckles	-3907
▁appoint	-3908
▁blanket	-3909
▁earlier	-3910
▁largest	-3911
▁noticed	-3912
▁airplane	-3913
▁decision	-3914
▁goodness	-3915
▁military	-3916
▁officers	-3917
▁pressure	-3918
▁caterpill	-3919
▁education	-3920
▁gentlemen	-3921
▁published	-3922
▁appearance	-3923
▁microphone	-3924
2)	-3925
▁’	-3926
aft	-3927
ife	-3928
sey	-3929
sib	-3930
soa	-3931
ably	-3932
book	-3933
cked	-3934
iles	-3935
ivid	-3936
when	-3937
▁(20	-3938
▁jew	-3939
▁kim	-3940
▁non	-3941
▁sav	-3942
▁sex	-3943
erson	-3944
unity	-3945
▁barb	-3946
▁bart	-3947
▁bisc	-3948
▁boss	-3949
▁craw	-3950
▁desk	-3951
▁dise	-3952
▁epis	-3953
▁flor	-3954
▁gang	-3955
▁knee	-3956
▁opin	-3957
▁sell	-3958
▁weak	-3959
ndered	-3960
▁dread	-3961
▁pause	-3962
▁plans	-3963
▁range	-3964
▁rapid	-3965
▁techn	-3966
▁toast	-3967
▁total	-3968
▁tract	-3969
▁trade	-3970
▁arrest	-3971
▁double	-3972
▁higher	-3973
▁mister	-3974
▁motion	-3975
▁orders	-3976
▁raised	-3977
▁sevent	-3978
▁anxious	-3979
▁changes	-3980
▁dancing	-3981
▁fellows	-3982
▁introdu	-3983
▁journey	-3984
▁percent	-3985
▁sleeping	-3986
▁completely	-3987
▁difference	-3988
ko	-3989
sm	-3990
wh	-3991
wr	-3992
arm	-3993
bra	-3994
fly	-3995
▁[.	-3996
cast	-3997
oups	-3998
over	-3999
▁der	-4000
▁gaz	-4001
▁rod	-4002
▁sac	-4003
▁som	-4004
▁tam	-4005
▁tap	-4006
antic	-4007
cious	-4008
cries	-4009
iding	-4010
known	-4011
nding	-4012
sters	-4013
urity	-4014
▁fant	-4015
▁lion	-4016
▁nest	-4017
▁onto	-4018
▁peek	-4019
▁pool	-4020
▁site	-4021
ashing	-4022
icated	-4023
tering	-4024
▁actor	-4025
▁anton	-4026
▁breat	-4027
▁grown	-4028
▁magic	-4029
▁nurse	-4030
▁proud	-4031
▁sport	-4032
▁vocal	-4033
ression	-4034
▁bonnet	-4035
▁choice	-4036
▁farmer	-4037
▁guitar	-4038
▁houses	-4039
▁princi	-4040
▁promot	-4041
▁struck	-4042
▁actress	-4043
▁chicago	-4044
▁neither	-4045
▁quietly	-4046
vocalizes	-4047
▁believed	-4048
▁continue	-4049
▁neighbor	-4050
▁christian	-4051
▁necessary	-4052
▁telephone	-4053
▁wondering	-4054
▁afterwards	-4055
▁downstairs	-4056
▁statistics	-4057
]!	-4058
ez	-4059
mr	-4060
tt	-4061
any	-4062
asp	-4063
cat	-4064
hys	-4065
may	-4066
oms	-4067
ply	-4068
rif	-4069
▁1.	-4070
anch	-4071
dies	-4072
inct	-4073
iron	-4074
kers	-4075
tles	-4076
▁blo	-4077
▁bul	-4078
▁doo	-4079
▁eld	-4080
▁fra	-4081
▁mud	-4082
▁pic	-4083
▁tex	-4084
▁tum	-4085
ordon	-4086
▁bump	-4087
▁dish	-4088
▁emer	-4089
▁pair	-4090
▁role	-4091
▁skin	-4092
▁surr	-4093
▁tool	-4094
▁wise	-4095
atures	-4096
▁admin	-4097
▁blind	-4098
▁boots	-4099
▁emplo	-4100
▁grace	-4101
▁italy	-4102
▁kinda	-4103
▁quack	-4104
▁relie	-4105
▁remem	-4106
▁stren	-4107
▁thick	-4108
brother	-4109
▁begins	-4110
▁buried	-4111
▁detail	-4112
▁empire	-4113
▁female	-4114
▁friday	-4115
▁groups	-4116
▁indust	-4117
▁opport	-4118
▁puzzle	-4119
▁softly	-4120
▁throat	-4121
▁constit	-4122
▁contact	-4123
▁hanging	-4124
▁mistake	-4125
▁patient	-4126
▁seconds	-4127
▁settled	-4128
▁suspect	-4129
▁william	-4130
▁chairman	-4131
▁possibly	-4132
▁excellent	-4133
▁obviously	-4134
▁suggested	-4135
▁association	-4136
12	-4137
16	-4138
30	-4139
pr	-4140
-19	-4141
cus	-4142
did	-4143
ela	-4144
new	-4145
pic	-4146
good	-4147
gypt	-4148
hest	-4149
itor	-4150
lled	-4151
onel	-4152
ucky	-4153
▁gal	-4154
▁gay	-4155
▁imm	-4156
▁jos	-4157
▁shr	-4158
▁tha	-4159
aling	-4160
aning	-4161
ators	-4162
cient	-4163
gress	-4164
izing	-4165
osaur	-4166
ppers	-4167
▁aged	-4168
▁aver	-4169
▁bits	-4170
▁cere	-4171
▁cups	-4172
▁fest	-4173
▁hast	-4174
▁mike	-4175
▁penn	-4176
▁rand	-4177
▁shan	-4178
▁text	-4179
▁wine	-4180
calais	-4181
ceeded	-4182
▁china	-4183
▁drama	-4184
▁eaten	-4185
▁egypt	-4186
▁julia	-4187
▁metal	-4188
▁pizza	-4189
▁snake	-4190
▁teach	-4191
▁tries	-4192
▁circum	-4193
▁larger	-4194
▁manner	-4195
▁purple	-4196
▁smiled	-4197
▁dressed	-4198
▁offered	-4199
▁opinion	-4200
▁quarter	-4201
▁showing	-4202
▁species	-4203
▁version	-4204
▁younger	-4205
▁democrat	-4206
▁includes	-4207
▁marriage	-4208
▁security	-4209
▁committee	-4210
▁generally	-4211
▁perfectly	-4212
▁secretary	-4213
ji	-4214
ban	-4215
ero	-4216
fle	-4217
lle	-4218
nic	-4219
pet	-4220
vey	-4221
zil	-4222
▁()	-4223
▁[?	-4224
▁ni	-4225
0000	-4226
abel	-4227
eman	-4228
eted	-4229
illa	-4230
ites	-4231
uits	-4232
wise	-4233
▁[1.	-4234
▁arg	-4235
▁fan	-4236
▁pin	-4237
▁psy	-4238
ening	-4239
eping	-4240
ively	-4241
music	-4242
stood	-4243
▁2021	-4244
▁bare	-4245
▁beep	-4246
▁bern	-4247
▁gray	-4248
▁leaf	-4249
▁nurs	-4250
▁rang	-4251
▁rate	-4252
▁rice	-4253
▁rule	-4254
▁saus	-4255
▁sour	-4256
▁thin	-4257
iction	-4258
▁agree	-4259
▁areas	-4260
▁delic	-4261
▁deter	-4262
▁freed	-4263
▁ident	-4264
▁novel	-4265
▁price	-4266
▁prize	-4267
▁pulls	-4268
▁relig	-4269
▁shift	-4270
▁tears	-4271
▁trail	-4272
ication	-4273
▁bessie	-4274
▁fortun	-4275
▁joseph	-4276
▁landed	-4277
▁threat	-4278
▁wheels	-4279
▁writer	-4280
▁attract	-4281
▁environ	-4282
▁extreme	-4283
▁fifteen	-4284
▁growing	-4285
▁islands	-4286
▁leading	-4287
▁nervous	-4288
▁retired	-4289
▁streets	-4290
▁administ	-4291
▁brothers	-4292
▁opposite	-4293
▁painting	-4294
▁mentioned	-4295
▁development	-4296
di	-4297
va	-4298
--"	-4299
bel	-4300
ere	-4301
ify	-4302
law	-4303
nce	-4304
ppy	-4305
rey	-4306
rus	-4307
▁[5	-4308
ases	-4309
ckey	-4310
fall	-4311
foot	-4312
lebr	-4313
rian	-4314
vert	-4315
▁cit	-4316
▁fif	-4317
▁mas	-4318
▁ned	-4319
▁pau	-4320
▁sis	-4321
▁suc	-4322
▁tie	-4323
▁yup	-4324
ented	-4325
gging	-4326
rying	-4327
▁barn	-4328
▁hell	-4329
▁inqu	-4330
▁jean	-4331
▁mont	-4332
▁pour	-4333
▁ward	-4334
▁brain	-4335
▁dolls	-4336
▁doors	-4337
▁emper	-4338
▁faces	-4339
▁fruit	-4340
▁guest	-4341
▁keeps	-4342
▁loves	-4343
▁motor	-4344
▁sarah	-4345
▁shook	-4346
▁teams	-4347
chester	-4348
counter	-4349
▁bother	-4350
▁branch	-4351
▁celebr	-4352
▁compos	-4353
▁corpor	-4354
▁edward	-4355
▁gordon	-4356
▁jumped	-4357
▁normal	-4358
▁signal	-4359
▁simply	-4360
▁stairs	-4361
▁stream	-4362
▁streng	-4363
▁supper	-4364
▁valley	-4365
▁virgin	-4366
▁voices	-4367
▁colonel	-4368
▁cooking	-4369
▁indians	-4370
▁private	-4371
▁shouted	-4372
▁movement	-4373
▁promised	-4374
▁apartment	-4375
▁commander	-4376
▁distribut	-4377
▁explained	-4378
▁listening	-4379
▁definitely	-4380
▁impossible	-4381
▁environment	-4382
▁opportunity	-4383
hod	-4384
ini	-4385
jam	-4386
jen	-4387
jes	-4388
pos	-4389
||0	-4390
▁[2	-4391
▁na	-4392
▁si	-4393
____	-4394
ania	-4395
iety	-4396
quar	-4397
semb	-4398
turn	-4399
▁cru	-4400
▁hay	-4401
▁hug	-4402
▁ign	-4403
▁inj	-4404
▁inn	-4405
▁nav	-4406
▁oli	-4407
▁ven	-4408
▁yay	-4409
inese	-4410
rance	-4411
▁arab	-4412
▁ener	-4413
▁fold	-4414
▁hind	-4415
▁holy	-4416
▁ladd	-4417
▁laws	-4418
▁lips	-4419
▁magn	-4420
▁nope	-4421
▁plat	-4422
▁shel	-4423
▁sigh	-4424
▁thee	-4425
▁tour	-4426
▁uhuh	-4427
▁uses	-4428
ension	-4429
isters	-4430
▁achie	-4431
▁awful	-4432
▁cheek	-4433
▁debut	-4434
▁exist	-4435
▁fixed	-4436
▁folks	-4437
▁frequ	-4438
▁giant	-4439
▁medal	-4440
▁rough	-4441
▁scrat	-4442
▁shore	-4443
▁sixty	-4444
▁steve	-4445
▁usual	-4446
▁advice	-4447
▁artist	-4448
▁create	-4449
▁desert	-4450
▁dreams	-4451
▁gather	-4452
▁lawyer	-4453
▁modern	-4454
▁museum	-4455
▁prefer	-4456
▁purdie	-4457
▁spoken	-4458
▁tongue	-4459
▁academy	-4460
▁curtain	-4461
▁disease	-4462
▁goodbye	-4463
▁managed	-4464
▁request	-4465
▁studied	-4466
▁anywhere	-4467
▁canadian	-4468
▁positive	-4469
▁princess	-4470
▁remarked	-4471
▁shopping	-4472
▁carefully	-4473
▁grandmother	-4474
"]	-4475
',	-4476
3]	-4477
mu	-4478
sn	-4479
00,	-4480
ado	-4481
arr	-4482
str	-4483
bing	-4484
char	-4485
esty	-4486
pret	-4487
raph	-4488
▁ast	-4489
▁hmm	-4490
▁jun	-4491
▁les	-4492
▁lim	-4493
▁lor	-4494
▁neg	-4495
▁pas	-4496
▁ram	-4497
ridge	-4498
▁bomb	-4499
▁brad	-4500
▁cute	-4501
▁keys	-4502
▁mail	-4503
▁mate	-4504
▁matt	-4505
▁mort	-4506
▁robb	-4507
▁scot	-4508
▁tank	-4509
▁vote	-4510
▁avail	-4511
▁brave	-4512
▁chris	-4513
▁clown	-4514
▁franc	-4515
▁fully	-4516
▁magaz	-4517
▁mayor	-4518
▁polly	-4519
▁rings	-4520
▁stret	-4521
▁weeke	-4522
▁wings	-4523
▁cities	-4524
▁doggie	-4525
▁intell	-4526
▁latter	-4527
▁myster	-4528
▁russia	-4529
▁stands	-4530
▁struct	-4531
▁channel	-4532
▁clearly	-4533
▁figures	-4534
▁helping	-4535
▁holiday	-4536
▁smaller	-4537
▁caroline	-4538
▁constant	-4539
▁european	-4540
▁feelings	-4541
▁involved	-4542
▁produced	-4543
▁developed	-4544
▁performan	-4545
▁production	-4546
▁understood	-4547
je	-4548
ada	-4549
bet	-4550
ele	-4551
hah	-4552
ila	-4553
mic	-4554
ria	-4555
roz	-4556
sar	-4557
▁3,	-4558
acks	-4559
etch	-4560
kins	-4561
nods	-4562
onse	-4563
owed	-4564
sure	-4565
▁bin	-4566
▁odd	-4567
▁pha	-4568
▁saf	-4569
▁tar	-4570
▁tel	-4571
craft	-4572
omach	-4573
▁cred	-4574
▁exer	-4575
▁gain	-4576
▁harm	-4577
▁poss	-4578
▁pump	-4579
▁qual	-4580
▁ross	-4581
▁stir	-4582
ending	-4583
▁forms	-4584
▁grave	-4585
▁jerry	-4586
▁knife	-4587
▁merry	-4588
▁mixed	-4589
▁pengu	-4590
▁phili	-4591
▁sword	-4592
▁threw	-4593
▁tough	-4594
▁assemb	-4595
▁closer	-4596
▁events	-4597
▁execut	-4598
▁filled	-4599
▁magnet	-4600
▁remind	-4601
▁waited	-4602
vocalize	-4603
whispers	-4604
▁average	-4605
▁chinese	-4606
▁curious	-4607
▁eastern	-4608
▁emperor	-4609
▁federal	-4610
▁fishing	-4611
▁justice	-4612
▁prevent	-4613
▁realize	-4614
▁sixteen	-4615
▁stomach	-4616
▁witness	-4617
▁greatest	-4618
▁included	-4619
▁remained	-4620
▁repeated	-4621
▁research	-4622
▁strength	-4623
▁training	-4624
▁whiskers	-4625
▁australia	-4626
▁condition	-4627
▁whispered	-4628
▁disappoint	-4629
▁experience	-4630
▁frightened	-4631
▁successful	-4632
3)	-4633
cel	-4634
inc	-4635
lor	-4636
mun	-4637
non	-4638
reg	-4639
rum	-4640
sit	-4641
two	-4642
vid	-4643
aked	-4644
cise	-4645
cont	-4646
lend	-4647
mond	-4648
umph	-4649
▁ali	-4650
▁deg	-4651
▁fal	-4652
▁gor	-4653
▁haw	-4654
▁iii	-4655
▁jac	-4656
▁kar	-4657
▁lis	-4658
▁log	-4659
▁pak	-4660
▁ron	-4661
▁sov	-4662
▁vic	-4663
▁woo	-4664
eding	-4665
neath	-4666
paper	-4667
peter	-4668
point	-4669
while	-4670
▁2016	-4671
▁andy	-4672
▁arth	-4673
▁heat	-4674
▁hunt	-4675
▁maid	-4676
▁mult	-4677
▁risk	-4678
▁sake	-4679
▁salt	-4680
▁shad	-4681
▁symp	-4682
▁toil	-4683
▁aware	-4684
▁charl	-4685
▁cliff	-4686
▁drown	-4687
▁fancy	-4688
▁fashi	-4689
▁feels	-4690
▁fired	-4691
▁goals	-4692
▁irish	-4693
▁kinds	-4694
▁pilot	-4695
▁reply	-4696
▁respo	-4697
▁shops	-4698
▁sides	-4699
▁texas	-4700
▁trick	-4701
▁worst	-4702
ishment	-4703
▁access	-4704
▁accomp	-4705
▁borrow	-4706
▁brazil	-4707
▁canada	-4708
▁colour	-4709
▁failed	-4710
▁horsie	-4711
▁locked	-4712
▁matthe	-4713
▁pencil	-4714
▁pirate	-4715
▁planet	-4716
▁priest	-4717
▁surely	-4718
▁tomato	-4719
▁troops	-4720
▁affairs	-4721
▁ancient	-4722
▁belongs	-4723
▁fireman	-4724
▁forgive	-4725
▁instant	-4726
▁italian	-4727
▁nursery	-4728
▁picking	-4729
▁postman	-4730
▁release	-4731
▁surface	-4732
▁tractor	-4733
▁weekend	-4734
▁discover	-4735
▁evidence	-4736
▁olympics	-4737
▁response	-4738
▁shouting	-4739
▁stranger	-4740
▁students	-4741
▁authority	-4742
▁companion	-4743
▁firstname	-4744
▁transport	-4745
▁remembered	-4746
▁revolution	-4747
▁caterpillar	-4748
,’	-4749
/2	-4750
aly	-4751
ani	-4752
aun	-4753
ees	-4754
iii	-4755
ola	-4756
see	-4757
▁22	-4758
▁[$	-4759
▁gy	-4760
rael	-4761
year	-4762
▁bum	-4763
▁gat	-4764
▁jum	-4765
▁kir	-4766
▁vot	-4767
ansas	-4768
bbles	-4769
ients	-4770
inger	-4771
worth	-4772
▁bike	-4773
▁bust	-4774
▁buzz	-4775
▁cash	-4776
▁dere	-4777
▁eric	-4778
▁holl	-4779
▁jung	-4780
▁lamb	-4781
▁male	-4782
▁pean	-4783
▁phys	-4784
▁pred	-4785
▁rope	-4786
▁rush	-4787
▁ruth	-4788
▁sink	-4789
▁trop	-4790
▁winn	-4791
atives	-4792
coughs	-4793
filler	-4794
orence	-4795
▁2020,	-4796
▁archi	-4797
▁artic	-4798
▁aside	-4799
▁claim	-4800
▁delay	-4801
▁enter	-4802
▁greek	-4803
▁ideas	-4804
▁jelly	-4805
▁jones	-4806
▁opera	-4807
▁peggy	-4808
▁spare	-4809
▁staff	-4810
▁style	-4811
▁towel	-4812
▁types	-4813
▁upper	-4814
▁yards	-4815
zerland	-4816
▁awards	-4817
▁beauty	-4818
▁border	-4819
▁boston	-4820
▁chairs	-4821
▁confir	-4822
▁decide	-4823
▁depart	-4824
▁distur	-4825
▁eleven	-4826
▁instru	-4827
▁nation	-4828
▁speaks	-4829
▁sposta	-4830
▁stayed	-4831
▁steady	-4832
ulations	-4833
▁conduct	-4834
▁hearing	-4835
▁hunting	-4836
▁individ	-4837
▁majesty	-4838
▁manager	-4839
▁matthew	-4840
▁ordered	-4841
▁pulling	-4842
▁regular	-4843
▁removed	-4844
▁circumst	-4845
▁electric	-4846
▁powerful	-4847
▁butterfly	-4848
▁relations	-4849
▁particularly	-4850
bu	-4851
hh	-4852
⌋.	-4853
▁~	-4854
▁¶	-4855
▁—	-4856
aki	-4857
ano	-4858
boy	-4859
ems	-4860
ito	-4861
lim	-4862
nam	-4863
phe	-4864
sex	-4865
sie	-4866
umn	-4867
uns	-4868
uri	-4869
vin	-4870
voc	-4871
was	-4872
▁26	-4873
▁50	-4874
aign	-4875
aret	-4876
ateg	-4877
call	-4878
cely	-4879
gate	-4880
keys	-4881
note	-4882
▁188	-4883
▁etc	-4884
▁gab	-4885
▁ire	-4886
▁map	-4887
▁nut	-4888
▁oil	-4889
▁ren	-4890
▁sin	-4891
ading	-4892
cream	-4893
erial	-4894
holds	-4895
mined	-4896
ounds	-4897
▁2014	-4898
▁2017	-4899
▁clou	-4900
▁drum	-4901
▁eliz	-4902
▁goal	-4903
▁jess	-4904
▁lies	-4905
▁lucy	-4906
▁marg	-4907
▁resc	-4908
▁rome	-4909
▁sees	-4910
▁weap	-4911
iggles	-4912
morrow	-4913
▁ahhah	-4914
▁canoe	-4915
▁cards	-4916
▁chuck	-4917
▁coach	-4918
▁conqu	-4919
▁crown	-4920
▁cruel	-4921
▁desce	-4922
▁domin	-4923
▁fence	-4924
▁parli	-4925
▁penny	-4926
▁prime	-4927
▁serge	-4928
▁shock	-4929
▁squee	-4930
▁upset	-4931
berries	-4932
▁advant	-4933
▁bucket	-4934
▁eighty	-4935
▁garage	-4936
▁gently	-4937
▁hockey	-4938
▁losing	-4939
▁native	-4940
▁paying	-4941
▁soviet	-4942
▁territ	-4943
▁biggest	-4944
▁cookies	-4945
▁culture	-4946
▁elected	-4947
▁feather	-4948
▁fortune	-4949
▁freedom	-4950
▁highest	-4951
▁inspect	-4952
▁invited	-4953
▁partner	-4954
▁pitcher	-4955
▁receive	-4956
▁bringing	-4957
▁campaign	-4958
▁friendly	-4959
▁listened	-4960
▁particip	-4961
▁presence	-4962
▁properly	-4963
▁thoughts	-4964
▁presently	-4965
▁underneath	-4966
▁grandfather	-4967
▁switzerland	-4968
14	-4969
9)	-4970
cr	-4971
mi	-4972
uf	-4973
”.	-4974
apt	-4975
aws	-4976
fic	-4977
lau	-4978
mel	-4979
met	-4980
nis	-4981
oma	-4982
pol	-4983
tar	-4984
ulf	-4985
▁23	-4986
▁ga	-4987
▁od	-4988
▁py	-4989
▁ry	-4990
aren	-4991
hers	-4992
mers	-4993
take	-4994
vere	-4995
walk	-4996
ware	-4997
▁190	-4998
▁ash	-4999
▁atl	-5000
▁deb	-5001
▁por	-5002
▁tan	-5003
▁tru	-5004
ental	-5005
istry	-5006
unnel	-5007
▁arts	-5008
▁bush	-5009
▁cher	-5010
▁cock	-5011
▁code	-5012
▁dada	-5013
▁diam	-5014
▁doct	-5015
▁flew	-5016
▁init	-5017
▁inse	-5018
▁joke	-5019
▁pand	-5020
▁plot	-5021
▁pony	-5022
▁reck	-5023
▁roar	-5024
▁rode	-5025
▁seas	-5026
idents	-5027
pering	-5028
▁alice	-5029
▁benef	-5030
▁brook	-5031
▁burst	-5032
▁chase	-5033
▁citiz	-5034
▁dutch	-5035
▁ellie	-5036
▁gradu	-5037
▁hills	-5038
▁image	-5039
▁mustn	-5040
▁opens	-5041
▁pants	-5042
▁patri	-5043
▁score	-5044
▁screw	-5045
▁serve	-5046
▁skill	-5047
▁spite	-5048
▁split	-5049
▁talks	-5050
▁wrest	-5051
fection	-5052
▁apolog	-5053
▁arthur	-5054
▁bricks	-5055
▁chosen	-5056
▁forced	-5057
▁israel	-5058
▁lesson	-5059
▁mainly	-5060
▁mirror	-5061
▁narrow	-5062
▁nearer	-5063
▁ninety	-5064
▁powder	-5065
▁prepar	-5066
▁pushed	-5067
▁riding	-5068
▁rolled	-5069
▁signed	-5070
fficient	-5071
▁advance	-5072
▁crayons	-5073
▁grandpa	-5074
▁greatly	-5075
▁records	-5076
▁restaur	-5077
▁setting	-5078
▁student	-5079
▁thunder	-5080
▁assembly	-5081
▁directly	-5082
▁entirely	-5083
▁internet	-5084
▁observed	-5085
▁occurred	-5086
▁planning	-5087
▁previous	-5088
▁progress	-5089
▁available	-5090
▁currently	-5091
▁meanwhile	-5092
▁operation	-5093
▁recording	-5094
▁characters	-5095
▁parliament	-5096
▁established	-5097
▁performance	-5098
21	-5099
50	-5100
eta	-5101
hor	-5102
nda	-5103
pir	-5104
pro	-5105
squ	-5106
▁"'	-5107
▁(;	-5108
▁ay	-5109
bury	-5110
elle	-5111
gers	-5112
hips	-5113
iano	-5114
ller	-5115
rant	-5116
rate	-5117
rold	-5118
sung	-5119
tons	-5120
unts	-5121
your	-5122
▁alp	-5123
▁ess	-5124
▁jar	-5125
▁lan	-5126
▁luc	-5127
▁obl	-5128
▁oce	-5129
▁rot	-5130
▁sev	-5131
▁sla	-5132
abeth	-5133
ables	-5134
hetti	-5135
place	-5136
uries	-5137
▁adop	-5138
▁dave	-5139
▁duke	-5140
▁dump	-5141
▁ends	-5142
▁hook	-5143
▁inno	-5144
▁link	-5145
▁mand	-5146
▁nana	-5147
▁pear	-5148
▁poet	-5149
▁rent	-5150
▁rust	-5151
▁scen	-5152
▁shri	-5153
▁soup	-5154
▁surv	-5155
▁vent	-5156
▁zeal	-5157
donald	-5158
ential	-5159
▁covid	-5160
▁craft	-5161
▁crime	-5162
▁escap	-5163
▁excit	-5164
▁fifth	-5165
▁flash	-5166
▁prove	-5167
▁react	-5168
▁shame	-5169
▁slept	-5170
▁tourn	-5171
▁waste	-5172
babbles	-5173
mission	-5174
▁acting	-5175
▁bodies	-5176
▁circus	-5177
▁effort	-5178
▁energy	-5179
▁fields	-5180
▁hoping	-5181
▁policy	-5182
▁silent	-5183
▁splash	-5184
▁string	-5185
▁supply	-5186
▁temple	-5187
▁toilet	-5188
▁turtle	-5189
▁amazing	-5190
▁arrange	-5191
▁comment	-5192
▁courage	-5193
▁episode	-5194
▁glasses	-5195
▁hurried	-5196
▁ireland	-5197
▁medical	-5198
▁plastic	-5199
▁reasons	-5200
▁schools	-5201
▁victory	-5202
▁wedding	-5203
▁becoming	-5204
▁carrying	-5205
▁darkness	-5206
▁experien	-5207
▁florence	-5208
▁icecream	-5209
▁pakistan	-5210
▁selected	-5211
▁whenever	-5212
▁americans	-5213
▁companies	-5214
▁expecting	-5215
▁shoulders	-5216
▁tradition	-5217
▁comfortable	-5218
-1	-5219
5]	-5220
bi	-5221
00.	-5222
ami	-5223
gel	-5224
igs	-5225
isl	-5226
kee	-5227
mad	-5228
rak	-5229
rol	-5230
win	-5231
zzy	-5232
▁ko	-5233
five	-5234
inda	-5235
llen	-5236
ping	-5237
▁aft	-5238
▁dum	-5239
▁lum	-5240
▁mak	-5241
▁syd	-5242
angle	-5243
imate	-5244
ounce	-5245
rison	-5246
▁anth	-5247
▁ches	-5248
▁copy	-5249
▁fart	-5250
▁grav	-5251
▁grey	-5252
▁jeff	-5253
▁jobs	-5254
▁libr	-5255
▁lone	-5256
▁mead	-5257
▁nail	-5258
▁padd	-5259
▁pooh	-5260
▁rear	-5261
▁sequ	-5262
▁agent	-5263
▁asian	-5264
▁boats	-5265
▁bruce	-5266
▁chest	-5267
▁deput	-5268
▁drove	-5269
▁fairy	-5270
▁fever	-5271
▁finds	-5272
▁helps	-5273
▁issue	-5274
▁ocean	-5275
▁sauce	-5276
▁scare	-5277
▁snack	-5278
▁suffe	-5279
▁theat	-5280
▁troub	-5281
▁waves	-5282
ibility	-5283
▁afford	-5284
▁apples	-5285
▁clouds	-5286
▁desper	-5287
▁hidden	-5288
▁mighty	-5289
▁palace	-5290
▁resist	-5291
▁rights	-5292
▁saving	-5293
▁scient	-5294
▁sooner	-5295
▁thrown	-5296
▁african	-5297
▁becomes	-5298
▁commiss	-5299
▁congrat	-5300
▁display	-5301
▁earnest	-5302
▁effects	-5303
▁grandad	-5304
▁jumping	-5305
▁musical	-5306
▁nearest	-5307
▁protest	-5308
▁related	-5309
▁staying	-5310
▁willing	-5311
▁accompan	-5312
▁creature	-5313
▁gathered	-5314
▁industry	-5315
▁intellig	-5316
▁occupied	-5317
▁pointing	-5318
▁practice	-5319
▁recently	-5320
▁treasure	-5321
▁buildings	-5322
▁influence	-5323
▁performed	-5324
▁basketball	-5325
▁conditions	-5326
▁determined	-5327
▁management	-5328
▁strawberry	-5329
▁sweetheart	-5330
▁disappeared	-5331
40	-5332
70	-5333
9]	-5334
],	-5335
ata	-5336
cho	-5337
hic	-5338
ima	-5339
ned	-5340
nor	-5341
ule	-5342
war	-5343
▁nu	-5344
▁os	-5345
bout	-5346
case	-5347
down	-5348
hlet	-5349
iece	-5350
ingu	-5351
issa	-5352
ived	-5353
lies	-5354
lley	-5355
mend	-5356
rial	-5357
ulty	-5358
▁186	-5359
▁aha	-5360
▁ari	-5361
▁cub	-5362
▁dom	-5363
▁eag	-5364
▁fis	-5365
▁lam	-5366
▁ray	-5367
▁rhy	-5368
0,000	-5369
atory	-5370
chief	-5371
enger	-5372
icing	-5373
owing	-5374
▁chew	-5375
▁dawn	-5376
▁emot	-5377
▁fate	-5378
▁fond	-5379
▁gram	-5380
▁limb	-5381
▁oven	-5382
▁pale	-5383
▁slip	-5384
▁sole	-5385
▁spag	-5386
▁tale	-5387
▁thri	-5388
▁woke	-5389
▁wore	-5390
ancing	-5391
inated	-5392
ograph	-5393
rences	-5394
uesday	-5395
▁bones	-5396
▁chain	-5397
▁cheap	-5398
▁click	-5399
▁dough	-5400
▁frogs	-5401
▁holes	-5402
▁latin	-5403
▁lemon	-5404
▁mamma	-5405
▁owner	-5406
▁seeds	-5407
▁sings	-5408
▁steam	-5409
▁towns	-5410
▁trial	-5411
▁witch	-5412
ception	-5413
ilities	-5414
pensive	-5415
silence	-5416
▁byebye	-5417
▁credit	-5418
▁daniel	-5419
▁fairly	-5420
▁forces	-5421
▁gloves	-5422
▁height	-5423
▁instit	-5424
▁jacket	-5425
▁ladder	-5426
▁mechan	-5427
▁mummie	-5428
▁nicole	-5429
▁pillow	-5430
▁propos	-5431
▁safety	-5432
▁screen	-5433
▁studio	-5434
▁suspic	-5435
▁tender	-5436
▁termin	-5437
▁terror	-5438
▁turkey	-5439
▁victor	-5440
▁warren	-5441
▁burning	-5442
▁express	-5443
▁foreign	-5444
▁kidding	-5445
▁passing	-5446
▁rapidly	-5447
▁rolling	-5448
▁shining	-5449
▁soldier	-5450
▁contract	-5451
▁property	-5452
▁scarcely	-5453
▁universe	-5454
▁advantage	-5455
▁alexander	-5456
▁centuries	-5457
▁disappear	-5458
▁elizabeth	-5459
▁extremely	-5460
▁territory	-5461
▁excitement	-5462
▁tournament	-5463
▁illustrations	-5464
5)	-5465
eg	-5466
hs	-5467
hu	-5468
sl	-5469
ée	-5470
bin	-5471
bon	-5472
hop	-5473
mhm	-5474
ram	-5475
top	-5476
wan	-5477
▁2,	-5478
▁27	-5479
▁oy	-5480
aboo	-5481
ague	-5482
bble	-5483
ctic	-5484
draw	-5485
hand	-5486
mbol	-5487
mont	-5488
ners	-5489
reci	-5490
sque	-5491
▁aah	-5492
▁aid	-5493
▁avo	-5494
▁cot	-5495
▁dot	-5496
▁dou	-5497
▁lic	-5498
▁lif	-5499
▁lun	-5500
▁mmm	-5501
▁nik	-5502
▁owl	-5503
▁tin	-5504
▁tip	-5505
▁zoo	-5506
alous	-5507
erves	-5508
igned	-5509
istic	-5510
ulous	-5511
which	-5512
▁2022	-5513
▁bags	-5514
▁bend	-5515
▁boom	-5516
▁brig	-5517
▁buck	-5518
▁furn	-5519
▁hers	-5520
▁kang	-5521
▁keen	-5522
▁lamp	-5523
▁mans	-5524
▁nodd	-5525
▁peak	-5526
▁sher	-5527
▁snap	-5528
▁sore	-5529
▁spin	-5530
▁sung	-5531
▁trap	-5532
▁wire	-5533
fortun	-5534
lliant	-5535
making	-5536
▁allah	-5537
▁armen	-5538
▁beads	-5539
▁becky	-5540
▁brand	-5541
▁brian	-5542
▁cells	-5543
▁cough	-5544
▁demon	-5545
▁ducks	-5546
▁hasta	-5547
▁korea	-5548
▁liber	-5549
▁marry	-5550
▁pages	-5551
▁print	-5552
▁reven	-5553
▁salad	-5554
▁socks	-5555
▁solid	-5556
▁sorts	-5557
▁speci	-5558
▁walls	-5559
▁yummy	-5560
▁actual	-5561
▁advert	-5562
▁belief	-5563
▁comedy	-5564
▁dishes	-5565
▁easier	-5566
▁gained	-5567
▁harold	-5568
▁kindly	-5569
▁lifted	-5570
▁nights	-5571
▁paused	-5572
▁pepper	-5573
▁polish	-5574
▁review	-5575
▁shapes	-5576
▁sticks	-5577
▁stores	-5578
▁upside	-5579
▁waters	-5580
quarters	-5581
▁appreci	-5582
▁arrival	-5583
▁balloon	-5584
▁confess	-5585
▁depends	-5586
▁despite	-5587
▁engaged	-5588
▁fashion	-5589
▁florida	-5590
▁forever	-5591
▁francis	-5592
▁knocked	-5593
▁letting	-5594
▁passage	-5595
▁section	-5596
▁sweetie	-5597
▁wounded	-5598
▁approach	-5599
▁composed	-5600
▁economic	-5601
▁eighteen	-5602
▁festival	-5603
▁increase	-5604
▁mistress	-5605
▁presents	-5606
▁prisoner	-5607
▁reaching	-5608
▁recorder	-5609
▁services	-5610
▁williams	-5611
▁wondered	-5612
▁adventure	-5613
▁backwards	-5614
▁brilliant	-5615
▁expensive	-5616
▁recognize	-5617
▁spaghetti	-5618
▁democratic	-5619
▁individual	-5620
▁restaurant	-5621
▁throughout	-5622
▁constitution	-5623
▁circumstances	-5624
6)	-5625
7]	-5626
án	-5627
ala	-5628
alo	-5629
bar	-5630
bey	-5631
eva	-5632
hib	-5633
ias	-5634
icy	-5635
itz	-5636
kar	-5637
tis	-5638
▁(1	-5639
▁31	-5640
▁5,	-5641
▁ee	-5642
..."	-5643
alie	-5644
aska	-5645
enth	-5646
fers	-5647
hore	-5648
omed	-5649
road	-5650
song	-5651
step	-5652
▁aim	-5653
▁bol	-5654
▁cig	-5655
▁loo	-5656
▁mob	-5657
▁oak	-5658
▁pad	-5659
▁pud	-5660
▁roo	-5661
▁rum	-5662
▁sou	-5663
▁wip	-5664
▁wra	-5665
▁zzz	-5666
about	-5667
after	-5668
eteen	-5669
holic	-5670
iliar	-5671
lands	-5672
opher	-5673
ronic	-5674
turns	-5675
▁2010	-5676
▁asia	-5677
▁bone	-5678
▁deer	-5679
▁godd	-5680
▁lege	-5681
▁lisa	-5682
▁mood	-5683
▁neat	-5684
▁rout	-5685
▁scri	-5686
▁toes	-5687
▁vehi	-5688
arrass	-5689
engers	-5690
formed	-5691
nesday	-5692
ricane	-5693
shouts	-5694
tained	-5695
▁alarm	-5696
▁balls	-5697
▁beans	-5698
▁bells	-5699
▁bomba	-5700
▁boxes	-5701
▁candy	-5702
▁cents	-5703
▁chess	-5704
▁colon	-5705
▁drawn	-5706
▁dunno	-5707
▁exped	-5708
▁glory	-5709
▁hesit	-5710
▁jeann	-5711
▁legal	-5712
▁media	-5713
▁memor	-5714
▁nomin	-5715
▁robin	-5716
▁sally	-5717
▁schol	-5718
▁slave	-5719
▁stern	-5720
▁susan	-5721
▁swall	-5722
▁tommy	-5723
▁value	-5724
▁weird	-5725
▁winds	-5726
giggles	-5727
perhaps	-5728
▁agency	-5729
▁athlet	-5730
▁brings	-5731
▁contri	-5732
▁defend	-5733
▁drinks	-5734
▁faster	-5735
▁guards	-5736
▁handed	-5737
▁kissed	-5738
▁kisses	-5739
▁method	-5740
▁racing	-5741
▁resour	-5742
▁seized	-5743
▁shower	-5744
▁stones	-5745
▁strugg	-5746
▁sydney	-5747
▁trains	-5748
▁unlike	-5749
▁wished	-5750
▁wooden	-5751
▁barbara	-5752
▁carrots	-5753
▁cutting	-5754
▁efforts	-5755
▁emergen	-5756
▁explore	-5757
▁mission	-5758
▁network	-5759
▁ringing	-5760
▁sausage	-5761
▁seventy	-5762
▁somehow	-5763
▁sounded	-5764
▁tuesday	-5765
▁visited	-5766
▁whistle	-5767
▁acquaint	-5768
▁chemical	-5769
▁complain	-5770
▁congress	-5771
▁ordinary	-5772
▁peekaboo	-5773
▁required	-5774
▁somewhat	-5775
▁squirrel	-5776
▁suffered	-5777
▁throwing	-5778
▁vacation	-5779
▁concerned	-5780
▁connected	-5781
▁hurricane	-5782
▁otherwise	-5783
▁prisoners	-5784
▁satisfied	-5785
▁succeeded	-5786
▁wednesday	-5787
▁commission	-5788
▁originally	-5789
▁competition	-5790
▁temperature	-5791
▁headquarters	-5792
"?	-5793
4]	-5794
_.	-5795
bc	-5796
hl	-5797
ux	-5798
ift	-5799
ipp	-5800
owa	-5801
rya	-5802
sty	-5803
toy	-5804
wis	-5805
▁40	-5806
▁6,	-5807
▁[3	-5808
▁fc	-5809
▁ki	-5810
▁ol	-5811
▁ot	-5812
ache	-5813
affe	-5814
coln	-5815
coon	-5816
fish	-5817
geon	-5818
gues	-5819
hire	-5820
host	-5821
ires	-5822
kiss	-5823
oard	-5824
otte	-5825
tell	-5826
ushi	-5827
▁cav	-5828
▁dol	-5829
▁gim	-5830
▁hal	-5831
▁lit	-5832
▁tro	-5833
athan	-5834
bbing	-5835
chest	-5836
iance	-5837
icked	-5838
ilies	-5839
inois	-5840
orter	-5841
somet	-5842
stone	-5843
ufact	-5844
usion	-5845
▁1950	-5846
▁1970	-5847
▁2007	-5848
▁anch	-5849
▁anti	-5850
▁awww	-5851
▁buff	-5852
▁cave	-5853
▁fuss	-5854
▁grad	-5855
▁iran	-5856
▁kent	-5857
▁loss	-5858
▁nina	-5859
▁prem	-5860
▁ratt	-5861
▁soap	-5862
▁thor	-5863
▁tiss	-5864
▁tuck	-5865
▁wave	-5866
▁woof	-5867
▁yard	-5868
anches	-5869
contin	-5870
erable	-5871
scream	-5872
▁admit	-5873
▁aston	-5874
▁chips	-5875
▁cloth	-5876
▁crane	-5877
▁danny	-5878
▁doggy	-5879
▁draft	-5880
▁drops	-5881
▁false	-5882
▁feast	-5883
▁georg	-5884
▁nepal	-5885
▁notes	-5886
▁patsy	-5887
▁piano	-5888
▁puppy	-5889
▁rifle	-5890
▁rocky	-5891
▁rooms	-5892
▁ships	-5893
▁spect	-5894
▁steal	-5895
▁stops	-5896
▁trous	-5897
▁veget	-5898
▁aboard	-5899
▁andrew	-5900
▁anyhow	-5901
▁attend	-5902
▁banana	-5903
▁deputy	-5904
▁desire	-5905
▁donald	-5906
▁favour	-5907
▁fought	-5908
▁issues	-5909
▁lonely	-5910
▁madame	-5911
▁mexico	-5912
▁observ	-5913
▁parish	-5914
▁poured	-5915
▁secure	-5916
▁shakes	-5917
▁splend	-5918
▁thread	-5919
▁trucks	-5920
▁tunnel	-5921
▁useful	-5922
▁wilson	-5923
▁winnie	-5924
together	-5925
▁airport	-5926
▁britain	-5927
▁climate	-5928
▁deliver	-5929
▁destroy	-5930
▁foolish	-5931
▁greater	-5932
▁leaders	-5933
▁library	-5934
▁measure	-5935
▁moments	-5936
▁pattern	-5937
▁quality	-5938
▁shelter	-5939
▁sisters	-5940
▁slipped	-5941
▁touched	-5942
▁winning	-5943
▁zealand	-5944
▁dinosaur	-5945
▁exercise	-5946
▁illinois	-5947
▁learning	-5948
▁manufact	-5949
▁replaced	-5950
▁scotland	-5951
▁shooting	-5952
▁virginia	-5953
▁confident	-5954
▁detective	-5955
▁embarrass	-5956
▁emergency	-5957
▁languages	-5958
▁structure	-5959
▁photograph	-5960
▁responsible	-5961
!'	-5962
-2	-5963
72	-5964
?'	-5965
kf	-5966
yd	-5967
ón	-5968
:00	-5969
asy	-5970
awa	-5971
bid	-5972
des	-5973
eal	-5974
ett	-5975
hmm	-5976
hum	-5977
ika	-5978
kel	-5979
org	-5980
pre	-5981
rad	-5982
rec	-5983
rim	-5984
ths	-5985
tra	-5986
ups	-5987
▁4,	-5988
▁8,	-5989
▁[6	-5990
▁km	-5991
aine	-5992
asty	-5993
bird	-5994
bour	-5995
door	-5996
icop	-5997
itan	-5998
keep	-5999
lers	-6000
long	-6001
nina	-6002
uled	-6003
▁15,	-6004
▁189	-6005
▁alf	-6006
▁bea	-6007
▁bru	-6008
▁cad	-6009
▁dea	-6010
▁ded	-6011
▁dyn	-6012
▁jas	-6013
▁kil	-6014
▁mcc	-6015
▁pac	-6016
▁pee	-6017
▁pul	-6018
▁rug	-6019
▁shh	-6020
▁unc	-6021
▁voc	-6022
▁von	-6023
aming	-6024
arily	-6025
asing	-6026
burgh	-6027
chers	-6028
eline	-6029
every	-6030
leton	-6031
unner	-6032
▁arch	-6033
▁beet	-6034
▁bund	-6035
▁chin	-6036
▁clar	-6037
▁clau	-6038
▁diag	-6039
▁diss	-6040
▁drug	-6041
▁eats	-6042
▁echo	-6043
▁fuel	-6044
▁goat	-6045
▁jail	-6046
▁lads	-6047
▁mile	-6048
▁nord	-6049
▁pile	-6050
▁pure	-6051
▁reef	-6052
▁shed	-6053
▁sylv	-6054
▁task	-6055
▁tune	-6056
▁unus	-6057
aching	-6058
angers	-6059
ateful	-6060
babble	-6061
master	-6062
▁2020)	-6063
▁2020.	-6064
▁advis	-6065
▁alpha	-6066
▁angel	-6067
▁armed	-6068
▁assum	-6069
▁badly	-6070
▁brick	-6071
▁bunch	-6072
▁chose	-6073
▁conce	-6074
▁cries	-6075
▁daisy	-6076
▁devil	-6077
▁dorot	-6078
▁drugs	-6079
▁dying	-6080
▁flood	-6081
▁focus	-6082
▁ghost	-6083
▁gorge	-6084
▁guide	-6085
▁holly	-6086
▁molly	-6087
▁nucle	-6088
▁persu	-6089
▁piggy	-6090
▁proof	-6091
▁sneak	-6092
▁swear	-6093
▁tribe	-6094
▁widow	-6095
because	-6096
▁applic	-6097
▁auntie	-6098
▁bloody	-6099
▁budget	-6100
▁degree	-6101
▁driven	-6102
▁humans	-6103
▁knight	-6104
▁launch	-6105
▁marked	-6106
▁nicely	-6107
▁nodded	-6108
▁partly	-6109
▁peanut	-6110
▁proved	-6111
▁reckon	-6112
▁regret	-6113
▁senate	-6114
▁smooth	-6115
▁source	-6116
▁squeak	-6117
▁suffer	-6118
▁target	-6119
▁walter	-6120
▁washed	-6121
atherine	-6122
pointing	-6123
▁anthony	-6124
▁closely	-6125
▁consult	-6126
▁counter	-6127
▁crossed	-6128
▁enjoyed	-6129
▁evident	-6130
▁germans	-6131
▁glanced	-6132
▁helicop	-6133
▁improve	-6134
▁injured	-6135
▁jackson	-6136
▁jealous	-6137
▁lincoln	-6138
▁matches	-6139
▁produce	-6140
▁railway	-6141
▁shortly	-6142
▁studies	-6143
▁totally	-6144
▁aircraft	-6145
▁captured	-6146
▁catching	-6147
▁competed	-6148
▁curtains	-6149
▁demanded	-6150
▁entrance	-6151
▁examples	-6152
▁exciting	-6153
▁familiar	-6154
▁families	-6155
▁handsome	-6156
▁jeannine	-6157
▁magazine	-6158
▁nineteen	-6159
▁quarters	-6160
▁realized	-6161
▁recorded	-6162
▁reported	-6163
▁sentence	-6164
▁splendid	-6165
▁described	-6166
▁destroyed	-6167
▁presented	-6168
▁vocalises	-6169
▁conference	-6170
▁footballer	-6171
▁utterances	-6172
vocalization	-6173
▁corporation	-6174
▁construction	-6175
▁neighborhood	-6176
----------------	-6177
▁congratulations	-6178
.’	-6179
22	-6180
80	-6181
ok	-6182
rs	-6183
"),	-6184
").	-6185
aro	-6186
asc	-6187
bow	-6188
din	-6189
esc	-6190
fit	-6191
gle	-6192
has	-6193
lam	-6194
lar	-6195
osa	-6196
put	-6197
rah	-6198
wat	-6199
wom	-6200
xon	-6201
▁21	-6202
▁az	-6203
▁ka	-6204
▁lt	-6205
aned	-6206
bell	-6207
emic	-6208
fire	-6209
gust	-6210
iest	-6211
ique	-6212
lock	-6213
ompl	-6214
only	-6215
rier	-6216
sequ	-6217
uses	-6218
▁11,	-6219
▁25,	-6220
▁ale	-6221
▁ark	-6222
▁bid	-6223
▁coo	-6224
▁dee	-6225
▁fab	-6226
▁gil	-6227
▁ker	-6228
▁len	-6229
▁nas	-6230
▁shy	-6231
▁spy	-6232
abled	-6233
acher	-6234
anged	-6235
eable	-6236
emies	-6237
hamed	-6238
inder	-6239
inkle	-6240
never	-6241
pless	-6242
shine	-6243
shire	-6244
stein	-6245
uable	-6246
▁2003	-6247
▁2011	-6248
▁2013	-6249
▁amos	-6250
▁baba	-6251
▁belt	-6252
▁cale	-6253
▁cass	-6254
▁cows	-6255
▁dora	-6256
▁elim	-6257
▁fare	-6258
▁gosh	-6259
▁gran	-6260
▁idol	-6261
▁jigs	-6262
▁kate	-6263
▁kong	-6264
▁lest	-6265
▁meas	-6266
▁ouch	-6267
▁pant	-6268
▁pity	-6269
▁plus	-6270
▁pole	-6271
▁pros	-6272
▁sadd	-6273
▁sang	-6274
▁soil	-6275
▁tied	-6276
▁trib	-6277
▁wipe	-6278
iments	-6279
ington	-6280
urally	-6281
▁annie	-6282
▁appet	-6283
▁autom	-6284
▁awake	-6285
▁belle	-6286
▁cakes	-6287
▁couch	-6288
▁creek	-6289
▁daily	-6290
▁dried	-6291
▁eddie	-6292
▁equal	-6293
▁gimme	-6294
▁goods	-6295
▁greet	-6296
▁homes	-6297
▁julie	-6298
▁karen	-6299
▁outer	-6300
▁signs	-6301
▁spots	-6302
▁thurs	-6303
▁tummy	-6304
▁wound	-6305
ability	-6306
itation	-6307
visions	-6308
western	-6309
▁betray	-6310
▁bitter	-6311
▁critic	-6312
▁damage	-6313
▁dragon	-6314
▁drawer	-6315
▁engage	-6316
▁exchan	-6317
▁explos	-6318
▁gotten	-6319
▁grapes	-6320
▁hammer	-6321
▁headed	-6322
▁incred	-6323
▁korean	-6324
▁louise	-6325
▁marsha	-6326
▁rushed	-6327
▁scenes	-6328
▁switch	-6329
▁symbol	-6330
▁volcan	-6331
ological	-6332
▁achieve	-6333
▁actions	-6334
▁angeles	-6335
▁compass	-6336
▁deserve	-6337
▁divided	-6338
▁enemies	-6339
▁escaped	-6340
▁goddess	-6341
▁impress	-6342
▁johnson	-6343
▁killing	-6344
▁lessons	-6345
▁matters	-6346
▁monkeys	-6347
▁objects	-6348
▁parties	-6349
▁penguin	-6350
▁planned	-6351
▁reports	-6352
▁results	-6353
▁traffic	-6354
▁useless	-6355
▁variety	-6356
▁warning	-6357
▁watches	-6358
ification	-6359
▁accepted	-6360
▁activity	-6361
▁biscuits	-6362
▁carolina	-6363
▁champion	-6364
▁changing	-6365
▁designed	-6366
▁feathers	-6367
▁jonathan	-6368
▁muttered	-6369
▁normally	-6370
▁sergeant	-6371
▁starring	-6372
▁transfer	-6373
▁unfortun	-6374
▁breathing	-6375
▁delicious	-6376
▁fantastic	-6377
▁happiness	-6378
▁impressed	-6379
▁increased	-6380
▁newspaper	-6381
▁organized	-6382
▁remaining	-6383
▁resources	-6384
▁screaming	-6385
▁adventures	-6386
▁pretending	-6387
▁punishment	-6388
▁independence	-6389
▁understanding	-6390
4)	-6391
gt	-6392
aga	-6393
bag	-6394
bas	-6395
bob	-6396
ema	-6397
gir	-6398
iot	-6399
ips	-6400
kat	-6401
mal	-6402
mom	-6403
nat	-6404
obs	-6405
oli	-6406
ops	-6407
pas	-6408
pot	-6409
tin	-6410
und	-6411
urd	-6412
▁2.	-6413
....	-6414
anas	-6415
gill	-6416
hard	-6417
ials	-6418
iana	-6419
itch	-6420
lect	-6421
mary	-6422
phew	-6423
rees	-6424
rose	-6425
town	-6426
uced	-6427
▁(18	-6428
▁13,	-6429
▁185	-6430
▁187	-6431
▁aer	-6432
▁ais	-6433
▁apo	-6434
▁bis	-6435
▁fac	-6436
▁hut	-6437
▁opt	-6438
▁sup	-6439
▁tid	-6440
▁web	-6441
▁yeh	-6442
achus	-6443
acked	-6444
arian	-6445
aries	-6446
elled	-6447
hetic	-6448
icate	-6449
icted	-6450
inter	-6451
mates	-6452
raine	-6453
▁1992	-6454
▁2008	-6455
▁anno	-6456
▁aven	-6457
▁beer	-6458
▁bent	-6459
▁bord	-6460
▁clay	-6461
▁coal	-6462
▁cord	-6463
▁dart	-6464
▁gill	-6465
▁laun	-6466
▁leon	-6467
▁pron	-6468
▁purs	-6469
▁quit	-6470
▁sara	-6471
▁scat	-6472
▁seal	-6473
▁tent	-6474
▁torn	-6475
▁toss	-6476
▁unif	-6477
▁virt	-6478
▁wars	-6479
▁wend	-6480
▁whit	-6481
▁wing	-6482
giving	-6483
ulance	-6484
writer	-6485
▁adams	-6486
▁admir	-6487
▁beast	-6488
▁blame	-6489
▁camel	-6490
▁eagle	-6491
▁equip	-6492
▁faint	-6493
▁fetch	-6494
▁fleet	-6495
▁frame	-6496
▁hoped	-6497
▁jenny	-6498
▁knees	-6499
▁lands	-6500
▁lewis	-6501
▁loose	-6502
▁marks	-6503
▁minor	-6504
▁noble	-6505
▁numer	-6506
▁pregn	-6507
▁punch	-6508
▁purse	-6509
▁rolls	-6510
▁sched	-6511
▁spark	-6512
▁truly	-6513
▁trunk	-6514
▁twins	-6515
▁useta	-6516
▁wales	-6517
▁warri	-6518
▁barrel	-6519
▁cannon	-6520
▁cereal	-6521
▁dollar	-6522
▁ginger	-6523
▁jigsaw	-6524
▁jungle	-6525
▁lately	-6526
▁mental	-6527
▁merely	-6528
▁nephew	-6529
▁oliver	-6530
▁oxford	-6531
▁picnic	-6532
▁pierre	-6533
▁rattle	-6534
▁retire	-6535
▁sacrif	-6536
▁scored	-6537
▁sorrow	-6538
▁stable	-6539
▁tastes	-6540
▁throws	-6541
▁tickle	-6542
standing	-6543
▁archite	-6544
▁ashamed	-6545
▁battery	-6546
▁biscuit	-6547
▁bubbles	-6548
▁buttons	-6549
▁candles	-6550
▁circles	-6551
▁continu	-6552
▁cricket	-6553
▁farther	-6554
▁gardens	-6555
▁giraffe	-6556
▁heavily	-6557
▁helpful	-6558
▁interfe	-6559
▁mexican	-6560
▁olympic	-6561
▁persons	-6562
▁proceed	-6563
▁pushing	-6564
▁session	-6565
▁stepped	-6566
▁swedish	-6567
▁systems	-6568
▁whoever	-6569
▁worship	-6570
▁addition	-6571
▁advanced	-6572
▁arrested	-6573
▁attended	-6574
▁baseball	-6575
▁carriage	-6576
▁catholic	-6577
▁citizens	-6578
▁customer	-6579
▁disaster	-6580
▁features	-6581
▁helpless	-6582
▁material	-6583
▁murdered	-6584
▁separate	-6585
▁slightly	-6586
▁surround	-6587
▁teaching	-6588
▁thirteen	-6589
▁thursday	-6590
▁valuable	-6591
▁ambulance	-6592
▁appointed	-6593
▁broadcast	-6594
▁charlotte	-6595
▁fortunate	-6596
▁geography	-6597
▁household	-6598
▁instantly	-6599
▁interview	-6600
▁naturally	-6601
▁nominated	-6602
▁thousands	-6603
▁treatment	-6604
▁altogether	-6605
▁difficulty	-6606
▁eventually	-6607
▁literature	-6608
▁sufficient	-6609
▁accompanied	-6610
▁relationship	-6611
▁responsibility	-6612
dr	-6613
fr	-6614
oy	-6615
ré	-6616
zo	-6617
ali	-6618
ded	-6619
eme	-6620
erg	-6621
haw	-6622
hio	-6623
ico	-6624
ira	-6625
lap	-6626
oos	-6627
ori	-6628
rog	-6629
rot	-6630
san	-6631
say	-6632
tie	-6633
urt	-6634
▁35	-6635
▁60	-6636
▁9,	-6637
▁[4	-6638
▁jr	-6639
ales	-6640
bbed	-6641
clos	-6642
eath	-6643
etts	-6644
gery	-6645
hara	-6646
haus	-6647
have	-6648
ilty	-6649
inal	-6650
iner	-6651
llip	-6652
oons	-6653
pson	-6654
rels	-6655
rene	-6656
stal	-6657
stan	-6658
than	-6659
yard	-6660
▁abe	-6661
▁bib	-6662
▁cla	-6663
▁flu	-6664
▁gap	-6665
▁mia	-6666
▁owe	-6667
▁pel	-6668
▁sel	-6669
▁sig	-6670
▁sne	-6671
▁tad	-6672
▁tub	-6673
▁ult	-6674
▁vel	-6675
▁voy	-6676
▁wes	-6677
anned	-6678
cture	-6679
eness	-6680
estic	-6681
iches	-6682
iture	-6683
lines	-6684
mouth	-6685
moves	-6686
oring	-6687
would	-6688
▁2001	-6689
▁beds	-6690
▁bond	-6691
▁brun	-6692
▁chal	-6693
▁data	-6694
▁flav	-6695
▁folk	-6696
▁gina	-6697
▁gods	-6698
▁inha	-6699
▁jake	-6700
▁joan	-6701
▁lied	-6702
▁lois	-6703
▁ours	-6704
▁pars	-6705
▁peep	-6706
▁pope	-6707
▁rejo	-6708
▁rise	-6709
▁sale	-6710
▁seek	-6711
▁stew	-6712
▁teen	-6713
▁todd	-6714
▁twin	-6715
▁vain	-6716
coming	-6717
efully	-6718
icking	-6719
lessly	-6720
nesota	-6721
ournal	-6722
unting	-6723
whines	-6724
▁2011,	-6725
▁aband	-6726
▁acted	-6727
▁aloud	-6728
▁bacon	-6729
▁baron	-6730
▁bears	-6731
▁burnt	-6732
▁categ	-6733
▁elder	-6734
▁endea	-6735
▁flock	-6736
▁gates	-6737
▁invol	-6738
▁kelly	-6739
▁larry	-6740
▁limit	-6741
▁lorry	-6742
▁mercy	-6743
▁oblig	-6744
▁owned	-6745
▁peach	-6746
▁perce	-6747
▁pride	-6748
▁psych	-6749
▁queer	-6750
▁relax	-6751
▁roses	-6752
▁scary	-6753
▁seats	-6754
▁stays	-6755
▁tools	-6756
▁verse	-6757
▁wages	-6758
▁wears	-6759
▁weary	-6760
▁wendy	-6761
▁berlin	-6762
▁cancer	-6763
▁candid	-6764
▁cheers	-6765
▁collea	-6766
▁compar	-6767
▁covers	-6768
▁crimin	-6769
▁custom	-6770
▁depend	-6771
▁guilty	-6772
▁jimmie	-6773
▁johnny	-6774
▁junior	-6775
▁labour	-6776
▁legisl	-6777
▁louder	-6778
▁mickey	-6779
▁philos	-6780
▁plates	-6781
▁poorly	-6782
▁powers	-6783
▁rachel	-6784
▁recent	-6785
▁scouts	-6786
▁somers	-6787
▁stroke	-6788
▁sympat	-6789
▁tracks	-6790
▁winner	-6791
▁adopted	-6792
▁article	-6793
▁beneath	-6794
▁capture	-6795
▁chances	-6796
▁classes	-6797
▁closing	-6798
▁despair	-6799
▁diamond	-6800
▁distant	-6801
▁limited	-6802
▁madison	-6803
▁raining	-6804
▁returns	-6805
▁scratch	-6806
▁skipper	-6807
▁squeeze	-6808
▁unknown	-6809
▁vessels	-6810
▁victims	-6811
▁weapons	-6812
achusetts	-6813
continues	-6814
▁attacked	-6815
▁audience	-6816
▁bleeding	-6817
▁branches	-6818
▁counting	-6819
▁distinct	-6820
▁document	-6821
▁faithful	-6822
▁mcdonald	-6823
▁mistaken	-6824
▁potatoes	-6825
▁precious	-6826
▁pregnant	-6827
▁proposed	-6828
▁revealed	-6829
▁standard	-6830
▁thorough	-6831
▁visitors	-6832
▁wherever	-6833
▁assistant	-6834
▁completed	-6835
▁contribut	-6836
▁delighted	-6837
▁evidently	-6838
▁executive	-6839
▁minnesota	-6840
▁returning	-6841
▁separated	-6842
▁statement	-6843
▁wrestling	-6844
▁australian	-6845
▁constantly	-6846
▁passengers	-6847
▁sandwiches	-6848
▁surrounded	-6849
▁threatened	-6850
▁distributed	-6851
▁considerable	-6852
▁intelligence	-6853
▁occasionally	-6854
▁strawberries	-6855
▁environmental	-6856
▁administration	-6857
.)	-6858
1]	-6859
7)	-6860
8]	-6861
gb	-6862
mm	-6863
yy	-6864
▁0	-6865
▁{	-6866
aka	-6867
bot	-6868
cap	-6869
cip	-6870
dog	-6871
dri	-6872
esh	-6873
grm	-6874
iar	-6875
nah	-6876
ona	-6877
ppa	-6878
psy	-6879
ril	-6880
spe	-6881
uma	-6882
zes	-6883
||1	-6884
▁[7	-6885
▁ak	-6886
▁ec	-6887
▁ou	-6888
▁xv	-6889
bbie	-6890
from	-6891
last	-6892
mann	-6893
ouri	-6894
pent	-6895
pull	-6896
ties	-6897
wald	-6898
wers	-6899
▁10,	-6900
▁16,	-6901
▁30,	-6902
▁abd	-6903
▁awa	-6904
▁baa	-6905
▁cze	-6906
▁dal	-6907
▁fai	-6908
▁ful	-6909
▁mig	-6910
▁pup	-6911
▁rud	-6912
▁sco	-6913
▁sie	-6914
▁wre	-6915
asped	-6916
cking	-6917
eless	-6918
ested	-6919
ilton	-6920
sieur	-6921
speak	-6922
voice	-6923
▁1960	-6924
▁2000	-6925
▁2004	-6926
▁ages	-6927
▁anal	-6928
▁beth	-6929
▁boun	-6930
▁brid	-6931
▁cats	-6932
▁clap	-6933
▁deed	-6934
▁dent	-6935
▁earl	-6936
▁exha	-6937
▁foll	-6938
▁hood	-6939
▁imit	-6940
▁incl	-6941
▁lend	-6942
▁load	-6943
▁meow	-6944
▁obst	-6945
▁perm	-6946
▁pitt	-6947
▁poly	-6948
▁rasp	-6949
▁ribb	-6950
▁sock	-6951
▁stol	-6952
▁unex	-6953
▁whee	-6954
▁whoo	-6955
crying	-6956
keeper	-6957
lvania	-6958
member	-6959
places	-6960
rument	-6961
shakes	-6962
ulated	-6963
umbled	-6964
uments	-6965
▁2012,	-6966
▁2022,	-6967
▁begun	-6968
▁bible	-6969
▁brass	-6970
▁claus	-6971
▁comed	-6972
▁comic	-6973
▁condu	-6974
▁cushi	-6975
▁dougl	-6976
▁flesh	-6977
▁flies	-6978
▁flung	-6979
▁goose	-6980
▁horri	-6981
▁jason	-6982
▁joint	-6983
▁leans	-6984
▁lemme	-6985
▁madam	-6986
▁michi	-6987
▁patch	-6988
▁ruled	-6989
▁scale	-6990
▁scout	-6991
▁scrub	-6992
▁spill	-6993
▁squad	-6994
▁stove	-6995
▁whale	-6996
▁wheat	-6997
essions	-6998
reaches	-6999
▁affair	-7000
▁ballet	-7001
▁boring	-7002
▁burned	-7003
▁bushes	-7004
▁carpet	-7005
▁causes	-7006
▁ceased	-7007
▁cherry	-7008
▁duties	-7009
▁earned	-7010
▁endeav	-7011
▁expert	-7012
▁genius	-7013
▁harder	-7014
▁hunter	-7015
▁jessie	-7016
▁nether	-7017
▁poland	-7018
▁portug	-7019
▁prayer	-7020
▁relief	-7021
▁remove	-7022
▁reward	-7023
▁rivers	-7024
▁rocket	-7025
▁snakes	-7026
▁solemn	-7027
▁sweden	-7028
▁sylvia	-7029
▁theory	-7030
▁transl	-7031
▁wealth	-7032
▁wolves	-7033
aughters	-7034
▁ability	-7035
▁accompl	-7036
▁artists	-7037
▁benefit	-7038
▁billion	-7039
▁breathe	-7040
▁casting	-7041
▁ceremon	-7042
▁challen	-7043
▁chamber	-7044
▁climbed	-7045
▁conserv	-7046
▁declare	-7047
▁dorothy	-7048
▁eagerly	-7049
▁feeding	-7050
▁fiction	-7051
▁hurting	-7052
▁insects	-7053
▁leather	-7054
▁nations	-7055
▁notable	-7056
▁refused	-7057
▁sending	-7058
▁spirits	-7059
▁stephen	-7060
▁supreme	-7061
▁theatre	-7062
▁treated	-7063
▁tremend	-7064
▁attached	-7065
▁compared	-7066
▁confused	-7067
▁contains	-7068
▁describe	-7069
▁dreadful	-7070
▁enjoying	-7071
▁hamilton	-7072
▁inquired	-7073
▁midnight	-7074
▁monsieur	-7075
▁patients	-7076
▁physical	-7077
▁referred	-7078
▁regarded	-7079
▁stopping	-7080
▁sunshine	-7081
▁terribly	-7082
▁tropical	-7083
▁troubles	-7084
▁trousers	-7085
▁villages	-7086
▁alongside	-7087
▁basically	-7088
▁entertain	-7089
▁equipment	-7090
▁miserable	-7091
▁neighbour	-7092
▁policeman	-7093
▁principal	-7094
▁programme	-7095
▁reception	-7096
▁supported	-7097
▁companions	-7098
▁convention	-7099
▁expedition	-7100
▁foundation	-7101
▁frequently	-7102
▁generation	-7103
▁historical	-7104
▁instrument	-7105
▁appointment	-7106
▁christopher	-7107
▁organization	-7108
▁championships	-7109
▁communication	-7110
▁consideration	-7111
▁massachusetts	-7112
25	-7113
2]	-7114
60	-7115
8)	-7116
90	-7117
yl	-7118
▁;	-7119
abe	-7120
aco	-7121
dam	-7122
dro	-7123
elt	-7124
fir	-7125
glo	-7126
god	-7127
hey	-7128
hus	-7129
ios	-7130
iro	-7131
pse	-7132
roe	-7133
ros	-7134
uls	-7135
zed	-7136
||3	-7137
▁7,	-7138
▁cj	-7139
▁ms	-7140
000.	-7141
abor	-7142
acle	-7143
alem	-7144
aman	-7145
anda	-7146
ares	-7147
bage	-7148
bies	-7149
bits	-7150
cker	-7151
cour	-7152
ella	-7153
imum	-7154
isha	-7155
lict	-7156
life	-7157
meal	-7158
soft	-7159
stop	-7160
stor	-7161
zing	-7162
▁18,	-7163
▁181	-7164
▁ald	-7165
▁hom	-7166
▁lip	-7167
▁lux	-7168
▁mau	-7169
▁nam	-7170
▁nit	-7171
▁ske	-7172
▁toe	-7173
▁tut	-7174
▁vig	-7175
▁vin	-7176
▁yyy	-7177
▁zoe	-7178
heast	-7179
icide	-7180
inned	-7181
inson	-7182
jamas	-7183
orted	-7184
▁2006	-7185
▁2012	-7186
▁2015	-7187
▁alan	-7188
▁alco	-7189
▁anni	-7190
▁asks	-7191
▁bade	-7192
▁blaz	-7193
▁bold	-7194
▁bree	-7195
▁bron	-7196
▁cops	-7197
▁dies	-7198
▁diet	-7199
▁disp	-7200
▁dull	-7201
▁exec	-7202
▁fier	-7203
▁fifa	-7204
▁fled	-7205
▁fork	-7206
▁fund	-7207
▁glor	-7208
▁grab	-7209
▁gree	-7210
▁guar	-7211
▁hipp	-7212
▁lane	-7213
▁liqu	-7214
▁mack	-7215
▁mole	-7216
▁noon	-7217
▁nuts	-7218
▁oink	-7219
▁peel	-7220
▁prai	-7221
▁sets	-7222
▁skir	-7223
▁sons	-7224
▁stor	-7225
▁stub	-7226
▁stup	-7227
▁sult	-7228
▁viet	-7229
▁warn	-7230
▁wool	-7231
▁worn	-7232
▁writ	-7233
igator	-7234
osaurs	-7235
pected	-7236
vering	-7237
▁2017,	-7238
▁accur	-7239
▁andre	-7240
▁anger	-7241
▁baker	-7242
▁basic	-7243
▁bench	-7244
▁clare	-7245
▁czech	-7246
▁decor	-7247
▁drift	-7248
▁drunk	-7249
▁flows	-7250
▁habit	-7251
▁hadta	-7252
▁horns	-7253
▁ideal	-7254
▁items	-7255
▁jimmy	-7256
▁kings	-7257
▁labor	-7258
▁lover	-7259
▁manip	-7260
▁maria	-7261
▁minds	-7262
▁moore	-7263
▁moses	-7264
▁nancy	-7265
▁orang	-7266
▁percy	-7267
▁photo	-7268
▁quant	-7269
▁recom	-7270
▁revol	-7271
▁roles	-7272
▁sixth	-7273
▁slice	-7274
▁solar	-7275
▁steel	-7276
▁stout	-7277
▁subst	-7278
▁tamil	-7279
▁thumb	-7280
▁tooth	-7281
▁trace	-7282
▁tremb	-7283
osphere	-7284
playing	-7285
▁altern	-7286
▁anchor	-7287
▁argent	-7288
▁arrive	-7289
▁arrows	-7290
▁ashore	-7291
▁behalf	-7292
▁breast	-7293
▁cattle	-7294
▁commer	-7295
▁convin	-7296
▁copper	-7297
▁decent	-7298
▁gallop	-7299
▁glance	-7300
▁hearts	-7301
▁hermit	-7302
▁highly	-7303
▁honour	-7304
▁horror	-7305
▁killer	-7306
▁loving	-7307
▁meadow	-7308
▁metres	-7309
▁morgan	-7310
▁multip	-7311
▁outfit	-7312
▁poison	-7313
▁pushes	-7314
▁random	-7315
▁reject	-7316
▁resign	-7317
▁rubber	-7318
▁savage	-7319
▁severe	-7320
▁sexual	-7321
▁shared	-7322
▁shells	-7323
▁smells	-7324
▁survey	-7325
▁sweets	-7326
▁tempor	-7327
▁thrust	-7328
▁unable	-7329
________	-7330
izations	-7331
▁amongst	-7332
▁antonio	-7333
▁banging	-7334
▁battles	-7335
▁bernard	-7336
▁ceiling	-7337
▁colored	-7338
▁complex	-7339
▁content	-7340
▁engines	-7341
▁failure	-7342
▁forests	-7343
▁granted	-7344
▁landing	-7345
▁lantern	-7346
▁mansion	-7347
▁melissa	-7348
▁mystery	-7349
▁package	-7350
▁painted	-7351
▁patrick	-7352
▁pressed	-7353
▁product	-7354
▁reality	-7355
▁revenge	-7356
▁selling	-7357
▁seventh	-7358
▁shaking	-7359
▁sharply	-7360
necessary	-7361
▁approved	-7362
▁attitude	-7363
▁blessing	-7364
▁breaking	-7365
▁chickens	-7366
▁climbing	-7367
▁coloring	-7368
▁conflict	-7369
▁distingu	-7370
▁employed	-7371
▁engineer	-7372
▁fastened	-7373
▁granddad	-7374
▁horrible	-7375
▁intended	-7376
▁kentucky	-7377
▁laughter	-7378
▁location	-7379
▁missouri	-7380
▁operated	-7381
▁romantic	-7382
▁scholars	-7383
▁servants	-7384
▁somethin	-7385
▁startled	-7386
▁stations	-7387
▁supplies	-7388
▁teachers	-7389
▁container	-7390
▁daughters	-7391
▁desperate	-7392
▁elephants	-7393
▁hopefully	-7394
▁interfere	-7395
▁literally	-7396
▁regarding	-7397
▁religious	-7398
▁assistance	-7399
▁collection	-7400
▁connection	-7401
▁experiment	-7402
▁interrupts	-7403
▁questioned	-7404
▁settlement	-7405
▁travelling	-7406
▁administrat	-7407
▁description	-7408
▁illustrated	-7409
▁interrupted	-7410
▁netherlands	-7411
▁presidential	-7412
-4	-7413
67	-7414
86	-7415
91	-7416
yo	-7417
--_	-7418
aks	-7419
amy	-7420
ava	-7421
bal	-7422
cur	-7423
dem	-7424
dis	-7425
him	-7426
jan	-7427
lah	-7428
nut	-7429
oes	-7430
ppe	-7431
uki	-7432
una	-7433
||2	-7434
▁3.	-7435
▁ky	-7436
▁zo	-7437
▁——	-7438
'...	-7439
aria	-7440
boat	-7441
ccer	-7442
cest	-7443
does	-7444
eves	-7445
grim	-7446
heim	-7447
lace	-7448
lfri	-7449
lied	-7450
maid	-7451
mate	-7452
mill	-7453
mine	-7454
nedy	-7455
odes	-7456
part	-7457
phic	-7458
pool	-7459
ques	-7460
rich	-7461
star	-7462
udge	-7463
umes	-7464
wick	-7465
wide	-7466
yeah	-7467
▁14,	-7468
▁19,	-7469
▁20,	-7470
▁28,	-7471
▁ack	-7472
▁atm	-7473
▁clo	-7474
▁cou	-7475
▁dak	-7476
▁dey	-7477
▁fid	-7478
▁gle	-7479
▁goo	-7480
▁hem	-7481
▁hid	-7482
▁hud	-7483
▁ink	-7484
▁jay	-7485
▁kan	-7486
▁ket	-7487
▁lag	-7488
▁ral	-7489
▁rho	-7490
▁ris	-7491
▁sid	-7492
▁tai	-7493
▁tak	-7494
▁tob	-7495
▁typ	-7496
▁vii	-7497
▁zip	-7498
chair	-7499
count	-7500
enced	-7501
first	-7502
going	-7503
ivity	-7504
jamin	-7505
orpor	-7506
osity	-7507
rated	-7508
tries	-7509
ulate	-7510
unted	-7511
▁2009	-7512
▁amid	-7513
▁bald	-7514
▁bash	-7515
▁beam	-7516
▁beck	-7517
▁blew	-7518
▁bour	-7519
▁cage	-7520
▁chim	-7521
▁feat	-7522
▁file	-7523
▁gamb	-7524
▁greg	-7525
▁hamb	-7526
▁hits	-7527
▁hump	-7528
▁iowa	-7529
▁jill	-7530
▁lett	-7531
▁mall	-7532
▁mars	-7533
▁ohio	-7534
▁pion	-7535
▁plum	-7536
▁rect	-7537
▁rude	-7538
▁	-7539
e	-7540
t	-7541
o	-7542
a	-7543
i	-7544
n	-7545
h	-7546
s	-7547
r	-7548
l	-7549
d	-7550
m	-7551
u	-7552
c	-7553
.	-7554
y	-7555
w	-7556
g	-7557
f	-7558
p	-7559
b	-7560
:	-7561
*	-7562
,	-7563
k	-7564
v	-7565
'	-7566
?	-7567
"	-7568
-	-7569
x	-7570
j	-7571
=	-7572
[	-7573
]	-7574
!	-7575
1	-7576
0	-7577
2	-7578
z	-7579
q	-7580
9	-7581
)	-7582
(	-7583
;	-7584
“	-7585
”	-7586
’	-7587
3	-7588
8	-7589
5	-7590
4	-7591
7	-7592
6	-7593
_	-7594
/	-7595
%	-7596
|	-7597
–	-7598
♪	-7599
—	-7600
é	-7601
+	-7602
#	-7603
á	-7604
$	-7605
‘	-7606
í	-7607
⌈	-7608
⌉	-7609
&	-7610
→	-7611
ö	-7612
⌋	-7613
⌊	-7614
`	-7615
ü	-7616
ó	-7617
~	-7618
ä	-7619
¶	-7620
ā	-7621
è	-7622
ú	-7623
ć	-7624
}	-7625
ù	-7626
š	-7627
ç	-7628
ñ	-7629
{	-7630
à	-7631
ô	-7632
―	-7633
â	-7634
ø	-7635
å	-7636
°	-7637
æ	-7638
ō	-7639
\	-7640
─	-7641
£	-7642
ì	-7643
↗	-7644
ł	-7645
↫	-7646
ã	-7647
č	-7648
ū	-7649
@	-7650
¿	-7651
ß	-7652
ò	-7653
ē	-7654
ś	-7655
ž	-7656
ș	-7657
́	-7658
′	-7659
♫	-7660
×	-7661
î	-7662
ï	-7663
ı	-7664
ş	-7665
་	-7666
⁄	-7667
ê	-7668
ë	-7669
œ	-7670
ř	-7671
•	-7672
⁎	-7673
§	-7674
ð	-7675
đ	-7676
ī	-7677
∙	-7678
∞	-7679
✿	-7680
^	-7681
	-7682
	-7683
	-7684
¡	-7685
ă	-7686
ą	-7687
ě	-7688
ń	-7689
ņ	-7690
ố	-7691
ồ	-7692
‐	-7693
▔	-7694
<	-7695
>	-7696
	-7697
©	-7698
·	-7699
ý	-7700
þ	-7701
ĕ	-7702
ġ	-7703
ĭ	-7704
İ	-7705
ő	-7706
ũ	-7707
ź	-7708
ż	-7709
ư	-7710
ǎ	-7711
ǫ	-7712
ɑ	-7713
ɪ	-7714
ʃ	-7715
ʊ	-7716
ʾ	-7717
ː	-7718
̶	-7719
η	-7720
ν	-7721
й	-7722
ј	-7723
॥	-7724
ṉ	-7725
ṛ	-7726
ṣ	-7727
ṭ	-7728
ṯ	-7729
ả	-7730
ắ	-7731
ề	-7732
ệ	-7733
ọ	-7734
ớ	-7735
ờ	-7736
‡	-7737
‰	-7738
€	-7739
