<unk>	0
<s>	0
</s>	0
<pad>	0
<0x00>	0
<0x01>	0
<0x02>	0
<0x03>	0
<0x04>	0
<0x05>	0
<0x06>	0
<0x07>	0
<0x08>	0
<0x09>	0
<0x0A>	0
<0x0B>	0
<0x0C>	0
<0x0D>	0
<0x0E>	0
<0x0F>	0
<0x10>	0
<0x11>	0
<0x12>	0
<0x13>	0
<0x14>	0
<0x15>	0
<0x16>	0
<0x17>	0
<0x18>	0
<0x19>	0
<0x1A>	0
<0x1B>	0
<0x1C>	0
<0x1D>	0
<0x1E>	0
<0x1F>	0
<0x20>	0
<0x21>	0
<0x22>	0
<0x23>	0
<0x24>	0
<0x25>	0
<0x26>	0
<0x27>	0
<0x28>	0
<0x29>	0
<0x2A>	0
<0x2B>	0
<0x2C>	0
<0x2D>	0
<0x2E>	0
<0x2F>	0
<0x30>	0
<0x31>	0
<0x32>	0
<0x33>	0
<0x34>	0
<0x35>	0
<0x36>	0
<0x37>	0
<0x38>	0
<0x39>	0
<0x3A>	0
<0x3B>	0
<0x3C>	0
<0x3D>	0
<0x3E>	0
<0x3F>	0
<0x40>	0
<0x41>	0
<0x42>	0
<0x43>	0
<0x44>	0
<0x45>	0
<0x46>	0
<0x47>	0
<0x48>	0
<0x49>	0
<0x4A>	0
<0x4B>	0
<0x4C>	0
<0x4D>	0
<0x4E>	0
<0x4F>	0
<0x50>	0
<0x51>	0
<0x52>	0
<0x53>	0
<0x54>	0
<0x55>	0
<0x56>	0
<0x57>	0
<0x58>	0
<0x59>	0
<0x5A>	0
<0x5B>	0
<0x5C>	0
<0x5D>	0
<0x5E>	0
<0x5F>	0
<0x60>	0
<0x61>	0
<0x62>	0
<0x63>	0
<0x64>	0
<0x65>	0
<0x66>	0
<0x67>	0
<0x68>	0
<0x69>	0
<0x6A>	0
<0x6B>	0
<0x6C>	0
<0x6D>	0
<0x6E>	0
<0x6F>	0
<0x70>	0
<0x71>	0
<0x72>	0
<0x73>	0
<0x74>	0
<0x75>	0
<0x76>	0
<0x77>	0
<0x78>	0
<0x79>	0
<0x7A>	0
<0x7B>	0
<0x7C>	0
<0x7D>	0
<0x7E>	0
<0x7F>	0
<0x80>	0
<0x81>	0
<0x82>	0
<0x83>	0
<0x84>	0
<0x85>	0
<0x86>	0
<0x87>	0
<0x88>	0
<0x89>	0
<0x8A>	0
<0x8B>	0
<0x8C>	0
<0x8D>	0
<0x8E>	0
<0x8F>	0
<0x90>	0
<0x91>	0
<0x92>	0
<0x93>	0
<0x94>	0
<0x95>	0
<0x96>	0
<0x97>	0
<0x98>	0
<0x99>	0
<0x9A>	0
<0x9B>	0
<0x9C>	0
<0x9D>	0
<0x9E>	0
<0x9F>	0
<0xA0>	0
<0xA1>	0
<0xA2>	0
<0xA3>	0
<0xA4>	0
<0xA5>	0
<0xA6>	0
<0xA7>	0
<0xA8>	0
<0xA9>	0
<0xAA>	0
<0xAB>	0
<0xAC>	0
<0xAD>	0
<0xAE>	0
<0xAF>	0
<0xB0>	0
<0xB1>	0
<0xB2>	0
<0xB3>	0
<0xB4>	0
<0xB5>	0
<0xB6>	0
<0xB7>	0
<0xB8>	0
<0xB9>	0
<0xBA>	0
<0xBB>	0
<0xBC>	0
<0xBD>	0
<0xBE>	0
<0xBF>	0
<0xC0>	0
<0xC1>	0
<0xC2>	0
<0xC3>	0
<0xC4>	0
<0xC5>	0
<0xC6>	0
<0xC7>	0
<0xC8>	0
<0xC9>	0
<0xCA>	0
<0xCB>	0
<0xCC>	0
<0xCD>	0
<0xCE>	0
<0xCF>	0
<0xD0>	0
<0xD1>	0
<0xD2>	0
<0xD3>	0
<0xD4>	0
<0xD5>	0
<0xD6>	0
<0xD7>	0
<0xD8>	0
<0xD9>	0
<0xDA>	0
<0xDB>	0
<0xDC>	0
<0xDD>	0
<0xDE>	0
<0xDF>	0
<0xE0>	0
<0xE1>	0
<0xE2>	0
<0xE3>	0
<0xE4>	0
<0xE5>	0
<0xE6>	0
<0xE7>	0
<0xE8>	0
<0xE9>	0
<0xEA>	0
<0xEB>	0
<0xEC>	0
<0xED>	0
<0xEE>	0
<0xEF>	0
<0xF0>	0
<0xF1>	0
<0xF2>	0
<0xF3>	0
<0xF4>	0
<0xF5>	0
<0xF6>	0
<0xF7>	0
<0xF8>	0
<0xF9>	0
<0xFA>	0
<0xFB>	0
<0xFC>	0
<0xFD>	0
<0xFE>	0
<0xFF>	0
.	-2.9497
s	-3.32065
:	-3.42195
▁*	-3.47592
,	-3.57103
▁the	-3.66211
'	-3.8888
▁a	-4.19047
mot	-4.25636
▁you	-4.32635
▁and	-4.34562
▁i	-4.34939
▁to	-4.35941
t	-4.39638
?	-4.40079
chi	-4.47692
▁it	-4.60437
▁of	-4.63672
▁in	-4.73695
▁that	-4.82827
ed	-5.09711
ing	-5.16717
▁he	-5.19986
▁is	-5.2379
d	-5.29139
▁was	-5.31779
▁=	-5.35758
m	-5.42589
▁on	-5.44622
▁[	-5.47873
▁for	-5.49406
▁what	-5.49591
▁we	-5.53917
▁	-5.61372
▁"	-5.62027
re	-5.62722
y	-5.68784
]	-5.70072
▁this	-5.70904
n	-5.71887
!	-5.72621
▁do	-5.7439
▁be	-5.75229
▁no	-5.76078
▁with	-5.77437
e	-5.78206
▁me	-5.79593
▁have	-5.8625
▁there	-5.87141
▁they	-5.87972
▁not	-5.88238
▁she	-5.88912
-	-5.90498
▁-	-5.93704
▁can	-5.93805
er	-5.96469
▁one	-5.97925
▁at	-5.98243
▁but	-5.99791
a	-6.00062
ll	-6.00111
▁so	-6.00649
▁are	-6.01045
i	-6.013
ly	-6.02271
▁his	-6.0432
c	-6.10066
▁all	-6.14254
▁oh	-6.14646
▁as	-6.14819
▁go	-6.15128
▁yeah	-6.1587
r	-6.19103
▁my	-6.19541
▁her	-6.19544
▁don	-6.2099
▁your	-6.22078
▁know	-6.22636
p	-6.23255
▁up	-6.24658
▁like	-6.24722
...	-6.248
▁had	-6.26132
ve	-6.27636
in	-6.32762
o	-6.35908
inv	-6.36644
▁out	-6.38757
▁an	-6.39661
▁from	-6.39911
al	-6.43422
▁just	-6.45558
▁here	-6.46383
le	-6.47174
▁get	-6.48077
▁see	-6.48692
g	-6.48892
▁him	-6.50856
▁by	-6.51849
▁if	-6.53435
▁right	-6.54963
▁or	-6.56226
▁were	-6.5704
▁now	-6.57783
▁well	-6.60002
▁about	-6.60355
▁when	-6.60439
▁who	-6.61316
▁then	-6.62942
l	-6.63167
▁said	-6.65597
or	-6.68341
▁come	-6.68822
▁b	-6.69219
▁think	-6.69989
▁got	-6.70584
▁did	-6.71246
▁them	-6.73191
▁where	-6.74167
▁some	-6.75138
fat	-6.76569
▁want	-6.78845
▁will	-6.79181
b	-6.79449
▁look	-6.80184
▁(	-6.81303
▁re	-6.82506
▁would	-6.84151
;	-6.84523
▁yes	-6.8499
▁good	-6.85959
f	-6.86577
h	-6.87065
▁“	-6.87463
es	-6.87916
w	-6.88204
)	-6.9185
’	-6.92348
▁how	-6.92636
▁back	-6.94071
▁has	-6.94645
▁okay	-6.95102
▁down	-6.95213
].	-6.95242
▁put	-6.95318
▁s	-6.95507
▁little	-6.97269
"	-6.97359
."	-6.97924
▁de	-6.984
▁time	-6.99152
th	-6.9984
▁been	-7.00292
▁over	-7.01012
▁more	-7.01599
k	-7.01916
▁very	-7.0201
▁xxx	-7.02363
ck	-7.03261
▁going	-7.03341
an	-7.03516
▁which	-7.04468
▁two	-7.05487
u	-7.07068
▁let	-7.07291
ar	-7.10726
ri	-7.11069
▁other	-7.12478
▁man	-7.12588
ra	-7.14464
▁'	-7.14731
il	-7.14932
▁their	-7.15065
en	-7.15142
it	-7.17903
▁could	-7.18115
▁say	-7.19388
ro	-7.19617
▁take	-7.19901
ch	-7.21867
ne	-7.22316
,"	-7.22599
▁p	-7.23771
▁why	-7.2486
ter	-7.25789
se	-7.25918
▁make	-7.26726
li	-7.26803
▁19	-7.26986
ic	-7.27281
▁c	-7.27912
lo	-7.28319
z	-7.28793
on	-7.3037
v	-7.30969
▁o	-7.30975
la	-7.31836
▁us	-7.32116
▁into	-7.32228
ion	-7.32553
ce	-7.32643
▁e	-7.33012
▁tell	-7.33355
▁people	-7.34242
▁too	-7.35558
▁way	-7.3591
▁because	-7.37118
▁off	-7.38188
▁any	-7.40291
na	-7.40537
2	-7.40561
▁after	-7.40575
ie	-7.41106
▁first	-7.41365
el	-7.43219
▁ma	-7.43951
▁gonna	-7.44129
▁these	-7.45913
--	-7.46394
ma	-7.4645
▁only	-7.47364
de	-7.48123
▁uh	-7.49359
ation	-7.50158
▁our	-7.50692
▁er	-7.51024
5	-7.52128
▁should	-7.53164
▁car	-7.53914
3	-7.53992
▁something	-7.55231
par	-7.5524
▁again	-7.55318
▁need	-7.55489
ry	-7.55697
me	-7.55876
te	-7.56077
▁really	-7.57592
▁work	-7.57635
▁didn	-7.58351
no	-7.59192
ment	-7.59553
sh	-7.60063
▁ra	-7.60256
▁new	-7.60504
▁mean	-7.60802
ur	-7.60977
as	-7.61471
est	-7.61733
7	-7.62435
▁much	-7.62842
▁give	-7.63
at	-7.63198
▁g	-7.63688
x	-7.63923
▁la	-7.64383
ent	-7.6445
▁play	-7.64627
▁came	-7.64854
▁name	-7.65241
▁made	-7.65803
et	-7.66195
▁big	-7.67204
us	-7.6742
1	-7.67726
to	-7.67998
▁day	-7.68291
ers	-7.6837
▁before	-7.68761
ul	-7.69613
▁than	-7.69776
▁does	-7.70661
▁home	-7.70956
▁three	-7.71487
▁po	-7.71706
▁house	-7.72622
▁ba	-7.72906
6	-7.73068
pe	-7.73126
▁great	-7.73973
▁co	-7.74401
▁con	-7.74403
▁ha	-7.74679
exp	-7.74773
▁old	-7.74868
ha	-7.7519
▁am	-7.75246
ta	-7.75474
▁un	-7.75611
vi	-7.76141
▁away	-7.76394
▁never	-7.76547
ia	-7.77059
▁went	-7.77415
▁another	-7.77986
ty	-7.78267
▁mr	-7.78286
un	-7.78787
▁um	-7.79228
9	-7.79598
the	-7.79951
▁those	-7.79971
▁ro	-7.79985
man	-7.80184
▁f	-7.80236
ke	-7.80329
ge	-7.8126
▁thought	-7.81273
▁help	-7.81662
▁wanna	-7.81997
▁also	-7.82012
8	-7.8243
▁won	-7.82574
▁doing	-7.82755
▁even	-7.8367
ate	-7.83749
co	-7.83956
op	-7.83966
/	-7.84152
▁w	-7.84191
▁mi	-7.84411
▁hand	-7.84893
▁long	-7.84898
▁still	-7.85114
_	-7.8545
4	-7.85606
▁dis	-7.85721
?"	-7.85947
▁through	-7.85997
▁must	-7.86208
he	-7.86609
▁thing	-7.86903
▁k	-7.87087
is	-7.87354
▁head	-7.8742
▁may	-7.8744
▁place	-7.87677
ba	-7.87914
ist	-7.88424
▁many	-7.88548
and	-7.88557
tion	-7.88569
▁find	-7.89068
▁li	-7.8977
mp	-7.89779
▁book	-7.89868
▁things	-7.90013
▁part	-7.90075
▁d	-7.90391
▁show	-7.90576
▁last	-7.90601
▁mm	-7.90833
▁t	-7.91336
ive	-7.91364
id	-7.91365
▁bit	-7.91965
▁le	-7.91982
▁found	-7.92225
▁love	-7.92554
ies	-7.93188
▁lot	-7.93662
▁ga	-7.93728
ton	-7.94315
▁night	-7.94595
▁baby	-7.95113
▁se	-7.95116
ol	-7.95141
ad	-7.95379
be	-7.95593
um	-7.96316
▁da	-7.9666
▁boy	-7.96677
▁thank	-7.97586
▁please	-7.98053
▁di	-7.99137
▁girl	-7.99323
▁done	-7.99554
▁ca	-7.99997
▁chi	-8.00136
ted	-8.00429
▁ta	-8.00437
▁sure	-8.00786
▁sp	-8.00966
▁miss	-8.01106
▁nice	-8.01139
▁lo	-8.01412
pp	-8.01423
▁pro	-8.01427
able	-8.01613
▁called	-8.01832
ni	-8.02592
▁isn	-8.02807
.”	-8.03332
▁better	-8.03408
▁eat	-8.03606
▁%	-8.03667
▁might	-8.0383
ca	-8.04154
am	-8.04658
▁mother	-8.04688
▁water	-8.04716
▁end	-8.04718
ian	-8.05315
▁men	-8.05513
▁mo	-8.05698
▁most	-8.05793
ver	-8.07796
▁school	-8.07935
▁around	-8.07935
▁life	-8.08167
▁keep	-8.0818
do	-8.08447
ine	-8.08659
ir	-8.09304
▁turn	-8.09335
son	-8.10149
▁erm	-8.10158
▁na	-8.10813
▁kind	-8.1091
▁anything	-8.11307
▁gra	-8.1148
▁open	-8.13019
age	-8.13027
,”	-8.13295
▁four	-8.1343
▁doesn	-8.13635
▁hey	-8.14512
ny	-8.14757
▁while	-8.15508
laughs	-8.16097
tic	-8.16152
▁under	-8.16261
▁mhm	-8.16466
▁ah	-8.16605
▁vi	-8.17188
▁call	-8.1739
▁next	-8.17433
▁room	-8.17766
▁talk	-8.18086
ster	-8.1812
▁such	-8.18472
bo	-8.18614
▁world	-8.18659
▁nothing	-8.19408
▁door	-8.19579
▁same	-8.19623
▁father	-8.19903
mo	-8.19995
lu	-8.20012
0	-8.20131
add	-8.20353
ant	-8.20512
▁th	-8.20669
▁bo	-8.20725
ity	-8.20768
▁own	-8.21268
mi	-8.21555
ng	-8.22
▁ex	-8.2219
▁being	-8.22467
im	-8.22539
▁shall	-8.22576
ish	-8.22589
▁always	-8.22672
▁mar	-8.23213
▁told	-8.23247
da	-8.23512
▁mummy	-8.23711
ber	-8.24624
▁hi	-8.24706
▁sit	-8.24841
po	-8.24996
▁sc	-8.2513
oo	-8.25181
sis	-8.25345
▁bar	-8.25644
▁ne	-8.25744
les	-8.25935
▁ever	-8.25957
ful	-8.25958
▁war	-8.25959
ence	-8.26019
▁remember	-8.26057
▁left	-8.26059
▁high	-8.26066
▁years	-8.2619
▁use	-8.26615
!"	-8.26979
nk	-8.27196
▁dr	-8.27209
wa	-8.27467
▁side	-8.27881
ness	-8.28084
em	-8.28314
▁wait	-8.2907
▁u	-8.29587
▁maybe	-8.29616
ling	-8.29693
▁pi	-8.298
▁used	-8.29802
▁leave	-8.29836
▁saw	-8.29948
▁ti	-8.30313
▁al	-8.30537
▁every	-8.30999
▁start	-8.31186
▁watch	-8.31212
▁else	-8.31281
▁ho	-8.31506
▁su	-8.31808
▁once	-8.31826
we	-8.32582
▁stop	-8.32667
hi	-8.32776
ak	-8.32954
▁close	-8.33481
▁young	-8.35356
▁red	-8.35736
ous	-8.35796
mb	-8.35966
che	-8.36362
▁du	-8.36406
▁gone	-8.36611
ure	-8.37758
▁live	-8.3804
▁l	-8.38088
▁looks	-8.38138
▁sir	-8.38187
▁per	-8.38382
▁cha	-8.38403
▁enough	-8.38462
▁sorry	-8.39052
▁huh	-8.39303
ph	-8.39318
ting	-8.39349
▁course	-8.39353
▁five	-8.39557
▁goes	-8.39626
▁hm	-8.39682
▁coming	-8.39966
▁sa	-8.40118
tea	-8.40131
▁took	-8.40342
ance	-8.40369
ci	-8.40495
▁until	-8.40573
ho	-8.40671
▁hear	-8.40817
▁hard	-8.40918
▁week	-8.4119
▁both	-8.41209
▁ball	-8.41594
my	-8.41693
▁ja	-8.41743
led	-8.41818
▁face	-8.41855
▁fire	-8.41963
bro	-8.42225
▁st	-8.42542
▁box	-8.42555
▁morning	-8.43058
▁sound	-8.43206
if	-8.43699
▁best	-8.43985
▁move	-8.44161
▁light	-8.44162
▁second	-8.44316
▁pa	-8.4456
▁god	-8.44924
▁money	-8.44972
▁pe	-8.44994
▁eyes	-8.45092
you	-8.45123
▁small	-8.45275
ated	-8.45522
▁dear	-8.45966
▁seen	-8.46075
▁pick	-8.46087
▁pre	-8.4622
dy	-8.46302
▁walk	-8.46458
▁run	-8.46687
ary	-8.47031
▁fall	-8.47094
go	-8.47131
▁though	-8.47324
▁quite	-8.47557
▁m	-8.47663
▁ka	-8.47859
▁sw	-8.47924
▁yet	-8.48047
per	-8.48114
▁daddy	-8.48225
▁ask	-8.48937
▁bad	-8.48974
▁mommy	-8.49554
▁_	-8.49566
▁3	-8.49649
end	-8.4972
▁far	-8.49903
▁hold	-8.49979
▁asked	-8.50161
▁game	-8.5031
▁says	-8.50989
bi	-8.51012
▁today	-8.51054
▁together	-8.51226
ga	-8.51392
que	-8.51514
▁friend	-8.51527
▁laugh	-8.51618
red	-8.51658
▁year	-8.51781
▁blue	-8.5191
▁city	-8.52004
▁wi	-8.52122
▁r	-8.5218
▁bu	-8.52426
ner	-8.52513
sa	-8.53073
di	-8.53481
▁child	-8.53559
ten	-8.53562
ah	-8.53827
▁haven	-8.53949
▁each	-8.5399
▁soon	-8.54534
cu	-8.54635
▁en	-8.54642
▁tra	-8.54668
▁read	-8.54953
bb	-8.54955
▁heard	-8.55134
▁getting	-8.55288
▁ten	-8.55595
ard	-8.55628
▁mind	-8.55689
▁try	-8.55763
▁since	-8.56114
▁believe	-8.56115
▁n	-8.56223
ka	-8.56308
ial	-8.56343
▁without	-8.56392
▁different	-8.56472
▁picture	-8.56472
▁half	-8.56472
▁air	-8.56488
her	-8.56534
▁ru	-8.56776
va	-8.56873
▁train	-8.57024
▁mrs	-8.5717
▁sh	-8.5738
less	-8.57677
ow	-8.57859
mch	-8.58092
▁six	-8.58321
▁dog	-8.5853
▁ri	-8.58862
mon	-8.58967
▁stay	-8.5897
▁2	-8.59069
▁number	-8.59387
mar	-8.59645
▁ste	-8.59682
fa	-8.59691
▁known	-8.59803
▁happen	-8.59892
king	-8.60198
▁looked	-8.60455
pa	-8.60648
▁sta	-8.60753
ud	-8.60853
▁between	-8.60876
▁few	-8.60946
▁sec	-8.60967
▁ya	-8.61201
▁chair	-8.61667
▁looking	-8.61756
▁arm	-8.62191
▁wa	-8.62376
▁black	-8.62814
▁feel	-8.63009
▁john	-8.63154
▁green	-8.63155
▁children	-8.63168
min	-8.63171
▁near	-8.63425
▁alright	-8.64321
out	-8.64334
▁jack	-8.64423
▁el	-8.64464
▁everything	-8.64702
▁bring	-8.64831
▁jo	-8.64856
but	-8.65045
▁round	-8.65124
oh	-8.65269
ap	-8.65311
▁set	-8.65606
land	-8.65627
▁land	-8.65678
fi	-8.65678
▁real	-8.65744
▁himself	-8.65877
▁che	-8.66054
▁va	-8.66082
▁sleep	-8.66273
▁hafta	-8.66273
cause	-8.66393
▁american	-8.66427
▁color	-8.66758
▁table	-8.66769
▁cla	-8.66994
▁pretty	-8.67069
int	-8.67318
vo	-8.67424
our	-8.67523
▁moment	-8.67603
ok	-8.67689
▁mu	-8.67714
▁having	-8.6787
ally	-8.67922
ice	-8.68085
▁movie	-8.68274
▁♪	-8.68296
up	-8.68356
▁comp	-8.68564
cha	-8.68726
▁happened	-8.68935
▁stand	-8.68976
gma	-8.69103
▁story	-8.69503
▁heart	-8.69529
▁bed	-8.69686
for	-8.69764
▁later	-8.6986
▁star	-8.69974
▁rest	-8.70104
▁dad	-8.70134
▁party	-8.70236
▁ready	-8.70294
▁knew	-8.70314
rs	-8.70533
▁18	-8.70705
▁wanted	-8.70727
▁point	-8.70788
ey	-8.71128
▁gu	-8.71264
▁win	-8.71418
▁piece	-8.71559
?”	-8.71983
▁north	-8.72064
".	-8.72277
▁drink	-8.72399
ff	-8.72429
▁cup	-8.72494
lie	-8.72611
gi	-8.7274
▁cr	-8.72762
▁white	-8.72836
▁boys	-8.72925
▁pat	-8.72967
▁idea	-8.73163
▁whole	-8.73285
ee	-8.73441
▁tu	-8.73695
▁sea	-8.73741
▁talking	-8.73806
so	-8.73845
▁state	-8.74094
▁matter	-8.7414
▁making	-8.74165
▁sort	-8.74168
▁1	-8.7434
ut	-8.74669
▁listen	-8.75053
▁line	-8.75139
der	-8.75372
▁gave	-8.75376
ru	-8.7551
▁sha	-8.76076
▁ge	-8.76126
▁large	-8.76709
▁gr	-8.76717
▁born	-8.76958
ning	-8.77015
▁hour	-8.77236
▁j	-8.77547
▁feet	-8.77622
▁hope	-8.77705
gra	-8.77979
▁family	-8.78026
▁order	-8.782
j	-8.7837
▁paper	-8.78505
yes	-8.78518
▁care	-8.78655
▁fun	-8.78774
▁te	-8.78827
—	-8.78921
▁along	-8.78934
▁south	-8.78936
▁cut	-8.79025
▁against	-8.79074
ite	-8.79205
ron	-8.7934
▁seven	-8.79373
▁brother	-8.79379
tur	-8.79487
▁fine	-8.79701
▁5	-8.79768
▁upon	-8.798
ja	-8.79926
▁bra	-8.80139
ger	-8.80157
▁short	-8.80283
ough	-8.80408
▁hands	-8.80442
▁leg	-8.80528
▁mom	-8.80657
▁wh	-8.80729
é	-8.80735
▁during	-8.81218
▁actually	-8.8122
▁tree	-8.81222
▁voice	-8.8167
▁king	-8.81752
▁days	-8.81756
▁fa	-8.81763
by	-8.81798
▁wrong	-8.82118
▁sun	-8.82132
▁music	-8.82219
▁top	-8.82332
▁age	-8.82374
▁si	-8.82645
▁hu	-8.82714
▁rock	-8.82831
▁ju	-8.82835
▁v	-8.82907
▁team	-8.83033
▁food	-8.83051
▁tri	-8.83217
▁h	-8.8332
what	-8.83629
way	-8.84142
▁pay	-8.845
well	-8.84734
▁floor	-8.84942
▁fl	-8.85092
bu	-8.85201
▁4	-8.85288
▁pull	-8.85606
pi	-8.85659
▁sometimes	-8.85903
▁hello	-8.85921
▁grand	-8.85965
▁bear	-8.86027
▁outside	-8.86027
▁town	-8.86104
▁z	-8.86163
▁sent	-8.86283
▁wouldn	-8.86317
▁cat	-8.86332
▁question	-8.86384
▁speak	-8.86384
gu	-8.86512
▁county	-8.86636
▁horse	-8.8687
▁guess	-8.86874
▁country	-8.86909
▁har	-8.87216
▁wasn	-8.87356
▁united	-8.87359
▁draw	-8.87376
▁word	-8.87533
▁noise	-8.87578
▁ran	-8.87592
wi	-8.87665
▁je	-8.87849
),	-8.87982
▁present	-8.88342
▁died	-8.88619
ring	-8.88706
tain	-8.89014
nan	-8.89017
▁mine	-8.89089
▁tea	-8.89971
▁wonder	-8.90136
ki	-8.90233
ned	-8.90243
ig	-8.90287
val	-8.90352
▁fish	-8.90487
childes	-8.90641
▁gotta	-8.90761
▁front	-8.90841
▁qu	-8.90851
und	-8.90939
▁fi	-8.90981
▁hair	-8.9145
▁fla	-8.91571
▁poor	-8.91754
ze	-8.91823
▁understand	-8.92886
▁job	-8.93031
▁trying	-8.93196
▁bird	-8.93407
▁ear	-8.93701
ag	-8.9391
|	-8.93925
+	-8.93925
▁brought	-8.93929
▁member	-8.93932
lt	-8.94052
▁cl	-8.94198
▁able	-8.94231
cent	-8.94289
▁group	-8.94455
▁minute	-8.94525
▁states	-8.94673
▁song	-8.94693
▁son	-8.94788
▁almost	-8.94975
▁bi	-8.95222
ious	-8.95504
▁behind	-8.95504
▁happy	-8.95504
▁throw	-8.95505
▁person	-8.95606
▁saying	-8.95621
▁fo	-8.95704
▁ki	-8.95825
00	-8.95886
▁act	-8.95951
▁plan	-8.96242
▁already	-8.96571
▁lady	-8.96884
aft	-8.96918
▁page	-8.96934
▁change	-8.97143
▁seemed	-8.97144
▁late	-8.97199
▁friends	-8.97379
1:	-8.97439
▁probably	-8.97649
▁national	-8.97649
▁pen	-8.97716
▁woman	-8.98192
wn	-8.982
▁full	-8.98202
▁began	-8.98488
qui	-8.98534
▁–	-8.98909
▁wish	-8.98916
▁thomas	-8.99288
▁write	-8.99308
▁vo	-9.00002
com	-9.00119
▁6	-9.0019
ise	-9.00255
▁bri	-9.00295
▁doll	-9.0038
▁ar	-9.00384
▁mark	-9.00458
▁fe	-9.00484
tu	-9.00522
lin	-9.00576
mer	-9.00848
▁eight	-9.01013
▁lost	-9.01072
▁doctor	-9.01251
▁till	-9.01573
con	-9.01651
▁ben	-9.01988
▁playing	-9.02059
ily	-9.02423
ham	-9.02672
▁fight	-9.02686
▁cover	-9.02774
han	-9.02929
io	-9.03129
▁lu	-9.03146
▁boat	-9.03339
▁guy	-9.03505
▁case	-9.03543
iz	-9.03608
▁record	-9.03796
▁stick	-9.038
pat	-9.03827
▁someone	-9.03899
▁grow	-9.042
▁reason	-9.04375
ld	-9.04439
▁fact	-9.04462
▁couldn	-9.04644
▁hundred	-9.04955
▁window	-9.05556
▁stuff	-9.05566
▁sing	-9.05613
uc	-9.05663
▁letter	-9.06124
▁beautiful	-9.06128
ren	-9.06138
▁however	-9.06222
▁twenty	-9.0672
huh	-9.06726
ley	-9.06749
▁em	-9.06797
▁taken	-9.06962
▁cause	-9.07349
▁cold	-9.07398
▁fast	-9.07454
ward	-9.07476
▁started	-9.07493
",	-9.0778
▁sur	-9.07878
▁true	-9.08031
▁played	-9.0807
▁became	-9.08517
dad	-9.08616
that	-9.08628
ical	-9.08689
▁ski	-9.08722
▁fell	-9.08775
gan	-9.08938
▁myself	-9.09123
au	-9.09147
▁touch	-9.09177
▁pass	-9.09398
▁hot	-9.09454
all	-9.09664
▁brown	-9.09745
▁hat	-9.0976
▁mum	-9.09769
▁month	-9.09809
”	-9.09822
▁wear	-9.09923
▁inside	-9.09962
ctor	-9.10252
▁street	-9.10347
▁uhhuh	-9.10404
▁7	-9.10715
ya	-9.10721
▁death	-9.10965
▁dead	-9.11256
▁form	-9.11518
▁glad	-9.11587
▁inv	-9.11606
▁wood	-9.11707
ble	-9.11841
▁sister	-9.12254
▁free	-9.12307
nder	-9.12448
▁early	-9.12503
▁cur	-9.12532
!”	-9.12546
▁cho	-9.12587
▁ni	-9.12602
low	-9.12692
▁visit	-9.12846
▁taking	-9.12899
▁follow	-9.12902
▁dark	-9.12981
men	-9.13052
ries	-9.1327
▁turned	-9.13295
▁ce	-9.13392
ship	-9.1344
▁break	-9.13472
▁captain	-9.13481
▁comm	-9.13516
▁jump	-9.13525
▁road	-9.13603
▁sat	-9.13777
▁makes	-9.13985
▁push	-9.14167
ight	-9.14326
▁count	-9.14523
car	-9.14566
ever	-9.14644
lic	-9.14664
▁french	-9.14749
▁several	-9.14749
ler	-9.14756
▁sal	-9.14768
ac	-9.14833
nie	-9.14881
▁aren	-9.151
▁river	-9.15451
▁deal	-9.15519
▁bro	-9.15543
▁general	-9.16046
▁clear	-9.16058
▁wife	-9.1606
ex	-9.1607
ther	-9.16086
▁perhaps	-9.16097
▁toward	-9.16119
born	-9.16372
▁ring	-9.16428
▁across	-9.16697
▁problem	-9.16697
▁power	-9.167
▁ab	-9.16749
ating	-9.16822
▁nor	-9.17134
▁times	-9.17307
▁yourself	-9.17355
▁funny	-9.17399
▁8	-9.17466
how	-9.1781
▁hit	-9.17929
▁trouble	-9.18017
▁thanks	-9.18039
▁boo	-9.18085
one	-9.18479
of	-9.18486
ncy	-9.18573
▁either	-9.18684
▁cor	-9.18768
rus	-9.19237
▁learn	-9.1936
side	-9.19536
ran	-9.1971
▁x	-9.19719
ign	-9.19819
▁minutes	-9.19932
▁rather	-9.20085
▁meet	-9.20263
▁flower	-9.20318
▁girls	-9.20506
▁eye	-9.20603
▁foot	-9.20709
▁special	-9.20722
▁means	-9.20788
▁fair	-9.20797
ric	-9.20863
▁pu	-9.20999
▁20	-9.21049
▁ground	-9.21402
rate	-9.21815
▁cre	-9.21842
▁yellow	-9.22086
▁quiet	-9.22088
▁hurt	-9.22092
▁2020	-9.22093
▁france	-9.2211
▁given	-9.22237
▁class	-9.22335
▁words	-9.22353
ub	-9.22798
▁ok	-9.22953
pped	-9.2299
▁imp	-9.23146
old	-9.23153
▁sign	-9.23309
▁pan	-9.23319
ities	-9.23452
▁#	-9.23499
▁fr	-9.23564
▁phone	-9.23594
▁roll	-9.23833
je	-9.24005
▁living	-9.24185
▁shoe	-9.24201
ug	-9.2423
▁fly	-9.24289
▁past	-9.24465
bel	-9.24658
▁buy	-9.24832
adu	-9.24845
▁dress	-9.24907
▁interest	-9.2509
▁ob	-9.25497
www	-9.25619
▁toys	-9.25788
▁working	-9.25796
read	-9.25812
▁[1	-9.26203
▁football	-9.26327
▁sweet	-9.26328
▁milk	-9.26328
▁club	-9.26341
▁main	-9.26355
▁animals	-9.26571
▁lead	-9.26714
ear	-9.26811
▁lay	-9.2685
▁bob	-9.26959
▁col	-9.27021
▁expect	-9.27051
▁business	-9.27051
▁clean	-9.27052
▁among	-9.27089
▁alone	-9.27092
▁wind	-9.27192
▁post	-9.27259
▁catch	-9.27279
▁scar	-9.27405
▁ago	-9.27636
▁company	-9.27782
▁body	-9.27849
▁answer	-9.27901
▁gi	-9.2792
▁gun	-9.27976
▁ow	-9.28229
tra	-9.28249
line	-9.2839
▁area	-9.2842
▁march	-9.28453
▁important	-9.28516
▁nu	-9.28573
▁!	-9.28632
▁wor	-9.28781
▁peter	-9.28915
▁ke	-9.29147
gr	-9.29158
▁careful	-9.29183
▁safe	-9.29288
▁mon	-9.29321
▁bur	-9.29766
▁join	-9.30044
▁camp	-9.30149
don	-9.30379
▁step	-9.30423
▁bag	-9.30434
▁mad	-9.30457
▁continue	-9.30732
▁somebody	-9.30755
▁figure	-9.30756
▁chance	-9.30757
▁uncle	-9.30757
▁strange	-9.30776
▁felt	-9.30779
gen	-9.30785
time	-9.30868
▁cool	-9.30931
▁english	-9.31513
▁women	-9.31513
▁cos	-9.31551
ark	-9.31608
▁send	-9.31758
▁gar	-9.31795
▁farm	-9.31872
▁wall	-9.31954
light	-9.32053
ake	-9.3206
▁york	-9.32276
put	-9.32322
▁aunt	-9.32403
▁west	-9.32408
▁secret	-9.33059
▁nine	-9.33249
▁sam	-9.33511
▁inter	-9.33673
▁often	-9.3376
▁ship	-9.33874
▁10	-9.33901
▁shop	-9.33906
▁bla	-9.34004
ang	-9.34066
▁sub	-9.34208
▁art	-9.34287
ju	-9.34302
▁hall	-9.34337
▁everybody	-9.34602
▁dinner	-9.34602
▁fellow	-9.34628
▁guys	-9.34843
▁cast	-9.34979
▁drive	-9.35248
▁seat	-9.35311
á	-9.35389
▁series	-9.35434
▁indian	-9.36124
▁afraid	-9.36183
▁daughter	-9.36183
▁bill	-9.36241
br	-9.36282
▁become	-9.3639
▁lad	-9.36557
▁kep	-9.36634
▁president	-9.36983
▁strong	-9.3699
▁wow	-9.37077
ide	-9.37141
▁egg	-9.37191
▁mat	-9.37209
▁save	-9.37261
▁carry	-9.37313
lan	-9.37427
▁cro	-9.37435
▁bye	-9.37502
▁y	-9.37594
▁law	-9.37855
▁usually	-9.37856
▁force	-9.37875
▁sitting	-9.37885
▁fit	-9.37971
▁min	-9.3815
▁tomorrow	-9.38154
▁island	-9.38186
▁player	-9.38245
▁darling	-9.3862
▁park	-9.38697
rac	-9.38752
loi	-9.38848
den	-9.39321
▁held	-9.39377
laugh	-9.39381
▁birthday	-9.39424
▁least	-9.39427
▁return	-9.39635
fe	-9.39857
ung	-9.39958
dic	-9.4005
▁kid	-9.40158
ative	-9.40178
▁mountain	-9.40249
▁mouth	-9.40249
▁region	-9.4025
▁garden	-9.40259
▁frank	-9.40272
▁finger	-9.40273
▁running	-9.40294
▁kiss	-9.40481
ition	-9.40693
▁finished	-9.40728
fully	-9.40837
▁port	-9.40843
▁village	-9.41082
▁report	-9.41165
▁15	-9.4119
▁human	-9.41219
▁whatever	-9.41638
▁bell	-9.41741
▁police	-9.41923
▁check	-9.42114
▁ve	-9.42282
▁ye	-9.42322
▁joe	-9.42354
▁history	-9.42773
▁hill	-9.42839
▁ooh	-9.42924
▁field	-9.42992
▁tape	-9.4309
▁feeling	-9.43184
▁career	-9.43351
▁str	-9.43353
illustration	-9.43624
▁include	-9.43624
▁surprise	-9.43624
▁summer	-9.43624
▁spoke	-9.4363
▁cow	-9.43731
▁cross	-9.43768
▁thinking	-9.43771
▁enter	-9.43828
▁station	-9.43874
▁duck	-9.43876
▁seems	-9.43931
act	-9.44178
▁cook	-9.44216
▁tro	-9.44244
▁herself	-9.44487
▁cried	-9.44494
▁super	-9.44559
▁fix	-9.44569
▁mor	-9.44697
▁ice	-9.44745
▁board	-9.44803
▁rain	-9.44815
▁noises	-9.4482
day	-9.44967
▁fra	-9.45337
▁engine	-9.45356
▁thousand	-9.45357
▁block	-9.45357
▁dream	-9.45357
▁married	-9.45358
▁church	-9.45369
▁paint	-9.45475
▁term	-9.45478
▁sy	-9.45564
▁killed	-9.45937
▁east	-9.45981
unk	-9.46091
▁points	-9.46189
like	-9.46261
uff	-9.46295
▁soft	-9.4631
aw	-9.46344
▁9	-9.46372
▁reach	-9.46387
▁hang	-9.46416
▁tried	-9.46495
ii	-9.46593
▁sad	-9.46721
▁bus	-9.46797
gar	-9.47064
▁waiting	-9.47195
▁suppose	-9.47505
jo	-9.47727
ple	-9.47834
▁army	-9.4795
▁cake	-9.48272
▁tonight	-9.48364
ford	-9.48513
cds	-9.48539
ray	-9.48754
▁remain	-9.48914
▁agree	-9.48979
▁drop	-9.49073
▁master	-9.49146
▁earth	-9.49162
000	-9.49467
▁rose	-9.49636
ration	-9.4964
▁consider	-9.49653
▁department	-9.49821
▁november	-9.49821
▁possible	-9.49821
▁whether	-9.49821
▁attack	-9.49822
gle	-9.49825
▁truck	-9.49876
ko	-9.50279
kin	-9.50401
▁eating	-9.5054
▁government	-9.50738
▁system	-9.50738
▁forget	-9.5077
cla	-9.50953
▁lovely	-9.51003
▁building	-9.51154
▁lie	-9.51222
night	-9.51312
▁lived	-9.51374
▁kill	-9.5149
▁district	-9.51664
▁object	-9.51664
▁space	-9.51667
▁sla	-9.51775
▁char	-9.51971
not	-9.51998
q	-9.5216
gh	-9.52252
makes	-9.5227
▁moo	-9.52282
ible	-9.52295
▁wash	-9.52429
▁luck	-9.52478
ina	-9.52601
▁ko	-9.52641
▁rule	-9.53191
▁couple	-9.53543
▁million	-9.53543
▁court	-9.53551
▁tired	-9.53618
▁decided	-9.53708
where	-9.54124
friend	-9.54141
rid	-9.54464
▁christmas	-9.54495
▁husband	-9.54495
▁excuse	-9.54495
▁deep	-9.54529
▁wild	-9.54536
▁cap	-9.5461
▁fu	-9.54624
▁frog	-9.54643
ttle	-9.54673
▁dance	-9.54757
singing	-9.5483
▁key	-9.55093
▁german	-9.5512
▁less	-9.55158
▁race	-9.55184
▁smile	-9.55467
▁command	-9.55523
▁stone	-9.55537
▁nose	-9.55792
▁officer	-9.55857
▁rob	-9.56175
▁office	-9.56185
▁12	-9.56285
nu	-9.56402
▁easy	-9.56429
▁straight	-9.56437
ev	-9.56474
▁pound	-9.56514
▁track	-9.56671
▁evening	-9.56701
▁bru	-9.5701
▁quick	-9.57165
ker	-9.57222
▁plane	-9.57228
mu	-9.57326
▁chris	-9.57407
▁service	-9.57407
▁university	-9.57407
▁april	-9.57408
▁lunch	-9.57413
▁worry	-9.57478
lor	-9.57978
▁pop	-9.58133
▁january	-9.58398
▁public	-9.58398
▁spot	-9.58413
▁juice	-9.58435
ney	-9.58444
▁trust	-9.58463
▁17	-9.58514
▁anyway	-9.58529
ana	-9.58532
▁fear	-9.58604
▁fle	-9.58884
▁nearly	-9.5903
room	-9.59128
▁cop	-9.59148
▁stu	-9.59151
▁para	-9.59238
iff	-9.59319
▁offer	-9.59362
▁august	-9.59398
▁replied	-9.59398
▁yesterday	-9.59398
▁chief	-9.59399
▁eh	-9.59474
▁snow	-9.59506
name	-9.59537
some	-9.59679
▁gold	-9.59702
▁...	-9.59749
▁warm	-9.59843
ov	-9.59901
▁die	-9.60012
ky	-9.60012
▁beat	-9.60018
van	-9.60173
▁chicken	-9.60408
▁british	-9.60408
▁shot	-9.60418
▁shout	-9.60456
▁plate	-9.60468
▁list	-9.60665
▁kids	-9.60825
use	-9.60858
▁beside	-9.60914
▁award	-9.60915
ism	-9.60972
▁returned	-9.61165
bra	-9.6126
▁band	-9.61315
ched	-9.61322
▁character	-9.61428
▁england	-9.61428
▁support	-9.61428
▁chapter	-9.61429
▁sense	-9.61432
▁honey	-9.61455
▁stra	-9.61595
now	-9.61662
▁cannot	-9.61752
▁bang	-9.61785
▁ride	-9.61832
ened	-9.61975
uk	-9.6206
▁cost	-9.6219
20	-9.62369
▁explain	-9.62459
▁language	-9.62459
▁above	-9.62472
▁trans	-9.62491
▁hole	-9.62582
▁former	-9.627
▁single	-9.62808
▁11	-9.62837
▁putting	-9.62902
▁van	-9.63149
▁reached	-9.63182
ized	-9.63223
▁card	-9.63348
▁pretend	-9.63502
▁type	-9.63503
▁bright	-9.63619
take	-9.63748
▁quickly	-9.63761
▁mess	-9.63771
▁nin	-9.63843
▁burn	-9.64037
▁pet	-9.64409
▁ver	-9.64543
▁exactly	-9.64553
▁nobody	-9.64554
▁instead	-9.64554
▁wheel	-9.64554
▁promise	-9.64556
▁complete	-9.6456
▁travel	-9.64572
▁apple	-9.64585
▁bath	-9.64637
▁proper	-9.64666
▁broken	-9.64799
▁fan	-9.64951
▁finish	-9.65003
▁den	-9.65599
▁although	-9.65617
▁blood	-9.65617
▁prince	-9.65617
▁television	-9.65617
▁third	-9.65618
▁lord	-9.65627
ory	-9.65651
▁yu	-9.65947
pic	-9.66108
▁example	-9.66692
▁february	-9.66692
ggy	-9.66716
▁everyone	-9.66733
▁indeed	-9.66742
▁phil	-9.66809
▁common	-9.6681
▁bread	-9.66886
▁hol	-9.66908
▁june	-9.6691
▁shape	-9.66944
▁billy	-9.67156
▁longer	-9.67187
house	-9.67443
▁answered	-9.67601
▁rid	-9.6767
▁success	-9.67779
í	-9.67779
▁suggest	-9.67779
▁middle	-9.6778
▁dan	-9.67789
▁caught	-9.6781
▁mama	-9.6783
▁season	-9.67867
▁13	-9.67919
▁moon	-9.6815
there	-9.68159
▁cookie	-9.68259
dding	-9.68269
port	-9.68339
▁hospital	-9.68878
▁anymore	-9.68879
▁store	-9.68944
▁jim	-9.68952
▁charge	-9.6904
▁sand	-9.6909
▁teacher	-9.69217
▁standing	-9.69323
▁forward	-9.69635
burg	-9.6979
▁mary	-9.69812
▁difficult	-9.69989
▁control	-9.69989
▁discover	-9.69989
▁monkey	-9.6999
▁spring	-9.70074
▁grandma	-9.7013
right	-9.702
▁ph	-9.7051
▁begin	-9.71112
▁december	-9.71113
▁develop	-9.71113
▁october	-9.71113
▁climb	-9.71113
▁pardon	-9.71114
▁belong	-9.71115
▁hungry	-9.71144
▁clothes	-9.71161
▁truth	-9.71184
lon	-9.71233
▁settle	-9.71237
hold	-9.71255
▁mid	-9.7168
▁test	-9.71838
fch	-9.71967
▁16	-9.72055
▁meeting	-9.72087
elect	-9.72103
▁following	-9.72134
▁bottom	-9.72249
▁george	-9.72249
▁prison	-9.7225
▁stopped	-9.72255
▁passed	-9.7226
gue	-9.723
▁paul	-9.72437
▁base	-9.72813
▁holding	-9.73051
")	-9.73278
▁changed	-9.73326
⌉	-9.73399
▁council	-9.73399
▁exclaimed	-9.73399
▁enjoy	-9.73399
▁afternoon	-9.73399
▁stood	-9.73399
▁perfect	-9.73412
▁plant	-9.73469
▁tr	-9.73475
▁wide	-9.73535
▁apart	-9.73716
▁yo	-9.73779
can	-9.73818
▁supposed	-9.74055
hu	-9.74441
▁ahead	-9.74515
▁author	-9.74562
▁leaving	-9.74562
▁glass	-9.74562
▁doubt	-9.74569
▁beginning	-9.7458
▁‘	-9.74633
▁hunt	-9.74641
▁anyone	-9.74673
ouch	-9.74758
▁sail	-9.74889
–	-9.75371
▁hum	-9.75452
▁giving	-9.75739
▁lift	-9.75764
arrow	-9.75888
▁opera	-9.75897
▁sick	-9.75968
▁cheer	-9.76106
▁mc	-9.76583
▁certain	-9.76685
▁cry	-9.76812
▁personal	-9.76834
▁effect	-9.76929
▁written	-9.76929
▁college	-9.76929
▁breath	-9.76929
▁orange	-9.76931
▁murder	-9.76941
▁guard	-9.76986
▁tiger	-9.76997
they	-9.77009
▁loud	-9.77046
▁sport	-9.77061
▁sky	-9.77066
▁position	-9.77126
hood	-9.77156
▁lock	-9.77439
▁sight	-9.77982
ong	-9.78043
qua	-9.78057
▁heavy	-9.78133
▁battle	-9.7819
▁somewhere	-9.78283
▁appeared	-9.7846
▁press	-9.78609
▁original	-9.78762
▁low	-9.79136
▁accept	-9.79353
▁europe	-9.79353
▁except	-9.79353
▁film	-9.79358
▁⌈	-9.79373
▁treat	-9.7938
▁spec	-9.79392
pen	-9.79468
yard	-9.79511
ified	-9.79572
▁winter	-9.79579
▁released	-9.79587
▁certainly	-9.79604
▁lake	-9.79735
▁roman	-9.79766
▁tail	-9.79848
▁rais	-9.79952
▁bow	-9.79963
child	-9.80072
▁san	-9.80422
▁particular	-9.80587
▁perform	-9.80588
▁commune	-9.80588
▁robert	-9.80604
place	-9.80682
▁miles	-9.80809
▁fail	-9.80813
▁yep	-9.80871
▁pack	-9.80945
▁opened	-9.81379
▁ze	-9.8147
▁century	-9.81837
▁spirit	-9.81838
▁produce	-9.81838
▁program	-9.81838
▁sharp	-9.81845
▁refer	-9.81848
▁africa	-9.81849
▁hop	-9.81958
▁bank	-9.8205
▁pink	-9.82141
rick	-9.82145
▁dat	-9.82146
▁corner	-9.82224
ught	-9.82373
▁build	-9.82536
▁dar	-9.82659
▁relat	-9.82711
play	-9.82744
▁bun	-9.82876
&	-9.83103
▁account	-9.83103
▁knock	-9.83103
▁london	-9.83103
▁hurry	-9.83104
▁14	-9.83119
▁ought	-9.83206
come	-9.83619
▁shake	-9.84041
board	-9.84125
pose	-9.84139
▁breakfast	-9.84385
▁parents	-9.84385
▁japan	-9.84386
▁teeth	-9.84387
▁fred	-9.84543
▁wake	-9.84627
▁bomb	-9.84661
▁fat	-9.84736
▁shi	-9.84759
▁30	-9.85336
▁crayon	-9.85684
▁soldier	-9.85684
▁rabbit	-9.85684
▁major	-9.85684
▁video	-9.85685
▁view	-9.85686
▁local	-9.8569
ograph	-9.85695
▁ken	-9.85725
▁taste	-9.85775
▁helen	-9.86036
▁tv	-9.86219
▁added	-9.86303
▁dry	-9.86427
why	-9.8664
▁hy	-9.86678
ji	-9.86916
▁distance	-9.87002
▁scene	-9.87007
▁louis	-9.87009
▁further	-9.8701
▁row	-9.87013
▁watching	-9.87057
11	-9.87082
▁suddenly	-9.87115
▁direct	-9.87339
▁neck	-9.8745
▁gene	-9.87703
▁pur	-9.878
▁leader	-9.87868
▁trip	-9.8787
▁september	-9.88333
▁themselves	-9.88333
▁cheese	-9.88335
▁add	-9.88352
▁worth	-9.88658
▁corn	-9.88715
▁driver	-9.88763
▁button	-9.8878
illa	-9.88983
▁pain	-9.89008
▁fill	-9.89028
▁july	-9.89028
▁match	-9.89035
▁moved	-9.89131
▁america	-9.89155
%	-9.89318
▁pee	-9.89346
▁broke	-9.89551
▁sch	-9.89629
vocalize	-9.89684
▁circle	-9.89684
▁coffee	-9.89684
▁including	-9.89684
▁kitchen	-9.89684
▁upstairs	-9.89684
▁anybody	-9.89685
▁michael	-9.89685
▁cloud	-9.89685
▁bridge	-9.89686
▁speed	-9.89704
▁cream	-9.8975
▁feed	-9.8984
▁shut	-9.89867
▁slip	-9.89945
▁blow	-9.89965
▁reading	-9.90532
clock	-9.90688
ette	-9.90984
▁dun	-9.91038
▁elephant	-9.91054
▁escape	-9.91054
▁project	-9.91054
▁thirty	-9.91054
▁nurse	-9.91055
▁dropped	-9.91057
▁shoot	-9.91059
▁health	-9.91071
▁bottle	-9.91094
▁bought	-9.91095
▁wal	-9.91114
▁harry	-9.91206
▁rich	-9.92343
▁pocket	-9.92444
▁forgot	-9.92445
▁fraser	-9.92459
har	-9.92488
▁brush	-9.92528
▁cy	-9.93099
then	-9.93435
points	-9.9349
field	-9.93505
▁fur	-9.93676
ville	-9.93801
▁received	-9.93852
▁popular	-9.93852
▁attention	-9.93852
▁welcome	-9.93852
▁protect	-9.93853
▁natural	-9.93854
▁david	-9.93855
▁betty	-9.93889
▁tru	-9.94408
ept	-9.94457
▁chu	-9.94485
▁size	-9.94883
▁led	-9.94982
▁share	-9.94994
▁dig	-9.95096
▁squ	-9.95109
▁pla	-9.95176
▁hate	-9.95208
▁smell	-9.95283
▁bowl	-9.95708
▁hide	-9.95727
▁below	-9.96011
miss	-9.96043
▁luc	-9.96352
▁bull	-9.9647
▁accident	-9.96729
▁respect	-9.96729
▁wrote	-9.9673
▁connect	-9.9673
▁famous	-9.9673
▁collect	-9.9673
▁serious	-9.96731
▁kitty	-9.96731
▁remark	-9.96732
fri	-9.96744
▁bunny	-9.96765
▁extra	-9.96815
▁arch	-9.96819
▁finally	-9.96914
▁action	-9.96942
▁25	-9.96946
▁paris	-9.97364
▁wonderful	-9.97464
work	-9.97841
noise	-9.97975
▁writing	-9.982
▁current	-9.98201
▁silver	-9.98201
▁peace	-9.98201
▁spoon	-9.98202
▁built	-9.98204
▁2018	-9.98209
▁james	-9.98213
▁sunday	-9.98226
▁sheep	-9.98236
bility	-9.98247
▁pray	-9.98327
col	-9.98709
▁allowed	-9.98784
▁union	-9.98831
▁busy	-9.98843
▁yum	-9.98864
▁whisper	-9.98885
▁crying	-9.98921
who	-9.99054
▁gate	-9.99102
drew	-9.99292
=	-9.99327
this	-9.99329
▁conversation	-9.99693
▁fifty	-9.99693
▁minister	-9.99693
▁level	-9.99695
▁monster	-9.99755
▁rising	-9.99778
kay	-9.99949
▁pin	-10
▁wave	-10.0022
▁carl	-10.0056
▁based	-10.0059
▁tall	-10.0064
▁gro	-10.0073
▁suit	-10.0083
▁interesting	-10.009
just	-10.0104
▁information	-10.0121
▁population	-10.0121
▁machine	-10.0122
▁knee	-10.0123
▁pitch	-10.0124
▁study	-10.0124
▁mouse	-10.0128
▁direction	-10.0129
▁range	-10.0148
▁host	-10.0167
▁choo	-10.019
▁directed	-10.0192
▁rub	-10.0218
▁animal	-10.0222
▁flu	-10.027
▁international	-10.0275
▁observ	-10.0275
▁babies	-10.0275
▁weather	-10.0275
▁carried	-10.0275
▁tower	-10.0289
▁pause	-10.029
▁rush	-10.0301
▁lower	-10.0316
30	-10.033
▁fer	-10.0333
80	-10.0338
▁mass	-10.0343
▁grass	-10.038
▁tim	-10.0426
▁california	-10.0431
▁mistake	-10.0431
▁moving	-10.0431
▁beach	-10.0433
▁charles	-10.0436
▁adam	-10.0444
▁teach	-10.0444
▁stuck	-10.0445
▁contain	-10.0445
gged	-10.0445
▁mix	-10.0473
▁allow	-10.0476
▁joy	-10.048
▁germany	-10.0486
/0	-10.0508
air	-10.0536
head	-10.0539
berg	-10.0542
▁ven	-10.0585
▁twelve	-10.059
▁comfort	-10.059
▁entire	-10.059
▁imagine	-10.059
▁sandwich	-10.059
▁capital	-10.059
▁crash	-10.059
▁grew	-10.059
▁square	-10.0591
gasps	-10.0597
▁delight	-10.0609
ium	-10.0618
12	-10.0618
west	-10.0675
10	-10.0694
box	-10.0746
▁represent	-10.0751
▁governor	-10.0751
▁province	-10.0751
▁league	-10.0751
▁result	-10.0751
▁william	-10.0752
▁twin	-10.0752
▁bobby	-10.0754
▁prim	-10.0767
▁russian	-10.0768
▁bigger	-10.0769
▁cell	-10.0822
▁declared	-10.0915
▁election	-10.0915
▁(19	-10.0915
▁suffer	-10.0915
▁honor	-10.0916
▁angel	-10.0939
▁easter	-10.0965
▁merc	-10.1005
▁pour	-10.1007
▁28	-10.1074
▁puppet	-10.1081
▁puzzle	-10.1081
▁situation	-10.1082
▁simple	-10.1082
▁depend	-10.1082
▁shirt	-10.1082
▁center	-10.1082
▁bert	-10.1089
▁gather	-10.1094
▁unless	-10.1103
▁alive	-10.1111
▁due	-10.1114
▁aye	-10.1122
▁lose	-10.1196
▁chocolate	-10.1251
▁immediate	-10.1251
▁quarter	-10.1251
▁student	-10.1251
▁championship	-10.1252
▁design	-10.1252
▁repeat	-10.1253
off	-10.1254
▁trade	-10.1255
▁title	-10.1257
▁thou	-10.126
▁fox	-10.1266
▁nick	-10.1276
▁exist	-10.1277
40	-10.1281
→	-10.1423
▁division	-10.1423
▁occasion	-10.1423
▁pleasant	-10.1423
▁2022	-10.1423
▁condition	-10.1423
▁address	-10.1423
▁future	-10.1423
▁length	-10.1423
▁queen	-10.1424
▁purpose	-10.1424
▁created	-10.1429
babble	-10.1449
▁jane	-10.1466
▁path	-10.1474
▁prove	-10.1488
▁total	-10.1587
18	-10.1595
▁republic	-10.1599
▁2016	-10.1599
▁medicine	-10.1599
▁slowly	-10.1599
▁scream	-10.1599
▁cousin	-10.1599
▁remove	-10.1599
▁adult	-10.1599
▁search	-10.1599
▁favorite	-10.16
▁24	-10.1618
▁29	-10.1619
▁stage	-10.1641
▁coat	-10.1658
200	-10.1724
▁publish	-10.1777
▁announced	-10.1777
▁attempt	-10.1777
▁experience	-10.1777
▁2021	-10.1777
▁asleep	-10.1777
▁computer	-10.1777
▁faith	-10.1778
▁gift	-10.1778
▁hiding	-10.1779
ology	-10.1782
▁victor	-10.1786
▁fool	-10.179
▁uhoh	-10.1804
▁tax	-10.1821
zo	-10.1842
pick	-10.1879
counter	-10.1913
▁arrived	-10.1959
▁crazy	-10.1959
▁maggie	-10.1959
▁2017	-10.1959
▁anxious	-10.1959
▁patient	-10.1959
▁smoke	-10.1959
▁judge	-10.1959
▁regard	-10.1959
▁danger	-10.196
▁magic	-10.1961
▁smart	-10.1962
▁mur	-10.1962
▁normal	-10.1963
▁colour	-10.1964
▁coast	-10.1967
▁shin	-10.1983
▁india	-10.1984
▁director	-10.2002
▁needta	-10.2025
▁singer	-10.2095
▁date	-10.2138
ö	-10.2144
▁approach	-10.2144
▁driving	-10.2144
▁professional	-10.2144
▁beyond	-10.2144
▁discuss	-10.2144
▁period	-10.2145
▁snake	-10.2145
▁whisk	-10.2145
▁laura	-10.2145
▁nature	-10.2145
▁self	-10.2145
▁crack	-10.2145
▁social	-10.2145
▁edge	-10.2148
▁clever	-10.2149
▁sugar	-10.215
▁roof	-10.2156
▁martin	-10.2166
▁plain	-10.2189
▁clock	-10.2195
▁realize	-10.2195
▁score	-10.22
▁pig	-10.2212
▁signal	-10.222
wood	-10.2297
▁vote	-10.2308
▁census	-10.2333
▁civil	-10.2333
▁constant	-10.2333
▁difference	-10.2333
▁eleanor	-10.2333
▁neighbor	-10.2333
▁kingdom	-10.2333
▁album	-10.2333
▁silence	-10.2333
▁branch	-10.2334
▁model	-10.2334
▁spell	-10.2335
▁bedroom	-10.2337
▁tight	-10.2345
▁hung	-10.2347
▁huge	-10.235
▁paid	-10.2356
▁papa	-10.2358
▁comb	-10.237
0,000	-10.2441
[	-10.2489
▁final	-10.2501
⌋	-10.2525
▁absolutely	-10.2525
▁advance	-10.2525
▁background	-10.2525
▁blanket	-10.2525
▁subject	-10.2525
▁australia	-10.2525
▁central	-10.2525
▁express	-10.2525
▁folk	-10.2525
▁jesus	-10.2526
▁price	-10.2527
▁richard	-10.2528
▁forgotten	-10.2528
▁issue	-10.2531
▁spread	-10.2535
▁bound	-10.2536
▁reaches	-10.2551
▁kick	-10.2558
▁trick	-10.2569
▁laid	-10.2576
▁crew	-10.259
lves	-10.2618
lou	-10.2687
▁disappear	-10.2721
▁increase	-10.2721
▁speech	-10.2722
▁wound	-10.2722
chuckles	-10.2722
▁teddy	-10.2722
▁fresh	-10.2722
▁steven	-10.2722
▁fault	-10.2722
▁therefore	-10.2722
▁western	-10.2723
▁gentleman	-10.2724
▁artist	-10.2732
▁spend	-10.2741
▁bump	-10.2749
▁bone	-10.2916
▁according	-10.2921
▁correct	-10.2921
▁effort	-10.2921
▁lieutenant	-10.2921
▁olympic	-10.2921
▁pleasure	-10.2921
▁2014	-10.2921
▁education	-10.2921
▁vessel	-10.2921
▁washington	-10.2922
▁itself	-10.2922
script	-10.2922
▁wolf	-10.2922
▁crowd	-10.2922
▁instant	-10.2922
▁spain	-10.2922
▁royal	-10.2922
▁silly	-10.2923
▁monday	-10.2924
▁dangerous	-10.2924
▁message	-10.2928
▁saint	-10.2936
▁thus	-10.2962
▁jess	-10.3003
▁describe	-10.3126
▁victim	-10.3126
▁easily	-10.3126
▁christian	-10.3126
▁prepared	-10.3126
▁slide	-10.3126
▁centre	-10.3126
▁detect	-10.3128
▁appearance	-10.3128
▁lying	-10.3142
▁roger	-10.3146
sib	-10.3185
cries	-10.3228
▁bush	-10.3289
▁sigh	-10.3295
with	-10.3298
▁radio	-10.3328
▁decision	-10.3334
▁especially	-10.3334
▁terrible	-10.3334
▁holiday	-10.3334
▁occur	-10.3334
▁companion	-10.3334
▁affair	-10.3334
▁fruit	-10.3334
▁science	-10.3334
▁deliver	-10.3334
▁japanese	-10.3334
▁enemy	-10.3334
▁double	-10.3334
▁batter	-10.3335
▁firm	-10.3335
▁attend	-10.3337
▁charlie	-10.3337
▁jwww	-10.3339
▁smith	-10.334
▁lesson	-10.3351
▁grant	-10.3365
▁choose	-10.337
fect	-10.3386
▁anti	-10.339
▁worse	-10.3421
▁21	-10.3543
▁destroy	-10.3547
▁journey	-10.3547
▁plenty	-10.3547
▁politician	-10.3547
▁professor	-10.3547
▁execut	-10.3547
▁conduct	-10.3547
▁scott	-10.3547
▁spider	-10.3547
▁drama	-10.3547
▁storm	-10.3547
▁dozen	-10.3548
▁whoops	-10.3553
▁ladies	-10.3557
90	-10.3572
▁dust	-10.361
▁wise	-10.3677
▁custom	-10.3764
▁various	-10.3764
▁glance	-10.3764
▁border	-10.3764
▁honest	-10.3764
▁coach	-10.3765
▁angry	-10.3765
▁countries	-10.3768
▁provide	-10.3769
▁santa	-10.3777
▁market	-10.3784
▁hotel	-10.3787
▁flash	-10.3787
▁drug	-10.3794
▁golden	-10.3796
▁22	-10.3801
64	-10.3806
▁adventure	-10.3986
▁airplane	-10.3986
▁interrupt	-10.3986
▁political	-10.3986
▁similar	-10.3986
▁swimming	-10.3986
▁excited	-10.3986
▁potato	-10.3986
▁smiling	-10.3986
▁female	-10.3986
▁prize	-10.3986
▁northern	-10.3987
▁crime	-10.3987
▁southern	-10.3987
▁horn	-10.3989
▁everywhere	-10.3992
▁choice	-10.3994
position	-10.3994
▁desk	-10.3997
▁pair	-10.402
▁awful	-10.403
▁appear	-10.415
▁community	-10.4214
▁independent	-10.4214
▁saturday	-10.4214
▁2013	-10.4214
▁establish	-10.4214
▁ourselves	-10.4214
▁concern	-10.4214
▁heaven	-10.4214
▁twice	-10.4214
▁knowledge	-10.4214
▁engage	-10.4214
▁buddy	-10.4214
▁process	-10.4214
▁memory	-10.4214
▁demand	-10.4215
▁2011	-10.4215
▁julia	-10.4216
▁henry	-10.4217
▁auto	-10.4225
▁korea	-10.4225
▁26	-10.4241
sighs	-10.4329
▁snap	-10.4419
▁association	-10.4446
▁regular	-10.4446
▁naughty	-10.4446
▁previous	-10.4446
▁2007	-10.4446
▁empire	-10.4446
▁throat	-10.4446
▁guitar	-10.4446
▁located	-10.4446
▁stories	-10.4446
▁worried	-10.4446
▁version	-10.4447
▁formula	-10.4447
▁dollars	-10.4447
▁2012	-10.4448
▁bathroom	-10.4448
▁pressure	-10.4451
▁taught	-10.4453
▁image	-10.4453
shire	-10.4455
▁risk	-10.4462
looking	-10.4648
when	-10.4648
known	-10.4649
▁apparently	-10.4684
▁committee	-10.4684
▁microphone	-10.4684
▁nervous	-10.4684
▁pizza	-10.4684
▁recognize	-10.4684
▁society	-10.4684
▁telephone	-10.4684
▁amount	-10.4684
▁arrange	-10.4684
▁2008	-10.4684
▁spanish	-10.4684
▁empty	-10.4684
▁honour	-10.4684
▁brief	-10.4684
▁evil	-10.4685
▁critic	-10.4685
▁cabin	-10.4685
▁municipality	-10.4685
▁separate	-10.4685
▁native	-10.4691
▁operation	-10.4692
▁giant	-10.4694
▁flight	-10.4703
titude	-10.4758
▁flow	-10.4851
phone	-10.4904
book	-10.4909
`	-10.4928
▁caterpillar	-10.4928
▁military	-10.4928
▁earlier	-10.4928
▁dirty	-10.4928
▁admit	-10.4928
▁stock	-10.4928
▁eager	-10.4928
▁prefer	-10.4928
▁thick	-10.4929
▁gentlemen	-10.4929
▁medal	-10.4938
▁100	-10.5001
▁episode	-10.5178
▁introduc	-10.5178
▁opinion	-10.5178
▁private	-10.5178
▁research	-10.5178
▁photograph	-10.5178
▁marriage	-10.5178
▁museum	-10.5178
▁punish	-10.5178
▁dancing	-10.5178
▁arrest	-10.5178
▁tongue	-10.5179
▁require	-10.5179
▁production	-10.5183
▁odd	-10.5187
▁pirate	-10.5187
▁strip	-10.5277
ü	-10.5435
▁biscuit	-10.5435
▁disease	-10.5435
▁downstairs	-10.5435
▁necessary	-10.5435
▁statistics	-10.5435
▁2015	-10.5435
▁bonnet	-10.5435
▁chicago	-10.5435
▁neither	-10.5435
▁struck	-10.5435
▁silent	-10.5435
▁quack	-10.5435
▁actress	-10.5435
▁launch	-10.5435
calais	-10.5435
▁afterwards	-10.5435
▁forgive	-10.5436
▁2010	-10.5436
▁limit	-10.5437
▁capture	-10.5438
▁release	-10.5647
(	-10.5661
▁favor	-10.5696
ó	-10.5698
▁excellent	-10.5698
▁extreme	-10.5698
▁obviously	-10.5698
▁possibly	-10.5698
▁suspect	-10.5698
▁friday	-10.5698
▁2004	-10.5698
▁valley	-10.5698
▁detail	-10.5698
▁contact	-10.5698
▁shock	-10.5698
▁defend	-10.5698
▁text	-10.5698
▁blind	-10.5698
▁buried	-10.5699
▁threat	-10.5699
▁carrot	-10.57
▁curious	-10.5703
▁arab	-10.5704
▁continu	-10.5892
music	-10.5933
good	-10.5933
▁cloth	-10.5957
~	-10.5968
▁channel	-10.5968
▁dinosaur	-10.5968
▁egypt	-10.5968
▁fifteen	-10.5968
▁influence	-10.5968
▁2019	-10.5968
▁democrat	-10.5968
▁security	-10.5968
▁feature	-10.5968
▁magnet	-10.5968
▁colonel	-10.5968
▁pillow	-10.5968
▁temple	-10.5968
-19	-10.5968
▁pepper	-10.5968
▁fortune	-10.5968
▁complain	-10.5968
▁lawyer	-10.5968
▁shore	-10.5969
▁purple	-10.597
▁rough	-10.5981
▁jenn	-10.5989
▁sudden	-10.6221
▁champion	-10.6245
ä	-10.6246
▁environment	-10.6246
▁opposite	-10.6246
▁advice	-10.6246
▁joseph	-10.6246
▁retired	-10.6246
▁2003	-10.6246
▁2006	-10.6246
▁prevent	-10.6246
▁splash	-10.6246
▁attract	-10.6246
▁supper	-10.6246
▁switch	-10.6246
▁leaf	-10.6246
▁bessie	-10.6247
▁edward	-10.6247
▁shift	-10.6247
▁transport	-10.6247
▁mount	-10.6248
▁mamma	-10.6248
▁desert	-10.6248
ā	-10.7764
è	-10.8097
ú	-10.8799
}	-11.0805
š	-11.126
ù	-11.126
ç	-11.1736
à	-11.2236
{	-11.2236
ô	-11.2762
*	-11.3281
‘	-11.3869
â	-11.3906
ø	-11.3906
♪	-11.4495
å	-11.4531
°	-11.5198
æ	-11.5198
ō	-11.6681
\	-11.7515
─	-11.7515
ì	-11.8424
↗	-11.8424
£	-11.8424
“	-11.9387
ł	-11.9424
↫	-11.9424
ã	-12.0535
#	-12.1748
ū	-12.1785
č	-12.1785
@	-12.3214
¿	-12.3214
ß	-12.3214
ò	-12.3214
ē	-12.3214
ś	-12.488
ș	-12.488
′	-12.488
♫	-12.488
ž	-12.488
⌈	-12.6843
ï	-12.688
ı	-12.688
ş	-12.688
×	-12.688
î	-12.688
œ	-12.938
⁎	-12.938
ë	-12.938
ê	-12.938
ī	-13.2714
∙	-13.2714
∞	-13.2714
✿	-13.2714
ð	-13.2714
‐	-13.7713
^	-13.7714
	-13.7714
ě	-13.7714
ņ	-13.7714
ố	-13.7714
ồ	-13.7714
▔	-13.7714
ń	-13.7714
ą	-14.7697
ă	-14.7698
¡	-14.7699
	-14.77
	-14.7701
đ	-14.7702
§	-14.7703
•	-14.7704
ř	-14.7705
⁄	-14.7706
་	-14.7707
́	-14.7708
―	-14.7709
ñ	-14.771
ć	-14.7711
¶	-14.7712
⌊	-14.7713
<	-14.7713
ý	-14.7713
þ	-14.7713
ġ	-14.7713
İ	-14.7713
ż	-14.7713
ʃ	-14.7713
η	-14.7713
ṉ	-14.7713
ắ	-14.7713
€	-14.7713
ĕ	-14.7713
>	-14.7714
	-14.7714
©	-14.7714
·	-14.7714
ĭ	-14.7714
ő	-14.7714
ũ	-14.7714
ź	-14.7714
ư	-14.7714
ǎ	-14.7714
ɑ	-14.7714
ɪ	-14.7714
ʊ	-14.7714
ʾ	-14.7714
ː	-14.7714
̶	-14.7714
ν	-14.7714
ј	-14.7714
॥	-14.7714
ṛ	-14.7714
ṯ	-14.7714
ả	-14.7714
ề	-14.7714
ệ	-14.7714
ọ	-14.7714
ớ	-14.7714
ờ	-14.7714
‡	-14.7714
‰	-14.7714
й	-14.7714
$	-14.7714
ǫ	-14.7714
ṣ	-14.7714
ṭ	-14.7714
