<unk>	0
<s>	0
</s>	0
<pad>	0
<0x00>	0
<0x01>	0
<0x02>	0
<0x03>	0
<0x04>	0
<0x05>	0
<0x06>	0
<0x07>	0
<0x08>	0
<0x09>	0
<0x0A>	0
<0x0B>	0
<0x0C>	0
<0x0D>	0
<0x0E>	0
<0x0F>	0
<0x10>	0
<0x11>	0
<0x12>	0
<0x13>	0
<0x14>	0
<0x15>	0
<0x16>	0
<0x17>	0
<0x18>	0
<0x19>	0
<0x1A>	0
<0x1B>	0
<0x1C>	0
<0x1D>	0
<0x1E>	0
<0x1F>	0
<0x20>	0
<0x21>	0
<0x22>	0
<0x23>	0
<0x24>	0
<0x25>	0
<0x26>	0
<0x27>	0
<0x28>	0
<0x29>	0
<0x2A>	0
<0x2B>	0
<0x2C>	0
<0x2D>	0
<0x2E>	0
<0x2F>	0
<0x30>	0
<0x31>	0
<0x32>	0
<0x33>	0
<0x34>	0
<0x35>	0
<0x36>	0
<0x37>	0
<0x38>	0
<0x39>	0
<0x3A>	0
<0x3B>	0
<0x3C>	0
<0x3D>	0
<0x3E>	0
<0x3F>	0
<0x40>	0
<0x41>	0
<0x42>	0
<0x43>	0
<0x44>	0
<0x45>	0
<0x46>	0
<0x47>	0
<0x48>	0
<0x49>	0
<0x4A>	0
<0x4B>	0
<0x4C>	0
<0x4D>	0
<0x4E>	0
<0x4F>	0
<0x50>	0
<0x51>	0
<0x52>	0
<0x53>	0
<0x54>	0
<0x55>	0
<0x56>	0
<0x57>	0
<0x58>	0
<0x59>	0
<0x5A>	0
<0x5B>	0
<0x5C>	0
<0x5D>	0
<0x5E>	0
<0x5F>	0
<0x60>	0
<0x61>	0
<0x62>	0
<0x63>	0
<0x64>	0
<0x65>	0
<0x66>	0
<0x67>	0
<0x68>	0
<0x69>	0
<0x6A>	0
<0x6B>	0
<0x6C>	0
<0x6D>	0
<0x6E>	0
<0x6F>	0
<0x70>	0
<0x71>	0
<0x72>	0
<0x73>	0
<0x74>	0
<0x75>	0
<0x76>	0
<0x77>	0
<0x78>	0
<0x79>	0
<0x7A>	0
<0x7B>	0
<0x7C>	0
<0x7D>	0
<0x7E>	0
<0x7F>	0
<0x80>	0
<0x81>	0
<0x82>	0
<0x83>	0
<0x84>	0
<0x85>	0
<0x86>	0
<0x87>	0
<0x88>	0
<0x89>	0
<0x8A>	0
<0x8B>	0
<0x8C>	0
<0x8D>	0
<0x8E>	0
<0x8F>	0
<0x90>	0
<0x91>	0
<0x92>	0
<0x93>	0
<0x94>	0
<0x95>	0
<0x96>	0
<0x97>	0
<0x98>	0
<0x99>	0
<0x9A>	0
<0x9B>	0
<0x9C>	0
<0x9D>	0
<0x9E>	0
<0x9F>	0
<0xA0>	0
<0xA1>	0
<0xA2>	0
<0xA3>	0
<0xA4>	0
<0xA5>	0
<0xA6>	0
<0xA7>	0
<0xA8>	0
<0xA9>	0
<0xAA>	0
<0xAB>	0
<0xAC>	0
<0xAD>	0
<0xAE>	0
<0xAF>	0
<0xB0>	0
<0xB1>	0
<0xB2>	0
<0xB3>	0
<0xB4>	0
<0xB5>	0
<0xB6>	0
<0xB7>	0
<0xB8>	0
<0xB9>	0
<0xBA>	0
<0xBB>	0
<0xBC>	0
<0xBD>	0
<0xBE>	0
<0xBF>	0
<0xC0>	0
<0xC1>	0
<0xC2>	0
<0xC3>	0
<0xC4>	0
<0xC5>	0
<0xC6>	0
<0xC7>	0
<0xC8>	0
<0xC9>	0
<0xCA>	0
<0xCB>	0
<0xCC>	0
<0xCD>	0
<0xCE>	0
<0xCF>	0
<0xD0>	0
<0xD1>	0
<0xD2>	0
<0xD3>	0
<0xD4>	0
<0xD5>	0
<0xD6>	0
<0xD7>	0
<0xD8>	0
<0xD9>	0
<0xDA>	0
<0xDB>	0
<0xDC>	0
<0xDD>	0
<0xDE>	0
<0xDF>	0
<0xE0>	0
<0xE1>	0
<0xE2>	0
<0xE3>	0
<0xE4>	0
<0xE5>	0
<0xE6>	0
<0xE7>	0
<0xE8>	0
<0xE9>	0
<0xEA>	0
<0xEB>	0
<0xEC>	0
<0xED>	0
<0xEE>	0
<0xEF>	0
<0xF0>	0
<0xF1>	0
<0xF2>	0
<0xF3>	0
<0xF4>	0
<0xF5>	0
<0xF6>	0
<0xF7>	0
<0xF8>	0
<0xF9>	0
<0xFA>	0
<0xFB>	0
<0xFC>	0
<0xFD>	0
<0xFE>	0
<0xFF>	0
.	-2.96862
s	-3.28651
:	-3.4448
▁*	-3.49974
,	-3.58098
▁the	-3.68489
'	-3.91626
▁a	-4.1665
mot	-4.29696
▁i	-4.33464
t	-4.33547
▁you	-4.35216
▁to	-4.36328
▁and	-4.3661
?	-4.42353
chi	-4.49077
▁it	-4.62254
▁of	-4.63976
▁in	-4.69948
▁that	-4.84313
ed	-5.05771
ing	-5.19239
▁he	-5.19739
▁is	-5.25076
d	-5.29732
▁was	-5.31853
m	-5.39803
▁=	-5.42467
y	-5.4469
▁on	-5.45032
▁[	-5.47728
▁for	-5.50659
▁what	-5.51488
▁we	-5.56857
re	-5.57385
▁"	-5.65349
n	-5.67168
▁be	-5.6912
e	-5.69555
]	-5.6956
▁do	-5.71498
▁this	-5.72135
!	-5.73153
▁no	-5.74669
▁with	-5.75233
▁me	-5.76773
a	-5.82915
i	-5.84558
ll	-5.85463
▁they	-5.86734
▁have	-5.88617
er	-5.88741
▁there	-5.8965
▁she	-5.9171
▁-	-5.92492
▁not	-5.93238
-	-5.94565
▁	-5.96297
▁can	-5.96599
ly	-5.97784
▁at	-5.98968
▁one	-5.99875
▁are	-6.0003
▁but	-6.00286
▁so	-6.00931
▁his	-6.05895
▁all	-6.12976
ve	-6.14028
▁as	-6.15156
▁her	-6.17806
▁oh	-6.19225
▁yeah	-6.1996
▁my	-6.20168
r	-6.20563
▁go	-6.20637
▁don	-6.21558
▁know	-6.22802
...	-6.23284
▁had	-6.25315
▁your	-6.25749
in	-6.26141
▁like	-6.26284
▁up	-6.2636
o	-6.29518
c	-6.32557
g	-6.35643
inv	-6.39751
▁from	-6.41827
▁out	-6.43388
▁see	-6.45057
▁an	-6.45633
al	-6.46477
▁here	-6.47457
le	-6.48028
▁get	-6.50003
▁him	-6.51444
▁were	-6.53659
▁just	-6.54409
▁by	-6.54765
▁if	-6.55789
▁now	-6.5655
▁right	-6.57981
l	-6.58493
▁s	-6.58912
▁well	-6.59965
▁b	-6.60895
▁or	-6.6285
▁when	-6.63609
u	-6.63886
▁about	-6.64244
p	-6.65048
▁who	-6.65551
▁re	-6.67559
▁then	-6.70334
▁come	-6.71585
▁think	-6.71894
▁got	-6.7226
▁some	-6.72546
es	-6.73028
b	-6.73191
w	-6.74105
▁did	-6.74747
▁them	-6.753
▁said	-6.75982
or	-6.77052
fat	-6.77393
▁where	-6.79762
▁want	-6.80778
▁will	-6.82632
▁look	-6.83041
▁good	-6.83612
;	-6.83923
ck	-6.84033
▁would	-6.845
th	-6.85133
▁(	-6.85288
k	-6.85584
▁yes	-6.85765
an	-6.86859
▁time	-6.87435
f	-6.8807
)	-6.91794
h	-6.92073
▁how	-6.92102
▁xxx	-6.93809
▁okay	-6.94621
ar	-6.94723
en	-6.94735
"	-6.94953
▁“	-6.9628
].	-6.96339
▁little	-6.9698
▁put	-6.97545
▁de	-6.97596
▁down	-6.97868
▁has	-6.98831
▁back	-7.00774
▁going	-7.01082
▁more	-7.01272
’	-7.01553
▁been	-7.01967
▁over	-7.04112
."	-7.04198
▁two	-7.04383
▁very	-7.04521
▁which	-7.05301
la	-7.05757
ion	-7.09609
▁their	-7.09643
ri	-7.09733
▁19	-7.09932
▁let	-7.12875
ne	-7.13136
ch	-7.13668
▁could	-7.14142
▁'	-7.1429
ur	-7.16123
▁make	-7.16204
▁other	-7.16308
ation	-7.17515
▁say	-7.1935
il	-7.19606
▁co	-7.19638
li	-7.19647
▁man	-7.20865
ce	-7.20894
ter	-7.21012
▁take	-7.21409
it	-7.2147
na	-7.24034
se	-7.24535
▁e	-7.2465
on	-7.25104
lo	-7.25416
▁ma	-7.26225
2	-7.27578
▁why	-7.28566
▁us	-7.29855
,"	-7.3078
el	-7.32309
▁tell	-7.32591
▁into	-7.32692
▁way	-7.33667
ie	-7.34411
▁car	-7.34547
▁people	-7.35302
ro	-7.3653
▁o	-7.3668
us	-7.37854
▁too	-7.37894
z	-7.37933
1	-7.38114
▁p	-7.38983
te	-7.39278
▁first	-7.39287
▁because	-7.40776
▁off	-7.40798
x	-7.41517
▁mean	-7.41766
▁any	-7.42134
▁after	-7.42217
ry	-7.42423
ent	-7.43026
▁gonna	-7.44194
ra	-7.44338
▁la	-7.4481
vi	-7.45766
--	-7.46933
ma	-7.47349
de	-7.48167
▁ro	-7.48217
ment	-7.49287
me	-7.49373
3	-7.49398
▁only	-7.49444
▁po	-7.49514
no	-7.50145
▁need	-7.50514
▁con	-7.50598
▁these	-7.50758
par	-7.50938
▁our	-7.52028
▁should	-7.53105
▁uh	-7.53153
sh	-7.53312
▁er	-7.536
▁work	-7.55378
▁didn	-7.55866
ke	-7.55956
the	-7.56139
▁new	-7.56478
ic	-7.56534
▁un	-7.56902
7	-7.57934
▁c	-7.5807
▁something	-7.58279
ate	-7.58406
ta	-7.58487
▁really	-7.58761
5	-7.58903
▁again	-7.59008
as	-7.60077
est	-7.60186
▁f	-7.60632
▁much	-7.608
8	-7.61583
et	-7.6206
▁ra	-7.62235
is	-7.62871
▁made	-7.63661
9	-7.64445
▁ha	-7.64461
ty	-7.65023
ha	-7.65979
6	-7.66574
at	-7.66921
▁ba	-7.67157
▁before	-7.67245
to	-7.67863
▁day	-7.68707
▁than	-7.68745
ers	-7.69186
▁play	-7.69279
▁mi	-7.69853
▁big	-7.70858
4	-7.71066
▁away	-7.71674
▁give	-7.71912
ir	-7.72889
▁old	-7.73248
man	-7.73615
▁d	-7.73979
▁three	-7.74031
v	-7.74044
▁never	-7.74185
pe	-7.74394
▁house	-7.74535
▁home	-7.75405
▁lo	-7.75413
▁went	-7.75953
▁does	-7.75992
ho	-7.76732
▁those	-7.77277
▁um	-7.77856
▁thank	-7.77946
▁long	-7.77981
▁ta	-7.78054
▁great	-7.78363
▁came	-7.80142
he	-7.80211
ia	-7.8134
▁even	-7.81415
ul	-7.81441
▁pro	-7.81535
▁t	-7.81549
id	-7.81791
▁help	-7.82404
▁also	-7.82809
▁wanna	-7.82917
co	-7.83204
▁li	-7.83465
▁am	-7.83713
mp	-7.83886
▁le	-7.84097
_	-7.84147
▁dis	-7.84694
▁another	-7.84807
▁hand	-7.84888
▁da	-7.85166
▁thought	-7.85529
▁must	-7.86026
▁k	-7.86075
▁many	-7.86201
ca	-7.86332
▁mr	-7.86816
ba	-7.86968
▁thing	-7.87127
▁book	-7.87429
ton	-7.87889
▁may	-7.88078
▁doing	-7.88087
▁place	-7.88264
▁find	-7.88489
▁through	-7.89489
▁di	-7.89507
▁still	-7.89937
ist	-7.9017
▁show	-7.90391
tion	-7.90472
▁part	-7.90522
exp	-7.90883
/	-7.9115
?"	-7.91489
ol	-7.91709
▁name	-7.9176
▁boy	-7.91871
▁love	-7.92092
ies	-7.92263
ted	-7.92344
▁last	-7.92404
▁things	-7.9246
▁du	-7.92587
son	-7.92946
▁g	-7.93083
▁head	-7.93163
un	-7.93576
ver	-7.93856
▁please	-7.93918
ni	-7.93951
▁won	-7.94232
ward	-7.94339
▁bit	-7.95132
ian	-7.96192
▁night	-7.96465
ant	-7.96962
ence	-7.97535
am	-7.97604
▁bo	-7.97851
▁gra	-7.98148
▁na	-7.98328
ad	-7.98587
and	-7.98619
▁baby	-7.98878
▁found	-7.99124
▁hi	-7.99699
▁chi	-7.99705
▁mm	-8.00173
mo	-8.00268
bo	-8.00644
ge	-8.00831
be	-8.00841
able	-8.01236
▁2	-8.01306
▁lot	-8.0172
ity	-8.02495
um	-8.0264
▁%	-8.02775
▁called	-8.03016
▁might	-8.03018
▁w	-8.03205
▁ga	-8.03697
ine	-8.03723
▁done	-8.03733
▁sure	-8.03789
tic	-8.0386
▁isn	-8.04041
▁mother	-8.04348
▁most	-8.04597
▁pi	-8.04632
▁miss	-8.04653
▁water	-8.04716
▁girl	-8.0502
▁vi	-8.05375
ance	-8.05506
do	-8.06484
▁eat	-8.06842
▁open	-8.07266
mi	-8.07796
▁th	-8.08289
▁around	-8.08689
▁mhm	-8.08695
▁nice	-8.0872
add	-8.09118
▁ho	-8.09157
▁sa	-8.09612
po	-8.09922
▁better	-8.10006
op	-8.10455
ff	-8.1067
.”	-8.10737
▁dr	-8.10795
▁turn	-8.10809
▁four	-8.1082
▁keep	-8.10857
lu	-8.1113
▁se	-8.1124
▁life	-8.11598
▁kind	-8.11851
▁ti	-8.12617
▁su	-8.1263
age	-8.12876
▁own	-8.12927
▁sp	-8.12935
▁men	-8.13402
▁pa	-8.13685
we	-8.13725
▁end	-8.13836
▁while	-8.1399
▁pre	-8.14238
▁talk	-8.14512
▁pe	-8.14571
▁mo	-8.14721
ng	-8.14895
▁anything	-8.15195
ph	-8.16396
▁school	-8.16679
▁erm	-8.17463
nd	-8.17504
▁st	-8.18014
▁hey	-8.18106
ting	-8.18281
▁ah	-8.18283
▁ri	-8.18413
▁under	-8.18616
▁ca	-8.19369
▁doesn	-8.19462
wa	-8.1979
di	-8.19805
▁such	-8.19958
▁call	-8.2003
▁years	-8.20288
▁use	-8.20648
▁next	-8.20855
▁father	-8.20948
▁shall	-8.21264
ish	-8.21568
▁every	-8.21618
ru	-8.21715
▁sh	-8.21969
▁used	-8.22051
0	-8.2209
▁same	-8.22589
ness	-8.22799
im	-8.2307
▁world	-8.23143
,”	-8.2317
▁watch	-8.23519
▁room	-8.23607
▁else	-8.23647
▁mar	-8.23738
▁hold	-8.23879
les	-8.23888
sis	-8.24371
▁bar	-8.2444
▁je	-8.24508
▁being	-8.24615
ful	-8.24798
▁ne	-8.25739
laughs	-8.25784
!"	-8.25923
ow	-8.25954
▁wi	-8.26114
▁mummy	-8.27106
▁war	-8.27867
red	-8.28363
da	-8.28364
▁always	-8.28526
ous	-8.28611
▁left	-8.2914
ugh	-8.29187
▁saw	-8.2927
ak	-8.29395
ated	-8.29469
▁nothing	-8.29716
▁high	-8.29738
gg	-8.29813
▁ste	-8.29918
▁told	-8.29984
▁leave	-8.30445
pp	-8.3054
▁sit	-8.30872
▁set	-8.31063
▁read	-8.31486
pa	-8.31729
▁door	-8.32096
▁wait	-8.324
▁cl	-8.32421
▁ever	-8.3258
▁live	-8.32841
▁looks	-8.32917
▁hard	-8.33301
▁al	-8.34284
▁cha	-8.3552
▁fi	-8.35541
▁side	-8.35637
▁huh	-8.3582
▁close	-8.36114
led	-8.36133
▁sorry	-8.3614
▁jo	-8.36299
ok	-8.3643
▁remember	-8.36541
ard	-8.36845
▁sw	-8.36919
▁both	-8.37036
go	-8.37144
▁per	-8.37321
▁five	-8.37364
▁daddy	-8.37386
▁stop	-8.37406
▁point	-8.38321
ling	-8.38371
▁fire	-8.38763
▁m	-8.38817
nk	-8.38933
▁gone	-8.38947
▁hear	-8.39062
ga	-8.39113
ci	-8.392
▁walk	-8.39245
▁money	-8.39893
▁coming	-8.39929
bi	-8.39946
ten	-8.40077
em	-8.40091
▁though	-8.4023
hi	-8.40541
▁hm	-8.41016
j	-8.41064
▁enough	-8.41164
▁face	-8.41308
▁young	-8.41382
▁maybe	-8.41417
bro	-8.41861
tea	-8.42075
▁took	-8.42138
ster	-8.42444
ber	-8.42507
▁u	-8.4256
you	-8.42665
mon	-8.42735
▁start	-8.42831
▁l	-8.42872
▁number	-8.43044
▁box	-8.43264
ld	-8.4378
▁red	-8.43822
▁morning	-8.44285
tle	-8.44672
int	-8.45191
▁fa	-8.4528
▁goes	-8.45402
▁mu	-8.45417
▁light	-8.45423
va	-8.45524
▁until	-8.45645
▁once	-8.45839
▁ten	-8.45895
▁six	-8.4601
▁stay	-8.46313
ap	-8.4635
▁3	-8.46449
▁gu	-8.46529
▁sir	-8.46581
per	-8.47241
▁god	-8.47479
▁second	-8.47485
ary	-8.47555
▁try	-8.47562
▁el	-8.4762
▁course	-8.477
▁best	-8.47962
▁move	-8.48167
▁pri	-8.48174
▁noise	-8.48253
▁r	-8.48303
▁_	-8.48398
▁quite	-8.4851
▁year	-8.48512
▁dear	-8.48622
▁ball	-8.4864
▁ex	-8.48692
▁ja	-8.48774
my	-8.49269
min	-8.49646
▁eyes	-8.49834
▁feel	-8.49842
▁pick	-8.5002
▁tri	-8.51053
▁today	-8.51319
▁sound	-8.51331
▁city	-8.51384
▁far	-8.51543
▁dog	-8.51577
land	-8.51773
up	-8.5179
▁ka	-8.51899
dy	-8.52069
▁game	-8.52118
▁yet	-8.5229
▁sta	-8.52321
▁en	-8.52356
▁looking	-8.53042
▁each	-8.531
▁small	-8.53413
ka	-8.53454
▁asked	-8.53723
▁ru	-8.53931
▁run	-8.53996
if	-8.54017
▁few	-8.54099
▁round	-8.54109
▁friend	-8.54138
▁bed	-8.54369
▁laugh	-8.54399
ah	-8.54406
▁together	-8.54418
oo	-8.5459
bb	-8.54713
▁seen	-8.54823
▁different	-8.54898
▁soon	-8.5491
▁ar	-8.55062
gi	-8.55078
mb	-8.55215
▁blue	-8.55359
▁week	-8.55867
but	-8.56024
▁ask	-8.56683
▁mind	-8.56689
ep	-8.56741
low	-8.56843
▁comp	-8.56898
one	-8.571
▁bad	-8.57185
▁sleep	-8.57207
ner	-8.57354
▁fall	-8.57563
▁n	-8.5788
▁children	-8.58117
▁getting	-8.58369
rs	-8.58518
▁♪	-8.58644
▁without	-8.58778
▁tra	-8.58899
▁believe	-8.58908
▁z	-8.5901
ture	-8.59107
ud	-8.59233
end	-8.59244
▁mot	-8.59391
▁everything	-8.59513
▁train	-8.5975
▁says	-8.60081
▁air	-8.60212
▁black	-8.60266
king	-8.60345
cu	-8.60617
▁bra	-8.61006
▁ready	-8.61265
ut	-8.61457
mch	-8.61645
▁later	-8.61839
▁fo	-8.61916
▁mommy	-8.62008
▁wa	-8.62029
ps	-8.62084
▁heard	-8.62127
gra	-8.62139
▁between	-8.62188
▁picture	-8.62203
less	-8.62266
▁cat	-8.62559
ip	-8.62877
der	-8.63318
mar	-8.63605
▁arm	-8.63618
▁since	-8.63867
ding	-8.64049
▁bring	-8.64162
cause	-8.64209
ger	-8.64396
▁known	-8.646
▁te	-8.64652
▁half	-8.64721
▁tu	-8.65053
▁upon	-8.65519
rn	-8.65579
▁story	-8.65634
▁white	-8.65643
▁child	-8.65695
her	-8.65967
▁having	-8.66257
▁himself	-8.66479
▁hafta	-8.66705
▁fe	-8.66716
gu	-8.67109
cent	-8.67168
ron	-8.67501
wi	-8.67527
ze	-8.67592
ven	-8.67695
▁jack	-8.68101
▁pu	-8.68115
▁happened	-8.68182
▁alright	-8.68303
▁mrs	-8.68424
▁hu	-8.6859
▁real	-8.68596
▁star	-8.68901
▁cut	-8.68998
▁haven	-8.69032
▁american	-8.69094
fa	-8.69154
▁color	-8.69366
▁table	-8.69529
▁near	-8.69806
▁gen	-8.69844
▁pretty	-8.70072
yes	-8.70277
gma	-8.70346
▁18	-8.70355
▁sha	-8.70523
▁matter	-8.70739
▁wanted	-8.70778
▁along	-8.7086
by	-8.70885
▁si	-8.70899
▁ju	-8.71024
▁listen	-8.71064
vo	-8.71449
row	-8.71502
lt	-8.7157
▁tree	-8.7187
▁pat	-8.71903
ag	-8.72
▁ce	-8.72014
▁john	-8.72081
▁sort	-8.7215
▁knew	-8.72308
▁green	-8.72597
▁hello	-8.72842
▁talking	-8.72937
▁heart	-8.7295
▁piece	-8.73087
▁lu	-8.73176
▁care	-8.73375
▁looked	-8.73382
▁cup	-8.73388
▁che	-8.734
▁j	-8.735
ning	-8.73799
oh	-8.73968
om	-8.7417
▁happen	-8.742
▁horse	-8.74495
▁state	-8.75008
▁rest	-8.75047
▁stand	-8.75093
▁hope	-8.75112
▁large	-8.75294
▁4	-8.75441
▁hour	-8.75795
▁top	-8.75982
—	-8.76046
▁ya	-8.76096
▁kid	-8.76106
▁united	-8.76263
und	-8.76425
ual	-8.76447
ring	-8.76453
▁making	-8.76618
ach	-8.76641
▁moment	-8.76671
▁fla	-8.76734
▁1	-8.76806
▁line	-8.76854
ect	-8.76951
▁family	-8.77253
▁idea	-8.77329
▁hands	-8.77424
▁dad	-8.77451
▁against	-8.77455
▁drink	-8.77495
▁order	-8.77555
▁chair	-8.77611
▁actually	-8.77962
▁sing	-8.77983
que	-8.78167
bu	-8.78348
".	-8.78578
▁music	-8.78758
▁v	-8.78828
▁town	-8.78839
▁speak	-8.78844
▁gave	-8.79088
▁va	-8.79138
wn	-8.79179
▁sea	-8.79235
ries	-8.79421
▁sec	-8.79497
ee	-8.79532
▁fine	-8.79612
▁wo	-8.79649
▁party	-8.79751
▁land	-8.799
▁king	-8.79916
rr	-8.80023
▁boys	-8.8041
▁hat	-8.80441
ite	-8.80853
▁bear	-8.80942
▁paper	-8.81025
▁during	-8.81136
cha	-8.8114
▁bi	-8.81512
▁draw	-8.81516
▁win	-8.81523
▁leg	-8.81576
ise	-8.81619
▁north	-8.81731
▁tea	-8.82019
▁movie	-8.82056
ping	-8.82103
▁brother	-8.82127
▁har	-8.82611
fi	-8.82693
our	-8.82693
what	-8.83277
▁son	-8.83366
▁born	-8.83762
tra	-8.83869
▁voice	-8.84032
▁song	-8.84408
▁whole	-8.84416
ial	-8.84458
▁team	-8.84546
▁person	-8.8463
1:	-8.84732
tor	-8.84937
so	-8.85112
cy	-8.8538
tain	-8.85552
▁died	-8.85717
▁mom	-8.8581
?”	-8.85992
of	-8.86175
▁food	-8.86228
▁ran	-8.86474
▁ear	-8.86748
ical	-8.86836
▁wouldn	-8.86853
▁days	-8.86895
▁almost	-8.86903
+	-8.8696
▁eight	-8.86993
well	-8.87034
nan	-8.87313
ley	-8.87327
▁happy	-8.87334
▁word	-8.87473
▁seven	-8.87541
out	-8.87613
é	-8.87771
▁started	-8.8779
▁pay	-8.87822
▁app	-8.87872
▁understand	-8.88138
▁trying	-8.88169
▁states	-8.88434
▁wasn	-8.8853
▁act	-8.8912
▁cre	-8.89194
pi	-8.89256
),	-8.89321
▁bri	-8.89565
▁pull	-8.89622
lie	-8.89913
▁floor	-8.89946
▁interest	-8.90088
lic	-8.90277
▁minute	-8.90316
▁full	-8.90538
cc	-8.90596
▁present	-8.90674
▁saying	-8.90782
▁age	-8.90811
au	-8.90879
▁wrong	-8.91082
▁gi	-8.91136
00	-8.91162
han	-8.91191
ther	-8.91314
▁20	-8.91319
▁already	-8.91667
ving	-8.91676
▁sun	-8.91728
serv	-8.91879
▁probably	-8.92239
▁fun	-8.92254
▁playing	-8.92338
▁mine	-8.92341
▁guess	-8.92348
▁job	-8.9251
ex	-8.92538
nny	-8.9262
▁country	-8.92665
▁hair	-8.92685
▁south	-8.92724
▁bill	-8.93001
den	-8.93011
▁feet	-8.9306
▁sco	-8.93295
▁question	-8.93558
▁5	-8.9378
▁rock	-8.94007
▁ni	-8.94059
▁mon	-8.94067
▁h	-8.94106
▁woman	-8.94785
▁fish	-8.94851
▁wish	-8.9512
▁sent	-8.9514
ey	-8.95888
lin	-8.95904
qu	-8.9603
ide	-8.96148
▁sur	-8.96223
ac	-8.96229
▁case	-8.96271
way	-8.96345
▁exp	-8.96476
▁sto	-8.96492
▁lost	-8.96493
ja	-8.96592
▁grand	-8.96606
▁poor	-8.9662
▁became	-8.96806
lf	-8.96945
▁thomas	-8.97361
▁ge	-8.97372
▁sign	-8.97575
▁began	-8.97647
ble	-8.9767
▁lady	-8.97872
▁front	-8.98012
▁short	-8.98136
▁conf	-8.98139
▁grow	-8.98159
▁bird	-8.98163
ice	-8.98246
▁throw	-8.98426
||	-8.98539
▁doctor	-8.98962
▁pass	-8.99005
▁plan	-8.99013
▁gotta	-8.99172
▁sometimes	-8.99178
▁change	-8.99305
▁fact	-8.99754
val	-8.99913
▁fight	-8.99961
▁behind	-9.00595
▁hundred	-9.006
▁bur	-9.00656
▁letter	-9.0076
ship	-9.00784
▁boat	-9.00807
▁page	-9.00819
▁drive	-9.01049
ang	-9.01153
▁cra	-9.01171
▁record	-9.0127
iv	-9.01316
che	-9.01323
▁bus	-9.01324
con	-9.01529
▁group	-9.01551
▁late	-9.01621
▁friends	-9.01681
▁mum	-9.01873
light	-9.02221
▁write	-9.02373
▁power	-9.024
ally	-9.02575
nder	-9.02788
ator	-9.02894
▁–	-9.02911
▁em	-9.0296
▁aren	-9.03307
ating	-9.03381
▁outside	-9.03383
▁member	-9.03504
▁wonder	-9.03602
▁captain	-9.03604
▁played	-9.03648
ities	-9.03659
▁form	-9.03789
room	-9.04323
▁brought	-9.04442
▁sal	-9.04535
ki	-9.04624
huh	-9.04811
rri	-9.04813
▁dead	-9.04879
",	-9.04932
rk	-9.04993
▁county	-9.05298
▁cur	-9.05545
▁month	-9.05546
▁hot	-9.05659
that	-9.05773
ily	-9.05804
▁stuff	-9.06041
▁couldn	-9.06187
▁sister	-9.06211
▁ob	-9.06235
▁national	-9.06361
▁road	-9.06719
io	-9.06855
dad	-9.07048
ned	-9.07311
▁stick	-9.07368
▁break	-9.07488
▁appear	-9.0754
▁river	-9.07553
▁clear	-9.07753
▁wood	-9.07773
▁7	-9.07909
▁girls	-9.08054
▁fl	-9.08069
lan	-9.08282
▁seemed	-9.0848
▁ki	-9.08574
▁learn	-9.08619
▁hurt	-9.08674
pat	-9.0869
qui	-9.08734
ran	-9.08822
▁sub	-9.08967
▁turned	-9.09137
▁guy	-9.09189
▁6	-9.09738
▁business	-9.0988
igh	-9.09976
▁however	-9.10054
▁mark	-9.1014
▁fast	-9.10207
▁death	-9.1025
▁problem	-9.10284
▁pen	-9.10343
▁someone	-9.10565
men	-9.10767
▁general	-9.10779
▁main	-9.10896
for	-9.10916
rate	-9.11075
▁window	-9.11117
”	-9.11394
▁often	-9.11461
▁cry	-9.11574
▁beautiful	-9.11651
▁low	-9.11656
ham	-9.11993
▁step	-9.12238
▁dark	-9.12316
com	-9.1239
▁able	-9.12733
▁whi	-9.12814
▁buy	-9.12816
gen	-9.12917
▁ski	-9.13115
▁taking	-9.13169
▁cap	-9.13192
▁fair	-9.13299
▁taken	-9.13372
car	-9.13479
▁cover	-9.13609
▁early	-9.13814
▁twenty	-9.13821
▁myself	-9.13847
▁hit	-9.14192
zz	-9.14295
▁ed	-9.14359
▁fell	-9.14443
▁pan	-9.1448
▁dress	-9.15084
▁inside	-9.15098
all	-9.15184
000	-9.15203
▁nine	-9.15255
▁ship	-9.15342
▁german	-9.15493
▁free	-9.15712
▁cause	-9.15832
ric	-9.16025
▁less	-9.16117
!”	-9.16164
▁push	-9.16179
▁cold	-9.16179
▁yourself	-9.16367
▁trans	-9.16429
▁tro	-9.16566
▁gre	-9.1663
▁scar	-9.16793
▁rather	-9.17036
▁ring	-9.17108
▁touch	-9.17297
▁jump	-9.17561
▁yellow	-9.17638
▁area	-9.17706
▁ben	-9.18041
▁true	-9.18134
where	-9.18196
▁8	-9.18415
▁till	-9.18445
▁perhaps	-9.18506
▁cu	-9.1862
▁inter	-9.18704
▁cor	-9.18792
▁count	-9.18795
port	-9.18882
▁reason	-9.18974
▁class	-9.19248
▁wear	-9.19289
▁wife	-9.19316
ctor	-9.19346
▁ago	-9.19353
▁words	-9.19443
▁nor	-9.19509
ious	-9.19645
fe	-9.19676
▁strong	-9.19779
tro	-9.19858
▁felt	-9.20095
ler	-9.20135
act	-9.20144
▁brown	-9.20168
▁milk	-9.20369
▁minutes	-9.20447
▁alone	-9.20462
▁flo	-9.20792
lar	-9.20829
www	-9.21045
ition	-9.2125
ever	-9.21279
line	-9.21307
▁march	-9.21314
▁funny	-9.21315
▁imp	-9.2154
▁trouble	-9.21579
▁either	-9.21972
nie	-9.22257
▁enter	-9.22504
▁sweet	-9.22715
▁x	-9.22733
▁bag	-9.22833
▁chance	-9.22996
▁vo	-9.23245
▁women	-9.23404
▁company	-9.2349
▁yu	-9.23623
▁wall	-9.23948
ches	-9.24059
▁dec	-9.24079
born	-9.24277
▁france	-9.24387
▁given	-9.24415
▁!	-9.24418
kin	-9.24493
ight	-9.24671
▁english	-9.24771
▁police	-9.25051
▁continue	-9.25189
▁street	-9.25191
tive	-9.25226
▁toys	-9.25438
▁careful	-9.25601
▁become	-9.2564
▁gun	-9.25648
time	-9.2568
▁somebody	-9.25745
how	-9.25923
▁meet	-9.25944
▁san	-9.25998
▁ground	-9.26167
▁bye	-9.2619
day	-9.26201
▁body	-9.26239
▁10	-9.26249
ative	-9.26333
▁boo	-9.26367
▁bob	-9.26379
▁safe	-9.2642
▁ke	-9.2654
▁important	-9.26829
▁wind	-9.26867
laugh	-9.26929
▁min	-9.27003
nch	-9.27118
▁foot	-9.27404
▁gold	-9.27428
▁park	-9.27671
ign	-9.27749
▁president	-9.27773
read	-9.27799
▁several	-9.27846
▁nu	-9.27914
dic	-9.27969
▁cho	-9.28157
▁pra	-9.28285
▁bla	-9.28331
▁past	-9.28408
▁def	-9.28421
▁phone	-9.28558
▁across	-9.2869
ped	-9.28732
▁deal	-9.28885
▁fit	-9.29205
▁glad	-9.29232
▁cal	-9.29503
▁clean	-9.29786
▁join	-9.29814
side	-9.29868
▁save	-9.29893
▁least	-9.29942
ney	-9.3009
▁farm	-9.30341
▁dinner	-9.30743
▁working	-9.30806
▁law	-9.31048
▁roll	-9.31176
▁ye	-9.31182
bel	-9.31349
▁visit	-9.31401
▁mad	-9.31424
▁sy	-9.31593
▁lay	-9.31743
▁answer	-9.31764
unk	-9.31935
▁char	-9.31969
▁shop	-9.32199
▁[1	-9.32587
▁seat	-9.32624
▁strange	-9.32635
▁york	-9.32921
▁island	-9.32925
▁uhhuh	-9.32931
▁bro	-9.33113
▁quiet	-9.33236
▁force	-9.33262
▁9	-9.33347
▁football	-9.33414
don	-9.33479
▁cross	-9.34056
▁phil	-9.34226
ple	-9.34411
▁camp	-9.34429
▁post	-9.34663
▁y	-9.35101
▁inv	-9.35125
cul	-9.35192
▁sat	-9.35233
▁finished	-9.35239
pped	-9.35249
▁darling	-9.35255
▁send	-9.3529
▁qu	-9.35345
▁#	-9.3536
▁west	-9.35372
▁guys	-9.35423
▁among	-9.35513
br	-9.35706
▁everybody	-9.35721
▁animals	-9.35754
▁tomorrow	-9.35877
▁living	-9.35911
▁catch	-9.362
▁egg	-9.3623
▁french	-9.3626
▁government	-9.36417
gan	-9.36418
▁comm	-9.36472
▁mor	-9.36582
▁return	-9.36654
ju	-9.36903
▁special	-9.3702
▁port	-9.3705
▁frank	-9.37096
ung	-9.37267
loi	-9.3741
now	-9.37438
▁expect	-9.3767
old	-9.37804
▁gri	-9.37913
▁joe	-9.37918
▁consider	-9.37942
▁manage	-9.37943
form	-9.38216
▁service	-9.3822
▁fly	-9.38364
▁church	-9.38598
▁mouth	-9.39134
▁tried	-9.39209
ism	-9.39359
▁reach	-9.39393
▁report	-9.39464
▁fellow	-9.39504
▁check	-9.39608
▁herself	-9.39642
▁wow	-9.39732
▁glo	-9.39774
▁frog	-9.39775
▁cru	-9.39778
▁club	-9.39796
ible	-9.40024
▁dat	-9.40324
▁bath	-9.40337
▁daughter	-9.40357
▁shi	-9.40434
▁flower	-9.40531
ef	-9.40556
▁base	-9.40637
▁cro	-9.40738
mber	-9.40788
▁region	-9.40792
▁rain	-9.40812
▁aunt	-9.40812
▁sam	-9.40914
▁soft	-9.40936
▁band	-9.41134
ford	-9.41223
▁uncle	-9.41292
▁jim	-9.41358
▁art	-9.41456
▁pop	-9.41539
▁cried	-9.4171
▁anyway	-9.41899
▁usually	-9.41935
put	-9.41943
▁building	-9.41974
▁2020	-9.42052
dge	-9.42167
▁agree	-9.422
▁feeling	-9.42319
▁history	-9.42319
▁figure	-9.42541
▁carry	-9.42552
▁earth	-9.42564
adu	-9.42784
▁paint	-9.42795
▁eye	-9.42923
▁...	-9.42966
▁human	-9.4299
▁afraid	-9.43008
▁running	-9.4307
▁engine	-9.43168
▁secret	-9.43264
▁super	-9.43305
▁system	-9.43436
▁ok	-9.43664
▁cook	-9.43779
▁summer	-9.43975
▁fix	-9.43998
▁east	-9.44035
▁sitting	-9.44089
ub	-9.44156
▁ow	-9.44186
▁cow	-9.44354
cious	-9.4454
▁thinking	-9.44601
▁wash	-9.44919
▁forget	-9.45031
▁truck	-9.45089
▁held	-9.45177
▁player	-9.45412
jo	-9.45517
▁kill	-9.45657
▁thousand	-9.45664
▁station	-9.45771
▁suppose	-9.45827
▁series	-9.45966
▁kept	-9.4614
▁dream	-9.46216
▁office	-9.46358
▁direct	-9.46653
▁val	-9.46657
▁gar	-9.46895
▁birthday	-9.46964
clock	-9.46994
friend	-9.47029
▁finger	-9.47164
▁lead	-9.47178
za	-9.47349
lor	-9.47437
some	-9.4759
▁snow	-9.47626
hen	-9.47702
▁lived	-9.47899
▁object	-9.4795
▁married	-9.48049
▁duck	-9.48103
▁easy	-9.48172
▁hang	-9.4823
▁master	-9.48362
▁department	-9.48682
▁scr	-9.48889
▁attack	-9.48897
▁single	-9.49092
▁blood	-9.49171
▁card	-9.49238
▁fu	-9.49313
▁shot	-9.49415
▁ver	-9.49551
▁stood	-9.4969
▁choo	-9.4984
▁fear	-9.4985
▁remain	-9.4987
cds	-9.49907
▁17	-9.50057
▁board	-9.50073
cra	-9.50092
▁kiss	-9.50362
gue	-9.50371
▁spoke	-9.50372
▁surprise	-9.50389
▁tre	-9.50448
▁ph	-9.50493
▁officer	-9.50654
▁term	-9.50673
▁indian	-9.50752
▁ooh	-9.50789
▁15	-9.50864
▁par	-9.50892
▁university	-9.50949
▁peter	-9.5107
▁june	-9.51186
▁luck	-9.51294
▁block	-9.51523
fully	-9.51554
▁language	-9.51604
▁tonight	-9.51679
▁qua	-9.51773
▁promise	-9.51827
▁whatever	-9.51876
▁include	-9.51997
▁smile	-9.52093
▁deep	-9.52165
▁january	-9.52217
▁pound	-9.52238
spect	-9.52254
▁12	-9.52358
uch	-9.52539
ko	-9.52561
aft	-9.52578
▁hall	-9.52695
▁field	-9.52796
▁orange	-9.52827
▁whether	-9.52871
bra	-9.53249
▁garden	-9.53267
▁tired	-9.53314
▁sca	-9.53351
▁drop	-9.53506
▁straight	-9.53642
▁tape	-9.53905
hu	-9.5414
▁village	-9.54276
▁ride	-9.54355
▁lord	-9.54446
ker	-9.54517
▁den	-9.54732
▁clothes	-9.54859
▁lovely	-9.54898
▁cri	-9.55477
▁prince	-9.55549
▁stra	-9.55727
▁couple	-9.55758
▁dance	-9.55823
▁hill	-9.55825
▁killed	-9.55863
▁cake	-9.56161
▁cast	-9.56235
▁million	-9.56417
night	-9.56474
▁common	-9.56514
▁list	-9.56584
ized	-9.56795
▁excuse	-9.56865
▁sail	-9.56882
▁season	-9.5701
▁waiting	-9.57079
▁replied	-9.57146
▁eh	-9.57163
▁cop	-9.57221
▁themselves	-9.5731
▁quick	-9.5743
▁rose	-9.57692
▁stone	-9.57923
▁named	-9.5816
▁released	-9.58195
▁album	-9.58203
▁follow	-9.58207
makes	-9.58231
▁roman	-9.58249
▁mountain	-9.58281
je	-9.58286
▁rob	-9.58286
50	-9.58325
▁cool	-9.58353
▁nose	-9.58619
▁major	-9.58887
▁district	-9.59329
▁character	-9.59428
▁command	-9.59431
▁career	-9.59465
▁complete	-9.59742
▁warm	-9.59756
▁spot	-9.59763
▁instead	-9.59923
▁opera	-9.60044
▁answered	-9.60088
▁husband	-9.6032
▁possible	-9.60529
▁forward	-9.6066
▁eating	-9.60749
▁spi	-9.60784
▁proper	-9.60932
▁british	-9.6107
▁rule	-9.6113
▁christmas	-9.61139
board	-9.61156
▁middle	-9.61376
fch	-9.61388
wo	-9.61404
▁wheel	-9.61531
ium	-9.61609
▁film	-9.61637
▁juice	-9.61665
▁bank	-9.618
len	-9.61961
▁lie	-9.61964
▁evening	-9.62075
▁fra	-9.62082
▁august	-9.62097
▁exactly	-9.62239
▁third	-9.6225
▁forgot	-9.62481
á	-9.62493
lk	-9.62509
▁court	-9.62695
▁wild	-9.62764
mic	-9.62797
▁cannot	-9.62858
lon	-9.62903
▁space	-9.62995
▁type	-9.632
▁sand	-9.63307
▁above	-9.6345
▁putting	-9.63486
ray	-9.63517
▁quickly	-9.6356
▁16	-9.63604
▁apple	-9.63753
▁breath	-9.63794
▁passed	-9.63804
▁difficult	-9.63875
▁die	-9.63886
▁beside	-9.63932
▁broken	-9.63946
▁although	-9.63999
▁knock	-9.64072
▁certain	-9.64148
▁moved	-9.64296
pri	-9.64406
duc	-9.64415
▁key	-9.64438
▁plant	-9.64493
▁finish	-9.64936
col	-9.64999
▁develop	-9.65006
▁honey	-9.6504
▁ze	-9.65107
▁worry	-9.65111
▁success	-9.65152
▁op	-9.65193
▁europe	-9.65225
use	-9.65233
▁organ	-9.65283
nu	-9.65445
▁treat	-9.6563
truct	-9.65871
▁temp	-9.6589
▁indeed	-9.66014
▁television	-9.66308
▁everyone	-9.66311
▁april	-9.66365
pro	-9.66476
ute	-9.66555
▁nin	-9.66574
▁england	-9.66583
▁stu	-9.66617
▁public	-9.66668
▁van	-9.66731
▁mary	-9.66755
▁offer	-9.66759
▁control	-9.66978
▁produce	-9.66984
▁longer	-9.67028
▁perfect	-9.67041
▁support	-9.6705
▁plane	-9.67087
▁hole	-9.67301
▁glass	-9.67307
childes	-9.67484
▁pretend	-9.67501
▁race	-9.67537
▁whose	-9.6756
uff	-9.67704
▁anyone	-9.67706
▁october	-9.68099
▁match	-9.6819
▁nearly	-9.68265
▁childes	-9.68353
▁enjoy	-9.68574
▁shape	-9.68582
▁build	-9.6902
▁explain	-9.69072
▁position	-9.69114
▁example	-9.69355
▁caught	-9.69574
▁beat	-9.69625
▁squ	-9.69655
▁plate	-9.69728
▁hy	-9.6974
▁test	-9.69779
▁sight	-9.69944
▁chief	-9.70008
▁burn	-9.70082
▁mama	-9.70121
▁nobody	-9.70175
▁broke	-9.70421
▁november	-9.70561
▁travel	-9.70702
▁bright	-9.70928
▁miles	-9.71075
▁store	-9.71165
▁pardon	-9.71181
▁charge	-9.71488
▁shout	-9.71498
▁standing	-9.71558
▁chapter	-9.71669
van	-9.7173
▁reached	-9.71736
20	-9.71786
▁fur	-9.71802
▁ahead	-9.71839
▁september	-9.71881
▁former	-9.71917
▁chris	-9.71937
▁july	-9.72028
▁serious	-9.72038
▁except	-9.72043
▁effect	-9.72049
▁david	-9.72141
&	-9.72396
place	-9.72562
▁blow	-9.72745
▁hungry	-9.72873
▁paul	-9.72891
▁track	-9.72898
▁certainly	-9.73125
▁teacher	-9.73387
▁notice	-9.73414
▁yesterday	-9.73514
▁climb	-9.73527
▁view	-9.73596
▁discover	-9.73776
▁perform	-9.73787
▁pet	-9.73787
▁11	-9.73807
▁december	-9.73936
▁doubt	-9.74012
name	-9.74029
round	-9.74248
press	-9.74334
▁breakfast	-9.7445
▁george	-9.74519
▁army	-9.74553
▁hospital	-9.74588
▁gro	-9.74651
▁para	-9.74662
–	-9.74701
▁crayon	-9.75072
▁hol	-9.75261
▁kitchen	-9.75302
hold	-9.75379
illustration	-9.75394
▁february	-9.75499
▁suggest	-9.75557
like	-9.75617
▁pack	-9.7563
▁chicken	-9.75673
▁begin	-9.75683
burg	-9.75735
▁returned	-9.75751
▁bottle	-9.75837
▁afternoon	-9.75894
▁yep	-9.75895
▁changed	-9.75989
▁queen	-9.76139
▁stopped	-9.76399
▁moon	-9.76457
ically	-9.76519
▁london	-9.76547
▁protect	-9.76733
▁ko	-9.76755
▁yo	-9.76773
take	-9.76795
▁following	-9.76893
▁helen	-9.77028
▁bread	-9.77029
▁heavy	-9.77287
▁lunch	-9.77297
singing	-9.7761
▁built	-9.77701
▁chu	-9.77785
▁hum	-9.7786
▁loud	-9.77985
▁hunt	-9.78116
▁supposed	-9.78257
")	-9.78293
▁trust	-9.78485
▁suddenly	-9.78511
▁decided	-9.78557
▁anybody	-9.787
▁council	-9.78724
▁written	-9.79348
right	-9.79394
▁exc	-9.79943
▁(19	-9.80095
▁cheer	-9.80128
▁particular	-9.80559
▁truth	-9.80633
%	-9.80659
▁lake	-9.80687
ified	-9.80813
▁sick	-9.80846
▁author	-9.81158
▁program	-9.81208
▁soldier	-9.8133
▁nurse	-9.81468
▁followed	-9.81674
▁sad	-9.81938
▁shoot	-9.82
▁suit	-9.82018
▁fraser	-9.82169
▁thirty	-9.82367
▁bridge	-9.82418
▁bru	-9.82722
19	-9.82729
come	-9.82737
▁sense	-9.82747
▁13	-9.82774
pose	-9.82805
▁wal	-9.82828
vol	-9.82903
▁ken	-9.82907
▁tv	-9.82974
▁worth	-9.83027
▁14	-9.83039
▁refer	-9.83176
▁hurry	-9.8324
house	-9.8328
play	-9.83353
▁somewhere	-9.83444
why	-9.83659
▁bunny	-9.83691
▁coffee	-9.83704
▁bought	-9.83907
▁giving	-9.83915
▁lock	-9.84051
q	-9.84059
▁press	-9.84155
ddle	-9.84293
▁belong	-9.844
▁guard	-9.84595
▁leaving	-9.84613
▁stuck	-9.84716
▁bull	-9.84779
ache	-9.84948
▁added	-9.85021
▁ur	-9.85266
▁bottom	-9.85403
▁corner	-9.85416
▁fat	-9.85482
▁wide	-9.85547
▁cheese	-9.85752
▁leader	-9.85951
▁level	-9.8596
▁russia	-9.86055
▁battle	-9.8606
sib	-9.86317
▁lift	-9.86361
▁slip	-9.86365
▁australia	-9.86509
▁sell	-9.86634
▁dig	-9.86635
▁dar	-9.86705
▁30	-9.86861
▁health	-9.86876
gasps	-9.86986
▁elephant	-9.87092
ection	-9.8711
▁meeting	-9.87121
▁college	-9.87197
illa	-9.87317
▁ven	-9.87323
▁tail	-9.87391
▁pink	-9.87394
▁angel	-9.87415
▁wrote	-9.87549
▁fifty	-9.87575
▁apart	-9.87689
▁busy	-9.87986
▁represent	-9.87994
▁moo	-9.88187
▁spirit	-9.8847
▁machine	-9.88496
▁result	-9.88521
▁cookie	-9.88861
▁silver	-9.88931
▁share	-9.88998
▁sky	-9.89062
▁league	-9.89369
▁population	-9.89449
▁moving	-9.89517
▁minister	-9.89636
▁hoo	-9.89669
▁bang	-9.89749
▁rabbit	-9.89755
▁welcome	-9.89756
▁animal	-9.89821
▁bow	-9.89831
▁pain	-9.89848
box	-9.89964
▁ought	-9.90111
▁commune	-9.90117
▁lose	-9.90247
=	-9.90386
▁america	-9.90625
í	-9.90641
ounce	-9.90764
▁spring	-9.9082
▁mc	-9.91028
▁express	-9.91031
▁personal	-9.91043
▁fail	-9.91051
▁international	-9.91222
▁further	-9.91361
▁finally	-9.91399
▁neck	-9.91448
▁anymore	-9.91482
▁natural	-9.91739
▁wonderful	-9.91784
▁local	-9.91991
▁$	-9.9209
ograph	-9.92324
▁‘	-9.92464
▁parents	-9.92467
sure	-9.92649
▁grandma	-9.92789
▁rich	-9.93219
▁beginning	-9.93382
▁circle	-9.93651
▁escape	-9.93651
▁current	-9.93679
▁original	-9.93686
▁knee	-9.93716
▁exclaimed	-9.9379
▁received	-9.93883
▁including	-9.9404
▁michael	-9.94069
▁robert	-9.94173
▁murder	-9.94292
cycl	-9.94486
▁winter	-9.94517
▁rising	-9.94609
▁mix	-9.94729
▁mari	-9.94914
▁wave	-9.95185
noise	-9.952
▁james	-9.95247
▁action	-9.9551
▁square	-9.95586
▁design	-9.95763
▁collect	-9.95851
▁extra	-9.95856
▁shake	-9.95908
vocalize	-9.95927
▁attention	-9.96027
▁hide	-9.96081
▁carried	-9.96105
▁self	-9.96355
▁video	-9.96534
▁comfort	-9.96597
▁distance	-9.96815
▁shut	-9.97098
▁william	-9.97149
▁accept	-9.97461
points	-9.97857
60	-9.97905
▁rush	-9.9804
▁direction	-9.9806
▁century	-9.98212
▁trip	-9.98311
10	-9.98914
▁lion	-9.99026
▁sharp	-9.993
▁silence	-9.99339
▁writing	-9.99514
▁popular	-9.99603
▁capital	-9.9981
▁pocket	-9.99854
▁harry	-10.0021
▁grass	-10.0027
▁pin	-10.0039
80	-10.0061
▁basket	-10.0063
▁pig	-10.0068
90	-10.0074
▁merc	-10.009
▁sport	-10.0091
▁study	-10.0097
▁dropped	-10.0103
▁connect	-10.0104
▁contain	-10.0116
▁peace	-10.0116
▁camera	-10.0125
▁account	-10.0134
▁information	-10.016
▁spoon	-10.0177
▁teach	-10.0193
▁clar	-10.02
▁gate	-10.0228
▁favorite	-10.0236
▁spend	-10.0242
▁experience	-10.0253
▁product	-10.0258
▁total	-10.0265
field	-10.0268
▁wake	-10.0274
▁puzzle	-10.0278
▁teeth	-10.0279
▁province	-10.0284
▁paris	-10.0286
▁taste	-10.0296
40	-10.0321
▁louis	-10.0331
▁search	-10.0351
wood	-10.0357
▁especially	-10.036
▁africa	-10.0366
▁fresh	-10.0399
▁cream	-10.0407
▁broad	-10.0412
▁stage	-10.0413
▁coat	-10.0416
▁remark	-10.0417
30	-10.0429
▁quarter	-10.0433
▁monkey	-10.0433
▁entire	-10.0467
▁delight	-10.048
▁2018	-10.0532
▁famous	-10.0545
▁respect	-10.056
▁teddy	-10.0567
head	-10.0588
ency	-10.0624
▁speed	-10.0625
▁normal	-10.0633
▁flu	-10.0634
▁mistake	-10.0669
▁corn	-10.0675
▁wha	-10.0696
▁bobby	-10.0697
▁scene	-10.0707
▁honor	-10.0711
▁itself	-10.0712
▁bomb	-10.0715
ology	-10.0723
▁according	-10.0734
▁created	-10.0736
▁period	-10.0744
▁final	-10.0751
hood	-10.0751
▁japan	-10.0777
▁25	-10.0793
▁future	-10.0798
▁micro	-10.081
▁kitty	-10.0811
▁conversation	-10.0825
ridge	-10.083
▁center	-10.0848
▁whisper	-10.0852
▁comb	-10.0854
▁rub	-10.0859
▁fro	-10.0863
▁2021	-10.0903
▁chocolate	-10.0906
▁buck	-10.0911
▁brush	-10.0915
▁victor	-10.0925
▁martin	-10.093
▁qui	-10.093
▁pitch	-10.0936
cept	-10.0937
▁student	-10.0963
▁nick	-10.0965
▁smell	-10.0975
▁clever	-10.0977
▁uhoh	-10.099
ably	-10.0995
▁tower	-10.1007
▁twelve	-10.1035
▁tiger	-10.105
▁social	-10.1078
ville	-10.109
▁grew	-10.1099
▁paid	-10.1103
▁concern	-10.112
▁slowly	-10.1125
▁alive	-10.1129
script	-10.1138
▁jane	-10.1156
▁length	-10.1164
▁magic	-10.1172
▁storm	-10.1173
▁radio	-10.1189
▁director	-10.1204
counter	-10.1234
▁suffer	-10.1239
▁mouse	-10.1247
▁betty	-10.1254
ette	-10.1281
▁range	-10.1317
▁lying	-10.1319
▁faith	-10.1326
▁snake	-10.1347
▁price	-10.1352
▁realize	-10.1387
bling	-10.1404
▁adult	-10.1447
▁exist	-10.1457
▁fri	-10.1469
▁coast	-10.1472
work	-10.1474
▁terrible	-10.1476
▁situation	-10.1476
▁kick	-10.1476
▁accident	-10.1495
▁attempt	-10.1502
⌋	-10.1512
▁utter	-10.1514
▁size	-10.1515
▁christian	-10.1547
▁computer	-10.1552
▁approach	-10.1564
▁official	-10.1574
▁civil	-10.1574
▁politician	-10.1597
▁franc	-10.1632
▁unless	-10.1638
▁danger	-10.1652
▁provide	-10.1653
▁bigger	-10.1658
▁california	-10.1661
▁subject	-10.1663
▁pause	-10.1663
⌉	-10.167
▁⌊	-10.1679
▁plain	-10.1684
▁21	-10.1687
▁⌈	-10.1716
▁jwww	-10.172
▁publish	-10.174
▁(20	-10.1768
▁24	-10.1786
▁henry	-10.1787
▁kingdom	-10.179
▁stories	-10.1798
▁richard	-10.18
▁repeat	-10.1802
▁difference	-10.1836
▁yard	-10.1837
▁host	-10.1842
▁asleep	-10.1848
▁gru	-10.1849
▁condition	-10.1859
▁bowl	-10.1867
▁simple	-10.1887
▁india	-10.1898
babble	-10.1922
▁destroy	-10.1929
▁species	-10.193
▁bert	-10.1941
▁smart	-10.1942
▁hotel	-10.1945
▁gather	-10.1951
▁awful	-10.1963
▁imagine	-10.2002
▁countries	-10.2003
▁edge	-10.2045
▁fruit	-10.2046
▁championship	-10.2063
▁similar	-10.2071
▁republic	-10.2079
▁cloud	-10.2082
▁2019	-10.2084
just	-10.2096
▁sunday	-10.2143
▁central	-10.2143
▁hung	-10.216
▁crash	-10.2197
→	-10.2198
[	-10.2222
▁crowd	-10.2226
▁education	-10.2272
▁market	-10.231
▁woo	-10.2311
▁therefore	-10.2313
▁judge	-10.2315
▁issue	-10.2326
▁trade	-10.2329
▁wound	-10.2368
▁professional	-10.2384
▁title	-10.2385
▁election	-10.2391
▁pleasure	-10.2391
▁bump	-10.2406
▁process	-10.2412
▁bound	-10.2428
▁folk	-10.2429
▁honest	-10.2431
▁upstairs	-10.2437
▁cousin	-10.2439
▁spread	-10.2441
▁native	-10.2444
▁puppet	-10.2476
▁artist	-10.2485
▁purpose	-10.2492
▁occasion	-10.2505
▁western	-10.2506
▁nature	-10.2512
▁cloth	-10.2513
▁2017	-10.252
▁double	-10.254
▁amount	-10.2551
▁oops	-10.2557
▁beyond	-10.256
▁royal	-10.2569
▁worse	-10.2676
▁private	-10.2707
▁professor	-10.2728
▁message	-10.2777
▁governor	-10.2794
▁shirt	-10.2801
▁monster	-10.2808
▁japanese	-10.2808
▁anti	-10.2823
▁adam	-10.2833
▁charles	-10.2844
▁100	-10.2844
▁driving	-10.2851
▁silly	-10.2855
▁sarah	-10.2857
itude	-10.2864
▁regard	-10.2875
▁dollars	-10.2885
▁heaven	-10.2899
▁vote	-10.2912
▁spanish	-10.2938
▁weather	-10.2951
ö	-10.2954
▁describe	-10.2962
▁eleanor	-10.2966
▁enemy	-10.2968
▁2022	-10.2976
▁project	-10.2976
▁cabin	-10.2992
spir	-10.3008
▁disappear	-10.3022
▁electric	-10.3034
▁political	-10.3046
▁address	-10.3052
▁smoke	-10.3056
▁modern	-10.3086
ü	-10.3955
~	-10.449
(	-10.5101
è	-10.582
ó	-10.6113
$	-10.675
`	-10.7469
¶	-10.7472
*	-10.8152
ä	-10.9411
―	-11.0602
}	-11.0649
ō	-11.1296
ñ	-11.1342
°	-11.1439
♪	-11.2226
{	-11.2632
ú	-11.2658
─	-11.4125
æ	-11.4167
ç	-11.4321
‘	-11.4414
â	-11.4902
ô	-11.5014
\	-11.5236
✿	-11.5476
#	-11.6075
ã	-11.6609
ā	-11.683
|	-11.8012
š	-11.8766
£	-11.8902
ć	-11.8932
à	-11.9634
“	-12.0273
ø	-12.0999
•	-12.1108
ū	-12.1469
ê	-12.1571
↗	-12.1738
ł	-12.2042
↫	-12.2342
@	-12.2608
ë	-12.2651
å	-12.2722
č	-12.3718
î	-12.4665
♫	-12.4788
ß	-12.5111
ă	-12.5907
ş	-12.6168
§	-12.656
ï	-12.673
⁄	-12.6795
œ	-12.6925
ı	-12.796
ì	-12.8381
	-12.8432
ī	-12.8508
×	-12.8663
ž	-12.8927
¡	-13.0116
¿	-13.0547
©	-13.0931
·	-13.0963
ý	-13.1432
ð	-13.1711
ș	-13.1889
ń	-13.2329
€	-13.2988
ò	-13.3191
−	-13.3191
^	-13.378
ś	-13.4453
	-13.4641
¤	-13.5175
′	-13.553
∆	-13.5686
ř	-13.6225
þ	-13.6281
∙	-13.6563
⌈	-13.6653
đ	-13.6737
û	-13.6913
­	-13.8043
ğ	-13.8043
ː	-13.8043
ˈ	-13.811
õ	-13.8177
ù	-13.845
ě	-13.845
⁎	-13.8802
ē	-13.9546
ə	-13.9546
	-14.0266
ț	-14.0518
ż	-14.1042
ő	-14.1596
İ	-14.1691
ę	-14.2282
¢	-14.2384
ą	-14.2591
±	-14.2911
ţ	-14.324
ʻ	-14.3934
ʼ	-14.5075
„	-14.5075
‡	-14.5347
η	-14.5486
ṯ	-14.5486
ṭ	-14.5914
ả	-14.5914
ḥ	-14.6061
ệ	-14.6211
ɪ	-14.7156
ー	-14.7156
ɛ	-14.7323
÷	-14.7492
ė	-14.784
	-14.784
ź	-14.8019
ư	-14.8019
®	-14.8386
>	-14.8574
ĕ	-14.9163
†	-14.9788
»	-14.9788
ʿ	-15.0005
ṣ	-15.0455
ɑ	-15.0455
ṉ	-15.0455
«	-15.0455
ň	-15.0926
ọ	-15.1169
ÿ	-15.1419
ů	-15.1419
¦	-15.1419
	-15.2209
ǎ	-15.2209
་	-15.2487
¬	-15.3067
ŋ	-15.3067
॥	-15.337
ɔ	-15.3682
▔	-15.3682
←	-15.4005
ʊ	-15.4005
ạ	-15.4338
	-15.4683
ʾ	-15.504
ũ	-15.5411
ế	-15.5411
¥	-15.5795
∇	-15.6195
・	-15.6195
ṇ	-15.6195
ứ	-15.6612
♭	-15.7047
ŭ	-15.7501
ʃ	-15.7501
⟩	-15.7501
	-15.7978
ŵ	-15.7978
ộ	-15.7978
‐	-15.8478
ơ	-15.8478
ố	-15.8478
ν	-15.9004
।	-15.9004
ṃ	-15.9004
ʒ	-15.9004
ˌ	-15.9559
∞	-16.0148
₹	-16.0773
ġ	-16.0773
█	-16.0773
○	-16.0773
ŏ	-16.1439
ε	-16.1439
ề	-16.1439
ị	-16.1439
٤	-16.1439
<	-16.2154
	-16.2154
ƒ	-16.2154
‚	-16.2154
ĭ	-16.2923
ǫ	-16.2923
ʔ	-16.2923
ο	-16.2923
؟	-16.2923
ḍ	-16.2923
∴	-16.2923
١	-16.2923
į	-16.3756
ľ	-16.3756
ť	-16.3756
ŷ	-16.3756
ǔ	-16.3756
ʌ	-16.3756
ɣ	-16.4665
↑	-16.4665
	-16.4665
ɡ	-16.4665
ɐ	-16.4665
	-16.4665
ɾ	-16.5665
₤	-16.5665
٥	-16.5665
≤	-16.5665
ʁ	-16.6776
ẓ	-16.6776
٨	-16.6776
♯	-16.6776
ĩ	-16.6776
٢	-16.6776
٧	-16.6776
ɫ	-16.6776
	-16.8026
	-16.8026
ĝ	-16.8026
	-16.8026
ļ	-16.8026
ớ	-16.8026
≥	-16.8026
☆	-16.8026
⬄	-16.8026
	-16.8026
ď	-16.8026
ḻ	-16.8026
√	-16.8026
ǁ	-16.9455
ĥ	-16.9455
ǐ	-16.9455
ɒ	-16.9455
ˆ	-16.9455
ẻ	-16.9455
ụ	-16.9455
ữ	-16.9455
⁂	-16.9455
	-16.9455
٦	-16.9455
१	-16.9455
ɦ	-16.9455
ʋ	-16.9455
ǒ	-17.1122
ű	-17.1122
⁠	-17.1122
	-17.1122
ĉ	-17.1122
ħ	-17.1122
ŝ	-17.1122
ǝ	-17.1122
ủ	-17.1122
ỹ	-17.1122
★	-17.1122
✡	-17.1122
ɕ	-17.1122
☺	-17.1122
	-17.1122
	-17.3122
٩	-17.3122
	-17.3122
ɯ	-17.3122
ɲ	-17.3122
ɹ	-17.3122
ʏ	-17.3122
ṓ	-17.3122
ậ	-17.3122
ắ	-17.3122
∘	-17.3122
≈	-17.3122
⋅	-17.3122
ḷ	-17.3122
ẹ	-17.3122
	-17.5621
ẽ	-17.5622
ĵ	-17.5622
ǂ	-17.5622
ǚ	-17.5622
ɩ	-17.5622
˧	-17.5622
ầ	-17.5622
ổ	-17.5622
‖	-17.5622
※	-17.5622
₱	-17.5622
₵	-17.5622
≠	-17.5622
●	-17.5622
♥	-17.5622
、	-17.5622
ɨ	-17.5622
ṅ	-17.5622
ỳ	-17.5622
	-17.5622
ව	-17.5622
ḫ	-17.5622
ṛ	-17.8955
ȝ	-17.8955
ˋ	-17.8955
״	-17.8955
ấ	-17.8955
ử	-17.8955
∂	-17.8955
≡	-17.8955
ƌ	-17.8955
ɘ	-17.8955
ʇ	-17.8955
ʕ	-17.8955
ˊ	-17.8955
ằ	-17.8955
‬	-17.8955
‰	-17.8955
∈	-17.8955
∗	-17.8955
∝	-17.8955
「	-17.8955
」	-17.8955
ỉ	-17.8955
ɜ	-17.8955
⌊	-18.393
	-18.3955
	-18.3955
ƿ	-18.3955
ǣ	-18.3955
ǧ	-18.3955
ɂ	-18.3955
ʂ	-18.3955
ʈ	-18.3955
ʎ	-18.3955
ˇ	-18.3955
а	-18.3955
б	-18.3955
३	-18.3955
४	-18.3955
५	-18.3955
ය	-18.3955
ා	-18.3955
၁	-18.3955
ṙ	-18.3955
ẏ	-18.3955
ể	-18.3955
ở	-18.3955
ự	-18.3955
☃	-18.3955
☻	-18.3955
✅	-18.3955
✙	-18.3955
❌	-18.3955
ꜧ	-18.3955
ꞯ	-18.3955
с	-18.3955
ḿ	-18.3955
ṁ	-18.3955
◉	-18.3955
〜	-18.3955
ɳ	-18.3955
ʐ	-18.3955
ʹ	-18.3955
⊙	-18.3955
ේ	-18.3955
ǩ	-19.3933
ŧ	-19.3934
ǵ	-19.3935
‍	-19.3936
ـ	-19.3937
τ	-19.3938
ʘ	-19.3939
₩	-19.394
υ	-19.3941
།	-19.3942
ј	-19.3943
ķ	-19.3944
ņ	-19.3945
⟨	-19.3946
α	-19.3947
ễ	-19.3948
ờ	-19.3949
ẩ	-19.395
‭	-19.3951
ồ	-19.3952
̶	-19.3953
ṟ	-19.3954
	-19.3954
៣	-19.3954
៤	-19.3954
៥	-19.3954
ɮ	-19.3955
២	-19.3955
៦	-19.3955
й	-19.3955
ɸ	-19.3955
β	-19.3955
۞	-19.3955
ḏ	-19.3955
ḡ	-19.3955
ẵ	-19.3955
✚	-19.3955
ģ	-19.3955
ĺ	-19.3955
ŕ	-19.3955
ų	-19.3955
ƅ	-19.3955
ǃ	-19.3955
ǹ	-19.3955
ȁ	-19.3955
ȃ	-19.3955
ɗ	-19.3955
ɝ	-19.3955
ɟ	-19.3955
ɥ	-19.3955
ɶ	-19.3955
ɷ	-19.3955
ɺ	-19.3955
ʑ	-19.3955
ʙ	-19.3955
ʝ	-19.3955
ʟ	-19.3955
ʧ	-19.3955
ʽ	-19.3955
˥	-19.3955
˦	-19.3955
˩	-19.3955
̈	-19.3955
к	-19.3955
м	-19.3955
о	-19.3955
у	-19.3955
ш	-19.3955
я	-19.3955
־	-19.3955
۰	-19.3955
०	-19.3955
६	-19.3955
७	-19.3955
८	-19.3955
९	-19.3955
ආ	-19.3955
ජ	-19.3955
බ	-19.3955
ු	-19.3955
ෝ	-19.3955
၀	-19.3955
၃	-19.3955
၄	-19.3955
၅	-19.3955
၆	-19.3955
၇	-19.3955
၈	-19.3955
၉	-19.3955
᚛	-19.3955
᚜	-19.3955
០	-19.3955
១	-19.3955
៧	-19.3955
៨	-19.3955
៩	-19.3955
ḋ	-19.3955
ḗ	-19.3955
ḩ	-19.3955
ḵ	-19.3955
ṗ	-19.3955
ṫ	-19.3955
ṳ	-19.3955
ṹ	-19.3955
ặ	-19.3955
ỏ	-19.3955
ỗ	-19.3955
ợ	-19.3955
‿	-19.3955
⁣	-19.3955
₣	-19.3955
₿	-19.3955
↊	-19.3955
↋	-19.3955
∉	-19.3955
∼	-19.3955
≒	-19.3955
▼	-19.3955
☉	-19.3955
☐	-19.3955
☚	-19.3955
☛	-19.3955
☣	-19.3955
☭	-19.3955
☯	-19.3955
♄	-19.3955
♑	-19.3955
♠	-19.3955
♡	-19.3955
♮	-19.3955
❤	-19.3955
⬱	-19.3955
ⱡ	-19.3955
。	-19.3955
〉	-19.3955
ḱ	-19.3955
♒	-19.3955
ɖ	-19.3955
ˀ	-19.3955
́	-19.3955
