<unk>	0
<s>	0
</s>	0
<pad>	0
<0x00>	0
<0x01>	0
<0x02>	0
<0x03>	0
<0x04>	0
<0x05>	0
<0x06>	0
<0x07>	0
<0x08>	0
<0x09>	0
<0x0A>	0
<0x0B>	0
<0x0C>	0
<0x0D>	0
<0x0E>	0
<0x0F>	0
<0x10>	0
<0x11>	0
<0x12>	0
<0x13>	0
<0x14>	0
<0x15>	0
<0x16>	0
<0x17>	0
<0x18>	0
<0x19>	0
<0x1A>	0
<0x1B>	0
<0x1C>	0
<0x1D>	0
<0x1E>	0
<0x1F>	0
<0x20>	0
<0x21>	0
<0x22>	0
<0x23>	0
<0x24>	0
<0x25>	0
<0x26>	0
<0x27>	0
<0x28>	0
<0x29>	0
<0x2A>	0
<0x2B>	0
<0x2C>	0
<0x2D>	0
<0x2E>	0
<0x2F>	0
<0x30>	0
<0x31>	0
<0x32>	0
<0x33>	0
<0x34>	0
<0x35>	0
<0x36>	0
<0x37>	0
<0x38>	0
<0x39>	0
<0x3A>	0
<0x3B>	0
<0x3C>	0
<0x3D>	0
<0x3E>	0
<0x3F>	0
<0x40>	0
<0x41>	0
<0x42>	0
<0x43>	0
<0x44>	0
<0x45>	0
<0x46>	0
<0x47>	0
<0x48>	0
<0x49>	0
<0x4A>	0
<0x4B>	0
<0x4C>	0
<0x4D>	0
<0x4E>	0
<0x4F>	0
<0x50>	0
<0x51>	0
<0x52>	0
<0x53>	0
<0x54>	0
<0x55>	0
<0x56>	0
<0x57>	0
<0x58>	0
<0x59>	0
<0x5A>	0
<0x5B>	0
<0x5C>	0
<0x5D>	0
<0x5E>	0
<0x5F>	0
<0x60>	0
<0x61>	0
<0x62>	0
<0x63>	0
<0x64>	0
<0x65>	0
<0x66>	0
<0x67>	0
<0x68>	0
<0x69>	0
<0x6A>	0
<0x6B>	0
<0x6C>	0
<0x6D>	0
<0x6E>	0
<0x6F>	0
<0x70>	0
<0x71>	0
<0x72>	0
<0x73>	0
<0x74>	0
<0x75>	0
<0x76>	0
<0x77>	0
<0x78>	0
<0x79>	0
<0x7A>	0
<0x7B>	0
<0x7C>	0
<0x7D>	0
<0x7E>	0
<0x7F>	0
<0x80>	0
<0x81>	0
<0x82>	0
<0x83>	0
<0x84>	0
<0x85>	0
<0x86>	0
<0x87>	0
<0x88>	0
<0x89>	0
<0x8A>	0
<0x8B>	0
<0x8C>	0
<0x8D>	0
<0x8E>	0
<0x8F>	0
<0x90>	0
<0x91>	0
<0x92>	0
<0x93>	0
<0x94>	0
<0x95>	0
<0x96>	0
<0x97>	0
<0x98>	0
<0x99>	0
<0x9A>	0
<0x9B>	0
<0x9C>	0
<0x9D>	0
<0x9E>	0
<0x9F>	0
<0xA0>	0
<0xA1>	0
<0xA2>	0
<0xA3>	0
<0xA4>	0
<0xA5>	0
<0xA6>	0
<0xA7>	0
<0xA8>	0
<0xA9>	0
<0xAA>	0
<0xAB>	0
<0xAC>	0
<0xAD>	0
<0xAE>	0
<0xAF>	0
<0xB0>	0
<0xB1>	0
<0xB2>	0
<0xB3>	0
<0xB4>	0
<0xB5>	0
<0xB6>	0
<0xB7>	0
<0xB8>	0
<0xB9>	0
<0xBA>	0
<0xBB>	0
<0xBC>	0
<0xBD>	0
<0xBE>	0
<0xBF>	0
<0xC0>	0
<0xC1>	0
<0xC2>	0
<0xC3>	0
<0xC4>	0
<0xC5>	0
<0xC6>	0
<0xC7>	0
<0xC8>	0
<0xC9>	0
<0xCA>	0
<0xCB>	0
<0xCC>	0
<0xCD>	0
<0xCE>	0
<0xCF>	0
<0xD0>	0
<0xD1>	0
<0xD2>	0
<0xD3>	0
<0xD4>	0
<0xD5>	0
<0xD6>	0
<0xD7>	0
<0xD8>	0
<0xD9>	0
<0xDA>	0
<0xDB>	0
<0xDC>	0
<0xDD>	0
<0xDE>	0
<0xDF>	0
<0xE0>	0
<0xE1>	0
<0xE2>	0
<0xE3>	0
<0xE4>	0
<0xE5>	0
<0xE6>	0
<0xE7>	0
<0xE8>	0
<0xE9>	0
<0xEA>	0
<0xEB>	0
<0xEC>	0
<0xED>	0
<0xEE>	0
<0xEF>	0
<0xF0>	0
<0xF1>	0
<0xF2>	0
<0xF3>	0
<0xF4>	0
<0xF5>	0
<0xF6>	0
<0xF7>	0
<0xF8>	0
<0xF9>	0
<0xFA>	0
<0xFB>	0
<0xFC>	0
<0xFD>	0
<0xFE>	0
<0xFF>	0
.	-2.84252
:	-3.32245
▁*	-3.37209
,	-3.45865
▁the	-3.5689
s	-3.59378
'	-3.78965
▁a	-4.16658
mot	-4.17821
▁you	-4.22834
▁and	-4.2394
▁i	-4.25945
▁to	-4.28545
?	-4.29644
chi	-4.37655
▁it	-4.49177
▁of	-4.51282
▁in	-4.63237
▁that	-4.71543
t	-4.75607
▁is	-5.10725
▁he	-5.11013
▁was	-5.19715
▁=	-5.29697
▁on	-5.33726
▁[	-5.37064
▁what	-5.38783
▁for	-5.4347
▁we	-5.49786
▁"	-5.52549
▁this	-5.59363
]	-5.6049
!	-5.61111
▁with	-5.65003
▁do	-5.67862
▁no	-5.69772
▁they	-5.71341
▁there	-5.75787
▁have	-5.76071
▁be	-5.79236
▁-	-5.79659
▁me	-5.80738
▁not	-5.81804
▁she	-5.83466
-	-5.83493
▁at	-5.86432
▁one	-5.86592
▁are	-5.86935
m	-5.87983
▁can	-5.89363
▁but	-5.90963
▁his	-5.93924
re	-5.94657
d	-6.00793
▁so	-6.01638
▁as	-6.02859
ed	-6.05095
▁all	-6.05122
▁her	-6.06385
▁oh	-6.06845
▁yeah	-6.07192
▁my	-6.08923
ing	-6.09706
▁don	-6.09717
▁know	-6.11198
▁your	-6.12489
...	-6.12736
▁had	-6.14679
▁up	-6.17034
▁like	-6.17242
▁go	-6.17674
inv	-6.2705
ll	-6.29015
▁from	-6.2905
▁out	-6.31356
▁here	-6.33923
i	-6.37597
▁him	-6.38602
▁get	-6.41312
▁by	-6.42017
▁if	-6.42362
▁just	-6.43032
▁were	-6.4384
▁now	-6.43903
▁right	-6.45204
▁see	-6.46742
▁well	-6.46877
▁an	-6.48088
▁	-6.50106
▁about	-6.51503
▁when	-6.52172
▁then	-6.52719
▁or	-6.53798
ve	-6.54251
▁them	-6.58949
▁think	-6.59454
▁got	-6.59817
▁did	-6.62069
a	-6.62425
▁said	-6.63204
▁who	-6.6334
▁some	-6.64903
fat	-6.65789
▁where	-6.68376
▁come	-6.69953
▁would	-6.71987
;	-6.72487
▁will	-6.72657
▁look	-6.72742
▁yes	-6.72781
y	-6.73327
▁good	-6.73725
ly	-6.74323
▁want	-6.7656
▁how	-6.79904
▁xxx	-6.81041
▁okay	-6.81855
▁(	-6.82097
▁little	-6.84213
▁“	-6.84474
▁down	-6.85055
].	-6.85548
▁time	-6.85654
e	-6.87523
▁going	-6.87541
▁put	-6.88909
▁been	-6.88921
▁more	-6.89042
▁back	-6.8936
er	-6.90126
’	-6.91255
▁two	-6.91614
"	-6.91652
▁very	-6.91724
."	-6.92339
▁which	-6.92525
▁over	-6.93202
▁has	-6.94521
▁their	-6.95906
▁'	-6.98893
▁could	-7.01629
▁let	-7.02493
)	-7.03576
▁say	-7.07776
▁b	-7.09563
n	-7.12667
▁other	-7.1432
▁why	-7.15793
▁make	-7.17585
▁take	-7.17955
▁man	-7.18035
,"	-7.18176
▁into	-7.19261
▁way	-7.20761
r	-7.21143
▁people	-7.22536
▁too	-7.25881
▁because	-7.27995
▁off	-7.28613
▁first	-7.29006
▁tell	-7.29055
in	-7.29891
▁us	-7.30146
▁gonna	-7.31425
▁after	-7.34372
▁these	-7.3521
▁only	-7.35609
▁any	-7.3601
▁our	-7.39125
▁uh	-7.4051
▁didn	-7.42524
o	-7.42805
▁something	-7.45516
▁really	-7.45915
▁again	-7.46263
es	-7.46581
▁much	-7.47995
▁er	-7.49284
--	-7.50531
▁made	-7.51459
▁before	-7.54485
▁than	-7.55959
▁new	-7.57441
▁big	-7.58038
▁day	-7.58463
▁should	-7.58507
▁away	-7.58742
par	-7.60186
▁three	-7.61265
▁does	-7.62868
▁went	-7.63143
c	-7.63387
▁never	-7.63434
▁need	-7.63776
▁home	-7.64181
▁those	-7.64509
▁um	-7.64747
al	-7.65907
▁give	-7.66094
▁long	-7.67127
▁car	-7.67853
▁mean	-7.68011
▁came	-7.69636
▁house	-7.69888
▁also	-7.70034
▁wanna	-7.70151
▁play	-7.70805
▁work	-7.71344
▁another	-7.72043
▁old	-7.72346
▁doing	-7.72367
▁thought	-7.72504
▁many	-7.72837
▁mr	-7.74968
▁thing	-7.7498
the	-7.7599
l	-7.76302
▁still	-7.77178
▁must	-7.77197
▁things	-7.78622
?"	-7.78856
▁last	-7.79566
▁may	-7.80179
exp	-7.80722
it	-7.80812
▁won	-7.81255
▁great	-7.81775
▁through	-7.81867
▁am	-7.81929
▁even	-7.82267
▁find	-7.82631
▁boy	-7.82836
p	-7.84513
th	-7.85144
▁night	-7.85323
▁s	-7.85518
g	-7.85886
▁baby	-7.86092
_	-7.86648
▁isn	-7.86882
▁name	-7.88474
▁done	-7.88953
/	-7.8913
▁please	-7.89545
▁help	-7.898
▁called	-7.89865
▁%	-7.89988
▁head	-7.90916
▁mother	-7.91582
▁re	-7.91709
k	-7.91721
▁mm	-7.91869
b	-7.91948
▁water	-7.93129
▁thank	-7.93437
▁bit	-7.94705
▁hand	-7.94816
▁o	-7.95106
▁might	-7.95174
▁de	-7.95696
▁around	-7.95704
▁mhm	-7.95933
▁book	-7.96832
▁girl	-7.97108
▁better	-7.97232
▁found	-7.97305
▁sure	-7.97482
.”	-7.98031
h	-7.98415
▁nice	-7.99428
▁hey	-7.99606
▁love	-8.00228
▁place	-8.00267
▁life	-8.00946
▁most	-8.01118
▁while	-8.01153
▁eat	-8.01194
▁ah	-8.02378
▁anything	-8.0243
▁school	-8.03916
▁erm	-8.04364
f	-8.04589
na	-8.05413
w	-8.05415
▁doesn	-8.06297
▁years	-8.06759
▁such	-8.0707
▁being	-8.07218
▁keep	-8.07375
on	-8.07613
le	-8.07838
▁used	-8.0789
▁next	-8.08086
▁father	-8.08176
▁same	-8.09675
▁lot	-8.10069
▁shall	-8.10428
,”	-8.10454
▁room	-8.10729
▁else	-8.13099
▁world	-8.13205
!"	-8.13217
▁under	-8.13222
▁four	-8.13459
laughs	-8.13736
▁un	-8.14098
▁mummy	-8.1433
▁own	-8.14576
add	-8.14791
▁talk	-8.15136
▁part	-8.15175
or	-8.15337
▁looks	-8.15644
▁always	-8.15758
man	-8.15861
▁told	-8.16346
▁saw	-8.16358
▁left	-8.1637
▁e	-8.16425
▁end	-8.1672
▁nothing	-8.16965
▁men	-8.18243
▁ever	-8.19953
▁every	-8.21208
and	-8.21772
▁chi	-8.22079
▁kind	-8.22675
▁huh	-8.22805
▁show	-8.22903
en	-8.22984
▁sorry	-8.23369
▁five	-8.24356
▁daddy	-8.24608
▁gone	-8.25578
no	-8.25622
▁open	-8.26172
▁p	-8.2686
▁money	-8.27106
▁coming	-8.27187
▁d	-8.2749
▁c	-8.27795
▁though	-8.27915
ers	-8.28115
▁took	-8.28142
▁enough	-8.28397
▁red	-8.28601
▁maybe	-8.2867
▁door	-8.28749
▁wait	-8.28941
▁call	-8.29612
▁stop	-8.29713
▁use	-8.30114
▁side	-8.31229
▁morning	-8.3151
▁once	-8.31856
▁goes	-8.31868
sis	-8.32056
▁remember	-8.32253
an	-8.32328
▁turn	-8.32745
▁until	-8.32878
▁sir	-8.33017
▁leave	-8.33965
▁best	-8.34455
▁hear	-8.34514
▁sit	-8.34699
▁course	-8.34937
▁try	-8.35026
▁_	-8.3539
▁dear	-8.35445
▁quite	-8.35734
▁god	-8.36032
▁eyes	-8.36657
▁year	-8.36741
▁face	-8.36754
tea	-8.37035
you	-8.37388
▁both	-8.37608
▁today	-8.38349
▁looking	-8.38493
▁city	-8.3855
▁hm	-8.39003
▁box	-8.39029
la	-8.39096
▁yet	-8.39127
▁seen	-8.39807
to	-8.40036
▁each	-8.40282
▁asked	-8.40551
▁ball	-8.40589
▁few	-8.4123
▁round	-8.41232
▁together	-8.41649
as	-8.41982
▁different	-8.42133
ation	-8.42508
▁blue	-8.42613
▁hi	-8.43094
▁says	-8.43261
▁mind	-8.43618
▁hard	-8.4369
▁number	-8.43949
▁ma	-8.44412
▁young	-8.44507
▁children	-8.45356
▁miss	-8.45384
▁getting	-8.45443
u	-8.45551
▁read	-8.45735
▁feel	-8.45791
▁without	-8.45854
▁la	-8.46176
us	-8.46612
▁everything	-8.46746
▁far	-8.47219
bro	-8.47296
mch	-8.47694
▁m	-8.4796
▁fire	-8.48022
▁ready	-8.48051
▁♪	-8.48309
▁heard	-8.48488
▁later	-8.48743
▁second	-8.48956
▁soon	-8.49042
▁known	-8.49046
▁mommy	-8.49229
▁between	-8.49419
▁t	-8.49612
▁bed	-8.49708
de	-8.50533
▁light	-8.50575
▁since	-8.51103
▁half	-8.51994
we	-8.52005
▁haven	-8.52165
▁upon	-8.52282
▁black	-8.5238
▁live	-8.52776
▁story	-8.52822
▁white	-8.52843
▁set	-8.5286
▁hold	-8.53121
▁bad	-8.53163
▁mrs	-8.53381
▁having	-8.53457
ra	-8.53582
he	-8.53699
▁himself	-8.5372
▁hafta	-8.53937
em	-8.54069
ro	-8.54164
ton	-8.54648
▁stay	-8.54892
▁happened	-8.54922
▁wanted	-8.55252
▁alright	-8.55529
▁watch	-8.55736
do	-8.55894
▁american	-8.56249
▁run	-8.56487
is	-8.5655
yes	-8.5658
▁table	-8.56682
x	-8.57058
ar	-8.5729
▁pretty	-8.57302
▁war	-8.57372
▁ask	-8.57609
▁small	-8.57642
▁dog	-8.57683
▁18	-8.57739
cause	-8.57757
gma	-8.57881
▁looked	-8.5794
ch	-8.58532
▁sort	-8.59322
▁high	-8.59407
ne	-8.5949
▁talking	-8.59538
▁knew	-8.5954
▁friend	-8.59543
▁top	-8.59753
▁hello	-8.60072
ion	-8.60076
ling	-8.61086
ie	-8.61132
▁green	-8.61425
▁hands	-8.61746
▁six	-8.62047
▁believe	-8.62625
z	-8.62955
1:	-8.63102
▁mot	-8.63163
ma	-8.63175
▁heart	-8.63204
▁g	-8.63207
▁united	-8.6352
ter	-8.63523
▁moment	-8.63761
▁making	-8.63785
li	-8.63941
▁care	-8.63961
▁child	-8.64006
el	-8.6408
▁ha	-8.64303
▁bring	-8.64473
▁family	-8.64488
▁1	-8.64511
▁against	-8.64605
▁along	-8.64728
▁air	-8.6484
▁town	-8.64962
▁close	-8.65023
▁boys	-8.65032
▁actually	-8.65218
ry	-8.65391
▁king	-8.65675
▁gave	-8.65915
se	-8.65987
▁party	-8.66138
co	-8.66459
".	-8.66971
▁dis	-8.67143
▁wasn	-8.67341
▁son	-8.67563
▁real	-8.67598
▁during	-8.68349
ic	-8.68403
▁matter	-8.68507
▁noise	-8.69508
▁whole	-8.70528
▁move	-8.70543
▁fine	-8.70705
▁days	-8.70743
▁ten	-8.7086
▁born	-8.70907
▁died	-8.71306
▁game	-8.71372
▁start	-8.71786
able	-8.72149
▁wouldn	-8.72184
v	-8.72679
▁person	-8.7268
?”	-8.73263
ta	-8.7337
▁food	-8.73459
ine	-8.73699
▁states	-8.74012
ia	-8.74126
▁almost	-8.74136
+	-8.74192
▁started	-8.74225
oh	-8.74379
me	-8.74491
▁dad	-8.7456
▁happy	-8.74571
but	-8.74768
▁trying	-8.74907
▁sea	-8.75074
ty	-8.75406
▁sleep	-8.75527
▁3	-8.75671
▁word	-8.75698
▁saying	-8.76197
▁john	-8.76407
mar	-8.76577
ment	-8.76876
▁n	-8.76959
▁floor	-8.77094
▁wrong	-8.78314
▁playing	-8.7837
▁minute	-8.78558
▁con	-8.78733
▁already	-8.78898
ting	-8.78902
▁cat	-8.78932
▁train	-8.79306
▁probably	-8.79475
▁job	-8.79548
▁guess	-8.79572
ity	-8.79695
▁chair	-8.79706
go	-8.79787
ah	-8.79828
▁mine	-8.7985
▁country	-8.79857
▁feet	-8.80286
ha	-8.80299
▁mom	-8.8061
ness	-8.80651
▁state	-8.80734
▁hope	-8.80881
▁2	-8.81119
ted	-8.81305
),	-8.81348
▁hair	-8.81587
▁near	-8.81644
▁drink	-8.81677
▁rest	-8.81677
▁k	-8.81925
▁woman	-8.81983
▁voice	-8.82481
▁paper	-8.82502
▁jack	-8.82734
be	-8.83039
▁idea	-8.83157
▁north	-8.83337
▁understand	-8.83387
▁picture	-8.83659
▁lost	-8.83703
▁point	-8.83797
▁became	-8.84037
▁cut	-8.84189
2	-8.84331
▁cup	-8.8436
▁team	-8.84492
▁thomas	-8.84593
▁began	-8.84723
id	-8.84762
▁front	-8.85248
▁aren	-8.85567
what	-8.85909
▁doctor	-8.85977
▁gotta	-8.86023
▁line	-8.86041
▁u	-8.8636
▁sometimes	-8.86615
il	-8.8663
▁friends	-8.86652
▁brother	-8.86945
▁al	-8.87007
nan	-8.8751
▁co	-8.8777
▁behind	-8.87826
▁hundred	-8.87831
▁music	-8.87908
est	-8.87908
▁l	-8.8793
▁full	-8.88508
int	-8.88548
▁bear	-8.88554
▁listen	-8.88626
▁sec	-8.88644
—	-8.8915
▁played	-8.89241
da	-8.8953
▁lady	-8.89797
▁week	-8.89841
▁–	-8.90106
▁hot	-8.90409
▁outside	-8.90549
▁captain	-8.90828
▁ya	-8.90858
▁brought	-8.91673
▁couldn	-8.91697
▁f	-8.91817
▁dead	-8.91867
▁movie	-8.92059
▁county	-8.9222
▁girls	-8.92233
ant	-8.92433
ent	-8.92442
that	-8.92745
",	-8.92906
▁stand	-8.9338
gra	-8.93386
▁horse	-8.93608
▁national	-8.93613
well	-8.93728
▁road	-8.93794
▁age	-8.93842
▁poor	-8.93849
▁pay	-8.94018
ce	-8.94106
▁river	-8.947
▁sound	-8.94706
▁short	-8.95114
▁turned	-8.95122
lo	-8.9558
▁seemed	-8.95863
▁hurt	-8.96078
am	-8.96388
▁color	-8.96545
▁land	-8.96705
▁guy	-8.96759
▁song	-8.96771
▁4	-8.96794
▁often	-8.97217
▁however	-8.97217
j	-8.97299
▁r	-8.97333
▁death	-8.97479
ies	-8.97617
▁someone	-8.97691
▁piece	-8.97838
▁able	-8.9825
▁hat	-8.98557
ri	-8.98558
cha	-8.98583
▁south	-8.98619
▁taken	-8.98844
▁beautiful	-8.98884
land	-8.98906
ga	-8.99852
ul	-8.9987
son	-9.00063
▁taking	-9.00342
▁stuff	-9.00348
▁per	-9.00501
▁tree	-9.00526
▁fish	-9.00656
▁early	-9.00768
▁times	-9.00821
▁case	-9.00937
ian	-9.00967
▁twenty	-9.01053
▁myself	-9.01099
▁ta	-9.01215
ba	-9.01504
).	-9.01718
1	-9.0172
▁inside	-9.01885
▁comes	-9.02224
▁walk	-9.02778
▁large	-9.02861
▁business	-9.03148
▁cold	-9.03328
▁page	-9.034
!”	-9.03408
ir	-9.0358
▁yourself	-9.0362
▁means	-9.03645
▁mar	-9.03892
dad	-9.04012
▁fall	-9.04127
▁rather	-9.04208
ish	-9.04209
▁da	-9.04454
▁sun	-9.0457
▁yellow	-9.04875
▁order	-9.04981
▁fun	-9.04995
”	-9.05029
▁makes	-9.05067
▁till	-9.0523
▁seven	-9.05285
▁words	-9.05331
▁true	-9.05485
▁perhaps	-9.05754
▁ago	-9.05807
▁boat	-9.05881
▁late	-9.06261
▁change	-9.06282
▁minutes	-9.06322
▁ho	-9.06376
te	-9.0649
▁wife	-9.06528
ist	-9.06865
▁sent	-9.07036
▁sister	-9.07079
▁fact	-9.07146
▁pick	-9.07167
▁present	-9.07212
▁felt	-9.07371
▁speak	-9.07566
pat	-9.07599
▁alone	-9.07648
▁!	-9.081
▁march	-9.08134
▁5	-9.08425
▁power	-9.08519
▁funny	-9.0854
▁wish	-9.08706
▁fell	-9.08907
tic	-9.08928
ca	-9.09124
▁en	-9.09136
▁either	-9.09203
▁group	-9.09316
▁tea	-9.0939
▁na	-9.0952
▁le	-9.09706
up	-9.09805
▁st	-9.10146
▁milk	-9.1023
mo	-9.10382
▁given	-9.10427
▁women	-9.10621
▁company	-9.10721
▁mum	-9.10763
un	-9.10777
▁break	-9.1078
▁hit	-9.108
age	-9.10828
▁ran	-9.11132
ki	-9.11215
▁france	-9.11384
▁english	-9.12003
▁meet	-9.12195
2:	-9.12558
▁bob	-9.12656
▁buy	-9.12778
▁brown	-9.12946
▁eight	-9.12949
▁somebody	-9.12995
▁toys	-9.13155
▁wind	-9.13247
▁ground	-9.13379
▁dr	-9.13398
▁w	-9.13409
▁body	-9.13414
▁chance	-9.13828
rs	-9.13984
▁important	-9.14061
ful	-9.14153
huh	-9.14435
▁question	-9.14866
▁several	-9.15077
born	-9.15357
car	-9.15553
▁write	-9.15612
▁phone	-9.1582
▁working	-9.15871
▁across	-9.16017
dy	-9.16052
if	-9.16396
ary	-9.1646
per	-9.16474
▁glad	-9.16598
▁pro	-9.16681
3	-9.16881
▁free	-9.17037
▁least	-9.17172
ke	-9.17219
▁trouble	-9.17293
▁past	-9.17737
▁dinner	-9.17975
men	-9.18176
▁ra	-9.1825
vi	-9.18309
▁area	-9.18391
▁h	-9.18428
▁dark	-9.18589
▁19	-9.18695
pa	-9.18776
▁bar	-9.19031
ate	-9.19263
||	-9.19357
▁answer	-9.19399
led	-9.19966
ci	-9.19986
▁thanks	-9.19989
et	-9.20069
▁uhhuh	-9.20156
▁ba	-9.20241
▁10	-9.20388
▁fit	-9.20399
▁foot	-9.2047
▁mo	-9.20538
5	-9.20596
less	-9.20676
▁guys	-9.21321
at	-9.21547
▁cos	-9.21804
▁finished	-9.22172
▁park	-9.22184
by	-9.22197
▁fast	-9.22273
▁throw	-9.22379
▁vi	-9.22391
▁animals	-9.22398
▁darling	-9.22478
▁general	-9.22587
▁v	-9.22816
▁everybody	-9.22957
▁star	-9.23005
▁rock	-9.2344
▁tomorrow	-9.23487
▁french	-9.23492
▁wants	-9.23597
é	-9.236
▁government	-9.23652
ck	-9.23876
▁special	-9.24247
▁hour	-9.2448
▁deal	-9.246
▁tried	-9.25066
▁clear	-9.25481
▁bag	-9.25776
▁6	-9.25819
▁ship	-9.26155
▁west	-9.2635
ka	-9.26361
▁mouth	-9.26388
▁y	-9.26397
my	-9.26488
▁president	-9.26645
um	-9.26664
▁wow	-9.26688
loi	-9.26787
▁herself	-9.26902
▁sing	-9.26917
▁thinking	-9.2698
▁club	-9.27006
▁bus	-9.27186
▁daughter	-9.27595
▁york	-9.27817
▁living	-9.28175
▁cried	-9.28425
▁uncle	-9.28538
ley	-9.28584
▁#	-9.28603
▁become	-9.29093
▁anyway	-9.29097
▁wonder	-9.29107
▁usually	-9.29207
▁street	-9.29232
▁nine	-9.29252
▁police	-9.2932
▁bye	-9.29428
▁history	-9.29548
▁strong	-9.29805
▁main	-9.29832
▁football	-9.29952
way	-9.30013
min	-9.30064
ver	-9.3009
▁human	-9.30095
▁clean	-9.30139
▁afraid	-9.3024
▁fight	-9.30251
▁running	-9.30269
▁letter	-9.30377
▁window	-9.30595
▁sat	-9.30604
▁...	-9.30611
▁eye	-9.31114
▁summer	-9.3121
▁held	-9.31238
▁sitting	-9.31251
▁others	-9.31538
ge	-9.31542
▁seat	-9.31701
va	-9.31748
▁less	-9.31929
0	-9.32021
mi	-9.32107
▁7	-9.32269
▁truck	-9.32334
sh	-9.32362
▁forget	-9.32385
▁station	-9.32667
▁reason	-9.32857
▁series	-9.33142
▁joe	-9.33234
▁bird	-9.33268
▁suppose	-9.33319
▁kept	-9.33369
▁sweet	-9.33492
▁arm	-9.33571
▁draw	-9.33598
pe	-9.33735
ated	-9.33788
▁office	-9.33845
▁el	-9.33921
▁win	-9.33931
▁ka	-9.34027
▁lived	-9.34121
▁birthday	-9.34194
▁j	-9.34295
▁catch	-9.34439
der	-9.34495
▁camp	-9.34845
▁duck	-9.34853
adu	-9.35182
▁band	-9.35247
▁married	-9.35278
▁8	-9.35332
▁easy	-9.35402
one	-9.35417
▁master	-9.35432
▁frank	-9.35439
▁happen	-9.35556
▁single	-9.35871
▁department	-9.35916
▁books	-9.36021
7	-9.36062
▁among	-9.36065
▁problem	-9.36172
cds	-9.36495
let	-9.36555
ni	-9.36676
les	-9.36772
▁shot	-9.36857
▁lay	-9.36886
▁stood	-9.36921
▁board	-9.37039
▁lu	-9.37763
▁peter	-9.37883
▁church	-9.37906
▁ooh	-9.38001
▁university	-9.38181
▁june	-9.38288
▁tonight	-9.38297
▁seems	-9.38398
don	-9.38441
ance	-9.38494
▁ok	-9.38563
▁whatever	-9.38685
4	-9.38943
bi	-9.39007
den	-9.39009
▁toy	-9.39056
▁pull	-9.39088
▁send	-9.39213
▁ice	-9.39432
▁january	-9.39456
au	-9.39459
▁earth	-9.39583
▁17	-9.39833
gu	-9.39894
▁po	-9.39932
ad	-9.40053
▁orange	-9.40061
▁region	-9.40097
▁whether	-9.40103
▁return	-9.40137
ous	-9.40199
00	-9.40213
ja	-9.4025
▁pre	-9.40258
▁bill	-9.40259
▁member	-9.40299
▁tired	-9.40481
▁garden	-9.40487
▁hours	-9.4057
▁20	-9.4114
for	-9.41225
▁lovely	-9.41314
▁wear	-9.41474
▁village	-9.41519
▁sounds	-9.41652
▁wall	-9.4166
▁lord	-9.41731
▁drive	-9.41798
ner	-9.41912
▁cause	-9.4194
▁sha	-9.41942
▁clothes	-9.42044
▁th	-9.42099
▁di	-9.42167
▁pen	-9.42244
▁class	-9.4245
▁ring	-9.42459
▁gu	-9.42469
▁killed	-9.42553
▁nose	-9.42865
▁kids	-9.42905
▁couple	-9.42998
▁waiting	-9.43108
▁snow	-9.43188
▁cake	-9.43204
▁post	-9.43383
▁eh	-9.43393
8	-9.43508
di	-9.43537
▁million	-9.43659
▁named	-9.4394
▁ben	-9.43977
▁excuse	-9.44095
all	-9.44138
▁season	-9.44183
▁sa	-9.44233
▁rose	-9.4434
▁replied	-9.44378
ur	-9.44474
▁themselves	-9.44542
▁careful	-9.44574
▁within	-9.4462
▁quick	-9.44768
ho	-9.44794
▁ne	-9.44852
▁[1	-9.4497
▁released	-9.45341
▁cool	-9.45343
▁album	-9.45434
▁lots	-9.45735
▁12	-9.45842
▁frog	-9.45886
bu	-9.46028
▁forward	-9.46216
lin	-9.46236
▁career	-9.46242
▁eating	-9.46307
of	-9.46327
▁district	-9.46567
makes	-9.46605
▁island	-9.46662
▁east	-9.46777
▁answered	-9.46787
▁shoes	-9.46838
▁mark	-9.46864
▁ca	-9.46932
hi	-9.47011
▁wood	-9.47091
▁warm	-9.4711
▁evening	-9.47167
▁shop	-9.47298
▁instead	-9.47301
▁months	-9.47384
fch	-9.47486
▁husband	-9.47551
ran	-9.47656
▁15	-9.4775
▁possible	-9.4776
▁points	-9.47804
bo	-9.47817
how	-9.47861
▁touch	-9.48105
▁gun	-9.4814
ism	-9.48294
▁british	-9.48301
▁christmas	-9.48371
ff	-9.48527
▁ain	-9.48535
▁middle	-9.48573
▁pop	-9.48692
ring	-9.48744
▁system	-9.48827
▁juice	-9.48869
▁film	-9.48963
▁building	-9.49177
ger	-9.49179
▁august	-9.49337
▁third	-9.49489
▁exactly	-9.49489
ence	-9.49666
so	-9.49707
▁bo	-9.49716
▁nor	-9.49779
▁tom	-9.49866
▁passed	-9.50043
▁em	-9.50175
▁cannot	-9.50284
▁apple	-9.50319
▁worked	-9.50354
▁putting	-9.50445
▁moved	-9.50493
▁gold	-9.50501
▁stick	-9.50558
▁act	-9.50568
▁lo	-9.50622
▁quickly	-9.50645
▁above	-9.50667
▁tape	-9.50712
▁straight	-9.50894
▁broken	-9.50942
▁low	-9.50958
▁tu	-9.51012
▁fa	-9.51149
kin	-9.5116
she	-9.51175
6	-9.51178
▁although	-9.51233
▁hall	-9.51411
▁certain	-9.51517
▁seem	-9.51573
▁toward	-9.51831
▁quiet	-9.52019
▁german	-9.5206
▁cover	-9.52174
▁li	-9.52245
▁lives	-9.52296
▁ride	-9.52327
▁worry	-9.52342
▁save	-9.52368
▁finish	-9.52572
▁cross	-9.52729
▁se	-9.52848
▁x	-9.52908
▁longer	-9.5309
▁thousand	-9.53136
▁takes	-9.53138
▁check	-9.53176
▁indeed	-9.53209
ow	-9.53278
▁16	-9.53332
▁whose	-9.53488
▁everyone	-9.53499
po	-9.53512
▁television	-9.5354
▁bank	-9.53553
▁april	-9.53609
▁strange	-9.53659
▁feeling	-9.53743
▁england	-9.53815
▁9	-9.53991
▁race	-9.54125
▁list	-9.54201
ten	-9.54259
▁service	-9.54621
▁follow	-9.54706
▁anyone	-9.54842
childes	-9.54863
▁nearly	-9.5506
▁grand	-9.55173
▁court	-9.55233
▁arms	-9.55247
▁childes	-9.5525
▁october	-9.55338
ard	-9.55728
▁honey	-9.56029
▁position	-9.5625
▁towards	-9.56442
▁example	-9.56587
▁mama	-9.56714
▁attack	-9.56792
▁spot	-9.56799
▁caught	-9.56804
os	-9.5681
▁store	-9.56907
▁plate	-9.5702
▁chief	-9.57197
ak	-9.57297
▁learn	-9.57335
▁sight	-9.57337
▁nobody	-9.57479
▁safe	-9.57542
▁ri	-9.57568
▁space	-9.57667
▁pass	-9.57673
ac	-9.57677
▁]	-9.57723
▁standing	-9.5778
▁broke	-9.57787
▁wild	-9.57788
▁november	-9.578
▁plan	-9.58031
▁bright	-9.5808
qui	-9.58209
▁reached	-9.58276
3:	-9.58351
▁pardon	-9.58404
▁farm	-9.58595
▁july	-9.58683
▁player	-9.58784
▁ahead	-9.58864
▁former	-9.58913
▁chapter	-9.58913
▁september	-9.59121
▁noises	-9.59124
▁ju	-9.59252
▁kid	-9.59291
▁david	-9.59381
ex	-9.5948
▁law	-9.5958
▁ni	-9.59667
▁fair	-9.59691
ding	-9.59716
▁met	-9.59947
▁push	-9.59975
▁paul	-9.5999
▁fear	-9.60005
▁fellow	-9.60032
▁hungry	-9.60073
▁miles	-9.60138
▁certainly	-9.60216
que	-9.60229
▁army	-9.60617
▁yesterday	-9.60746
▁aunt	-9.60747
▁view	-9.6085
▁blood	-9.60922
▁ex	-9.60947
▁news	-9.61114
▁mary	-9.61121
▁december	-9.61176
ial	-9.6141
▁art	-9.61525
ward	-9.61535
day	-9.61537
▁pat	-9.61632
▁breakfast	-9.61683
▁george	-9.61807
▁hospital	-9.61819
▁public	-9.61906
▁rain	-9.61942
▁su	-9.62008
▁telling	-9.62017
time	-9.62091
▁wee	-9.62105
con	-9.62338
▁returned	-9.62339
▁report	-9.62524
▁kitchen	-9.62534
▁changed	-9.62583
che	-9.62737
▁february	-9.62738
▁chicken	-9.62914
▁yep	-9.62927
▁bottle	-9.63078
▁afternoon	-9.63125
▁queen	-9.63377
ler	-9.63441
▁helen	-9.63531
▁carry	-9.63538
▁field	-9.63542
▁stopped	-9.63586
ru	-9.63672
▁following	-9.63707
▁london	-9.63778
there	-9.63876
▁sign	-9.64104
▁bread	-9.64116
▁lie	-9.6419
▁major	-9.64268
▁heavy	-9.64519
▁ro	-9.64901
▁built	-9.64932
▁secret	-9.64983
▁engine	-9.65066
line	-9.65139
▁supposed	-9.65139
▁trees	-9.65217
▁dat	-9.65324
▁dress	-9.65336
▁form	-9.6551
▁san	-9.65582
▁deep	-9.65613
▁suddenly	-9.65677
")	-9.65739
▁trust	-9.65751
▁decided	-9.65901
▁anybody	-9.65947
▁control	-9.65981
▁bath	-9.66082
▁language	-9.66273
▁pa	-9.66355
▁common	-9.6643
za	-9.66572
▁written	-9.66587
▁count	-9.66842
▁super	-9.66951
▁opened	-9.67265
▁lake	-9.67327
▁mess	-9.67358
▁indian	-9.67433
lu	-9.67466
mon	-9.67502
▁sub	-9.67657
val	-9.67758
ko	-9.67792
▁sick	-9.67801
▁truth	-9.67874
%	-9.67997
jo	-9.68051
▁fix	-9.68108
▁jump	-9.68148
▁hang	-9.68174
wa	-9.68243
▁followed	-9.68374
friend	-9.68515
▁using	-9.68589
▁games	-9.68596
▁roll	-9.68683
▁cow	-9.68785
▁ar	-9.68809
▁pan	-9.68927
ya	-9.68965
▁fraser	-9.69389
read	-9.69395
▁bridge	-9.69558
▁thirty	-9.69598
▁tv	-9.69853
mp	-9.6991
▁sense	-9.69999
ster	-9.70006
▁visit	-9.70087
▁cry	-9.70168
▁lead	-9.70196
▁11	-9.70238
▁carl	-9.7031
▁hurry	-9.70476
▁somewhere	-9.70515
▁hasn	-9.70574
▁ru	-9.70619
▁sand	-9.70716
▁figure	-9.70815
▁bunny	-9.70926
▁coffee	-9.70935
▁dance	-9.71011
why	-9.71031
▁giving	-9.71126
▁gets	-9.7119
▁bought	-9.71223
▁mad	-9.71296
▁(19	-9.71352
ee	-9.7136
▁ko	-9.71391
▁lunch	-9.71469
▁holding	-9.71522
▁sam	-9.71567
▁jo	-9.71601
▁step	-9.71742
▁stuck	-9.71829
▁leaving	-9.71844
ship	-9.71933
▁ga	-9.71949
ut	-9.71964
unk	-9.71978
our	-9.72241
▁added	-9.72386
▁corner	-9.72438
▁bottom	-9.72635
▁support	-9.72916
▁level	-9.73195
▁battle	-9.73292
▁pictures	-9.73304
▁places	-9.7331
▁weeks	-9.73311
▁whom	-9.73626
▁watching	-9.73627
▁2020	-9.73727
▁meeting	-9.73729
▁moon	-9.73847
▁pretend	-9.73895
▁stone	-9.73989
▁smile	-9.74002
▁tail	-9.74094
singing	-9.74099
ite	-9.74106
▁interest	-9.74123
ble	-9.74184
▁elephant	-9.74324
ning	-9.74367
▁fly	-9.74387
▁busy	-9.74412
▁college	-9.74428
9	-9.74626
▁pet	-9.74634
▁pink	-9.74643
▁led	-9.74664
they	-9.74779
▁wrote	-9.7478
▁fifty	-9.74807
▁charge	-9.74877
im	-9.75033
▁13	-9.75098
▁hill	-9.75285
▁14	-9.75354
▁bow	-9.75431
her	-9.75487
▁cook	-9.75632
▁amy	-9.75695
▁machine	-9.75715
not	-9.75813
▁ja	-9.75866
att	-9.75913
▁bell	-9.75925
ey	-9.75975
ron	-9.76051
▁mi	-9.76073
▁grow	-9.76162
▁silver	-9.76204
▁laugh	-9.76235
▁happens	-9.7627
▁sky	-9.7635
▁die	-9.7639
▁inter	-9.76475
▁pieces	-9.7657
▁league	-9.766
▁soft	-9.76627
▁wa	-9.76635
▁population	-9.76682
▁force	-9.76686
▁moving	-9.7671
▁van	-9.7675
▁minister	-9.7687
box	-9.76967
▁shape	-9.76968
▁rabbit	-9.76987
▁welcome	-9.76987
á	-9.77014
red	-9.77097
▁lose	-9.77166
ol	-9.77308
▁ought	-9.77355
▁commune	-9.77361
▁turns	-9.77402
▁hole	-9.77648
▁cheese	-9.77901
▁ye	-9.77923
▁needs	-9.77981
room	-9.77991
▁spring	-9.7802
ating	-9.78022
▁animal	-9.78069
▁america	-9.78088
ub	-9.78124
▁rich	-9.7815
▁flowers	-9.78202
▁council	-9.78411
▁international	-9.78454
▁build	-9.78502
▁finally	-9.78514
▁cap	-9.78521
▁further	-9.78578
▁anymore	-9.78743
ice	-9.78772
▁wonderful	-9.78836
now	-9.78846
▁spoke	-9.78908
out	-9.79125
▁month	-9.79187
▁local	-9.79218
▁sad	-9.79309
▁legs	-9.79606
mb	-9.7963
▁sta	-9.79631
▁‘	-9.79645
▁kill	-9.79766
▁tall	-9.79797
▁laughs	-9.79854
▁except	-9.80026
▁tri	-9.80137
▁cost	-9.80144
▁grandma	-9.80267
▁parents	-9.80406
▁reach	-9.80444
▁va	-9.80525
▁beginning	-9.80595
▁ti	-9.80863
▁circle	-9.80882
gasps	-9.80906
mother	-9.80961
▁received	-9.80983
ham	-9.81021
▁exclaimed	-9.81021
▁none	-9.81092
uk	-9.81105
▁dry	-9.81125
▁doubt	-9.81129
▁trip	-9.81201
▁including	-9.81279
end	-9.81305
▁michael	-9.81311
▁robert	-9.81389
▁officer	-9.81413
▁winter	-9.81526
▁rising	-9.81731
▁beat	-9.8175
000	-9.81881
▁test	-9.8191
od	-9.82137
noise	-9.8236
illustration	-9.8239
▁james	-9.82492
▁action	-9.82563
ier	-9.82568
▁bro	-9.8257
▁fi	-9.82707
▁square	-9.82805
ally	-9.82819
▁30	-9.82917
▁teacher	-9.83027
tur	-9.83143
▁attention	-9.83258
▁hide	-9.83323
▁carried	-9.83329
▁weren	-9.83399
child	-9.83478
▁type	-9.83507
▁walking	-9.83536
▁video	-9.83741
▁leader	-9.8376
▁track	-9.83812
nce	-9.8384
▁dream	-9.83841
laugh	-9.83887
▁pe	-9.83951
▁distance	-9.84044
▁meant	-9.84056
▁doll	-9.84173
▁members	-9.84247
ized	-9.84368
gi	-9.84373
oo	-9.84445
▁shut	-9.84678
ping	-9.84784
▁record	-9.84931
▁card	-9.85039
tor	-9.85133
▁direction	-9.85174
▁lion	-9.85241
king	-9.8526
▁century	-9.85454
can	-9.85532
–	-9.85541
▁works	-9.85628
▁appeared	-9.85894
▁wash	-9.85901
▁choo	-9.85927
▁drop	-9.85936
cat	-9.86186
▁object	-9.86194
▁worth	-9.86425
ina	-9.86474
ig	-9.86603
▁silence	-9.86642
▁jim	-9.86716
▁writing	-9.8676
▁crying	-9.86811
▁popular	-9.86836
tra	-9.86863
tion	-9.86892
▁key	-9.86936
▁leg	-9.86955
▁capital	-9.87041
▁harry	-9.87247
gar	-9.87421
points	-9.87802
▁hu	-9.87936
side	-9.88003
▁match	-9.88003
▁camera	-9.88111
▁shouldn	-9.88157
▁promise	-9.88208
▁dropped	-9.88249
ber	-9.88326
▁billy	-9.88375
▁kiss	-9.88468
▁gate	-9.88472
▁account	-9.88574
▁egg	-9.88616
▁cha	-9.88775
▁information	-9.88835
▁allowed	-9.88862
sings	-9.89002
▁spoon	-9.89003
▁seeing	-9.89177
▁due	-9.89233
▁walked	-9.89472
▁mu	-9.89562
▁favorite	-9.89587
ud	-9.896
▁pounds	-9.89641
▁coat	-9.89669
▁expect	-9.89767
▁taste	-9.89808
▁laughing	-9.89867
▁wake	-9.89871
▁teeth	-9.90041
▁province	-9.9007
lic	-9.904
nd	-9.90411
▁difficult	-9.90473
▁continued	-9.90694
▁based	-9.90725
▁character	-9.90836
▁especially	-9.90841
ned	-9.90887
▁wi	-9.91025
▁stage	-9.91029
▁cream	-9.91207
▁interesting	-9.91238
▁fresh	-9.91254
this	-9.91282
▁surprise	-9.91313
▁share	-9.91313
▁wide	-9.91355
clock	-9.91538
▁dan	-9.91558
▁monkey	-9.9156
▁quarter	-9.91572
▁grass	-9.91592
ph	-9.91598
▁horses	-9.91602
▁base	-9.91706
bb	-9.91711
▁ow	-9.91769
=	-9.91798
▁gar	-9.91914
▁du	-9.91948
house	-9.92093
come	-9.92299
▁yo	-9.92397
▁guard	-9.92432
▁roman	-9.92502
▁press	-9.92544
▁famous	-9.92677
ng	-9.92822
▁reading	-9.92836
▁teddy	-9.92902
ical	-9.92903
▁row	-9.92905
▁letters	-9.93031
▁block	-9.93245
ric	-9.93285
▁boo	-9.93292
▁cor	-9.93374
▁speed	-9.93462
▁bobby	-9.94185
▁ver	-9.94219
▁imp	-9.94286
▁scene	-9.94301
▁honor	-9.94348
▁pi	-9.9438
▁ear	-9.94487
▁according	-9.94604
▁created	-9.94621
▁itself	-9.94622
▁period	-9.94666
ab	-9.94729
iv	-9.9475
▁forest	-9.94915
▁final	-9.94921
▁mountain	-9.94928
▁japan	-9.95003
▁nin	-9.95164
▁future	-9.9518
vo	-9.95273
▁kitty	-9.95344
▁finger	-9.95393
▁conversation	-9.95483
lan	-9.95738
▁center	-9.95788
br	-9.95934
then	-9.95991
looks	-9.96095
▁ed	-9.96236
▁prince	-9.96278
▁chocolate	-9.96289
▁brush	-9.96378
▁pocket	-9.96384
ny	-9.96412
▁stars	-9.96439
▁laughed	-9.96525
ily	-9.96526
▁forgot	-9.96537
lt	-9.96687
field	-9.96776
▁eggs	-9.96858
▁perfect	-9.96882
▁clever	-9.96944
▁smell	-9.96975
▁lower	-9.96978
▁germany	-9.97059
▁uhoh	-9.97132
▁tower	-9.97146
▁union	-9.97314
ator	-9.97547
▁comp	-9.97574
▁interested	-9.97576
▁twelve	-9.97578
tle	-9.97591
▁tiger	-9.97603
▁serious	-9.97611
ze	-9.97713
▁glass	-9.97749
▁explain	-9.97839
▁crayon	-9.97843
▁fat	-9.97875
▁luck	-9.97913
▁grew	-9.97922
▁term	-9.9797
▁paid	-9.97992
▁ears	-9.98061
fi	-9.98233
ious	-9.98428
▁alive	-9.98461
▁singing	-9.98491
▁si	-9.98578
▁slowly	-9.98588
▁port	-9.9867
▁radio	-9.98727
▁shake	-9.98775
tri	-9.98899
urs	-9.98932
ville	-9.98944
▁suit	-9.98966
▁storm	-9.98967
▁wheel	-9.99004
▁director	-9.99107
▁pain	-9.99149
▁jane	-9.9927
cy	-9.99337
▁health	-9.99468
▁plane	-9.99472
▁birds	-9.99478
pi	-9.99506
▁picks	-9.99572
▁sheep	-9.99648
▁mouse	-9.99671
▁betty	-9.99744
ku	-10.0005
rk	-10.0011
▁te	-10.0013
▁puts	-10.0017
▁below	-10.002
▁price	-10.0035
▁lying	-10.0041
om	-10.0054
▁self	-10.0063
ps	-10.0066
▁25	-10.0067
▁snake	-10.007
▁cast	-10.0079
▁respect	-10.0084
fe	-10.0088
mer	-10.0095
ok	-10.0111
ong	-10.0116
▁pot	-10.012
▁blow	-10.0129
í	-10.0145
▁whoa	-10.0169
▁adult	-10.017
▁date	-10.0173
▁size	-10.0173
▁loved	-10.0176
▁join	-10.0189
▁coast	-10.0191
▁situation	-10.0199
▁terrible	-10.0199
▁scared	-10.0204
ford	-10.0224
▁cars	-10.0226
▁neck	-10.0227
▁closed	-10.0243
ang	-10.0248
▁lee	-10.0254
▁skin	-10.0259
▁showed	-10.0263
▁computer	-10.0275
▁needed	-10.029
▁corn	-10.0295
hu	-10.0296
▁ate	-10.0298
io	-10.0298
ise	-10.0302
ped	-10.0302
▁actor	-10.0304
▁sell	-10.0305
like	-10.031
ju	-10.0314
▁sh	-10.0314
▁politician	-10.032
▁phil	-10.0323
▁drawing	-10.034
▁unless	-10.0342
▁den	-10.0367
▁bigger	-10.0369
▁danger	-10.0373
▁bet	-10.0375
▁california	-10.0384
fa	-10.0386
▁subject	-10.0386
amp	-10.0399
▁bi	-10.04
▁⌊	-10.0402
▁knock	-10.0415
ot	-10.0415
20	-10.0417
▁sleeping	-10.042
▁holds	-10.042
gen	-10.0425
▁mor	-10.0435
▁⌈	-10.0439
▁jwww	-10.0439
▁shore	-10.0443
▁pin	-10.0447
ii	-10.0454
10	-10.0455
▁bert	-10.0473
shi	-10.0478
▁(20	-10.0479
▁mc	-10.0482
▁..	-10.0483
▁questions	-10.0501
med	-10.0502
▁henry	-10.0508
▁kingdom	-10.0513
▁stories	-10.0516
▁richard	-10.0521
▁asking	-10.0522
▁inv	-10.0527
▁allow	-10.0538
▁thus	-10.0538
▁sue	-10.0542
pped	-10.055
▁difference	-10.0559
▁sharp	-10.056
▁gas	-10.0562
▁driver	-10.0571
pro	-10.0571
▁asleep	-10.0571
▁success	-10.0574
▁hardly	-10.0591
▁trick	-10.0597
▁bri	-10.0608
▁simple	-10.0611
ip	-10.0615
du	-10.062
▁india	-10.0625
▁iron	-10.063
▁bowl	-10.0631
▁val	-10.0631
▁forty	-10.0637
▁)	-10.0648
▁species	-10.0651
▁handle	-10.0652
▁hotel	-10.0656
▁smart	-10.0664
▁pig	-10.067
▁manner	-10.0676
op	-10.0698
▁liked	-10.0701
▁leaves	-10.0719
▁countries	-10.0722
▁imagine	-10.0726
▁min	-10.0736
▁edge	-10.0737
nder	-10.0769
▁fruit	-10.0769
tro	-10.0777
▁beach	-10.0784
▁trade	-10.0788
▁similar	-10.0795
▁puzzle	-10.0799
▁hate	-10.08
▁cho	-10.0802
▁flat	-10.0804
▁2019	-10.0806
▁turning	-10.0823
▁anne	-10.0843
▁peace	-10.0855
▁plant	-10.0861
▁ob	-10.0864
▁sunday	-10.0864
▁central	-10.0867
▁bang	-10.0874
nic	-10.0876
▁natural	-10.088
▁butter	-10.0886
fri	-10.0899
com	-10.0901
sha	-10.0914
▁enjoy	-10.0918
▁experience	-10.0919
11	-10.0921
▁picked	-10.093
nie	-10.0936
▁aye	-10.094
▁plays	-10.095
▁soul	-10.0979
▁command	-10.098
▁starts	-10.0982
uh	-10.0985
fad	-10.099
▁education	-10.0995
▁served	-10.1008
▁24	-10.1008
▁market	-10.1019
▁loud	-10.1023
▁agree	-10.1029
▁judge	-10.1035
▁therefore	-10.1046
▁lift	-10.1046
▁lock	-10.1051
ile	-10.1056
▁meat	-10.1065
▁title	-10.1082
▁sal	-10.1088
▁spent	-10.1101
▁protect	-10.1105
▁professional	-10.1112
▁election	-10.1112
▁include	-10.1113
▁travel	-10.1113
▁pleasure	-10.1115
▁older	-10.1116
▁result	-10.1116
▁slow	-10.1122
vin	-10.1124
▁problems	-10.1128
▁2018	-10.1139
▁helped	-10.1141
▁native	-10.1154
▁spread	-10.1157
▁cousin	-10.1162
▁speaking	-10.1162
▁upstairs	-10.1162
▁vote	-10.1163
▁search	-10.1168
▁har	-10.1168
laughing	-10.1188
▁brave	-10.119
▁gra	-10.1197
▁puppet	-10.1201
▁movement	-10.1202
▁breath	-10.1206
▁study	-10.1206
ney	-10.121
▁purpose	-10.1215
▁calling	-10.1216
▁nature	-10.1227
head	-10.1228
▁western	-10.1231
▁talked	-10.1235
▁path	-10.1235
▁learned	-10.1242
▁shoot	-10.1254
▁double	-10.1262
ide	-10.1263
▁lad	-10.1264
gan	-10.1271
▁fingers	-10.1273
▁covered	-10.1274
ther	-10.1276
▁gi	-10.128
▁beyond	-10.1283
▁social	-10.1286
▁royal	-10.1295
▁christ	-10.1303
ving	-10.1307
▁cal	-10.131
▁amount	-10.1311
▁program	-10.1313
▁pie	-10.1323
▁z	-10.133
▁("	-10.1333
ren	-10.1345
▁tin	-10.135
▁accident	-10.1358
zz	-10.136
▁bite	-10.1364
▁spend	-10.1365
▁feed	-10.1367
who	-10.1367
han	-10.1379
▁tro	-10.1385
bar	-10.1387
▁oops	-10.1398
▁worse	-10.1399
▁joined	-10.1419
▁bra	-10.1425
▁private	-10.143
▁parts	-10.1438
board	-10.1445
use	-10.1448
▁paris	-10.1449
▁professor	-10.1451
▁&	-10.1462
ji	-10.1468
▁shoe	-10.1474
ified	-10.1477
▁message	-10.1502
dic	-10.1509
▁governor	-10.1518
▁paint	-10.1519
▁deck	-10.1521
▁monster	-10.1522
▁shirt	-10.1527
▁japanese	-10.1531
▁21	-10.154
▁adam	-10.1545
▁caused	-10.1549
▁fighting	-10.1558
▁charles	-10.1559
▁grave	-10.1565
▁particular	-10.1568
▁fox	-10.1572
▁driving	-10.1574
▁silly	-10.1581
▁christian	-10.1581
▁sch	-10.1582
▁sarah	-10.1583
some	-10.1583
▁mac	-10.1586
▁notice	-10.1587
nt	-10.159
www	-10.1592
gg	-10.1597
▁heaven	-10.1622
▁escape	-10.1623
▁tiny	-10.163
▁beside	-10.165
▁length	-10.165
▁spanish	-10.1662
▁joy	-10.1667
▁bay	-10.1669
▁fe	-10.1671
▁flying	-10.1672
▁weather	-10.1673
ö	-10.1677
▁mistake	-10.1679
▁clock	-10.168
har	-10.1681
ana	-10.1681
▁eleanor	-10.1689
▁enemy	-10.1691
▁project	-10.17
▁role	-10.1708
▁dollars	-10.1708
▁calm	-10.171
ev	-10.1721
▁personal	-10.1722
▁mass	-10.1725
ita	-10.1728
▁tony	-10.1741
sta	-10.1743
▁award	-10.1743
ung	-10.1746
▁cookie	-10.1751
tu	-10.1753
off	-10.1754
▁william	-10.1759
ez	-10.176
ai	-10.1761
ste	-10.1763
▁political	-10.1769
wood	-10.1774
▁smoke	-10.1779
▁bur	-10.1785
ium	-10.1802
▁ch	-10.1807
▁modern	-10.1809
▁missing	-10.1812
▁burn	-10.1813
▁various	-10.1818
▁background	-10.1823
▁sin	-10.1835
▁entered	-10.1838
▁begin	-10.1839
nor	-10.1845
▁europe	-10.1846
▁lucky	-10.1852
▁nurse	-10.1866
van	-10.187
ris	-10.1872
uff	-10.1875
▁proud	-10.1877
▁dogs	-10.1878
▁declared	-10.1891
▁ge	-10.1898
▁del	-10.1901
sib	-10.1904
▁agreed	-10.1909
▁fan	-10.1916
▁oo	-10.1932
▁op	-10.1937
▁hiding	-10.1938
rus	-10.1945
▁che	-10.1945
▁bin	-10.1951
▁ladies	-10.1954
ix	-10.1957
▁mike	-10.196
▁pair	-10.1961
▁effect	-10.1971
▁directed	-10.1982
▁crime	-10.1989
light	-10.199
▁likely	-10.1991
ugh	-10.1993
▁offer	-10.1995
▁tight	-10.2002
▁slip	-10.2003
▁arrived	-10.2008
▁dressed	-10.2016
▁crazy	-10.2017
uch	-10.203
▁drew	-10.203
▁absolutely	-10.204
law	-10.2042
▁lid	-10.2043
▁angry	-10.2044
▁spell	-10.2052
▁2010	-10.2053
▁flower	-10.206
▁pleasant	-10.2071
▁starting	-10.2083
right	-10.2084
cing	-10.2098
▁spirit	-10.2122
tan	-10.2123
▁russian	-10.2131
▁names	-10.214
▁original	-10.214
▁fur	-10.2141
▁hum	-10.2143
▁add	-10.2148
▁note	-10.2155
▁saint	-10.2161
▁science	-10.2164
▁falling	-10.2166
▁dangerous	-10.2173
▁australia	-10.2175
▁jesus	-10.2181
▁happening	-10.2186
▁cop	-10.2195
▁ken	-10.2197
▁23	-10.2199
▁dolly	-10.2201
▁fred	-10.2205
▁regular	-10.2212
▁attempt	-10.2215
nk	-10.2217
▁sugar	-10.2217
▁census	-10.2219
▁extra	-10.2219
▁thou	-10.2221
▁ham	-10.2228
▁soldiers	-10.2228
wi	-10.2233
ap	-10.2234
▁ke	-10.2238
ging	-10.2246
▁2021	-10.2248
▁largest	-10.2249
▁singer	-10.2258
▁choice	-10.2259
▁steps	-10.226
▁considered	-10.2277
▁apart	-10.2277
▁tone	-10.2278
▁vo	-10.2282
▁brain	-10.2289
▁accept	-10.229
▁northern	-10.2291
▁laid	-10.2301
▁fu	-10.231
▁slide	-10.2314
▁version	-10.232
lon	-10.2322
▁design	-10.2324
▁wal	-10.233
▁anywhere	-10.2338
▁centre	-10.2341
▁thick	-10.235
▁patient	-10.2352
▁hal	-10.2357
night	-10.2358
▁basket	-10.2359
▁sold	-10.2361
▁crew	-10.2366
ations	-10.2371
▁bound	-10.2384
▁coach	-10.2391
ming	-10.2395
▁besides	-10.2399
▁military	-10.2401
▁babies	-10.2405
▁castle	-10.2412
▁saturday	-10.2416
▁forth	-10.2426
▁discovered	-10.2434
▁plain	-10.2457
▁meaning	-10.2458
▁immediately	-10.2459
▁je	-10.2462
▁neither	-10.2463
▁threw	-10.2469
▁dinosaur	-10.2478
▁meal	-10.2492
▁holiday	-10.25
▁female	-10.2504
▁easily	-10.2517
▁ocean	-10.2517
▁european	-10.2522
gie	-10.2524
▁climb	-10.2533
ek	-10.2535
▁dar	-10.254
▁missed	-10.2541
▁100	-10.2541
▁research	-10.2545
▁qua	-10.2546
▁surprised	-10.2547
▁farmer	-10.255
▁wo	-10.255
▁blocks	-10.2554
act	-10.2561
▁knee	-10.2563
▁completely	-10.257
▁prize	-10.2571
▁murder	-10.2572
▁wearing	-10.2589
▁energy	-10.2591
▁purple	-10.2591
▁naughty	-10.2592
▁correct	-10.2593
gh	-10.2593
rn	-10.2594
▁anna	-10.2595
ach	-10.2599
▁22	-10.26
▁journey	-10.2606
ible	-10.2612
▁process	-10.2618
▁fault	-10.2622
▁→	-10.2624
▁china	-10.2626
▁watched	-10.2631
▁placed	-10.2641
▁twice	-10.2652
▁shows	-10.266
nny	-10.2672
▁marry	-10.2674
▁spider	-10.2674
hand	-10.2678
▁magic	-10.268
12	-10.2682
▁roof	-10.2685
▁bomb	-10.2688
▁society	-10.2689
▁duty	-10.2689
ama	-10.2689
▁martin	-10.2694
▁empty	-10.2705
ag	-10.2707
▁goodness	-10.2708
▁windows	-10.2717
▁municipality	-10.2729
▁pulled	-10.2741
▁current	-10.2744
bby	-10.275
▁bat	-10.2763
▁woods	-10.2772
▁zoo	-10.2776
ities	-10.2781
▁raised	-10.2783
vocalizes	-10.2785
ded	-10.2789
▁2011	-10.2796
▁lieutenant	-10.2803
▁serve	-10.2811
▁model	-10.282
▁barn	-10.2821
▁lines	-10.2825
▁medicine	-10.2831
els	-10.2836
▁higher	-10.2839
▁movies	-10.2846
▁prove	-10.2855
▁flight	-10.286
▁anti	-10.2861
ky	-10.2862
ica	-10.2865
▁supper	-10.2872
▁boss	-10.2873
▁simply	-10.2874
▁fl	-10.288
▁stream	-10.2881
▁plenty	-10.2882
▁2017	-10.2887
▁onto	-10.2892
oc	-10.2895
▁lin	-10.2918
ened	-10.2921
▁mid	-10.2927
▁def	-10.2929
▁produced	-10.2935
▁filled	-10.2935
pping	-10.2936
▁italian	-10.2941
30	-10.2946
▁balloon	-10.2947
▁charlie	-10.2948
mat	-10.296
low	-10.2968
rd	-10.2969
▁ram	-10.2969
▁2016	-10.298
▁tip	-10.2982
▁goin	-10.2987
ep	-10.299
kar	-10.2992
▁trans	-10.3
▁bee	-10.3011
▁huge	-10.3018
▁para	-10.3022
▁hadn	-10.3023
▁formed	-10.3023
▁rate	-10.3035
▁flag	-10.3043
kay	-10.3045
▁risk	-10.3046
▁fifteen	-10.3054
▁gentlemen	-10.3055
▁division	-10.3059
just	-10.3079
▁studio	-10.3082
▁vessel	-10.3089
▁fallen	-10.3089
▁princess	-10.3091
▁crash	-10.3094
▁stan	-10.3094
▁non	-10.3097
▁ki	-10.3103
▁opening	-10.3108
bra	-10.3109
▁teach	-10.3109
▁flash	-10.3118
▁telephone	-10.3123
zo	-10.3126
fully	-10.3137
rr	-10.3143
▁shi	-10.315
▁button	-10.3153
▁range	-10.3154
▁ancient	-10.3155
▁eleven	-10.3167
▁practice	-10.3178
▁excited	-10.3178
work	-10.318
▁decision	-10.3181
dge	-10.3181
▁appearance	-10.3182
▁prime	-10.3183
▁mission	-10.3184
▁tie	-10.3194
▁host	-10.3203
▁evidence	-10.3211
▁()	-10.3214
▁choose	-10.3216
▁expected	-10.3216
gue	-10.322
▁pound	-10.3223
▁southern	-10.3226
rya	-10.3226
▁angel	-10.3228
▁gives	-10.3241
col	-10.3243
nu	-10.3248
▁maggie	-10.3248
ries	-10.3263
ay	-10.3273
port	-10.3279
▁steven	-10.328
▁$	-10.3281
zi	-10.3285
▁mate	-10.3292
▁male	-10.3297
▁whoops	-10.3299
▁total	-10.3301
▁channel	-10.3302
picks	-10.3306
▁cu	-10.3306
▁songs	-10.3308
where	-10.3311
▁pleased	-10.3314
▁necessary	-10.3316
place	-10.3319
brother	-10.3322
▁za	-10.3323
▁fri	-10.3323
[	-10.3324
▁1,	-10.3336
▁announced	-10.3339
▁colors	-10.3342
▁pause	-10.3351
ug	-10.3355
▁needta	-10.3355
▁26	-10.3363
▁gift	-10.3363
▁promised	-10.3366
▁ended	-10.3367
_,	-10.337
▁swimming	-10.3372
▁mostly	-10.3374
▁sp	-10.3378
▁gentleman	-10.3381
row	-10.3384
ative	-10.3389
tes	-10.339
▁official	-10.3399
▁par	-10.3404
▁prison	-10.3431
▁content	-10.3434
ld	-10.3439
▁ger	-10.3441
▁sail	-10.3455
▁usual	-10.3455
▁ter	-10.3456
▁painting	-10.3456
▁believed	-10.3456
▁rope	-10.3456
▁oil	-10.346
aft	-10.3468
▁mis	-10.3475
aw	-10.3477
▁string	-10.3479
back	-10.3479
here	-10.348
ture	-10.3482
15	-10.3485
▁gen	-10.3487
▁ski	-10.3489
▁ci	-10.3502
▁community	-10.3503
,--	-10.3504
▁awful	-10.3506
17	-10.3508
chuckles	-10.351
▁continues	-10.3523
▁salt	-10.3526
▁faith	-10.3527
ions	-10.3529
ius	-10.3535
▁mal	-10.3542
▁papa	-10.3549
▁rule	-10.3552
▁pack	-10.3553
▁rid	-10.3561
▁earlier	-10.3572
su	-10.3576
▁numbers	-10.3599
mu	-10.3602
ette	-10.3605
▁tra	-10.3616
▁episode	-10.3627
▁saved	-10.3638
▁rough	-10.3641
▁measure	-10.3642
▁grown	-10.365
▁bump	-10.3651
▁2014	-10.3655
ack	-10.3659
▁heat	-10.3663
▁crowd	-10.3669
▁cro	-10.367
▁marriage	-10.3671
▁laura	-10.3678
▁gray	-10.3683
▁tim	-10.3689
▁27	-10.369
are	-10.3695
▁writer	-10.3698
▁remain	-10.3698
ela	-10.371
▁mat	-10.3737
top	-10.3744
lea	-10.3745
▁motion	-10.3751
soa	-10.3758
▁strength	-10.3767
▁material	-10.3778
▁app	-10.3779
counter	-10.3784
▁ku	-10.3785
mor	-10.3785
ered	-10.3796
▁haha	-10.3796
▁2012	-10.3806
▁civil	-10.3806
▁carefully	-10.3808
puts	-10.3808
jen	-10.3811
▁ty	-10.3814
▁knife	-10.3819
(	-10.3835
▁2013	-10.3836
▁treat	-10.3845
▁event	-10.3851
▁lap	-10.386
▁border	-10.387
▁nu	-10.3885
ize	-10.3887
▁cra	-10.3893
▁enter	-10.3906
▁golden	-10.3908
▁toast	-10.3909
▁friday	-10.391
bble	-10.3912
▁dancing	-10.3925
▁silent	-10.3925
▁tears	-10.3933
▁blanket	-10.3935
▁value	-10.394
▁style	-10.3941
▁bike	-10.3942
▁load	-10.3946
▁jean	-10.395
▁santa	-10.396
takes	-10.3961
old	-10.3968
▁mountains	-10.3971
▁weight	-10.3971
▁dirty	-10.3971
▁texas	-10.3972
▁listening	-10.3973
▁fourth	-10.3977
cries	-10.3982
ple	-10.3985
▁author	-10.3987
▁nest	-10.3999
▁sudden	-10.4003
▁wolf	-10.4012
▁fo	-10.4015
▁growing	-10.4017
▁site	-10.4017
▁metal	-10.4019
▁speech	-10.4024
▁forgive	-10.403
▁rise	-10.4032
▁aw	-10.4034
▁28	-10.4038
▁shoulder	-10.4041
▁noticed	-10.4049
▁bonnet	-10.4057
▁obviously	-10.4071
▁successful	-10.4072
gro	-10.4073
▁bull	-10.4082
▁development	-10.4096
ball	-10.41
▁max	-10.4103
▁hero	-10.4106
▁ce	-10.4107
▁officers	-10.411
▁hop	-10.4111
▁ordered	-10.4112
▁tre	-10.4116
▁newspaper	-10.4118
▁downstairs	-10.4119
▁keeping	-10.4125
▁2015	-10.4134
▁ze	-10.4162
▁colonel	-10.4164
▁ross	-10.4165
nch	-10.4171
ax	-10.4175
▁struck	-10.4185
▁valley	-10.4185
▁remind	-10.4197
▁smith	-10.4207
▁2008	-10.4218
▁signal	-10.422
▁thy	-10.4224
▁manager	-10.4233
dor	-10.4235
▁2022	-10.4242
▁involved	-10.4244
q	-10.4247
ker	-10.4251
lf	-10.4262
▁joke	-10.4263
▁horn	-10.4268
▁address	-10.4274
ties	-10.4274
▁lawyer	-10.4277
▁alice	-10.4282
▁otherwise	-10.4285
oth	-10.429
war	-10.4302
▁rat	-10.4303
▁motor	-10.4304
mel	-10.4318
▁championship	-10.432
run	-10.4322
▁29	-10.4323
▁terms	-10.4324
▁cell	-10.4326
▁stairs	-10.4328
did	-10.4329
ition	-10.433
▁stock	-10.4335
▁impossible	-10.4336
▁mon	-10.4337
▁appear	-10.4339
▁goodbye	-10.4347
▁[2	-10.4351
▁moves	-10.4351
▁swing	-10.4359
get	-10.4359
din	-10.436
▁pizza	-10.4362
▁wan	-10.4372
▁mail	-10.4374
▁washington	-10.4377
▁agent	-10.4377
burg	-10.4381
▁guns	-10.4396
▁colour	-10.4396
▁taught	-10.4398
▁lips	-10.4399
▁published	-10.4404
▁decide	-10.4414
▁magazine	-10.4414
▁wise	-10.4419
▁log	-10.442
▁training	-10.442
▁individual	-10.4425
▁bla	-10.4427
▁bon	-10.4433
▁tar	-10.4437
vis	-10.4463
▁sis	-10.4467
sie	-10.4469
▁gri	-10.4471
good	-10.4472
▁stranger	-10.4474
▁nut	-10.448
▁worried	-10.4485
▁cur	-10.4486
▁beauty	-10.4488
▁italy	-10.4497
ov	-10.4513
▁influence	-10.4517
▁normal	-10.4521
▁fla	-10.4524
▁comment	-10.4525
▁giant	-10.4526
▁throat	-10.4538
▁canada	-10.4541
▁occasion	-10.4542
▁crown	-10.4543
play	-10.4549
pan	-10.4555
▁disease	-10.4556
▁operation	-10.4562
pl	-10.4563
rie	-10.4566
&	-10.4568
fo	-10.4569
▁ninety	-10.457
▁honest	-10.458
▁honour	-10.458
rate	-10.4585
▁lights	-10.4586
▁flow	-10.4591
with	-10.4594
▁bedroom	-10.4595
▁crack	-10.4595
▁everywhere	-10.4597
▁spoken	-10.4597
▁planet	-10.4603
▁youth	-10.4607
▁ruth	-10.4608
▁pool	-10.4611
▁finding	-10.4616
▁2007	-10.4618
▁rep	-10.4629
▁yum	-10.463
▁2009	-10.4634
▁closer	-10.4641
▁actress	-10.4642
▁receive	-10.4646
▁nineteen	-10.4647
▁blind	-10.4655
▁pra	-10.4658
see	-10.466
▁tongue	-10.466
til	-10.4674
▁ned	-10.4676
▁chris	-10.4683
▁swim	-10.4687
▁committee	-10.469
▁bother	-10.4693
▁entire	-10.4694
▁buck	-10.4697
▁brand	-10.4698
peter	-10.4712
▁strike	-10.4717
▁commander	-10.4718
▁cards	-10.4724
▁surface	-10.473
⌉.	-10.4731
ari	-10.4746
▁tries	-10.4749
ery	-10.4756
ches	-10.4762
▁orders	-10.4776
▁fence	-10.4779
13	-10.4794
▁eastern	-10.4795
▁sixty	-10.4798
▁pla	-10.4799
▁wedding	-10.4806
▁forgotten	-10.4807
▁towel	-10.4808
▁sur	-10.4809
▁claim	-10.4814
▁complete	-10.4823
▁plants	-10.4825
mate	-10.4828
▁fixed	-10.4833
▁refer	-10.4837
door	-10.4841
▁spin	-10.4842
▁roger	-10.4843
▁prepared	-10.4849
sighs	-10.4856
▁dig	-10.4857
--"	-10.4858
▁begins	-10.4865
▁dare	-10.4865
sen	-10.4867
▁partner	-10.4869
ou	-10.4874
▁owner	-10.4875
▁wine	-10.4877
▁sake	-10.488
▁republic	-10.4885
▁defend	-10.4905
▁smaller	-10.4907
▁provide	-10.4907
▁shadow	-10.4924
▁medal	-10.4925
vy	-10.4926
nes	-10.4939
▁exist	-10.4941
▁africa	-10.4943
▁rank	-10.4945
▁weak	-10.4959
▁beep	-10.4969
▁thin	-10.4973
▁nick	-10.498
▁2006	-10.4982
▁chinese	-10.4983
▁spain	-10.4983
▁purdie	-10.4985
▁bu	-10.4994
▁mister	-10.4996
▁louis	-10.5001
glo	-10.5011
uck	-10.5011
jes	-10.5018
▁loss	-10.502
▁founded	-10.5022
▁continue	-10.5026
▁treasure	-10.5026
14	-10.5031
▁located	-10.5038
▁broad	-10.5041
▁generally	-10.5046
oon	-10.5049
▁pu	-10.505
▁managed	-10.5054
ik	-10.5055
▁dump	-10.5056
bert	-10.5057
▁drinking	-10.5058
▁rush	-10.5065
16	-10.5068
▁definitely	-10.5068
▁cabin	-10.5073
▁bug	-10.5075
ably	-10.5079
▁mill	-10.5085
tis	-10.5087
▁greater	-10.509
▁shown	-10.5091
▁50	-10.5094
dra	-10.5106
ec	-10.5108
rri	-10.5109
▁quietly	-10.511
▁sports	-10.5115
▁mix	-10.5118
▁reaches	-10.5126
▁formula	-10.5137
▁kick	-10.5141
pri	-10.5142
▁dust	-10.5144
▁sandwich	-10.5146
▁dick	-10.5146
ose	-10.515
▁fill	-10.5151
▁cloth	-10.5153
▁fashion	-10.5166
▁museum	-10.5169
rit	-10.5169
▁jumped	-10.5172
▁artist	-10.5173
▁condition	-10.5178
▁upset	-10.5178
kh	-10.5178
▁empire	-10.5191
▁brothers	-10.5198
▁evil	-10.5199
cu	-10.52
▁contract	-10.5203
▁hay	-10.5209
over	-10.5212
when	-10.5214
▁banana	-10.5217
▁chase	-10.5224
looking	-10.5226
▁shout	-10.5242
yo	-10.5247
▁uhuh	-10.5247
▁sword	-10.5249
more	-10.5252
ory	-10.5258
▁harm	-10.5258
bye	-10.5263
▁trail	-10.5265
ken	-10.5269
worth	-10.527
morrow	-10.5273
▁ven	-10.5274
▁sco	-10.5277
▁suggest	-10.5277
▁odd	-10.5279
▁ann	-10.5283
eg	-10.5284
▁fellows	-10.5285
▁opportunity	-10.5285
▁possibly	-10.5285
babbles	-10.5286
▁grab	-10.5287
⌋.	-10.5288
press	-10.5294
▁aged	-10.5296
▁wave	-10.5305
▁represent	-10.5305
▁alarm	-10.5307
▁ray	-10.5309
▁copy	-10.5322
▁pit	-10.533
▁novel	-10.5333
▁falls	-10.5333
▁wheels	-10.5334
berg	-10.5336
▁carrying	-10.534
▁relationship	-10.5346
▁gordon	-10.5348
▁students	-10.5349
50	-10.535
▁comm	-10.5358
▁secretary	-10.5359
/0	-10.5361
▁parliament	-10.5362
▁remained	-10.5364
▁security	-10.5371
▁rod	-10.5373
▁hug	-10.5379
▁softly	-10.5382
▁grace	-10.5388
▁airport	-10.5393
▁prevent	-10.5395
▁riding	-10.5403
▁rules	-10.5404
bel	-10.5407
duc	-10.5415
▁greatest	-10.5419
ston	-10.5419
▁victim	-10.542
rac	-10.5425
▁mamma	-10.5429
ology	-10.5432
ify	-10.5435
▁release	-10.5455
▁hy	-10.5458
bling	-10.5465
fer	-10.5465
▁opposite	-10.5469
▁awake	-10.5471
▁opinion	-10.5481
▁shock	-10.5484
▁rocks	-10.5494
▁kim	-10.5494
▁pipe	-10.5495
▁pirate	-10.5496
▁leading	-10.5498
des	-10.5498
▁crawl	-10.55
▁bud	-10.5502
▁ur	-10.5506
▁plans	-10.5511
▁monday	-10.5514
▁percent	-10.5517
igh	-10.5518
▁section	-10.5525
▁yup	-10.5531
▁desk	-10.5535
▁file	-10.5541
▁runs	-10.5548
▁chart	-10.555
log	-10.5551
▁suggested	-10.5554
tive	-10.5556
▁tent	-10.556
ern	-10.5566
▁chest	-10.5568
ye	-10.5568
▁events	-10.5569
▁nope	-10.5578
je	-10.5578
▁showing	-10.558
▁scout	-10.5581
▁hook	-10.5592
▁equal	-10.5599
av	-10.5602
▁contact	-10.5613
▁julia	-10.5619
▁ghost	-10.5622
▁willing	-10.5624
mal	-10.5632
▁pray	-10.5636
dis	-10.5636
▁soldier	-10.5639
▁stayed	-10.5648
▁com	-10.5655
▁favor	-10.5663
▁sentence	-10.5663
▁stu	-10.5663
▁microphone	-10.5671
▁walks	-10.5671
▁hmm	-10.5673
▁wire	-10.5675
miss	-10.5675
▁loose	-10.5679
down	-10.5702
▁realize	-10.5703
▁bessie	-10.5706
▁groups	-10.5716
▁greek	-10.572
take	-10.5723
▁champion	-10.5729
▁guide	-10.5736
▁pri	-10.5748
▁lamb	-10.5762
yard	-10.5762
▁ste	-10.5765
▁ourselves	-10.5767
▁olympics	-10.5769
▁easier	-10.5773
▁switch	-10.5777
▁offered	-10.5784
▁direct	-10.5785
▁mus	-10.5798
▁sy	-10.58
▁production	-10.5801
book	-10.5803
ria	-10.5804
▁roar	-10.5805
▁afterwards	-10.5806
▁tour	-10.5814
▁chain	-10.5814
▁sex	-10.5816
▁fool	-10.5818
▁records	-10.582
▁hunt	-10.5821
ob	-10.5822
▁goat	-10.5827
▁wipe	-10.5838
win	-10.584
▁helping	-10.5844
▁tan	-10.5848
▁tap	-10.5848
ü	-10.5849
▁staff	-10.585
lia	-10.5851
▁consider	-10.5853
▁yyy	-10.5855
tal	-10.5855
die	-10.586
▁rome	-10.5862
▁cities	-10.5867
▁scott	-10.5876
pu	-10.5878
▁foreign	-10.5888
▁rescue	-10.5894
rge	-10.5894
hy	-10.5899
▁trunk	-10.59
▁map	-10.5905
▁areas	-10.5906
▁seconds	-10.5911
▁performance	-10.5912
nods	-10.5913
▁apparently	-10.5918
▁attend	-10.5933
▁pile	-10.5933
▁directly	-10.5936
▁glasses	-10.5938
▁excellent	-10.5939
▁younger	-10.5947
▁gro	-10.5948
▁safety	-10.5953
▁frightened	-10.5956
▁sailor	-10.5964
▁tank	-10.5966
gged	-10.5967
▁association	-10.5967
▁standard	-10.5967
▁brilliant	-10.597
▁credit	-10.597
very	-10.5974
▁narrow	-10.5976
▁manage	-10.5987
▁presently	-10.5999
look	-10.6001
▁cave	-10.6003
▁dutch	-10.6004
▁product	-10.6009
▁’	-10.6011
▁code	-10.6014
▁text	-10.6014
fin	-10.6016
▁joseph	-10.6016
▁perfectly	-10.6016
▁ladder	-10.6017
▁retired	-10.6021
▁changes	-10.6022
▁dozen	-10.6024
▁~	-10.6027
▁knight	-10.6027
▁ser	-10.603
▁bringing	-10.6032
year	-10.604
ue	-10.6042
▁surely	-10.6043
▁neat	-10.6051
bal	-10.6055
▁bart	-10.6058
▁memory	-10.6065
lau	-10.6067
len	-10.6068
▁academy	-10.6068
▁2000	-10.6072
bil	-10.6074
▁source	-10.6074
▁whispered	-10.6075
▁fancy	-10.6075
▁shopping	-10.6079
shed	-10.608
▁edward	-10.6085
silence	-10.61
und	-10.61
▁settled	-10.6105
▁comfortable	-10.6107
▁moo	-10.6111
voc	-10.6112
▁knowledge	-10.6118
▁fortune	-10.6118
▁clown	-10.6119
▁curious	-10.6121
ven	-10.6124
▁eli	-10.6129
ure	-10.6129
cher	-10.614
▁task	-10.6141
▁awards	-10.616
▁eighty	-10.6162
▁anxious	-10.6177
▁horsie	-10.618
▁pressure	-10.618
▁airplane	-10.6186
▁forever	-10.6192
▁doggie	-10.6198
▁jones	-10.6199
▁buddy	-10.62
▁nursery	-10.6204
▁wondering	-10.6211
▁elder	-10.6211
ged	-10.6212
▁shouted	-10.6218
▁smiled	-10.6223
▁response	-10.6223
filler	-10.6225
▁chan	-10.6226
▁sum	-10.6233
▁chap	-10.6237
▁rec	-10.6239
ux	-10.6241
▁separate	-10.6243
▁collect	-10.6244
▁chairman	-10.6244
▁boots	-10.6246
▁bathroom	-10.6247
phone	-10.6247
▁rub	-10.6252
▁bush	-10.6253
lk	-10.6257
▁carriage	-10.6261
▁shell	-10.6264
▁comfort	-10.6269
▁soup	-10.627
▁glance	-10.6272
▁mention	-10.6279
▁poo	-10.6283
▁forced	-10.6287
▁blame	-10.6289
▁services	-10.629
▁mile	-10.629
▁fairy	-10.6301
▁score	-10.6301
cle	-10.6302
▁biggest	-10.6305
▁han	-10.6318
▁proper	-10.6319
▁photograph	-10.6321
-19	-10.6322
▁yard	-10.6322
▁hammer	-10.633
▁col	-10.6336
ala	-10.6338
▁medical	-10.6341
▁palace	-10.6347
▁sport	-10.6347
▁cute	-10.6353
fl	-10.6355
▁media	-10.6362
ett	-10.6363
▁pencil	-10.6369
▁bal	-10.6372
lar	-10.6373
▁tough	-10.6375
▁forces	-10.6376
▁islands	-10.6376
was	-10.638
▁hanging	-10.6383
mr	-10.6393
▁waste	-10.6394
▁culture	-10.641
▁mag	-10.6412
▁trial	-10.6412
▁dada	-10.6415
▁photo	-10.6423
▁explained	-10.6423
ight	-10.6426
cho	-10.6433
▁mentioned	-10.6434
▁mirror	-10.6439
stone	-10.644
▁particularly	-10.6442
▁fairly	-10.6453
▁snap	-10.6454
▁upper	-10.6458
▁shook	-10.6458
bout	-10.6459
▁belong	-10.646
▁smiling	-10.6461
▁eaten	-10.6461
▁article	-10.6461
▁destroy	-10.6464
▁twin	-10.6465
town	-10.6472
▁eva	-10.6473
kat	-10.6476
▁ban	-10.6487
▁network	-10.649
rop	-10.6491
▁tractor	-10.6494
▁reply	-10.6497
mic	-10.6497
▁[3	-10.6502
▁yu	-10.6503
▁gentle	-10.6503
▁ph	-10.6509
▁cash	-10.6509
▁waited	-10.651
izing	-10.651
▁rings	-10.6522
▁jam	-10.6532
▁grandpa	-10.6538
lyn	-10.6539
ever	-10.6542
▁2005	-10.6543
ade	-10.6552
▁cases	-10.6554
▁birth	-10.6557
▁walls	-10.6559
▁included	-10.6561
▁powerful	-10.6565
▁developed	-10.6568
▁highest	-10.6589
ists	-10.6595
▁wha	-10.6597
yl	-10.66
▁pour	-10.6604
▁somewhat	-10.6607
▁duh	-10.6609
▁sweetie	-10.6613
▁pilot	-10.6613
▁faster	-10.6618
▁express	-10.663
▁wings	-10.6632
▁signed	-10.6635
▁studied	-10.6636
▁penny	-10.6642
▁amazing	-10.6643
▁cloud	-10.6643
ering	-10.6647
▁larger	-10.6654
▁40	-10.6656
▁holy	-10.6657
bri	-10.6658
cc	-10.666
▁2004	-10.6666
▁neighbor	-10.6671
▁stra	-10.6672
▁washing	-10.668
▁rad	-10.6681
▁flew	-10.6682
▁kinda	-10.6689
▁method	-10.6692
▁drama	-10.6694
▁jan	-10.6697
pp	-10.6699
▁passing	-10.67
▁clearly	-10.67
▁boom	-10.6702
▁owl	-10.6704
ena	-10.6707
lor	-10.6708
set	-10.6712
cept	-10.6714
air	-10.6714
▁avoid	-10.6718
▁faint	-10.6726
19	-10.6727
▁jar	-10.6736
▁expression	-10.6744
ae	-10.6753
illa	-10.6753
▁2001	-10.676
▁gang	-10.6761
wo	-10.6765
ara	-10.6773
▁dragon	-10.6774
▁pal	-10.6775
ef	-10.6776
tte	-10.6779
hal	-10.6783
▁afford	-10.6794
▁hearing	-10.6797
▁swa	-10.68
▁struggle	-10.6801
▁hung	-10.6803
▁beast	-10.6806
▁protest	-10.6806
▁firm	-10.6806
▁players	-10.6809
▁splash	-10.6811
▁tribe	-10.6812
ual	-10.6814
▁boats	-10.6823
fall	-10.6835
cus	-10.6839
]!	-10.6853
▁ships	-10.6854
▁properly	-10.6856
▁repeated	-10.6864
stra	-10.6873
▁reg	-10.6874
▁yay	-10.6875
▁fer	-10.6875
▁lara	-10.6884
▁gain	-10.6886
▁turtle	-10.6888
▁recording	-10.6889
▁cancer	-10.6894
▁railway	-10.6895
▁ted	-10.6905
▁hills	-10.6905
▁focus	-10.6914
▁justice	-10.6923
ino	-10.6932
hum	-10.6935
▁desire	-10.6937
ura	-10.6937
▁priest	-10.6939
▁florida	-10.6941
▁chicago	-10.6944
▁cl	-10.6951
▁russia	-10.696
▁skill	-10.696
▁scratch	-10.6968
▁strip	-10.6982
▁calls	-10.6983
put	-10.6987
18	-10.6987
tz	-10.6994
▁papers	-10.6999
▁madam	-10.6999
▁houses	-10.7005
hoo	-10.7012
▁library	-10.7015
tie	-10.7018
▁australian	-10.7018
▁1990	-10.7019
sure	-10.7024
▁companion	-10.7024
▁doin	-10.7025
▁damage	-10.7029
▁effort	-10.7031
bre	-10.7031
ray	-10.7032
▁temple	-10.704
▁weird	-10.7042
▁complain	-10.7046
▁doo	-10.7047
▁spare	-10.7049
▁nervous	-10.7063
▁average	-10.7066
▁organization	-10.7067
▁gal	-10.7072
▁shh	-10.7079
▁der	-10.7082
▁raise	-10.7088
gging	-10.7089
▁stands	-10.7092
▁acting	-10.7097
cla	-10.7099
▁gil	-10.7099
say	-10.7101
▁keys	-10.7101
▁related	-10.7107
▁elected	-10.7108
▁positive	-10.7111
ets	-10.7116
rah	-10.7119
cker	-10.7121
▁thrown	-10.7122
▁bend	-10.7126
▁grandmother	-10.7126
▁aid	-10.7126
▁baseball	-10.7135
aries	-10.7141
▁concerned	-10.7142
▁folks	-10.7143
about	-10.7149
▁lit	-10.715
▁philip	-10.7153
wn	-10.7158
will	-10.7161
▁hurried	-10.7162
▁property	-10.7168
ien	-10.7171
▁heads	-10.7172
▁latter	-10.7176
▁beg	-10.7177
ute	-10.718
▁emperor	-10.7183
▁alex	-10.7183
▁leaf	-10.7184
▁nap	-10.7184
▁disappeared	-10.7186
▁available	-10.7187
▁debut	-10.7198
▁wound	-10.7202
▁apartment	-10.7203
▁goal	-10.7206
▁peas	-10.7212
▁remarked	-10.7212
▁steve	-10.7217
▁sink	-10.7222
▁pushed	-10.7223
▁document	-10.7224
▁settle	-10.7225
▁african	-10.7232
▁scream	-10.724
▁cre	-10.7244
▁relative	-10.7245
▁understood	-10.7245
▁fre	-10.725
▁burst	-10.7255
▁vol	-10.7256
▁rear	-10.7259
▁tickle	-10.7263
▁grant	-10.7264
▁weekend	-10.727
▁request	-10.727
ign	-10.7273
▁garage	-10.7276
boy	-10.7277
▁char	-10.7277
ject	-10.7277
non	-10.7278
▁worst	-10.7284
▁bunch	-10.7288
shire	-10.7292
rm	-10.7295
▁fought	-10.7301
have	-10.7306
whispers	-10.7317
▁route	-10.732
▁function	-10.732
▁clap	-10.7321
▁sides	-10.7323
▁mummie	-10.7323
▁religion	-10.7325
▁detective	-10.7336
try	-10.7338
▁plastic	-10.734
tain	-10.7343
▁cooking	-10.7343
▁fond	-10.7347
▁jerry	-10.7347
▁structure	-10.7357
ann	-10.7362
▁knocked	-10.7368
▁economic	-10.7371
give	-10.7371
▁chuck	-10.7371
▁seriously	-10.7371
gy	-10.7374
▁magnet	-10.7377
▁fired	-10.7378
wing	-10.7378
▁soviet	-10.7378
▁shooting	-10.7381
▁comb	-10.7381
ration	-10.7383
▁fishing	-10.7385
▁print	-10.739
▁dam	-10.7392
roz	-10.7392
▁wagon	-10.7392
▁drove	-10.7396
▁policy	-10.7399
▁noble	-10.7401
nel	-10.7413
▁competition	-10.742
ctor	-10.7424
▁merry	-10.7428
▁coal	-10.7431
▁ellie	-10.7432
▁independent	-10.7438
▁butterfly	-10.7442
mmer	-10.7444
▁cru	-10.7448
▁sigh	-10.7448
▁darkness	-10.7449
▁failed	-10.7452
ese	-10.7459
▁len	-10.746
▁create	-10.7462
▁remembered	-10.7476
▁throwing	-10.7476
▁q	-10.7477
▁los	-10.7477
ada	-10.7478
▁advantage	-10.7484
▁kat	-10.7485
▁theory	-10.7485
▁aware	-10.7496
▁jimmy	-10.7504
▁quit	-10.751
▁peanut	-10.7516
uc	-10.7516
▁drawn	-10.752
▁tommy	-10.7521
▁gently	-10.7523
▁puppy	-10.7523
▁prayer	-10.7525
▁pole	-10.7526
▁indians	-10.7526
▁previous	-10.7529
▁dere	-10.7531
▁wished	-10.7532
▁31	-10.7539
ula	-10.7556
▁plus	-10.7558
▁sweetheart	-10.7559
▁rev	-10.756
▁witch	-10.7565
▁steam	-10.757
▁ideas	-10.7574
▁friendly	-10.7578
▁exp	-10.758
rum	-10.758
thank	-10.7584
▁throughout	-10.7602
ini	-10.7609
▁temperature	-10.7613
▁freedom	-10.7613
▁unit	-10.7618
ised	-10.7619
▁delight	-10.7625
▁staying	-10.7629
ola	-10.763
▁mud	-10.7633
▁fully	-10.7634
▁tax	-10.7634
eth	-10.7637
▁bark	-10.7641
▁grey	-10.7646
▁mayor	-10.7651
▁dun	-10.7652
▁traffic	-10.7653
▁cheap	-10.7654
▁campaign	-10.7656
▁active	-10.7661
ched	-10.7662
▁review	-10.7669
▁1980	-10.7671
water	-10.768
▁courage	-10.7689
▁image	-10.7693
▁steal	-10.7694
istic	-10.7696
▁bullet	-10.7702
sol	-10.7702
▁dec	-10.7706
▁somehow	-10.7707
chan	-10.7712
▁hunting	-10.7715
▁cheer	-10.7715
art	-10.7726
▁types	-10.7727
▁mexico	-10.7732
▁smooth	-10.7732
▁tied	-10.7739
▁statistics	-10.774
ew	-10.774
▁degree	-10.7751
hold	-10.7753
▁benefit	-10.7754
ell	-10.7757
▁activity	-10.7758
▁2003	-10.7759
roll	-10.776
▁pale	-10.776
▁nana	-10.7767
▁aft	-10.7769
▁prefer	-10.7771
ddle	-10.7778
▁drum	-10.778
▁elizabeth	-10.778
dar	-10.7782
ect	-10.7785
▁familiar	-10.7787
▁entirely	-10.7789
▁hockey	-10.7791
▁¶	-10.7793
lie	-10.7799
"]	-10.7799
pet	-10.78
▁advice	-10.7802
▁hidden	-10.7802
▁mixed	-10.7803
▁ahhah	-10.7806
▁shark	-10.7811
▁nail	-10.7812
▁hut	-10.7817
▁daniel	-10.7821
▁buried	-10.7824
▁grandfather	-10.7828
▁quack	-10.783
▁screen	-10.7834
▁turkey	-10.7835
▁tale	-10.7837
ick	-10.7842
▁split	-10.7848
his	-10.7851
▁fold	-10.7851
▁jacket	-10.7853
▁sposta	-10.7854
▁vehicle	-10.7857
uring	-10.7857
▁hell	-10.7861
▁shower	-10.7864
▁gosh	-10.7865
fish	-10.787
▁regard	-10.7871
▁candle	-10.7881
▁admit	-10.7881
▁candy	-10.7883
▁whistle	-10.7889
▁canadian	-10.7894
▁tend	-10.7902
▁presence	-10.7905
▁becoming	-10.7913
▁pulling	-10.7914
▁totally	-10.7916
fu	-10.7917
sey	-10.7927
▁data	-10.793
▁majesty	-10.7935
▁sul	-10.7935
▁feelings	-10.7935
▁disc	-10.7938
cent	-10.794
▁plum	-10.7941
▁caterpillar	-10.7946
▁sang	-10.7955
▁boxes	-10.7956
▁pur	-10.7958
▁adventure	-10.7959
▁deer	-10.796
▁eric	-10.7962
▁touched	-10.797
cli	-10.797
▁brian	-10.7971
mad	-10.798
▁currently	-10.7981
▁ireland	-10.7982
▁branch	-10.7982
▁desert	-10.7983
▁2002	-10.7985
▁dying	-10.7986
▁determined	-10.7987
star	-10.7988
ib	-10.7994
▁troops	-10.7996
▁chemical	-10.7998
your	-10.7998
▁realized	-10.8
▁reported	-10.8002
rated	-10.8004
▁matt	-10.8006
▁seal	-10.8008
▁rice	-10.801
long	-10.8016
▁var	-10.8024
▁scotland	-10.8024
▁pond	-10.8026
▁jumping	-10.8029
▁thunder	-10.8033
▁handsome	-10.8033
▁chat	-10.8035
▁madame	-10.8036
▁net	-10.8045
▁knowing	-10.8047
name	-10.8047
▁latin	-10.8051
gin	-10.8061
▁yummy	-10.8063
▁arthur	-10.807
▁student	-10.8071
21	-10.8073
▁dia	-10.8074
lies	-10.8077
▁families	-10.8077
▁fra	-10.808
▁zzz	-10.8085
▁trap	-10.8089
▁socks	-10.8093
▁repeat	-10.8095
ister	-10.8111
▁whi	-10.8117
▁labour	-10.8127
▁woo	-10.8133
ä	-10.8134
▁shame	-10.8134
elle	-10.8136
▁electric	-10.8141
▁poet	-10.815
▁pages	-10.8152
▁instant	-10.8153
sign	-10.8154
▁cough	-10.8159
▁languages	-10.8161
▁rap	-10.8167
▁described	-10.8168
▁faces	-10.8168
▁reckon	-10.8172
▁recently	-10.8173
▁volume	-10.8176
sound	-10.8177
gle	-10.8178
▁teams	-10.8184
▁uses	-10.8192
▁excitement	-10.8195
spir	-10.8202
ock	-10.8204
▁tur	-10.8205
▁cutting	-10.8207
▁dem	-10.8209
father	-10.8211
▁wag	-10.8212
▁exercise	-10.8214
▁fifth	-10.8218
▁locked	-10.8219
pen	-10.8227
▁interview	-10.8227
▁stones	-10.8227
stand	-10.823
▁buzz	-10.823
▁alien	-10.8232
▁representative	-10.8233
▁height	-10.8237
▁cookies	-10.8242
cul	-10.8246
▁paying	-10.8246
▁sc	-10.8247
▁chamber	-10.8249
▁matches	-10.8253
▁produce	-10.8254
dia	-10.8257
▁doors	-10.8263
pos	-10.8265
thing	-10.8269
sur	-10.8276
pit	-10.8281
tail	-10.8286
▁experiment	-10.8291
▁seventy	-10.8293
▁km	-10.8296
▁knees	-10.8297
▁sar	-10.83
▁issue	-10.8305
▁crayons	-10.8305
▁shoulders	-10.8307
▁gay	-10.8309
▁pointing	-10.8313
▁dunno	-10.8317
▁fail	-10.8317
▁sheet	-10.8325
zy	-10.8326
▁root	-10.8327
▁relax	-10.8329
▁doggy	-10.8332
iz	-10.8333
▁pony	-10.8335
▁ee	-10.8351
▁legal	-10.8359
▁picking	-10.8367
▁wore	-10.8368
bury	-10.837
▁aside	-10.8374
▁whenever	-10.8374
▁increase	-10.8374
▁critic	-10.8378
▁instrument	-10.838
▁duke	-10.8383
cut	-10.8387
▁iii	-10.8388
▁evidently	-10.8389
▁aim	-10.8391
▁rob	-10.8393
▁catholic	-10.8395
tell	-10.8399
▁fund	-10.84
▁bone	-10.841
▁appreciate	-10.8411
▁arrest	-10.8419
▁trace	-10.8419
▁festival	-10.8422
▁irish	-10.8423
▁gathered	-10.843
▁pointed	-10.843
▁byebye	-10.8432
▁normally	-10.8432
▁bid	-10.8434
▁deliver	-10.8434
▁2,	-10.8437
▁icecream	-10.8438
▁chu	-10.8441
▁waves	-10.8445
▁develop	-10.8448
▁rifle	-10.845
▁eighteen	-10.8451
▁authority	-10.846
▁postman	-10.8466
▁physical	-10.8473
▁xi	-10.8485
▁slightly	-10.8486
▁maid	-10.8488
▁cy	-10.8488
▁nan	-10.8491
▁progress	-10.8493
▁mount	-10.8498
▁planning	-10.8507
▁drunk	-10.8508
▁target	-10.8509
▁pooh	-10.8513
▁industry	-10.8521
25	-10.8522
▁wooden	-10.8525
▁access	-10.8529
▁0	-10.853
vocalize	-10.8531
▁belt	-10.8532
▁climate	-10.8532
▁jimmie	-10.8533
▁lies	-10.8537
▁sho	-10.8539
▁spec	-10.8545
▁ren	-10.8549
serv	-10.8555
▁interrupt	-10.8557
▁shelter	-10.856
▁dish	-10.8564
▁breaking	-10.8566
▁advance	-10.8571
ami	-10.8571
▁approach	-10.8574
▁demand	-10.8576
▁opera	-10.8579
▁sausage	-10.858
▁rolling	-10.858
mond	-10.8582
▁musical	-10.8582
▁drops	-10.8584
even	-10.8588
▁stretch	-10.8592
▁eu	-10.8592
▁characters	-10.8595
▁diamond	-10.8596
▁boston	-10.8597
▁boil	-10.8598
▁wil	-10.8603
▁eager	-10.8608
▁statement	-10.8612
▁jigsaw	-10.8616
▁includes	-10.8616
▁bun	-10.862
▁gee	-10.862
▁lack	-10.8622
▁loves	-10.8624
▁ash	-10.8637
▁wing	-10.8639
qua	-10.8647
▁dreams	-10.8649
rog	-10.8653
hen	-10.8658
▁cock	-10.8662
▁sticker	-10.8662
▁objects	-10.8668
gn	-10.8672
▁queer	-10.8672
▁sixteen	-10.8675
▁observed	-10.8682
ington	-10.8687
▁albert	-10.8694
▁nation	-10.8695
▁lisa	-10.8697
▁figures	-10.8699
▁eve	-10.8701
aunt	-10.8701
ace	-10.8719
▁cliff	-10.872
▁whee	-10.872
▁learning	-10.8721
▁federal	-10.8724
▁nina	-10.8724
▁tender	-10.8726
lay	-10.8727
▁eventually	-10.8732
▁slept	-10.8732
▁transport	-10.8734
pin	-10.8737
▁scrap	-10.8738
▁lamp	-10.8739
▁brook	-10.874
wait	-10.8744
▁kinds	-10.8751
▁burning	-10.8757
oy	-10.8767
▁congress	-10.8768
▁cruel	-10.8771
▁tunnel	-10.8772
▁piano	-10.8772
▁stack	-10.8782
▁scientists	-10.8791
▁polly	-10.8795
▁fleet	-10.8797
bed	-10.8797
▁lane	-10.8797
▁purse	-10.8799
▁recorder	-10.8804
tel	-10.8805
fra	-10.8807
▁exchange	-10.8809
▁useful	-10.8811
▁pear	-10.8811
▁spite	-10.8812
gate	-10.8818
▁victory	-10.8822
▁companies	-10.8825
▁passage	-10.8825
▁yards	-10.883
▁semi	-10.8832
may	-10.8832
▁organ	-10.8833
▁matters	-10.8839
▁conference	-10.8841
sung	-10.8845
pha	-10.8845
▁deserve	-10.8846
cor	-10.8846
▁destroyed	-10.8846
▁rent	-10.8847
▁origin	-10.8848
iff	-10.8849
▁consist	-10.8854
▁scarcely	-10.8856
▁severe	-10.8858
▁swear	-10.8862
dan	-10.8862
▁chew	-10.8863
▁1970	-10.8874
▁pillow	-10.8878
▁lou	-10.8881
▁canoe	-10.8882
cra	-10.8883
▁cats	-10.8885
mbled	-10.8886
▁recorded	-10.8894
▁arab	-10.8894
▁unknown	-10.8896
▁angeles	-10.89
▁beneath	-10.8902
▁bloody	-10.8904
▁wounded	-10.8905
▁feels	-10.8909
▁mainly	-10.8911
▁lil	-10.8913
▁tick	-10.8915
▁originally	-10.8918
▁custom	-10.8921
▁arrow	-10.8924
▁bucket	-10.8926
▁tuesday	-10.8927
turns	-10.8931
▁racing	-10.8937
pre	-10.8938
▁wondered	-10.8939
▁scale	-10.8941
▁yell	-10.8944
del	-10.8944
▁dorothy	-10.8947
▁sits	-10.8951
▁established	-10.8955
▁owe	-10.8957
▁fourteen	-10.896
▁soap	-10.896
▁link	-10.896
▁listened	-10.8965
▁effects	-10.8969
▁stamp	-10.8969
▁clouds	-10.897
▁stepped	-10.8978
▁pants	-10.898
▁pity	-10.8982
ila	-10.8988
▁robin	-10.8991
▁creature	-10.8992
▁seek	-10.8998
▁democratic	-10.9002
▁plot	-10.9005
▁features	-10.9007
▁spoil	-10.901
▁rail	-10.9015
▁discuss	-10.9015
▁potato	-10.9016
▁prisoners	-10.9018
▁brief	-10.9019
▁bodies	-10.9022
lock	-10.9024
▁craft	-10.9025
▁restaurant	-10.9026
any	-10.9034
▁speaker	-10.904
40	-10.9043
▁weapons	-10.9044
most	-10.9044
▁earn	-10.9046
▁symbol	-10.9049
▁borrow	-10.9055
▁stomach	-10.9063
making	-10.9071
▁fireman	-10.9075
▁collection	-10.9077
▁cricket	-10.908
gre	-10.9085
▁2023	-10.9085
▁describe	-10.9089
▁tha	-10.909
▁rapidly	-10.9094
nia	-10.9094
▁settlement	-10.9094
▁gre	-10.9112
▁folk	-10.9116
▁proved	-10.9118
▁hor	-10.9121
▁giraffe	-10.9122
▁lifted	-10.9124
▁underneath	-10.9126
▁switzerland	-10.913
▁guest	-10.9135
▁comedy	-10.914
loud	-10.9141
▁auntie	-10.9144
▁enjoyed	-10.9145
▁walter	-10.9146
▁reasons	-10.9149
▁lonely	-10.9159
▁spi	-10.9161
▁legend	-10.9161
▁engaged	-10.9165
bbing	-10.9166
▁guilty	-10.9167
music	-10.917
▁performed	-10.9173
▁fate	-10.9174
▁challenge	-10.9176
▁prisoner	-10.9181
▁click	-10.9183
▁exciting	-10.9185
▁counter	-10.919
▁woof	-10.9194
▁drug	-10.9197
zar	-10.9198
▁discover	-10.9209
▁gru	-10.9209
▁steady	-10.9214
▁horrible	-10.9218
▁thursday	-10.9218
▁unusual	-10.9218
60	-10.9222
▁responsible	-10.9223
▁warning	-10.9229
▁invited	-10.923
▁removed	-10.9234
▁steel	-10.9238
▁tear	-10.9242
▁whisper	-10.9243
▁habit	-10.9243
▁oliver	-10.9245
▁lucy	-10.9246
py	-10.9246
▁producer	-10.9247
▁recognize	-10.9253
▁couch	-10.9255
▁peep	-10.926
ection	-10.9263
▁pakistan	-10.9265
▁picnic	-10.927
▁owned	-10.927
▁polish	-10.9271
ked	-10.9271
mber	-10.9274
awa	-10.9275
▁exc	-10.9275
gon	-10.9276
▁senior	-10.9278
▁beans	-10.9281
▁divided	-10.9286
▁peggy	-10.9287
▁suspect	-10.9289
▁cage	-10.9293
bus	-10.9293
▁delicious	-10.9295
▁nearer	-10.9297
▁uniform	-10.9299
rich	-10.93
▁remove	-10.9322
▁pitch	-10.9326
▁delay	-10.9329
▁britain	-10.933
▁hen	-10.9335
▁ordinary	-10.9338
▁comrade	-10.9342
▁religious	-10.9342
▁fed	-10.9348
▁concert	-10.9359
▁mighty	-10.9368
▁1960	-10.9373
▁mont	-10.9377
▁bent	-10.9377
▁dawn	-10.9378
▁truly	-10.9382
▁bless	-10.9393
coughs	-10.9394
▁incident	-10.9398
▁shift	-10.9406
▁poison	-10.9407
▁pad	-10.9409
▁pure	-10.941
▁din	-10.9417
▁threat	-10.9419
▁sergeant	-10.9419
▁rode	-10.942
giggles	-10.9422
▁losing	-10.9423
▁jail	-10.9429
ava	-10.9433
ense	-10.9437
▁kidding	-10.9444
▁remark	-10.9445
▁closely	-10.9449
▁client	-10.945
▁difficulty	-10.9452
▁location	-10.9458
▁innocent	-10.9458
▁1999	-10.9463
▁circus	-10.9467
zu	-10.947
▁chop	-10.9475
▁brick	-10.9476
▁forms	-10.9481
▁maria	-10.9483
⌋	-10.9484
▁zealand	-10.9484
▁frame	-10.9486
▁hunter	-10.9487
pointing	-10.9491
▁relief	-10.9493
ency	-10.9494
▁curtain	-10.9497
▁vice	-10.9501
holds	-10.9501
▁hol	-10.9502
▁woke	-10.9502
ram	-10.9505
▁alexander	-10.951
▁jelly	-10.951
▁teaching	-10.9514
▁cups	-10.9517
az	-10.9524
▁donald	-10.9525
▁susan	-10.9525
mark	-10.9526
▁stroke	-10.9527
▁supply	-10.9541
▁pulls	-10.9548
▁entrance	-10.9549
▁regret	-10.955
tom	-10.9555
▁winner	-10.9558
▁pill	-10.9559
▁wednesday	-10.9563
▁temp	-10.9565
▁treatment	-10.9565
fire	-10.9565
▁voices	-10.9566
▁bones	-10.9567
▁becky	-10.9567
▁cent	-10.9569
ban	-10.9574
▁winning	-10.9574
▁bishop	-10.9576
▁sally	-10.9582
rous	-10.9582
▁chips	-10.9583
▁trains	-10.9588
▁competed	-10.9595
▁nicole	-10.9598
▁fields	-10.9599
▁washed	-10.9602
rick	-10.9615
▁spark	-10.9616
▁jenny	-10.9629
▁bou	-10.9632
round	-10.964
▁witness	-10.9641
▁badly	-10.9643
pose	-10.9649
▁rip	-10.9655
▁florence	-10.966
▁results	-10.9677
▁landed	-10.9681
▁junior	-10.9681
mine	-10.9687
dog	-10.9687
five	-10.9688
ole	-10.9689
▁mmm	-10.9694
▁hoping	-10.9706
▁generation	-10.9717
▁sweep	-10.9721
▁firstname	-10.9725
▁bricks	-10.9731
cious	-10.9737
▁relation	-10.9739
▁slipped	-10.974
▁revolution	-10.9743
ates	-10.9744
table	-10.9759
▁1996	-10.9762
▁shouting	-10.9764
▁cher	-10.9766
▁changing	-10.9766
▁policeman	-10.9768
▁2020,	-10.9769
▁occur	-10.977
▁[4	-10.9772
▁fork	-10.9774
▁conf	-10.9775
▁killing	-10.9777
▁quality	-10.9779
▁pitcher	-10.978
ella	-10.9782
ó	-10.9782
▁treated	-10.9783
▁lorry	-10.979
▁lesson	-10.9791
▁daily	-10.9792
▁balance	-10.9794
cal	-10.9794
▁flo	-10.9795
▁branches	-10.9795
▁greatly	-10.9795
▁programme	-10.9802
▁1992	-10.9807
kf	-10.9811
▁sim	-10.9814
▁thirteen	-10.9815
ctu	-10.9818
▁pine	-10.9819
▁gene	-10.9823
95	-10.9826
▁nik	-10.9827
▁limit	-10.9833
lou	-10.9837
▁caroline	-10.9838
▁setting	-10.9839
▁flu	-10.984
è	-10.9843
ane	-10.9844
gger	-10.9845
▁circumstances	-10.985
▁perform	-10.9851
▁consul	-10.9857
▁mari	-10.9858
▁andrew	-10.9858
▁buildings	-10.9858
▁nancy	-10.9861
▁pattern	-10.9865
▁toilet	-10.9865
▁temper	-10.9871
ians	-10.9877
var	-10.9879
form	-10.9887
mus	-10.9888
▁mustn	-10.9891
▁proof	-10.9896
▁sno	-10.9897
▁marie	-10.9898
▁keen	-10.9899
▁bitter	-10.9904
▁streets	-10.9905
bell	-10.991
▁desperate	-10.9914
▁rum	-10.9917
▁sisters	-10.9922
▁uk	-10.9923
iness	-10.9924
▁bond	-10.9927
▁concern	-10.9932
▁planned	-10.9935
ani	-10.9937
▁accepted	-10.9942
▁1998	-10.9947
▁tidy	-10.9954
▁happiness	-10.996
▁eddie	-10.9961
▁syn	-10.9963
▁refused	-10.9965
▁hoo	-10.997
▁universe	-10.9973
▁sid	-10.9978
▁solid	-10.998
01	-10.9985
net	-10.9985
▁jackson	-10.9985
▁annie	-10.9996
▁broadcast	-10.9996
án	-11.0001
▁expensive	-11.0001
ré	-11.0001
mhm	-11.0001
▁ruin	-11.0004
▁chosen	-11.0004
▁creek	-11.001
▁auto	-11.0013
▁affairs	-11.0015
ō	-11.0019
▁rushed	-11.0022
▁kr	-11.0022
ero	-11.0022
ili	-11.0024
▁oak	-11.0026
eva	-11.0026
▁blo	-11.0027
▁farther	-11.0028
lum	-11.0031
▁minor	-11.0033
▁sw	-11.0033
▁hur	-11.0034
▁upside	-11.0034
▁chum	-11.0036
foot	-11.0043
dale	-11.0043
▁pride	-11.0047
▁flip	-11.0047
▁connection	-11.005
ei	-11.0051
▁tire	-11.0052
▁lover	-11.0055
lus	-11.0056
▁holes	-11.0058
▁weapon	-11.0058
▁parties	-11.0061
`	-11.0064
▁flame	-11.0066
▁captured	-11.0066
boat	-11.0066
ization	-11.0072
stein	-11.0074
ically	-11.0075
cur	-11.0081
aka	-11.0081
▁ji	-11.0082
boo	-11.0084
▁introduced	-11.0087
ale	-11.0096
▁crocodile	-11.0097
▁clip	-11.0102
▁favour	-11.011
▁molly	-11.0112
bird	-11.0115
oli	-11.0118
▁1995	-11.0126
▁depend	-11.0128
▁etc	-11.0128
▁matthew	-11.013
tti	-11.013
▁devil	-11.0139
sky	-11.0141
nina	-11.0142
fic	-11.0143
ima	-11.0145
▁replaced	-11.0145
▁beer	-11.0146
▁principal	-11.0148
vol	-11.0152
ening	-11.0153
▁required	-11.0158
▁kar	-11.0159
▁clay	-11.0166
▁trousers	-11.0167
▁marks	-11.0167
▁frogs	-11.0168
▁brazil	-11.017
▁dee	-11.0171
▁display	-11.0182
▁engineer	-11.0184
▁savage	-11.0186
▁distinct	-11.0195
▁climbing	-11.0196
▁arrive	-11.0196
▁actual	-11.0198
▁1994	-11.0205
▁escaped	-11.0206
▁territory	-11.0209
voice	-11.0214
qu	-11.0219
▁$1	-11.0219
▁satisfied	-11.0224
▁whale	-11.0225
▁criminal	-11.0227
▁indicate	-11.023
▁studies	-11.0232
ously	-11.0234
▁becomes	-11.0239
eh	-11.0244
ear	-11.0247
▁egypt	-11.0248
turn	-11.0248
▁scary	-11.0249
▁platform	-11.0251
▁intended	-11.0254
▁cab	-11.0258
▁thousands	-11.0261
▁bears	-11.0267
▁tummy	-11.0269
▁recognized	-11.0273
▁stable	-11.0274
eu	-11.0275
22	-11.0276
▁pepper	-11.028
99	-11.028
nation	-11.0283
▁tropical	-11.0288
▁cooper	-11.0289
hel	-11.0291
▁dishes	-11.0291
▁screw	-11.0293
▁audience	-11.0302
▁wh	-11.0303
two	-11.0307
▁clo	-11.0311
▁pee	-11.0318
▁splendid	-11.0321
▁device	-11.0321
▁wand	-11.0322
▁virginia	-11.0328
▁mil	-11.0329
shouts	-11.0329
▁pas	-11.0346
▁daisy	-11.035
which	-11.0354
37	-11.0362
▁(;	-11.0367
▁qui	-11.0367
▁punch	-11.0374
▁patsy	-11.0379
▁dim	-11.0381
▁sara	-11.0385
▁saving	-11.0391
dies	-11.0394
▁danny	-11.0396
break	-11.0398
▁attacked	-11.0398
ification	-11.0402
▁instance	-11.0402
▁altogether	-11.0407
ano	-11.0408
▁armed	-11.0413
▁dolls	-11.0414
uri	-11.0415
▁powder	-11.0416
▁arrested	-11.0421
een	-11.0421
▁oven	-11.0422
▁killer	-11.0426
▁disappear	-11.0431
▁drugs	-11.0434
▁traditional	-11.0434
ability	-11.0435
▁ticket	-11.044
80	-11.0441
▁belongs	-11.0451
▁affair	-11.0454
▁laws	-11.0454
▁sooner	-11.0457
▁2020)	-11.0463
tim	-11.0463
ida	-11.0464
mann	-11.0464
▁provided	-11.0464
▁hasta	-11.0466
▁addition	-11.0468
▁basically	-11.0469
▁cub	-11.047
▁customer	-11.047
▁rare	-11.0471
47	-11.0472
▁rolled	-11.0473
▁sto	-11.0477
▁tune	-11.0482
▁household	-11.0483
▁eagerly	-11.0488
23	-11.049
▁dy	-11.0493
▁crossed	-11.0493
▁coll	-11.0494
▁stole	-11.0496
▁dreadful	-11.0496
▁technology	-11.0497
▁aah	-11.0507
▁footnote	-11.051
ata	-11.0512
▁pushing	-11.0516
▁hoped	-11.0517
new	-11.052
▁lads	-11.0521
▁squ	-11.0523
▁shining	-11.0526
key	-11.0527
▁demanded	-11.0531
▁penguin	-11.0531
▁tam	-11.0535
▁gained	-11.0536
▁obey	-11.0536
▁1997	-11.0537
▁possession	-11.0538
actually	-11.0545
▁cottage	-11.055
▁stern	-11.0554
▁stir	-11.0556
▁mistress	-11.056
▁rachel	-11.056
▁fuss	-11.0563
▁wealth	-11.0565
vent	-11.0568
▁baba	-11.0568
▁conditions	-11.0569
▁connected	-11.0569
ben	-11.0573
▁sorrow	-11.0575
▁slave	-11.0576
ache	-11.0578
▁bounce	-11.0578
▁mickey	-11.058
▁delighted	-11.0582
▁reaction	-11.0585
▁spy	-11.059
▁lessons	-11.059
yn	-11.0593
▁flood	-11.0595
▁assistant	-11.0595
▁ouch	-11.0596
▁belief	-11.0599
▁cheerful	-11.0603
▁que	-11.0603
▁palm	-11.0604
▁entertainment	-11.061
▁notes	-11.0613
mont	-11.0614
▁emergency	-11.0618
▁signs	-11.0627
▁pumpkin	-11.0629
▁parish	-11.0633
lp	-11.0639
▁designed	-11.0642
▁appointed	-11.0643
▁enemies	-11.0648
▁wrestling	-11.0648
▁spr	-11.0649
ique	-11.0652
▁occurred	-11.0653
▁selected	-11.0653
▁peekaboo	-11.0657
▁useta	-11.0665
▁rocket	-11.067
walk	-11.0671
▁contest	-11.0672
▁navy	-11.0674
▁laughter	-11.0675
nar	-11.0678
▁suffering	-11.0679
▁assembly	-11.0682
▁protection	-11.0687
▁climbed	-11.069
▁grin	-11.0696
▁wrap	-11.0699
eat	-11.0707
▁rick	-11.071
▁cass	-11.0712
playing	-11.0715
▁remains	-11.0715
▁sending	-11.0719
▁sexual	-11.0727
▁margaret	-11.0731
▁squirrel	-11.0731
▁sunshine	-11.0731
babble	-11.0731
▁johnny	-11.0735
▁coin	-11.0737
▁clark	-11.0738
▁sca	-11.0738
involuntary	-11.0741
cer	-11.0747
▁carpet	-11.0747
▁[$	-11.075
▁scheme	-11.0756
▁dude	-11.0757
▁kit	-11.0759
▁sale	-11.076
▁bold	-11.0774
▁barbara	-11.0775
▁gla	-11.0776
▁sacrifice	-11.0785
▁ox	-11.0788
02	-11.0789
▁oldest	-11.0796
pla	-11.0797
▁comic	-11.08
▁reference	-11.0801
▁georgia	-11.0802
ox	-11.0802
▁60	-11.0803
▁extremely	-11.0803
▁selling	-11.0806
▁basketball	-11.0815
▁straw	-11.0818
▁chip	-11.0819
cia	-11.0819
▁description	-11.082
gun	-11.0821
load	-11.0822
▁mood	-11.0827
⌉	-11.0837
hood	-11.0837
ato	-11.084
▁bags	-11.0845
▁shan	-11.0846
▁workers	-11.0847
▁sticks	-11.085
▁leap	-11.0851
▁hawk	-11.0856
▁dave	-11.0861
▁tissue	-11.0864
▁increased	-11.0866
▁gotten	-11.0867
▁ambulance	-11.0869
▁harder	-11.087
▁failure	-11.087
▁bible	-11.0873
▁appears	-11.0878
▁ringing	-11.0878
▁mask	-11.088
nal	-11.0883
▁squeeze	-11.0884
▁appeal	-11.0889
▁praise	-11.0897
▁melt	-11.0902
bon	-11.0904
▁seated	-11.0912
▁grim	-11.0914
yeah	-11.0915
bur	-11.0915
bit	-11.0918
poli	-11.0918
▁cows	-11.0925
▁sandy	-11.0931
▁jess	-11.0936
▁ol	-11.0938
▁fierce	-11.094
▁1991	-11.0945
▁reward	-11.0945
oma	-11.0946
▁recent	-11.095
▁victor	-11.0955
▁factor	-11.096
▁1988	-11.0961
▁rattle	-11.0962
▁guests	-11.0966
▁drawer	-11.0966
09	-11.0972
▁distributed	-11.098
▁breast	-11.098
▁watches	-11.0984
▁ly	-11.0984
98	-11.0987
hor	-11.0993
▁swallow	-11.0995
▁commission	-11.0997
▁mystery	-11.1
▁bel	-11.1003
▁distant	-11.1005
▁qu	-11.1007
▁repair	-11.1011
▁potatoes	-11.1017
▁warren	-11.102
▁ker	-11.1023
▁tru	-11.1024
▁systems	-11.1024
▁details	-11.1029
avi	-11.1032
97	-11.1032
▁kindly	-11.1035
▁strawberry	-11.1035
96	-11.1037
▁argument	-11.104
▁confidence	-11.104
▁suffered	-11.1043
▁arch	-11.1043
▁kitten	-11.1046
▁commercial	-11.1051
▁mabel	-11.1051
90	-11.1052
▁jealous	-11.1056
▁recover	-11.1059
▁theatre	-11.1061
66	-11.1064
▁adventures	-11.1069
▁grateful	-11.1076
00,000	-11.1076
▁detail	-11.1077
▁williams	-11.1077
lish	-11.1078
▁passengers	-11.108
▁candidate	-11.1081
▁nations	-11.1082
▁arranged	-11.1085
▁complex	-11.1086
bin	-11.1088
▁peak	-11.1095
ati	-11.1097
▁rapid	-11.1097
▁kate	-11.1097
▁nerve	-11.1102
▁worm	-11.1102
06	-11.1105
ggle	-11.1109
▁asia	-11.1112
▁musician	-11.1114
tv	-11.1122
▁tournament	-11.1122
48	-11.1124
▁wales	-11.1124
▁jason	-11.1127
▁warrior	-11.1127
▁venture	-11.1128
▁highly	-11.1129
▁burned	-11.1131
▁suffer	-11.1133
cro	-11.1134
▁cents	-11.1136
after	-11.1136
▁disney	-11.1137
body	-11.1137
86	-11.1141
▁sufficient	-11.1148
face	-11.1148
▁estate	-11.1157
▁reserve	-11.1164
▁gran	-11.117
▁hadta	-11.1171
▁equipment	-11.1173
▁blowing	-11.1174
under	-11.1174
aun	-11.1182
▁false	-11.1183
▁sweden	-11.1183
89	-11.1195
▁spa	-11.12
▁rude	-11.1203
▁intention	-11.1204
ira	-11.1208
▁unlike	-11.1213
▁kin	-11.1215
▁ding	-11.1215
▁nat	-11.1215
moves	-11.1218
04	-11.1225
▁prepare	-11.1226
▁grade	-11.1242
▁marked	-11.1244
▁landing	-11.1247
wh	-11.1248
▁operate	-11.1248
▁julie	-11.1251
rap	-11.1251
▁whit	-11.1253
▁grasp	-11.1254
▁fever	-11.1261
ison	-11.1263
▁rang	-11.1264
▁chess	-11.1266
▁driven	-11.1268
open	-11.1274
}	-11.1276
▁strain	-11.1283
dio	-11.1284
▁secure	-11.1285
▁buying	-11.1286
▁buttons	-11.1289
▁sneak	-11.1292
▁cries	-11.1293
▁multi	-11.1293
ffe	-11.1301
07	-11.1303
▁grapes	-11.1309
▁austria	-11.1316
▁celebrate	-11.1318
▁bern	-11.1321
▁weigh	-11.1324
▁slight	-11.1332
▁institute	-11.1334
▁register	-11.1334
24	-11.1334
▁jen	-11.1336
▁sm	-11.1337
▁painted	-11.1339
▁scare	-11.1341
▁kissed	-11.1342
▁labor	-11.1344
▁lt	-11.1345
▁worn	-11.135
▁precious	-11.1356
tha	-11.1356
yan	-11.1356
▁encourage	-11.1365
▁muscle	-11.1371
▁raining	-11.1373
▁boot	-11.1375
▁thrill	-11.1376
▁arts	-11.138
ú	-11.1381
▁spaghetti	-11.1386
▁louise	-11.139
▁sil	-11.1392
▁anchor	-11.1392
▁lang	-11.1393
▁awww	-11.1396
▁unable	-11.1398
▁jungle	-11.1399
▁bare	-11.1401
▁horror	-11.1402
▁cereal	-11.1402
only	-11.1403
▁simon	-11.1408
▁confess	-11.1415
▁dub	-11.1416
▁arrangement	-11.1419
thy	-11.1422
▁financial	-11.1423
▁lately	-11.1427
92	-11.1429
▁tracks	-11.1433
ene	-11.1434
▁construction	-11.1435
hur	-11.1437
▁breathing	-11.1438
▁sofa	-11.1438
▁whoo	-11.1454
ulate	-11.1455
▁naturally	-11.1457
shakes	-11.1457
▁tools	-11.1459
▁terror	-11.1459
▁poorly	-11.1461
▁ryan	-11.1461
▁stronger	-11.1465
app	-11.1466
ich	-11.147
▁wander	-11.1474
wan	-11.1475
▁granddad	-11.1476
▁lodge	-11.1478
▁silk	-11.1483
overlap	-11.1488
▁despite	-11.1492
▁sylvia	-11.1492
▁anger	-11.1499
▁parent	-11.1499
▁chose	-11.1501
▁permission	-11.1503
▁somethin	-11.1504
▁element	-11.1504
▁[5	-11.1507
master	-11.1509
▁cord	-11.1511
▁nah	-11.1513
▁roles	-11.1516
▁tramp	-11.1517
▁gina	-11.1518
▁helicopter	-11.1518
▁reign	-11.1524
▁mol	-11.1525
▁crisp	-11.1526
▁ugh	-11.1528
▁canton	-11.153
▁backwards	-11.153
▁acid	-11.1536
▁1993	-11.1541
▁beth	-11.1546
▁expert	-11.155
▁guitar	-11.1554
▁bass	-11.157
▁bubbles	-11.1574
away	-11.1575
▁spirits	-11.1583
▁1989	-11.1583
▁vision	-11.1583
calais	-11.1584
▁environment	-11.1587
ising	-11.1593
▁sprang	-11.1594
▁letting	-11.1607
▁jeff	-11.1609
▁advise	-11.161
▁servant	-11.161
▁management	-11.1612
▁romantic	-11.1615
▁stove	-11.1615
▁baker	-11.1617
▁patch	-11.1618
▁sauce	-11.1618
▁advanced	-11.1621
whispered	-11.1623
70	-11.1624
band	-11.1631
85	-11.1632
astic	-11.1634
55	-11.1637
▁gum	-11.1638
▁ellen	-11.1638
▁pace	-11.164
▁presented	-11.164
cies	-11.1645
▁cle	-11.1645
kie	-11.1648
▁prior	-11.1651
▁noisy	-11.1653
▁hurricane	-11.1658
▁returning	-11.1658
▁fetch	-11.1658
▁barrel	-11.1664
▁soil	-11.1666
▁groan	-11.1667
▁chick	-11.1669
▁belle	-11.1674
▁wreck	-11.1674
▁ashamed	-11.1674
▁poem	-11.1675
▁reflect	-11.1677
▁billion	-11.1677
▁solve	-11.1685
▁breathe	-11.1687
▁specific	-11.1689
▁christopher	-11.169
▁netherlands	-11.169
unc	-11.169
▁salad	-11.1691
point	-11.1693
▁violent	-11.1695
88	-11.1698
05	-11.1701
▁basic	-11.1712
▁missouri	-11.1712
77	-11.1717
▁container	-11.1721
▁dollar	-11.1724
26	-11.1728
▁label	-11.1728
▁republican	-11.1733
▁stiff	-11.1736
▁defeat	-11.1739
tsu	-11.1741
▁bomba	-11.1743
keeper	-11.1745
▁von	-11.1745
rian	-11.1749
▁israel	-11.1758
▁completed	-11.1761
▁math	-11.1761
▁emma	-11.1762
▁marine	-11.1765
▁wit	-11.1767
cou	-11.1768
zer	-11.1769
vocalization	-11.177
moving	-11.1771
▁slice	-11.1773
ash	-11.1781
87	-11.1788
hon	-11.1791
46	-11.1791
print	-11.18
▁maintain	-11.18
urg	-11.1801
▁fin	-11.1808
▁briefly	-11.1809
▁sleepy	-11.1811
ounce	-11.1813
▁succeeded	-11.1822
jack	-11.1824
▁factory	-11.1825
–1	-11.1825
screams	-11.1829
roy	-11.1834
▁glen	-11.1836
▁tray	-11.184
▁proposed	-11.1841
▁scan	-11.1843
▁cells	-11.1848
▁bum	-11.185
▁package	-11.1851
▁cri	-11.1851
▁hun	-11.1852
gri	-11.187
oe	-11.1871
▁glory	-11.1872
▁lor	-11.1876
▁tradition	-11.1877
four	-11.188
ean	-11.1882
▁sounded	-11.1884
08	-11.1884
▁johnson	-11.1891
late	-11.1891
▁smash	-11.1893
▁claus	-11.1893
▁shaking	-11.1895
from	-11.1896
27	-11.1897
ori	-11.1898
▁jersey	-11.1898
▁sen	-11.19
▁grandad	-11.1902
▁senate	-11.191
▁cupboard	-11.1913
▁merc	-11.1916
referring	-11.1926
▁ability	-11.1932
▁admitted	-11.1934
▁builder	-11.1936
▁responsibility	-11.1948
phi	-11.1955
*	-11.1957
▁teachers	-11.196
▁korea	-11.1962
▁depends	-11.1962
▁loving	-11.1967
▁pushes	-11.1969
char	-11.197
▁carolina	-11.197
hou	-11.1972
▁wool	-11.1974
▁replace	-11.1976
american	-11.1977
▁conduct	-11.1978
03	-11.198
91	-11.1989
▁leans	-11.1989
▁rou	-11.1989
▁lois	-11.1997
▁grunt	-11.1999
lip	-11.2001
▁crow	-11.2006
ching	-11.2007
▁issues	-11.2008
38	-11.2011
▁rug	-11.2015
▁mental	-11.2022
▁constant	-11.2031
▁defense	-11.2032
▁angle	-11.2033
pot	-11.2035
rack	-11.2042
▁zi	-11.2045
▁highway	-11.2049
ome	-11.2052
ological	-11.2055
▁ranger	-11.2059
▁morgan	-11.2062
mag	-11.2065
▁occupied	-11.2067
▁squeak	-11.2069
▁explanation	-11.2071
▁talent	-11.2073
june	-11.2074
▁diver	-11.2074
28	-11.2075
▁200	-11.2075
▁expedition	-11.2076
pper	-11.2078
▁fro	-11.2079
▁triangle	-11.2082
▁cotton	-11.2082
ular	-11.2083
ivity	-11.2083
uction	-11.2084
far	-11.2089
count	-11.2091
▁stolen	-11.2091
▁zero	-11.2093
93	-11.2093
▁isabel	-11.2093
ppy	-11.2096
▁mur	-11.2096
▁sau	-11.2096
▁disturb	-11.2098
▁seized	-11.2104
▁battery	-11.2105
▁agreement	-11.2109
▁web	-11.2112
▁1950	-11.2118
▁handed	-11.2124
▁cul	-11.2125
▁cone	-11.2132
▁/	-11.2133
▁profit	-11.2137
▁francis	-11.2138
▁jeannine	-11.2138
▁norman	-11.2138
ua	-11.214
hmm	-11.214
ike	-11.2143
▁flour	-11.2144
▁vocalises	-11.215
▁1984	-11.2151
cri	-11.2151
▁bushes	-11.2155
76	-11.2156
▁companions	-11.2157
▁sales	-11.2159
▁sock	-11.2164
78	-11.2172
▁portion	-11.2176
▁joint	-11.2178
▁screaming	-11.2181
▁chin	-11.2182
▁valuable	-11.2184
▁missus	-11.2184
cap	-11.2184
▁robber	-11.2185
▁bench	-11.2188
▁stadium	-11.2189
▁funeral	-11.2189
▁headquarters	-11.2189
▁costume	-11.2195
▁tide	-11.2199
tree	-11.22
▁surrounded	-11.2201
▁clar	-11.2201
▁shapes	-11.2203
▁oop	-11.2203
▁stopping	-11.2205
▁checked	-11.2207
▁pope	-11.2214
utter	-11.2214
▁beads	-11.2218
▁furniture	-11.2218
▁lily	-11.2219
gai	-11.2223
▁kay	-11.2223
▁cape	-11.2223
▁discovery	-11.2224
rob	-11.2229
pon	-11.2231
bor	-11.2234
▁crush	-11.2236
hara	-11.2236
▁fc	-11.2246
▁moral	-11.2252
▁capture	-11.2252
45	-11.2253
bob	-11.2254
▁facing	-11.2254
▁drift	-11.2256
▁investigation	-11.2258
▁constitution	-11.2264
▁argue	-11.2273
▁limited	-11.2276
▁recall	-11.228
▁oxford	-11.2281
▁edition	-11.2282
▁reality	-11.2283
▁merchant	-11.2287
perhaps	-11.2289
▁politics	-11.2292
▁embarrass	-11.2292
▁dur	-11.2297
▁shortly	-11.2297
▁scar	-11.2302
▁faithful	-11.2303
▁inhabitants	-11.2304
▁wherever	-11.2307
▁carbon	-11.2309
▁historical	-11.2312
▁meow	-11.2318
pur	-11.232
▁frost	-11.2321
▁unfortunately	-11.2329
▁cowboy	-11.2334
nut	-11.2335
▁cheeks	-11.2336
▁begun	-11.2336
▁midnight	-11.2339
▁shade	-11.2341
stick	-11.2342
▁fame	-11.2343
▁voyage	-11.2344
▁neighborhood	-11.2345
▁meanwhile	-11.2349
57	-11.235
▁abd	-11.2353
chen	-11.2354
▁heavily	-11.2367
▁healthy	-11.2368
▁polite	-11.2368
▁vacation	-11.2373
▁kur	-11.2373
chu	-11.2375
▁loudly	-11.2381
▁hind	-11.2383
▁illinois	-11.2385
▁senator	-11.2385
▁economy	-11.2391
▁executive	-11.2391
▁communication	-11.2396
▁require	-11.2399
▁girlfriend	-11.2401
▁sixth	-11.2403
▁gr	-11.2406
▁ward	-11.2411
▁worship	-11.2414
hl	-11.2424
▁momma	-11.2424
known	-11.2432
▁typical	-11.2437
▁victoria	-11.2442
▁ugly	-11.2443
▁rio	-11.2452
▁safely	-11.2453
▁compared	-11.2454
▁nodded	-11.2455
▁bru	-11.2459
▁carrots	-11.2466
while	-11.2471
▁1987	-11.2479
▁merely	-11.2479
▁pete	-11.248
▁chatter	-11.2486
▁suggestion	-11.2488
▁jr	-11.249
▁aboard	-11.2491
▁expecting	-11.2494
▁easter	-11.2494
▁affect	-11.2496
▁editor	-11.2496
▁creep	-11.2497
wee	-11.2513
▁nonsense	-11.2513
▁defence	-11.2515
▁refuse	-11.2518
▁sydney	-11.2519
▁patrick	-11.252
▁roy	-11.2524
▁wishes	-11.2526
crying	-11.2528
▁launch	-11.2531
▁mercy	-11.2532
last	-11.2534
▁joan	-11.2539
▁atlantic	-11.2549
▁eagle	-11.2549
▁shy	-11.255
mbo	-11.2553
▁reform	-11.2554
▁principle	-11.2554
ille	-11.2555
▁pacific	-11.2555
▁neighbour	-11.256
▁schedule	-11.256
▁blew	-11.2569
▁gather	-11.257
▁charlotte	-11.2572
▁majority	-11.2574
▁www	-11.2577
▁poly	-11.2582
▁crab	-11.2582
▁arrival	-11.2584
▁whoever	-11.2585
aging	-11.2585
▁anyhow	-11.2587
54	-11.2588
unnecessary	-11.259
▁nominated	-11.259
▁stephen	-11.2591
▁dull	-11.2592
▁bearing	-11.26
▁beck	-11.2601
▁wilson	-11.2604
▁bernard	-11.2609
vie	-11.2611
▁attached	-11.2613
pass	-11.2617
▁gabriel	-11.262
cin	-11.2621
cycl	-11.2622
-1	-11.263
▁skirt	-11.2632
▁raid	-11.2634
▁clothing	-11.2637
▁1972	-11.2638
ude	-11.2639
▁chill	-11.2642
▁1986	-11.2645
▁fil	-11.2652
▁percy	-11.2654
▁creatures	-11.2656
wick	-11.2656
▁asian	-11.2659
▁lip	-11.2659
bul	-11.266
▁charm	-11.266
ode	-11.2661
▁cleaning	-11.2665
▁inform	-11.2665
▁mini	-11.2666
▁charming	-11.2667
▁internet	-11.2668
▁exception	-11.2668
▁vain	-11.2672
▁dominic	-11.2674
▁mau	-11.2679
▁mono	-11.268
ologist	-11.268
▁goals	-11.2684
39	-11.2685
▁gam	-11.2687
▁beam	-11.269
▁bake	-11.269
▁mexican	-11.2691
▁significant	-11.2691
reaches	-11.2699
▁tele	-11.27
▁curl	-11.2701
piece	-11.2701
▁conquer	-11.2703
▁independence	-11.2709
▁umbrella	-11.2715
▁growl	-11.2716
▁breed	-11.2719
▁liberal	-11.2721
----"	-11.2722
68	-11.2724
▁survive	-11.2733
▁behave	-11.2739
94	-11.2742
▁cel	-11.2745
▁compound	-11.2745
▁geography	-11.2745
▁1981	-11.2746
cen	-11.2747
▁jake	-11.2748
▁obliged	-11.2751
▁clue	-11.2752
▁consequence	-11.2757
▁insurance	-11.2757
▁alan	-11.2759
meter	-11.2762
▁nuclear	-11.2763
▁jolly	-11.2763
▁aircraft	-11.2765
eng	-11.2765
▁session	-11.2767
▁purchase	-11.2769
▁pursue	-11.277
hr	-11.2771
▁previously	-11.2771
▁stress	-11.2775
▁considerable	-11.2779
▁confirmed	-11.278
▁jewish	-11.2781
▁disappointed	-11.2789
▁bride	-11.2789
▁seventeen	-11.2793
▁echo	-11.2794
▁colored	-11.2804
▁covid	-11.2806
hear	-11.281
▁reaching	-11.2823
▁spill	-11.2826
east	-11.2827
▁blu	-11.2829
post	-11.283
school	-11.2839
▁rubber	-11.2843
─	-11.2848
49	-11.2849
▁friendship	-11.2851
▁babe	-11.2851
▁swell	-11.2857
▁lincoln	-11.286
▁script	-11.2861
▁kir	-11.2861
▁vast	-11.2863
▁approaching	-11.2864
35	-11.2865
▁nowhere	-11.2867
▁northwest	-11.2868
cast	-11.287
56	-11.2877
▁confused	-11.2878
▁glow	-11.2887
æ	-11.2891
▁hath	-11.2898
▁championships	-11.2905
67	-11.2906
3]	-11.2908
tries	-11.2912
▁ceased	-11.2914
▁hatch	-11.2915
▁slaves	-11.2918
▁ec	-11.2922
▁provision	-11.2922
▁est	-11.2924
▁adapt	-11.2928
▁budget	-11.2934
61	-11.2935
▁winnie	-11.2936
jan	-11.2936
▁whip	-11.2938
▁chimney	-11.294
▁inquired	-11.294
▁efforts	-11.2942
▁berlin	-11.2945
▁importance	-11.2946
aki	-11.2948
▁income	-11.2949
bie	-11.295
▁pretending	-11.2953
▁martine	-11.2961
ito	-11.2963
▁effective	-11.2964
▁wy	-11.2969
▁draft	-11.297
coming	-11.2974
▁foundation	-11.2975
▁snack	-11.2976
arian	-11.298
▁shin	-11.2982
▁mysterious	-11.2989
tony	-11.2989
▁southeast	-11.2996
▁betray	-11.2996
▁contains	-11.2997
▁goose	-11.2998
maker	-11.3001
▁utterances	-11.3005
84	-11.3012
▁application	-11.3013
claim	-11.302
▁wicked	-11.3025
▁connect	-11.3027
▁mah	-11.3029
▁assist	-11.3032
▁preparation	-11.3032
▁delightful	-11.3033
▁hip	-11.3033
ridge	-11.3034
▁visited	-11.3036
▁intend	-11.3036
▁fuel	-11.3039
phe	-11.3045
▁authorities	-11.3045
▁1976	-11.3045
▁biscuits	-11.3048
▁negative	-11.3051
▁sunny	-11.3051
▁earl	-11.3051
lop	-11.3052
▁poll	-11.3053
eau	-11.3053
▁feeding	-11.3055
nge	-11.3056
▁approached	-11.3056
▁primary	-11.3057
▁rot	-11.306
▁vic	-11.306
▁instantly	-11.3063
▁paw	-11.3065
▁verse	-11.3067
▁conflict	-11.3069
▁piggy	-11.3076
▁nar	-11.308
grunts	-11.3082
▁impression	-11.3094
▁throne	-11.3094
▁tube	-11.3095
▁80	-11.3097
▁partly	-11.3101
pol	-11.3102
▁amongst	-11.3104
▁bah	-11.3106
gel	-11.3109
▁glanced	-11.3111
▁scr	-11.3112
▁initial	-11.3113
▁ease	-11.3114
▁retreat	-11.3125
▁linda	-11.3129
▁orchestra	-11.3131
▁dey	-11.3132
also	-11.3136
▁crystal	-11.3145
▁sel	-11.3148
▁pearl	-11.3148
▁massachusetts	-11.315
▁supported	-11.3151
▁baa	-11.3151
▁mobile	-11.3153
▁cheat	-11.3154
▁puff	-11.3154
▁rag	-11.3156
▁dining	-11.3157
▁knot	-11.3158
▁biscuit	-11.3165
▁generous	-11.3169
never	-11.3172
▁units	-11.3174
▁1979	-11.3176
▁francisco	-11.3177
▁understanding	-11.3179
▁scientific	-11.3182
▁granny	-11.3183
▁fen	-11.3185
iya	-11.3186
▁acted	-11.3187
▁clare	-11.3191
please	-11.3193
▁earned	-11.3193
▁discussion	-11.3194
▁tag	-11.3195
▁boyfriend	-11.3196
▁classes	-11.3196
▁limb	-11.3199
spect	-11.32
toys	-11.32
▁surrounding	-11.32
itude	-11.3202
▁dirt	-11.3202
hol	-11.3203
▁thumb	-11.3207
44	-11.3211
▁lung	-11.3215
mouth	-11.3217
▁necklace	-11.3219
▁kansas	-11.3219
▁hid	-11.3221
bly	-11.3225
▁artists	-11.3227
▁hood	-11.3229
▁bicycle	-11.3232
▁injured	-11.3232
▁mit	-11.3233
▁commonly	-11.3237
ware	-11.3237
▁cattle	-11.3244
▁mcc	-11.3245
▁barry	-11.3247
▁headed	-11.3248
pul	-11.3249
▁karen	-11.3253
geo	-11.3253
▁corps	-11.3254
▁hindu	-11.3257
▁premier	-11.3258
▁loft	-11.3259
▁theater	-11.3259
▁pressed	-11.3263
▁zebra	-11.3264
58	-11.3264
▁tales	-11.3267
81	-11.3268
▁solution	-11.327
▁euro	-11.3271
▁nicely	-11.3274
2]	-11.3281
▁1985	-11.3284
72	-11.3286
▁envelope	-11.3289
▁punishment	-11.329
▁alter	-11.3293
▁kan	-11.3295
▁defeated	-11.3303
▁resident	-11.3308
71	-11.3309
▁carrot	-11.3309
▁peach	-11.3309
▁davis	-11.3311
bol	-11.3312
mie	-11.3316
bee	-11.332
▁confident	-11.3321
because	-11.3323
▁mcdonalds	-11.3324
▁deeply	-11.3326
▁hail	-11.3329
▁bolt	-11.3337
▁violence	-11.3359
▁pitched	-11.3362
hall	-11.3365
▁feast	-11.3367
▁stretched	-11.3377
▁serving	-11.3379
▁formal	-11.338
▁float	-11.3382
list	-11.3382
▁servants	-11.3384
▁exact	-11.3384
▁scored	-11.3385
▁introduce	-11.3386
▁concept	-11.3388
▁conc	-11.3397
kan	-11.3397
▁bore	-11.3405
▁bald	-11.3408
▁lab	-11.3409
▁cheers	-11.3416
ographic	-11.3421
fore	-11.3422
uous	-11.3424
▁pump	-11.3425
ère	-11.3429
▁eliminated	-11.343
▁strict	-11.343
▁items	-11.3431
75	-11.3432
▁cwww	-11.3438
▁react	-11.3443
▁prospect	-11.3444
▁nearest	-11.3447
▁survey	-11.3449
▁referred	-11.3451
▁illustrations	-11.3451
▁separated	-11.3454
▁figured	-11.346
vic	-11.346
▁degrees	-11.3461
leg	-11.3462
▁gasp	-11.3464
▁needle	-11.3466
▁dora	-11.3473
▁zo	-11.3474
▁lemme	-11.3475
▁luc	-11.3475
▁micro	-11.3477
▁variety	-11.3481
▁seeds	-11.3483
▁resist	-11.3493
▁volunteer	-11.3494
▁ble	-11.3495
▁inches	-11.3504
▁solemn	-11.3507
gal	-11.3518
▁officially	-11.352
ope	-11.3532
▁trained	-11.3533
▁alongside	-11.3535
▁coloring	-11.3535
▁honestly	-11.3536
▁multiple	-11.354
▁attitude	-11.3547
▁illness	-11.3556
4]	-11.3559
▁1983	-11.356
▁tub	-11.3561
▁debt	-11.3561
bear	-11.3566
▁observe	-11.3568
▁olympic	-11.3569
▁remaining	-11.358
▁heap	-11.3581
▁rustling	-11.3586
▁presidential	-11.3591
▁committed	-11.3593
▁clan	-11.3595
▁counting	-11.3608
41	-11.3609
▁entertain	-11.3611
▁taxi	-11.3613
▁steamer	-11.3617
▁cigarette	-11.3618
self	-11.362
▁sailing	-11.3621
â	-11.3625
▁lecture	-11.3625
▁responded	-11.3628
▁plea	-11.363
▁[6	-11.3634
82	-11.3637
▁satisfaction	-11.3638
▁—	-11.364
▁closing	-11.3645
▁foolish	-11.3647
▁teen	-11.3651
▁attended	-11.3655
▁ballet	-11.3656
▁deputy	-11.3658
▁gall	-11.3662
ele	-11.3662
▁ceremony	-11.3664
▁invitation	-11.3664
stead	-11.3671
83	-11.3674
79	-11.3675
▁harbor	-11.3678
69	-11.368
▁dressing	-11.3683
▁nearby	-11.3684
▁32	-11.3686
would	-11.3689
every	-11.369
continues	-11.3696
▁1982	-11.3698
▁insect	-11.3707
▁epi	-11.3709
▁thoroughly	-11.3709
▁starring	-11.3711
▁appointment	-11.3711
▁respond	-11.3714
truct	-11.3715
▁inspector	-11.3717
▁thrust	-11.3717
osh	-11.3718
▁represented	-11.3718
▁detect	-11.3718
▁90	-11.3722
▁ron	-11.3724
▁invite	-11.3729
▁lewis	-11.3731
▁online	-11.3732
▁murdered	-11.3735
▁awarded	-11.3737
▁liquid	-11.3737
▁fantastic	-11.3744
▁pennsylvania	-11.3744
lian	-11.3745
baby	-11.3749
▁admire	-11.3764
pretend	-11.3769
▁numerous	-11.3784
▁widow	-11.3784
▁1974	-11.3785
51	-11.3787
▁cathy	-11.3788
▁drill	-11.3788
▁sacred	-11.379
▁muslim	-11.379
▁sti	-11.3792
▁austrian	-11.3794
▁zorg	-11.3797
▁achieve	-11.3801
▁interrupted	-11.3803
wise	-11.3804
ule	-11.3808
▁gaze	-11.3812
▁kevin	-11.3812
▁vietnam	-11.3817
▁tickets	-11.3819
▁surgery	-11.3824
▁ul	-11.3825
▁drag	-11.3835
heim	-11.3842
▁strawberries	-11.3844
▁regiment	-11.3844
lash	-11.3845
▁geo	-11.3857
elli	-11.3859
ulation	-11.3861
▁larry	-11.3871
▁dancer	-11.3878
▁literature	-11.3884
▁occasionally	-11.3886
▁belonged	-11.3886
▁dash	-11.3887
▁bruce	-11.3893
▁visitors	-11.3894
going	-11.3894
▁thirsty	-11.3895
▁growth	-11.3898
bla	-11.39
▁ridge	-11.3901
▁lightning	-11.3902
▁apologize	-11.3905
▁intelligence	-11.3905
74	-11.3908
oop	-11.3913
▁paused	-11.3921
▁poke	-11.3933
▁glo	-11.3936
hole	-11.3939
▁northeast	-11.394
still	-11.3943
▁skip	-11.3949
▁buffalo	-11.3952
▁michigan	-11.3959
▁yeh	-11.396
▁guardian	-11.3962
▁gimme	-11.3966
▁ry	-11.3969
▁rival	-11.3969
▁cartoon	-11.3972
▁mia	-11.3974
range	-11.3975
▁dart	-11.3975
▁citizens	-11.3975
▁loan	-11.3978
▁liberty	-11.3981
▁cruise	-11.3983
dem	-11.3983
▁peculiar	-11.3986
laughter	-11.3988
▁column	-11.3993
pie	-11.3993
ckle	-11.3998
65	-11.3998
hey	-11.3999
▁intense	-11.4001
▁ashore	-11.4002
▁allen	-11.4004
▁spaniard	-11.4006
▁graham	-11.4008
bag	-11.4011
▁jewel	-11.4013
▁sample	-11.4015
▁zone	-11.4015
▁tomato	-11.4017
▁anxiety	-11.402
▁digger	-11.4023
▁lawn	-11.4023
▁hannah	-11.4027
▁pregnant	-11.4027
▁kelly	-11.4027
cord	-11.4033
ñ	-11.4034
och	-11.4036
59	-11.4036
▁hans	-11.4039
▁stupid	-11.4041
▁slope	-11.4041
▁bloom	-11.4042
parent	-11.4043
▁pea	-11.4043
▁reader	-11.4045
▁sab	-11.4046
▁counsel	-11.4047
▁touching	-11.4051
▁sav	-11.4052
▁beef	-11.4053
▁1968	-11.4055
63	-11.4068
▁conservative	-11.4068
▁raymond	-11.4068
▁helmet	-11.4069
73	-11.4073
▁glue	-11.4074
▁hired	-11.4074
▁emotion	-11.4075
▁crossing	-11.4077
▁hugh	-11.4077
chair	-11.4082
▁sack	-11.4085
uz	-11.4085
▁jon	-11.4086
▁conclusion	-11.4089
▁slid	-11.4089
▁oink	-11.409
▁korean	-11.4092
▁1978	-11.4097
▁mock	-11.4098
life	-11.4101
state	-11.4115
toy	-11.4115
▁tremendous	-11.4116
▁unhappy	-11.4117
▁capable	-11.4118
▁cam	-11.4125
scope	-11.4126
hhh	-11.413
▁extent	-11.413
gor	-11.4132
▁involve	-11.4133
▁belly	-11.4134
rid	-11.4135
aire	-11.4141
bad	-11.4141
rating	-11.4143
▁cheek	-11.4144
shing	-11.4144
▁anthony	-11.4144
▁breeze	-11.4144
▁composer	-11.4144
elia	-11.4145
▁critical	-11.4147
▁feathers	-11.4148
▁1975	-11.4152
▁marble	-11.4157
▁gradually	-11.4158
▁feather	-11.416
▁todd	-11.4161
▁fanny	-11.4162
▁viv	-11.4162
▁enjoying	-11.4165
▁egyptian	-11.4169
▁taylor	-11.4172
▁consent	-11.4172
▁website	-11.4178
▁innit	-11.4181
rock	-11.4187
▁jet	-11.4191
▁steep	-11.4194
▁annoy	-11.4198
29	-11.4199
▁annual	-11.42
▁span	-11.4204
▁tang	-11.4206
▁preserve	-11.4207
▁joey	-11.4207
▁brazilian	-11.4208
▁meters	-11.4209
phy	-11.421
▁✿	-11.4213
ography	-11.4216
▁pun	-11.4218
43	-11.4222
▁peasant	-11.4223
▁sought	-11.4224
▁dock	-11.4226
nik	-11.4226
▁dallas	-11.4227
▁convinced	-11.4228
▁hollow	-11.4228
▁jay	-11.4231
▁sniff	-11.4232
▁cracker	-11.4235
though	-11.4236
mail	-11.4238
▁loo	-11.4238
▁activities	-11.4248
▁1969	-11.4249
ón	-11.4251
▁1977	-11.4256
had	-11.4266
▁amanda	-11.427
▁35	-11.427
62	-11.4273
▁cabinet	-11.4273
ika	-11.4274
▁statue	-11.4276
▁cuddle	-11.4277
burn	-11.4279
three	-11.4279
▁nord	-11.4281
▁incredible	-11.4283
▁basis	-11.4284
eous	-11.4285
▁sailed	-11.4289
▁golf	-11.4289
▁packed	-11.4295
▁depth	-11.4297
fla	-11.4298
▁2021)	-11.43
▁gorgeous	-11.4304
▁alphabet	-11.4304
gene	-11.4306
▁bio	-11.4309
▁studying	-11.431
▁journalist	-11.431
▁ignore	-11.4311
teacher	-11.4316
▁impact	-11.4316
▁recommend	-11.4318
▁swept	-11.4318
▁cleared	-11.4318
▁rainbow	-11.4319
▁churches	-11.4322
▁railroad	-11.4325
▁technical	-11.4325
▁leslie	-11.4325
36	-11.4325
▁animated	-11.4332
▁pinch	-11.4335
▁stated	-11.4336
▁jordan	-11.4339
▁extreme	-11.4342
▁scottish	-11.4342
▁parrot	-11.4347
hop	-11.4349
▁jer	-11.4351
▁lawrence	-11.4354
▁diana	-11.4358
▁spending	-11.4358
▁flies	-11.436
cular	-11.4361
▁1973	-11.4362
▁monsieur	-11.4368
▁sticking	-11.4373
▁delicate	-11.4375
▁miller	-11.4381
▁manchester	-11.439
▁additional	-11.4391
▁robinson	-11.4391
▁tooth	-11.4392
too	-11.4396
▁ruler	-11.4398
▁touches	-11.44
high	-11.44
enne	-11.4401
▁transfer	-11.4403
▁lwww	-11.4408
▁congratulations	-11.441
▁suspicion	-11.441
ér	-11.4411
▁raw	-11.4422
pho	-11.4422
▁70	-11.4424
▁blake	-11.4425
▁feature	-11.4425
▁administration	-11.4432
▁fee	-11.4435
▁clam	-11.4445
▁flor	-11.4452
▁loire	-11.4454
▁dropping	-11.4456
vision	-11.4456
▁peg	-11.4462
▁(18	-11.4464
▁squad	-11.4468
atory	-11.447
▁scu	-11.4473
▁passion	-11.4473
▁kenneth	-11.4474
▁sleeve	-11.4474
gasp	-11.4479
rink	-11.448
▁explosion	-11.4482
eating	-11.4491
▁option	-11.4491
▁cherry	-11.4492
▁extended	-11.4495
▁staring	-11.4496
▁composed	-11.4496
▁harold	-11.4497
cup	-11.4498
mom	-11.45
▁elements	-11.4501
▁vegetables	-11.4501
▁por	-11.4505
▁tennis	-11.4511
hard	-11.4513
▁compete	-11.4518
posed	-11.4519
5,000	-11.4522
▁catching	-11.4523
▁unexpected	-11.4525
▁mice	-11.4527
mission	-11.4533
▁gym	-11.454
▁adopted	-11.4541
▁poland	-11.4543
dress	-11.4544
▁dried	-11.4547
▁institution	-11.455
▁regional	-11.4551
oph	-11.4552
girl	-11.456
▁cancel	-11.4565
▁grove	-11.4568
▁lemon	-11.4568
▁cooked	-11.4572
▁sticky	-11.4578
matic	-11.4581
▁mole	-11.4582
▁awfully	-11.4583
▁beard	-11.4588
▁convert	-11.459
▁1971	-11.4591
▁panda	-11.4592
▁jury	-11.4593
▁rider	-11.4595
▁alcohol	-11.4597
▁threatened	-11.4597
▁cannon	-11.4598
▁waving	-11.4599
▁tal	-11.4599
▁kong	-11.46
▁orbit	-11.46
▁emily	-11.46
▁rein	-11.4603
▁sting	-11.4604
▁virus	-11.4606
▁flesh	-11.4611
woman	-11.4618
▁essential	-11.4626
▁sew	-11.4626
▁descend	-11.4631
▁mir	-11.4634
▁1930	-11.4636
home	-11.4638
▁cable	-11.4639
▁avenue	-11.464
▁graeme	-11.464
▁peek	-11.4641
▁beating	-11.4642
▁vow	-11.4643
▁cole	-11.4645
whispering	-11.4649
fur	-11.4651
▁lyn	-11.4651
wind	-11.4655
▁behavior	-11.4655
▁disaster	-11.4655
▁saddle	-11.4658
▁jaw	-11.4658
berries	-11.466
9]	-11.4662
▁terribly	-11.4662
ado	-11.4669
▁sometime	-11.4673
▁collar	-11.4675
▁ky	-11.4682
▁cure	-11.4683
▁monk	-11.4684
▁bundle	-11.4684
▁howard	-11.4687
▁bib	-11.469
▁stout	-11.4691
lick	-11.4697
▁launched	-11.4698
▁industrial	-11.4699
▁nickname	-11.4699
taking	-11.4706
▁ginger	-11.4706
▁regarded	-11.4708
▁vine	-11.4711
▁insisted	-11.4714
▁diet	-11.4717
kel	-11.4719
▁kindness	-11.4722
▁fled	-11.4728
▁ruled	-11.4735
▁sandwiches	-11.4743
▁esp	-11.4744
▁——	-11.4744
▁recovered	-11.4749
hill	-11.475
▁spear	-11.475
▁charged	-11.4756
made	-11.4762
▁succeed	-11.4763
▁examine	-11.4765
zen	-11.4768
▁pickle	-11.4768
refers	-11.477
▁skate	-11.477
▁depart	-11.4772
▁gloves	-11.4775
▁electricity	-11.4775
▁potential	-11.4779
▁revenge	-11.4779
▁particle	-11.4781
▁barely	-11.4782
▁brig	-11.4786
▁reception	-11.4787
▁blast	-11.4789
▁plug	-11.4789
oke	-11.4801
▁disgust	-11.4801
▁jacob	-11.4801
▁favourite	-11.4802
▁childsname	-11.4809
▁spit	-11.4815
▁superior	-11.4816
▁baron	-11.4817
▁poured	-11.4817
▁oxygen	-11.4824
▁camel	-11.4826
whines	-11.483
▁atmosphere	-11.4831
▁“‘	-11.4833
▁hippo	-11.4834
▁disagree	-11.4838
▁proceeded	-11.4838
▁instructions	-11.4839
▁crane	-11.4843
▁scissors	-11.4846
▁associated	-11.4856
▁assured	-11.4858
▁increasing	-11.4861
▁agency	-11.4861
▁tokyo	-11.4861
▁fighter	-11.4864
▁seth	-11.4865
▁ribbon	-11.4868
▁engineering	-11.4868
▁cj	-11.4875
▁distress	-11.4876
lav	-11.4878
▁enormous	-11.489
▁blank	-11.4897
▁childhood	-11.4901
▁burden	-11.4901
hang	-11.4901
▁bor	-11.4903
▁absence	-11.4905
lio	-11.4914
sail	-11.4915
500	-11.4923
▁pho	-11.4924
▁shared	-11.4925
▁bol	-11.4928
▁personally	-11.4928
▁vocal	-11.4931
▁num	-11.4933
▁shine	-11.4939
▁franklin	-11.4942
▁wink	-11.4942
▁monarch	-11.4943
▁clara	-11.4947
▁aeroplane	-11.495
▁visible	-11.495
▁heath	-11.4952
▁evolution	-11.4952
▁insist	-11.4954
▁poetry	-11.4954
ograph	-11.4959
▁1964	-11.4966
▁assistance	-11.4966
▁patty	-11.4969
▁mend	-11.4972
▁1967	-11.4974
▁assume	-11.4978
ttering	-11.4979
corn	-11.4983
▁sank	-11.4984
▁jonathan	-11.4988
▁domestic	-11.4988
▁mul	-11.4989
▁leather	-11.4995
path	-11.5006
▁louder	-11.5008
▁vin	-11.5008
▁attorney	-11.501
▁catherine	-11.501
▁rig	-11.5011
▁wrapped	-11.5011
▁kh	-11.5011
▁communist	-11.5018
▁summon	-11.502
▁(1	-11.5022
▁sweat	-11.5025
▁applied	-11.5026
▁zoe	-11.5035
▁hon	-11.504
▁smoking	-11.5041
arch	-11.5043
▁suicide	-11.5048
▁swiss	-11.5048
▁kisses	-11.5056
▁status	-11.5056
tribute	-11.5056
▁grief	-11.5057
▁gap	-11.5057
▁thorn	-11.5059
main	-11.506
▁permanent	-11.5071
▁oscar	-11.5072
▁dealing	-11.5073
▁mist	-11.5075
west	-11.5079
little	-11.5079
berry	-11.5083
▁dal	-11.5088
▁fridge	-11.5089
▁jill	-11.5091
▁miserable	-11.5094
▁interpret	-11.5094
communi	-11.5094
▁gathering	-11.51
▁rocky	-11.5101
▁decent	-11.5102
wal	-11.5102
▁useless	-11.5103
▁dread	-11.5104
▁affected	-11.5109
▁stared	-11.511
▁illustrated	-11.5113
▁nesting	-11.5117
case	-11.5119
°	-11.5132
▁samuel	-11.5132
▁whilst	-11.514
▁bavaria	-11.514
▁centuries	-11.5147
▁cushion	-11.5147
53	-11.5149
▁carter	-11.5158
▁morris	-11.5159
▁scholar	-11.5162
▁quote	-11.5168
▁douglas	-11.517
▁crept	-11.517
tape	-11.5171
▁allah	-11.5178
▁convention	-11.5178
▁nevertheless	-11.5178
▁wu	-11.5179
ession	-11.5184
▁mourn	-11.5186
▁electronic	-11.5189
▁offering	-11.5189
▁printed	-11.519
▁obtain	-11.5194
rag	-11.5196
▁apply	-11.52
▁alligator	-11.5201
cell	-11.5201
▁boring	-11.5208
▁ranch	-11.5209
▁employee	-11.5209
wen	-11.5213
▁feared	-11.5213
▁fog	-11.5215
smith	-11.5219
▁luke	-11.5225
▁expressed	-11.5225
billboard	-11.5228
▁organized	-11.5229
▁autumn	-11.5232
does	-11.5233
▁firing	-11.5236
vor	-11.5238
agon	-11.5239
▁fake	-11.5239
▁supreme	-11.5239
▁batteries	-11.524
▁hart	-11.5245
▁warn	-11.5246
▁rib	-11.5251
▁encounter	-11.5251
▁pupil	-11.5255
▁ralph	-11.5255
▁bubble	-11.526
▁kangaroo	-11.5263
▁demon	-11.5264
▁brass	-11.5266
▁torn	-11.5268
▁brow	-11.527
▁biography	-11.5271
▁timber	-11.5273
cry	-11.5277
▁gear	-11.528
▁mistaken	-11.5281
guard	-11.5285
▁awesome	-11.5286
▁proceed	-11.5287
▁1940	-11.5288
▁olive	-11.5292
▁frequently	-11.5293
▁genus	-11.5293
▁existence	-11.5296
▁underground	-11.5296
▁marker	-11.5298
▁proposal	-11.5301
▁expense	-11.5302
▁36	-11.5303
31	-11.5308
▁calendar	-11.5309
▁rosa	-11.5311
ui	-11.5312
42	-11.5316
▁sympathy	-11.5317
▁yourselves	-11.5317
▁bronze	-11.5318
lessly	-11.5322
▁possibility	-11.5325
▁predict	-11.5325
▁duties	-11.5326
▁pap	-11.5327
▁resources	-11.5331
uv	-11.5332
▁constantly	-11.5333
▁mall	-11.5339
▁remi	-11.534
▁thief	-11.534
both	-11.5346
▁clerk	-11.5349
close	-11.5349
▁obvious	-11.5352
▁swift	-11.5352
▁peel	-11.5354
chris	-11.5357
▁lace	-11.5358
▁leo	-11.536
▁aspect	-11.5361
▁grain	-11.5364
▁dynasty	-11.5364
▁dragged	-11.5364
▁crowded	-11.5369
▁khan	-11.537
▁rage	-11.5371
▁illegal	-11.5371
▁nasty	-11.5372
32	-11.5376
▁barb	-11.5379
▁phrase	-11.5379
▁soccer	-11.5379
▁spray	-11.5381
▁rebel	-11.5383
▁hated	-11.5383
whining	-11.5383
▁deposit	-11.5386
▁twist	-11.5387
▁squash	-11.5387
▁shelf	-11.5389
jw	-11.5389
▁dug	-11.5393
▁trailer	-11.5394
rio	-11.5398
▁remarkable	-11.5398
▁prop	-11.5399
▁kite	-11.5409
▁vest	-11.5409
▁cli	-11.541
▁corporation	-11.5411
▁broom	-11.5412
▁rom	-11.5419
▁guinea	-11.5419
▁kicked	-11.5421
▁til	-11.5422
▁copper	-11.5424
▁ohio	-11.5424
▁delivered	-11.5426
▁claimed	-11.5431
▁brad	-11.5434
▁priscilla	-11.5434
▁kha	-11.5439
▁accused	-11.5442
▁surrender	-11.5442
▁utterance	-11.5445
▁persuade	-11.545
▁pistol	-11.545
page	-11.5452
itz	-11.5458
▁carol	-11.5462
▁cheeky	-11.5463
▁literally	-11.5466
▁philadelphia	-11.5466
▁assault	-11.5466
▁gloom	-11.5467
▁stall	-11.5468
▁layer	-11.547
free	-11.5472
▁impatient	-11.5474
▁conceal	-11.5474
▁1966	-11.5475
▁abuse	-11.548
▁nephew	-11.5482
▁mode	-11.5483
▁copies	-11.5487
▁freeze	-11.5487
▁troop	-11.5488
▁unconscious	-11.549
▁tumble	-11.549
▁heels	-11.549
eur	-11.5494
lift	-11.5494
chr	-11.5494
▁spo	-11.5499
mount	-11.5502
comp	-11.5508
▁skipper	-11.5515
▁warned	-11.5516
▁kal	-11.5517
▁swung	-11.5522
▁roo	-11.5522
▁edna	-11.5522
power	-11.5523
▁ep	-11.5526
▁haul	-11.5527
▁alternative	-11.5529
▁quarrel	-11.5529
▁shield	-11.5529
▁bot	-11.553
▁moses	-11.5531
horn	-11.5534
▁leak	-11.5534
▁gross	-11.5535
talk	-11.5535
▁creation	-11.5537
▁helpless	-11.5542
▁global	-11.5545
▁patrol	-11.5547
▁mast	-11.5548
ā	-11.5553
▁laying	-11.5553
▁sponge	-11.5561
▁pel	-11.5566
grand	-11.5568
untranscribed	-11.5569
lied	-11.5578
▁invest	-11.5582
enberg	-11.5586
▁miracle	-11.5601
think	-11.5601
keep	-11.5617
▁appropriate	-11.5621
maybe	-11.5621
▁mississippi	-11.5625
▁obtained	-11.5625
▁lean	-11.5632
▁packet	-11.5633
▁archer	-11.5635
▁jessie	-11.5644
▁deny	-11.5649
▁drank	-11.5649
▁debate	-11.565
kov	-11.565
▁nazi	-11.5654
▁solo	-11.5657
▁burton	-11.5657
▁admiral	-11.5657
▁ew	-11.5667
▁comin	-11.5674
▁panic	-11.5675
▁mun	-11.5678
▁begged	-11.568
▁arnold	-11.5681
▁sheriff	-11.5681
▁dna	-11.5688
▁45	-11.5689
▁gary	-11.5692
▁covering	-11.5693
▁arkansas	-11.5697
▁neu	-11.5699
▁chasing	-11.5701
-20	-11.5701
▁bureau	-11.5706
▁license	-11.5714
etta	-11.5722
view	-11.5722
▁observation	-11.5722
▁goddess	-11.5722
▁persian	-11.5723
▁hint	-11.5724
▁disorder	-11.573
▁500	-11.573
▁pierre	-11.5732
▁earnest	-11.5737
▁depression	-11.5738
▁searching	-11.5744
ility	-11.5747
▁resolved	-11.5749
▁unique	-11.5751
▁personality	-11.5752
▁ridiculous	-11.5754
▁moore	-11.5763
▁resume	-11.5763
▁kang	-11.5765
▁citizen	-11.5768
▁bacon	-11.577
▁disco	-11.577
▁resistance	-11.5771
▁blessed	-11.5774
▁1945	-11.578
▁collected	-11.5782
▁daylight	-11.5782
▁evident	-11.5783
pher	-11.5785
▁seventh	-11.5786
▁accompanied	-11.5787
▁dum	-11.579
hearted	-11.5791
▁swamp	-11.5797
▁suspicious	-11.5803
aba	-11.5806
▁manufacture	-11.5811
▁villa	-11.5813
cio	-11.5816
▁administrative	-11.5819
▁classic	-11.5822
▁gazed	-11.5825
▁chr	-11.5826
▁moscow	-11.5828
▁roast	-11.5828
▁porch	-11.583
▁wendy	-11.5836
▁chef	-11.5842
▁software	-11.5845
▁overall	-11.5849
▁lend	-11.585
▁peaceful	-11.5852
▁curse	-11.5858
aff	-11.5859
▁rhyme	-11.586
▁transform	-11.5861
▁enable	-11.5864
▁passes	-11.5865
▁concluded	-11.5868
▁memories	-11.5869
▁suburb	-11.5869
▁vir	-11.5876
squeals	-11.5883
▁kissing	-11.5884
▁fossil	-11.5885
craft	-11.5885
▁divorce	-11.5893
▁fiction	-11.5897
▁revealed	-11.5899
▁parcel	-11.5899
▁monte	-11.5901
▁dennis	-11.5902
▁crop	-11.5902
▁urban	-11.5902
▁extend	-11.5903
pel	-11.5904
▁gau	-11.5904
ois	-11.5906
▁dip	-11.591
▁patience	-11.591
▁midst	-11.5911
▁juan	-11.5912
▁arose	-11.5913
▁ideal	-11.5915
▁pier	-11.5917
▁messenger	-11.5918
pop	-11.592
▁waist	-11.5922
▁tourist	-11.5924
▁karl	-11.5925
▁instinct	-11.5926
▁potty	-11.5926
ggy	-11.5927
▁viii	-11.5932
▁dive	-11.5932
▁expand	-11.5933
▁mounted	-11.5934
▁combat	-11.5937
▁damn	-11.5937
▁virgin	-11.5939
▁massive	-11.5943
▁beaten	-11.5946
▁objection	-11.5947
▁sung	-11.5948
▁cultural	-11.5951
hello	-11.596
▁vii	-11.5963
▁drain	-11.5965
▁gettin	-11.5966
▁dough	-11.5966
▁nee	-11.5967
▁stool	-11.5969
won	-11.597
▁acquaintance	-11.5976
▁swedish	-11.5976
▁troubled	-11.5978
▁thankful	-11.598
▁extraordinary	-11.5984
▁submarine	-11.5984
▁robot	-11.5986
▁happily	-11.5993
▁anxiously	-11.5999
▁alabama	-11.6001
asse	-11.6004
▁columbia	-11.6018
▁worthy	-11.6018
class	-11.6023
▁outfit	-11.6027
▁marky	-11.603
▁belonging	-11.6034
▁insult	-11.6044
chester	-11.6051
▁lib	-11.6057
rud	-11.6057
▁lest	-11.6058
▁technique	-11.6059
istan	-11.6061
▁thread	-11.6065
▁liber	-11.6069
64	-11.607
▁gram	-11.607
▁referring	-11.6076
▁mischief	-11.6076
▁austin	-11.6076
▁trim	-11.6077
bach	-11.6078
▁suitcase	-11.6085
▁confusion	-11.6085
▁sean	-11.6087
▁cer	-11.609
▁painful	-11.6096
ancy	-11.61
▁govern	-11.6103
▁despair	-11.611
▁participate	-11.611
▁error	-11.611
verse	-11.6112
aya	-11.6116
▁hong	-11.6123
▁circuit	-11.6127
▁housing	-11.6127
▁cinema	-11.6127
▁stuffed	-11.6129
poor	-11.613
▁gulf	-11.613
▁cove	-11.6132
▁visitor	-11.6134
nothing	-11.6135
▁hastily	-11.6136
▁entering	-11.6144
▁joking	-11.6147
▁complicated	-11.6152
▁meadow	-11.6155
▁colleague	-11.6161
▁reputation	-11.6161
▁youngest	-11.6161
▁strongly	-11.6161
▁contain	-11.6161
▁confirm	-11.6163
▁sharply	-11.6166
ello	-11.6168
▁jackie	-11.6169
songwriter	-11.6169
babbling	-11.6169
▁blessing	-11.6171
court	-11.6172
▁donkey	-11.6175
▁greg	-11.6176
▁curiosity	-11.6177
▁careless	-11.6177
ask	-11.6178
▁1956	-11.6179
▁holland	-11.618
hh	-11.6181
▁pip	-11.6183
▁interfere	-11.6186
▁solar	-11.6187
▁mou	-11.6188
▁whisk	-11.6189
gli	-11.6193
▁invented	-11.6195
▁digging	-11.6198
▁norway	-11.6202
▁diploma	-11.6211
▁exam	-11.6213
▁naval	-11.6219
first	-11.6222
▁preparing	-11.6229
▁jews	-11.6229
▁spl	-11.6235
▁tech	-11.6237
▁reasonable	-11.6245
▁guarantee	-11.6246
▁impressed	-11.6246
▁gb	-11.6246
chy	-11.6254
▁hooray	-11.6254
▁blade	-11.6256
▁improve	-11.6262
▁bash	-11.6263
▁shu	-11.627
▁genius	-11.6272
loo	-11.6274
▁footballer	-11.6278
▁destruction	-11.628
▁procedure	-11.628
nick	-11.6282
▁swinging	-11.6285
▁fella	-11.6286
▁lego	-11.6287
▁greece	-11.6288
▁frozen	-11.6288
▁arrange	-11.6289
▁coke	-11.6292
▁katie	-11.6295
▁triumph	-11.6296
▁trump	-11.6303
rov	-11.6307
▁foe	-11.632
▁prey	-11.6323
▁1965	-11.6324
▁experienced	-11.6325
▁bully	-11.6329
▁evelyn	-11.6332
▁jin	-11.6334
speaking	-11.6335
ç	-11.634
▁operating	-11.6344
media	-11.6344
▁causing	-11.6349
▁hah	-11.6351
▁bumper	-11.6352
▁crisis	-11.6352
shirt	-11.6354
▁benjamin	-11.6357
▁inclined	-11.6357
▁abroad	-11.6357
▁accent	-11.6366
▁wolves	-11.6374
▁topic	-11.6379
▁lump	-11.6384
▁reveal	-11.6386
▁zip	-11.6393
▁pension	-11.6393
dig	-11.6393
ural	-11.6404
holding	-11.6404
▁furious	-11.6411
member	-11.6411
▁considering	-11.6413
ride	-11.6413
black	-11.6413
▁digital	-11.6418
▁stanley	-11.6421
▁raising	-11.6422
33	-11.6426
▁dessert	-11.6426
▁melissa	-11.6426
▁terrific	-11.6426
▁forehead	-11.6427
▁stealing	-11.6428
▁floating	-11.6431
▁ruff	-11.6435
▁accustomed	-11.6435
▁beloved	-11.6435
▁fright	-11.6439
▁hitting	-11.6439
34	-11.6441
▁metropolitan	-11.6444
▁scattered	-11.6444
▁awkward	-11.6453
▁hamburger	-11.6453
coat	-11.6454
▁startled	-11.6455
ective	-11.6455
▁protected	-11.6456
▁dashed	-11.646
▁iowa	-11.6461
▁amid	-11.6464
zzle	-11.6465
▁refuge	-11.647
▁liz	-11.6473
wall	-11.6479
▁pep	-11.6484
▁lick	-11.6485
▁colony	-11.6488
▁contained	-11.6494
▁minnesota	-11.6496
▁automobile	-11.6496
▁harris	-11.6504
▁ceiling	-11.6505
▁ruined	-11.6506
wash	-11.6507
▁swan	-11.651
▁latest	-11.651
▁payment	-11.6511
▁meantime	-11.6523
▁firmly	-11.6536
▁flock	-11.6537
▁painter	-11.654
▁?[	-11.6541
▁1961	-11.6542
▁gill	-11.6544
▁rushing	-11.655
rina	-11.655
▁birdie	-11.6561
want	-11.6563
▁maiden	-11.6564
▁willie	-11.6573
▁realise	-11.6574
▁gerald	-11.6575
▁orphan	-11.6575
▁pancake	-11.6576
▁hose	-11.658
▁hank	-11.6581
▁boris	-11.6582
▁wrist	-11.6584
▁alaska	-11.6584
jer	-11.6585
▁wig	-11.6589
▁divide	-11.6594
▁absorb	-11.6602
▁philippine	-11.6602
▁checking	-11.6603
▁coo	-11.6609
▁substance	-11.6611
▁consideration	-11.6613
▁greeting	-11.6623
▁sophie	-11.6628
▁claire	-11.6629
▁unfortunate	-11.6634
▁loyal	-11.6636
▁muttered	-11.6637
▁graduated	-11.6639
▁2022)	-11.6644
▁informed	-11.6646
▁earthquake	-11.6646
▁affection	-11.6651
▁widely	-11.6651
▁haste	-11.6656
ín	-11.6661
▁knocking	-11.6662
▁1963	-11.6665
▁napkin	-11.6666
▁banging	-11.6667
▁cuba	-11.6671
▁barking	-11.6672
▁imagination	-11.6673
▁mason	-11.6679
okay	-11.668
▁leaning	-11.668
uel	-11.6681
▁imperial	-11.6682
▁yield	-11.6682
▁emerge	-11.6683
▁violin	-11.6691
▁lucia	-11.6691
▁berry	-11.6691
▁alert	-11.6692
▁300	-11.6697
▁symptoms	-11.6708
▁vienna	-11.6708
▁nappie	-11.6709
▁core	-11.6712
bound	-11.6714
▁curve	-11.6714
▁dil	-11.6717
▁collapse	-11.6717
▁examination	-11.6717
▁elbow	-11.6718
▁1947	-11.6719
▁judy	-11.6726
▁travelling	-11.6726
▁1959	-11.6728
▁chalk	-11.6728
▁raven	-11.673
▁drown	-11.6731
▁cycle	-11.6737
▁visiting	-11.6743
▁attractive	-11.6744
▁shepherd	-11.6745
▁announce	-11.6746
▁waved	-11.675
found	-11.6752
zan	-11.6756
camp	-11.6757
▁employed	-11.6758
▁judgment	-11.6762
▁bbc	-11.6763
▁granted	-11.6763
▁southwest	-11.6772
▁adjust	-11.6773
▁snail	-11.678
▁historian	-11.678
▁conductor	-11.6785
――	-11.6789
▁universal	-11.6789
▁loaded	-11.6792
▁dah	-11.6798
▁dra	-11.68
▁martha	-11.6802
ingham	-11.6806
▁alfred	-11.6807
▁peril	-11.6813
▁construct	-11.6814
▁injury	-11.6816
▁torture	-11.6817
▁sultan	-11.6817
▁mug	-11.6823
▁1962	-11.6827
▁journal	-11.6827
▁tuck	-11.6829
▁sighed	-11.6831
▁handkerchief	-11.6834
▁kettle	-11.6834
▁antonio	-11.6834
▁worldwide	-11.6844
▁decade	-11.6848
▁turk	-11.6848
▁rebecca	-11.6853
----------------	-11.6854
▁1948	-11.6854
▁characteristic	-11.6863
▁investment	-11.6863
▁flung	-11.6864
▁selfish	-11.6868
arrondissement	-11.6871
▁environmental	-11.6872
▁practical	-11.6877
mur	-11.6878
▁addressed	-11.6878
▁xxi	-11.6882
hv	-11.6882
▁2018)	-11.6884
▁parade	-11.6887
▁headache	-11.6887
▁malcolm	-11.6889
▁glorious	-11.6889
▁opposition	-11.6889
shaw	-11.6894
flower	-11.6894
▁dared	-11.6901
style	-11.6905
▁electron	-11.6906
▁investigator	-11.6915
▁danced	-11.6921
▁humor	-11.6924
dear	-11.6927
▁cad	-11.6928
olo	-11.6931
▁vroom	-11.6932
▁bored	-11.6934
▁ancestor	-11.6935
▁infection	-11.6935
▁retain	-11.6935
help	-11.6942
▁equally	-11.6944
▁pajamas	-11.6944
▁ou	-11.6949
▁disappointment	-11.6954
▁whirl	-11.6955
▁fel	-11.6956
▁possessed	-11.6957
▁crumb	-11.6962
▁phase	-11.6963
know	-11.6969
▁dean	-11.6972
▁blackie	-11.6974
▁gem	-11.6975
imit	-11.6978
▁blossom	-11.698
luck	-11.6982
▁nanny	-11.6986
▁listed	-11.6988
▁bury	-11.699
▁stuart	-11.699
step	-11.6995
▁longest	-11.6996
▁twinkle	-11.6999
▁kra	-11.7005
▁activist	-11.7008
▁michelle	-11.701
▁supplies	-11.7017
▁install	-11.7019
▁assassin	-11.7026
▁holly	-11.7033
integr	-11.7034
▁lookee	-11.7034
▁pic	-11.7035
▁identity	-11.7036
▁pudding	-11.7036
fold	-11.7037
▁cheering	-11.7038
▁permit	-11.7043
▁combination	-11.7045
▁1958	-11.7046
▁exhausted	-11.7048
▁fastened	-11.7049
▁puzzled	-11.7049
▁mild	-11.7051
▁skull	-11.7054
▁sober	-11.7057
▁1952	-11.7063
▁1957	-11.7065
color	-11.7066
whimper	-11.707
▁unto	-11.7071
▁kil	-11.7075
▁loop	-11.7075
▁nelson	-11.7082
cca	-11.7083
ault	-11.7086
▁naked	-11.7094
▁debbie	-11.7101
▁smack	-11.7101
—”	-11.7102
▁elevator	-11.711
▁magnificent	-11.711
▁blown	-11.7115
▁devoted	-11.7117
▁testing	-11.7118
200	-11.7118
▁accompany	-11.7119
▁escort	-11.7119
▁charity	-11.7123
▁athletic	-11.7128
▁valentine	-11.7128
▁gesture	-11.7128
▁urged	-11.7129
▁shiver	-11.713
▁reporter	-11.7131
▁yer	-11.7132
▁syria	-11.7136
▁ambassador	-11.7138
▁furnish	-11.7138
malley	-11.7143
love	-11.7151
▁grape	-11.7152
▁drowned	-11.7153
▁assure	-11.7158
▁poop	-11.7163
big	-11.7164
hir	-11.7166
▁monitor	-11.7166
▁classical	-11.7174
▁necessarily	-11.7175
▁concentrate	-11.7175
suit	-11.7176
tract	-11.7179
▁sled	-11.7182
▁cau	-11.7184
▁otto	-11.7184
▁shriek	-11.7185
▁sector	-11.7187
▁mortal	-11.7188
▁buff	-11.7193
▁identify	-11.7194
▁automatic	-11.7194
▁internal	-11.7195
▁crashed	-11.7196
flo	-11.7202
▁stro	-11.7202
▁recognise	-11.7203
▁treaty	-11.7204
▁walker	-11.7204
own	-11.7205
▁runner	-11.7205
▁zu	-11.7205
▁counted	-11.7205
▁adding	-11.7211
▁scrub	-11.7213
▁33	-11.7221
▁immense	-11.7222
▁stake	-11.7225
borough	-11.7226
▁75	-11.7228
▁romance	-11.7249
▁clasp	-11.7251
▁doorway	-11.7251
▁chapel	-11.7272
~	-11.7273
▁motorcycle	-11.7279
▁genetic	-11.7279
▁pouring	-11.728
▁fry	-11.728
lect	-11.7283
▁hopefully	-11.7285
idae	-11.7287
▁marsh	-11.7295
▁plunge	-11.7298
▁grip	-11.7298
▁passenger	-11.7299
▁suspected	-11.7302
ova	-11.7308
▁commit	-11.7309
▁och	-11.731
▁stoop	-11.731
▁murmured	-11.7317
ought	-11.7318
fast	-11.7324
▁sharing	-11.7324
▁physics	-11.7326
▁plainly	-11.7331
something	-11.7331
note	-11.7339
touches	-11.734
▁slim	-11.7341
▁execute	-11.7345
▁opposed	-11.7346
▁harp	-11.7347
▁murderer	-11.7354
▁discipline	-11.7355
▁uncomfortable	-11.7355
▁remote	-11.736
▁fig	-11.7361
▁coward	-11.7362
igan	-11.7363
▁conscience	-11.7364
▁athlete	-11.7364
▁possess	-11.7366
▁preach	-11.7366
white	-11.737
▁immediate	-11.7372
▁aaron	-11.7376
▁squeal	-11.7377
onne	-11.7379
▁sup	-11.7383
▁whoop	-11.7383
▁scramble	-11.7384
▁robe	-11.7385
▁formation	-11.7391
▁haut	-11.7393
▁cathedral	-11.7393
▁acquire	-11.7393
▁attract	-11.7393
▁dreaming	-11.7399
▁delivery	-11.7403
▁brooklyn	-11.7403
▁reduced	-11.7406
▁controlled	-11.7411
▁bedtime	-11.7411
▁caesar	-11.7412
▁counties	-11.7413
clears	-11.7413
▁combined	-11.7422
▁attempted	-11.7422
▁bracelet	-11.7422
called	-11.7424
april	-11.7434
rang	-11.7441
▁kennedy	-11.7441
▁seldom	-11.7441
▁commanded	-11.7446
▁compliment	-11.7451
▁advertise	-11.7451
▁robbie	-11.7451
une	-11.7452
▁34	-11.7456
wil	-11.7457
▁compass	-11.7462
jim	-11.7463
▁gown	-11.7463
▁nothin	-11.7464
▁parker	-11.7464
▁jamie	-11.7468
▁municipalities	-11.747
▁terry	-11.7477
▁abandoned	-11.7477
anne	-11.7478
▁snatch	-11.748
▁aunty	-11.7484
š	-11.7489
▁satellite	-11.7489
vir	-11.7491
▁1946	-11.7491
▁convict	-11.7494
▁utter	-11.7505
▁petrol	-11.7506
▁traveling	-11.7507
▁merged	-11.7509
word	-11.7511
▁badge	-11.7513
pushes	-11.7513
▁frighten	-11.7516
▁turkish	-11.7519
grm	-11.7522
▁porter	-11.7524
▁correspond	-11.7528
▁receiving	-11.7528
▁jumper	-11.7528
▁dustbin	-11.7528
▁dreamed	-11.753
▁amusement	-11.7538
▁shone	-11.7541
▁fist	-11.7544
▁vet	-11.7546
total	-11.7552
action	-11.7552
▁interior	-11.7557
▁inspired	-11.7558
▁dispute	-11.7558
▁`	-11.7559
▁moss	-11.7561
▁haunt	-11.7561
▁pala	-11.7563
▁explorer	-11.7568
▁philosophy	-11.7577
▁louisiana	-11.7577
▁vanished	-11.7577
▁jazz	-11.758
▁harrison	-11.758
▁vent	-11.7581
▁straighten	-11.7584
▁franc	-11.7584
▁saxon	-11.7586
▁prefecture	-11.7596
▁relieved	-11.7599
eyed	-11.7604
▁nomination	-11.7606
other	-11.7608
▁everyday	-11.761
▁consume	-11.7616
▁rotten	-11.7617
||1||	-11.7621
▁neglect	-11.7625
▁foster	-11.7628
▁snip	-11.763
▁lobster	-11.7635
▁niece	-11.7635
▁42	-11.7642
▁pioneer	-11.7645
▁opponent	-11.7655
▁kicking	-11.7664
▁bleeding	-11.7665
▁carries	-11.7665
▁fifa	-11.7668
▁minus	-11.7668
▁allison	-11.7671
▁starred	-11.7673
▁intelligent	-11.7675
▁portugal	-11.7675
▁spike	-11.7675
course	-11.7679
▁panel	-11.768
▁dimitra	-11.7684
▁memorial	-11.7684
▁singapore	-11.7684
▁departure	-11.7685
▁armenian	-11.7689
silver	-11.769
▁1920	-11.769
▁gallop	-11.7696
▁1949	-11.7696
▁wheat	-11.7696
▁cutter	-11.7697
▁marvel	-11.7701
▁potter	-11.7703
▁permitted	-11.7706
▁dramatic	-11.7714
▁extinct	-11.7714
▁conscious	-11.7722
née	-11.7723
▁1942	-11.7725
▁trembling	-11.7734
▁fearful	-11.7736
▁hydro	-11.7738
▁dresses	-11.7743
▁joining	-11.7744
▁fortunately	-11.7745
▁hypo	-11.7747
▁leaped	-11.775
▁shovel	-11.7754
▁distract	-11.7755
▁renew	-11.7762
fresh	-11.7763
▁bargain	-11.7764
▁verb	-11.7771
▁withdraw	-11.7772
▁nepal	-11.7774
▁cupcake	-11.7775
▁disturbed	-11.7775
hra	-11.7775
uf	-11.7776
▁curly	-11.7778
▁sap	-11.778
▁pence	-11.7783
▁volleyball	-11.7783
▁pol	-11.7785
▁stem	-11.7786
world	-11.7789
▁harmon	-11.7789
▁filling	-11.7796
direct	-11.7799
children	-11.7802
▁axe	-11.781
▁farewell	-11.7813
▁uncertain	-11.7817
▁hunger	-11.7824
▁jose	-11.7825
psych	-11.7826
▁adopt	-11.7832
▁welsh	-11.7834
▁1954	-11.7835
▁exhibition	-11.7837
▁suitable	-11.7843
ground	-11.7846
▁pub	-11.7849
▁propose	-11.7852
bank	-11.7853
▁surgeon	-11.7853
▁moor	-11.7864
link	-11.7869
▁electrical	-11.7877
▁regarding	-11.7884
--------------	-11.7888
horse	-11.7892
▁slam	-11.7895
▁sensible	-11.7904
▁whispering	-11.7907
▁shakespeare	-11.7914
▁wisdom	-11.7914
▁trigger	-11.7915
▁sadly	-11.792
▁homework	-11.7925
▁berg	-11.7931
▁lettuce	-11.7934
▁slap	-11.7935
▁alec	-11.7936
▁wandering	-11.7936
▁decline	-11.7937
▁borough	-11.794
▁chemistry	-11.7945
▁1955	-11.7946
▁dialect	-11.7954
▁perch	-11.7957
woo	-11.796
▁stripes	-11.7962
▁dame	-11.7963
▁investigate	-11.7964
▁shiny	-11.7964
▁sweater	-11.7973
▁russell	-11.7974
▁1939	-11.7976
▁fries	-11.7976
▁practically	-11.7977
▁attracted	-11.7979
▁modest	-11.7981
cj	-11.7982
▁improved	-11.7983
▁submit	-11.7985
▁alliance	-11.7985
▁promptly	-11.7993
▁metres	-11.7994
▁polo	-11.7994
▁cunning	-11.7995
▁execution	-11.7995
▁publish	-11.7995
blows	-11.7996
▁flee	-11.7997
▁mario	-11.7999
▁helpful	-11.7999
indistinct	-11.8005
▁anderson	-11.8009
▁historic	-11.8011
▁wax	-11.8014
▁batter	-11.8015
▁jennifer	-11.8015
▁issued	-11.8019
▁forbidden	-11.8025
▁scientist	-11.8027
▁flap	-11.8035
▁sensation	-11.8036
lé	-11.8036
▁gab	-11.8045
▁acknowledge	-11.8046
▁striking	-11.8046
▁surprising	-11.8046
▁councillor	-11.8047
▁gli	-11.8049
▁yelling	-11.805
▁moan	-11.8056
▁resolution	-11.8056
▁dale	-11.806
▁deliberate	-11.8066
▁molecule	-11.8066
▁pigeon	-11.8066
▁pursuit	-11.8066
▁volcano	-11.8069
cade	-11.8072
▁reduce	-11.8073
▁explore	-11.8075
▁visual	-11.8077
bef	-11.8077
▁warrant	-11.8077
▁yorkshire	-11.8079
▁sneeze	-11.8084
▁brenda	-11.8087
▁romania	-11.8087
▁businessman	-11.8092
▁absolute	-11.8095
▁ministry	-11.8097
nova	-11.81
▁bail	-11.81
▁humming	-11.8102
▁amos	-11.8106
▁dakota	-11.8107
▁rhode	-11.8107
fil	-11.8108
▁pluck	-11.811
▁paddle	-11.811
pee	-11.8111
people	-11.8113
▁hollywood	-11.8118
▁lengthened	-11.8119
▁trapped	-11.8121
▁uttered	-11.8122
speak	-11.8122
gold	-11.8126
▁divorced	-11.8128
▁ultimate	-11.8128
▁indonesia	-11.8128
rrr	-11.8129
▁deeper	-11.8134
▁canvas	-11.8137
▁scarlet	-11.814
ident	-11.8146
▁mushroom	-11.8148
▁privilege	-11.8148
conti	-11.8153
▁bron	-11.8153
▁erect	-11.8154
▁medium	-11.8159
▁globe	-11.8165
▁lantern	-11.8169
cloth	-11.8176
▁belgium	-11.8179
▁beaver	-11.818
▁waffle	-11.819
▁creating	-11.8202
▁entry	-11.8204
nese	-11.8208
▁dolphin	-11.8211
▁1943	-11.8212
great	-11.8213
glass	-11.8218
▁scoop	-11.8223
▁exit	-11.8223
▁secured	-11.8229
▁colin	-11.8231
▁octopus	-11.8231
▁analysis	-11.8231
▁knit	-11.8232
▁retirement	-11.8233
▁fortunate	-11.824
▁struggling	-11.8242
▁temporary	-11.8242
▁discharge	-11.8242
▁humble	-11.8244
▁heroes	-11.8249
▁eighth	-11.825
▁popped	-11.8251
▁irene	-11.8252
▁essay	-11.8252
vil	-11.8258
▁behaviour	-11.8263
▁capacity	-11.8263
could	-11.827
▁hack	-11.8271
▁pilgrim	-11.8273
▁abraham	-11.8273
▁fulfil	-11.8273
▁confederate	-11.8284
jun	-11.8284
▁stroll	-11.8287
▁tee	-11.8288
▁ost	-11.8296
▁roughly	-11.8303
▁survived	-11.8305
▁1941	-11.8306
▁1944	-11.8306
▁cou	-11.8308
▁imitate	-11.8309
▁scarf	-11.8313
▁introduction	-11.8315
▁blaze	-11.8316
▁exposed	-11.8316
illo	-11.8316
▁steer	-11.8318
▁featured	-11.832
▁wah	-11.832
▁joyce	-11.8322
▁peninsula	-11.8326
agne	-11.8332
▁invasion	-11.8336
▁absent	-11.8336
▁harvey	-11.8336
▁rhythm	-11.8347
▁behalf	-11.8348
▁invade	-11.8355
à	-11.8357
▁identified	-11.8357
▁cellar	-11.8365
▁distribution	-11.8368
▁nellie	-11.8368
▁enterprise	-11.8378
▁earliest	-11.8378
active	-11.8383
footnote	-11.8385
▁bothered	-11.8386
▁architect	-11.8389
▁occupation	-11.8389
▁dislike	-11.8389
▁rural	-11.839
beat	-11.8391
▁deserted	-11.8391
▁wives	-11.8391
watch	-11.8398
shot	-11.8401
▁prof	-11.8402
grade	-11.8403
▁eun	-11.8406
▁leaned	-11.8409
talking	-11.8415
pulls	-11.8418
▁hermit	-11.8427
▁afterward	-11.8428
▁pac	-11.8428
▁specimen	-11.8431
▁crunch	-11.8432
gio	-11.8439
▁marian	-11.8455
▁cargo	-11.8458
▁distinguished	-11.846
▁uefa	-11.8463
▁1951	-11.8465
▁ske	-11.8467
▁fern	-11.8468
▁sensitive	-11.8474
▁strap	-11.8474
phon	-11.8477
▁dollhouse	-11.8478
▁crust	-11.8488
▁brew	-11.849
▁stump	-11.8498
▁missile	-11.8498
▁lifetime	-11.8505
▁hamilton	-11.8506
▁casual	-11.8506
▁properties	-11.8507
▁ernest	-11.8507
▁select	-11.8508
▁desired	-11.8509
took	-11.8511
▁taperecorder	-11.8517
▁spotted	-11.8523
▁hopeless	-11.8523
▁commissioner	-11.8523
▁bangladesh	-11.8527
▁bradford	-11.8528
▁damaged	-11.853
▁slightest	-11.853
▁existed	-11.8532
▁smallest	-11.8533
ić	-11.8534
▁gale	-11.8535
▁rah	-11.8536
▁resort	-11.8538
▁swiftly	-11.8543
▁gasped	-11.8548
▁oklahoma	-11.8549
▁architecture	-11.8549
▁harvest	-11.8549
▁clinic	-11.8551
▁finn	-11.8556
starts	-11.8568
▁wretch	-11.857
wyn	-11.8572
grf	-11.8573
▁freak	-11.8573
▁gleam	-11.8581
▁solomon	-11.8582
▁dizzy	-11.8592
▁sentiment	-11.8592
▁associate	-11.8599
▁concerning	-11.8602
▁steadily	-11.8603
▁snowman	-11.8603
▁1953	-11.8604
▁wwe	-11.8607
▁leon	-11.8612
▁reverse	-11.8621
▁ukraine	-11.8624
▁glove	-11.8625
▁promotion	-11.8625
▁tab	-11.8626
▁roller	-11.8635
▁campus	-11.8635
▁halloween	-11.8635
▁tennessee	-11.8635
▁exhibit	-11.8642
▁appetite	-11.8646
▁lloyd	-11.8646
based	-11.8653
▁cardinal	-11.8657
▁gail	-11.8667
ffy	-11.8667
▁contrary	-11.8668
▁marshall	-11.8669
▁swww	-11.8669
▁derek	-11.8669
▁warner	-11.8672
▁torch	-11.8677
▁stain	-11.8678
▁explode	-11.8679
▁damp	-11.8684
▁highness	-11.8686
▁iraq	-11.8686
▁angela	-11.8687
▁accord	-11.8689
▁engagement	-11.869
▁depending	-11.8698
▁disgrace	-11.8711
▁cambridge	-11.8711
▁thanksgiving	-11.8712
▁aisne	-11.8712
▁popcorn	-11.8712
▁hesitated	-11.8715
▁ferr	-11.8722
▁argentina	-11.8733
▁sustain	-11.8733
▁roz	-11.8736
▁banner	-11.8747
▁restrict	-11.8751
▁discussed	-11.8751
knock	-11.8751
▁sequence	-11.8755
."--_	-11.8755
▁fitted	-11.8758
▁mik	-11.8764
▁frederick	-11.8766
▁1936	-11.8768
▁fairies	-11.8768
fle	-11.8775
▁rosie	-11.8775
▁sketch	-11.8778
▁basin	-11.8779
▁rosy	-11.878
▁narrator	-11.8788
▁dignity	-11.8788
▁bunk	-11.8791
▁punk	-11.8792
edinburgh	-11.8799
▁ledge	-11.8799
▁chorus	-11.8801
listen	-11.8804
▁errand	-11.881
▁brake	-11.8812
▁divine	-11.8816
▁contribution	-11.8821
▁glimpse	-11.8821
▁samantha	-11.8821
▁unpleasant	-11.8821
▁finest	-11.8832
▁spiritual	-11.8833
|	-11.8843
▁elect	-11.8843
▁johann	-11.8843
▁sunset	-11.8848
▁ernie	-11.8855
udge	-11.8855
▁kel	-11.8856
▁1938	-11.8856
▁tyler	-11.8857
▁gha	-11.886
▁1934	-11.8867
▁quid	-11.8868
▁idle	-11.8869
▁containing	-11.8872
▁hydrogen	-11.8877
▁gilbert	-11.8877
▁graduate	-11.8885
▁cemetery	-11.8888
▁conducted	-11.8889
empt	-11.8896
▁fatal	-11.8897
eye	-11.8902
▁dwarf	-11.891
▁promoted	-11.8913
▁tremble	-11.8914
lov	-11.8915
▁declare	-11.8919
▁$2	-11.8925
ibility	-11.894
▁bog	-11.8951
▁performing	-11.8954
▁utterly	-11.8957
▁spinning	-11.8957
▁subsid	-11.8958
▁kara	-11.8958
▁spencer	-11.8966
bone	-11.8967
icia	-11.8969
▁65	-11.8969
▁apt	-11.8972
▁vega	-11.8974
liness	-11.8977
▁rosalie	-11.8977
▁phillip	-11.8978
▁finance	-11.8979
picture	-11.8985
▁amused	-11.8989
▁blanc	-11.899
▁violet	-11.8999
▁elsewhere	-11.9002
throws	-11.9003
“	-11.9007
▁tomatoes	-11.9009
wich	-11.9009
▁steak	-11.9013
▁yuck	-11.9017
▁contrast	-11.9022
▁villain	-11.9022
▁vel	-11.9023
▁harsh	-11.9027
▁abc	-11.9028
▁murmur	-11.9033
▁punish	-11.9033
▁paralympic	-11.9044
▁academic	-11.9044
▁sponsor	-11.9044
▁leonard	-11.9045
city	-11.9046
▁scold	-11.9059
▁moonlight	-11.9059
person	-11.9061
▁vital	-11.9064
witch	-11.9066
▁yawn	-11.9067
▁1933	-11.9068
▁vincent	-11.9079
▁selection	-11.9082
▁ragged	-11.9083
▁horizon	-11.9088
▁portuguese	-11.909
manchester	-11.909
▁czech	-11.9101
▁gazing	-11.9101
make	-11.9101
shima	-11.9106
▁pronounced	-11.9112
▁sewing	-11.9116
▁interval	-11.9118
▁spilled	-11.9122
fashioned	-11.9122
ppen	-11.9123
▁disguise	-11.9124
▁yacht	-11.9124
▁infant	-11.9134
▁sri	-11.9135
▁ornament	-11.9135
▁restrain	-11.9135
▁raft	-11.914
▁colon	-11.9143
▁admiration	-11.9147
▁esc	-11.9148
▁exclamation	-11.9151
▁moreover	-11.9155
▁jessica	-11.9159
▁achievement	-11.9161
▁earnestly	-11.9163
humming	-11.9169
▁bacteria	-11.9169
▁landscape	-11.9169
▁heritage	-11.917
▁descended	-11.9172
truck	-11.9175
▁civilian	-11.9176
▁parson	-11.9176
▁monument	-11.9181
▁federation	-11.9181
▁harbour	-11.9181
▁nigeria	-11.9181
▁steering	-11.9183
eight	-11.9184
▁pandemic	-11.9192
▁transferred	-11.9193
▁jun	-11.9195
▁napoleon	-11.9204
▁translation	-11.9204
▁frown	-11.9204
▁comedian	-11.9205
▁heartily	-11.9205
▁emotional	-11.9209
wow	-11.9215
▁geoffrey	-11.9227
trust	-11.9227
▁nickel	-11.9227
▁£	-11.9229
▁ladybird	-11.923
▁motive	-11.9231
▁fifi	-11.9233
▁tucker	-11.9235
stream	-11.9238
▁constituency	-11.9238
▁decoration	-11.9238
▁mixture	-11.924
▁israeli	-11.9244
▁attraction	-11.9246
green	-11.9246
▁signature	-11.9261
▁clatter	-11.9262
crib	-11.9265
dorf	-11.9267
▁polar	-11.9271
▁dense	-11.9272
paper	-11.9273
▁jennie	-11.9274
▁gallant	-11.9275
▁publisher	-11.9281
▁routine	-11.9284
▁employment	-11.9286
▁improvement	-11.9287
▁fragment	-11.9296
▁keith	-11.9296
▁stewart	-11.9296
lady	-11.9296
▁punished	-11.9297
▁doubtless	-11.9298
▁lala	-11.9307
▁kentucky	-11.9308
▁assumed	-11.9311
▁barbie	-11.9317
▁astonishment	-11.9319
▁maisie	-11.9319
▁convey	-11.932
groans	-11.9325
bow	-11.9332
▁bloke	-11.9334
quo	-11.9337
▁accurate	-11.9342
▁prophet	-11.9343
▁gallery	-11.9343
hour	-11.9351
▁bruise	-11.9354
▁residence	-11.9354
▁enthusiasm	-11.9366
▁grabbed	-11.9367
▁grammy	-11.9367
▁drake	-11.9374
▁proportion	-11.9377
▁urgent	-11.9377
▁ronald	-11.9378
bang	-11.9381
▁accomplished	-11.9389
type	-11.9389
▁nightmare	-11.939
▁maryland	-11.939
▁gir	-11.9392
▁pierce	-11.9393
final	-11.94
▁communicate	-11.9401
roid	-11.9407
▁sammy	-11.941
▁emmy	-11.9412
▁rover	-11.9412
▁dedicated	-11.9412
▁sequel	-11.9412
▁gratitude	-11.9412
▁ewww	-11.9418
▁ashes	-11.9422
▁context	-11.9424
▁genuine	-11.9424
▁regulation	-11.9425
▁slug	-11.9427
▁trumpet	-11.9428
▁invisible	-11.9436
▁edith	-11.9436
▁flavor	-11.9436
osaurus	-11.9437
phil	-11.9438
▁scent	-11.9443
▁accomplish	-11.946
▁oars	-11.9462
▁examined	-11.9463
▁approved	-11.9467
→	-11.9468
▁twisted	-11.9471
▁clutch	-11.9471
▁pomp	-11.9476
▁arizona	-11.9483
▁calculate	-11.9483
▁oath	-11.9483
▁bandage	-11.9487
▁barrier	-11.9495
moans	-11.9502
▁lollipop	-11.9507
▁carrier	-11.9507
▁wrestler	-11.9507
cross	-11.9516
▁proceeding	-11.9517
▁deaf	-11.9519
▁resent	-11.9521
icle	-11.9521
ovich	-11.9522
▁magnetic	-11.9522
▁prick	-11.9522
▁diary	-11.9526
▁difficulties	-11.9529
▁communities	-11.953
▁ethan	-11.9531
▁°	-11.9541
organ	-11.9551
▁flushed	-11.9554
▁nigel	-11.9555
▁estimated	-11.9566
▁nowadays	-11.9566
▁gracious	-11.9567
▁snapped	-11.9568
ô	-11.9577
▁mechanic	-11.9578
▁approval	-11.9578
▁philosopher	-11.9578
▁telegraph	-11.9578
▁perceived	-11.9587
▁utah	-11.959
▁decorate	-11.9591
▁hawaii	-11.9602
▁organisation	-11.9602
uro	-11.9602
▁peru	-11.9604
▁salute	-11.9605
▁socialist	-11.9609
▁restless	-11.961
▁entitled	-11.9614
▁mathematics	-11.9614
▁jeremy	-11.9614
▁horrid	-11.9614
▁roland	-11.9614
▁buster	-11.962
▁lazy	-11.962
▁animation	-11.9626
▁objective	-11.9626
▁jock	-11.9629
▁waking	-11.963
▁dumb	-11.9634
▁survivor	-11.9638
▁happier	-11.9638
▁civilization	-11.965
▁mic	-11.9651
hsl	-11.9652
▁scorn	-11.9658
▁wade	-11.9666
▁{	-11.9668
▁raisin	-11.967
▁descent	-11.9671
▁convince	-11.9672
▁vegetable	-11.9677
fact	-11.9682
▁shallow	-11.9685
bridge	-11.9686
▁ethnic	-11.9686
▁portrait	-11.9686
▁applause	-11.9698
▁connecticut	-11.9698
▁schooner	-11.9698
▁alexandr	-11.9703
▁followers	-11.9705
▁hitler	-11.971
▁continuous	-11.971
▁arabic	-11.9717
weight	-11.9718
ø	-11.9722
▁shah	-11.9729
▁democrat	-11.9731
▁secondary	-11.9731
▁reflection	-11.9732
▁poverty	-11.9734
▁revolver	-11.9734
▁resigned	-11.9734
▁marcus	-11.9738
▁mule	-11.9742
▁anniversary	-11.9746
▁flush	-11.9747
▁1929	-11.9748
▁preferred	-11.9748
▁coral	-11.9748
▁slate	-11.9754
general	-11.9756
▁convenient	-11.9758
▁muffin	-11.9758
▁rooster	-11.9759
▁continent	-11.976
▁spur	-11.976
▁burger	-11.9763
▁lauren	-11.9765
▁relate	-11.9766
▁1935	-11.9772
▁tackle	-11.9773
▁contribute	-11.9773
▁armour	-11.9779
mumbles	-11.9783
▁apron	-11.9784
▁milan	-11.9785
▁ankle	-11.9786
▁viola	-11.9789
france	-11.9794
▁attach	-11.9801
▁quo	-11.9803
▁category	-11.9807
▁definition	-11.9807
▁nursing	-11.9807
▁blink	-11.9819
▁radiation	-11.9819
▁caravan	-11.9819
▁diego	-11.982
▁rattling	-11.9831
▁random	-11.9831
rome	-11.9836
▁impressive	-11.9843
▁screwdriver	-11.9843
▁caution	-11.9844
write	-11.9845
▁salary	-11.985
▁floss	-11.9854
▁bathtub	-11.9856
▁nicola	-11.9856
before	-11.9856
▁cloak	-11.9858
▁josh	-11.9858
▁nhl	-11.9859
▁glu	-11.9867
▁fountain	-11.9868
▁64	-11.9872
▁wick	-11.9872
▁leadership	-11.9873
▁youngster	-11.9879
▁elegant	-11.988
▁paradise	-11.988
▁reagan	-11.988
▁hiya	-11.989
▁endure	-11.989
▁thompson	-11.9892
▁1937	-11.9895
▁lucas	-11.9898
comune	-11.9901
▁colombia	-11.9905
▁1932	-11.9906
▁mansion	-11.9914
blue	-11.9915
▁bunker	-11.9917
▁educated	-11.9917
▁summit	-11.9917
▁400	-11.9921
▁trading	-11.9921
▁ripped	-11.9923
qual	-11.9927
▁approximately	-11.9929
▁denmark	-11.9931
▁taxes	-11.9937
▁helm	-11.994
▁trevor	-11.9942
▁kyle	-11.9948
▁barney	-11.9952
▁penalty	-11.9954
▁estimate	-11.9954
▁amateur	-11.9955
▁grinned	-11.9955
▁tossed	-11.9956
▁tracy	-11.9956
▁ninth	-11.996
▁tasty	-11.9967
▁restored	-11.9973
▁nintendo	-11.9979
▁basement	-11.9979
▁brownie	-11.9983
▁concentration	-11.9991
▁protein	-11.9991
▁craig	-11.9995
▁foam	-11.9998
▁saucer	-11.9999
▁burglar	-12.0004
▁lau	-12.0008
▁habitat	-12.001
▁patriot	-12.0016
▁slavery	-12.0021
▁hugo	-12.0027
▁corrupt	-12.0029
▁skeleton	-12.0029
▁felix	-12.0029
▁yucky	-12.0029
▁adele	-12.0031
▁establish	-12.0041
▁jingle	-12.0042
▁pork	-12.0046
▁travelled	-12.006
▁policies	-12.0066
▁strategy	-12.0066
▁rarely	-12.0072
▁prix	-12.0074
▁laundry	-12.0079
▁whe	-12.0081
▁surf	-12.0088
▁stalk	-12.009
▁honk	-12.0091
▁nicholas	-12.0091
▁providing	-12.0091
▁cocoa	-12.0091
▁narrative	-12.0104
▁enforce	-12.0104
▁pont	-12.0116
▁clyde	-12.0116
▁organism	-12.0119
▁2017)	-12.012
▁hush	-12.0123
▁comparative	-12.0129
▁corridor	-12.0129
▁sovereign	-12.0129
▁1931	-12.013
▁neil	-12.0141
▁mercury	-12.0141
▁microsoft	-12.0141
▁simpson	-12.0141
▁brun	-12.0147
▁whistling	-12.0167
▁threatening	-12.0167
▁hastened	-12.0168
▁logic	-12.0169
▁dentist	-12.0179
▁requirement	-12.0183
▁lynn	-12.0191
▁astonished	-12.0192
▁butterflies	-12.0192
▁translated	-12.0192
ū	-12.0192
▁apparent	-12.0193
▁vague	-12.0195
▁gig	-12.0202
▁galaxy	-12.0205
cken	-12.0207
▁agnes	-12.0208
▁traveller	-12.0209
▁champ	-12.0214
▁electoral	-12.0217
▁footsteps	-12.0217
▁rhine	-12.0218
▁•	-12.0218
morph	-12.0225
natural	-12.0228
▁maurice	-12.023
newman	-12.0235
john	-12.0236
▁fictional	-12.0237
▁spade	-12.0238
▁destination	-12.0243
▁landlord	-12.0243
▁regain	-12.0243
▁lizard	-12.0244
▁prairie	-12.0255
▁collie	-12.0256
▁predator	-12.0256
hawk	-12.0265
▁nathaniel	-12.0268
▁toronto	-12.0269
▁stirring	-12.027
▁strait	-12.0272
▁annoyed	-12.0273
▁greeted	-12.0274
▁foul	-12.0276
▁idol	-12.0276
\	-12.0281
▁vacuum	-12.0281
▁scandal	-12.0281
ê	-12.0294
▁determine	-12.0295
▁genera	-12.0297
▁islamic	-12.0307
▁pail	-12.0312
▁plank	-12.0314
▁magical	-12.0315
▁marion	-12.0316
▁margot	-12.032
beep	-12.0321
▁weakness	-12.0326
▁recruit	-12.0332
▁transmit	-12.0332
▁barber	-12.0334
▁utmost	-12.0345
▁1928	-12.0347
ratner	-12.0355
▁rumor	-12.0357
▁equation	-12.0358
▁leisure	-12.0358
▁esther	-12.036
▁brace	-12.0361
▁150	-12.0362
▁marcel	-12.0368
▁oswald	-12.0371
▁amendment	-12.0371
▁portray	-12.0373
▁colorado	-12.0373
change	-12.038
▁refrigerator	-12.0384
▁frequent	-12.0385
▁employer	-12.0386
▁snug	-12.0389
game	-12.0391
brush	-12.0395
▁harvard	-12.0397
imitating	-12.0398
▁wallace	-12.0399
▁limp	-12.04
▁batman	-12.0401
▁dusk	-12.0403
ã	-12.041
▁graphic	-12.041
▁captive	-12.0412
▁levi	-12.0425
▁confession	-12.043
▁fantasy	-12.0436
▁vigorous	-12.0436
▁maximum	-12.0436
▁stew	-12.0445
▁democracy	-12.0449
▁fuzzy	-12.0449
▁composition	-12.0449
50,000	-12.0449
▁awoke	-12.045
▁flutter	-12.0454
▁annabel	-12.0461
↗	-12.0462
▁invention	-12.0462
▁crib	-12.0463
▁witnesses	-12.0479
▁divi	-12.048
▁countenance	-12.0488
▁owen	-12.0489
▁effie	-12.0501
▁injuries	-12.0501
▁mammy	-12.0501
▁ethel	-12.0503
▁tread	-12.0503
▁isaac	-12.0503
▁pawn	-12.0504
▁fbi	-12.0508
▁emphasis	-12.0514
▁graceful	-12.0527
▁reef	-12.053
▁liverpool	-12.054
▁tsar	-12.0544
pause	-12.0546
▁mineral	-12.0546
▁embrace	-12.0553
▁[$=1	-12.0553
▁ferry	-12.0562
▁telegram	-12.0566
▁terrorist	-12.0568
2,000	-12.057
plane	-12.0571
▁storage	-12.0579
▁telescope	-12.058
▁undertake	-12.058
abba	-12.0582
▁jerk	-12.0586
▁junk	-12.0587
▁cluster	-12.0592
▁gravity	-12.0592
▁universities	-12.0592
▁detroit	-12.0592
putting	-12.0598
▁playgroup	-12.0606
▁franco	-12.0608
cake	-12.0609
▁lyon	-12.061
▁mythology	-12.0619
▁pru	-12.0623
script	-12.0631
screaming	-12.0631
▁amazement	-12.0632
▁audrey	-12.0632
▁josé	-12.0632
▁knives	-12.0645
braunwald	-12.0645
▁##	-12.0646
▁rubbed	-12.0646
▁burial	-12.065
▁shrine	-12.0659
▁franz	-12.0659
▁ambition	-12.0659
▁compare	-12.0664
▁rejoice	-12.0672
▁mwww	-12.0673
▁announcement	-12.0674
undercurrent	-12.0685
▁physician	-12.0685
▁recognition	-12.0685
▁lime	-12.069
▁timid	-12.0696
softly	-12.0697
▁bachelor	-12.0699
▁demonstrate	-12.07
▁vanilla	-12.0701
▁galley	-12.0703
sexual	-12.0711
▁absurd	-12.0712
▁marjorie	-12.0712
▁promote	-12.0718
▁ontario	-12.0725
▁infantry	-12.0727
▁fortnight	-12.0728
▁edmund	-12.0739
▁siege	-12.0741
▁abandon	-12.0742
▁flatter	-12.0745
▁hungary	-12.0756
▁suspended	-12.0765
ł	-12.0765
▁abbey	-12.0765
▁trifle	-12.0766
▁fluid	-12.0771
▁cadet	-12.0773
imitates	-12.0773
▁clinton	-12.0779
▁assigned	-12.0779
▁shaft	-12.0792
▁cavalry	-12.0792
▁parallel	-12.0792
▁arabia	-12.0792
▁pippin	-12.0793
▁bruno	-12.0801
▁receipt	-12.0806
▁norwegian	-12.0806
▁velvet	-12.0806
▁readily	-12.081
▁amazed	-12.0819
▁distinguish	-12.0823
picking	-12.0831
pool	-12.0832
▁destiny	-12.0833
▁stockings	-12.0836
▁mitten	-12.0848
▁operator	-12.0848
▁hampshire	-12.086
▁jeffrey	-12.086
▁ascend	-12.0861
▁parlor	-12.0861
shaped	-12.0867
▁prominent	-12.0873
▁mechanism	-12.0873
▁seesaw	-12.0876
neil	-12.0881
▁harriet	-12.0887
▁erase	-12.0897
▁celebration	-12.09
▁tragedy	-12.09
▁dissolve	-12.09
▁neighbourhood	-12.0901
▁frock	-12.0905
▁nathalie	-12.0914
▁cradle	-12.0914
▁jasper	-12.0914
▁recess	-12.0919
▁playground	-12.092
▁ammunition	-12.0928
▁sib	-12.0932
▁henri	-12.0935
▁jung	-12.0938
cock	-12.0941
▁indulge	-12.0941
▁shilling	-12.0942
▁retire	-12.0942
300	-12.0947
▁affectionate	-12.0957
▁plaster	-12.0958
▁procession	-12.0959
▁dwww	-12.0959
▁giggle	-12.096
▁lance	-12.097
▁wright	-12.0976
▁michel	-12.0981
▁chronic	-12.0982
▁psycho	-12.0983
▁fiddle	-12.0984
▁rico	-12.0987
▁producing	-12.0996
movie	-12.0998
▁ensure	-12.1001
▁neuro	-12.101
▁extract	-12.1014
▁rash	-12.1025
▁vein	-12.1026
▁moose	-12.1028
▁stepping	-12.1031
position	-12.1037
national	-12.1043
▁hound	-12.1043
▁publication	-12.1044
▁precisely	-12.1044
▁artificial	-12.1051
▁oregon	-12.1051
▁iranian	-12.1051
▁update	-12.1053
▁cease	-12.1054
↫	-12.1065
▁franchise	-12.1065
▁playdough	-12.1065
▁musket	-12.1065
▁collins	-12.1066
▁tamil	-12.1069
▁crest	-12.1071
▁trent	-12.1072
▁slot	-12.1075
feld	-12.1075
▁acquainted	-12.1079
▁literary	-12.1079
▁rascal	-12.1079
young	-12.1081
▁hub	-12.1092
▁qualified	-12.1093
▁reindeer	-12.1093
▁elliot	-12.1093
▁wilderness	-12.1093
diary	-12.1094
▁armies	-12.11
ür	-12.1103
▁satisfy	-12.1106
▁renamed	-12.1107
▁denied	-12.1121
▁madison	-12.1122
▁1926	-12.1123
▁calf	-12.1133
▁ponies	-12.1134
▁murray	-12.1135
▁cautiously	-12.114
▁hostage	-12.1141
▁archie	-12.1142
▁whine	-12.1147
▁vitamin	-12.1148
▁lyrics	-12.1148
▁teapot	-12.1151
▁roxy	-12.1162
▁toothbrush	-12.1162
▁doubtful	-12.1168
▁carpenter	-12.1176
▁veteran	-12.1176
▁tobacco	-12.1176
▁eldest	-12.1176
▁glitter	-12.1177
▁finland	-12.1179
▁disposed	-12.118
▁azerbaijan	-12.119
▁subsequent	-12.119
▁twilight	-12.119
▁slender	-12.119
▁contempt	-12.119
▁consciousness	-12.1192
▁electro	-12.1194
▁profession	-12.1197
indeed	-12.1204
▁jerusalem	-12.1204
▁mediterranean	-12.1204
▁confront	-12.1206
▁differ	-12.1216
▁fascinating	-12.1218
▁salmon	-12.1228
▁señor	-12.1232
▁scotch	-12.1247
▁gregory	-12.1247
▁hoop	-12.1248
▁christianity	-12.1257
kisses	-12.126
hush	-12.1265
▁impulse	-12.1274
▁dwelling	-12.1275
▁iceland	-12.128
▁wizard	-12.1289
▁freezing	-12.1289
▁robbed	-12.1289
arms	-12.1297
▁cinderella	-12.1303
▁muhammad	-12.1303
▁programming	-12.1306
▁broadway	-12.1307
▁stitch	-12.1309
stock	-12.131
▁patron	-12.1316
▁virtue	-12.1317
▁sleigh	-12.1317
▁starving	-12.1324
@	-12.1331
▁fabric	-12.1331
▁lowest	-12.1338
▁tease	-12.1338
uncle	-12.134
▁advertising	-12.1345
▁jeep	-12.1347
▁panting	-12.1351
▁arriving	-12.1359
▁pennies	-12.136
▁mechanical	-12.136
▁fritz	-12.1361
▁1927	-12.1362
ë	-12.1374
▁cornflakes	-12.1374
▁lemonade	-12.1374
▁virtual	-12.1388
▁watson	-12.1388
▁spaceship	-12.1396
▁slack	-12.1403
▁countess	-12.1404
▁ditch	-12.1417
▁placing	-12.1419
▁jest	-12.1429
▁jefferson	-12.1431
▁condemn	-12.1431
▁skating	-12.1431
designated	-12.1433
▁rubbing	-12.1433
▁miami	-12.1435
▁strengthen	-12.1443
å	-12.1445
▁maisy	-12.1445
▁squire	-12.1446
▁colonies	-12.1447
▁creak	-12.1449
▁pottie	-12.145
▁tack	-12.1453
▁eternal	-12.146
▁pedro	-12.146
▁coup	-12.1461
▁classification	-12.1462
▁continental	-12.1465
▁insane	-12.1469
▁orleans	-12.1474
▁import	-12.1475
▁duncan	-12.1476
▁criticism	-12.1477
covered	-12.1483
▁gorilla	-12.1488
ulf	-12.1491
▁basil	-12.1495
▁alpha	-12.1495
▁recollect	-12.1503
▁doughnut	-12.1503
▁freight	-12.1504
▁swarm	-12.1505
▁thorough	-12.1506
▁plantation	-12.1507
▁atoms	-12.151
▁fireplace	-12.1516
▁exclusive	-12.1518
▁blunt	-12.1518
▁boast	-12.1519
front	-12.1526
▁agricultural	-12.1532
▁marvellous	-12.1532
▁darwin	-12.1533
▁establishment	-12.1534
▁bulk	-12.1535
▁humphrey	-12.1546
▁angrily	-12.1546
▁{\	-12.1546
▁revolutionary	-12.155
▁transportation	-12.1554
▁breathless	-12.1557
▁facilities	-12.1561
▁necessity	-12.1561
▁ursula	-12.1561
▁wharf	-12.1561
▁definite	-12.1564
▁rapper	-12.1567
▁wrestle	-12.1574
▁cocoon	-12.1575
▁blush	-12.1586
▁indignant	-12.159
▁recipe	-12.159
▁graz	-12.1601
▁manifest	-12.1604
▁terminal	-12.1605
▁console	-12.1606
▁passport	-12.1609
discards	-12.1613
▁spice	-12.1616
▁wisconsin	-12.1619
▁whiskers	-12.1624
▁dismay	-12.1625
▁hungarian	-12.1634
▁specifically	-12.1635
▁raspberry	-12.1639
▁punjab	-12.1648
▁traitor	-12.1648
begins	-12.1648
▁trolley	-12.1663
▁streak	-12.1663
▁dimple	-12.1664
▁bennie	-12.167
▁allowance	-12.167
▁brute	-12.1675
▁deceive	-12.1678
▁picardie	-12.1678
▁mick	-12.1678
▁magician	-12.1692
▁ritual	-12.1692
bourne	-12.1692
▁swimmer	-12.1695
▁approve	-12.1697
▁diagnosed	-12.1707
▁inspection	-12.1707
▁merrily	-12.1707
▁nathan	-12.1708
▁bengal	-12.171
▁hyun	-12.1714
▁unlock	-12.1717
▁rubbish	-12.1722
dynamite	-12.1722
▁theodore	-12.1722
▁neutral	-12.1737
▁clapping	-12.1739
▁2024	-12.1739
▁kirk	-12.174
▁cement	-12.1746
▁houston	-12.1751
▁loaf	-12.1752
▁brigade	-12.1752
▁campbell	-12.1754
▁prompt	-12.1755
iller	-12.1762
▁circum	-12.1766
▁industries	-12.1766
▁yoghurt	-12.1766
▁baltimore	-12.1781
▁miguel	-12.1781
▁recommendation	-12.1781
▁grammar	-12.1784
▁quest	-12.1787
▁revenue	-12.1796
▁venezuela	-12.1811
engine	-12.1817
▁marshal	-12.1833
▁opportunities	-12.1841
▁frantic	-12.1841
▁amusing	-12.1842
▁cafe	-12.1853
▁screech	-12.1856
▁scholarship	-12.1857
▁madrid	-12.1857
▁yonder	-12.1859
having	-12.1862
▁arise	-12.1865
▁luggage	-12.1871
▁mortgage	-12.1871
▁therapy	-12.1872
▁choir	-12.188
shore	-12.1884
▁laboratory	-12.1886
nonspeech	-12.1886
▁inventor	-12.1887
▁rugby	-12.1888
▁slipping	-12.1889
▁titan	-12.1894
▁believing	-12.1901
▁hebrew	-12.1901
▁kidney	-12.1906
▁apollo	-12.1916
sneezes	-12.1919
sniffs	-12.1921
angel	-12.1927
▁danish	-12.1927
▁pineapple	-12.1931
▁employ	-12.1933
▁beetle	-12.1936
▁exile	-12.1943
▁teasing	-12.1945
▁belgian	-12.1946
▁rustle	-12.1946
▁quiver	-12.1951
▁spectacle	-12.1961
▁quantity	-12.1961
▁minimum	-12.1961
▁racket	-12.1961
▁devon	-12.1961
▁champagne	-12.1961
david	-12.197
control	-12.1972
▁afghanistan	-12.1976
▁facility	-12.1976
▁bouncing	-12.1976
▁concrete	-12.1976
▁luxury	-12.1991
▁rebellion	-12.1991
▁yankee	-12.1991
▁peck	-12.2
▁compelled	-12.2006
▁stirred	-12.2008
▁shawn	-12.201
▁mound	-12.2012
gunshot	-12.2012
▁macdonald	-12.2021
▁shrub	-12.2022
▁holmes	-12.2022
▁fowl	-12.2023
▁1925	-12.2025
▁junction	-12.2037
correct	-12.2037
▁intimate	-12.2038
super	-12.2041
▁paragraph	-12.2052
▁sparrow	-12.2052
▁coffin	-12.2052
inaudible	-12.2052
▁ransom	-12.2059
▁advisor	-12.2067
▁infinite	-12.2067
speech	-12.2067
▁cigar	-12.207
▁envy	-12.2073
▁sculpture	-12.2082
▁supplied	-12.2082
▁hilary	-12.2083
▁exploit	-12.2083
▁temptation	-12.2083
▁poppy	-12.2088
▁organic	-12.2089
▁birmingham	-12.2098
▁wholly	-12.2105
▁gibb	-12.2109
▁brumm	-12.2115
▁lanka	-12.2131
▁1922	-12.2132
▁anthem	-12.2134
▁cleveland	-12.2144
▁tutor	-12.2152
▁ellis	-12.2156
▁garbage	-12.2159
▁pulse	-12.2159
▁laurie	-12.216
▁serbia	-12.2161
alpes	-12.2163
natured	-12.2164
▁hoover	-12.2169
▁hudson	-12.2175
▁shrill	-12.2175
▁garments	-12.2175
▁demonstration	-12.219
▁endeavour	-12.219
▁extensive	-12.219
▁implement	-12.219
▁tattoo	-12.219
giving	-12.2194
wife	-12.2196
▁cabbage	-12.2206
▁resemble	-12.2206
▁pronoun	-12.2217
▁efficient	-12.2221
▁saga	-12.2223
▁partnership	-12.2225
▁agriculture	-12.2237
▁certificate	-12.2237
▁1918	-12.2241
▁protestant	-12.2243
▁misfortune	-12.2252
▁transcribe	-12.2253
▁squadron	-12.2253
▁artillery	-12.2268
▁continuing	-12.2268
▁sunlight	-12.2277
▁cyclone	-12.2283
▁battalion	-12.2283
writing	-12.2284
$	-12.2285
▁terrified	-12.2299
▁malaysia	-12.2299
▁caleb	-12.2299
▁diving	-12.2306
▁exceed	-12.2315
▁hymn	-12.2315
▁misery	-12.2317
happy	-12.2318
▁comparison	-12.233
▁determination	-12.233
▁henderson	-12.233
▁twig	-12.2331
▁plague	-12.2333
▁loyalty	-12.2333
▁livingston	-12.2339
▁melbourne	-12.2346
▁idaho	-12.2346
▁cecil	-12.2347
▁liking	-12.2354
▁municipal	-12.236
▁aggressive	-12.2362
▁explosive	-12.2362
▁fundamental	-12.2362
▁southwestern	-12.2364
▁reluctant	-12.2378
▁occupy	-12.2378
▁orthodox	-12.2378
▁practise	-12.2378
▁1924	-12.2381
▁quoth	-12.2384
▁oct	-12.2387
▁territories	-12.2393
▁liquor	-12.2393
▁crank	-12.2396
▁bough	-12.24
▁greet	-12.2403
▁indigenous	-12.2409
▁survival	-12.2409
▁bluff	-12.2411
▁primarily	-12.2425
▁torpedo	-12.2425
▁nottingham	-12.2425
č	-12.2441
▁grocery	-12.2441
▁qualities	-12.2441
▁welfare	-12.2441
▁wrath	-12.2441
second	-12.2442
▁bryan	-12.2443
▁deedee	-12.2457
crayon	-12.2458
▁1923	-12.246
▁shudder	-12.2473
▁murphy	-12.2473
▁squat	-12.2476
▁torment	-12.2476
▁muddy	-12.2477
▁altitude	-12.2489
▁inquiry	-12.2489
▁♪♪	-12.2501
▁dvd	-12.2505
through	-12.2505
▁accidentally	-12.2509
▁extension	-12.252
▁garrison	-12.252
▁manhattan	-12.252
enburg	-12.2529
▁kilometers	-12.2536
▁taiwan	-12.2536
▁munich	-12.2537
▁cordial	-12.254
▁serial	-12.254
▁diesel	-12.2553
▁puerto	-12.2568
▁selena	-12.2569
▁hyper	-12.2571
▁veil	-12.2571
▁commitment	-12.2571
central	-12.2577
▁leicester	-12.2585
▁broccoli	-12.2585
▁aroused	-12.2586
▁massacre	-12.2601
▁dragging	-12.2602
▁derby	-12.2606
▁guitarist	-12.2606
▁devotion	-12.2617
▁rejoined	-12.2617
▁unfair	-12.2617
▁syllable	-12.2617
▁tweet	-12.2617
▁shrink	-12.2618
▁prussia	-12.2618
▁boundary	-12.2625
▁prevail	-12.2633
▁teenager	-12.2633
▁arguing	-12.2633
▁tornado	-12.2633
western	-12.2648
▁wardrobe	-12.2649
▁perfume	-12.2649
▁measuring	-12.2649
▁gloria	-12.265
▁lounge	-12.2651
▁serpent	-12.2665
▁colonial	-12.2666
▁strand	-12.2668
fusion	-12.2669
▁abbot	-12.2682
▁trophy	-12.2682
wheel	-12.2683
▁mosquito	-12.2698
▁somme	-12.2699
▁ignorant	-12.2714
▁kidnapped	-12.2714
▁oatmeal	-12.2714
▁substitute	-12.2714
▁xxv	-12.2715
▁bradley	-12.2732
▁freud	-12.2734
▁highchair	-12.2735
▁gervaise	-12.2747
▁falcon	-12.2747
▁munch	-12.2756
▁glancing	-12.2763
▁montreal	-12.2763
▁fortress	-12.2763
▁adrian	-12.2765
▁lumber	-12.2766
▁thieves	-12.278
▁inspiration	-12.278
▁bennett	-12.278
▁crawford	-12.2796
▁thump	-12.2796
draws	-12.2806
▁breach	-12.2809
▁restore	-12.281
▁martial	-12.2813
commune	-12.2814
▁charley	-12.2817
▁hostile	-12.2832
▁conspiracy	-12.2845
▁warehouse	-12.2845
▁density	-12.2846
quarter	-12.2847
▁theories	-12.2849
haired	-12.286
▁equivalent	-12.2862
▁retorted	-12.2862
▁wrench	-12.2862
▁mammals	-12.2863
▁toxic	-12.2863
▁brutal	-12.2864
▁seize	-12.2875
▁croatia	-12.2879
▁minnie	-12.2882
▁tension	-12.2883
▁corporal	-12.2895
▁rehearsal	-12.2895
▁randall	-12.2895
▁biological	-12.2896
▁bravo	-12.2899
▁congressional	-12.2912
▁manuscript	-12.2912
▁qualify	-12.2912
▁reckless	-12.2912
▁variation	-12.2928
▁pocketbook	-12.2931
▁jewelry	-12.2933
▁index	-12.2933
♪	-12.2939
▁crooked	-12.2945
▁kipper	-12.2946
▁pasture	-12.2953
▁stella	-12.2956
▁pittsburgh	-12.2962
▁lettice	-12.2963
▁guilt	-12.2967
▁squirt	-12.2979
▁bosom	-12.2979
▁creative	-12.298
▁component	-12.2995
▁amazon	-12.2995
#	-12.2996
chuckling	-12.3004
▁grub	-12.3006
▁knob	-12.3007
▁grease	-12.3016
▁organize	-12.3023
▁pretzel	-12.3029
▁triumphant	-12.3031
▁margin	-12.3034
another	-12.3037
▁buggy	-12.3064
▁medication	-12.3079
▁ribbit	-12.308
▁1919	-12.3085
▁anticipate	-12.3096
▁sprinkle	-12.3096
▁ronnie	-12.3097
▁gospel	-12.3098
▁cheerio	-12.3098
▁scarce	-12.31
▁consistent	-12.3102
▁exhaust	-12.3107
▁baking	-12.3108
▁coincidence	-12.3113
▁qualification	-12.3113
▁consultation	-12.3113
▁guidance	-12.313
▁conquest	-12.313
▁fancied	-12.313
▁steward	-12.3135
troph	-12.314
rrington	-12.3141
▁glee	-12.3148
▁serge	-12.3154
▁declaration	-12.3164
▁strategic	-12.3164
▁altar	-12.3166
▁vermont	-12.3166
related	-12.3167
true	-12.3172
▁instruction	-12.3181
▁exceedingly	-12.3181
▁maxim	-12.3196
▁joyful	-12.3197
▁almighty	-12.3198
▁bouncy	-12.3198
▁quebec	-12.3198
▁interaction	-12.3216
▁comfortably	-12.3217
space	-12.322
▁fugitive	-12.3233
▁reinforce	-12.3233
bottle	-12.3235
▁1921	-12.3237
▁nasa	-12.3244
▁vault	-12.3269
▁phoenix	-12.3284
▁profound	-12.3286
▁singular	-12.3287
▁forecast	-12.3302
▁considerably	-12.3303
▁archive	-12.3307
▁moderate	-12.3314
▁substantial	-12.3319
▁clump	-12.3319
▁guild	-12.3319
▁twelfth	-12.3336
▁unbelievable	-12.3336
▁fluffy	-12.3336
better	-12.3341
demonstrates	-12.3352
▁vampire	-12.3354
▁caribbean	-12.3354
▁circular	-12.3354
▁quantum	-12.3354
▁bidding	-12.3357
▁conviction	-12.3362
▁complications	-12.3371
▁watermelon	-12.3371
▁depressed	-12.3371
claps	-12.3377
î	-12.3388
▁salzburg	-12.3388
▁bulb	-12.339
▁glide	-12.3398
▁immortal	-12.3406
▁mohammed	-12.3406
▁promising	-12.3406
▁whereupon	-12.3406
daughter	-12.3408
▁cromer	-12.3409
▁gwen	-12.341
▁wrinkle	-12.3423
▁duchess	-12.3423
▁porridge	-12.3424
▁grieve	-12.3431
▁chemist	-12.3439
▁reverend	-12.3441
▁luncheon	-12.3441
▁10,000	-12.3441
▁fraud	-12.3443
▁awright	-12.3444
▁array	-12.3445
▁marcia	-12.3445
▁teletubbies	-12.3458
▁zipper	-12.3461
terminate	-12.3461
investigator	-12.3461
yawns	-12.3484
stairs	-12.3485
▁misunderstand	-12.3494
▁montgomery	-12.3494
▁rosamund	-12.3494
▁pledge	-12.3494
▁armenia	-12.3503
▁hedgehog	-12.3511
♫	-12.3511
▁arctic	-12.3511
▁apology	-12.3512
▁suppress	-12.3512
▁banned	-12.3514
▁leopard	-12.3529
▁partially	-12.3529
▁curtis	-12.3531
▁mcdonald	-12.3557
▁youtube	-12.356
certainly	-12.3561
▁playstation	-12.3565
present	-12.3582
▁compromise	-12.36
▁congratulate	-12.36
▁sesame	-12.36
▁patricia	-12.36
▁barcelona	-12.3618
▁lolly	-12.3618
▁burrow	-12.3621
screen	-12.3621
▁dainty	-12.3636
▁disposition	-12.3638
▁hoarse	-12.3653
▁georgie	-12.3655
▁passionate	-12.3656
▁tortoise	-12.3671
▁joshua	-12.3672
▁audio	-12.3673
▁transition	-12.3674
▁plough	-12.3689
▁presume	-12.3689
▁biology	-12.3692
▁carved	-12.3693
pound	-12.3707
▁calculation	-12.3707
▁defensive	-12.3707
▁pyramid	-12.3707
▁baggage	-12.3707
▁mutual	-12.3707
▁inhabit	-12.3743
tropic	-12.3749
▁engage	-12.3753
ogram	-12.3767
▁constellation	-12.3779
▁kathryn	-12.3779
▁pharaoh	-12.3779
giggling	-12.378
south	-12.3783
▁primitive	-12.3798
▁shampoo	-12.3798
▁gossip	-12.3798
▁dillon	-12.3799
▁derwood	-12.38
▁creator	-12.38
▁initiative	-12.3816
▁essex	-12.3816
▁cindy	-12.3816
▁diameter	-12.3816
december	-12.3819
scott	-12.383
ß	-12.3834
▁retrieve	-12.3834
▁trauma	-12.3834
▁cyril	-12.3834
▁revolt	-12.3835
▁workshop	-12.3836
▁drummer	-12.3837
sometimes	-12.3838
▁immigrant	-12.3852
▁legislative	-12.3852
▁superintendent	-12.3852
▁toothpaste	-12.3852
▁undoubtedly	-12.3852
▁brett	-12.3857
▁hippopotamus	-12.3871
▁crimson	-12.3871
▁humpty	-12.3871
▁glasgow	-12.3889
▁ketchup	-12.3889
▁plymouth	-12.3907
▁ukrainian	-12.3907
▁worries	-12.3907
▁heavier	-12.3926
▁sunrise	-12.3926
▁puddle	-12.3927
▁clad	-12.3936
yells	-12.3936
▁commonwealth	-12.3944
▁referee	-12.3951
▁admiring	-12.3962
▁probable	-12.3963
▁resolve	-12.3975
▁slumber	-12.3981
august	-12.3985
relative	-12.3985
third	-12.3986
▁fletcher	-12.3999
different	-12.4003
▁assignment	-12.4018
▁hazard	-12.4018
▁orchard	-12.4018
ă	-12.4631
ş	-12.4891
§	-12.5283
¶	-12.5332
ï	-12.5453
œ	-12.5648
ı	-12.6684
ì	-12.7104
	-12.7155
ī	-12.7232
{	-12.7294
×	-12.7387
ž	-12.765
¡	-12.884
¿	-12.927
©	-12.9654
·	-12.9686
ý	-13.0156
ð	-13.0434
ș	-13.0612
ń	-13.1052
€	-13.1711
‘	-13.1888
ò	-13.1914
−	-13.1914
^	-13.2503
ś	-13.3176
	-13.3364
⁄	-13.3798
¤	-13.3898
′	-13.4253
∆	-13.4409
ř	-13.4949
þ	-13.5004
∙	-13.5287
⌈	-13.5387
đ	-13.546
û	-13.5637
£	-13.6752
­	-13.6766
ğ	-13.6766
ː	-13.6766
ˈ	-13.6833
õ	-13.69
ù	-13.7173
ě	-13.7173
⁎	-13.7525
ē	-13.8269
ə	-13.8269
―	-13.8989
	-13.8989
ț	-13.9242
ż	-13.9766
ő	-14.0319
İ	-14.0414
ę	-14.1005
¢	-14.1107
ą	-14.1315
±	-14.1634
ţ	-14.1963
ć	-14.2461
ʻ	-14.2657
„	-14.3798
ʼ	-14.3798
‡	-14.407
η	-14.4209
ṯ	-14.4209
ả	-14.4637
ṭ	-14.4638
ḥ	-14.4785
ệ	-14.4934
ー	-14.5879
ɪ	-14.5879
ɛ	-14.6046
÷	-14.6216
ė	-14.6563
	-14.6563
ź	-14.6742
ư	-14.6742
®	-14.7109
>	-14.7298
ĕ	-14.7886
»	-14.8511
†	-14.8511
ʿ	-14.8729
ṉ	-14.9178
«	-14.9178
ṣ	-14.9178
ɑ	-14.9178
ň	-14.9649
ọ	-14.9893
ů	-15.0143
¦	-15.0143
ÿ	-15.0143
ǎ	-15.0932
	-15.0933
་	-15.121
ŋ	-15.179
¬	-15.179
॥	-15.2093
▔	-15.2406
ɔ	-15.2406
•	-15.2713
ʊ	-15.2728
←	-15.2728
ạ	-15.3062
	-15.3406
ʾ	-15.3764
ũ	-15.4134
ế	-15.4134
¥	-15.4518
∇	-15.4918
・	-15.4918
ṇ	-15.4919
ứ	-15.5335
♭	-15.577
ʃ	-15.6224
⟩	-15.6224
ŭ	-15.6224
	-15.6701
ŵ	-15.6701
ộ	-15.6701
ơ	-15.7201
ố	-15.7201
‐	-15.7201
ṃ	-15.7727
।	-15.7727
ν	-15.7727
ʒ	-15.7727
ˌ	-15.8283
∞	-15.8871
ġ	-15.9496
█	-15.9496
○	-15.9496
₹	-15.9496
ŏ	-16.0162
ε	-16.0162
٤	-16.0162
ề	-16.0162
ị	-16.0162
	-16.0877
<	-16.0877
ƒ	-16.0877
‚	-16.0877
ĭ	-16.1646
ǫ	-16.1646
ʔ	-16.1646
ο	-16.1646
؟	-16.1646
١	-16.1646
∴	-16.1646
ḍ	-16.1646
ľ	-16.2479
ŷ	-16.2479
į	-16.2479
ť	-16.2479
ǔ	-16.2479
ʌ	-16.2479
ɡ	-16.3388
↑	-16.3388
ɣ	-16.3388
ɐ	-16.3388
	-16.3388
	-16.3389
٥	-16.4388
₤	-16.4388
≤	-16.4388
ɾ	-16.4388
٢	-16.5499
٧	-16.5499
ʁ	-16.5499
٨	-16.5499
ẓ	-16.5499
♯	-16.5499
ĩ	-16.55
ɫ	-16.55
	-16.6749
ĝ	-16.6749
⬄	-16.6749
ď	-16.6749
ļ	-16.6749
ớ	-16.6749
≥	-16.6749
☆	-16.6749
	-16.675
ḻ	-16.675
√	-16.675
	-16.675
	-16.675
ǁ	-16.8178
ˆ	-16.8178
٦	-16.8178
१	-16.8178
	-16.8178
ĥ	-16.8178
ǐ	-16.8178
ẻ	-16.8178
ụ	-16.8178
ữ	-16.8178
⁂	-16.8178
ɒ	-16.8178
ɦ	-16.8178
ʋ	-16.8178
	-16.9845
ĉ	-16.9845
ħ	-16.9845
ŝ	-16.9845
ǝ	-16.9845
ủ	-16.9845
ỹ	-16.9845
⁠	-16.9845
☺	-16.9845
✡	-16.9845
ű	-16.9845
ǒ	-16.9845
ɕ	-16.9845
★	-16.9845
	-16.9845
	-17.1845
	-17.1845
ɹ	-17.1845
٩	-17.1845
ṓ	-17.1845
ɯ	-17.1845
ɲ	-17.1845
ʏ	-17.1845
ḷ	-17.1845
ậ	-17.1845
ắ	-17.1845
ẹ	-17.1845
∘	-17.1845
≈	-17.1845
⋅	-17.1845
	-17.4345
	-17.4345
ව	-17.4345
ǂ	-17.4345
ṅ	-17.4345
、	-17.4345
ĵ	-17.4345
ǚ	-17.4345
ɨ	-17.4345
ɩ	-17.4345
ḫ	-17.4345
ầ	-17.4345
ổ	-17.4345
ỳ	-17.4345
‖	-17.4345
※	-17.4345
₱	-17.4345
₵	-17.4345
≠	-17.4345
●	-17.4345
♥	-17.4345
ẽ	-17.4345
˧	-17.4345
ȝ	-17.7678
ʇ	-17.7678
ʕ	-17.7678
״	-17.7678
ấ	-17.7678
ƌ	-17.7678
ɘ	-17.7678
ˊ	-17.7678
ˋ	-17.7678
ṛ	-17.7678
ằ	-17.7678
ỉ	-17.7678
ử	-17.7678
‬	-17.7678
‰	-17.7678
∂	-17.7678
∈	-17.7678
∗	-17.7678
∝	-17.7678
≡	-17.7678
「	-17.7678
」	-17.7678
ɜ	-17.7678
✿	-18.2664
⌊	-18.2664
	-18.2677
	-18.2678
ේ	-18.2678
ṁ	-18.2678
ʹ	-18.2678
〜	-18.2678
ƿ	-18.2678
ǧ	-18.2678
ɂ	-18.2678
ʈ	-18.2678
ʐ	-18.2678
ˇ	-18.2678
а	-18.2678
б	-18.2678
३	-18.2678
४	-18.2678
५	-18.2678
ය	-18.2678
ා	-18.2678
၁	-18.2678
ḿ	-18.2678
ṙ	-18.2678
ể	-18.2678
ở	-18.2678
ự	-18.2678
⊙	-18.2678
◉	-18.2678
☃	-18.2678
☻	-18.2678
✅	-18.2678
✙	-18.2678
❌	-18.2678
ꜧ	-18.2678
ꞯ	-18.2678
ǣ	-18.2678
ʂ	-18.2678
с	-18.2678
ʎ	-18.2678
ẏ	-18.2678
ɳ	-18.2678
ǩ	-19.2657
ŧ	-19.2658
ǵ	-19.2659
‍	-19.266
ـ	-19.2661
τ	-19.2662
ʘ	-19.2663
₩	-19.2664
υ	-19.2665
།	-19.2666
ј	-19.2667
ķ	-19.2668
ņ	-19.2669
⟨	-19.267
α	-19.2671
ễ	-19.2672
ờ	-19.2673
ẩ	-19.2674
‭	-19.2675
ồ	-19.2676
̶	-19.2677
ṟ	-19.2678
០	-19.2678
☛	-19.2678
й	-19.2678
ģ	-19.2678
ĺ	-19.2678
ŕ	-19.2678
ų	-19.2678
ƅ	-19.2678
ǹ	-19.2678
ȁ	-19.2678
ȃ	-19.2678
ɗ	-19.2678
ɝ	-19.2678
ɟ	-19.2678
ɥ	-19.2678
ɮ	-19.2678
ɶ	-19.2678
ɷ	-19.2678
ɸ	-19.2678
ɺ	-19.2678
ʙ	-19.2678
ʝ	-19.2678
ʟ	-19.2678
ʧ	-19.2678
ʽ	-19.2678
˦	-19.2678
̈	-19.2678
β	-19.2678
к	-19.2678
м	-19.2678
о	-19.2678
у	-19.2678
ш	-19.2678
я	-19.2678
־	-19.2678
۰	-19.2678
०	-19.2678
६	-19.2678
७	-19.2678
८	-19.2678
९	-19.2678
ආ	-19.2678
ජ	-19.2678
බ	-19.2678
ු	-19.2678
ෝ	-19.2678
၀	-19.2678
၃	-19.2678
၄	-19.2678
၅	-19.2678
၆	-19.2678
၇	-19.2678
၈	-19.2678
၉	-19.2678
᚛	-19.2678
᚜	-19.2678
១	-19.2678
២	-19.2678
៣	-19.2678
៤	-19.2678
៥	-19.2678
៦	-19.2678
៧	-19.2678
៨	-19.2678
៩	-19.2678
ḋ	-19.2678
ḗ	-19.2678
ḱ	-19.2678
ṗ	-19.2678
ṫ	-19.2678
ṳ	-19.2678
ṹ	-19.2678
ặ	-19.2678
ỏ	-19.2678
ỗ	-19.2678
ợ	-19.2678
‿	-19.2678
⁣	-19.2678
₣	-19.2678
₿	-19.2678
↊	-19.2678
↋	-19.2678
∉	-19.2678
≒	-19.2678
▼	-19.2678
☉	-19.2678
☐	-19.2678
☚	-19.2678
☣	-19.2678
☭	-19.2678
☯	-19.2678
♄	-19.2678
♑	-19.2678
♒	-19.2678
♠	-19.2678
♡	-19.2678
♮	-19.2678
❤	-19.2678
⬱	-19.2678
ⱡ	-19.2678
。	-19.2678
〉	-19.2678
ǃ	-19.2678
۞	-19.2678
ḏ	-19.2678
ḡ	-19.2678
ḩ	-19.2678
ẵ	-19.2678
✚	-19.2678
ɖ	-19.2678
ʑ	-19.2678
ˀ	-19.2678
∼	-19.2678
ḵ	-19.2678
	-19.2679
˥	-19.2679
˩	-19.2679
́	-19.2679
