<unk>	0
<s>	0
</s>	0
<pad>	0
<0x00>	0
<0x01>	0
<0x02>	0
<0x03>	0
<0x04>	0
<0x05>	0
<0x06>	0
<0x07>	0
<0x08>	0
<0x09>	0
<0x0A>	0
<0x0B>	0
<0x0C>	0
<0x0D>	0
<0x0E>	0
<0x0F>	0
<0x10>	0
<0x11>	0
<0x12>	0
<0x13>	0
<0x14>	0
<0x15>	0
<0x16>	0
<0x17>	0
<0x18>	0
<0x19>	0
<0x1A>	0
<0x1B>	0
<0x1C>	0
<0x1D>	0
<0x1E>	0
<0x1F>	0
<0x20>	0
<0x21>	0
<0x22>	0
<0x23>	0
<0x24>	0
<0x25>	0
<0x26>	0
<0x27>	0
<0x28>	0
<0x29>	0
<0x2A>	0
<0x2B>	0
<0x2C>	0
<0x2D>	0
<0x2E>	0
<0x2F>	0
<0x30>	0
<0x31>	0
<0x32>	0
<0x33>	0
<0x34>	0
<0x35>	0
<0x36>	0
<0x37>	0
<0x38>	0
<0x39>	0
<0x3A>	0
<0x3B>	0
<0x3C>	0
<0x3D>	0
<0x3E>	0
<0x3F>	0
<0x40>	0
<0x41>	0
<0x42>	0
<0x43>	0
<0x44>	0
<0x45>	0
<0x46>	0
<0x47>	0
<0x48>	0
<0x49>	0
<0x4A>	0
<0x4B>	0
<0x4C>	0
<0x4D>	0
<0x4E>	0
<0x4F>	0
<0x50>	0
<0x51>	0
<0x52>	0
<0x53>	0
<0x54>	0
<0x55>	0
<0x56>	0
<0x57>	0
<0x58>	0
<0x59>	0
<0x5A>	0
<0x5B>	0
<0x5C>	0
<0x5D>	0
<0x5E>	0
<0x5F>	0
<0x60>	0
<0x61>	0
<0x62>	0
<0x63>	0
<0x64>	0
<0x65>	0
<0x66>	0
<0x67>	0
<0x68>	0
<0x69>	0
<0x6A>	0
<0x6B>	0
<0x6C>	0
<0x6D>	0
<0x6E>	0
<0x6F>	0
<0x70>	0
<0x71>	0
<0x72>	0
<0x73>	0
<0x74>	0
<0x75>	0
<0x76>	0
<0x77>	0
<0x78>	0
<0x79>	0
<0x7A>	0
<0x7B>	0
<0x7C>	0
<0x7D>	0
<0x7E>	0
<0x7F>	0
<0x80>	0
<0x81>	0
<0x82>	0
<0x83>	0
<0x84>	0
<0x85>	0
<0x86>	0
<0x87>	0
<0x88>	0
<0x89>	0
<0x8A>	0
<0x8B>	0
<0x8C>	0
<0x8D>	0
<0x8E>	0
<0x8F>	0
<0x90>	0
<0x91>	0
<0x92>	0
<0x93>	0
<0x94>	0
<0x95>	0
<0x96>	0
<0x97>	0
<0x98>	0
<0x99>	0
<0x9A>	0
<0x9B>	0
<0x9C>	0
<0x9D>	0
<0x9E>	0
<0x9F>	0
<0xA0>	0
<0xA1>	0
<0xA2>	0
<0xA3>	0
<0xA4>	0
<0xA5>	0
<0xA6>	0
<0xA7>	0
<0xA8>	0
<0xA9>	0
<0xAA>	0
<0xAB>	0
<0xAC>	0
<0xAD>	0
<0xAE>	0
<0xAF>	0
<0xB0>	0
<0xB1>	0
<0xB2>	0
<0xB3>	0
<0xB4>	0
<0xB5>	0
<0xB6>	0
<0xB7>	0
<0xB8>	0
<0xB9>	0
<0xBA>	0
<0xBB>	0
<0xBC>	0
<0xBD>	0
<0xBE>	0
<0xBF>	0
<0xC0>	0
<0xC1>	0
<0xC2>	0
<0xC3>	0
<0xC4>	0
<0xC5>	0
<0xC6>	0
<0xC7>	0
<0xC8>	0
<0xC9>	0
<0xCA>	0
<0xCB>	0
<0xCC>	0
<0xCD>	0
<0xCE>	0
<0xCF>	0
<0xD0>	0
<0xD1>	0
<0xD2>	0
<0xD3>	0
<0xD4>	0
<0xD5>	0
<0xD6>	0
<0xD7>	0
<0xD8>	0
<0xD9>	0
<0xDA>	0
<0xDB>	0
<0xDC>	0
<0xDD>	0
<0xDE>	0
<0xDF>	0
<0xE0>	0
<0xE1>	0
<0xE2>	0
<0xE3>	0
<0xE4>	0
<0xE5>	0
<0xE6>	0
<0xE7>	0
<0xE8>	0
<0xE9>	0
<0xEA>	0
<0xEB>	0
<0xEC>	0
<0xED>	0
<0xEE>	0
<0xEF>	0
<0xF0>	0
<0xF1>	0
<0xF2>	0
<0xF3>	0
<0xF4>	0
<0xF5>	0
<0xF6>	0
<0xF7>	0
<0xF8>	0
<0xF9>	0
<0xFA>	0
<0xFB>	0
<0xFC>	0
<0xFD>	0
<0xFE>	0
<0xFF>	0
.	-2.85306
:	-3.32979
▁*	-3.37808
,	-3.47585
s	-3.54387
▁the	-3.5727
'	-3.79172
mot	-4.16877
▁a	-4.17956
▁you	-4.23301
▁and	-4.24849
▁i	-4.2861
▁to	-4.29494
?	-4.30348
chi	-4.38338
▁it	-4.50523
▁of	-4.53932
▁in	-4.67773
t	-4.70768
▁that	-4.73043
▁is	-5.13121
▁he	-5.13233
▁was	-5.22561
▁=	-5.25973
▁on	-5.35194
▁[	-5.39579
▁what	-5.39899
▁for	-5.43722
▁we	-5.50272
▁"	-5.52217
▁this	-5.61125
ing	-5.61457
!	-5.62913
]	-5.62934
ed	-5.64283
▁with	-5.69882
▁do	-5.7048
▁no	-5.72005
▁there	-5.76571
▁they	-5.76585
▁have	-5.76656
▁be	-5.78457
m	-5.79241
▁she	-5.81125
▁not	-5.81491
-	-5.81952
d	-5.8266
▁me	-5.82871
▁-	-5.84648
▁	-5.85843
▁one	-5.87813
▁can	-5.88377
▁at	-5.89084
re	-5.8943
▁are	-5.91149
▁but	-5.91706
▁his	-5.94693
▁so	-6.0085
▁oh	-6.04829
▁all	-6.05806
▁yeah	-6.06088
▁as	-6.07428
▁my	-6.10753
▁her	-6.11527
▁your	-6.11778
▁don	-6.12235
▁go	-6.13867
▁know	-6.14238
...	-6.16808
▁had	-6.18003
▁up	-6.18189
▁like	-6.18465
ll	-6.24201
inv	-6.27522
▁from	-6.30131
▁out	-6.30181
i	-6.31299
▁here	-6.36083
▁just	-6.37343
▁get	-6.38681
▁him	-6.4103
e	-6.41954
▁by	-6.41995
▁if	-6.43053
y	-6.43464
▁right	-6.45172
▁see	-6.45179
▁an	-6.45537
▁now	-6.48035
▁then	-6.49225
▁were	-6.50007
▁well	-6.50019
▁about	-6.50596
▁or	-6.51599
▁when	-6.52004
▁said	-6.55809
ve	-6.57781
▁who	-6.59797
▁got	-6.60138
▁think	-6.60411
▁them	-6.60569
▁did	-6.61554
▁where	-6.64838
ly	-6.64979
fat	-6.67909
a	-6.68832
▁will	-6.69381
▁come	-6.69491
▁some	-6.7088
▁look	-6.72445
er	-6.72859
▁would	-6.74576
;	-6.74739
▁yes	-6.7504
▁want	-6.77254
▁“	-6.78543
▁good	-6.78864
▁(	-6.80884
▁how	-6.82779
’	-6.85095
▁okay	-6.85317
▁down	-6.85403
▁put	-6.85638
n	-6.85928
▁back	-6.86478
].	-6.86817
▁little	-6.87487
."	-6.88864
▁time	-6.90043
▁been	-6.90338
▁over	-6.91598
▁more	-6.91724
▁very	-6.92213
▁has	-6.92432
▁xxx	-6.92581
▁going	-6.92998
▁which	-6.94683
▁two	-6.95711
"	-6.97762
▁let	-6.98344
r	-7.0264
▁'	-7.02995
▁their	-7.04805
▁b	-7.06117
)	-7.06509
▁could	-7.08543
o	-7.10368
▁say	-7.10476
c	-7.12445
,"	-7.12835
▁other	-7.14505
▁why	-7.15011
▁make	-7.17656
▁take	-7.18957
▁man	-7.20116
in	-7.21597
▁into	-7.22259
▁people	-7.24463
▁too	-7.24702
▁way	-7.26011
▁because	-7.27331
▁us	-7.30429
▁after	-7.32155
▁tell	-7.32267
al	-7.32456
g	-7.33736
▁these	-7.33945
es	-7.34156
▁off	-7.34308
▁gonna	-7.34345
▁first	-7.35285
▁any	-7.35845
▁only	-7.36729
l	-7.39082
▁uh	-7.39618
▁our	-7.40785
▁something	-7.45451
▁again	-7.45551
p	-7.46552
▁really	-7.47736
▁er	-7.47779
▁didn	-7.48066
▁much	-7.53037
▁give	-7.53379
▁made	-7.56801
le	-7.5715
--	-7.57298
▁big	-7.57362
▁before	-7.58982
▁than	-7.59996
▁should	-7.60685
▁does	-7.60706
▁day	-7.61656
▁three	-7.61707
▁name	-7.62425
▁home	-7.62827
▁car	-7.62839
par	-7.63488
it	-7.6426
▁need	-7.65297
▁new	-7.65615
▁came	-7.65755
▁away	-7.66425
▁mean	-7.67345
▁went	-7.67564
b	-7.67781
▁house	-7.68067
▁another	-7.68202
▁play	-7.68803
▁never	-7.69036
▁mr	-7.69182
k	-7.69636
▁those	-7.70187
▁de	-7.70586
▁work	-7.7064
▁um	-7.71094
▁doing	-7.71208
▁thought	-7.71321
h	-7.71853
▁wanna	-7.72214
▁also	-7.72218
▁old	-7.72468
▁won	-7.72751
▁long	-7.75237
▁still	-7.75337
th	-7.75787
?"	-7.76214
_	-7.76994
f	-7.77416
▁thing	-7.77527
exp	-7.77542
▁great	-7.77736
▁am	-7.77742
w	-7.78154
/	-7.78262
▁many	-7.78294
▁head	-7.79444
▁things	-7.79465
▁through	-7.80561
▁last	-7.80782
▁must	-7.81467
the	-7.83571
▁o	-7.8395
or	-7.84237
▁may	-7.84647
▁mm	-7.85224
▁baby	-7.85321
▁even	-7.86796
▁night	-7.87117
▁boy	-7.87439
▁find	-7.8753
▁s	-7.87683
▁done	-7.88469
▁isn	-7.89388
on	-7.91089
▁thank	-7.91187
▁called	-7.91764
▁hand	-7.92195
▁help	-7.92448
en	-7.93204
▁girl	-7.9348
▁better	-7.93623
.”	-7.93736
▁%	-7.93863
▁might	-7.94041
▁bit	-7.94687
▁mother	-7.94938
▁found	-7.95367
an	-7.95571
▁nice	-7.95633
▁water	-7.96632
▁sure	-7.96837
▁please	-7.97199
▁love	-7.98062
▁school	-7.98159
▁around	-7.98215
▁keep	-7.98515
na	-7.99307
▁book	-7.99689
▁erm	-8.00101
▁life	-8.00833
▁hey	-8.01397
▁re	-8.01462
▁anything	-8.01527
▁c	-8.01979
▁eat	-8.02251
▁ah	-8.02744
▁place	-8.03023
▁doesn	-8.03526
,”	-8.03622
▁while	-8.0573
ie	-8.05819
▁d	-8.06184
▁end	-8.06629
▁mhm	-8.06698
▁p	-8.07206
▁lot	-8.07294
laughs	-8.07584
▁next	-8.07649
el	-8.0766
▁room	-8.07956
▁most	-8.0828
▁un	-8.08299
▁such	-8.08637
▁e	-8.08816
▁nothing	-8.09627
▁same	-8.09732
▁being	-8.09816
li	-8.09883
▁father	-8.10127
▁men	-8.10416
▁under	-8.11387
u	-8.11739
▁world	-8.11875
to	-8.12564
▁always	-8.12887
ne	-8.13065
▁told	-8.13146
man	-8.13656
▁mummy	-8.13921
▁door	-8.14307
and	-8.14931
ers	-8.15121
▁years	-8.15837
ch	-8.15987
▁shall	-8.16056
▁ever	-8.16153
▁left	-8.16275
add	-8.16471
ation	-8.16606
▁open	-8.16891
!"	-8.17171
▁chi	-8.17673
▁four	-8.17838
▁side	-8.17932
▁used	-8.19003
▁part	-8.19404
▁own	-8.1956
▁maybe	-8.19812
▁saw	-8.20072
ion	-8.20097
▁talk	-8.20732
▁once	-8.21246
v	-8.21312
▁else	-8.21449
se	-8.21767
▁kind	-8.22258
ro	-8.22754
ma	-8.23013
▁every	-8.24434
▁remember	-8.24484
▁looks	-8.24783
no	-8.25069
us	-8.25172
ton	-8.25514
ra	-8.25602
la	-8.26348
▁gone	-8.26399
▁sir	-8.27695
▁stop	-8.27783
▁wait	-8.28265
ar	-8.28648
▁enough	-8.28667
▁show	-8.28892
▁sorry	-8.29268
▁goes	-8.29294
▁huh	-8.29394
▁course	-8.29575
▁five	-8.29648
▁took	-8.2973
▁coming	-8.30221
▁until	-8.30791
7	-8.31091
▁call	-8.31328
sis	-8.31979
▁face	-8.32249
▁morning	-8.33269
▁best	-8.33671
1	-8.33688
▁use	-8.3419
▁red	-8.34304
▁second	-8.34539
▁seen	-8.3462
▁eyes	-8.34936
▁money	-8.35173
▁ma	-8.35394
▁turn	-8.35459
▁dear	-8.35877
ry	-8.37039
2	-8.37206
▁sit	-8.37276
▁quite	-8.37779
as	-8.37812
tea	-8.37836
▁though	-8.37848
▁yet	-8.3797
▁miss	-8.38377
▁daddy	-8.38432
▁says	-8.38508
▁g	-8.38863
▁god	-8.39109
▁_	-8.39625
you	-8.39648
▁mommy	-8.3976
▁hear	-8.39936
▁hm	-8.39949
▁asked	-8.40069
▁box	-8.40088
de	-8.40213
▁leave	-8.40229
▁young	-8.40393
▁haven	-8.41185
▁today	-8.41207
▁together	-8.41442
▁blue	-8.4215
▁city	-8.42151
▁high	-8.42682
▁year	-8.42734
is	-8.43382
▁watch	-8.43775
z	-8.43799
▁m	-8.43835
▁bad	-8.44186
▁each	-8.44206
▁ball	-8.44428
▁heard	-8.44815
▁read	-8.45237
un	-8.45302
▁getting	-8.45404
▁mind	-8.45707
em	-8.45722
▁mrs	-8.45772
ent	-8.45974
▁try	-8.46027
ter	-8.46249
▁both	-8.46258
▁since	-8.46336
▁without	-8.46411
▁small	-8.46568
▁different	-8.46688
▁half	-8.46688
mch	-8.47051
ce	-8.47727
▁known	-8.47762
we	-8.48491
▁looked	-8.49096
ri	-8.4949
▁far	-8.49719
co	-8.50078
bro	-8.50285
▁co	-8.50655
▁looking	-8.50686
ta	-8.50707
▁between	-8.51093
▁few	-8.51105
▁la	-8.51812
▁ask	-8.52141
▁bed	-8.52759
he	-8.52967
▁children	-8.53376
▁feel	-8.53394
ia	-8.53425
▁soon	-8.53707
ck	-8.54451
▁hard	-8.54472
▁alright	-8.54533
▁everything	-8.54925
▁green	-8.5493
▁bring	-8.55005
▁fire	-8.55103
▁round	-8.55334
6	-8.55514
▁light	-8.55951
▁himself	-8.56105
▁hafta	-8.56489
▁american	-8.56574
▁table	-8.56944
▁pretty	-8.57284
▁hi	-8.57344
▁run	-8.57498
▁ha	-8.57612
▁moment	-8.57718
▁k	-8.57745
▁having	-8.58086
▁friend	-8.58395
▁black	-8.58502
▁♪	-8.58507
▁child	-8.58512
ic	-8.58656
▁happened	-8.58659
▁train	-8.58946
ha	-8.59017
▁wanted	-8.59043
sh	-8.59081
▁close	-8.59633
x	-8.59686
▁start	-8.59722
▁story	-8.5973
▁later	-8.59803
est	-8.59832
▁party	-8.5995
gma	-8.60081
▁hold	-8.60262
▁ready	-8.60303
▁knew	-8.60532
▁dog	-8.60773
▁believe	-8.61059
▁boys	-8.61573
▁point	-8.61882
ment	-8.62147
▁real	-8.62163
?”	-8.62288
▁top	-8.62475
me	-8.62551
il	-8.62557
▁whole	-8.62627
▁war	-8.62665
be	-8.62752
".	-8.63011
▁white	-8.63047
▁talking	-8.63594
8	-8.63733
▁live	-8.6385
4	-8.63977
▁sort	-8.6433
▁matter	-8.6435
te	-8.64352
ul	-8.64357
▁making	-8.64383
▁heart	-8.6451
ness	-8.64598
▁gave	-8.65235
cause	-8.65426
3	-8.65427
mar	-8.65723
▁rest	-8.66337
▁move	-8.66541
▁set	-8.6708
▁born	-8.67125
▁t	-8.67153
do	-8.67315
▁chair	-8.67335
ine	-8.67634
▁feet	-8.67801
ur	-8.67826
▁hands	-8.67903
▁game	-8.68044
▁family	-8.6825
▁number	-8.6847
lo	-8.69011
▁week	-8.69037
▁six	-8.69095
▁john	-8.69123
yes	-8.69131
▁against	-8.69227
▁sea	-8.69248
ian	-8.69314
▁dad	-8.69459
▁days	-8.69486
▁upon	-8.69589
▁stand	-8.69787
▁idea	-8.69979
▁fine	-8.70567
▁king	-8.70597
▁wasn	-8.70622
oh	-8.70766
▁18	-8.71105
▁stay	-8.71194
▁mo	-8.7133
▁actually	-8.71441
▁during	-8.71442
ba	-8.71647
am	-8.71892
▁wrong	-8.72334
▁air	-8.72992
but	-8.731
▁food	-8.73268
▁sleep	-8.73366
▁dis	-8.73437
▁north	-8.73527
able	-8.73588
▁movie	-8.74149
▁al	-8.74425
▁care	-8.74483
▁bear	-8.74506
▁mar	-8.7453
childes	-8.74779
▁wouldn	-8.74965
▁floor	-8.75162
▁color	-8.75169
▁con	-8.75271
ah	-8.75307
▁state	-8.75367
▁jack	-8.75634
cha	-8.75683
▁hello	-8.76135
▁outside	-8.76169
▁sometimes	-8.76342
▁county	-8.76682
▁3	-8.7685
▁guess	-8.77087
▁country	-8.77098
▁u	-8.77157
▁along	-8.77325
▁mom	-8.77346
▁died	-8.77537
▁united	-8.7763
▁mine	-8.77761
▁1	-8.78086
▁word	-8.78178
▁pick	-8.78321
▁noise	-8.78333
▁sec	-8.78436
▁ta	-8.78735
ity	-8.79314
ir	-8.79443
▁w	-8.79617
ted	-8.79874
int	-8.79901
▁short	-8.80419
▁south	-8.80586
at	-8.80731
▁gotta	-8.80744
0	-8.80834
▁l	-8.81162
ies	-8.8141
▁hair	-8.81602
▁drink	-8.81705
▁picture	-8.8174
▁town	-8.81963
▁son	-8.82325
▁ya	-8.82437
ting	-8.82565
▁able	-8.8281
ist	-8.82818
▁job	-8.83126
▁trying	-8.83131
nan	-8.83273
▁near	-8.83352
▁states	-8.83642
▁f	-8.83846
1:	-8.83994
ty	-8.84052
+	-8.84141
▁brought	-8.84142
go	-8.84149
▁brother	-8.8443
▁sound	-8.84635
▁saying	-8.84647
▁almost	-8.85193
what	-8.85308
▁minute	-8.85487
5	-8.85607
▁behind	-8.8572
▁happy	-8.8572
▁friends	-8.858
▁person	-8.85831
ant	-8.86007
▁voice	-8.86582
▁ten	-8.86613
▁already	-8.86787
▁lady	-8.86888
▁page	-8.86936
ous	-8.86951
▁paper	-8.87117
▁hope	-8.87141
▁front	-8.87335
well	-8.87405
ling	-8.87475
▁seemed	-8.8752
▁n	-8.8757
ga	-8.87631
▁probably	-8.87872
▁national	-8.87897
▁team	-8.87921
▁land	-8.88055
▁st	-8.88217
▁woman	-8.88435
▁2	-8.88474
▁began	-8.88515
j	-8.88624
vi	-8.88828
▁–	-8.89089
▁cup	-8.89306
ge	-8.89513
▁thomas	-8.89513
),	-8.89583
son	-8.89613
gra	-8.89987
▁poor	-8.911
▁lost	-8.91189
▁doctor	-8.91216
▁na	-8.91239
▁playing	-8.91316
▁till	-8.91404
▁dr	-8.92816
▁r	-8.92838
▁di	-8.92878
▁cat	-8.92976
9	-8.92984
▁boat	-8.93482
▁couldn	-8.93516
▁present	-8.9389
▁someone	-8.94076
▁guy	-8.94089
pat	-8.94146
▁understand	-8.94222
▁fall	-8.94294
▁hundred	-8.95172
▁music	-8.95516
age	-8.9556
▁stuff	-8.95764
▁taken	-8.95777
▁beautiful	-8.96345
▁however	-8.96361
▁piece	-8.96433
▁per	-8.96754
▁listen	-8.96837
▁started	-8.96875
▁twenty	-8.96936
▁played	-8.97026
▁line	-8.97061
▁ra	-8.97158
▁cold	-8.97164
ish	-8.97278
dy	-8.97317
▁true	-8.97802
▁fish	-8.97855
▁hot	-8.97877
—	-8.98105
▁v	-8.98215
",	-8.98341
▁pay	-8.98475
that	-8.98518
▁became	-8.98733
▁fell	-8.98964
▁ho	-8.99001
”	-8.99047
▁cut	-8.99068
▁age	-8.99201
▁full	-8.9922
▁myself	-8.99362
ary	-8.99521
▁makes	-8.99571
▁aren	-8.99579
▁inside	-8.99672
▁fun	-8.99714
ive	-8.99828
▁brown	-8.9995
ng	-9.00197
▁seven	-9.00506
▁uhhuh	-9.00613
▁sun	-9.00815
wa	-9.00873
▁reason	-9.01163
▁death	-9.01191
▁dead	-9.01213
▁5	-9.013
▁times	-9.01348
pe	-9.01511
led	-9.01852
▁glad	-9.01873
mo	-9.02079
up	-9.02251
▁order	-9.02386
▁sister	-9.02438
id	-9.02478
▁turned	-9.02493
▁early	-9.02495
▁sent	-9.02728
▁mark	-9.02738
!”	-9.02798
▁taking	-9.0312
▁walk	-9.03327
▁star	-9.03329
ki	-9.03502
▁19	-9.03577
et	-9.0361
▁captain	-9.03689
▁road	-9.03695
▁break	-9.03718
less	-9.03772
▁vi	-9.03928
▁group	-9.03963
▁ca	-9.04036
▁pro	-9.0425
▁deal	-9.04579
▁le	-9.0484
▁french	-9.04965
▁several	-9.04965
▁late	-9.05016
▁mum	-9.05133
▁means	-9.05534
▁river	-9.05616
▁4	-9.05622
land	-9.0564
▁toward	-9.05712
▁sa	-9.05977
▁tea	-9.06065
▁hit	-9.06151
ver	-9.06184
▁wife	-9.06263
▁perhaps	-9.06302
tic	-9.06358
▁fact	-9.06452
▁question	-9.0666
born	-9.06752
▁across	-9.06913
um	-9.06987
pp	-9.07438
da	-9.07462
▁funny	-9.0758
▁yourself	-9.07596
dad	-9.07616
▁j	-9.07916
▁girls	-9.08007
▁trouble	-9.08234
mi	-9.08483
▁large	-9.088
ka	-9.08877
▁either	-9.089
▁change	-9.09093
▁song	-9.0919
▁minutes	-9.09204
by	-9.09489
▁meet	-9.09556
▁bo	-9.09661
ance	-9.09875
▁rather	-9.10252
▁stick	-9.10384
▁h	-9.10459
▁6	-9.10772
▁ka	-9.10887
▁special	-9.10928
ho	-9.10982
ard	-9.11155
▁hat	-9.11254
ster	-9.11259
▁free	-9.11361
▁given	-9.11425
▁sp	-9.11451
▁horse	-9.11484
▁words	-9.11522
▁eye	-9.11534
▁ground	-9.11637
▁cos	-9.1179
▁wish	-9.11899
▁yellow	-9.12304
▁france	-9.12308
▁hurt	-9.12479
if	-9.12493
▁comes	-9.12887
▁tree	-9.1293
for	-9.13668
▁pa	-9.13672
▁#	-9.13711
▁phone	-9.13766
).	-9.13809
▁thanks	-9.14388
▁buy	-9.14453
▁working	-9.14523
▁past	-9.14543
so	-9.14779
ner	-9.15066
▁da	-9.15108
é	-9.15199
▁bar	-9.15262
▁throw	-9.15363
▁touch	-9.1545
▁bob	-9.15481
che	-9.15565
▁lay	-9.15708
▁ran	-9.15734
ja	-9.15736
▁!	-9.16223
▁animals	-9.16441
▁club	-9.16564
▁hour	-9.16567
bb	-9.166
▁milk	-9.16607
▁lead	-9.16966
▁toys	-9.17019
▁eight	-9.17074
▁business	-9.17268
▁among	-9.17278
▁clean	-9.17279
▁alone	-9.1728
▁ro	-9.17298
ya	-9.17363
▁catch	-9.1739
po	-9.17507
▁ago	-9.17519
▁write	-9.17855
▁bag	-9.17967
▁company	-9.17998
▁body	-9.18053
op	-9.18064
▁march	-9.18235
▁answer	-9.18376
ger	-9.1844
ey	-9.18534
my	-9.18578
ow	-9.18711
▁important	-9.18733
▁peter	-9.18911
ol	-9.19125
huh	-9.19186
▁rock	-9.19219
▁wonder	-9.19289
ley	-9.19485
▁foot	-9.19508
▁case	-9.19617
▁living	-9.19786
▁se	-9.20123
▁el	-9.20182
car	-9.20352
ful	-9.20382
▁sat	-9.20874
▁chance	-9.20977
▁somebody	-9.2099
▁cool	-9.20991
▁felt	-9.21058
ca	-9.21106
▁uncle	-9.21134
▁7	-9.214
▁fast	-9.21623
▁english	-9.21729
▁women	-9.21731
▁send	-9.21813
▁dark	-9.2183
▁window	-9.21878
way	-9.21921
▁8	-9.2198
que	-9.21984
▁west	-9.22147
ated	-9.22372
▁others	-9.22465
▁wind	-9.22516
▁often	-9.22599
▁street	-9.22649
ci	-9.2284
▁ok	-9.22999
2:	-9.23408
▁20	-9.23664
▁seat	-9.23761
▁guys	-9.24045
hi	-9.24184
▁win	-9.24196
▁sing	-9.2437
im	-9.24452
▁10	-9.24522
▁arm	-9.24698
▁dinner	-9.24821
▁everybody	-9.24822
ber	-9.25165
men	-9.25243
▁bye	-9.25279
adu	-9.25288
don	-9.25449
▁fight	-9.25501
▁drive	-9.2551
▁kep	-9.25592
▁series	-9.25619
▁pull	-9.25865
os	-9.25946
▁lo	-9.26056
ph	-9.26155
▁ba	-9.26231
▁afraid	-9.26399
▁daughter	-9.26414
▁become	-9.26596
▁fit	-9.2684
per	-9.27026
▁president	-9.27201
▁wow	-9.27226
▁wants	-9.27458
▁bird	-9.2779
▁usually	-9.28041
mp	-9.28046
▁sitting	-9.2805
▁tomorrow	-9.28394
▁darling	-9.28826
▁power	-9.28826
▁park	-9.2908
▁held	-9.29172
▁2020	-9.29518
sa	-9.29624
▁birthday	-9.2964
▁least	-9.2964
▁camp	-9.29642
▁wa	-9.2972
▁cover	-9.30146
bu	-9.30215
▁clear	-9.30362
▁york	-9.30463
▁garden	-9.30469
▁region	-9.30471
▁running	-9.30476
▁mouth	-9.30515
▁pass	-9.3055
▁joe	-9.30577
▁finished	-9.30742
▁thinking	-9.30921
▁village	-9.31321
▁human	-9.31331
▁whatever	-9.31394
ud	-9.31757
▁happen	-9.31894
▁check	-9.32152
▁en	-9.32413
▁po	-9.32527
▁ben	-9.32605
▁letter	-9.32866
ru	-9.33007
▁history	-9.33056
▁ooh	-9.33145
▁field	-9.3316
▁career	-9.33264
loi	-9.33328
ad	-9.33376
▁football	-9.33678
▁[1	-9.33686
▁general	-9.33709
bi	-9.33712
▁noises	-9.33732
ni	-9.338
▁ship	-9.33818
▁summer	-9.33843
▁duck	-9.33853
▁station	-9.33894
▁area	-9.33896
▁cause	-9.34118
www	-9.34647
▁cried	-9.34704
▁herself	-9.34735
▁points	-9.34795
▁board	-9.34812
▁east	-9.34888
les	-9.34999
ate	-9.35144
▁married	-9.35572
▁thousand	-9.35573
▁ice	-9.35706
▁killed	-9.35778
▁tried	-9.35805
▁hall	-9.3608
▁x	-9.36185
▁seems	-9.36399
▁waiting	-9.36648
va	-9.36696
▁wall	-9.36972
▁tu	-9.36986
▁pre	-9.37237
▁army	-9.37526
▁bus	-9.3759
▁suppose	-9.3793
tion	-9.37957
all	-9.38113
▁tonight	-9.38188
▁cake	-9.38252
cds	-9.38309
▁wear	-9.38894
▁strong	-9.39005
▁master	-9.39203
▁rose	-9.39257
▁nor	-9.39546
▁eating	-9.39721
▁sweet	-9.39914
let	-9.39944
how	-9.40028
▁possible	-9.40037
▁whether	-9.40037
▁department	-9.4004
▁truck	-9.40041
▁november	-9.40054
▁aunt	-9.40061
▁safe	-9.40194
min	-9.40504
▁lovely	-9.40577
▁lived	-9.40674
ff	-9.40925
▁speak	-9.40947
▁system	-9.40955
▁government	-9.40957
ke	-9.41067
▁lots	-9.41089
▁building	-9.41158
▁forget	-9.41167
ally	-9.4161
▁district	-9.41881
▁space	-9.41912
gu	-9.42072
▁post	-9.42093
io	-9.42192
lu	-9.42537
▁tape	-9.4274
▁wee	-9.42821
▁frank	-9.42878
▁kid	-9.42996
ny	-9.43027
▁count	-9.43033
▁draw	-9.43117
makes	-9.43131
▁nose	-9.43514
▁quiet	-9.43631
▁su	-9.43672
ler	-9.43757
▁couple	-9.43759
▁court	-9.4376
▁tired	-9.43766
▁decided	-9.43856
▁ga	-9.43921
▁15	-9.43983
▁sounds	-9.4424
▁sha	-9.44268
▁less	-9.4429
▁ju	-9.44457
▁husband	-9.44711
▁excuse	-9.44711
▁christmas	-9.44711
▁race	-9.44885
of	-9.45129
▁visit	-9.4517
▁y	-9.45365
▁dress	-9.4538
▁german	-9.45524
▁evening	-9.45533
▁bill	-9.45647
▁frog	-9.45853
mer	-9.45964
▁return	-9.45967
val	-9.46058
▁careful	-9.46533
▁office	-9.46621
▁easy	-9.46644
▁track	-9.46695
▁figure	-9.46701
▁ring	-9.4719
ak	-9.47256
our	-9.47317
▁quick	-9.47498
▁nine	-9.4753
▁...	-9.47543
▁force	-9.47557
▁police	-9.47593
▁service	-9.47624
▁university	-9.47624
▁worry	-9.47628
▁april	-9.47643
▁lu	-9.47734
▁cow	-9.47767
▁pen	-9.47833
▁grand	-9.4815
▁eh	-9.48339
ten	-9.48481
▁church	-9.48547
▁public	-9.48615
▁juice	-9.4862
▁january	-9.4863
▁fear	-9.48633
▁trust	-9.48635
▁shop	-9.48696
▁anyway	-9.48698
▁tom	-9.48708
▁stone	-9.48716
▁earth	-9.48719
▁nearly	-9.48864
ric	-9.48869
▁sc	-9.48939
▁12	-9.48974
fa	-9.4899
▁warm	-9.49006
▁ti	-9.49533
ries	-9.49586
▁replied	-9.49614
▁yesterday	-9.49614
▁chief	-9.49614
▁august	-9.49627
▁million	-9.49631
▁kids	-9.49686
▁gold	-9.49741
ial	-9.49879
▁17	-9.50018
▁ride	-9.50039
pa	-9.50232
▁report	-9.50279
▁ex	-9.50476
▁british	-9.50624
▁chicken	-9.5064
▁class	-9.50643
▁list	-9.50646
▁plate	-9.50652
▁shot	-9.50661
▁returned	-9.50997
▁hole	-9.5104
▁band	-9.51205
▁plan	-9.51238
bo	-9.51315
▁carry	-9.51426
á	-9.51442
▁england	-9.51644
▁support	-9.51644
▁chapter	-9.5165
▁sense	-9.51661
▁snow	-9.51723
rs	-9.5176
▁cannot	-9.51892
▁sad	-9.52046
der	-9.52122
lin	-9.5215
▁cla	-9.52213
▁former	-9.52228
▁language	-9.52675
▁above	-9.52694
▁single	-9.52779
▁problem	-9.5289
▁putting	-9.52931
▁books	-9.5298
▁jump	-9.52999
▁reached	-9.53005
▁news	-9.53015
pi	-9.53175
▁sign	-9.532
▁lad	-9.53263
▁cross	-9.53448
▁toy	-9.5373
day	-9.53754
▁bright	-9.53782
▁quickly	-9.53856
mon	-9.53861
▁seem	-9.53916
▁act	-9.53922
▁follow	-9.54009
she	-9.54013
▁lives	-9.54544
▁ar	-9.54592
▁11	-9.54642
ham	-9.5471
▁exactly	-9.54791
▁nobody	-9.54838
di	-9.54843
▁broken	-9.54852
▁instead	-9.54882
ure	-9.54929
▁dance	-9.54976
▁drop	-9.54976
▁apple	-9.54988
▁push	-9.55038
▁member	-9.55109
king	-9.55167
▁th	-9.55268
▁finish	-9.55503
▁fi	-9.55509
▁laugh	-9.5559
▁gun	-9.55763
▁although	-9.55834
▁television	-9.55834
▁third	-9.55834
▁si	-9.5589
▁lord	-9.55902
fi	-9.55956
tur	-9.55997
▁happens	-9.56298
▁art	-9.56334
▁z	-9.56402
▁longer	-9.56565
▁object	-9.56849
▁secret	-9.56902
▁lunch	-9.56909
▁february	-9.56909
▁example	-9.56909
▁indeed	-9.5692
▁everyone	-9.56935
▁shape	-9.56962
▁bread	-9.5699
▁june	-9.57005
▁billy	-9.57103
▁fellow	-9.57269
ring	-9.57315
ex	-9.5736
there	-9.57377
▁fly	-9.57408
▁answered	-9.57433
▁moon	-9.57437
▁mama	-9.57534
▁attack	-9.57633
▁li	-9.57731
▁sam	-9.57742
▁ko	-9.57899
illustration	-9.57987
▁middle	-9.57996
▁caught	-9.58
▁season	-9.58032
singing	-9.58263
▁die	-9.58537
▁jo	-9.58543
ag	-9.58562
▁arms	-9.58629
▁roll	-9.5866
room	-9.58815
▁ne	-9.5888
▁standing	-9.58884
▁strange	-9.58957
▁mad	-9.59013
▁hospital	-9.59095
▁anymore	-9.59119
▁charge	-9.59162
▁months	-9.59206
▁teacher	-9.5928
ig	-9.59373
▁indian	-9.59428
▁island	-9.59459
▁forward	-9.59504
▁ru	-9.5969
friend	-9.59885
▁takes	-9.59935
▁spot	-9.602
▁monkey	-9.60208
▁honey	-9.60213
▁spring	-9.60217
▁deep	-9.6035
▁gu	-9.60357
red	-9.60489
▁reach	-9.6053
▁9	-9.60704
▁straight	-9.60749
▁shoes	-9.60772
▁met	-9.60778
▁ain	-9.60888
fch	-9.60896
▁store	-9.61063
▁wi	-9.61064
3:	-9.61093
▁sand	-9.61105
▁che	-9.61238
▁pardon	-9.61335
▁hungry	-9.6134
▁truth	-9.61342
▁december	-9.61344
▁october	-9.61354
▁clothes	-9.61358
tra	-9.61497
▁test	-9.61508
▁following	-9.61724
▁bell	-9.61809
▁passed	-9.61816
▁meeting	-9.61949
▁13	-9.61956
time	-9.62192
▁holding	-9.62341
ious	-9.62386
▁bottom	-9.62466
▁stopped	-9.62467
▁hours	-9.62484
▁paul	-9.62496
▁george	-9.62508
▁common	-9.62561
▁player	-9.62651
▁leg	-9.62789
▁feeling	-9.62904
▁changed	-9.63073
▁farm	-9.63094
▁members	-9.63299
one	-9.63465
▁afternoon	-9.63615
▁stood	-9.63618
▁exclaimed	-9.63634
")	-9.63635
▁worked	-9.63746
▁grandma	-9.63875
▁supposed	-9.63999
▁16	-9.64039
▁bath	-9.64105
▁flowers	-9.64527
▁ahead	-9.64599
▁leaving	-9.64778
▁beginning	-9.64781
▁super	-9.64789
▁‘	-9.6479
▁doubt	-9.6483
▁anyone	-9.64846
▁wild	-9.64972
▁include	-9.65654
–	-9.65666
they	-9.65783
▁giving	-9.65984
▁lift	-9.66024
▁pat	-9.66031
▁va	-9.66108
now	-9.66117
ward	-9.66235
▁within	-9.66288
▁cost	-9.664
▁interest	-9.66434
▁pi	-9.66544
line	-9.66584
put	-9.66718
▁low	-9.66891
▁mess	-9.66927
▁certain	-9.67015
read	-9.67137
▁college	-9.67145
▁orange	-9.67145
▁tiger	-9.67157
▁written	-9.67171
▁position	-9.67172
▁sky	-9.67188
▁law	-9.67366
▁sh	-9.67402
unk	-9.67448
end	-9.67467
ana	-9.67619
▁sight	-9.6762
▁grow	-9.67737
urs	-9.67811
▁dream	-9.67843
qui	-9.67844
gi	-9.6801
not	-9.68098
▁rain	-9.68137
00	-9.68219
▁spoke	-9.68246
í	-9.6835
▁heavy	-9.68351
▁battle	-9.68354
▁somewhere	-9.6845
▁lie	-9.6847
▁appeared	-9.68538
▁hill	-9.68554
▁ja	-9.68569
▁save	-9.68579
▁pet	-9.68698
▁nin	-9.68827
▁form	-9.68916
▁boo	-9.69091
▁cha	-9.6911
▁pictures	-9.69165
▁fix	-9.69239
▁van	-9.69271
com	-9.69365
▁bow	-9.69443
br	-9.69448
▁film	-9.6957
▁⌈	-9.69585
▁lake	-9.69605
▁winter	-9.69605
▁tail	-9.69697
▁released	-9.69706
▁main	-9.69719
▁certainly	-9.6973
nie	-9.69857
▁opened	-9.69983
▁sta	-9.701
ens	-9.70149
▁]	-9.70297
▁cook	-9.70412
jo	-9.70481
▁ri	-9.70488
▁fair	-9.70513
▁engine	-9.70517
▁paint	-9.7078
▁robert	-9.70812
▁yep	-9.70853
▁commune	-9.7088
▁beat	-9.70898
▁amy	-9.71119
▁ow	-9.71351
lic	-9.71352
▁mary	-9.71354
▁miles	-9.71634
▁ki	-9.71992
▁century	-9.72054
▁needs	-9.72062
▁pink	-9.72112
▁corner	-9.72216
ism	-9.7222
come	-9.72224
▁telling	-9.72306
▁using	-9.72413
▁hasn	-9.72491
tu	-9.7254
ee	-9.72629
▁whom	-9.72717
▁mi	-9.72896
▁remain	-9.7296
▁mu	-9.73077
▁travel	-9.73307
▁london	-9.7332
▁account	-9.7332
▁hurry	-9.73325
▁ought	-9.73342
▁wood	-9.73397
uff	-9.7358
ub	-9.7364
child	-9.7416
den	-9.74293
ice	-9.74471
▁sw	-9.74507
ky	-9.74585
▁council	-9.74598
▁breakfast	-9.74602
▁teeth	-9.74604
▁japan	-9.74605
▁wake	-9.74691
ren	-9.7479
▁har	-9.75084
▁dry	-9.75095
▁te	-9.75157
▁parents	-9.75351
fe	-9.75391
like	-9.75696
▁trip	-9.75826
▁rabbit	-9.759
▁video	-9.759
▁local	-9.75905
▁14	-9.75918
▁taste	-9.75932
▁view	-9.75952
▁watching	-9.75967
lt	-9.75982
▁turns	-9.75985
▁tv	-9.76009
▁added	-9.7612
▁helen	-9.76302
▁row	-9.76309
▁learn	-9.76484
▁em	-9.76602
▁pretend	-9.76905
▁pan	-9.76918
why	-9.76952
▁bang	-9.77178
▁du	-9.77212
▁distance	-9.77216
▁scene	-9.77217
▁further	-9.77218
▁suddenly	-9.77277
▁mc	-9.77459
▁hang	-9.77647
uk	-9.77741
▁places	-9.77796
ily	-9.77824
oo	-9.78054
▁moved	-9.78119
▁30	-9.78136
▁kiss	-9.78221
rus	-9.78256
▁led	-9.78458
mother	-9.78466
▁button	-9.78475
ris	-9.78541
▁themselves	-9.78549
▁cheese	-9.7855
▁sick	-9.78555
▁september	-9.78567
ite	-9.7862
▁dat	-9.78666
▁worth	-9.78683
ence	-9.78699
kin	-9.78725
▁july	-9.78731
▁driver	-9.78743
▁tri	-9.79239
▁mor	-9.79406
ran	-9.79644
▁america	-9.79658
aw	-9.79733
ii	-9.7982
▁broke	-9.79852
▁circle	-9.79901
▁coffee	-9.79901
▁kitchen	-9.79901
▁upstairs	-9.79901
▁speed	-9.79902
▁cream	-9.79908
▁including	-9.79915
▁anybody	-9.79918
▁bridge	-9.79923
▁michael	-9.79934
▁reading	-9.79951
ji	-9.79965
ron	-9.80029
▁bank	-9.80108
▁key	-9.80114
▁trees	-9.80115
▁shut	-9.80256
▁wide	-9.80342
ut	-9.80646
clock	-9.8101
▁blood	-9.81108
▁month	-9.8117
lan	-9.81233
▁project	-9.81271
▁dropped	-9.81271
▁bottle	-9.81275
▁elephant	-9.81285
▁thirty	-9.81289
▁harry	-9.81295
▁port	-9.81422
av	-9.81492
ac	-9.81561
▁bought	-9.81713
▁doll	-9.8173
▁rich	-9.81796
▁imp	-9.82086
au	-9.82144
▁cap	-9.82333
▁step	-9.82508
▁character	-9.82554
▁shake	-9.82575
▁pocket	-9.8266
▁spirit	-9.8266
▁fraser	-9.82661
▁forgot	-9.82662
▁pop	-9.827
▁hop	-9.82702
▁brush	-9.82768
▁award	-9.82917
▁record	-9.83075
▁min	-9.83117
her	-9.83144
▁games	-9.83368
▁ve	-9.83374
▁hate	-9.83383
▁bi	-9.83447
field	-9.83788
▁personal	-9.83843
▁difficult	-9.83905
▁attention	-9.84068
▁protect	-9.84068
▁welcome	-9.84068
▁popular	-9.84069
▁david	-9.84072
▁betty	-9.84088
kay	-9.84129
ship	-9.84236
▁fred	-9.84297
▁received	-9.843
▁gar	-9.84377
points	-9.84441
ps	-9.8459
▁size	-9.8465
ld	-9.84674
ile	-9.84869
▁tr	-9.8508
▁surprise	-9.85198
ened	-9.85212
night	-9.85341
▁pieces	-9.85355
▁control	-9.85494
▁smell	-9.85497
▁hide	-9.85639
▁below	-9.8569
▁bowl	-9.8594
mb	-9.86201
▁dar	-9.86359
▁dan	-9.86515
▁ears	-9.86748
▁base	-9.86821
▁accident	-9.86946
▁famous	-9.86946
▁wrote	-9.86946
▁kitty	-9.86946
▁bunny	-9.86949
right	-9.86957
20	-9.86991
▁action	-9.87037
▁finally	-9.87049
▁ste	-9.87084
ju	-9.87099
▁gr	-9.87371
▁ye	-9.87385
▁wonderful	-9.87404
▁cl	-9.87439
▁weeks	-9.87601
where	-9.87789
▁cr	-9.87884
ise	-9.87961
ang	-9.87974
noise	-9.88155
▁type	-9.88253
▁command	-9.88289
▁writing	-9.88416
▁2018	-9.8842
▁sheep	-9.88423
▁sunday	-9.88434
▁built	-9.8844
▁james	-9.88461
▁silver	-9.8847
▁soft	-9.88515
ors	-9.88519
gr	-9.88625
▁union	-9.88629
▁busy	-9.88688
▁allowed	-9.8869
▁gate	-9.88699
▁crying	-9.88851
▁25	-9.88938
sha	-9.89034
▁soul	-9.89265
▁tall	-9.89291
laugh	-9.89472
▁san	-9.89564
▁smile	-9.8961
out	-9.89694
this	-9.89735
▁except	-9.89838
▁gi	-9.89841
▁major	-9.89893
▁fifty	-9.89909
▁level	-9.89909
▁cry	-9.8991
▁minister	-9.89912
▁conversation	-9.89913
▁monster	-9.89914
▁rising	-9.89922
ina	-9.90063
who	-9.9025
▁based	-9.90288
▁interesting	-9.90374
pped	-9.90538
▁rob	-9.90551
▁leader	-9.90554
▁kill	-9.90644
▁leaves	-9.90788
▁enjoy	-9.91061
▁inter	-9.91176
▁ni	-9.91268
▁col	-9.91312
▁population	-9.91424
▁machine	-9.91426
▁knee	-9.91429
▁study	-9.91429
▁information	-9.91435
▁direction	-9.91457
▁guard	-9.91464
▁mouse	-9.91498
ned	-9.91519
▁pot	-9.91603
▁forest	-9.9164
▁yo	-9.91685
▁egg	-9.91687
▁directed	-9.917
▁choo	-9.91779
ev	-9.91822
▁mis	-9.9183
▁none	-9.91952
fri	-9.91965
▁carl	-9.92171
▁legs	-9.92238
ville	-9.92389
ized	-9.92567
house	-9.92678
▁press	-9.92737
▁spoon	-9.92909
▁international	-9.92963
▁babies	-9.92963
▁carried	-9.92963
▁weather	-9.92963
▁tower	-9.93005
du	-9.9304
▁fat	-9.93057
ko	-9.93068
▁lower	-9.9318
▁animal	-9.93181
▁cookie	-9.93183
▁finger	-9.93186
▁officer	-9.933
▁rush	-9.93363
▁flat	-9.93431
▁fl	-9.93466
▁ear	-9.93491
ning	-9.93511
▁den	-9.93548
▁joy	-9.93581
▁cur	-9.93694
▁hu	-9.93862
▁bro	-9.93881
nk	-9.93899
▁sub	-9.94234
▁ate	-9.94498
▁california	-9.94525
▁beach	-9.94532
▁charles	-9.94532
▁stuck	-9.94533
▁adam	-9.94553
▁offer	-9.94571
▁moving	-9.94578
▁sharp	-9.94588
|	-9.94667
▁works	-9.94704
▁germany	-9.94787
nd	-9.94797
▁join	-9.94932
▁laughed	-9.95053
▁weren	-9.95138
att	-9.95167
▁laughing	-9.95268
▁comp	-9.9529
11	-9.95671
amp	-9.95803
then	-9.95805
,000	-9.95881
▁laughs	-9.95967
▁cast	-9.96007
ight	-9.96091
▁twelve	-9.96112
▁capital	-9.96114
▁square	-9.96115
▁crash	-9.96115
▁grew	-9.96117
▁imagine	-9.96123
▁respect	-9.96133
▁sail	-9.9636
pl	-9.96589
con	-9.96673
▁oo	-9.96849
▁due	-9.97101
▁mountain	-9.97158
▁card	-9.97272
▁accept	-9.97362
▁explain	-9.97366
light	-9.97414
box	-9.97467
ier	-9.97571
▁gas	-9.97671
▁province	-9.97725
▁result	-9.97725
▁governor	-9.97738
▁bobby	-9.97751
▁neck	-9.97753
▁league	-9.97756
▁russian	-9.9778
▁fan	-9.97841
▁bigger	-9.97841
▁cor	-9.97976
zi	-9.98008
mu	-9.98178
▁flower	-9.98212
▁wash	-9.9841
vo	-9.99128
ok	-9.99251
▁luck	-9.99265
▁phil	-9.99373
▁election	-9.99379
▁honor	-9.9938
▁grass	-9.99438
can	-9.99459
▁declared	-9.99496
▁pour	-9.99672
▁plays	-9.99709
▁pounds	-9.9971
▁pe	-9.99806
ste	-9.99933
▁wheel	-10.0011
ade	-10.0018
nor	-10.0019
▁build	-10.0022
%	-10.0036
za	-10.0054
▁promise	-10.0073
▁prince	-10.0081
▁lines	-10.0091
▁plane	-10.0093
▁original	-10.0095
▁je	-10.0096
▁puppet	-10.0103
▁situation	-10.0103
▁puzzle	-10.0103
▁center	-10.0103
▁simple	-10.0103
▁shirt	-10.0109
▁alive	-10.0109
▁unless	-10.0112
▁aye	-10.0113
▁lose	-10.0123
▁trade	-10.0131
▁continued	-10.0136
▁horses	-10.0142
▁ver	-10.0172
▁mid	-10.0193
old	-10.0208
gan	-10.021
▁corn	-10.022
lyn	-10.0228
▁bat	-10.0241
▁easter	-10.0242
▁eggs	-10.0255
▁health	-10.0257
ical	-10.0257
▁chocolate	-10.0273
▁championship	-10.0273
▁glass	-10.0273
▁title	-10.0273
▁thou	-10.0275
▁fox	-10.0277
▁quarter	-10.028
iz	-10.0302
▁blow	-10.0311
▁mountains	-10.0333
▁tony	-10.036
▁expect	-10.0369
▁wh	-10.0378
▁blocks	-10.0381
pr	-10.0431
▁28	-10.0438
▁feed	-10.0443
→	-10.0445
▁future	-10.0445
▁length	-10.0445
▁queen	-10.0445
▁purpose	-10.0445
▁division	-10.0445
▁address	-10.0445
▁pleasant	-10.0447
rac	-10.0462
▁meant	-10.0468
▁host	-10.0469
▁scared	-10.0471
▁jane	-10.0471
▁created	-10.0474
▁birds	-10.0478
▁tone	-10.0478
▁needed	-10.0486
side	-10.0486
gen	-10.0493
▁design	-10.0538
▁walked	-10.0544
▁meal	-10.0545
ita	-10.0552
▁picked	-10.0572
▁fe	-10.0573
bel	-10.0585
▁medicine	-10.062
▁cousin	-10.062
▁adult	-10.0621
▁search	-10.0621
▁favorite	-10.0621
▁2016	-10.0621
▁jim	-10.0622
▁stage	-10.0628
▁coat	-10.0628
▁slowly	-10.063
▁vote	-10.0636
▁missing	-10.0642
▁official	-10.0648
10	-10.0652
▁grave	-10.0653
▁share	-10.0655
ab	-10.0673
▁lid	-10.0675
▁cho	-10.0676
▁loved	-10.0681
fully	-10.0691
▁block	-10.0691
▁climb	-10.0725
▁24	-10.0732
▁pu	-10.0761
▁problems	-10.0762
▁success	-10.0763
▁29	-10.077
▁fingers	-10.0774
gh	-10.0787
uc	-10.079
pick	-10.0793
▁announced	-10.0799
▁asleep	-10.0799
▁attempt	-10.0799
▁computer	-10.0799
▁hiding	-10.08
▁gift	-10.08
▁)	-10.0807
▁notice	-10.0813
▁mat	-10.082
▁uhoh	-10.0824
▁turning	-10.0825
gasps	-10.0828
ai	-10.0839
▁pain	-10.0847
wi	-10.0847
▁whoa	-10.085
▁interested	-10.0853
head	-10.0858
uh	-10.0861
▁ke	-10.0872
ating	-10.0876
▁happening	-10.0878
▁ab	-10.0896
▁roman	-10.09
▁peace	-10.0911
▁shouldn	-10.0922
rid	-10.0925
tie	-10.0939
rit	-10.0942
▁experience	-10.0949
▁knock	-10.095
just	-10.0963
▁date	-10.0964
ft	-10.0965
▁2017	-10.0981
▁crazy	-10.0981
▁danger	-10.0981
▁smoke	-10.0981
▁patient	-10.0981
▁maggie	-10.0981
▁judge	-10.0981
▁colour	-10.0982
▁coast	-10.0982
▁arrived	-10.0992
▁india	-10.0996
▁starts	-10.1002
▁director	-10.1005
▁needta	-10.1005
▁suit	-10.1016
▁magic	-10.1019
su	-10.102
▁sue	-10.1024
▁woods	-10.1024
▁asking	-10.1024
▁singer	-10.104
▁bin	-10.1048
▁handle	-10.1055
▁covered	-10.1065
▁lap	-10.1086
▁walking	-10.1088
ze	-10.1096
ncy	-10.1121
han	-10.1141
wn	-10.1147
▁serious	-10.1153
▁extra	-10.1158
▁ty	-10.1161
▁approach	-10.1166
▁beyond	-10.1166
▁professional	-10.1166
▁snake	-10.1166
▁driving	-10.1166
▁nature	-10.1166
▁period	-10.1166
▁clever	-10.1166
▁match	-10.1166
▁edge	-10.1166
▁sugar	-10.1167
bra	-10.1167
▁laura	-10.1167
▁roof	-10.1168
ified	-10.1169
▁score	-10.1171
▁holds	-10.1174
▁martin	-10.1175
▁shi	-10.1175
▁plain	-10.1181
▁signal	-10.1199
▁role	-10.1203
▁clock	-10.1208
▁youth	-10.1208
▁opening	-10.1237
▁questions	-10.1239
▁drawing	-10.1239
▁mostly	-10.1266
▁weak	-10.1267
looks	-10.127
cat	-10.1277
▁inv	-10.1287
van	-10.1289
▁closed	-10.1303
▁escape	-10.1324
=	-10.1326
▁lock	-10.1339
▁census	-10.1355
▁difference	-10.1355
▁eleanor	-10.1355
▁album	-10.1355
▁kingdom	-10.1355
▁model	-10.1355
▁spell	-10.1355
▁tight	-10.1357
▁bedroom	-10.1358
▁paid	-10.1361
▁silence	-10.1368
▁huge	-10.1369
▁lee	-10.1373
▁bite	-10.1382
▁camera	-10.1385
▁showed	-10.139
▁path	-10.1392
drew	-10.1397
ew	-10.1409
▁meaning	-10.1409
▁("	-10.1427
▁letters	-10.1436
▁pulled	-10.1442
▁shoe	-10.145
▁begin	-10.1451
▁bet	-10.1453
▁gra	-10.1458
fad	-10.1463
▁papa	-10.1466
▁stars	-10.1466
▁murder	-10.1467
▁sla	-10.147
▁anna	-10.1483
▁term	-10.149
▁moo	-10.1491
lie	-10.1517
▁bri	-10.1527
▁natural	-10.1538
▁final	-10.1539
col	-10.1541
▁central	-10.1547
▁subject	-10.1547
▁jesus	-10.1547
▁blanket	-10.1547
▁price	-10.1548
▁forgotten	-10.1548
▁richard	-10.1549
▁spread	-10.1549
▁background	-10.1549
▁kick	-10.155
▁trick	-10.1551
▁absolutely	-10.1551
▁pack	-10.1552
▁cop	-10.1553
▁bound	-10.1555
▁laid	-10.1555
▁issue	-10.1556
▁crew	-10.1564
▁reaches	-10.1568
▁agreed	-10.1569
pen	-10.1572
▁allow	-10.1575
▁lion	-10.1581
▁calm	-10.1584
mat	-10.1612
▁followed	-10.1613
▁caused	-10.1615
▁apart	-10.1616
ble	-10.1625
▁wearing	-10.1628
ap	-10.1633
▁actor	-10.1635
▁anne	-10.1636
dor	-10.1677
az	-10.169
▁soldiers	-10.169
lon	-10.1698
▁dare	-10.1708
get	-10.1717
mor	-10.1719
▁forty	-10.1726
▁particular	-10.173
▁loud	-10.1736
▁⌊	-10.1743
▁fault	-10.1743
▁fresh	-10.1743
▁therefore	-10.1743
▁teddy	-10.1744
▁gentleman	-10.1745
▁spend	-10.1745
▁bump	-10.1745
dic	-10.1746
▁watched	-10.1748
▁speech	-10.1748
ign	-10.175
▁steven	-10.175
▁western	-10.1754
▁bull	-10.177
chuckles	-10.1782
ory	-10.1784
▁joined	-10.1788
▁tim	-10.1797
▁learned	-10.1797
⌉.	-10.1801
▁flying	-10.1811
ible	-10.1814
▁speaking	-10.1822
ney	-10.1823
ec	-10.1832
sure	-10.1835
oth	-10.1844
top	-10.1853
▁crayon	-10.1857
▁program	-10.1868
▁fo	-10.1882
▁artist	-10.1888
▁singing	-10.1891
▁fur	-10.1897
port	-10.1905
▁shoot	-10.1906
▁ku	-10.1915
▁perfect	-10.1931
▁africa	-10.1933
▁collect	-10.1938
▁bert	-10.1938
▁education	-10.1943
▁vessel	-10.1943
▁royal	-10.1943
▁spain	-10.1943
▁pleasure	-10.1943
▁monday	-10.1944
▁2014	-10.1944
▁lieutenant	-10.1945
▁washington	-10.1945
▁dangerous	-10.1945
▁silly	-10.1945
▁message	-10.1945
▁correct	-10.1946
▁saint	-10.1948
▁thus	-10.1948
▁wolf	-10.1949
▁according	-10.1949
▁crowd	-10.196
▁tiny	-10.196
▁missed	-10.1961
▁dolly	-10.197
vis	-10.1978
▁stra	-10.1979
▁itself	-10.1981
▁mac	-10.2026
▁besides	-10.2029
aft	-10.2035
▁fa	-10.2035
▁aw	-10.2042
▁tra	-10.2043
▁log	-10.2052
▁likely	-10.2056
▁cloud	-10.2058
▁dig	-10.207
▁sal	-10.2074
rat	-10.2086
▁bu	-10.209
▁rid	-10.209
▁beside	-10.2098
win	-10.2101
q	-10.2109
▁ce	-10.212
▁bark	-10.2121
ix	-10.2145
hu	-10.2146
▁easily	-10.2147
▁victim	-10.2147
▁centre	-10.2147
▁appearance	-10.2148
▁christian	-10.2149
▁exist	-10.215
▁roger	-10.215
▁lying	-10.2151
▁brain	-10.2154
▁prepared	-10.2155
▁liked	-10.2163
▁plant	-10.2165
▁manner	-10.217
ez	-10.2178
gged	-10.2182
▁calling	-10.2189
▁slide	-10.2189
▁continues	-10.2193
▁swing	-10.2209
▁farmer	-10.221
▁ram	-10.2224
act	-10.2231
▁fer	-10.2233
▁christ	-10.2241
▁fighting	-10.2244
,--	-10.2248
▁serve	-10.2265
▁parts	-10.2268
▁pie	-10.2286
▁wise	-10.2291
▁sch	-10.2302
▁ski	-10.2302
▁par	-10.2307
▁hadn	-10.2317
▁butter	-10.2318
▁enter	-10.2327
gar	-10.233
▁ham	-10.2339
burg	-10.2342
ari	-10.2349
berg	-10.2351
▁companion	-10.2356
▁constant	-10.2356
▁decision	-10.2356
▁especially	-10.2356
▁fruit	-10.2356
▁holiday	-10.2356
▁science	-10.2356
▁terrible	-10.2356
▁enemy	-10.2356
▁double	-10.2356
▁deliver	-10.2356
▁charlie	-10.2356
▁jwww	-10.2358
▁comm	-10.2358
▁japanese	-10.2359
▁falls	-10.236
▁radio	-10.236
▁lesson	-10.2364
▁worse	-10.2366
ker	-10.2367
▁smith	-10.2367
▁choose	-10.238
nic	-10.2392
▁tin	-10.2409
▁meat	-10.2409
ford	-10.2423
▁placed	-10.2426
▁shown	-10.2428
▁bother	-10.243
▁pin	-10.2454
▁ended	-10.2458
ette	-10.246
ela	-10.2467
▁names	-10.248
▁direct	-10.2486
▁()	-10.2495
▁bal	-10.2501
▁oops	-10.2506
illa	-10.2514
▁site	-10.2524
▁(19	-10.2534
ung	-10.2537
▁contain	-10.2551
place	-10.2567
▁journey	-10.2568
▁plenty	-10.2568
▁politician	-10.2568
▁professor	-10.2568
▁spider	-10.2568
▁dozen	-10.2568
▁21	-10.2569
▁whoops	-10.2569
▁ladies	-10.2572
▁spent	-10.2575
▁castle	-10.2576
▁bee	-10.2585
▁skin	-10.2586
▁discovered	-10.2592
▁storm	-10.2593
▁lucky	-10.2594
qua	-10.2599
coming	-10.2605
▁bra	-10.261
cu	-10.2611
▁surprised	-10.2613
▁tan	-10.2616
▁breath	-10.2621
▁runs	-10.2622
▁talked	-10.2631
▁range	-10.2634
▁hardly	-10.2641
▁hy	-10.2666
▁numbers	-10.2674
cy	-10.2682
▁rate	-10.2684
ide	-10.2733
▁fle	-10.2737
▁gen	-10.2745
▁mass	-10.2751
wood	-10.2758
▁mistake	-10.2779
▁louis	-10.278
▁border	-10.2786
▁honest	-10.2786
▁coach	-10.2786
▁angry	-10.2786
▁various	-10.2786
ions	-10.2786
▁countries	-10.2787
▁immediately	-10.2789
▁market	-10.2791
▁santa	-10.2791
▁golden	-10.2797
▁hotel	-10.2797
▁twin	-10.2799
▁rank	-10.28
▁sports	-10.2806
▁flash	-10.2806
oc	-10.2808
sings	-10.2809
hold	-10.2824
▁tie	-10.2829
gue	-10.2831
ug	-10.2836
ek	-10.2843
▁mal	-10.2848
use	-10.2854
30	-10.2866
▁planet	-10.291
▁belong	-10.293
▁founded	-10.2936
▁older	-10.2942
air	-10.2966
here	-10.2976
▁teach	-10.2983
▁add	-10.2984
ept	-10.2986
▁starting	-10.2992
back	-10.2995
▁2022	-10.2996
▁sandwich	-10.3001
▁europe	-10.3004
▁female	-10.3008
▁political	-10.3008
▁similar	-10.3008
▁smiling	-10.3008
▁adventure	-10.3008
▁swimming	-10.3008
▁airplane	-10.3008
▁choice	-10.3009
▁northern	-10.3009
▁southern	-10.3009
▁desk	-10.301
▁prize	-10.3011
▁crime	-10.3011
▁excited	-10.3012
▁everywhere	-10.3012
tz	-10.3013
▁pair	-10.3016
▁movement	-10.3017
▁&	-10.303
glo	-10.3034
▁served	-10.304
▁flag	-10.304
▁entered	-10.3046
▁writer	-10.3052
▁ken	-10.3052
ther	-10.3059
sses	-10.306
▁nut	-10.3071
ough	-10.3073
▁horn	-10.3086
▁bur	-10.3089
▁hero	-10.311
▁cal	-10.3135
▁ter	-10.3138
▁za	-10.3141
▁falling	-10.3152
gle	-10.3154
▁flu	-10.3156
die	-10.3163
mic	-10.3184
▁appear	-10.3198
▁treat	-10.3204
rin	-10.3204
takes	-10.321
▁dam	-10.3214
▁lin	-10.3221
▁ph	-10.323
▁civil	-10.3233
▁community	-10.3235
▁independent	-10.3235
▁ourselves	-10.3235
▁saturday	-10.3235
▁2013	-10.3235
▁knowledge	-10.3235
▁process	-10.3235
▁heaven	-10.3235
▁memory	-10.3235
▁henry	-10.3236
▁twice	-10.3236
over	-10.3236
▁julia	-10.3236
▁buddy	-10.3236
▁2011	-10.3237
▁iron	-10.3241
▁nick	-10.3245
▁haha	-10.3246
▁max	-10.325
pose	-10.3253
▁yum	-10.3257
▁deck	-10.3261
laughing	-10.3263
▁thy	-10.3272
lor	-10.3277
har	-10.3285
ake	-10.3291
▁bru	-10.3297
ux	-10.3302
▁sell	-10.3302
sighs	-10.3308
▁gil	-10.3311
▁forth	-10.3327
name	-10.3333
▁stan	-10.3335
low	-10.3341
▁nu	-10.3342
▁lean	-10.3348
▁shoulder	-10.3353
▁char	-10.336
rd	-10.3365
sib	-10.3367
some	-10.3372
ium	-10.3388
▁gal	-10.3423
▁finding	-10.3433
▁22	-10.3433
aid	-10.3435
take	-10.3452
ov	-10.3461
▁paris	-10.3462
▁social	-10.3466
▁association	-10.3468
▁empire	-10.3468
▁located	-10.3468
▁naughty	-10.3468
▁throat	-10.3468
▁worried	-10.3468
▁regular	-10.3468
▁version	-10.3468
▁formula	-10.3468
▁stories	-10.3468
▁2012	-10.3469
▁2007	-10.3469
▁pressure	-10.3469
▁taught	-10.3469
▁bathroom	-10.3469
▁image	-10.347
▁duty	-10.3471
▁risk	-10.3472
▁jean	-10.3475
▁dick	-10.3476
▁fill	-10.3476
▁considered	-10.3493
▁pig	-10.3493
▁jam	-10.3507
▁sold	-10.3517
▁expected	-10.3517
ize	-10.3532
▁note	-10.3541
▁formed	-10.3553
▁weight	-10.3553
▁pleased	-10.3554
▁wave	-10.3589
▁dollars	-10.3599
with	-10.36
▁doo	-10.3621
cher	-10.3628
▁guns	-10.3632
▁crack	-10.3657
when	-10.3678
▁rub	-10.3679
▁pound	-10.3683
law	-10.3687
▁slow	-10.3698
ath	-10.3698
looking	-10.3699
▁nurse	-10.3703
▁committee	-10.3706
▁empty	-10.3706
▁nervous	-10.3706
▁pizza	-10.3706
▁society	-10.3706
▁evil	-10.3706
▁drama	-10.3706
▁telephone	-10.3706
▁municipality	-10.3706
▁2008	-10.3707
▁operation	-10.3707
▁spanish	-10.3707
▁native	-10.3707
▁giant	-10.3708
▁nation	-10.3709
▁apparently	-10.3709
▁flight	-10.3709
▁amount	-10.3709
▁colors	-10.3709
▁vo	-10.3709
▁microphone	-10.371
▁motion	-10.3715
▁metal	-10.3727
▁goin	-10.3729
len	-10.3733
▁stranger	-10.3741
cap	-10.3744
▁fourth	-10.3745
▁china	-10.3746
▁thin	-10.3752
▁roar	-10.3752
▁toast	-10.3758
▁ann	-10.3766
ans	-10.3775
▁bay	-10.3778
▁saved	-10.3782
▁ze	-10.3786
▁songs	-10.379
▁26	-10.3793
af	-10.3797
▁ob	-10.3828
▁shows	-10.3856
▁moves	-10.387
▁drinking	-10.3882
▁barn	-10.3887
▁fla	-10.3914
▁pause	-10.3926
book	-10.3928
▁mate	-10.3933
vocalizes	-10.3936
▁2021	-10.3939
▁prison	-10.394
▁republic	-10.3944
▁caterpillar	-10.395
▁military	-10.395
▁gentlemen	-10.395
▁thick	-10.395
▁stock	-10.3951
▁select	-10.3951
▁medal	-10.3952
▁earlier	-10.3952
▁angel	-10.3953
▁pit	-10.3954
▁ger	-10.3954
▁dirty	-10.3955
▁largest	-10.3959
▁self	-10.396
▁published	-10.3963
▁flow	-10.3965
▁fallen	-10.3965
▁rules	-10.3969
▁total	-10.3973
▁lara	-10.3973
▁noticed	-10.3992
hy	-10.4016
▁goodness	-10.4016
▁100	-10.4021
zo	-10.4022
▁fin	-10.403
cent	-10.4031
ray	-10.4035
did	-10.404
▁bla	-10.4046
je	-10.4056
▁wondering	-10.4073
/0	-10.4085
war	-10.4085
▁pool	-10.4127
▁helped	-10.4127
▁continue	-10.4139
ken	-10.4146
▁effect	-10.4157
are	-10.4168
▁cases	-10.4177
ea	-10.4181
soa	-10.4181
▁cro	-10.4185
▁anxious	-10.4186
▁current	-10.4187
▁author	-10.4198
▁occasion	-10.4199
▁marriage	-10.42
▁museum	-10.42
▁opinion	-10.42
▁private	-10.42
▁episode	-10.42
▁photograph	-10.42
▁research	-10.42
▁dancing	-10.42
▁tongue	-10.42
▁pirate	-10.42
▁percent	-10.4201
▁odd	-10.4201
▁production	-10.4203
▁mister	-10.4206
▁gang	-10.4207
▁partner	-10.421
▁completely	-10.4212
▁fr	-10.4217
ann	-10.422
▁steps	-10.4223
12	-10.4226
▁raised	-10.4227
▁hug	-10.4227
16	-10.423
ö	-10.4248
ack	-10.4258
▁tro	-10.4262
▁glance	-10.4263
▁hung	-10.4281
▁higher	-10.4289
▁bend	-10.4289
▁plants	-10.4305
▁dust	-10.4306
▁boss	-10.4312
▁terms	-10.4331
▁23	-10.4358
▁players	-10.4389
▁sleeping	-10.4401
▁windows	-10.4409
▁regard	-10.4419
▁officers	-10.4426
▁smart	-10.4427
cries	-10.4448
pan	-10.4454
▁biscuit	-10.4456
▁chicago	-10.4456
▁disease	-10.4456
▁downstairs	-10.4456
▁necessary	-10.4456
▁neither	-10.4456
▁statistics	-10.4456
▁struck	-10.4456
▁launch	-10.4456
▁bonnet	-10.4456
▁actress	-10.4456
calais	-10.4457
▁slip	-10.4457
▁2015	-10.4457
▁2010	-10.4458
fer	-10.4458
▁swim	-10.4458
▁quack	-10.4458
▁proud	-10.446
▁50	-10.4466
▁duh	-10.447
▁qua	-10.447
▁forgive	-10.4475
gon	-10.4476
▁nest	-10.4479
▁grown	-10.448
jes	-10.4482
▁quietly	-10.4492
pro	-10.4501
▁rocks	-10.4504
board	-10.4533
▁afterwards	-10.4546
▁ser	-10.4547
▁wine	-10.4547
orn	-10.4551
▁hum	-10.4568
▁william	-10.4591
ano	-10.4591
▁lights	-10.4593
bed	-10.4597
▁br	-10.4597
▁prove	-10.4605
▁walks	-10.4612
hand	-10.4613
shed	-10.4617
▁kinda	-10.462
his	-10.462
roz	-10.4625
▁male	-10.4632
▁believed	-10.4645
ius	-10.4653
mark	-10.4654
tain	-10.4654
▁[2	-10.466
--"	-10.4661
ball	-10.4679
▁agree	-10.4686
▁release	-10.469
▁receive	-10.469
(	-10.4691
brother	-10.4693
▁sport	-10.4701
▁burn	-10.4714
▁excellent	-10.4719
▁possibly	-10.4719
▁friday	-10.4719
▁suspect	-10.4719
▁contact	-10.4719
▁buried	-10.4719
▁text	-10.4719
▁blind	-10.4719
▁shock	-10.472
▁2004	-10.472
▁valley	-10.472
▁curious	-10.472
▁obviously	-10.4722
▁detail	-10.4722
▁development	-10.4722
▁boots	-10.4725
▁comb	-10.4727
▁cheer	-10.4728
▁mike	-10.4729
▁italy	-10.4731
▁rod	-10.4734
▁chain	-10.4736
▁chairman	-10.4737
▁softly	-10.4743
▁settled	-10.475
aun	-10.4752
▁suggested	-10.4753
▁mill	-10.4772
ern	-10.4773
▁doin	-10.4786
▁mud	-10.4789
▁hanging	-10.4794
0,000	-10.4799
▁eaten	-10.4801
iff	-10.4814
▁arch	-10.4824
▁papers	-10.4826
▁event	-10.4827
▁calls	-10.4829
ple	-10.4829
▁bart	-10.483
▁anti	-10.4836
▁claim	-10.4855
▁trans	-10.4863
ku	-10.4889
cla	-10.4897
▁dun	-10.4898
elle	-10.4908
pas	-10.4908
▁chase	-10.4915
jen	-10.4922
▁rule	-10.4931
▁complete	-10.495
▁plans	-10.495
▁matt	-10.4952
music	-10.4961
good	-10.4964
▁wal	-10.4967
▁hay	-10.4967
▁create	-10.4975
▁express	-10.4986
til	-10.4988
▁channel	-10.499
▁colonel	-10.499
▁dinosaur	-10.499
▁fifteen	-10.499
▁security	-10.499
▁temple	-10.499
▁pepper	-10.499
▁complain	-10.499
▁fortune	-10.499
▁lawyer	-10.499
▁shore	-10.499
▁purple	-10.499
▁pillow	-10.499
▁influence	-10.499
▁species	-10.499
▁2019	-10.499
will	-10.4991
▁leap	-10.4991
▁rough	-10.4991
▁secretary	-10.4993
▁european	-10.4995
▁tip	-10.5002
very	-10.5003
▁load	-10.5005
▁perfectly	-10.5007
▁tries	-10.5012
▁cloth	-10.5015
▁tour	-10.5015
▁awful	-10.5023
▁larger	-10.5027
▁generally	-10.5032
ery	-10.5037
▁pur	-10.5038
▁smiled	-10.5044
▁scream	-10.5049
▁del	-10.505
ett	-10.5053
▁offered	-10.5053
40	-10.5053
bye	-10.5059
▁gay	-10.5059
▁chew	-10.5065
▁din	-10.5068
▁tale	-10.5074
miss	-10.5075
▁younger	-10.509
▁dressed	-10.5092
mate	-10.5094
▁harm	-10.5096
▁tur	-10.5102
▁brave	-10.512
ino	-10.513
▁begins	-10.5132
▁chris	-10.5138
▁aged	-10.5142
▁lamp	-10.5146
▁salt	-10.516
▁refer	-10.5162
cer	-10.5163
star	-10.5172
ura	-10.5182
⌉	-10.5186
bert	-10.5195
▁pray	-10.5211
riv	-10.5236
▁sits	-10.5237
▁sudden	-10.5254
▁discuss	-10.5262
▁champion	-10.5267
▁advice	-10.5267
▁joseph	-10.5267
▁opposite	-10.5267
▁prevent	-10.5267
▁splash	-10.5267
▁supper	-10.5267
▁desert	-10.5268
▁edward	-10.5268
▁bessie	-10.5268
▁represent	-10.5268
▁transport	-10.5268
▁mount	-10.5268
▁switch	-10.5268
▁shift	-10.5268
▁2006	-10.5268
▁zoo	-10.5268
▁novel	-10.5269
▁leaf	-10.5269
▁rope	-10.5272
▁2003	-10.5272
ology	-10.5274
▁retired	-10.5275
▁compete	-10.5275
▁rice	-10.5275
▁yup	-10.5278
▁beep	-10.5285
▁cock	-10.5286
▁’	-10.5287
▁bike	-10.5289
▁mentioned	-10.5291
▁gray	-10.5294
▁wipe	-10.5295
▁commander	-10.5296
ock	-10.5306
▁string	-10.5306
▁movies	-10.5308
kar	-10.5312
▁successful	-10.5324
▁seal	-10.5327
und	-10.5331
▁showing	-10.5331
▁ge	-10.5338
nder	-10.5351
▁growing	-10.5354
▁painting	-10.5354
▁eva	-10.5358
▁changes	-10.5368
▁27	-10.5386
ates	-10.539
▁depend	-10.5415
morrow	-10.5415
▁honour	-10.5424
ught	-10.544
set	-10.5446
▁orders	-10.5451
▁fu	-10.5453
▁landed	-10.5456
▁fellows	-10.5462
▁--	-10.5464
▁tears	-10.5467
▁feature	-10.5477
▁bare	-10.548
zy	-10.5493
15	-10.5499
yard	-10.5502
▁suggest	-10.551
▁cu	-10.552
▁decide	-10.5523
counter	-10.5531
▁normal	-10.554
▁entire	-10.554
▁firm	-10.554
▁branch	-10.5546
rate	-10.5549
▁opera	-10.5549
▁culture	-10.5553
▁emperor	-10.5553
▁sausage	-10.5553
▁strength	-10.5553
▁greek	-10.5553
▁simply	-10.5553
▁stream	-10.5553
▁doggie	-10.5553
▁pilot	-10.5553
▁average	-10.5553
▁gordon	-10.5553
▁opportunity	-10.5553
▁stairs	-10.5553
▁content	-10.5553
▁creature	-10.5553
▁desire	-10.5553
▁eleven	-10.5553
▁shook	-10.5553
▁brook	-10.5554
▁scout	-10.5555
▁cheap	-10.5555
▁impossible	-10.5555
▁apartment	-10.5556
▁tough	-10.5556
▁whistle	-10.5556
▁heat	-10.5557
▁guest	-10.5558
▁sarah	-10.5558
▁definitely	-10.5558
▁rat	-10.5562
▁sake	-10.5563
yo	-10.5565
▁style	-10.5566
▁1,	-10.5571
14	-10.5574
-19	-10.5578
▁consist	-10.558
▁joke	-10.5584
▁slave	-10.5585
▁dogs	-10.5586
▁shouted	-10.5587
▁ur	-10.5587
run	-10.5595
fall	-10.5597
▁rep	-10.5598
▁promised	-10.5605
ada	-10.5605
▁explained	-10.5618
▁cooking	-10.564
ched	-10.5648
▁mil	-10.5649
▁jumped	-10.5653
voc	-10.5667
▁map	-10.5675
more	-10.5685
▁bug	-10.5696
mr	-10.57
▁critic	-10.5707
▁listening	-10.5735
▁q	-10.574
▁favor	-10.5744
21	-10.5745
▁str	-10.5762
▁ven	-10.5768
nods	-10.5768
▁wheels	-10.5774
gro	-10.5783
▁gather	-10.5812
[	-10.5818
&	-10.5818
▁realize	-10.5819
phone	-10.5822
two	-10.5824
▁usual	-10.5834
▁conduct	-10.5836
▁proper	-10.5837
▁sy	-10.5846
▁equal	-10.5847
▁studied	-10.5847
▁confess	-10.5847
▁request	-10.5847
▁scratch	-10.5847
▁canadian	-10.5847
▁modern	-10.5847
▁positive	-10.5847
▁polish	-10.5847
▁rifle	-10.5847
▁shopping	-10.5847
▁fool	-10.5847
▁horsie	-10.5847
▁purdie	-10.5848
▁value	-10.5848
▁banana	-10.5848
▁cheek	-10.5849
▁fra	-10.5849
▁grandmother	-10.5849
▁sis	-10.585
▁sentence	-10.585
▁dump	-10.585
▁academy	-10.585
▁fold	-10.5851
▁fence	-10.5851
▁basket	-10.5852
▁canoe	-10.5852
▁tribe	-10.5852
▁hunt	-10.5856
▁manager	-10.5857
▁sixty	-10.5858
▁goodbye	-10.586
▁anywhere	-10.586
▁steal	-10.5861
▁cash	-10.5862
▁spare	-10.5863
▁uhuh	-10.5864
▁steve	-10.5865
ala	-10.5869
▁managed	-10.587
▁remarked	-10.5871
▁spoken	-10.5873
▁debut	-10.5877
▁gene	-10.5881
▁mail	-10.5883
▁princess	-10.5886
▁justice	-10.5888
▁carefully	-10.589
▁rail	-10.5891
ities	-10.5892
▁fed	-10.5898
hou	-10.5907
▁sigh	-10.5907
▁spin	-10.5908
fu	-10.5923
ify	-10.5923
▁holy	-10.5925
▁engineer	-10.5926
▁fixed	-10.5935
▁gro	-10.5936
▁rap	-10.5938
▁ned	-10.5944
▁knowing	-10.5956
▁lips	-10.5981
▁yay	-10.5988
▁folks	-10.6006
▁nope	-10.6008
▁rise	-10.601
▁groups	-10.6019
toy	-10.6042
▁islands	-10.6045
▁eric	-10.6051
▁han	-10.6052
25	-10.6057
▁kim	-10.6068
ale	-10.609
table	-10.6093
▁faith	-10.6094
uch	-10.6097
▁shin	-10.6097
dding	-10.61
long	-10.6114
▁advance	-10.612
▁unit	-10.6121
▁sin	-10.6127
town	-10.6128
▁bon	-10.6132
▁fail	-10.6132
▁ban	-10.6136
▁russia	-10.614
▁bud	-10.6146
▁scott	-10.6149
▁access	-10.615
▁evidence	-10.615
▁magazine	-10.615
▁passenger	-10.615
▁powder	-10.615
▁understood	-10.615
▁crawl	-10.615
▁stretch	-10.615
▁federal	-10.615
▁alarm	-10.615
▁delay	-10.615
▁split	-10.615
▁latter	-10.615
▁polly	-10.615
▁tractor	-10.615
▁italian	-10.6151
▁2009	-10.6151
▁performance	-10.6151
▁caroline	-10.6151
▁buck	-10.6152
▁ladder	-10.6153
▁cities	-10.6154
▁weekend	-10.6155
▁clown	-10.6157
▁involved	-10.6159
▁condition	-10.6165
vocalize	-10.6167
▁section	-10.6167
▁rec	-10.6169
▁developed	-10.617
▁produced	-10.6175
▁tank	-10.6185
▁code	-10.6192
▁ci	-10.6192
whispers	-10.6199
▁clearly	-10.6199
▁mayor	-10.6214
aud	-10.6214
24	-10.6217
▁shout	-10.6222
▁measure	-10.6223
▁mont	-10.6223
▁cute	-10.6236
▁dolls	-10.6247
▁aid	-10.6254
▁smaller	-10.6254
cal	-10.6265
peter	-10.6279
▁fully	-10.6282
pic	-10.6295
▁wha	-10.6301
dis	-10.6313
▁chest	-10.6316
ila	-10.6324
▁indians	-10.6347
▁wings	-10.6349
▁net	-10.6351
▁tam	-10.6355
▁bomb	-10.6356
▁poo	-10.6357
mel	-10.6377
see	-10.6387
▁streets	-10.6398
▁sur	-10.6417
▁arab	-10.6418
worth	-10.6434
pol	-10.6435
▁mix	-10.6435
about	-10.6446
▁owner	-10.6451
▁australia	-10.6452
▁hmm	-10.6457
hood	-10.6462
▁knife	-10.6463
▁mirror	-10.6463
▁penguin	-10.6463
▁response	-10.6463
▁stomach	-10.6463
▁sixteen	-10.6463
▁chinese	-10.6463
▁threw	-10.6463
▁merry	-10.6463
▁daniel	-10.6463
▁jerry	-10.6464
▁fancy	-10.6464
▁bucket	-10.6464
▁towel	-10.6464
▁sword	-10.6464
▁neighbor	-10.6465
▁whiskers	-10.6465
▁penny	-10.6465
▁garage	-10.6466
▁broad	-10.6466
▁agent	-10.6467
▁gain	-10.6467
▁candle	-10.6471
▁firstname	-10.6472
▁remind	-10.6472
▁stir	-10.6472
▁frightened	-10.6475
▁spoil	-10.6479
ark	-10.648
▁copy	-10.6491
▁repeated	-10.6493
▁greatest	-10.6497
izing	-10.6498
▁mixed	-10.6499
▁ross	-10.65
▁visitor	-10.651
▁whispered	-10.651
▁filled	-10.6512
▁ash	-10.6515
▁bush	-10.6518
▁tha	-10.6522
▁tax	-10.6525
▁prayer	-10.653
say	-10.6532
▁closer	-10.6533
▁non	-10.6537
▁included	-10.6544
▁upper	-10.6547
▁remained	-10.6553
▁cups	-10.6556
▁rome	-10.6565
▁areas	-10.6589
▁dreams	-10.6597
▁quot	-10.6629
coughs	-10.6634
▁pla	-10.6645
nia	-10.6652
▁comfort	-10.6653
▁fishing	-10.6661
▁whisper	-10.6661
ax	-10.6672
ace	-10.6679
"]	-10.668
▁helping	-10.671
64	-10.6734
▁discover	-10.6735
▁boom	-10.6735
▁increase	-10.6755
▁training	-10.6756
▁pale	-10.6762
ica	-10.6763
▁instant	-10.6772
▁dish	-10.6773
ably	-10.678
▁gentle	-10.6782
ā	-10.6785
▁degree	-10.6785
▁practice	-10.6785
▁progress	-10.6785
▁respond	-10.6785
▁texas	-10.6785
▁treasure	-10.6785
▁borrow	-10.6785
▁pencil	-10.6785
▁ancient	-10.6785
▁freedom	-10.6785
▁balloon	-10.6785
▁turtle	-10.6785
▁priest	-10.6785
▁surface	-10.6785
▁photo	-10.6786
▁strike	-10.6786
▁1992	-10.6786
▁trail	-10.6786
▁irish	-10.6786
▁2002	-10.6787
▁print	-10.6787
▁worst	-10.6787
▁authority	-10.6787
▁nursery	-10.6789
▁aware	-10.6789
:00	-10.6789
▁comment	-10.6789
bl	-10.6789
▁cliff	-10.6791
▁nap	-10.6792
▁poet	-10.6793
▁bless	-10.6794
▁drum	-10.6794
ara	-10.6795
▁postman	-10.6796
▁reply	-10.68
▁fireman	-10.681
boy	-10.6812
▁lamb	-10.6813
▁keys	-10.6814
▁canada	-10.6818
tory	-10.6819
net	-10.6822
▁jar	-10.6822
▁failed	-10.6824
▁ruth	-10.6824
▁bou	-10.6825
▁shouting	-10.683
▁trap	-10.6833
▁locked	-10.6848
▁waited	-10.6852
▁dave	-10.6853
▁events	-10.6858
▁31	-10.6859
▁sink	-10.686
▁recording	-10.6872
▁mon	-10.6893
▁val	-10.6898
rah	-10.6922
bury	-10.6935
▁cough	-10.6944
▁oil	-10.6948
▁affairs	-10.695
▁wo	-10.6957
▁olympics	-10.697
▁brothers	-10.697
▁peas	-10.697
▁prime	-10.6973
▁feelings	-10.6975
▁gasp	-10.6984
▁surely	-10.6985
▁fashion	-10.7001
▁disc	-10.7019
ria	-10.7019
▁op	-10.7025
▁sale	-10.7033
▁picking	-10.7035
zer	-10.7037
▁fired	-10.7042
play	-10.7051
▁mus	-10.7056
▁students	-10.7061
▁der	-10.7062
▁[5	-10.7067
call	-10.7071
▁goals	-10.7073
cul	-10.7074
▁cy	-10.7075
ration	-10.7082
▁delight	-10.7091
▁figures	-10.7099
year	-10.7105
stitute	-10.7119
è	-10.7119
▁congress	-10.7119
▁individual	-10.7119
▁instrument	-10.7119
▁majesty	-10.7119
▁matthew	-10.7119
▁beauty	-10.7119
▁bubble	-10.7119
▁deserve	-10.7119
▁exercise	-10.7119
▁butterfly	-10.7119
▁soviet	-10.7119
▁method	-10.7119
▁session	-10.7119
▁eighteen	-10.7119
▁source	-10.7119
▁steady	-10.7119
▁proceed	-10.7119
▁credit	-10.7119
▁peanut	-10.7119
filler	-10.7119
▁jelly	-10.7119
▁peggy	-10.7119
▁plot	-10.7119
▁boston	-10.7119
▁sauce	-10.7119
▁narrow	-10.7119
boo	-10.712
▁rings	-10.712
▁achieve	-10.7121
posta	-10.7121
▁duke	-10.7121
▁awake	-10.7122
▁powerful	-10.7123
▁chemical	-10.7123
▁jones	-10.7124
stand	-10.7124
▁buzz	-10.7125
▁comic	-10.7125
▁aside	-10.7126
▁secure	-10.7128
▁examine	-10.7128
▁scare	-10.7133
▁staff	-10.7134
▁mur	-10.7136
▁african	-10.7136
▁trial	-10.7137
istic	-10.7141
▁particularly	-10.7141
▁iii	-10.7144
▁removed	-10.7146
▁upset	-10.7151
▁nana	-10.7154
▁hearing	-10.7156
▁etc	-10.7157
▁hunting	-10.7162
▁wedding	-10.7162
▁rear	-10.7163
eth	-10.7165
▁verse	-10.7174
last	-10.718
babble	-10.7184
22	-10.7189
off	-10.7192
kh	-10.7194
▁remembered	-10.7203
cus	-10.7211
▁belongs	-10.7217
▁ee	-10.7221
▁consider	-10.724
▁teams	-10.7249
▁span	-10.7252
▁troops	-10.7257
rum	-10.7269
▁voices	-10.7269
▁pulling	-10.728
▁dash	-10.7293
▁bre	-10.7306
▁ordered	-10.7315
ome	-10.7315
▁cre	-10.7319
▁yards	-10.7341
▁grandpa	-10.7342
▁cell	-10.7346
19	-10.7375
▁stayed	-10.7388
itch	-10.7389
ré	-10.7418
▁attend	-10.7428
▁pr	-10.7429
▁forms	-10.7433
▁grace	-10.7439
ouch	-10.7441
▁snap	-10.7449
▁guitar	-10.7462
▁advantage	-10.7463
▁campaign	-10.7463
▁hockey	-10.7463
▁newspaper	-10.7463
▁parliament	-10.7463
▁squirrel	-10.7463
▁switzerland	-10.7463
▁underneath	-10.7463
▁cruel	-10.7463
▁ahhah	-10.7463
▁weapon	-10.7463
▁biggest	-10.7463
▁presence	-10.7464
▁greet	-10.7464
▁gently	-10.7464
▁turkey	-10.7464
▁grandfather	-10.7464
▁1970	-10.7464
▁woo	-10.7465
hoo	-10.7466
▁crane	-10.7466
tis	-10.7467
▁alien	-10.7467
▁reaction	-10.7467
▁toilet	-10.7468
▁losing	-10.7468
▁alex	-10.7469
▁arthur	-10.7469
▁mamma	-10.7471
▁~	-10.7471
▁crown	-10.7476
▁invited	-10.7477
▁properly	-10.7479
▁arrow	-10.7479
▁lucy	-10.7479
▁pitcher	-10.7481
▁elected	-10.7482
▁brand	-10.7482
ttle	-10.7483
▁highest	-10.7483
▁alter	-10.7485
▁vol	-10.7486
▁sweat	-10.7486
▁sweetie	-10.7511
▁chuck	-10.7512
nu	-10.7514
▁student	-10.7524
▁exp	-10.7524
▁grant	-10.7527
▁bomba	-10.7537
▁eighty	-10.7542
▁presently	-10.7544
▁washing	-10.7545
▁wire	-10.7549
ik	-10.7553
ella	-10.756
▁structure	-10.7569
▁dee	-10.7575
75	-10.7577
▁friendly	-10.7579
▁dada	-10.758
▁yu	-10.7581
▁ray	-10.7597
▁cub	-10.7602
▁pok	-10.7678
▁listened	-10.7681
▁paying	-10.7682
ou	-10.7697
▁rode	-10.7701
▁stu	-10.7707
mond	-10.7707
⌋.	-10.7711
eva	-10.7718
▁pal	-10.772
ition	-10.7721
▁interrupt	-10.7723
babbles	-10.7769
▁pile	-10.7781
work	-10.7787
▁describe	-10.779
`	-10.7791
walk	-10.7793
▁shops	-10.7797
▁shower	-10.7797
▁brief	-10.7807
▁previous	-10.7807
shire	-10.7813
▁magnet	-10.7819
▁birth	-10.782
▁product	-10.782
vocalization	-10.7821
▁assembly	-10.7821
▁available	-10.7821
▁citizen	-10.7821
▁competition	-10.7821
▁economic	-10.7821
▁restaurant	-10.7821
▁studio	-10.7821
▁temperature	-10.7821
▁servant	-10.7821
▁article	-10.7821
▁snack	-10.7821
▁amazing	-10.7821
▁plastic	-10.7821
▁dutch	-10.7821
▁squash	-10.7821
▁israel	-10.7821
▁shelter	-10.7821
▁occurred	-10.7821
▁graduat	-10.7821
▁internet	-10.7821
▁thunder	-10.7821
▁savage	-10.7822
▁meanwhile	-10.7822
▁planning	-10.7822
▁ellie	-10.7823
▁airport	-10.7824
▁pony	-10.7824
ograph	-10.7825
▁hook	-10.7825
▁ninety	-10.7827
▁alice	-10.7827
▁household	-10.7828
——	-10.7828
▁chosen	-10.7829
▁established	-10.7829
▁burst	-10.783
▁pants	-10.783
▁jacket	-10.7831
▁spite	-10.7833
▁waste	-10.7835
ternal	-10.7836
▁setting	-10.7836
▁motor	-10.7837
▁entirely	-10.7837
▁tender	-10.7838
▁goal	-10.7838
▁observed	-10.7838
▁var	-10.7839
▁currently	-10.784
▁directly	-10.7843
bout	-10.7853
▁skill	-10.7855
▁woke	-10.7856
▁mainly	-10.786
▁types	-10.7863
fect	-10.7864
▁[3	-10.7865
▁awards	-10.7866
▁para	-10.7866
▁lou	-10.7868
▁chan	-10.788
▁riding	-10.7887
▁effort	-10.7892
▁bond	-10.7899
▁nearer	-10.7906
▁spy	-10.791
▁whale	-10.7921
▁settle	-10.7926
▁forced	-10.7939
▁rolled	-10.7941
▁pushed	-10.7945
▁signed	-10.7947
▁quit	-10.7949
oy	-10.7963
▁sum	-10.7963
your	-10.7963
▁mag	-10.7969
▁soup	-10.797
▁laws	-10.7974
ike	-10.7987
awa	-10.7989
▁hol	-10.7993
▁beg	-10.7993
▁musical	-10.8002
▁uk	-10.8012
ash	-10.8021
▁mustn	-10.8025
▁bricks	-10.8048
80	-10.805
▁goat	-10.8057
lock	-10.8059
▁brad	-10.8067
▁greatly	-10.809
▁chat	-10.8096
▁referr	-10.8105
lau	-10.8111
ear	-10.8129
▁cards	-10.8144
ini	-10.8149
▁cookies	-10.8152
▁produce	-10.8152
▁wound	-10.8155
▁repeat	-10.8163
bird	-10.8164
ong	-10.8164
▁recognize	-10.8164
▁arrange	-10.8166
pointing	-10.8175
▁stepp	-10.8177
▁silent	-10.8177
▁batter	-10.8181
mad	-10.8182
▁potato	-10.8184
▁remove	-10.819
▁arrival	-10.8191
▁circus	-10.8191
▁companies	-10.8191
▁energy	-10.8191
▁icecream	-10.8191
▁neighbour	-10.8191
▁pakistan	-10.8191
▁policy	-10.8191
▁tournament	-10.8191
▁courage	-10.8191
▁florence	-10.8191
▁hurried	-10.8191
▁slept	-10.8191
▁smooth	-10.8191
▁supply	-10.8191
▁fifth	-10.8191
▁material	-10.8191
▁ocean	-10.8191
▁bodies	-10.8191
▁rescue	-10.8191
▁protest	-10.8191
▁mummie	-10.8191
▁habit	-10.8191
▁medical	-10.8191
▁palace	-10.8191
▁nerve	-10.8191
▁detective	-10.8192
▁railway	-10.8192
▁hammer	-10.8193
▁covid	-10.8193
▁latin	-10.8193
▁2001	-10.8193
▁ireland	-10.8193
venue	-10.8194
▁bruce	-10.8194
▁comfortable	-10.8195
▁cabin	-10.8196
▁2000	-10.8196
▁steam	-10.8197
▁shame	-10.8198
▁darkness	-10.82
▁frame	-10.8201
▁glu	-10.8201
▁victory	-10.8201
▁craft	-10.8204
▁pooh	-10.8204
▁whenever	-10.8205
▁glasses	-10.8207
▁marry	-10.821
▁rent	-10.821
▁customer	-10.8221
▁link	-10.8235
200	-10.8236
▁qu	-10.8252
▁speaks	-10.8256
▁media	-10.8259
▁drove	-10.8267
▁expecting	-10.8272
▁radi	-10.8292
18	-10.8302
▁clap	-10.8325
▁jumping	-10.8326
▁sew	-10.8326
▁acting	-10.8327
▁carrying	-10.8329
pin	-10.8338
▁legal	-10.8345
▁gran	-10.8364
▁crayons	-10.8367
stone	-10.8368
▁eve	-10.839
too	-10.8394
fra	-10.8395
▁disco	-10.8406
ob	-10.841
oid	-10.8414
▁hor	-10.8436
▁ker	-10.8438
sea	-10.8453
▁grab	-10.8459
▁shan	-10.8461
ola	-10.8467
▁sar	-10.8498
under	-10.8513
▁tap	-10.8517
▁sticker	-10.8525
▁destroy	-10.8539
fish	-10.855
▁admit	-10.8574
▁benefit	-10.8576
▁fortunate	-10.8576
▁industry	-10.8576
▁squeeze	-10.8576
▁universe	-10.8576
▁carriage	-10.8576
▁hidden	-10.8576
▁sweetheart	-10.8576
▁widow	-10.8576
▁occupied	-10.8576
▁afford	-10.8576
▁organization	-10.8576
▁strawberry	-10.8576
▁representative	-10.8576
▁basketball	-10.8576
▁focus	-10.8576
▁2023	-10.8576
footnote	-10.8577
▁wagon	-10.8577
▁management	-10.8577
▁witch	-10.8578
▁grey	-10.8579
▁fever	-10.858
▁elder	-10.858
▁grandad	-10.858
▁warren	-10.8582
▁passage	-10.8582
▁click	-10.8582
▁manage	-10.8583
▁weird	-10.8583
▁straw	-10.8584
▁recently	-10.8585
▁baba	-10.8585
▁merc	-10.8586
▁trace	-10.8586
▁related	-10.8586
▁prefer	-10.8587
bob	-10.8588
▁determined	-10.8589
▁nearest	-10.859
▁lies	-10.8591
non	-10.8599
▁parish	-10.86
▁warning	-10.8603
▁nail	-10.8603
▁saving	-10.8604
▁characters	-10.8605
▁performed	-10.8606
door	-10.8608
▁records	-10.8609
▁disappeared	-10.861
▁owl	-10.8617
▁gathered	-10.8623
▁fairy	-10.8627
five	-10.8627
▁bone	-10.8631
▁thrown	-10.8633
▁pole	-10.8635
py	-10.8638
▁display	-10.8641
berry	-10.8643
▁beans	-10.8645
000	-10.8647
án	-10.8653
▁owe	-10.8661
▁luc	-10.8672
var	-10.8674
▁soldier	-10.8681
whine	-10.8695
▁sooner	-10.8701
sung	-10.8703
▁jan	-10.8707
bell	-10.8713
▁blo	-10.8722
west	-10.8727
▁rev	-10.8728
▁tent	-10.8738
▁hills	-10.8743
turns	-10.8744
▁shoulders	-10.8765
▁introduce	-10.8769
▁tend	-10.8799
ative	-10.8809
cast	-10.8815
▁asian	-10.8833
▁arts	-10.8851
▁file	-10.8856
▁beam	-10.8859
bon	-10.8866
▁staying	-10.8898
▁limb	-10.8903
wan	-10.8907
▁qui	-10.8911
▁chang	-10.8931
▁iv	-10.8936
▁tar	-10.8938
▁disappear	-10.8939
silence	-10.8947
down	-10.8951
▁conditions	-10.8956
▁pad	-10.8966
overlap	-10.8968
▁origin	-10.8968
▁aft	-10.8972
▁attract	-10.8974
▁inform	-10.8975
ü	-10.8976
▁alexander	-10.8976
▁centuries	-10.8976
▁conference	-10.8976
▁elizabeth	-10.8976
▁nicole	-10.8976
▁scarcely	-10.8976
▁spaghetti	-10.8976
▁territory	-10.8976
▁tunnel	-10.8976
▁shadow	-10.8976
▁meadow	-10.8976
▁terror	-10.8976
▁contract	-10.8976
▁devil	-10.8976
▁eagle	-10.8976
▁insect	-10.8976
▁barrel	-10.8976
▁foreign	-10.8976
▁expert	-10.8976
▁1950	-10.8976
▁oven	-10.8976
▁plum	-10.8976
▁excitement	-10.8976
tti	-10.8976
▁fond	-10.8977
▁ticket	-10.8977
▁philip	-10.8977
▁kidding	-10.8977
▁byebye	-10.8977
saxon	-10.8977
▁festival	-10.8977
▁guide	-10.8977
▁dragon	-10.8977
▁property	-10.8978
▁trunk	-10.8978
▁zip	-10.8978
▁dawn	-10.8978
▁rattle	-10.8979
▁illustrations	-10.8979
▁winner	-10.8982
▁flame	-10.8982
▁extremely	-10.8982
▁safety	-10.8983
▁invent	-10.8984
▁assum	-10.8984
▁keen	-10.8985
▁rapidly	-10.8986
▁blame	-10.8991
▁ballet	-10.8993
▁rug	-10.8999
▁loose	-10.9004
▁wil	-10.9008
▁fairly	-10.9019
▁wore	-10.9022
▁recorder	-10.9023
87	-10.9024
▁shining	-10.9026
▁dragg	-10.9027
▁burning	-10.9034
▁mission	-10.9038
▁effects	-10.9043
count	-10.9044
look	-10.9046
▁seeds	-10.9056
▁waves	-10.9074
▁fate	-10.9074
hall	-10.9077
▁gloves	-10.9081
ever	-10.9108
▁prisoner	-10.9114
▁rolling	-10.9115
talk	-10.9116
▁belt	-10.9122
▁(1	-10.9125
▁height	-10.9128
▁oop	-10.9135
▁clouds	-10.9155
▁drug	-10.9161
▁rosa	-10.9166
ctor	-10.9169
▁provide	-10.918
▁squ	-10.919
lou	-10.9199
▁bun	-10.9207
▁chap	-10.9211
bie	-10.9219
key	-10.9242
▁tru	-10.9288
giggles	-10.9289
86	-10.9295
▁bones	-10.9296
▁wan	-10.93
▁dim	-10.9323
▁sim	-10.9334
▁organ	-10.9341
▁strip	-10.9354
uring	-10.9362
▁separate	-10.9362
which	-10.9364
iling	-10.9365
mhm	-10.9366
him	-10.9372
▁mention	-10.9372
making	-10.9375
▁eager	-10.9379
▁actual	-10.9379
▁korea	-10.9382
▁chop	-10.9387
▁egypt	-10.939
▁brilliant	-10.9392
▁despite	-10.9392
▁easier	-10.9392
▁expensive	-10.9392
▁florida	-10.9392
▁giraffe	-10.9392
▁mistress	-10.9392
▁participat	-10.9392
▁puppy	-10.9392
▁composed	-10.9392
▁temper	-10.9392
▁consult	-10.9392
▁belief	-10.9392
▁affect	-10.9392
▁avoid	-10.9392
▁stroke	-10.9392
▁broadcast	-10.9393
▁worship	-10.9393
▁transfer	-10.9393
▁becky	-10.9393
▁constitution	-10.9393
▁backwards	-10.9393
▁1999	-10.9393
▁piano	-10.9393
▁solid	-10.9394
▁harold	-10.9394
▁review	-10.9394
▁salad	-10.9394
▁yummy	-10.9394
▁emotion	-10.9395
▁slice	-10.9395
▁stern	-10.9395
▁beads	-10.9397
▁compare	-10.94
▁bunch	-10.9401
▁dishes	-10.9402
▁standard	-10.9403
▁brian	-10.9403
▁peak	-10.9403
▁throughout	-10.9404
▁engaged	-10.9406
▁julie	-10.9406
▁maid	-10.9408
▁40	-10.9409
▁relative	-10.9412
▁profit	-10.9412
▁rick	-10.9428
▁pul	-10.9431
▁wounded	-10.9433
▁wooden	-10.9434
▁jess	-10.9436
▁forever	-10.944
▁gained	-10.9441
▁breed	-10.9443
▁upside	-10.9445
▁paused	-10.9445
▁tear	-10.9445
▁yell	-10.945
▁deer	-10.9451
▁virginia	-10.9453
▁flip	-10.9454
35	-10.9458
▁nik	-10.946
fire	-10.9462
▁circumstances	-10.9463
▁noble	-10.9468
ode	-10.9473
▁knocked	-10.9477
▁0	-10.9477
▁comedy	-10.9487
▁hasta	-10.9512
⌋	-10.9522
wing	-10.9523
eous	-10.9533
▁reaching	-10.9534
▁peep	-10.954
3]	-10.9555
▁kar	-10.9576
▁sara	-10.9584
▁blu	-10.9584
rya	-10.9584
59	-10.9586
▁kindly	-10.9594
▁lil	-10.9601
▁wondered	-10.9601
▁williams	-10.9602
▁prim	-10.9603
▁allah	-10.9607
▁loss	-10.9612
vid	-10.9618
▁socks	-10.9623
shouts	-10.9623
ole	-10.9626
▁fund	-10.9638
▁clip	-10.9639
ability	-10.9649
38	-10.9661
▁leo	-10.9672
wick	-10.968
▁asia	-10.9711
▁ted	-10.9727
rog	-10.9732
bin	-10.9743
late	-10.9743
▁defend	-10.9753
▁suffer	-10.9753
▁cells	-10.9761
▁crow	-10.9789
▁demand	-10.9791
▁remark	-10.9795
perhaps	-10.9798
▁damage	-10.9799
▁descend	-10.9817
tail	-10.982
most	-10.9822
▁revolution	-10.9826
▁electric	-10.9826
}	-10.9827
▁1994	-10.9827
▁audience	-10.9827
▁climate	-10.9827
▁commission	-10.9827
▁corporation	-10.9827
▁cricket	-10.9827
▁desperate	-10.9827
▁entrance	-10.9827
▁hurricane	-10.9827
▁nineteen	-10.9827
▁ordinary	-10.9827
▁peekaboo	-10.9827
▁principal	-10.9827
▁resident	-10.9827
▁swallow	-10.9827
▁sydney	-10.9827
▁tuesday	-10.9827
▁vehicle	-10.9827
▁wednesday	-10.9827
▁zealand	-10.9827
▁zzz	-10.9827
▁vacation	-10.9827
▁false	-10.9827
▁glory	-10.9827
▁reckon	-10.9827
▁kitten	-10.9827
▁crisp	-10.9827
▁particle	-10.9827
▁punch	-10.9827
▁barbara	-10.9827
▁network	-10.9827
▁susan	-10.9828
▁racing	-10.9828
▁obtain	-10.9828
▁plus	-10.9828
▁severe	-10.9828
▁legend	-10.983
after	-10.983
▁cents	-10.983
▁seized	-10.983
▁agency	-10.983
▁depends	-10.9831
▁faint	-10.9831
▁walter	-10.9831
▁construction	-10.9831
▁dunno	-10.9831
▁satisfied	-10.9832
▁otherwise	-10.9832
▁lisa	-10.9833
▁screen	-10.9834
▁tommy	-10.9835
▁neat	-10.9836
▁unlike	-10.9838
▁seventy	-10.9839
▁label	-10.984
▁cutting	-10.984
father	-10.9841
▁steel	-10.9841
▁tune	-10.9842
▁chart	-10.9843
▁succeeded	-10.9844
▁statement	-10.9844
▁oak	-10.9845
▁robin	-10.9849
▁required	-10.9849
▁stable	-10.985
▁connected	-10.985
▁kisses	-10.9851
▁sailor	-10.9856
▁concerned	-10.986
▁chess	-10.986
▁originally	-10.9863
▁suffered	-10.9864
▁peg	-10.9871
▁tickle	-10.9873
utter	-10.9876
▁drawn	-10.9877
▁sally	-10.9879
▁headquarters	-10.9888
▁somehow	-10.9889
▁2020)	-10.9895
▁faster	-10.9901
ich	-10.9903
ida	-10.9904
▁flo	-10.9906
▁faithful	-10.9909
▁shooting	-10.991
▁boxes	-10.9919
▁mia	-10.9919
▁somewhat	-10.9933
eh	-10.9934
▁killing	-10.9937
▁ward	-10.9945
63	-10.9946
▁kissed	-10.9948
▁chu	-10.9957
tell	-10.9958
▁recover	-10.9959
▁counter	-10.9971
▁coal	-10.9981
▁coin	-10.9992
▁visited	-10.9996
▁ringing	-10.9999
▁curl	-11.0004
99	-11.0005
55	-11.0014
▁mmm	-11.0018
▁carrots	-11.0024
▁yard	-11.004
▁mood	-11.0043
▁candy	-11.0052
ook	-11.0055
▁throwing	-11.0062
▁wished	-11.0064
▁sheet	-11.0076
▁anton	-11.0091
▁gla	-11.0114
make	-11.0117
▁whip	-11.0128
stro	-11.0131
▁sounded	-11.0138
▁prisoners	-11.0154
65	-11.0157
▁shh	-11.0159
46	-11.016
▁mile	-11.0167
▁hut	-11.0168
▁1998	-11.0171
nar	-11.0175
pur	-11.0177
▁hip	-11.0177
23	-11.0186
▁seek	-11.0188
▁efforts	-11.0191
▁ec	-11.0217
▁continu	-11.0223
▁pitch	-11.0239
any	-11.0241
▁perform	-11.0244
dan	-11.025
▁sen	-11.027
▁witness	-11.0275
▁whisk	-11.0279
▁brazil	-11.028
▁detect	-11.0281
ú	-11.0282
š	-11.0282
▁acquaintance	-11.0282
▁continent	-11.0282
▁embarrass	-11.0282
▁experiment	-11.0282
▁familiar	-11.0282
▁illinois	-11.0282
▁library	-11.0282
▁mexico	-11.0282
▁quality	-11.0282
▁responsible	-11.0282
▁scotland	-11.0282
▁thirteen	-11.0282
▁tissue	-11.0282
▁traffic	-11.0282
▁volume	-11.0282
▁accompani	-11.0282
▁deputy	-11.0282
▁lonely	-11.0282
▁survey	-11.0282
▁pattern	-11.0282
▁retreat	-11.0282
▁slipped	-11.0282
▁anchor	-11.0282
▁nepal	-11.0282
▁emergency	-11.0282
▁eddie	-11.0282
▁piggy	-11.0282
▁relationship	-11.0282
▁addition	-11.0282
▁fetch	-11.0282
▁fought	-11.0282
▁britain	-11.0282
▁feast	-11.0283
▁maintain	-11.0283
▁wilson	-11.0283
▁patsy	-11.0283
▁foolish	-11.0284
▁task	-11.0284
▁danny	-11.0284
▁donald	-11.0284
▁thread	-11.0284
▁winning	-11.0285
▁draft	-11.0285
▁winnie	-11.0285
▁scale	-11.0285
▁destin	-11.0286
▁flour	-11.0286
▁fuel	-11.0287
▁(201	-11.0288
▁tramp	-11.0288
▁woof	-11.0288
▁handsome	-11.0292
▁tuck	-11.0292
▁isabel	-11.0294
▁madame	-11.0294
▁chips	-11.0295
▁useful	-11.0297
▁replaced	-11.0298
▁doggy	-11.03
▁worm	-11.0308
▁billion	-11.0309
▁chick	-11.0312
▁anyhow	-11.0315
▁fuss	-11.0331
▁blessing	-11.0335
▁hunter	-11.0338
▁soap	-11.0341
▁dreadful	-11.0343
▁soil	-11.0351
▁andrew	-11.0352
▁ry	-11.0355
omed	-11.0355
groans	-11.0357
▁fc	-11.0359
28	-11.0365
▁bern	-11.0367
hara	-11.037
▁kan	-11.0371
▁footballer	-11.0372
▁nina	-11.0374
500	-11.0382
▁rocky	-11.0384
▁drawer	-11.0386
gate	-11.0405
▁learning	-11.0414
uzz	-11.0419
29	-11.0432
cut	-11.0437
▁programme	-11.0456
▁dal	-11.0468
▁brick	-11.0473
▁ron	-11.0481
▁barb	-11.0482
pot	-11.0508
▁vic	-11.0519
▁pear	-11.052
▁touched	-11.0521
▁aboard	-11.0564
▁187	-11.057
92	-11.0576
▁lest	-11.058
▁wing	-11.059
▁greater	-11.06
▁mau	-11.0604
▁pee	-11.0613
▁grade	-11.0615
▁drugs	-11.0617
▁democrati	-11.0634
kf	-11.0635
hush	-11.0636
dah	-11.0652
▁reg	-11.0653
▁sno	-11.067
udge	-11.0695
minated	-11.0707
▁arrest	-11.0721
▁concern	-11.0722
ika	-11.0724
▁limit	-11.0731
hmm	-11.0731
known	-11.0734
ä	-11.0734
dale	-11.0736
bul	-11.0748
because	-11.075
▁chose	-11.0756
▁plea	-11.0757
▁$1	-11.0758
cultural	-11.0758
▁anthony	-11.0758
▁communication	-11.0758
▁convince	-11.0758
▁distinct	-11.0758
▁exciting	-11.0758
▁families	-11.0758
▁ghost	-11.0758
▁incident	-11.0758
▁jealous	-11.0758
▁jeannine	-11.0758
▁jungle	-11.0758
▁lincoln	-11.0758
▁sergeant	-11.0758
▁splendid	-11.0758
▁survive	-11.0758
▁unusual	-11.0758
▁violent	-11.0758
▁horror	-11.0758
▁sneak	-11.0758
▁squeak	-11.0758
▁injured	-11.0758
▁studies	-11.0758
▁daisy	-11.0758
▁cartoon	-11.0758
▁nodded	-11.0758
▁congratulations	-11.0758
▁reef	-11.0758
▁regret	-11.0758
▁carpet	-11.0758
▁neighborhood	-11.0758
▁molly	-11.0758
▁grasp	-11.0758
▁target	-11.0758
▁creek	-11.0758
▁flood	-11.0758
▁budget	-11.0759
▁swear	-11.0759
▁aircraft	-11.0759
▁senate	-11.0759
▁1984	-11.0759
▁2005	-11.0759
▁vocalises	-11.076
▁dying	-11.076
▁settlement	-11.076
▁exam	-11.0761
▁treatment	-11.0762
▁proof	-11.0764
▁knight	-11.0765
▁jail	-11.0765
ization	-11.0766
ón	-11.0766
▁knot	-11.0767
borough	-11.0767
▁jackson	-11.0773
▁auntie	-11.0775
▁matches	-11.0776
▁battery	-11.0779
▁portion	-11.0781
nina	-11.0783
▁iran	-11.0783
▁captured	-11.0784
▁totally	-11.0791
▁shri	-11.0792
▁sex	-11.0792
▁demanded	-11.0798
▁described	-11.0799
▁destroyed	-11.0803
▁patch	-11.0807
▁von	-11.081
▁shar	-11.0811
▁realized	-11.0813
▁proved	-11.0815
▁maria	-11.0815
mail	-11.0815
▁bloody	-11.0816
lves	-11.0819
▁data	-11.0823
▁wrapp	-11.0832
▁cries	-11.0835
▁aero	-11.0837
rick	-11.0864
▁ranger	-11.0871
▁enjoyed	-11.0875
▁washed	-11.0876
▁recorded	-11.0884
▁shortly	-11.0887
ural	-11.0909
song	-11.091
dress	-11.0916
▁closely	-11.0917
▁hire	-11.0923
▁crossed	-11.0929
▁reported	-11.0934
▁cass	-11.0939
▁badly	-11.0944
▁curtains	-11.0945
▁utterances	-11.0945
▁cheerful	-11.0951
▁claus	-11.0956
itive	-11.0963
▁considerabl	-11.0965
▁parent	-11.0976
▁cord	-11.0978
rio	-11.0982
▁armed	-11.0987
▁partly	-11.0997
▁speaker	-11.1
pher	-11.1032
▁marked	-11.1043
▁mak	-11.1048
▁joint	-11.1054
▁nicely	-11.1062
new	-11.1068
▁gee	-11.1073
▁understanding	-11.1078
▁bake	-11.1107
▁lover	-11.1109
54	-11.1118
bag	-11.1133
▁wool	-11.1139
▁km	-11.1154
▁palm	-11.1163
▁pure	-11.1166
▁fran	-11.1179
body	-11.1181
▁popp	-11.1185
ological	-11.1207
▁tick	-11.1223
▁dora	-11.1226
▁arrive	-11.1228
would	-11.1229
voice	-11.1231
▁nucle	-11.1235
ttering	-11.1248
▁ruin	-11.1255
▁punish	-11.1256
▁apologize	-11.1258
▁appreciate	-11.1258
▁challenge	-11.1258
▁convention	-11.1258
▁delicious	-11.1258
▁enemies	-11.1258
▁expedition	-11.1258
▁fantastic	-11.1258
▁happiness	-11.1258
▁helicopter	-11.1258
▁historical	-11.1258
▁impressed	-11.1258
▁jigsaw	-11.1258
▁jonathan	-11.1258
▁mexican	-11.1258
▁practical	-11.1258
▁reception	-11.1258
▁reflect	-11.1258
▁resources	-11.1258
▁senator	-11.1258
▁specific	-11.1258
▁symbol	-11.1258
▁thumb	-11.1258
▁variety	-11.1258
à	-11.1258
▁chamber	-11.1258
▁muttered	-11.1258
▁seventeen	-11.1258
▁sorrow	-11.1258
▁gimme	-11.1258
▁location	-11.1258
▁tummy	-11.1258
▁cereal	-11.1258
▁concert	-11.1258
▁activity	-11.1258
grunts	-11.1258
tropical	-11.1258
▁carolina	-11.1258
▁pumpkin	-11.1258
▁generation	-11.1258
▁organized	-11.1258
▁provision	-11.1259
▁goddess	-11.1259
▁assistant	-11.1259
▁dried	-11.1259
manchester	-11.1259
▁betray	-11.1259
▁1980	-11.1259
▁punishment	-11.126
▁jeff	-11.126
▁planned	-11.1261
▁fleet	-11.1261
▁labor	-11.1261
▁albert	-11.1262
▁daily	-11.1262
▁physical	-11.1263
▁peach	-11.1264
▁purse	-11.1264
never	-11.1265
▁couch	-11.1266
▁mental	-11.1267
▁kong	-11.1267
▁karen	-11.1267
▁divided	-11.1268
▁independence	-11.1268
▁korean	-11.127
elli	-11.1272
▁angeles	-11.1272
▁cab	-11.1274
▁australian	-11.1275
▁johnson	-11.1275
▁rip	-11.1276
▁louise	-11.1277
▁useless	-11.1278
▁producer	-11.1279
▁normally	-11.1281
▁kate	-11.1284
▁reli	-11.1286
▁starring	-11.1286
bea	-11.1287
ripped	-11.1287
▁parties	-11.1289
▁belle	-11.129
▁cannon	-11.1297
▁increased	-11.1305
dog	-11.1309
▁ouch	-11.1311
aries	-11.1314
▁cancer	-11.1315
▁screaming	-11.1328
▁plug	-11.1329
▁bid	-11.1331
▁annie	-11.1332
▁pity	-11.1333
▁hail	-11.1333
▁amos	-11.1334
▁paw	-11.1336
nut	-11.1338
▁escaped	-11.134
nda	-11.1343
▁flush	-11.1344
▁breathing	-11.1347
84	-11.1349
▁shy	-11.1357
▁watches	-11.1361
mann	-11.1361
rich	-11.1362
▁skip	-11.1363
▁float	-11.1364
lac	-11.1366
▁accepted	-11.1373
scot	-11.1378
have	-11.1384
▁feathers	-11.1391
▁pretending	-11.1404
▁jon	-11.1408
66	-11.1426
cie	-11.1435
only	-11.1442
▁sang	-11.1449
hear	-11.1467
lop	-11.1472
▁baker	-11.1475
chen	-11.1485
▁grapes	-11.1487
▁olympic	-11.1487
▁dollar	-11.1499
▁sav	-11.1506
▁pine	-11.151
▁tied	-11.1514
▁ep	-11.1528
70	-11.1541
▁nord	-11.1552
▁gosh	-11.1552
▁60	-11.1574
▁baron	-11.1583
37	-11.1586
▁rang	-11.159
▁bol	-11.1596
round	-11.1598
hol	-11.165
▁mah	-11.1654
▁amuse	-11.1668
▁wor	-11.1674
90	-11.1709
turn	-11.1717
▁custom	-11.1742
girl	-11.1756
foot	-11.1756
speak	-11.1758
boat	-11.1764
▁lor	-11.177
▁rapid	-11.1774
▁basic	-11.1784
▁1960	-11.1784
▁1985	-11.1784
▁altogether	-11.1784
▁ambulance	-11.1784
▁appointed	-11.1784
▁catholic	-11.1784
▁charlotte	-11.1784
▁despair	-11.1784
▁eventually	-11.1784
▁geography	-11.1784
▁junior	-11.1784
▁license	-11.1784
▁literature	-11.1784
▁nephew	-11.1784
▁picnic	-11.1784
▁religion	-11.1784
▁thursday	-11.1784
▁triumph	-11.1784
▁uniform	-11.1784
▁valuable	-11.1784
▁function	-11.1784
▁heavily	-11.1784
▁preparation	-11.1784
▁device	-11.1784
▁suprem	-11.1784
▁swedish	-11.1784
▁1993	-11.1784
▁client	-11.1784
▁disaster	-11.1784
▁sexual	-11.1784
▁admire	-11.1784
▁scatter	-11.1784
▁lewis	-11.1784
▁conquer	-11.1784
▁distant	-11.1784
▁interfere	-11.1784
▁permit	-11.1784
▁pierre	-11.1784
▁queer	-11.1784
▁oxford	-11.1784
▁exchange	-11.1784
▁ashamed	-11.1785
▁labour	-11.1785
▁hawk	-11.1785
▁1996	-11.1785
▁baseball	-11.1785
▁pursue	-11.1785
▁outfit	-11.1785
▁executive	-11.1785
▁clark	-11.1786
▁lodge	-11.1786
▁effective	-11.1787
▁package	-11.1788
▁bullet	-11.1788
▁indicate	-11.1788
▁connection	-11.1788
▁responsibility	-11.1788
▁sufficient	-11.1788
▁consideration	-11.1789
▁honk	-11.1789
▁farther	-11.1789
▁oliver	-11.179
▁shark	-11.1791
▁mir	-11.1792
▁merely	-11.1792
▁airline	-11.1793
▁rocket	-11.1794
▁slightly	-11.1795
▁jenny	-11.1795
▁beast	-11.1795
▁lend	-11.1796
▁suggestion	-11.1797
▁collection	-11.1797
▁poem	-11.1798
▁highway	-11.18
▁truly	-11.1801
▁minor	-11.1801
▁yeh	-11.1802
▁whoever	-11.1803
▁mask	-11.1804
▁wales	-11.1805
▁instantly	-11.1806
▁raise	-11.1807
▁pipe	-11.1808
▁interview	-11.181
▁helpful	-11.1811
▁lack	-11.1815
▁helpless	-11.1817
▁lemm	-11.1819
▁useta	-11.1821
▁naturally	-11.1821
▁arrested	-11.1825
▁rig	-11.1827
▁cage	-11.1837
▁advanced	-11.1838
▁remi	-11.184
▁attended	-11.184
▁bitter	-11.1842
▁difficulty	-11.1846
▁foundation	-11.1857
▁steer	-11.1868
▁lane	-11.1869
▁clay	-11.1869
▁idol	-11.1874
▁teaching	-11.1875
stin	-11.1877
▁pickle	-11.1881
▁killer	-11.1885
▁murdered	-11.1887
▁stor	-11.1892
used	-11.1896
▁lately	-11.1896
▁cave	-11.1903
▁builder	-11.1928
▁jaw	-11.1929
▁jet	-11.1946
▁heap	-11.1955
▁georgia	-11.1955
ular	-11.197
▁pushing	-11.1976
▁bib	-11.2006
▁ou	-11.2028
▁(18	-11.2033
▁hur	-11.2038
▁folk	-11.2043
hard	-11.2049
western	-11.2055
eau	-11.2067
▁distribute	-11.2068
eye	-11.2093
▁neu	-11.2112
shakes	-11.2121
ben	-11.2124
god	-11.2136
▁mini	-11.2145
▁landing	-11.2164
rug	-11.2173
▁hoped	-11.2239
▁whee	-11.2242
iko	-11.2266
moves	-11.2271
▁dread	-11.2281
82	-11.2291
▁develop	-11.2302
rou	-11.2304
member	-11.2307
▁refuse	-11.2309
▁capture	-11.2309
continues	-11.2311
mouth	-11.2311
*	-11.2311
sound	-11.2314
ood	-11.2329
▁environment	-11.2333
▁tomato	-11.2334
▁camel	-11.2337
▁recent	-11.2339
▁euro	-11.2339
ologist	-11.234
▁1989	-11.234
▁administration	-11.234
▁appeal	-11.234
▁appointment	-11.234
▁conflict	-11.234
▁contribut	-11.234
▁criminal	-11.234
▁diamond	-11.234
▁encourage	-11.234
▁evidently	-11.234
▁intelligence	-11.234
▁mcdonald	-11.234
▁minnesota	-11.234
▁precious	-11.234
▁pregnant	-11.234
▁proposal	-11.234
▁sacrifice	-11.234
▁strawberries	-11.234
▁surrounded	-11.234
▁wrestling	-11.234
▁bleeding	-11.234
▁defence	-11.234
▁memorial	-11.234
▁proposed	-11.234
▁relax	-11.234
▁1972	-11.234
▁rachel	-11.234
▁beneath	-11.234
▁madison	-11.234
▁senior	-11.234
▁jimmie	-11.234
▁regiment	-11.234
▁voyage	-11.234
▁warrior	-11.234
▁abandon	-11.234
▁mickey	-11.234
▁colleague	-11.234
▁kelly	-11.234
▁berlin	-11.234
▁smash	-11.234
▁crystal	-11.234
▁threatened	-11.234
▁relieve	-11.234
▁talent	-11.234
▁pride	-11.234
▁wendy	-11.234
▁wages	-11.234
▁aloud	-11.234
▁closing	-11.2341
▁eliminate	-11.2341
▁beetle	-11.2341
▁skipper	-11.2341
▁squad	-11.2341
▁route	-11.2341
▁occasionally	-11.2342
▁larry	-11.2342
▁lorry	-11.2342
▁copper	-11.2343
▁balance	-11.2343
▁bacon	-11.2343
▁unknown	-11.2343
▁hermit	-11.2344
▁guilty	-11.2345
▁flock	-11.2346
▁guardian	-11.2346
▁environmental	-11.2346
▁jake	-11.2346
▁drunk	-11.2347
▁mansion	-11.2347
▁glen	-11.2348
▁auto	-11.2348
▁hollow	-11.2348
▁theatre	-11.2349
▁missile	-11.235
▁potatoes	-11.235
▁urge	-11.235
▁johnny	-11.235
▁discussion	-11.2351
▁enable	-11.2351
▁rude	-11.2352
▁stack	-11.2352
▁branches	-11.2353
▁hindu	-11.2355
▁reward	-11.2356
▁adopted	-11.2357
▁sandwiches	-11.2357
▁ease	-11.2361
▁scary	-11.2362
▁gina	-11.2362
▁mercy	-11.2364
▁lois	-11.2365
▁mistaken	-11.2367
▁sack	-11.2368
▁revealed	-11.2372
▁louder	-11.2376
▁vain	-11.2376
▁separated	-11.2381
▁classes	-11.2381
▁limited	-11.2383
▁gap	-11.2383
▁angle	-11.239
▁sock	-11.2395
▁delighted	-11.2401
▁completed	-11.2403
franc	-11.2407
aki	-11.2408
stein	-11.2416
▁jr	-11.2419
▁rio	-11.242
▁tele	-11.2427
▁todd	-11.2432
▁dull	-11.2435
▁charm	-11.2444
▁liz	-11.245
▁traditional	-11.2451
▁70	-11.2459
▁somers	-11.246
▁35	-11.2471
▁bass	-11.2471
▁poorly	-11.2477
verse	-11.248
▁jer	-11.2503
▁moore	-11.2506
▁melt	-11.2516
▁raining	-11.2519
▁attacked	-11.2532
▁burnt	-11.2541
▁acted	-11.2542
▁returning	-11.2563
▁counting	-11.257
▁chin	-11.2573
keeper	-11.2576
▁meow	-11.2576
▁hatch	-11.2584
▁earl	-11.2589
▁fro	-11.2599
diary	-11.26
▁affair	-11.2631
tree	-11.2631
▁painful	-11.2673
rrie	-11.2686
▁wand	-11.2691
▁breathe	-11.2693
▁baa	-11.2697
▁semi	-11.2718
self	-11.2764
hey	-11.2772
▁tube	-11.2773
uz	-11.2774
loo	-11.2779
▁victor	-11.2794
▁rag	-11.2802
▁lar	-11.2807
▁lied	-11.2821
▁mic	-11.2834
mmed	-11.286
ital	-11.2867
▁promote	-11.2882
▁confirm	-11.2891
▁disturb	-11.2891
▁accus	-11.2891
titude	-11.2897
▁require	-11.2898
reaches	-11.2899
pretend	-11.2899
crying	-11.29
pull	-11.29
from	-11.29
▁ox	-11.29
little	-11.2905
▁declare	-11.2907
ó	-11.2917
▁madam	-11.2921
▁math	-11.2921
water	-11.2923
▁mou	-11.2924
▁document	-11.2927
▁occup	-11.2928
â	-11.2928
ø	-11.2928
▁1956	-11.2928
▁1976	-11.2928
▁1988	-11.2928
▁1991	-11.2928
▁argument	-11.2928
▁associate	-11.2928
▁christopher	-11.2928
▁confused	-11.2928
▁description	-11.2928
▁dorothy	-11.2928
▁equipment	-11.2928
▁hamilton	-11.2928
▁massachusetts	-11.2928
▁monsieur	-11.2928
▁religious	-11.2928
▁solemn	-11.2928
▁sunshine	-11.2928
▁sylvia	-11.2928
▁terribly	-11.2928
▁tremendous	-11.2928
▁trousers	-11.2928
▁universal	-11.2928
▁1967	-11.2928
▁accomplish	-11.2928
▁cushion	-11.2928
▁leather	-11.2928
▁miserable	-11.2928
▁relief	-11.2928
▁convict	-11.2928
▁douglas	-11.2928
▁fiction	-11.2928
▁stephen	-11.2928
▁thrill	-11.2928
▁wheat	-11.2928
▁cherry	-11.2928
▁inquired	-11.2928
▁smack	-11.2928
▁sweden	-11.2928
▁screw	-11.2928
▁duties	-11.2928
▁application	-11.2928
▁zoe	-11.2928
▁reform	-11.2928
▁scrub	-11.2928
▁creep	-11.2928
▁wolves	-11.2928
▁stove	-11.2928
▁drift	-11.2928
▁stopping	-11.2928
▁dominic	-11.2928
▁cruis	-11.2928
▁genius	-11.2929
▁spill	-11.2929
▁basically	-11.2929
▁root	-11.2929
▁wealth	-11.2929
▁failure	-11.2929
▁goose	-11.2929
▁burden	-11.293
▁midnight	-11.293
▁morgan	-11.293
▁timber	-11.2931
▁tamil	-11.2932
▁romantic	-11.2932
▁begun	-11.2932
||0||	-11.2932
▁jessie	-11.2933
▁flesh	-11.2933
▁alongside	-11.2934
▁twist	-11.2934
▁glow	-11.2934
▁flies	-11.2935
▁frequently	-11.2935
▁active	-11.2935
▁jason	-11.2935
▁boring	-11.2935
▁poland	-11.2936
▁leak	-11.2937
▁ceased	-11.2938
▁stamp	-11.2939
▁decent	-11.294
▁bushes	-11.2942
▁raid	-11.2945
▁musician	-11.2946
▁policeman	-11.2947
▁payment	-11.2947
▁eagerly	-11.2947
umbling	-11.2949
whining	-11.2949
▁vision	-11.2951
▁attached	-11.2951
▁crop	-11.2952
▁pace	-11.2952
▁attitude	-11.2958
▁passion	-11.296
▁earned	-11.296
▁refused	-11.296
▁bible	-11.2962
▁200	-11.2968
▁lib	-11.2971
▁scar	-11.2973
tumble	-11.2976
▁container	-11.2979
▁hood	-11.2986
▁sixth	-11.2988
▁chatter	-11.2991
give	-11.2994
▁ruled	-11.3003
▁gaze	-11.3004
won	-11.3013
▁burned	-11.3013
ndra	-11.302
▁treated	-11.3025
sail	-11.3028
▁prob	-11.3033
▁kin	-11.3039
▁babe	-11.3042
▁marie	-11.3047
▁climbed	-11.3052
▁organis	-11.3054
▁hath	-11.3056
▁ability	-11.3058
▁feeding	-11.306
▁sung	-11.3061
▁casting	-11.3072
▁peel	-11.3083
▁chum	-11.3101
▁harder	-11.3125
▁gum	-11.3127
▁lip	-11.3134
▁struggle	-11.3138
3)	-11.3151
pop	-11.3169
▁scan	-11.3177
▁brass	-11.3183
▁fac	-11.3183
▁squeal	-11.3188
point	-11.3214
master	-11.3215
away	-11.3231
jan	-11.3258
▁pea	-11.3273
bol	-11.3305
eating	-11.3312
▁boil	-11.3338
▁merri	-11.3357
rock	-11.3428
hop	-11.3451
58	-11.3452
▁expos	-11.3478
▁ew	-11.3479
playing	-11.3491
bur	-11.3512
▁defeat	-11.3516
▁reveal	-11.3517
▁loo	-11.3517
ulous	-11.3519
♪	-11.3524
break	-11.3524
thank	-11.3524
▁wah	-11.353
▁exact	-11.3542
▁somethin	-11.3547
▁execut	-11.3548
unnecessary	-11.3553
▁1979	-11.3553
▁argentin	-11.3553
▁behalf	-11.3553
▁complex	-11.3553
▁composition	-11.3553
▁defense	-11.3553
▁domestic	-11.3553
▁employed	-11.3553
▁estimate	-11.3553
▁horrible	-11.3553
▁investigation	-11.3553
▁kentucky	-11.3553
▁lantern	-11.3553
▁margaret	-11.3553
▁melissa	-11.3553
▁netherlands	-11.3553
▁platform	-11.3553
▁potential	-11.3553
▁prairie	-11.3553
▁principle	-11.3553
▁register	-11.3553
▁revenge	-11.3553
▁surrounding	-11.3553
▁interpret	-11.3553
▁literally	-11.3553
▁reserve	-11.3553
▁composer	-11.3553
▁intended	-11.3553
▁candidate	-11.3553
▁mechanic	-11.3553
▁missouri	-11.3553
▁poison	-11.3553
▁muscle	-11.3553
▁thrust	-11.3553
▁random	-11.3553
▁intention	-11.3553
▁grateful	-11.3553
▁loving	-11.3553
▁sultan	-11.3553
▁dropping	-11.3553
▁ignore	-11.3553
▁yyy	-11.3553
▁breast	-11.3553
▁reject	-11.3553
▁fierce	-11.3553
▁mystery	-11.3553
▁wander	-11.3553
▁gallop	-11.3553
▁drill	-11.3553
▁ceiling	-11.3554
▁departure	-11.3554
▁venture	-11.3554
▁assistance	-11.3554
▁ashore	-11.3554
▁solar	-11.3554
▁patrick	-11.3554
▁pension	-11.3554
▁antonio	-11.3554
▁scrap	-11.3554
▁reference	-11.3554
▁1990	-11.3554
▁bernard	-11.3555
▁oink	-11.3555
same	-11.3555
▁sector	-11.3555
▁cattle	-11.3556
▁rubber	-11.3556
▁quant	-11.3556
▁moses	-11.3557
▁jimmy	-11.3557
▁percy	-11.3557
▁corps	-11.3557
▁fifa	-11.3557
▁grim	-11.3557
▁fastened	-11.3558
▁nancy	-11.3558
▁shaking	-11.3558
▁illustrated	-11.3558
▁bloom	-11.3558
▁hopefully	-11.3558
▁stout	-11.356
▁metres	-11.356
▁travelling	-11.356
▁granddad	-11.3561
▁spec	-11.3563
▁cancel	-11.3563
▁approved	-11.3564
▁frost	-11.3565
▁laughter	-11.3567
▁republican	-11.3568
▁startled	-11.3573
▁bench	-11.3576
▁theater	-11.3577
▁reality	-11.3577
▁globe	-11.3578
▁operated	-11.3578
▁doorway	-11.3578
▁demon	-11.3583
▁mock	-11.3586
▁bash	-11.3588
arrow	-11.3591
▁behave	-11.3593
▁vest	-11.3594
▁cj	-11.3596
▁unable	-11.3597
▁jill	-11.3598
▁resist	-11.3598
▁seventh	-11.3599
▁brig	-11.3603
▁ruler	-11.3608
▁sharply	-11.3608
▁tray	-11.3609
▁pushes	-11.361
▁marine	-11.3611
▁items	-11.3616
illy	-11.3616
▁interrupted	-11.3622
▁granted	-11.3623
▁utter	-11.3624
▁surf	-11.3626
▁smartie	-11.3629
▁carlo	-11.3639
load	-11.364
▁warn	-11.3642
state	-11.3644
▁regarding	-11.3647
▁ideal	-11.3651
liness	-11.3653
95	-11.3657
▁selling	-11.3659
▁bold	-11.3678
▁peek	-11.3691
lung	-11.3691
▁climbing	-11.3696
▁spit	-11.37
▁anger	-11.3701
▁shells	-11.3702
▁pressed	-11.3707
lapping	-11.3712
▁pill	-11.3714
▁democrat	-11.3719
▁shared	-11.372
▁stake	-11.3722
▁prof	-11.3726
whispering	-11.3732
▁mul	-11.3738
▁banging	-11.3738
hhh	-11.3754
far	-11.3773
tification	-11.3799
▁provid	-11.3801
▁creat	-11.3804
heim	-11.3805
▁fled	-11.3816
▁dur	-11.3859
▁beating	-11.3877
▁hind	-11.3903
uth	-11.3905
▁pearl	-11.3912
▁thi	-11.3917
▁carrot	-11.3922
▁grape	-11.3924
handed	-11.3926
ask	-11.3928
squeals	-11.3932
▁geo	-11.3952
screams	-11.3979
rov	-11.398
▁sometime	-11.4001
▁govern	-11.4007
dear	-11.4037
love	-11.4042
▁nell	-11.4047
▁nee	-11.4048
lib	-11.4087
ficial	-11.4113
▁plac	-11.4159
▁connect	-11.4178
▁receiv	-11.4182
▁insist	-11.4182
▁publish	-11.4184
piece	-11.4191
people	-11.4191
first	-11.4191
plane	-11.4191
yeah	-11.4191
▁elect	-11.4199
track	-11.4204
▁villa	-11.4206
bank	-11.4209
▁stole	-11.4212
style	-11.4216
▁favour	-11.4219
▁sweep	-11.422
songwriter	-11.422
°	-11.422
ç	-11.422
▁1997	-11.422
▁acknowledg	-11.422
▁alcohol	-11.422
▁catherine	-11.422
▁communist	-11.422
▁complicated	-11.422
▁compound	-11.422
▁conclude	-11.422
▁delicate	-11.422
▁divorce	-11.422
▁endeavour	-11.422
▁enormous	-11.422
▁explanation	-11.422
▁furniture	-11.422
▁guarantee	-11.422
▁handkerchief	-11.422
▁instructions	-11.422
▁kennedy	-11.422
▁magnificent	-11.422
▁opposed	-11.422
▁orchestra	-11.422
▁pennsylvania	-11.422
▁persuade	-11.422
▁politics	-11.422
▁procedure	-11.422
▁quarrel	-11.422
▁scissors	-11.422
▁surgeon	-11.422
▁surgery	-11.422
▁unexpected	-11.422
▁vegetable	-11.422
▁alphabet	-11.422
▁blossom	-11.422
▁flavor	-11.422
▁grief	-11.422
▁lollipop	-11.422
▁polite	-11.422
▁atlantic	-11.422
▁fourteen	-11.422
▁harbor	-11.422
▁mysterious	-11.422
▁parallel	-11.422
▁patrol	-11.422
▁pioneer	-11.422
▁column	-11.422
▁parcel	-11.422
▁praise	-11.422
▁superior	-11.422
▁unique	-11.422
▁gerald	-11.422
▁innocent	-11.422
▁wreck	-11.422
▁austin	-11.422
▁loyal	-11.422
▁depth	-11.422
▁jacob	-11.422
▁kansas	-11.422
▁crush	-11.422
▁drain	-11.422
▁intense	-11.422
▁blew	-11.422
▁status	-11.422
▁abroad	-11.422
▁prior	-11.422
▁alaska	-11.422
▁bundle	-11.422
▁initial	-11.422
▁authorities	-11.422
▁fried	-11.422
▁consent	-11.422
▁nickname	-11.4221
▁permission	-11.4221
née	-11.4221
▁1995	-11.4221
▁preferred	-11.4221
▁summon	-11.4221
▁bloke	-11.4221
▁1987	-11.4222
▁delightful	-11.4222
▁spear	-11.4222
▁cabinet	-11.4222
▁iowa	-11.4222
▁playground	-11.4223
▁organic	-11.4223
▁admitted	-11.4223
▁fanny	-11.4223
▁stiff	-11.4223
▁relation	-11.4224
▁thorn	-11.4224
▁parson	-11.4225
▁slight	-11.4225
▁possession	-11.4225
▁linda	-11.4225
▁disney	-11.4225
▁austrian	-11.4228
▁tomatoes	-11.4228
▁recall	-11.4229
▁expression	-11.4229
▁fairies	-11.4229
▁comin	-11.4229
▁bride	-11.423
▁stolen	-11.423
▁monte	-11.423
▁midst	-11.4231
▁lick	-11.4237
▁girlfriend	-11.4242
▁previously	-11.4245
▁script	-11.4245
▁emb	-11.4249
▁withdraw	-11.425
▁snapp	-11.425
▁exception	-11.4252
▁2021)	-11.4253
▁coral	-11.4254
ima	-11.4255
▁franco	-11.4256
▁anxiously	-11.4256
▁uttered	-11.4259
▁momma	-11.4259
▁defeated	-11.4259
▁objection	-11.4265
▁loudly	-11.4266
▁seriously	-11.4269
▁pitched	-11.4275
▁arranged	-11.4276
▁suffering	-11.4279
▁missus	-11.4279
▁amid	-11.428
▁sought	-11.4282
▁dough	-11.4282
▁recognized	-11.4282
ille	-11.4285
▁monk	-11.4289
page	-11.4289
▁wishes	-11.429
▁fry	-11.4298
▁archer	-11.43
band	-11.4302
does	-11.4302
▁deeply	-11.4302
▁provided	-11.4309
bill	-11.4311
big	-11.4312
▁cheering	-11.4316
▁behold	-11.4319
high	-11.4319
▁jay	-11.4319
▁blade	-11.4334
cular	-11.4334
▁bella	-11.4336
▁defender	-11.4336
▁shave	-11.4338
▁damn	-11.4358
▁blowing	-11.4372
01	-11.4392
inch	-11.4397
▁recit	-11.4402
made	-11.4412
42	-11.4418
▁lan	-11.4433
nsky	-11.4451
azz	-11.4485
▁hun	-11.4528
geo	-11.4534
▁bail	-11.4557
▁northwest	-11.457
96	-11.4581
case	-11.459
gasp	-11.4618
▁carol	-11.462
▁troop	-11.4642
▁sul	-11.4655
▁rais	-11.4667
▁36	-11.4716
▁hob	-11.4726
▁33	-11.4739
rob	-11.4741
▁glanc	-11.4753
▁quin	-11.4775
▁gau	-11.4828
▁yah	-11.4898
woman	-11.4905
▁lab	-11.4906
watch	-11.4906
smith	-11.4906
33	-11.4908
▁observ	-11.4911
whispered	-11.4917
▁numero	-11.4918
▁dirt	-11.4919
ribe	-11.4922
taking	-11.4923
baby	-11.4925
game	-11.4932
▁francis	-11.4932
▁clo	-11.4932
▁1968	-11.4934
▁oxygen	-11.4934
▁stupid	-11.4934
▁1939	-11.4934
▁[$=	-11.4934
▁administrative	-11.4934
▁appetite	-11.4934
▁arkansas	-11.4934
▁autumn	-11.4934
▁birmingham	-11.4934
▁celebrate	-11.4934
▁comrade	-11.4934
▁disappointed	-11.4934
▁electronic	-11.4934
▁entertainment	-11.4934
▁essential	-11.4934
▁fridge	-11.4934
▁increasing	-11.4934
▁lecture	-11.4934
▁moscow	-11.4934
▁necklace	-11.4934
▁pacific	-11.4934
▁perceive	-11.4934
▁simpson	-11.4934
▁sleeve	-11.4934
▁technology	-11.4934
▁vietnam	-11.4934
▁acquire	-11.4934
▁caliph	-11.4934
▁exhibit	-11.4934
▁explode	-11.4934
▁fulfil	-11.4934
▁imagination	-11.4934
▁graeme	-11.4934
▁herakles	-11.4934
▁muslim	-11.4934
▁nevertheless	-11.4934
▁ralph	-11.4934
▁serving	-11.4934
▁terminal	-11.4934
▁throne	-11.4934
▁michigan	-11.4934
▁1983	-11.4934
▁drank	-11.4934
▁sentiment	-11.4934
▁nanny	-11.4934
▁navy	-11.4934
▁swift	-11.4934
▁absence	-11.4934
▁dennis	-11.4934
▁tempt	-11.4934
▁extensi	-11.4934
▁calculat	-11.4934
▁wicked	-11.4934
▁annual	-11.4934
▁confidence	-11.4934
▁chalk	-11.4934
▁predict	-11.4934
▁bureau	-11.4934
▁lemonade	-11.4934
▁skirt	-11.4934
▁hastily	-11.4934
▁paddle	-11.4934
▁promotion	-11.4935
▁costume	-11.4935
▁kettle	-11.4935
▁repair	-11.4935
▁molecul	-11.4935
▁otto	-11.4935
▁apron	-11.4935
▁zebra	-11.4935
▁arose	-11.4935
▁napkin	-11.4935
▁noisy	-11.4935
stick	-11.4935
▁erect	-11.4936
▁debt	-11.4936
▁suspicious	-11.4936
▁slightest	-11.4936
▁underground	-11.4936
▁stress	-11.4936
home	-11.4936
▁guitarist	-11.4937
▁scottish	-11.4937
▁peasant	-11.4937
▁pump	-11.4937
▁estate	-11.4938
▁digger	-11.4938
▁cupboard	-11.4938
▁childhood	-11.4938
▁rosy	-11.4939
▁factory	-11.4939
▁electora	-11.4939
▁orbit	-11.4939
▁franklin	-11.494
▁chapel	-11.494
▁depart	-11.4941
▁flora	-11.4941
▁ryan	-11.4941
▁lemon	-11.4942
▁maiden	-11.4943
▁dislike	-11.4944
▁calf	-11.4948
----"	-11.4949
▁emma	-11.495
▁entit	-11.495
▁cure	-11.4951
▁hong	-11.4952
▁equi	-11.4954
▁clara	-11.4954
▁wax	-11.4954
▁halt	-11.4956
▁buster	-11.4957
▁fog	-11.4958
▁norman	-11.496
▁holly	-11.4961
▁growth	-11.4961
▁briefly	-11.4961
▁trailer	-11.4962
▁sank	-11.4962
▁vice	-11.4966
▁mason	-11.4969
roach	-11.4973
▁hack	-11.4974
viation	-11.4974
▁donkey	-11.4975
▁wandering	-11.4977
hang	-11.4978
▁youngest	-11.4978
▁partial	-11.4978
▁accused	-11.4979
▁tide	-11.498
▁poop	-11.4982
▁charming	-11.4983
every	-11.4983
▁bait	-11.4984
▁churches	-11.4986
▁shade	-11.4995
humming	-11.5
▁swell	-11.5002
▁healthy	-11.5005
▁widely	-11.5007
▁nah	-11.5009
▁considering	-11.5016
▁sighed	-11.5025
▁mun	-11.5027
▁earn	-11.5035
▁stronger	-11.5035
▁snu	-11.5039
▁belonged	-11.5055
73	-11.5064
▁lily	-11.5065
▁maine	-11.5077
wise	-11.509
▁coke	-11.5091
▁90	-11.5092
5%	-11.5103
▁merit	-11.5105
gilli	-11.5135
03	-11.5156
▁luna	-11.5159
▁lena	-11.5171
▁swam	-11.5224
▁44	-11.5229
▁esp	-11.5246
abad	-11.5254
▁freeze	-11.5264
800	-11.5286
▁kha	-11.5316
kan	-11.5324
▁straighten	-11.5324
▁tak	-11.5393
▁utterance	-11.5405
▁curtain	-11.5405
▁80	-11.541
still	-11.5411
▁45	-11.5426
▁georg	-11.5426
▁pond	-11.5439
newman	-11.5443
▁nothin	-11.547
vol	-11.5509
rung	-11.5536
▁dub	-11.5547
▁taxi	-11.5564
even	-11.559
draw	-11.5644
keep	-11.5666
▁prepare	-11.5673
script	-11.5673
crayon	-11.5674
section	-11.5674
actually	-11.5674
american	-11.5674
sometimes	-11.5674
before	-11.5674
shirt	-11.5674
horse	-11.5675
silver	-11.5675
nothing	-11.5675
free	-11.5676
▁invite	-11.5676
▁pope	-11.5687
▁advise	-11.5689
▁extreme	-11.569
▁immediate	-11.569
▁earnest	-11.5692
▁armenia	-11.5692
▁olive	-11.5694
▁possess	-11.5697
▁resign	-11.5701
jack	-11.5701
▁occur	-11.5702
ô	-11.5703
pronounce	-11.5703
instruct	-11.5703
incorporate	-11.5703
ō	-11.5703
▁1945	-11.5703
▁ammunition	-11.5703
▁arnold	-11.5703
▁atmosphere	-11.5703
▁benjamin	-11.5703
▁bicycle	-11.5703
▁calendar	-11.5703
▁commercial	-11.5703
▁counsel	-11.5703
▁crocodile	-11.5703
▁curiosity	-11.5703
▁dakota	-11.5703
▁disappointment	-11.5703
▁discharge	-11.5703
▁distinguished	-11.5703
▁dynasty	-11.5703
▁editor	-11.5703
▁equivalent	-11.5703
▁financial	-11.5703
▁gradually	-11.5703
▁hungarian	-11.5703
▁impression	-11.5703
▁jerusalem	-11.5703
▁kangaroo	-11.5703
▁messenger	-11.5703
▁peculiar	-11.5703
▁phrase	-11.5703
▁recommend	-11.5703
▁reindeer	-11.5703
▁resolve	-11.5703
▁rhyme	-11.5703
▁scientist	-11.5703
▁scramble	-11.5703
▁skeleton	-11.5703
▁strategy	-11.5703
▁triangle	-11.5703
▁umbrella	-11.5703
▁verstappen	-11.5703
▁wisdom	-11.5703
▁1974	-11.5703
▁exhaust	-11.5703
▁mobile	-11.5703
▁pupil	-11.5703
▁rooster	-11.5703
▁tobacco	-11.5703
▁transform	-11.5703
▁vincent	-11.5703
▁volcano	-11.5703
▁conceal	-11.5703
▁disgust	-11.5703
▁educate	-11.5703
▁generous	-11.5703
▁grammy	-11.5703
▁synthe	-11.5703
▁bishop	-11.5703
▁typical	-11.5703
▁chimney	-11.5703
▁porch	-11.5703
▁premier	-11.5703
▁adapt	-11.5703
▁presum	-11.5703
▁patricia	-11.5703
▁headache	-11.5703
▁parrot	-11.5703
▁funeral	-11.5703
▁hymn	-11.5703
▁leslie	-11.5703
▁murmur	-11.5703
▁pennies	-11.5703
▁confident	-11.5703
▁urban	-11.5703
▁extent	-11.5703
▁cigarette	-11.5703
▁contest	-11.5703
▁assured	-11.5703
▁mourn	-11.5703
▁tennis	-11.5703
sneeze	-11.5704
▁atoms	-11.5704
▁comedian	-11.5704
▁altar	-11.5704
▁favourite	-11.5704
▁roast	-11.5704
▁shriek	-11.5704
▁thanksgiving	-11.5704
▁dimple	-11.5704
▁brenda	-11.5704
▁southeast	-11.5704
▁interven	-11.5705
▁cowboy	-11.5705
▁commence	-11.5705
▁1955	-11.5705
▁slope	-11.5705
▁1963	-11.5705
▁apply	-11.5705
▁distribution	-11.5706
▁skate	-11.5706
▁hesitate	-11.5706
▁encounter	-11.5706
hearted	-11.5706
▁efficien	-11.5706
▁delhi	-11.5706
▁egyptian	-11.5706
▁“‘	-11.5706
▁salut	-11.5707
▁ellen	-11.5707
▁emily	-11.5707
▁obey	-11.5707
▁decade	-11.5707
▁selfish	-11.5707
▁1930	-11.5708
▁brake	-11.5708
▁davis	-11.5708
▁operating	-11.5708
▁blond	-11.5708
▁shiver	-11.5709
▁acid	-11.571
▁1920	-11.571
▁foul	-11.571
▁marble	-11.571
▁expand	-11.571
▁jenn	-11.5711
▁thirsty	-11.5712
▁township	-11.5712
▁personality	-11.5712
▁zero	-11.5712
▁peck	-11.5713
▁render	-11.5713
▁tidy	-11.5714
▁friendship	-11.5714
▁lightning	-11.5714
▁judy	-11.5715
▁heartily	-11.5715
▁creation	-11.5715
▁innit	-11.5716
▁roland	-11.5716
▁earnestly	-11.5717
▁humor	-11.5718
mission	-11.5719
▁drowned	-11.5719
▁explorer	-11.5721
▁nearby	-11.5721
▁beef	-11.5722
elect	-11.5723
▁torn	-11.5723
▁careless	-11.5725
▁jock	-11.5725
poor	-11.5726
▁beaten	-11.5728
▁improved	-11.5729
▁kite	-11.5729
▁conductor	-11.5733
▁shallow	-11.5735
▁strain	-11.5736
▁warner	-11.574
▁alleg	-11.574
proving	-11.574
▁firmly	-11.574
rap	-11.5741
▁gazed	-11.5743
▁thankful	-11.5744
▁2022)	-11.5747
▁shovel	-11.5749
▁confirmed	-11.5752
▁disturbed	-11.5752
▁fist	-11.5754
▁kindness	-11.5756
▁wig	-11.5757
▁classical	-11.5757
▁damaged	-11.5759
▁mitt	-11.5759
▁ruined	-11.5761
▁marvel	-11.5761
▁grain	-11.5761
▁teen	-11.5765
▁`	-11.5769
▁stain	-11.577
onym	-11.5777
person	-11.5781
atic	-11.5782
▁lookee	-11.5788
▁cable	-11.5791
▁apt	-11.5792
▁kra	-11.58
▁bomber	-11.5816
▁dug	-11.583
▁murderer	-11.5885
both	-11.5904
▁invad	-11.5936
▁karl	-11.5943
▁raisin	-11.5947
pple	-11.595
temporary	-11.5953
▁swis	-11.5962
▁peer	-11.5988
▁panic	-11.5991
▁inclin	-11.6003
▁peaceful	-11.6016
kov	-11.6048
▁emerge	-11.6064
▁casual	-11.6132
49	-11.6143
▁kang	-11.6197
▁rage	-11.6209
later	-11.6211
▁identifi	-11.6215
▁fel	-11.6249
▁afterward	-11.629
▁bough	-11.63
isse	-11.6315
nik	-11.6342
▁formal	-11.6366
▁95	-11.637
▁curse	-11.6378
boris	-11.6391
▁1942	-11.6463
vision	-11.6486
▁classic	-11.6499
school	-11.6508
maybe	-11.6508
engine	-11.6508
moving	-11.6508
green	-11.6509
bound	-11.651
view	-11.651
▁explore	-11.6517
▁starr	-11.652
▁replace	-11.652
june	-11.6526
▁austria	-11.6526
total	-11.6526
based	-11.6528
sisted	-11.6531
know	-11.6532
▁scholar	-11.6536
▁threat	-11.6536
edinburgh	-11.6536
▁$2	-11.6536
▁collapse	-11.6536
▁scientific	-11.6536
transcribed	-11.6536
─	-11.6536
▁activist	-11.6536
▁alternative	-11.6536
▁aspect	-11.6536
▁athletic	-11.6536
▁bacteria	-11.6536
▁buffalo	-11.6536
▁buttercup	-11.6536
▁category	-11.6536
▁cemetery	-11.6536
▁chemistry	-11.6536
▁concept	-11.6536
▁connecticut	-11.6536
▁conscience	-11.6536
▁consequence	-11.6536
▁coyote	-11.6536
▁distract	-11.6536
▁explosion	-11.6536
▁fabric	-11.6536
▁fantasy	-11.6536
▁halloween	-11.6536
▁historian	-11.6536
▁illegal	-11.6536
▁kenneth	-11.6536
▁ministry	-11.6536
▁mississippi	-11.6536
▁nathalie	-11.6536
▁neglect	-11.6536
▁pandemic	-11.6536
▁rebellion	-11.6536
▁rubbish	-11.6536
▁significant	-11.6536
▁submarine	-11.6536
▁suburb	-11.6536
▁surprising	-11.6536
▁technical	-11.6536
▁teletubbies	-11.6536
▁ukraine	-11.6536
▁unhappy	-11.6536
▁volunteer	-11.6536
---------------	-11.6536
▁invasion	-11.6536
▁merchant	-11.6536
▁sequel	-11.6536
▁snatch	-11.6536
▁tweet	-11.6536
▁worldwide	-11.6536
▁advertising	-11.6536
▁animated	-11.6536
▁debbie	-11.6536
▁liberal	-11.6536
▁sensible	-11.6536
▁zorg	-11.6536
▁bavaria	-11.6536
▁freight	-11.6536
▁kevin	-11.6536
▁rattling	-11.6536
▁vanished	-11.6536
▁distress	-11.6536
▁interior	-11.6536
▁nhl	-11.6536
▁jersey	-11.6536
▁gloom	-11.6536
▁scheme	-11.6536
▁summit	-11.6536
▁visual	-11.6536
spiration	-11.6536
▁eldest	-11.6536
▁crunch	-11.6536
▁dentist	-11.6536
▁barrier	-11.6537
▁clyde	-11.6537
▁constable	-11.6537
▁sheriff	-11.6537
▁opposition	-11.6537
▁warrant	-11.6537
▁crumb	-11.6537
▁housing	-11.6537
▁prompt	-11.6537
▁jolly	-11.6537
▁stroll	-11.6537
▁absent	-11.6537
▁saddle	-11.6537
▁suitcase	-11.6537
▁cotton	-11.6537
▁steep	-11.6537
▁nightmare	-11.6537
▁frown	-11.6537
▁denied	-11.6537
▁sponge	-11.6537
grunting	-11.6537
▁prix	-11.6537
▁consume	-11.6537
▁beaver	-11.6538
▁gorgeous	-11.6538
▁ginger	-11.6538
▁phase	-11.6538
▁blank	-11.6538
▁inspection	-11.6538
▁resistance	-11.6538
▁northeast	-11.6538
▁leima	-11.6538
/020	-11.6538
▁stump	-11.6539
▁1946	-11.6539
▁prettie	-11.6539
▁1959	-11.6539
▁crook	-11.6539
▁crab	-11.6539
▁1975	-11.6539
▁holland	-11.6539
▁blake	-11.6539
▁electricity	-11.654
▁remarkable	-11.654
▁1964	-11.654
▁graham	-11.654
▁observation	-11.654
▁spray	-11.654
▁stanley	-11.654
▁devot	-11.6541
▁allowance	-11.6542
▁execution	-11.6542
▁ellis	-11.6542
▁micro	-11.6542
▁agreement	-11.6543
▁react	-11.6543
▁choir	-11.6544
▁luke	-11.6544
▁fame	-11.6544
▁canvas	-11.6545
▁armour	-11.6545
▁zone	-11.6546
▁diana	-11.6547
▁panda	-11.6547
▁burton	-11.6547
▁remote	-11.6547
▁appropriate	-11.6548
▁hoof	-11.6548
▁sunny	-11.6549
▁mabel	-11.6549
▁patty	-11.6549
▁yucky	-11.655
▁150	-11.6551
▁stripes	-11.6551
▁alert	-11.6552
▁parade	-11.6552
▁lwww	-11.6552
▁fbi	-11.6552
▁moose	-11.6554
▁polo	-11.6554
▁drowning	-11.6555
▁bored	-11.6555
▁khan	-11.6558
▁jury	-11.6558
▁everyday	-11.6559
east	-11.656
▁hiya	-11.6561
▁extended	-11.6561
▁reduced	-11.6561
▁runner	-11.6562
▁puff	-11.6563
▁multi	-11.6565
▁cmon	-11.6566
▁barry	-11.6566
▁campus	-11.6566
▁heroes	-11.6567
▁silently	-11.6568
▁ewww	-11.6569
▁inches	-11.6573
▁latest	-11.6574
▁pence	-11.6577
▁fen	-11.6581
▁discovery	-11.6581
▁eighth	-11.6591
▁lung	-11.6602
jw	-11.6605
illo	-11.6634
▁miller	-11.6635
▁pinch	-11.6651
▁hugh	-11.6654
▁vale	-11.666
kka	-11.6669
kirk	-11.6671
▁nun	-11.6684
▁hank	-11.6707
▁victoria	-11.6711
▁fade	-11.6723
▁cracker	-11.6738
ashi	-11.6771
clear	-11.6788
stead	-11.6808
▁lang	-11.6823
▁imitate	-11.6824
▁berth	-11.6827
rept	-11.6851
1.5	-11.6862
ggy	-11.6863
▁distribut	-11.6962
▁300	-11.6971
▁tub	-11.7015
refers	-11.7093
bach	-11.7174
blows	-11.7207
▁(199	-11.721
▁tradition	-11.7262
nick	-11.7305
▁virgin	-11.7312
▁assist	-11.7347
hums	-11.7393
▁twi	-11.7408
▁southwest	-11.7409
▁succeed	-11.7409
▁attach	-11.741
word	-11.7413
▁improve	-11.7413
▁frighten	-11.7413
▁engage	-11.7413
craft	-11.7415
storm	-11.7418
space	-11.7418
referr	-11.7418
three	-11.7419
▁operate	-11.7425
teacher	-11.7426
trying	-11.7427
flow	-11.7434
stitution	-11.7444
▁architect	-11.7445
gutenberg	-11.7445
▁mosquito	-11.7445
æ	-11.7445
▁admiral	-11.7445
▁approximate	-11.7445
▁artillery	-11.7445
▁diploma	-11.7445
▁exclusive	-11.7445
▁gabriel	-11.7445
▁impressive	-11.7445
▁investigate	-11.7445
▁refuge	-11.7445
▁ultimate	-11.7445
▁virtual	-11.7445
involuntary	-11.7445
↗	-11.7445
▁$5	-11.7445
▁anniversary	-11.7445
▁anxiety	-11.7445
▁automobile	-11.7445
▁awkward	-11.7445
▁committed	-11.7445
▁confusion	-11.7445
▁cottage	-11.7445
▁economy	-11.7445
▁envelope	-11.7445
▁examination	-11.7445
▁exclamation	-11.7445
▁greece	-11.7445
▁humphrey	-11.7445
▁humpty	-11.7445
▁inhabitants	-11.7445
▁jewish	-11.7445
▁lancaster	-11.7445
▁nitrogen	-11.7445
▁nonsense	-11.7445
▁oatmeal	-11.7445
▁octopus	-11.7445
▁oklahoma	-11.7445
▁pancake	-11.7445
▁paradise	-11.7445
▁pharaoh	-11.7445
▁philadelphia	-11.7445
▁priscilla	-11.7445
▁prospect	-11.7445
▁raccoon	-11.7445
▁raspberry	-11.7445
▁revelation	-11.7445
▁rhode	-11.7445
▁scheduled	-11.7445
▁screwdriver	-11.7445
▁singapore	-11.7445
▁specimen	-11.7445
▁steadily	-11.7445
▁suicide	-11.7445
▁suspicion	-11.7445
▁sympathy	-11.7445
▁trolley	-11.7445
▁volleyball	-11.7445
▁website	-11.7445
▁yoghurt	-11.7445
£	-11.7445
▁1931	-11.7445
▁1978	-11.7445
▁1981	-11.7445
▁athlete	-11.7445
▁bounce	-11.7445
▁czech	-11.7445
▁disorder	-11.7445
▁echoed	-11.7445
▁jacque	-11.7445
▁lobster	-11.7445
▁monroe	-11.7445
▁permanent	-11.7445
▁portrait	-11.7445
▁stadium	-11.7445
▁taylor	-11.7445
▁waffle	-11.7445
osaurus	-11.7446
▁baptis	-11.7446
▁expense	-11.7446
▁fuzzy	-11.7446
▁hebrew	-11.7446
▁plunged	-11.7446
▁sprang	-11.7446
▁clutch	-11.7446
▁guinea	-11.7446
▁manipur	-11.7446
▁vocals	-11.7446
▁scandal	-11.7446
▁purchase	-11.7446
▁stuart	-11.7446
▁compassionat	-11.7446
hausen	-11.7446
▁captive	-11.7446
▁farewell	-11.7446
▁dismay	-11.7446
▁niece	-11.7446
▁disabled	-11.7446
▁johann	-11.7446
footsteps	-11.7446
▁ornament	-11.7446
▁infection	-11.7446
▁awesome	-11.7446
▁breeze	-11.7446
▁phillip	-11.7446
▁waving	-11.7446
▁collar	-11.7446
▁cuddl	-11.7446
▁ethel	-11.7446
▁nibble	-11.7446
▁sensation	-11.7446
▁doughnut	-11.7446
▁cornflakes	-11.7446
▁ascend	-11.7446
▁edition	-11.7446
▁circula	-11.7446
▁multiple	-11.7446
▁ugly	-11.7446
▁instance	-11.7446
▁naked	-11.7446
▁embrace	-11.7446
▁martha	-11.7446
▁felix	-11.7446
▁rarely	-11.7446
▁raven	-11.7446
▁welsh	-11.7446
▁golf	-11.7446
▁grind	-11.7446
▁cloak	-11.7447
▁evelyn	-11.7447
possum	-11.7447
▁retirement	-11.7447
▁veins	-11.7447
▁1973	-11.7447
▁duncan	-11.7447
▁cyrus	-11.7447
▁1958	-11.7447
class	-11.7448
▁inspector	-11.7448
▁1966	-11.7448
▁1954	-11.7448
▁adjust	-11.7448
▁attractive	-11.7449
▁aaron	-11.7449
arctic	-11.7449
▁sample	-11.745
▁anderson	-11.7451
▁massive	-11.7451
▁tourist	-11.7451
▁thoroughly	-11.7451
▁shone	-11.7451
▁socialist	-11.7452
▁foam	-11.7453
▁fright	-11.7453
▁gettin	-11.7454
▁incredible	-11.7454
▁virus	-11.7455
▁maryland	-11.7455
▁drag	-11.7455
front	-11.7456
▁potty	-11.7456
▁unfortunately	-11.7456
▁bruno	-11.7457
▁viking	-11.7457
▁armenian	-11.7458
▁limp	-11.7458
▁garment	-11.7458
▁homework	-11.7459
▁haut	-11.7461
▁gear	-11.7461
▁neil	-11.7462
▁counties	-11.7463
▁reign	-11.7463
▁spotted	-11.7463
▁junk	-11.7463
▁potter	-11.7463
▁dude	-11.7463
arrington	-11.7464
▁suck	-11.7465
▁armies	-11.7466
▁taxes	-11.7467
▁hopeless	-11.7468
▁reasonable	-11.7471
▁coward	-11.7474
▁piper	-11.7474
▁lifetime	-11.7475
▁daylight	-11.7476
▁followers	-11.7476
▁metro	-11.7479
mumbles	-11.748
▁observer	-11.7486
▁idle	-11.7488
▁gross	-11.7489
▁corona	-11.7489
äu	-11.7492
▁mice	-11.7507
▁abuse	-11.7518
▁pub	-11.7519
▁graceful	-11.7526
▁owen	-11.7532
growls	-11.7536
▁earlie	-11.7571
arabic	-11.7588
▁birdie	-11.7599
▁haze	-11.7602
blanc	-11.7635
▁swan	-11.7671
eller	-11.7675
▁simon	-11.7692
think	-11.7702
shima	-11.7743
▁grabb	-11.7768
▁reviv	-11.7775
fashioned	-11.7784
tendo	-11.7806
hubert	-11.7813
otted	-11.7829
face	-11.7846
▁define	-11.7926
▁gail	-11.8021
▁cooper	-11.8041
▁wade	-11.8067
▁hence	-11.8109
▁evolution	-11.8119
▁convers	-11.8162
▁wrap	-11.8289
▁hue	-11.83
▁weigh	-11.8334
▁determin	-11.841
ground	-11.8413
▁involve	-11.8416
wolf	-11.8417
knock	-11.8417
world	-11.8417
“	-11.8417
great	-11.8417
please	-11.8423
guard	-11.843
▁apparent	-11.8432
▁yuck	-11.8435
▁journal	-11.8444
▁gorge	-11.8444
change	-11.8445
▁{\	-11.8445
{	-11.8445
naissance	-11.8445
politan	-11.8445
å	-11.8445
↫	-11.8445
▁1969	-11.8445
▁activities	-11.8445
▁affectionate	-11.8445
▁amsterdam	-11.8445
▁analysis	-11.8445
▁approval	-11.8445
▁assassin	-11.8445
▁biography	-11.8445
▁cambridge	-11.8445
▁ceremony	-11.8445
▁comparison	-11.8445
▁condemn	-11.8445
▁destruction	-11.8445
▁dialect	-11.8445
▁diameter	-11.8445
▁dizzy	-11.8445
▁dolphin	-11.8445
▁earthquake	-11.8445
▁emphasis	-11.8445
▁enterprise	-11.8445
▁glorious	-11.8445
▁gracious	-11.8445
▁instinct	-11.8445
▁joshua	-11.8445
▁knives	-11.8445
▁magistrate	-11.8445
▁mediterranean	-11.8445
▁nebraska	-11.8445
▁negative	-11.8445
▁piercing	-11.8445
▁portugal	-11.8445
▁prophecy	-11.8445
▁qualified	-11.8445
▁rainbow	-11.8445
▁recognise	-11.8445
▁resolution	-11.8445
▁rhythm	-11.8445
▁rustling	-11.8445
▁satisfy	-11.8445
▁sculpture	-11.8445
▁sequence	-11.8445
▁syndrome	-11.8445
▁taperecorder	-11.8445
▁terrific	-11.8445
▁trembling	-11.8445
▁velvet	-11.8445
▁vicinity	-11.8445
▁wardrobe	-11.8445
▁wildlife	-11.8445
▁1917	-11.8445
▁1977	-11.8445
▁bronze	-11.8445
▁eruption	-11.8445
▁hamburger	-11.8445
▁marvellous	-11.8445
▁monument	-11.8445
▁obstruct	-11.8445
▁practis	-11.8445
▁preserve	-11.8445
▁reputation	-11.8445
▁smoking	-11.8445
▁striking	-11.8445
▁wrestle	-11.8445
▁1948	-11.8446
▁cocoon	-11.8446
▁hannah	-11.8446
▁helmet	-11.8446
▁oblige	-11.8446
▁possibility	-11.8446
▁slaughter	-11.8446
▁traitor	-11.8446
▁alfred	-11.8446
▁bargain	-11.8446
▁louisiana	-11.8446
▁manifest	-11.8446
▁uefa	-11.8446
▁henderson	-11.8446
▁nigel	-11.8446
▁gulf	-11.8446
▁hydro	-11.8446
▁narrat	-11.8446
▁stoop	-11.8446
▁clerk	-11.8446
▁kaiser	-11.8446
▁monarch	-11.8446
▁musket	-11.8446
▁xiv	-11.8446
▁bosom	-11.8446
▁oyster	-11.8446
▁sophie	-11.8446
▁marshall	-11.8446
▁wrist	-11.8446
▁collins	-11.8446
▁iraq	-11.8446
▁swore	-11.8446
▁abbey	-11.8446
▁errand	-11.8446
demonstrate	-11.8446
▁basque	-11.8446
▁entry	-11.8446
▁rusty	-11.8446
▁twilight	-11.8446
▁convert	-11.8446
▁esther	-11.8446
▁accurate	-11.8446
▁addict	-11.8446
▁scholarship	-11.8446
▁picard	-11.8446
▁ronald	-11.8446
▁bbc	-11.8446
▁belgi	-11.8446
▁profile	-11.8446
▁rosalie	-11.8446
▁bradford	-11.8447
▁shrink	-11.8447
sumption	-11.8447
▁horrid	-11.8447
▁?[	-11.8447
▁strict	-11.8447
▁vector	-11.8447
▁1949	-11.8447
▁gym	-11.8447
▁oscar	-11.8447
▁1933	-11.8447
▁sparrow	-11.8447
▁dispute	-11.8447
▁derek	-11.8448
▁buoy	-11.8448
▁improvement	-11.8448
▁tsar	-11.8448
▁documentary	-11.8448
▁1982	-11.8448
▁compact	-11.8448
http	-11.8448
▁1965	-11.8448
▁adele	-11.8448
▁terence	-11.8448
▁yorkshire	-11.8448
▁wallace	-11.8448
▁existence	-11.8448
▁francisco	-11.8449
▁polar	-11.8449
▁tangle	-11.8449
/030	-11.8449
▁harrison	-11.8449
▁furious	-11.8449
▁michelle	-11.8449
▁robinson	-11.8449
▁hedge	-11.8449
▁resignation	-11.8449
▁plaster	-11.845
▁geneva	-11.845
▁dollhouse	-11.845
▁1924	-11.845
▁vivid	-11.845
▁charley	-11.845
▁hillside	-11.8451
▁1912	-11.8451
▁patron	-11.8451
▁membership	-11.8451
▁pram	-11.8451
▁controller	-11.8452
▁cathy	-11.8452
▁joking	-11.8453
▁mound	-11.8453
▁packet	-11.8453
▁loft	-11.8454
▁controlled	-11.8455
▁syrian	-11.8455
▁slavery	-11.8456
▁dancers	-11.8456
▁connor	-11.8456
▁sammy	-11.8457
▁frontier	-11.8457
▁majority	-11.8457
▁reverse	-11.8457
▁hbo	-11.8458
▁capable	-11.8458
▁carbon	-11.8459
▁lighthouse	-11.8459
▁retain	-11.846
▁sickness	-11.846
▁diego	-11.846
▁lump	-11.8461
▁gamb	-11.8461
▁iceland	-11.8461
▁witnesses	-11.8462
▁fake	-11.8462
▁thud	-11.8464
▁expectation	-11.8464
▁tread	-11.8464
▁alec	-11.8464
▁sadness	-11.8465
▁adviser	-11.8465
▁vast	-11.847
▁rita	-11.8472
▁josh	-11.8487
▁torch	-11.8488
1-2	-11.8489
▁lance	-11.8508
▁somme	-11.8514
▁oct	-11.8531
▁blaze	-11.855
▁scarf	-11.858
▁400	-11.8619
▁persist	-11.8635
bility	-11.8647
▁viv	-11.8731
▁fern	-11.8759
bark	-11.8926
touches	-11.8955
▁screech	-11.8976
claimed	-11.8989
▁romania	-11.8997
uncle	-11.9
horn	-11.9032
▁deposit	-11.9083
imagin	-11.9106
▁slate	-11.9138
5||	-11.9143
burn	-11.9156
▁settl	-11.9175
cumb	-11.923
▁feather	-11.9257
▁glove	-11.9267
▁trapp	-11.9301
agging	-11.9424
closes	-11.9475
▁shove	-11.9493
▁declar	-11.9505
▁quart	-11.9512
▁adopt	-11.9521
while	-11.9523
▁retire	-11.9525
▁reduce	-11.9526
giving	-11.9527
speech	-11.9528
wheel	-11.9528
breath	-11.9528
michael	-11.9528
glass	-11.9528
white	-11.9528
club	-11.9528
beep	-11.9528
something	-11.9528
crack	-11.9528
black	-11.9529
throw	-11.953
listen	-11.953
▁grip	-11.9531
office	-11.9535
hello	-11.9543
▁unfortunate	-11.9543
▁frequent	-11.9543
▁definite	-11.9543
▁syria	-11.9547
▁lucia	-11.9552
▁horizon	-11.9557
▁collaborat	-11.9557
▁mushroom	-11.9557
▁sovereign	-11.9557
▁sprinkle	-11.9557
▁xviii	-11.9557
investigator	-11.9557
necessarily	-11.9557
undercurrent	-11.9557
ã	-11.9557
▁accompany	-11.9557
▁advancing	-11.9557
▁alabama	-11.9557
▁alligator	-11.9557
▁applied	-11.9557
▁assault	-11.9557
▁astonishment	-11.9557
▁attorney	-11.9557
▁automatic	-11.9557
▁bulgaria	-11.9557
▁capacity	-11.9557
▁champagne	-11.9557
▁circuit	-11.9557
▁coincidence	-11.9557
▁cyclone	-11.9557
▁decrease	-11.9557
▁democracy	-11.9557
▁discipline	-11.9557
▁disguise	-11.9557
▁doctrine	-11.9557
▁extraordinary	-11.9557
▁ferdinand	-11.9557
▁frozen	-11.9557
▁geoffrey	-11.9557
▁gharib	-11.9557
▁glimpse	-11.9557
▁gravity	-11.9557
▁happily	-11.9557
▁harbour	-11.9557
▁identify	-11.9557
▁immense	-11.9557
▁importance	-11.9557
▁investigating	-11.9557
▁investment	-11.9557
▁jordan	-11.9557
▁kindergarten	-11.9557
▁legislature	-11.9557
▁luggage	-11.9557
▁manufacturing	-11.9557
▁mechanism	-11.9557
▁mermaid	-11.9557
▁misfortune	-11.9557
▁mohammed	-11.9557
▁natalie	-11.9557
▁paralympic	-11.9557
▁philosophy	-11.9557
▁playgroup	-11.9557
▁popcorn	-11.9557
▁practicing	-11.9557
▁prefecture	-11.9557
▁privilege	-11.9557
▁prosecut	-11.9557
▁puppies	-11.9557
▁rehearsal	-11.9557
▁resembl	-11.9557
▁reservation	-11.9557
▁rhoda	-11.9557
▁ribbit	-11.9557
▁ridiculous	-11.9557
▁sparkling	-11.9557
▁survivor	-11.9557
▁suspended	-11.9557
▁symptoms	-11.9557
▁telescope	-11.9557
▁torpedo	-11.9557
▁vampire	-11.9557
▁vigorously	-11.9557
▁yankee	-11.9557
▁yield	-11.9557
▁zelenka	-11.9557
▁1947	-11.9557
▁1957	-11.9557
▁brennan	-11.9557
▁cupcake	-11.9557
▁dignity	-11.9557
▁effie	-11.9557
▁frigate	-11.9557
▁geographic	-11.9557
▁gesture	-11.9557
▁lawrence	-11.9557
▁legislati	-11.9557
▁negotia	-11.9557
▁pistol	-11.9557
▁cluster	-11.9557
▁deliberately	-11.9557
▁jamaica	-11.9557
▁landlord	-11.9557
▁nelson	-11.9557
▁scotch	-11.9557
▁statue	-11.9557
▁stewart	-11.9557
▁wilderness	-11.9557
▁yourselves	-11.9557
▁cardinal	-11.9557
▁gallery	-11.9557
▁invisible	-11.9557
▁pledge	-11.9557
▁thief	-11.9557
▁ambition	-11.9557
▁cycle	-11.9557
▁nappie	-11.9557
▁selena	-11.9557
▁sunrise	-11.9557
▁vanessa	-11.9557
▁wrath	-11.9557
▁leonard	-11.9557
▁lumber	-11.9557
▁solomon	-11.9557
▁agricultur	-11.9557
▁bathtub	-11.9557
▁envy	-11.9557
▁prussia	-11.9557
▁siege	-11.9557
▁luncheon	-11.9557
▁1953	-11.9557
▁rhine	-11.9557
▁abdul	-11.9557
▁rotten	-11.9557
▁twinkle	-11.9557
▁floyd	-11.9557
natured	-11.9557
▁municipalities	-11.9557
▁slippers	-11.9557
▁width	-11.9557
▁xxi	-11.9557
▁beloved	-11.9557
▁injury	-11.9557
▁causing	-11.9557
▁visible	-11.9557
▁orphan	-11.9557
▁childsname	-11.9557
▁dallas	-11.9557
▁caesar	-11.9557
▁ethan	-11.9557
▁gregory	-11.9557
▁shipping	-11.9557
▁whirl	-11.9557
▁josé	-11.9557
▁patriot	-11.9557
▁console	-11.9557
▁operator	-11.9557
malley	-11.9557
▁compass	-11.9557
▁scoot	-11.9557
▁install	-11.9557
▁yacht	-11.9557
▁descent	-11.9557
▁jessica	-11.9557
▁dedicate	-11.9557
▁silk	-11.9558
nspired	-11.9558
▁tasty	-11.9558
▁cigar	-11.9558
▁confidential	-11.9558
▁cruz	-11.9558
▁susie	-11.9558
▁pork	-11.9558
▁galicia	-11.9558
▁crust	-11.9558
▁establishment	-11.9558
▁moderat	-11.9558
▁robbie	-11.9558
▁bryan	-11.9558
▁apollo	-11.9558
echoing	-11.9558
▁beware	-11.9559
▁clasp	-11.9559
▁harris	-11.9559
▁spinning	-11.9559
▁engagement	-11.9559
▁lyon	-11.9559
▁granny	-11.9559
▁ballot	-11.9559
▁tension	-11.9559
▁1928	-11.956
▁1929	-11.956
▁councillor	-11.956
▁drummer	-11.956
▁impact	-11.956
▁creak	-11.956
▁revolutionary	-11.956
▁petrol	-11.9561
▁leadership	-11.9561
▁optic	-11.9561
▁brazilian	-11.9561
pathetic	-11.9561
▁1914	-11.9562
▁wives	-11.9562
▁franz	-11.9562
▁ensure	-11.9563
▁robot	-11.9563
▁magnetic	-11.9563
▁jingle	-11.9563
▁koran	-11.9564
▁burke	-11.9564
▁rival	-11.9564
▁agreeable	-11.9564
▁ragged	-11.9564
▁geese	-11.9564
▁slim	-11.9565
▁katie	-11.9565
▁liking	-11.9565
▁ridge	-11.9565
groaning	-11.9565
▁cellar	-11.9566
▁civilian	-11.9566
▁gyp	-11.9566
▁insert	-11.9566
://	-11.9567
▁collie	-11.9568
▁aisle	-11.9569
▁dumb	-11.9571
assic	-11.9573
▁choke	-11.9574
▁raft	-11.9576
▁ruff	-11.9579
descendants	-11.9584
▁rosie	-11.9588
▁camb	-11.9596
▁chronicle	-11.9596
rhin	-11.964
fax	-11.9675
▁adj	-11.9678
▁sniff	-11.9679
▁evolv	-11.9684
▁terminat	-11.9699
eppe	-11.9702
50.	-11.9711
azar	-11.9714
▁marqu	-11.9726
pound	-11.9788
whinn	-11.9812
wfully	-11.9867
▁rica	-12.0028
nfl	-12.0104
▁transit	-12.012
2.5	-12.0175
mpuls	-12.0178
static	-12.0345
imitates	-12.0381
covered	-12.0394
yuki	-12.0416
position	-12.0476
▁slid	-12.0544
kö	-12.0554
hsl	-12.0567
drops	-12.0574
▁relat	-12.0645
observe	-12.0722
haired	-12.0754
▁extend	-12.077
pushes	-12.0777
~	-12.0777
clown	-12.0777
certainly	-12.0778
written	-12.0778
october	-12.0778
#	-12.0778
john	-12.0778
movie	-12.0778
brush	-12.0778
could	-12.0778
natural	-12.0778
meaning	-12.0778
large	-12.0778
power	-12.0778
cloth	-12.0779
second	-12.0779
▁obvious	-12.0793
help	-12.0796
▁construct	-12.0803
č	-12.0807
ū	-12.0807
▁disagree	-12.0807
▁fountain	-12.0807
▁qualify	-12.0807
▁señor	-12.0807
arrondissement	-12.0807
▁advertisement	-12.0807
▁ambassador	-12.0807
▁behaviour	-12.0807
▁binoculars	-12.0807
▁bouncing	-12.0807
▁cabbage	-12.0807
▁cathedral	-12.0807
▁cavalry	-12.0807
▁columbia	-12.0807
▁communicate	-12.0807
▁communities	-12.0807
▁comparative	-12.0807
▁concentrate	-12.0807
▁context	-12.0807
▁convenient	-12.0807
▁correspond	-12.0807
▁custody	-12.0807
▁dictionary	-12.0807
▁disgrace	-12.0807
▁easiest	-12.0807
▁elegant	-12.0807
▁exploration	-12.0807
▁explosive	-12.0807
▁facilities	-12.0807
▁forbidden	-12.0807
▁frederick	-12.0807
▁frequency	-12.0807
▁garrison	-12.0807
▁grinned	-12.0807
▁intelligent	-12.0807
▁interaction	-12.0807
▁jasmine	-12.0807
▁judgment	-12.0807
▁landscape	-12.0807
▁liquor	-12.0807
▁manhattan	-12.0807
▁mathematics	-12.0807
▁napoleon	-12.0807
▁opponent	-12.0807
▁palestine	-12.0807
▁peacock	-12.0807
▁propeller	-12.0807
▁prophet	-12.0807
▁psychology	-12.0807
▁punjab	-12.0807
▁recognition	-12.0807
▁rejoice	-12.0807
▁retorted	-12.0807
▁revolver	-12.0807
▁ribbon	-12.0807
▁schooner	-12.0807
▁seldom	-12.0807
▁snoopy	-12.0807
▁spectacle	-12.0807
▁splinter	-12.0807
▁sponsor	-12.0807
▁strategic	-12.0807
▁surrender	-12.0807
▁technique	-12.0807
▁tennessee	-12.0807
▁thieves	-12.0807
▁trevor	-12.0807
▁unbelievable	-12.0807
▁ungrateful	-12.0807
▁unsuccessful	-12.0807
▁whistling	-12.0807
▁whitney	-12.0807
▁wisconsin	-12.0807
▁1932	-12.0807
▁1936	-12.0807
▁1941	-12.0807
▁1944	-12.0807
▁1962	-12.0807
▁1971	-12.0807
▁conquest	-12.0807
▁ethnic	-12.0807
▁fiddle	-12.0807
▁garbage	-12.0807
▁harvard	-12.0807
▁honeymoon	-12.0807
▁hooray	-12.0807
▁malcolm	-12.0807
▁murphy	-12.0807
▁nowadays	-12.0807
▁patience	-12.0807
▁phenomen	-12.0807
▁sacred	-12.0807
▁samurai	-12.0807
▁taiwan	-12.0807
▁threatening	-12.0807
▁trigger	-12.0807
▁veteran	-12.0807
▁watermelon	-12.0807
▁invitation	-12.0807
▁lettuce	-12.0807
▁liberty	-12.0807
▁violin	-12.0807
▁elbow	-12.0807
▁scoop	-12.0807
▁software	-12.0807
▁dummy	-12.0807
▁grammar	-12.0807
▁illuminat	-12.0807
▁windmill	-12.0807
▁arguing	-12.0807
▁shrub	-12.0807
▁snail	-12.0807
▁utmost	-12.0807
▁slug	-12.0807
▁bunnies	-12.0807
▁gavin	-12.0807
▁trumpet	-12.0807
abilities	-12.0807
▁abbot	-12.0807
▁crisis	-12.0807
▁gallant	-12.0807
▁memories	-12.0807
▁shield	-12.0807
▁freak	-12.0807
▁piggie	-12.0807
▁whereupon	-12.0807
▁pierce	-12.0807
▁amazed	-12.0807
▁decay	-12.0807
▁pronounced	-12.0807
▁thump	-12.0807
▁combined	-12.0807
▁dissolv	-12.0807
▁bulb	-12.0807
▁dillon	-12.0807
babbling	-12.0807
▁serena	-12.0807
▁ariane	-12.0807
▁urgent	-12.0807
▁playstation	-12.0807
-17	-12.0807
▁clue	-12.0807
▁munich	-12.0807
▁trauma	-12.0807
▁thames	-12.0807
▁moaning	-12.0807
▁bliss	-12.0807
▁xxv	-12.0807
▁apology	-12.0807
▁wessex	-12.0807
nvr	-12.0807
▁detach	-12.0807
▁forehead	-12.0807
▁isobel	-12.0807
▁medium	-12.0807
▁querie	-12.0807
▁buggy	-12.0807
▁wiggle	-12.0807
▁idaho	-12.0807
▁carrier	-12.0807
▁accent	-12.0807
▁serbia	-12.0807
stadt	-12.0807
▁programming	-12.0807
▁raymond	-12.0807
▁fasci	-12.0807
▁toxic	-12.0808
▁insane	-12.0808
▁dustbin	-12.0808
▁basil	-12.0808
▁architecture	-12.0808
▁impulse	-12.0808
▁persian	-12.0808
▁pilgrimage	-12.0808
sibility	-12.0808
feeble	-12.0808
▁slot	-12.0808
▁satisfaction	-12.0808
▁plague	-12.0808
▁manuel	-12.0808
▁disposition	-12.0808
▁gambling	-12.0809
▁journalist	-12.0809
▁scarlet	-12.0809
▁edda	-12.0809
▁petition	-12.0809
▁yonder	-12.0809
▁tracy	-12.0809
▁denmark	-12.0809
▁banned	-12.0809
▁travis	-12.0809
▁bravo	-12.081
▁extinction	-12.081
▁alexandr	-12.081
▁recess	-12.081
▁cider	-12.081
▁anthem	-12.081
▁option	-12.0811
▁primary	-12.0811
▁1986	-12.0811
▁vague	-12.0811
▁basin	-12.0811
▁teenage	-12.0811
▁1918	-12.0811
▁cheerio	-12.0811
▁hostile	-12.0811
▁carved	-12.0811
▁impose	-12.0811
▁latitude	-12.0811
▁burial	-12.0811
▁gobble	-12.0812
▁titan	-12.0812
▁padding	-12.0812
▁rumor	-12.0812
▁edna	-12.0814
▁ankle	-12.0814
protein	-12.0815
▁griev	-12.0816
▁trifl	-12.0822
prison	-12.0825
▁swap	-12.0826
▁viola	-12.0835
pascal	-12.0852
▁subsid	-12.0863
alpes	-12.0863
▁irri	-12.0865
pause	-12.0874
▁restore	-12.0887
ovich	-12.0893
▁1961	-12.0909
aggie	-12.0936
consol	-12.0965
dispens	-12.097
▁snip	-12.0992
▁oxid	-12.1001
oiled	-12.1026
▁graphic	-12.1049
▁decline	-12.1071
conti	-12.1143
▁featur	-12.1165
mamma	-12.1242
▁presid	-12.1259
divisi	-12.1283
unwal	-12.1389
▁dye	-12.1415
▁criticiz	-12.1459
▁introduc	-12.1512
efined	-12.1517
▁greg	-12.1572
▁livingston	-12.161
1.2	-12.1717
▁measur	-12.1887
▁spiritual	-12.1912
||3	-12.2045
lifts	-12.2154
▁colonial	-12.2176
▁glob	-12.2177
duced	-12.219
▁establish	-12.2197
▁divide	-12.2205
league	-12.2206
microphone	-12.2206
lucky	-12.2206
november	-12.2206
daughter	-12.2206
april	-12.2206
everything	-12.2206
anything	-12.2206
finish	-12.2207
fox	-12.2207
strange	-12.2207
better	-12.2207
course	-12.2213
▁thirst	-12.2219
▁academ	-12.2219
▁festiv	-12.2231
▁michel	-12.2231
▁pilgrim	-12.2234
▁accur	-12.2235
@	-12.2235
ß	-12.2235
ł	-12.2235
▁recycl	-12.2235
enthusiastic	-12.2235
icameral	-12.2235
ović	-12.2235
¿	-12.2235
ò	-12.2235
▁abortion	-12.2235
▁agrippa	-12.2235
▁ancestor	-12.2235
▁anticipate	-12.2235
▁applaud	-12.2235
▁applause	-12.2235
▁augeias	-12.2235
▁balochistan	-12.2235
▁broccoli	-12.2235
▁burglar	-12.2235
▁caradoc	-12.2235
▁catastrophe	-12.2235
▁celebration	-12.2235
▁celebrity	-12.2235
▁conclusion	-12.2235
▁conscious	-12.2235
▁conservative	-12.2235
▁corporal	-12.2235
▁corridor	-12.2235
▁crawford	-12.2235
▁disregard	-12.2235
▁elaborate	-12.2235
▁employee	-12.2235
▁employment	-12.2235
▁ethiopia	-12.2235
▁eugene	-12.2235
▁gingerbread	-12.2235
▁glooskap	-12.2235
▁grocery	-12.2235
▁hiccup	-12.2235
▁ignorant	-12.2235
▁immigrant	-12.2235
▁industrial	-12.2235
▁jewelry	-12.2235
▁langridge	-12.2235
▁limestone	-12.2235
▁liverpool	-12.2235
▁luxury	-12.2235
▁macdonald	-12.2235
▁magnitude	-12.2235
▁matilda	-12.2235
▁maximum	-12.2235
▁motorcycle	-12.2235
▁namibia	-12.2235
▁necessity	-12.2235
▁neigh	-12.2235
▁neutral	-12.2235
▁nielsen	-12.2235
▁norwegian	-12.2235
▁occurrence	-12.2235
▁paragraph	-12.2235
▁penetrate	-12.2235
▁philippines	-12.2235
▁policies	-12.2235
▁premises	-12.2235
▁psychiatrist	-12.2235
▁railroad	-12.2235
▁rebuild	-12.2235
▁receipt	-12.2235
▁redouble	-12.2235
▁reduction	-12.2235
▁rejoicing	-12.2235
▁residence	-12.2235
▁satellite	-12.2235
▁scrooge	-12.2235
▁shattered	-12.2235
▁signature	-12.2235
▁sketch	-12.2235
▁societies	-12.2235
▁subtitle	-12.2235
▁sunglasses	-12.2235
▁tadpoles	-12.2235
▁terrified	-12.2235
▁twelfth	-12.2235
▁twinkling	-12.2235
▁uncomfortable	-12.2235
▁unconscious	-12.2235
▁unemployed	-12.2235
▁venezuela	-12.2235
▁violence	-12.2235
▁whilst	-12.2235
▁wikipedia	-12.2235
ē	-12.2235
▁1934	-12.2235
▁amendment	-12.2235
▁annoyed	-12.2235
▁baboon	-12.2235
▁behavior	-12.2235
▁colonies	-12.2235
▁combination	-12.2235
▁conclave	-12.2235
▁constance	-12.2235
▁coordinat	-12.2235
▁dishwasher	-12.2235
▁identity	-12.2235
▁insurance	-12.2235
▁intensity	-12.2235
▁interference	-12.2235
▁kilometers	-12.2235
▁minimum	-12.2235
▁miracle	-12.2235
▁provoke	-12.2235
▁racket	-12.2235
▁resumed	-12.2235
▁ritual	-12.2235
▁turbine	-12.2235
▁uncertain	-12.2235
▁accelerat	-12.2235
▁burrow	-12.2235
▁compliment	-12.2235
▁cragg	-12.2235
▁dangling	-12.2235
▁deceive	-12.2235
▁diagnos	-12.2235
▁laurie	-12.2235
▁pluck	-12.2235
▁suppress	-12.2235
▁translation	-12.2235
▁wagner	-12.2235
▁(2018)	-12.2235
▁craig	-12.2235
▁depressi	-12.2235
▁gospel	-12.2235
▁serpent	-12.2235
▁sledge	-12.2235
▁spencer	-12.2235
▁syllable	-12.2235
▁fancied	-12.2235
▁simultaneously	-12.2235
▁vienna	-12.2235
libretto	-12.2235
▁coffin	-12.2235
▁hudson	-12.2235
▁laurel	-12.2235
▁ncaa	-12.2235
▁psyche	-12.2235
▁renewed	-12.2235
▁skating	-12.2235
acquaint	-12.2235
▁edith	-12.2235
▁essex	-12.2235
▁giddy	-12.2235
▁gravy	-12.2235
▁obsess	-12.2235
▁pigeon	-12.2235
▁sprout	-12.2235
▁leopard	-12.2235
▁warehouse	-12.2235
▁backpack	-12.2235
▁restrain	-12.2235
▁unwilling	-12.2235
▁crease	-12.2235
▁antenna	-12.2235
▁breach	-12.2235
▁caravan	-12.2235
▁begging	-12.2235
▁caleb	-12.2235
▁regain	-12.2235
▁resort	-12.2235
▁entreat	-12.2235
▁melody	-12.2235
▁randall	-12.2235
▁properties	-12.2235
predator	-12.2235
desirable	-12.2235
▁agnes	-12.2235
▁fortress	-12.2235
▁gazing	-12.2235
▁invalid	-12.2235
▁rahal	-12.2235
▁submit	-12.2235
▁serene	-12.2235
▁diving	-12.2235
▁deedee	-12.2236
▁vault	-12.2236
▁elena	-12.2236
▁hopping	-12.2236
▁emblem	-12.2236
▁hoarse	-12.2236
▁ponies	-12.2236
▁squire	-12.2236
▁valentin	-12.2236
▁margot	-12.2236
exhales	-12.2236
."--_	-12.2236
▁kyle	-12.2236
grease	-12.2236
▁essay	-12.2236
▁harvest	-12.2236
▁cunningham	-12.2236
▁gully	-12.2236
▁hurrah	-12.2236
▁cedar	-12.2236
▁glee	-12.2236
▁hollywood	-12.2236
▁amateur	-12.2236
▁brumm	-12.2236
▁screenplay	-12.2236
▁mammals	-12.2236
▁edwin	-12.2236
▁uneas	-12.2236
▁fleming	-12.2236
▁introduction	-12.2236
▁mosque	-12.2236
gnac	-12.2236
[37	-12.2236
▁brigade	-12.2236
▁alliance	-12.2236
▁fowl	-12.2236
▁therapy	-12.2236
▁nasty	-12.2237
▁lettice	-12.2237
▁murray	-12.2237
aternity	-12.2237
▁hiram	-12.2237
▁sherman	-12.2237
▁bunker	-12.2237
▁cavern	-12.2237
▁elsie	-12.2237
▁snort	-12.2237
▁glide	-12.2238
▁antoine	-12.2238
▁loire	-12.2238
▁rational	-12.2238
arriving	-12.2238
▁insult	-12.2238
▁lauren	-12.2238
▁external	-12.2239
limit	-12.224
scoffs	-12.2241
▁sync	-12.2241
▁induct	-12.2242
▁mehme	-12.2243
▁mortal	-12.2246
produce	-12.2252
▁imperi	-12.2257
▁litera	-12.2259
▁exert	-12.226
▁drape	-12.2268
▁factori	-12.2273
deep	-12.2275
ogne	-12.2281
▁lenn	-12.2288
spoonful	-12.2288
topeka	-12.2308
39]	-12.232
rrr	-12.236
▁update	-12.2371
llaby	-12.2493
onnell	-12.2587
hunt	-12.2588
operative	-12.286
▁honourabl	-12.2949
danda	-12.3028
merged	-12.3135
▁struggl	-12.3298
fighter	-12.3331
▁temporar	-12.3357
▁circumstance	-12.3604
volving	-12.3708
ivity	-12.3741
communes	-12.3791
tickle	-12.3812
▁drown	-12.3827
▁accord	-12.3865
xxx	-12.3866
present	-12.387
▁excite	-12.387
▁approve	-12.3871
▁cease	-12.3872
screen	-12.3873
basket	-12.3873
arthur	-12.3873
click	-12.3873
japanese	-12.3873
correct	-12.3873
founded	-12.3873
bridge	-12.3873
january	-12.3873
picture	-12.3873
shouting	-12.3873
thomas	-12.3873
family	-12.3873
built	-12.3873
record	-12.3873
above	-12.3873
arrange	-12.3874
blue	-12.3874
▁incredibl	-12.3885
▁guilt	-12.3886
▁absolute	-12.3889
▁inspect	-12.3895
▁vocalis	-12.3895
uspicious	-12.3897
▁extinct	-12.3897
▁confid	-12.39
▁advent	-12.3901
▁cunning	-12.3901
ș	-12.3902
▁sauropod	-12.3902
ś	-12.3902
▁conspiracy	-12.3902
▁indignant	-12.3902
▁shudder	-12.3902
▁slumber	-12.3902
▁absurd	-12.3902
▁activate	-12.3902
▁adelaide	-12.3902
▁afghanistan	-12.3902
▁afloat	-12.3902
▁aggressive	-12.3902
▁amazement	-12.3902
▁announcement	-12.3902
▁archbishop	-12.3902
▁arquette	-12.3902
▁arsacid	-12.3902
▁astonished	-12.3902
▁asylum	-12.3902
▁bangladesh	-12.3902
▁bankrupt	-12.3902
▁barcelona	-12.3902
▁battalion	-12.3902
▁blackpool	-12.3902
♫	-12.3902
′	-12.3902
ž	-12.3902
⌈	-12.5873
î	-12.5902
ş	-12.5902
ı	-12.5902
×	-12.5902
ï	-12.5902
ì	-12.5902
‘	-12.8361
ù	-12.8402
ê	-12.8402
⁎	-12.8402
ë	-12.8402
œ	-12.8402
ð	-13.1735
∞	-13.1735
∙	-13.1735
✿	-13.1735
ī	-13.1735
^	-13.6735
\	-13.6735
	-13.6735
ě	-13.6735
ń	-13.6735
ņ	-13.6735
ố	-13.6735
ồ	-13.6735
‐	-13.6735
▔	-13.6735
ą	-14.6718
ă	-14.6719
¡	-14.672
	-14.6721
	-14.6722
đ	-14.6723
§	-14.6724
•	-14.6725
ř	-14.6726
⁄	-14.6727
་	-14.6728
́	-14.6729
―	-14.673
ñ	-14.6731
ć	-14.6732
¶	-14.6733
⌊	-14.6734
ʾ	-14.6735
ṭ	-14.6735
ʃ	-14.6735
>	-14.6735
	-14.6735
©	-14.6735
·	-14.6735
þ	-14.6735
ĕ	-14.6735
ĭ	-14.6735
İ	-14.6735
ő	-14.6735
ũ	-14.6735
ź	-14.6735
ż	-14.6735
ǎ	-14.6735
ǫ	-14.6735
ɑ	-14.6735
ɪ	-14.6735
ʊ	-14.6735
ː	-14.6735
̶	-14.6735
η	-14.6735
ν	-14.6735
ј	-14.6735
॥	-14.6735
ṉ	-14.6735
ṛ	-14.6735
ṯ	-14.6735
ả	-14.6735
ắ	-14.6735
ề	-14.6735
ệ	-14.6735
ọ	-14.6735
ớ	-14.6735
‡	-14.6735
‰	-14.6735
€	-14.6735
<	-14.6735
й	-14.6735
$	-14.6735
ý	-14.6735
ġ	-14.6735
ư	-14.6735
ṣ	-14.6735
ờ	-14.6735
