<unk>	0
<s>	0
</s>	0
<pad>	0
<0x00>	0
<0x01>	0
<0x02>	0
<0x03>	0
<0x04>	0
<0x05>	0
<0x06>	0
<0x07>	0
<0x08>	0
<0x09>	0
<0x0A>	0
<0x0B>	0
<0x0C>	0
<0x0D>	0
<0x0E>	0
<0x0F>	0
<0x10>	0
<0x11>	0
<0x12>	0
<0x13>	0
<0x14>	0
<0x15>	0
<0x16>	0
<0x17>	0
<0x18>	0
<0x19>	0
<0x1A>	0
<0x1B>	0
<0x1C>	0
<0x1D>	0
<0x1E>	0
<0x1F>	0
<0x20>	0
<0x21>	0
<0x22>	0
<0x23>	0
<0x24>	0
<0x25>	0
<0x26>	0
<0x27>	0
<0x28>	0
<0x29>	0
<0x2A>	0
<0x2B>	0
<0x2C>	0
<0x2D>	0
<0x2E>	0
<0x2F>	0
<0x30>	0
<0x31>	0
<0x32>	0
<0x33>	0
<0x34>	0
<0x35>	0
<0x36>	0
<0x37>	0
<0x38>	0
<0x39>	0
<0x3A>	0
<0x3B>	0
<0x3C>	0
<0x3D>	0
<0x3E>	0
<0x3F>	0
<0x40>	0
<0x41>	0
<0x42>	0
<0x43>	0
<0x44>	0
<0x45>	0
<0x46>	0
<0x47>	0
<0x48>	0
<0x49>	0
<0x4A>	0
<0x4B>	0
<0x4C>	0
<0x4D>	0
<0x4E>	0
<0x4F>	0
<0x50>	0
<0x51>	0
<0x52>	0
<0x53>	0
<0x54>	0
<0x55>	0
<0x56>	0
<0x57>	0
<0x58>	0
<0x59>	0
<0x5A>	0
<0x5B>	0
<0x5C>	0
<0x5D>	0
<0x5E>	0
<0x5F>	0
<0x60>	0
<0x61>	0
<0x62>	0
<0x63>	0
<0x64>	0
<0x65>	0
<0x66>	0
<0x67>	0
<0x68>	0
<0x69>	0
<0x6A>	0
<0x6B>	0
<0x6C>	0
<0x6D>	0
<0x6E>	0
<0x6F>	0
<0x70>	0
<0x71>	0
<0x72>	0
<0x73>	0
<0x74>	0
<0x75>	0
<0x76>	0
<0x77>	0
<0x78>	0
<0x79>	0
<0x7A>	0
<0x7B>	0
<0x7C>	0
<0x7D>	0
<0x7E>	0
<0x7F>	0
<0x80>	0
<0x81>	0
<0x82>	0
<0x83>	0
<0x84>	0
<0x85>	0
<0x86>	0
<0x87>	0
<0x88>	0
<0x89>	0
<0x8A>	0
<0x8B>	0
<0x8C>	0
<0x8D>	0
<0x8E>	0
<0x8F>	0
<0x90>	0
<0x91>	0
<0x92>	0
<0x93>	0
<0x94>	0
<0x95>	0
<0x96>	0
<0x97>	0
<0x98>	0
<0x99>	0
<0x9A>	0
<0x9B>	0
<0x9C>	0
<0x9D>	0
<0x9E>	0
<0x9F>	0
<0xA0>	0
<0xA1>	0
<0xA2>	0
<0xA3>	0
<0xA4>	0
<0xA5>	0
<0xA6>	0
<0xA7>	0
<0xA8>	0
<0xA9>	0
<0xAA>	0
<0xAB>	0
<0xAC>	0
<0xAD>	0
<0xAE>	0
<0xAF>	0
<0xB0>	0
<0xB1>	0
<0xB2>	0
<0xB3>	0
<0xB4>	0
<0xB5>	0
<0xB6>	0
<0xB7>	0
<0xB8>	0
<0xB9>	0
<0xBA>	0
<0xBB>	0
<0xBC>	0
<0xBD>	0
<0xBE>	0
<0xBF>	0
<0xC0>	0
<0xC1>	0
<0xC2>	0
<0xC3>	0
<0xC4>	0
<0xC5>	0
<0xC6>	0
<0xC7>	0
<0xC8>	0
<0xC9>	0
<0xCA>	0
<0xCB>	0
<0xCC>	0
<0xCD>	0
<0xCE>	0
<0xCF>	0
<0xD0>	0
<0xD1>	0
<0xD2>	0
<0xD3>	0
<0xD4>	0
<0xD5>	0
<0xD6>	0
<0xD7>	0
<0xD8>	0
<0xD9>	0
<0xDA>	0
<0xDB>	0
<0xDC>	0
<0xDD>	0
<0xDE>	0
<0xDF>	0
<0xE0>	0
<0xE1>	0
<0xE2>	0
<0xE3>	0
<0xE4>	0
<0xE5>	0
<0xE6>	0
<0xE7>	0
<0xE8>	0
<0xE9>	0
<0xEA>	0
<0xEB>	0
<0xEC>	0
<0xED>	0
<0xEE>	0
<0xEF>	0
<0xF0>	0
<0xF1>	0
<0xF2>	0
<0xF3>	0
<0xF4>	0
<0xF5>	0
<0xF6>	0
<0xF7>	0
<0xF8>	0
<0xF9>	0
<0xFA>	0
<0xFB>	0
<0xFC>	0
<0xFD>	0
<0xFE>	0
<0xFF>	0
▁t	-0
he	-1
▁a	-2
▁i	-3
▁w	-4
▁the	-5
▁s	-6
▁*	-7
ou	-8
re	-9
in	-10
▁o	-11
ha	-12
▁b	-13
hi	-14
▁m	-15
ot	-16
▁c	-17
er	-18
nd	-19
▁y	-20
▁d	-21
▁f	-22
on	-23
ing	-24
▁you	-25
▁p	-26
ll	-27
▁to	-28
▁g	-29
▁l	-30
an	-31
mot	-32
▁n	-33
es	-34
ed	-35
or	-36
▁and	-37
en	-38
hat	-39
ar	-40
▁he	-41
chi	-42
at	-43
▁in	-44
▁of	-45
it	-46
as	-47
▁it	-48
om	-49
ow	-50
▁ha	-51
▁that	-52
st	-53
et	-54
▁on	-55
ve	-56
le	-57
ay	-58
▁we	-59
▁be	-60
▁e	-61
▁u	-62
ri	-63
gh	-64
▁is	-65
se	-66
his	-67
ld	-68
id	-69
al	-70
oo	-71
ut	-72
ic	-73
▁h	-74
▁was	-75
▁re	-76
▁k	-77
▁do	-78
ad	-79
▁st	-80
ac	-81
▁th	-82
ver	-83
..	-84
▁for	-85
▁=	-86
ght	-87
▁[	-88
ro	-89
ke	-90
▁what	-91
ly	-92
ent	-93
▁j	-94
ir	-95
am	-96
ion	-97
is	-98
ch	-99
out	-100
▁an	-101
▁me	-102
▁"	-103
▁se	-104
ith	-105
▁li	-106
▁go	-107
▁no	-108
▁with	-109
ea	-110
▁this	-111
her	-112
▁as	-113
ome	-114
all	-115
▁not	-116
▁at	-117
ur	-118
▁they	-119
▁there	-120
▁have	-121
▁are	-122
▁so	-123
▁she	-124
▁-	-125
ce	-126
ould	-127
ra	-128
▁can	-129
ter	-130
▁whe	-131
ill	-132
▁kn	-133
▁hi	-134
▁but	-135
ust	-136
ook	-137
▁one	-138
im	-139
▁ne	-140
▁don	-141
▁his	-142
ho	-143
ct	-144
un	-145
ant	-146
▁all	-147
▁know	-148
...	-149
il	-150
▁fr	-151
▁her	-152
▁r	-153
▁my	-154
▁up	-155
au	-156
▁mo	-157
▁your	-158
eah	-159
▁oh	-160
▁yeah	-161
pp	-162
▁ri	-163
▁de	-164
um	-165
xx	-166
▁sa	-167
▁al	-168
▁had	-169
ge	-170
us	-171
▁like	-172
ain	-173
ie	-174
▁ab	-175
ack	-176
▁pl	-177
and	-178
▁1	-179
▁out	-180
op	-181
ck	-182
our	-183
ood	-184
▁did	-185
▁get	-186
inv	-187
art	-188
▁look	-189
ry	-190
▁him	-191
▁su	-192
▁see	-193
ink	-194
▁from	-195
ab	-196
▁or	-197
ake	-198
red	-199
▁here	-200
▁v	-201
ol	-202
very	-203
th	-204
ers	-205
▁by	-206
qu	-207
ight	-208
han	-209
ul	-210
ation	-211
▁were	-212
▁sp	-213
ess	-214
ell	-215
ig	-216
ound	-217
est	-218
▁just	-219
▁if	-220
▁bo	-221
▁now	-222
▁some	-223
▁com	-224
▁who	-225
▁whi	-226
ind	-227
ame	-228
▁sh	-229
▁right	-230
▁well	-231
▁wor	-232
el	-233
ard	-234
▁them	-235
▁got	-236
ong	-237
one	-238
own	-239
▁when	-240
▁then	-241
▁about	-242
itt	-243
▁think	-244
ak	-245
▁want	-246
na	-247
res	-248
nt	-249
ast	-250
ally	-251
▁2	-252
▁ex	-253
▁would	-254
▁man	-255
fe	-256
▁con	-257
ive	-258
▁ro	-259
os	-260
fat	-261
▁said	-262
▁(	-263
▁any	-264
▁tw	-265
▁di	-266
▁will	-267
ate	-268
].	-269
▁where	-270
▁yes	-271
▁how	-272
ap	-273
▁good	-274
ep	-275
▁cl	-276
▁tim	-277
▁say	-278
▁us	-279
ber	-280
em	-281
▁ar	-282
ough	-283
▁come	-284
ine	-285
▁lo	-286
▁ok	-287
▁pro	-288
ven	-289
hing	-290
ort	-291
▁le	-292
▁put	-293
ice	-294
▁xx	-295
▁ag	-296
▁xxx	-297
▁int	-298
▁okay	-299
▁down	-300
ittle	-301
▁“	-302
hy	-303
▁am	-304
▁back	-305
ther	-306
▁little	-307
▁pe	-308
ous	-309
▁let	-310
other	-311
ore	-312
way	-313
▁af	-314
▁co	-315
ag	-316
▁going	-317
."	-318
▁could	-319
▁more	-320
▁been	-321
▁br	-322
ist	-323
▁fe	-324
▁time	-325
▁has	-326
ies	-327
ause	-328
▁qu	-329
▁chi	-330
▁over	-331
▁than	-332
▁very	-333
▁two	-334
ft	-335
▁un	-336
▁which	-337
▁tr	-338
▁bl	-339
▁bec	-340
dy	-341
▁too	-342
▁'	-343
▁off	-344
▁their	-345
--	-346
ick	-347
ide	-348
▁19	-349
▁er	-350
▁en	-351
ace	-352
lf	-353
▁20	-354
▁other	-355
ity	-356
end	-357
▁play	-358
ree	-359
ose	-360
are	-361
▁car	-362
▁cha	-363
▁thing	-364
alk	-365
ure	-366
▁does	-367
▁mar	-368
reat	-369
▁po	-370
,"	-371
orn	-372
▁sc	-373
ear	-374
omet	-375
ment	-376
▁gr	-377
ish	-378
▁why	-379
urn	-380
nder	-381
pe	-382
▁fl	-383
hed	-384
my	-385
▁sha	-386
ud	-387
▁again	-388
age	-389
▁into	-390
▁tell	-391
▁fir	-392
▁somet	-393
ought	-394
▁after	-395
pl	-396
▁way	-397
▁take	-398
▁make	-399
▁uh	-400
ople	-401
ff	-402
ian	-403
ass	-404
▁people	-405
ps	-406
▁jo	-407
ade	-408
▁bet	-409
ue	-410
▁first	-411
▁work	-412
ble	-413
ase	-414
ia	-415
▁because	-416
▁every	-417
ving	-418
int	-419
▁may	-420
▁call	-421
▁day	-422
▁gon	-423
▁wat	-424
ite	-425
we	-426
▁gonna	-427
ount	-428
ty	-429
▁part	-430
▁mu	-431
ved	-432
iss	-433
▁ad	-434
▁these	-435
ves	-436
▁only	-437
▁our	-438
so	-439
▁te	-440
▁bu	-441
mp	-442
▁need	-443
▁mr	-444
▁mean	-445
▁new	-446
▁hand	-447
▁gu	-448
ci	-449
▁should	-450
bo	-451
wn	-452
▁thr	-453
▁pr	-454
co	-455
ary	-456
▁didn	-457
▁ch	-458
▁pre	-459
ord	-460
▁ho	-461
pt	-462
self	-463
ren	-464
fore	-465
▁fo	-466
act	-467
▁boy	-468
per	-469
the	-470
▁something	-471
▁big	-472
▁really	-473
les	-474
uh	-475
ful	-476
▁happ	-477
ouse	-478
▁sm	-479
day	-480
▁much	-481
▁hel	-482
ach	-483
ance	-484
be	-485
thing	-486
augh	-487
▁ac	-488
ather	-489
▁year	-490
▁long	-491
▁mom	-492
ady	-493
ress	-494
▁made	-495
par	-496
ang	-497
▁fi	-498
iz	-499
▁dis	-500
ting	-501
able	-502
▁ra	-503
▁per	-504
▁before	-505
te	-506
man	-507
ool	-508
cl	-509
▁gir	-510
ull	-511
▁talk	-512
▁under	-513
▁away	-514
uck	-515
▁rem	-516
▁ple	-517
ory	-518
▁old	-519
▁never	-520
▁wa	-521
ated	-522
▁act	-523
▁three	-524
ne	-525
hes	-526
▁um	-527
▁wr	-528
▁went	-529
▁har	-530
ub	-531
▁fri	-532
▁child	-533
▁wan	-534
▁ke	-535
▁those	-536
▁girl	-537
ions	-538
▁thank	-539
▁even	-540
ise	-541
▁app	-542
▁great	-543
▁turn	-544
ence	-545
ex	-546
▁bab	-547
av	-548
ward	-549
▁el	-550
▁home	-551
▁lea	-552
▁ask	-553
▁give	-554
▁came	-555
▁house	-556
▁also	-557
ffe	-558
▁wanna	-559
▁doing	-560
gg	-561
▁min	-562
de	-563
▁dad	-564
tain	-565
▁thought	-566
▁another	-567
00	-568
▁cr	-569
▁many	-570
▁must	-571
▁eat	-572
▁book	-573
yes	-574
▁mum	-575
▁count	-576
?"	-577
▁find	-578
▁things	-579
▁sl	-580
get	-581
▁ser	-582
▁head	-583
▁through	-584
ried	-585
▁help	-586
▁still	-587
▁che	-588
hm	-589
▁comp	-590
ors	-591
▁mat	-592
no	-593
▁ind	-594
ens	-595
▁comm	-596
▁last	-597
akes	-598
ma	-599
▁start	-600
ans	-601
ds	-602
▁love	-603
▁tra	-604
▁dr	-605
ons	-606
▁gl	-607
▁bel	-608
▁won	-609
ark	-610
exp	-611
▁op	-612
▁night	-613
▁try	-614
ings	-615
▁show	-616
▁gra	-617
▁chan	-618
▁isn	-619
ict	-620
▁cont	-621
land	-622
▁baby	-623
ened	-624
▁found	-625
laugh	-626
▁lot	-627
▁mm	-628
ect	-629
▁sw	-630
ily	-631
▁res	-632
▁done	-633
▁bot	-634
▁sho	-635
▁sch	-636
if	-637
▁str	-638
▁called	-639
▁%	-640
▁its	-641
▁bit	-642
▁might	-643
aking	-644
▁please	-645
▁sure	-646
mo	-647
ss	-648
xt	-649
▁name	-650
ms	-651
▁mother	-652
ling	-653
▁miss	-654
▁most	-655
ious	-656
ys	-657
ng	-658
▁care	-659
▁ma	-660
▁201	-661
▁friend	-662
up	-663
unn	-664
ign	-665
air	-666
add	-667
body	-668
▁wait	-669
▁pri	-670
med	-671
▁around	-672
▁cat	-673
▁mhm	-674
ix	-675
.”	-676
side	-677
ank	-678
ath	-679
▁war	-680
▁better	-681
▁ah	-682
▁water	-683
▁hey	-684
▁col	-685
ock	-686
anc	-687
▁keep	-688
▁four	-689
▁nice	-690
als	-691
▁mon	-692
▁kind	-693
ually	-694
ates	-695
oney	-696
▁fin	-697
▁own	-698
▁end	-699
▁bre	-700
▁while	-701
li	-702
▁la	-703
.]	-704
▁anything	-705
▁pres	-706
▁life	-707
▁des	-708
▁feel	-709
▁erm	-710
▁place	-711
▁school	-712
ember	-713
▁gi	-714
▁years	-715
▁ele	-716
▁looks	-717
▁char	-718
▁nor	-719
▁doesn	-720
▁att	-721
rent	-722
▁ear	-723
▁cap	-724
▁cour	-725
ways	-726
▁such	-727
▁used	-728
▁eng	-729
▁imp	-730
▁gre	-731
▁being	-732
▁bri	-733
▁next	-734
▁father	-735
▁shall	-736
▁sit	-737
mer	-738
led	-739
vers	-740
▁bus	-741
ited	-742
,”	-743
▁supp	-744
ip	-745
▁same	-746
▁far	-747
▁pol	-748
▁world	-749
ek	-750
ins	-751
▁room	-752
▁hold	-753
▁else	-754
▁3	-755
▁cle	-756
ince	-757
▁beg	-758
!"	-759
amp	-760
og	-761
ww	-762
laughs	-763
▁sor	-764
ied	-765
▁z	-766
ta	-767
▁set	-768
ute	-769
▁mummy	-770
▁rep	-771
▁.	-772
ult	-773
inn	-774
▁always	-775
ical	-776
▁told	-777
▁left	-778
▁saw	-779
▁nothing	-780
▁mot	-781
bb	-782
ild	-783
ations	-784
▁men	-785
▁read	-786
ah	-787
▁pret	-788
▁sec	-789
▁lat	-790
▁tri	-791
ug	-792
ition	-793
der	-794
ction	-795
uc	-796
eric	-797
▁fam	-798
for	-799
row	-800
▁num	-801
▁ever	-802
▁ball	-803
▁use	-804
pped	-805
▁open	-806
rest	-807
▁bir	-808
▁list	-809
▁huh	-810
vel	-811
▁red	-812
aught	-813
▁sorry	-814
▁unt	-815
▁diffe	-816
ars	-817
me	-818
iv	-819
▁ob	-820
▁acc	-821
▁daddy	-822
ump	-823
▁wom	-824
▁pers	-825
leep	-826
▁sing	-827
▁rec	-828
ew	-829
ung	-830
▁five	-831
oss	-832
ream	-833
▁gone	-834
ail	-835
▁spe	-836
▁tom	-837
▁point	-838
▁walk	-839
▁sur	-840
▁reg	-841
ever	-842
cc	-843
▁dra	-844
▁coming	-845
▁money	-846
▁young	-847
▁took	-848
▁door	-849
ave	-850
▁enough	-851
▁hm	-852
▁bro	-853
outh	-854
▁maybe	-855
br	-856
▁though	-857
▁bed	-858
ire	-859
ness	-860
ents	-861
▁hard	-862
ton	-863
▁morn	-864
▁dist	-865
oun	-866
▁stand	-867
▁watch	-868
▁mil	-869
▁americ	-870
▁stop	-871
▁box	-872
▁hear	-873
▁ste	-874
eak	-875
▁inv	-876
▁ed	-877
cond	-878
▁goes	-879
▁once	-880
ts	-881
▁hur	-882
oh	-883
▁light	-884
▁until	-885
▁morning	-886
▁200	-887
▁stay	-888
▁says	-889
▁ret	-890
hip	-891
▁gen	-892
mber	-893
hir	-894
▁mus	-895
▁wo	-896
gether	-897
▁remember	-898
▁pass	-899
▁six	-900
right	-901
▁best	-902
ye	-903
ows	-904
ger	-905
▁real	-906
ont	-907
▁sk	-908
▁vo	-909
▁side	-910
▁second	-911
ished	-912
▁_	-913
gr	-914
▁eyes	-915
▁ter	-916
▁quite	-917
▁wind	-918
▁belie	-919
cha	-920
▁god	-921
▁sy	-922
pect	-923
▁sir	-924
▁pick	-925
▁inter	-926
▁leave	-927
▁course	-928
▁looking	-929
▁bar	-930
▁air	-931
you	-932
▁today	-933
▁ent	-934
▁both	-935
▁near	-936
▁sn	-937
▁sound	-938
son	-939
sis	-940
▁city	-941
ces	-942
▁yet	-943
▁fire	-944
ower	-945
▁dog	-946
".	-947
ross	-948
▁seen	-949
lo	-950
▁dear	-951
▁ev	-952
oup	-953
io	-954
▁high	-955
here	-956
▁each	-957
▁asked	-958
▁hop	-959
tea	-960
bab	-961
▁small	-962
▁foot	-963
▁round	-964
▁few	-965
▁soon	-966
▁lar	-967
ister	-968
rist	-969
▁together	-970
▁grand	-971
▁different	-972
to	-973
▁dri	-974
ible	-975
but	-976
llo	-977
ets	-978
▁pat	-979
▁mind	-980
ange	-981
und	-982
▁fell	-983
llow	-984
▁inst	-985
▁bad	-986
tle	-987
ane	-988
▁fall	-989
▁sleep	-990
▁face	-991
ef	-992
▁pie	-993
ased	-994
une	-995
▁getting	-996
▁children	-997
ident	-998
▁dep	-999
▁without	-1000
▁♪	-1001
▁rel	-1002
▁id	-1003
▁hands	-1004
▁pap	-1005
ten	-1006
▁everything	-1007
▁black	-1008
ational	-1009
▁mrs	-1010
▁run	-1011
aster	-1012
ween	-1013
▁blue	-1014
mch	-1015
ctor	-1016
▁ready	-1017
▁number	-1018
▁heard	-1019
uff	-1020
▁known	-1021
▁pict	-1022
cle	-1023
▁person	-1024
uring	-1025
▁later	-1026
▁cent	-1027
huh	-1028
▁mommy	-1029
▁between	-1030
hn	-1031
ret	-1032
lic	-1033
▁hat	-1034
▁par	-1035
▁202	-1036
mb	-1037
ile	-1038
pri	-1039
▁rest	-1040
ial	-1041
▁haven	-1042
▁king	-1043
▁move	-1044
ures	-1045
cal	-1046
▁since	-1047
▁upon	-1048
▁half	-1049
▁met	-1050
ason	-1051
cause	-1052
ph	-1053
▁4	-1054
▁pop	-1055
▁story	-1056
▁hor	-1057
fta	-1058
che	-1059
ject	-1060
▁having	-1061
less	-1062
▁week	-1063
▁himself	-1064
),	-1065
▁wanted	-1066
▁hafta	-1067
az	-1068
▁cons	-1069
vie	-1070
▁im	-1071
▁happened	-1072
aut	-1073
▁jack	-1074
▁alright	-1075
).	-1076
dd	-1077
unny	-1078
▁white	-1079
ina	-1080
▁follow	-1081
▁looked	-1082
bro	-1083
ib	-1084
▁heart	-1085
ames	-1086
ries	-1087
▁18	-1088
po	-1089
▁dec	-1090
ared	-1091
▁pretty	-1092
ired	-1093
ines	-1094
ating	-1095
▁dire	-1096
ular	-1097
eter	-1098
1:	-1099
▁top	-1100
▁along	-1101
ork	-1102
▁exc	-1103
▁flo	-1104
▁train	-1105
▁matter	-1106
▁ju	-1107
▁boys	-1108
▁talking	-1109
▁john	-1110
ertain	-1111
▁knew	-1112
▁sort	-1113
stand	-1114
most	-1115
▁hello	-1116
▁bring	-1117
enn	-1118
sing	-1119
gma	-1120
▁live	-1121
ann	-1122
iet	-1123
▁ans	-1124
unt	-1125
sel	-1126
enty	-1127
▁ph	-1128
ched	-1129
ale	-1130
▁green	-1131
▁anim	-1132
▁hot	-1133
▁days	-1134
▁kid	-1135
osed	-1136
▁hour	-1137
▁united	-1138
sh	-1139
▁sat	-1140
ric	-1141
its	-1142
▁spo	-1143
▁break	-1144
▁making	-1145
▁mag	-1146
▁family	-1147
▁against	-1148
ball	-1149
▁drink	-1150
▁town	-1151
▁wasn	-1152
▁5	-1153
▁christ	-1154
▁pur	-1155
▁nat	-1156
▁chair	-1157
▁actually	-1158
▁aw	-1159
▁coll	-1160
ged	-1161
▁table	-1162
aw	-1163
vis	-1164
cial	-1165
▁party	-1166
▁cut	-1167
▁gave	-1168
▁american	-1169
▁land	-1170
▁thir	-1171
▁	-1172
e	-1173
t	-1174
o	-1175
a	-1176
i	-1177
n	-1178
h	-1179
s	-1180
r	-1181
l	-1182
d	-1183
m	-1184
u	-1185
c	-1186
.	-1187
y	-1188
w	-1189
g	-1190
f	-1191
p	-1192
b	-1193
:	-1194
*	-1195
,	-1196
k	-1197
v	-1198
'	-1199
?	-1200
"	-1201
-	-1202
x	-1203
j	-1204
=	-1205
]	-1206
[	-1207
!	-1208
1	-1209
0	-1210
2	-1211
z	-1212
9	-1213
q	-1214
)	-1215
(	-1216
;	-1217
3	-1218
“	-1219
”	-1220
’	-1221
8	-1222
5	-1223
4	-1224
7	-1225
6	-1226
_	-1227
%	-1228
/	-1229
|	-1230
♪	-1231
–	-1232
—	-1233
+	-1234
é	-1235
#	-1236
$	-1237
á	-1238
&	-1239
‘	-1240
í	-1241
⌈	-1242
⌋	-1243
⌉	-1244
⌊	-1245
→	-1246
ö	-1247
ü	-1248
~	-1249
è	-1250
ó	-1251
`	-1252
¶	-1253
ä	-1254
―	-1255
}	-1256
ō	-1257
ñ	-1258
°	-1259
{	-1260
ú	-1261
─	-1262
æ	-1263
ç	-1264
â	-1265
ô	-1266
\	-1267
✿	-1268
ã	-1269
ā	-1270
š	-1271
£	-1272
ć	-1273
à	-1274
́	-1275
ø	-1276
•	-1277
ū	-1278
ê	-1279
↗	-1280
ł	-1281
↫	-1282
@	-1283
ë	-1284
å	-1285
č	-1286
î	-1287
♫	-1288
ß	-1289
ă	-1290
ş	-1291
§	-1292
ï	-1293
⁄	-1294
œ	-1295
ı	-1296
ì	-1297
	-1298
ī	-1299
×	-1300
ž	-1301
¡	-1302
¿	-1303
©	-1304
·	-1305
ý	-1306
ð	-1307
ș	-1308
ń	-1309
€	-1310
ò	-1311
−	-1312
^	-1313
ś	-1314
	-1315
¤	-1316
′	-1317
∆	-1318
ř	-1319
þ	-1320
∙	-1321
đ	-1322
û	-1323
­	-1324
ğ	-1325
ː	-1326
ˈ	-1327
õ	-1328
ù	-1329
ě	-1330
⁎	-1331
ē	-1332
ə	-1333
	-1334
ț	-1335
ż	-1336
ő	-1337
İ	-1338
ę	-1339
¢	-1340
ą	-1341
±	-1342
ţ	-1343
ʻ	-1344
ʼ	-1345
ṟ	-1346
„	-1347
‡	-1348
η	-1349
ṯ	-1350
ṭ	-1351
ả	-1352
ḥ	-1353
ệ	-1354
ɪ	-1355
ー	-1356
ɛ	-1357
÷	-1358
	-1359
ė	-1360
ź	-1361
ư	-1362
®	-1363
>	-1364
̶	-1365
ĕ	-1366
ồ	-1367
»	-1368
†	-1369
ʿ	-1370
«	-1371
ɑ	-1372
ṉ	-1373
ṣ	-1374
‭	-1375
ň	-1376
ọ	-1377
¦	-1378
ÿ	-1379
ů	-1380
	-1381
ǎ	-1382
་	-1383
¬	-1384
ŋ	-1385
॥	-1386
ɔ	-1387
▔	-1388
ʊ	-1389
←	-1390
ạ	-1391
	-1392
ẩ	-1393
ờ	-1394
ʾ	-1395
ũ	-1396
ế	-1397
¥	-1398
ṇ	-1399
ễ	-1400
∇	-1401
・	-1402
ứ	-1403
♭	-1404
ŭ	-1405
ʃ	-1406
α	-1407
⟨	-1408
⟩	-1409
	-1410
ŵ	-1411
ộ	-1412
ņ	-1413
ơ	-1414
ố	-1415
‐	-1416
ʒ	-1417
ν	-1418
।	-1419
ṃ	-1420
ˌ	-1421
∞	-1422
ġ	-1423
₹	-1424
█	-1425
○	-1426
ķ	-1427
ŏ	-1428
ε	-1429
ј	-1430
٤	-1431
ề	-1432
ị	-1433
<	-1434
	-1435
ƒ	-1436
‚	-1437
ĭ	-1438
ǫ	-1439
ʔ	-1440
ο	-1441
؟	-1442
١	-1443
ḍ	-1444
∴	-1445
į	-1446
ľ	-1447
ť	-1448
ŷ	-1449
ǔ	-1450
ʌ	-1451
	-1452
	-1453
ɐ	-1454
ɡ	-1455
ɣ	-1456
↑	-1457
ɾ	-1458
٥	-1459
₤	-1460
≤	-1461
ĩ	-1462
ɫ	-1463
ʁ	-1464
٢	-1465
٧	-1466
٨	-1467
།	-1468
ẓ	-1469
♯	-1470
	-1471
	-1472
	-1473
	-1474
ď	-1475
ĝ	-1476
ļ	-1477
υ	-1478
ḻ	-1479
ớ	-1480
₩	-1481
√	-1482
≥	-1483
☆	-1484
⬄	-1485
	-1486
ĥ	-1487
ǁ	-1488
ǐ	-1489
ɒ	-1490
ɦ	-1491
ʋ	-1492
ʘ	-1493
ˆ	-1494
τ	-1495
ـ	-1496
٦	-1497
१	-1498
ẻ	-1499
ụ	-1500
ữ	-1501
‍	-1502
⁂	-1503
	-1504
	-1505
ĉ	-1506
ħ	-1507
ŝ	-1508
ű	-1509
ǒ	-1510
ǝ	-1511
ɕ	-1512
ủ	-1513
ỹ	-1514
⁠	-1515
★	-1516
☺	-1517
✡	-1518
	-1519
	-1520
ɯ	-1521
ɲ	-1522
ɹ	-1523
ʏ	-1524
٩	-1525
ḷ	-1526
ṓ	-1527
ậ	-1528
ắ	-1529
ẹ	-1530
∘	-1531
≈	-1532
⋅	-1533
	-1534
	-1535
ĵ	-1536
ǂ	-1537
ǚ	-1538
ǵ	-1539
ɨ	-1540
ɩ	-1541
˧	-1542
ව	-1543
ḫ	-1544
ṅ	-1545
ầ	-1546
ẽ	-1547
ổ	-1548
ỳ	-1549
‖	-1550
※	-1551
₱	-1552
₵	-1553
≠	-1554
●	-1555
♥	-1556
、	-1557
ƌ	-1558
ȝ	-1559
ɘ	-1560
ɜ	-1561
ʇ	-1562
ʕ	-1563
ˊ	-1564
ˋ	-1565
״	-1566
ṛ	-1567
ấ	-1568
ằ	-1569
ỉ	-1570
ử	-1571
‬	-1572
‰	-1573
∂	-1574
∈	-1575
∗	-1576
∝	-1577
≡	-1578
「	-1579
」	-1580
	-1581
	-1582
ŧ	-1583
ƿ	-1584
ǣ	-1585
ǧ	-1586
ǩ	-1587
ɂ	-1588
ɳ	-1589
ʂ	-1590
ʈ	-1591
ʎ	-1592
ʐ	-1593
ʹ	-1594
ˇ	-1595
а	-1596
б	-1597
с	-1598
३	-1599
४	-1600
५	-1601
ය	-1602
ා	-1603
ේ	-1604
၁	-1605
ḿ	-1606
ṁ	-1607
ṙ	-1608
ẏ	-1609
ể	-1610
ở	-1611
ự	-1612
⊙	-1613
◉	-1614
☃	-1615
☻	-1616
✅	-1617
✙	-1618
❌	-1619
〜	-1620
ꜧ	-1621
ꞯ	-1622
	-1623
ģ	-1624
ĺ	-1625
ŕ	-1626
ų	-1627
ƅ	-1628
ǃ	-1629
ǹ	-1630
ȁ	-1631
ȃ	-1632
ɖ	-1633
ɗ	-1634
ɝ	-1635
ɟ	-1636
ɥ	-1637
ɮ	-1638
ɶ	-1639
ɷ	-1640
ɸ	-1641
ɺ	-1642
ʑ	-1643
ʙ	-1644
ʝ	-1645
ʟ	-1646
ʧ	-1647
ʽ	-1648
ˀ	-1649
˥	-1650
˦	-1651
˩	-1652
̈	-1653
β	-1654
й	-1655
к	-1656
м	-1657
о	-1658
у	-1659
ш	-1660
я	-1661
־	-1662
۞	-1663
۰	-1664
०	-1665
६	-1666
७	-1667
८	-1668
९	-1669
ආ	-1670
ජ	-1671
බ	-1672
ු	-1673
ෝ	-1674
၀	-1675
၃	-1676
၄	-1677
၅	-1678
၆	-1679
၇	-1680
၈	-1681
၉	-1682
᚛	-1683
᚜	-1684
០	-1685
១	-1686
២	-1687
៣	-1688
៤	-1689
៥	-1690
៦	-1691
៧	-1692
៨	-1693
៩	-1694
ḋ	-1695
ḏ	-1696
ḗ	-1697
ḡ	-1698
ḩ	-1699
ḱ	-1700
ḵ	-1701
ṗ	-1702
ṫ	-1703
ṳ	-1704
ṹ	-1705
ẵ	-1706
ặ	-1707
ỏ	-1708
ỗ	-1709
ợ	-1710
‿	-1711
⁣	-1712
₣	-1713
₿	-1714
↊	-1715
↋	-1716
∉	-1717
∼	-1718
≒	-1719
▼	-1720
☉	-1721
☐	-1722
☚	-1723
☛	-1724
☣	-1725
☭	-1726
☯	-1727
♄	-1728
♑	-1729
♒	-1730
♠	-1731
♡	-1732
♮	-1733
✚	-1734
❤	-1735
⬱	-1736
ⱡ	-1737
。	-1738
〉	-1739
