<unk>	0
<s>	0
</s>	0
<pad>	0
<0x00>	0
<0x01>	0
<0x02>	0
<0x03>	0
<0x04>	0
<0x05>	0
<0x06>	0
<0x07>	0
<0x08>	0
<0x09>	0
<0x0A>	0
<0x0B>	0
<0x0C>	0
<0x0D>	0
<0x0E>	0
<0x0F>	0
<0x10>	0
<0x11>	0
<0x12>	0
<0x13>	0
<0x14>	0
<0x15>	0
<0x16>	0
<0x17>	0
<0x18>	0
<0x19>	0
<0x1A>	0
<0x1B>	0
<0x1C>	0
<0x1D>	0
<0x1E>	0
<0x1F>	0
<0x20>	0
<0x21>	0
<0x22>	0
<0x23>	0
<0x24>	0
<0x25>	0
<0x26>	0
<0x27>	0
<0x28>	0
<0x29>	0
<0x2A>	0
<0x2B>	0
<0x2C>	0
<0x2D>	0
<0x2E>	0
<0x2F>	0
<0x30>	0
<0x31>	0
<0x32>	0
<0x33>	0
<0x34>	0
<0x35>	0
<0x36>	0
<0x37>	0
<0x38>	0
<0x39>	0
<0x3A>	0
<0x3B>	0
<0x3C>	0
<0x3D>	0
<0x3E>	0
<0x3F>	0
<0x40>	0
<0x41>	0
<0x42>	0
<0x43>	0
<0x44>	0
<0x45>	0
<0x46>	0
<0x47>	0
<0x48>	0
<0x49>	0
<0x4A>	0
<0x4B>	0
<0x4C>	0
<0x4D>	0
<0x4E>	0
<0x4F>	0
<0x50>	0
<0x51>	0
<0x52>	0
<0x53>	0
<0x54>	0
<0x55>	0
<0x56>	0
<0x57>	0
<0x58>	0
<0x59>	0
<0x5A>	0
<0x5B>	0
<0x5C>	0
<0x5D>	0
<0x5E>	0
<0x5F>	0
<0x60>	0
<0x61>	0
<0x62>	0
<0x63>	0
<0x64>	0
<0x65>	0
<0x66>	0
<0x67>	0
<0x68>	0
<0x69>	0
<0x6A>	0
<0x6B>	0
<0x6C>	0
<0x6D>	0
<0x6E>	0
<0x6F>	0
<0x70>	0
<0x71>	0
<0x72>	0
<0x73>	0
<0x74>	0
<0x75>	0
<0x76>	0
<0x77>	0
<0x78>	0
<0x79>	0
<0x7A>	0
<0x7B>	0
<0x7C>	0
<0x7D>	0
<0x7E>	0
<0x7F>	0
<0x80>	0
<0x81>	0
<0x82>	0
<0x83>	0
<0x84>	0
<0x85>	0
<0x86>	0
<0x87>	0
<0x88>	0
<0x89>	0
<0x8A>	0
<0x8B>	0
<0x8C>	0
<0x8D>	0
<0x8E>	0
<0x8F>	0
<0x90>	0
<0x91>	0
<0x92>	0
<0x93>	0
<0x94>	0
<0x95>	0
<0x96>	0
<0x97>	0
<0x98>	0
<0x99>	0
<0x9A>	0
<0x9B>	0
<0x9C>	0
<0x9D>	0
<0x9E>	0
<0x9F>	0
<0xA0>	0
<0xA1>	0
<0xA2>	0
<0xA3>	0
<0xA4>	0
<0xA5>	0
<0xA6>	0
<0xA7>	0
<0xA8>	0
<0xA9>	0
<0xAA>	0
<0xAB>	0
<0xAC>	0
<0xAD>	0
<0xAE>	0
<0xAF>	0
<0xB0>	0
<0xB1>	0
<0xB2>	0
<0xB3>	0
<0xB4>	0
<0xB5>	0
<0xB6>	0
<0xB7>	0
<0xB8>	0
<0xB9>	0
<0xBA>	0
<0xBB>	0
<0xBC>	0
<0xBD>	0
<0xBE>	0
<0xBF>	0
<0xC0>	0
<0xC1>	0
<0xC2>	0
<0xC3>	0
<0xC4>	0
<0xC5>	0
<0xC6>	0
<0xC7>	0
<0xC8>	0
<0xC9>	0
<0xCA>	0
<0xCB>	0
<0xCC>	0
<0xCD>	0
<0xCE>	0
<0xCF>	0
<0xD0>	0
<0xD1>	0
<0xD2>	0
<0xD3>	0
<0xD4>	0
<0xD5>	0
<0xD6>	0
<0xD7>	0
<0xD8>	0
<0xD9>	0
<0xDA>	0
<0xDB>	0
<0xDC>	0
<0xDD>	0
<0xDE>	0
<0xDF>	0
<0xE0>	0
<0xE1>	0
<0xE2>	0
<0xE3>	0
<0xE4>	0
<0xE5>	0
<0xE6>	0
<0xE7>	0
<0xE8>	0
<0xE9>	0
<0xEA>	0
<0xEB>	0
<0xEC>	0
<0xED>	0
<0xEE>	0
<0xEF>	0
<0xF0>	0
<0xF1>	0
<0xF2>	0
<0xF3>	0
<0xF4>	0
<0xF5>	0
<0xF6>	0
<0xF7>	0
<0xF8>	0
<0xF9>	0
<0xFA>	0
<0xFB>	0
<0xFC>	0
<0xFD>	0
<0xFE>	0
<0xFF>	0
.	-3.03643
s	-3.22328
:	-3.51005
▁*	-3.56949
,	-3.64133
▁the	-3.74754
'	-3.98389
▁a	-4.17496
t	-4.17929
mot	-4.35621
▁i	-4.38458
▁to	-4.40422
▁you	-4.42069
▁and	-4.43641
?	-4.49304
chi	-4.55734
▁it	-4.69308
▁of	-4.70929
▁in	-4.73811
ed	-4.90677
▁that	-4.91294
n	-4.97448
d	-5.00807
ing	-5.02036
y	-5.18894
m	-5.21704
▁he	-5.22304
e	-5.28787
▁is	-5.30242
▁	-5.32863
▁was	-5.34185
re	-5.42179
▁for	-5.48255
▁=	-5.49444
▁on	-5.5186
▁[	-5.52596
▁we	-5.55816
a	-5.56641
▁what	-5.56648
er	-5.58947
i	-5.62089
ll	-5.64544
▁be	-5.66635
r	-5.66639
ly	-5.68913
▁"	-5.72431
▁do	-5.74363
▁no	-5.75839
]	-5.76892
!	-5.77169
▁me	-5.78153
▁this	-5.79115
c	-5.80845
▁with	-5.82215
o	-5.89023
u	-5.93186
▁they	-5.9502
▁have	-5.95273
▁there	-5.95933
▁not	-5.98711
▁she	-5.98712
▁are	-5.991
▁-	-5.99788
▁so	-6.00973
-	-6.01452
▁can	-6.02764
le	-6.03127
p	-6.03523
▁at	-6.05741
▁but	-6.06506
ve	-6.06775
▁one	-6.07218
▁s	-6.07337
in	-6.11009
▁his	-6.13309
▁b	-6.17668
al	-6.18928
▁all	-6.20653
g	-6.21716
w	-6.22036
▁as	-6.22645
l	-6.25073
▁her	-6.25109
...	-6.25308
▁go	-6.26206
▁oh	-6.26271
▁yeah	-6.26935
▁my	-6.27227
▁know	-6.28345
▁don	-6.28972
▁had	-6.32385
▁like	-6.33269
▁up	-6.33342
▁your	-6.33451
▁re	-6.37126
ck	-6.37509
b	-6.39438
inv	-6.43412
▁de	-6.47573
or	-6.48165
▁from	-6.4879
▁an	-6.49519
▁out	-6.50387
▁see	-6.51868
ar	-6.53853
▁here	-6.54964
k	-6.5526
▁by	-6.55822
ri	-6.56964
▁get	-6.57013
▁him	-6.58529
ch	-6.58928
▁were	-6.60901
▁just	-6.61387
f	-6.6176
h	-6.62362
▁if	-6.6317
1	-6.63374
▁or	-6.63553
▁now	-6.63701
▁right	-6.64944
th	-6.65041
an	-6.65527
▁who	-6.65551
es	-6.65659
la	-6.66342
▁well	-6.6724
se	-6.67904
"	-6.70314
▁when	-6.70582
▁about	-6.71218
ne	-6.72021
▁think	-6.72533
en	-6.73566
▁f	-6.74495
ce	-6.75141
▁some	-6.75222
ur	-6.75662
▁come	-6.78597
ra	-6.7923
▁got	-6.79692
ion	-6.80057
)	-6.80894
▁co	-6.81353
▁did	-6.81438
fat	-6.81997
il	-6.82736
▁said	-6.82982
▁(	-6.83791
▁them	-6.84333
▁then	-6.84423
li	-6.85313
▁ma	-6.85769
▁where	-6.86779
ro	-6.87144
ter	-6.87387
▁want	-6.87657
▁good	-6.882
▁look	-6.89485
▁will	-6.89657
▁e	-6.89899
;	-6.90898
▁would	-6.91139
te	-6.92035
▁yes	-6.93035
on	-6.93652
▁time	-6.94443
lo	-6.95247
ke	-6.96755
▁put	-6.97865
▁how	-6.99212
it	-7.00295
▁xxx	-7.00783
▁okay	-7.01595
].	-7.02051
▁“	-7.03256
▁little	-7.03955
▁say	-7.04589
▁down	-7.04792
0	-7.05197
ry	-7.05492
▁has	-7.0653
▁could	-7.07441
▁back	-7.07824
2	-7.07825
▁ro	-7.08144
x	-7.08277
▁going	-7.08327
▁more	-7.08425
’	-7.08528
▁p	-7.08748
▁been	-7.09105
▁po	-7.09827
ation	-7.10001
▁sa	-7.10348
ent	-7.10445
▁over	-7.10667
▁o	-7.10883
de	-7.11156
▁two	-7.11354
na	-7.11428
▁very	-7.11461
ic	-7.11576
▁which	-7.12282
."	-7.12848
us	-7.13144
▁take	-7.14724
▁st	-7.15462
ie	-7.15589
▁19	-7.16832
▁their	-7.1712
el	-7.1764
▁car	-7.18364
▁la	-7.18432
▁let	-7.19949
▁other	-7.20003
▁con	-7.20348
ma	-7.2037
▁pa	-7.20658
z	-7.21385
9	-7.22219
▁make	-7.23319
ad	-7.24076
ho	-7.24234
▁g	-7.24301
▁t	-7.24471
me	-7.2512
▁ra	-7.25639
▁sp	-7.2605
▁'	-7.2674
▁man	-7.27739
sh	-7.27795
vi	-7.27932
at	-7.30281
▁ba	-7.31402
▁ho	-7.32542
▁c	-7.32615
3	-7.3324
▁mi	-7.34161
▁mo	-7.34838
as	-7.35162
▁why	-7.35558
ty	-7.35689
ment	-7.36027
est	-7.36165
▁us	-7.37292
ate	-7.37742
▁off	-7.38201
,"	-7.38917
mp	-7.38975
no	-7.39289
par	-7.39525
▁any	-7.39588
▁tell	-7.39652
▁into	-7.39732
▁play	-7.40042
v	-7.40095
ol	-7.40521
is	-7.40702
et	-7.40835
▁way	-7.4087
pe	-7.41506
▁people	-7.42277
ci	-7.43233
ta	-7.43661
6	-7.44693
ha	-7.44739
▁lo	-7.45065
ir	-7.45547
4	-7.45845
▁first	-7.46261
5	-7.46271
▁work	-7.46427
▁too	-7.47085
▁ta	-7.47093
▁ha	-7.47315
▁because	-7.47754
▁after	-7.49193
▁mean	-7.49319
▁day	-7.49349
ers	-7.49798
▁20	-7.50004
▁gonna	-7.5117
am	-7.51455
ant	-7.51994
▁li	-7.521
▁bo	-7.52157
▁da	-7.52252
▁uh	-7.52634
--	-7.53308
7	-7.53456
ca	-7.53908
to	-7.5436
▁un	-7.54694
▁hi	-7.54992
▁our	-7.55137
8	-7.56484
ard	-7.57082
▁only	-7.57085
▁mr	-7.57305
▁ex	-7.57462
ous	-7.57521
▁need	-7.57777
▁hand	-7.5851
ow	-7.59066
tion	-7.59307
▁give	-7.59562
▁should	-7.6008
▁ri	-7.60642
▁these	-7.60672
▁di	-7.60886
the	-7.61006
▁ca	-7.6148
ist	-7.61516
co	-7.62219
▁fa	-7.62485
ge	-7.62825
▁k	-7.6286
age	-7.62872
▁pi	-7.63207
▁er	-7.63311
▁su	-7.63469
ted	-7.63543
▁new	-7.63559
ul	-7.63601
▁didn	-7.63606
man	-7.63985
and	-7.64486
▁boy	-7.64653
un	-7.64955
▁something	-7.65254
▁pro	-7.65552
▁w	-7.65562
▁big	-7.65573
▁really	-7.65734
▁again	-7.6597
ld	-7.67554
▁much	-7.6781
les	-7.68242
▁d	-7.68287
ru	-7.68425
▁th	-7.69155
▁na	-7.69373
▁even	-7.69737
he	-7.69903
id	-7.6992
▁made	-7.70677
mi	-7.70881
▁long	-7.70932
▁dis	-7.71453
ff	-7.71573
ver	-7.71625
ng	-7.71793
um	-7.72613
pp	-7.7348
▁2	-7.73633
op	-7.74088
bo	-7.74096
▁before	-7.7422
▁se	-7.74245
▁than	-7.7577
▁pe	-7.76661
▁came	-7.76772
lu	-7.77601
ies	-7.77771
ni	-7.77903
di	-7.78024
▁away	-7.78716
mo	-7.7894
nd	-7.79106
▁du	-7.79494
▁old	-7.80246
▁three	-7.81007
▁never	-7.8118
ia	-7.81288
▁love	-7.81371
▁house	-7.81475
▁girl	-7.81475
▁name	-7.81503
▁ki	-7.82411
▁home	-7.82469
▁ne	-7.82517
▁ga	-7.82567
▁does	-7.82808
end	-7.82847
▁um	-7.82981
▁went	-7.83046
ward	-7.8338
▁those	-7.84252
ful	-7.84656
ence	-7.84864
▁thank	-7.84964
▁great	-7.85353
▁gra	-7.85438
▁pre	-7.85725
ba	-7.86875
po	-7.87237
▁mar	-7.88375
ud	-7.89058
nk	-7.89188
▁help	-7.89378
▁cl	-7.89379
able	-7.89408
▁ti	-7.8942
▁also	-7.89779
j	-7.89872
▁wanna	-7.89892
▁dr	-7.89908
mb	-7.9
ton	-7.9028
▁1	-7.90627
_	-7.90907
cu	-7.91046
be	-7.91099
ance	-7.91497
ity	-7.91714
▁another	-7.91783
go	-7.92616
▁thought	-7.9264
▁vi	-7.92737
▁must	-7.93027
▁le	-7.93281
ian	-7.93282
▁many	-7.93459
▁thing	-7.94241
▁book	-7.94434
und	-7.94607
tic	-7.94618
ting	-7.94836
▁am	-7.95196
▁place	-7.95273
▁eat	-7.95426
▁find	-7.95483
▁may	-7.95948
▁part	-7.96134
▁doing	-7.9629
▁through	-7.96463
▁still	-7.96915
ight	-7.96915
ster	-7.97164
▁show	-7.97343
▁head	-7.97651
exp	-7.97736
add	-7.97931
/	-7.98125
▁ju	-7.99078
ated	-7.99172
?"	-7.99285
▁last	-7.99446
▁things	-7.99723
▁wi	-7.99741
ture	-7.9995
gg	-7.99976
▁ar	-8.00027
▁jo	-8.00276
ph	-8.00587
▁ru	-8.00753
▁chi	-8.00808
▁please	-8.00893
son	-8.01311
▁sha	-8.01498
ther	-8.01514
▁won	-8.01809
▁bit	-8.0289
▁night	-8.03386
do	-8.03949
▁gu	-8.04061
ish	-8.05005
▁baby	-8.05874
▁found	-8.06114
hi	-8.06509
▁m	-8.06613
▁mm	-8.07423
▁fe	-8.07741
der	-8.07949
ide	-8.0811
im	-8.08536
▁pri	-8.08584
ine	-8.08713
▁tri	-8.09291
▁wo	-8.09435
▁wa	-8.09443
da	-8.09589
▁tra	-8.09677
▁%	-8.09786
pa	-8.09909
ep	-8.09984
▁lot	-8.10022
▁might	-8.10024
▁called	-8.1008
▁va	-8.10134
ugh	-8.10969
ect	-8.11078
▁mother	-8.11374
▁sure	-8.11398
▁most	-8.11658
▁water	-8.11762
▁miss	-8.11794
▁done	-8.1229
▁fi	-8.123
▁live	-8.12425
ling	-8.12562
▁friend	-8.12819
▁war	-8.12916
land	-8.13314
▁under	-8.13645
▁wait	-8.14173
▁open	-8.14221
▁cha	-8.14368
if	-8.14641
▁around	-8.15372
▁mhm	-8.1567
▁nice	-8.15754
vo	-8.1582
▁je	-8.1594
▁si	-8.16112
ze	-8.16188
low	-8.16213
▁better	-8.1699
▁isn	-8.17361
.”	-8.17563
▁turn	-8.17648
tle	-8.1765
▁keep	-8.17843
▁four	-8.17893
▁life	-8.18559
▁kind	-8.18859
ok	-8.18933
▁state	-8.19392
▁own	-8.19631
we	-8.20497
for	-8.2066
▁hu	-8.20898
▁while	-8.20977
ven	-8.21219
▁ah	-8.21238
▁talk	-8.21368
▁sw	-8.21498
▁end	-8.21564
▁comp	-8.21739
▁anything	-8.2217
ger	-8.2229
ak	-8.22404
▁far	-8.22415
ical	-8.22631
one	-8.22835
gi	-8.23297
▁win	-8.23332
per	-8.23435
▁feel	-8.23464
▁school	-8.23653
red	-8.23998
▁erm	-8.24609
▁sto	-8.25217
bi	-8.25559
▁te	-8.25882
▁men	-8.25912
ness	-8.26196
ber	-8.26263
va	-8.26535
▁call	-8.2691
▁doesn	-8.26965
▁al	-8.27042
▁such	-8.27078
min	-8.27131
▁years	-8.27469
▁next	-8.2783
dge	-8.2788
▁father	-8.27973
che	-8.28017
▁use	-8.28057
▁move	-8.2833
▁cre	-8.28483
▁shall	-8.28515
▁hey	-8.28538
▁every	-8.28709
wa	-8.28845
ition	-8.28868
▁u	-8.29152
▁el	-8.2929
led	-8.29318
▁used	-8.2949
▁same	-8.29622
,”	-8.30065
▁world	-8.30117
▁che	-8.30299
pi	-8.30448
▁watch	-8.30493
▁hold	-8.30603
▁room	-8.30651
▁else	-8.30707
tra	-8.31594
▁mu	-8.31716
laughs	-8.31871
my	-8.32022
▁3	-8.32135
bb	-8.32608
oo	-8.33135
!"	-8.33159
▁being	-8.33954
▁mummy	-8.34082
ving	-8.34148
▁bar	-8.34437
▁sta	-8.34719
ary	-8.34828
ble	-8.34863
▁app	-8.35153
▁plan	-8.35383
▁always	-8.35501
▁left	-8.36116
ga	-8.36207
▁nothing	-8.36698
▁high	-8.36721
▁saw	-8.36801
ries	-8.36924
▁leave	-8.3742
▁ja	-8.37975
sis	-8.38353
▁told	-8.38413
▁read	-8.38612
bro	-8.39361
▁sh	-8.39391
▁door	-8.39765
▁ever	-8.39827
▁word	-8.39848
▁ni	-8.39955
▁set	-8.39979
ap	-8.40119
▁sit	-8.40256
▁bri	-8.40407
▁hard	-8.40526
▁bra	-8.40769
day	-8.40813
▁looks	-8.41275
ring	-8.41558
▁lu	-8.41621
▁en	-8.41774
▁minute	-8.41906
▁ball	-8.42535
▁side	-8.42862
▁cri	-8.42985
▁huh	-8.42995
▁ste	-8.43028
▁close	-8.43095
▁sorry	-8.43118
▁remember	-8.43515
int	-8.43698
▁daddy	-8.44347
▁tea	-8.44392
▁five	-8.44437
by	-8.44635
ner	-8.44782
▁arm	-8.44796
▁fo	-8.45081
▁v	-8.45131
▁near	-8.45205
▁point	-8.4565
▁stop	-8.45656
▁both	-8.45689
▁l	-8.4591
▁sea	-8.45953
▁walk	-8.45984
▁fire	-8.46026
▁gone	-8.4636
ice	-8.46394
▁sing	-8.46747
▁money	-8.46866
▁coming	-8.46916
▁care	-8.46918
▁per	-8.46951
▁though	-8.4697
▁hear	-8.47037
ise	-8.47054
▁act	-8.47577
▁gi	-8.47852
ever	-8.47888
▁z	-8.4811
▁enough	-8.48138
▁hm	-8.48284
rr	-8.48352
ten	-8.48365
▁maybe	-8.48395
▁face	-8.48512
em	-8.49296
▁young	-8.49406
you	-8.49407
▁took	-8.49574
ey	-8.49706
▁start	-8.49895
▁stand	-8.49947
▁number	-8.50015
▁box	-8.50307
tea	-8.5077
rri	-8.50778
▁cor	-8.50904
▁h	-8.50952
row	-8.5102
▁cra	-8.51097
▁morning	-8.51252
▁pu	-8.51665
lie	-8.5182
cent	-8.52013
cy	-8.52014
▁char	-8.52511
▁goes	-8.52565
▁until	-8.52622
▁light	-8.52658
▁six	-8.5306
fa	-8.53276
ach	-8.53411
tive	-8.53429
▁stay	-8.53593
▁once	-8.53746
mon	-8.53861
▁ten	-8.53975
▁pass	-8.54223
00	-8.54318
▁second	-8.54459
▁try	-8.54657
▁course	-8.54676
▁sir	-8.54735
▁tu	-8.54921
mar	-8.54973
less	-8.55028
oh	-8.55165
▁dog	-8.55259
▁year	-8.55282
▁noise	-8.55284
▁red	-8.55286
▁quite	-8.55481
ah	-8.55593
▁best	-8.55614
▁_	-8.55784
▁god	-8.5622
fi	-8.5629
▁dear	-8.56368
▁eyes	-8.56939
▁pick	-8.57073
▁air	-8.57686
ka	-8.57896
▁city	-8.58405
▁cho	-8.58547
▁sound	-8.58575
▁j	-8.58964
▁today	-8.59153
▁game	-8.59177
▁child	-8.59482
her	-8.59633
▁guy	-8.59645
▁yet	-8.59864
▁qu	-8.60065
▁each	-8.60135
▁small	-8.60389
qu	-8.60528
▁looking	-8.60644
▁asked	-8.60824
▁gen	-8.60965
▁round	-8.61126
▁few	-8.613
▁grand	-8.61369
▁together	-8.61393
ign	-8.6179
▁different	-8.61873
▁person	-8.61959
gra	-8.62137
▁run	-8.62167
▁blue	-8.62336
▁soon	-8.62345
but	-8.62426
▁ask	-8.62597
▁week	-8.62851
▁laugh	-8.62895
▁ka	-8.6312
wi	-8.63386
▁mind	-8.63463
ial	-8.64043
▁sleep	-8.64182
▁har	-8.64277
▁seen	-8.64723
tain	-8.64985
our	-8.65094
▁children	-8.65094
▁fall	-8.65177
▁getting	-8.65422
▁♪	-8.65634
▁without	-8.65746
▁believe	-8.65884
lt	-8.66434
ual	-8.66448
▁everything	-8.66487
ang	-8.66584
ron	-8.66615
ip	-8.66645
▁cat	-8.66827
▁em	-8.6688
▁bad	-8.66883
▁train	-8.66984
▁black	-8.67188
serv	-8.67327
▁sec	-8.67591
com	-8.67859
▁change	-8.68156
▁bur	-8.68234
▁ready	-8.68429
▁vo	-8.68446
▁pat	-8.68498
ag	-8.68591
▁north	-8.6875
▁follow	-8.68846
▁mommy	-8.68986
▁later	-8.69142
▁between	-8.69162
▁picture	-8.69177
▁ke	-8.69305
▁bed	-8.69793
▁heard	-8.70218
iv	-8.70717
▁since	-8.70845
cause	-8.70945
mch	-8.71085
▁ce	-8.71089
▁bring	-8.71361
▁ran	-8.71558
▁half	-8.71712
▁white	-8.7264
▁story	-8.72706
▁upon	-8.72795
▁rest	-8.7302
king	-8.73022
▁having	-8.73279
▁himself	-8.73453
lf	-8.73551
up	-8.73635
▁hafta	-8.7368
▁bus	-8.73987
▁4	-8.74016
que	-8.74491
lic	-8.74716
▁jack	-8.75194
▁happened	-8.75262
▁alright	-8.75269
light	-8.75384
▁bi	-8.75449
▁known	-8.75491
▁cut	-8.75881
▁wonder	-8.7595
▁ear	-8.76032
▁sun	-8.76052
▁american	-8.7614
▁color	-8.76312
▁ya	-8.7633
▁table	-8.76661
▁star	-8.76686
qui	-8.76704
▁real	-8.76769
▁18	-8.76811
▁pretty	-8.77048
gma	-8.77656
▁matter	-8.77721
▁along	-8.77836
▁listen	-8.77997
▁tree	-8.78131
▁wanted	-8.78517
ite	-8.78546
▁direct	-8.78605
▁john	-8.79019
yes	-8.7903
▁sort	-8.79213
▁knew	-8.79283
cha	-8.79409
▁green	-8.79628
▁hello	-8.79837
▁south	-8.8004
▁piece	-8.80063
▁talking	-8.80109
▁heart	-8.80268
▁cup	-8.80448
act	-8.8064
▁sco	-8.80881
ship	-8.8101
▁happen	-8.81063
▁looked	-8.81152
▁horse	-8.81472
▁fla	-8.81497
▁haven	-8.8172
▁hope	-8.82038
rn	-8.82201
▁mon	-8.82235
▁large	-8.82279
▁answer	-8.82585
where	-8.82942
—	-8.8302
▁hour	-8.83165
▁united	-8.83238
▁exp	-8.83284
bu	-8.83616
▁making	-8.8363
▁ye	-8.83787
gu	-8.83825
▁moment	-8.83842
▁line	-8.84172
▁family	-8.84228
▁idea	-8.8433
▁kid	-8.84434
ctor	-8.84463
▁drink	-8.8447
▁against	-8.84471
▁town	-8.84632
▁chair	-8.8464
▁order	-8.84681
▁actually	-8.84937
out	-8.85687
▁music	-8.85781
▁speak	-8.8582
▁dad	-8.85963
▁gave	-8.8628
▁5	-8.86596
▁finish	-8.86647
▁office	-8.8668
nan	-8.86771
▁fine	-8.86994
▁party	-8.87065
▁land	-8.87534
▁sur	-8.87743
▁paper	-8.88108
▁during	-8.88145
of	-8.8817
▁king	-8.88186
▁fun	-8.88277
▁scr	-8.88343
▁draw	-8.88487
port	-8.88549
way	-8.88586
▁leg	-8.88885
▁movie	-8.89034
▁brother	-8.89094
lin	-8.89407
▁hot	-8.89873
what	-8.90044
▁meet	-8.90229
▁bear	-8.90375
val	-8.90485
▁mark	-8.90677
▁conf	-8.90783
▁born	-8.90941
con	-8.9098
▁voice	-8.91027
gan	-8.9124
▁song	-8.91517
▁reach	-8.91609
▁gre	-8.91894
▁return	-8.91933
▁team	-8.91983
men	-8.92158
▁build	-8.92243
▁whole	-8.92384
▁ob	-8.92533
▁hat	-8.92779
?”	-8.92894
ator	-8.93171
▁food	-8.93206
▁died	-8.93635
▁almost	-8.93877
+	-8.93934
well	-8.93978
▁full	-8.94114
▁eight	-8.94193
▁happy	-8.94309
▁count	-8.94423
▁mom	-8.94521
▁seven	-8.94576
▁pen	-8.94642
é	-8.94745
▁started	-8.94954
▁understand	-8.95112
▁trying	-8.95308
www	-8.95663
press	-8.95762
▁sign	-8.9629
▁wouldn	-8.96404
▁pull	-8.96791
▁animal	-8.96835
▁floor	-8.9698
▁interest	-8.97022
▁mine	-8.9706
▁pay	-8.97167
▁present	-8.97655
▁bob	-8.97676
▁age	-8.97754
▁wrong	-8.98057
▁quick	-8.98074
▁suppose	-8.98391
▁already	-8.98641
▁probably	-8.99214
▁saying	-8.99294
zz	-8.99324
▁guess	-8.99331
▁country	-8.99684
▁job	-8.99736
▁hair	-8.9978
▁feet	-9.00133
▁bill	-9.00372
▁question	-9.00532
▁playing	-9.00662
▁nine	-9.00764
▁ge	-9.01146
nny	-9.01317
▁cook	-9.01584
▁rock	-9.01723
▁woman	-9.01831
▁fish	-9.0213
ex	-9.02222
▁wish	-9.02253
▁lead	-9.02503
▁sent	-9.03213
igh	-9.03504
▁lost	-9.03606
▁case	-9.03732
▁became	-9.03781
▁poor	-9.04198
▁flo	-9.04246
▁thomas	-9.04335
▁broke	-9.04689
▁grow	-9.04691
▁lady	-9.04764
ating	-9.0479
▁began	-9.04791
▁front	-9.04987
▁short	-9.05114
▁bird	-9.05145
▁throw	-9.05442
||	-9.05515
▁doctor	-9.06067
▁sometimes	-9.06153
▁certain	-9.06193
▁gotta	-9.06244
▁free	-9.06553
spect	-9.06795
gen	-9.06815
▁fight	-9.07264
▁behind	-9.07569
▁hundred	-9.07574
▁letter	-9.0795
▁boat	-9.08011
ja	-9.08051
▁drive	-9.08068
▁record	-9.08245
▁page	-9.08297
▁group	-9.08515
▁late	-9.08926
▁6	-9.09062
rk	-9.09298
▁write	-9.09381
▁power	-9.09381
room	-9.09496
▁fact	-9.09583
▁–	-9.09991
▁mum	-9.10095
▁outside	-9.1024
▁member	-9.1027
▁captain	-9.10581
ju	-9.10715
▁ski	-9.1115
▁comm	-9.11233
▁brought	-9.11416
▁law	-9.11628
ities	-9.11628
huh	-9.12154
▁sweet	-9.12225
▁county	-9.12577
▁month	-9.12591
▁dead	-9.12623
field	-9.12674
▁stuff	-9.12983
that	-9.13022
▁sister	-9.13258
▁national	-9.13336
sure	-9.13827
▁wood	-9.13916
▁road	-9.14111
▁def	-9.1428
▁stick	-9.14348
▁break	-9.14464
▁appear	-9.14516
▁river	-9.14657
▁clear	-9.14731
▁scar	-9.14974
▁seemed	-9.15474
▁learn	-9.15592
▁hurt	-9.15663
▁10	-9.1594
▁cu	-9.16068
▁7	-9.16104
▁step	-9.16283
▁turned	-9.16412
▁sub	-9.16412
▁business	-9.16855
▁however	-9.17125
▁death	-9.17231
▁problem	-9.17259
cul	-9.1765
▁someone	-9.17654
▁general	-9.17749
▁window	-9.18071
▁often	-9.18399
▁8	-9.18554
▁beautiful	-9.18625
▁cry	-9.18827
▁pra	-9.18914
▁cro	-9.18917
▁main	-9.19039
”	-9.19071
▁dark	-9.19194
▁whi	-9.19772
▁buy	-9.19829
▁taking	-9.20166
▁low	-9.20304
▁fair	-9.2055
▁twenty	-9.20796
▁cur	-9.20818
▁myself	-9.20821
▁cover	-9.20855
▁fast	-9.20906
unk	-9.20971
▁early	-9.20989
▁inside	-9.21321
▁begin	-9.21807
▁fell	-9.2202
▁dress	-9.22069
▁camp	-9.22397
▁german	-9.22468
▁shi	-9.22541
▁ship	-9.22672
!”	-9.23122
▁push	-9.23218
▁cause	-9.23245
▁touch	-9.23316
▁yourself	-9.23342
▁less	-9.23409
▁trans	-9.23443
▁cold	-9.23505
ative	-9.23706
▁ring	-9.23883
▁east	-9.2406
▁rather	-9.24192
▁tro	-9.24532
▁yellow	-9.24613
▁jump	-9.24695
▁cap	-9.24717
head	-9.24948
▁true	-9.25113
▁yu	-9.25126
ible	-9.25264
▁perhaps	-9.2548
han	-9.25508
▁reason	-9.2595
▁till	-9.25977
▁class	-9.26232
▁wife	-9.26266
▁strong	-9.26755
gue	-9.26922
▁felt	-9.27113
▁brown	-9.2713
000	-9.2731
▁milk	-9.27315
▁base	-9.2735
▁alone	-9.27487
childes	-9.27495
▁funny	-9.28283
▁march	-9.28485
▁trouble	-9.28554
line	-9.28831
duc	-9.28865
▁either	-9.28948
▁wall	-9.29135
▁enter	-9.29614
▁nu	-9.29699
▁chance	-9.29975
▁women	-9.30409
▁company	-9.30466
▁stra	-9.30639
born	-9.31159
▁careful	-9.31269
▁france	-9.31441
▁bag	-9.316
▁english	-9.31746
▁phil	-9.31857
▁continue	-9.31941
▁police	-9.32028
time	-9.321
▁street	-9.32168
▁become	-9.32426
▁somebody	-9.3272
▁boo	-9.32732
▁ground	-9.33108
▁body	-9.33152
▁safe	-9.33421
laugh	-9.33546
▁important	-9.33803
▁park	-9.34176
▁foot	-9.3439
▁president	-9.34748
▁several	-9.34821
▁gold	-9.34849
▁phone	-9.35515
▁across	-9.35665
▁glad	-9.36214
▁clean	-9.36764
▁final	-9.36796
▁past	-9.3688
▁least	-9.36918
▁join	-9.3747
▁dinner	-9.37718
▁visit	-9.38381
▁shop	-9.3935
▁strange	-9.39646
▁york	-9.39895
▁uhhuh	-9.39906
▁quiet	-9.40188
▁football	-9.40388
▁cross	-9.411
▁darling	-9.42216
▁#	-9.42357
▁catch	-9.42483
▁among	-9.42491
▁everybody	-9.42696
$	-9.60503
á	-9.69467
&	-9.79371
‘	-9.79596
–	-9.81459
%	-9.87417
q	-9.89822
=	-9.97145
í	-9.97615
⌈	-10.2113
⌋	-10.2209
⌉	-10.2367
⌊	-10.2373
→	-10.2895
[	-10.2898
ö	-10.3651
ü	-10.4652
~	-10.5187
(	-10.5777
è	-10.6517
ó	-10.681
`	-10.8166
¶	-10.817
*	-10.8828
ä	-11.0108
―	-11.1299
}	-11.1346
ō	-11.1993
ñ	-11.2039
°	-11.2136
♪	-11.2902
{	-11.3329
ú	-11.3355
─	-11.4822
æ	-11.4865
ç	-11.5019
â	-11.5599
ô	-11.5711
\	-11.5933
✿	-11.6174
#	-11.6751
ã	-11.7307
ā	-11.7527
|	-11.871
š	-11.9463
£	-11.96
ć	-11.9629
à	-12.0331
“	-12.0949
ø	-12.1696
•	-12.1805
ū	-12.2166
ê	-12.2268
↗	-12.2436
ł	-12.274
↫	-12.3039
@	-12.3305
ë	-12.3348
å	-12.342
č	-12.4415
î	-12.5363
♫	-12.5485
ß	-12.5808
ă	-12.6605
ş	-12.6865
§	-12.7258
ï	-12.7428
⁄	-12.7492
œ	-12.7622
ı	-12.8658
ì	-12.9079
	-12.9129
ī	-12.9206
×	-12.9361
ž	-12.9624
¡	-13.0814
¿	-13.1244
©	-13.1628
·	-13.1661
ý	-13.213
ð	-13.2408
ș	-13.2586
ń	-13.3026
€	-13.3686
−	-13.3888
ò	-13.3888
^	-13.4478
ś	-13.5151
	-13.5338
¤	-13.5872
′	-13.6227
∆	-13.6384
ř	-13.6923
þ	-13.6978
∙	-13.7261
đ	-13.7434
û	-13.7611
­	-13.8741
ğ	-13.8741
ː	-13.8741
ˈ	-13.8807
õ	-13.8874
ù	-13.9147
ě	-13.9147
⁎	-13.95
ē	-14.0243
ə	-14.0243
	-14.0964
ț	-14.1216
ż	-14.174
ő	-14.2293
İ	-14.2388
ę	-14.298
¢	-14.3082
ą	-14.3289
±	-14.3608
ţ	-14.3938
ʻ	-14.4632
„	-14.5772
ʼ	-14.5772
‡	-14.6044
η	-14.6183
ṯ	-14.6183
ả	-14.6612
ṭ	-14.6612
ḥ	-14.6759
ệ	-14.6908
ɪ	-14.7854
ー	-14.7854
ɛ	-14.802
÷	-14.819
ė	-14.8538
	-14.8538
ź	-14.8716
ư	-14.8716
®	-14.9083
>	-14.9272
ĕ	-14.986
»	-15.0485
†	-15.0485
ʿ	-15.0703
«	-15.1152
ṉ	-15.1152
ɑ	-15.1152
ṣ	-15.1152
ň	-15.1623
ọ	-15.1867
ÿ	-15.2117
¦	-15.2117
ů	-15.2117
ǎ	-15.2907
	-15.2907
་	-15.3185
¬	-15.3764
ŋ	-15.3764
॥	-15.4067
ɔ	-15.438
▔	-15.438
←	-15.4702
ʊ	-15.4702
ạ	-15.5036
	-15.5381
ʾ	-15.5738
ũ	-15.6108
ế	-15.6108
¥	-15.6493
ṇ	-15.6893
・	-15.6893
∇	-15.6893
ứ	-15.7309
♭	-15.7744
ŭ	-15.8199
ʃ	-15.8199
⟩	-15.8199
	-15.8675
ŵ	-15.8675
ộ	-15.8675
ơ	-15.9175
ố	-15.9175
‐	-15.9175
ʒ	-15.9701
ṃ	-15.9701
।	-15.9701
ν	-15.9701
ˌ	-16.0257
∞	-16.0845
ġ	-16.147
₹	-16.147
█	-16.147
○	-16.147
ε	-16.2137
٤	-16.2137
ề	-16.2137
ị	-16.2137
ŏ	-16.2137
ƒ	-16.2851
‚	-16.2851
<	-16.2851
	-16.2851
ĭ	-16.362
ǫ	-16.362
ʔ	-16.362
ο	-16.362
؟	-16.362
١	-16.362
ḍ	-16.362
∴	-16.362
į	-16.4454
ť	-16.4454
ŷ	-16.4454
ǔ	-16.4454
ʌ	-16.4454
ľ	-16.4454
↑	-16.5363
ɐ	-16.5363
ɡ	-16.5363
ɣ	-16.5363
	-16.5363
	-16.5363
٥	-16.6363
≤	-16.6363
ɾ	-16.6363
₤	-16.6363
ɫ	-16.7474
ẓ	-16.7474
٢	-16.7474
٧	-16.7474
٨	-16.7474
♯	-16.7474
ĩ	-16.7474
ʁ	-16.7474
ĝ	-16.8724
ớ	-16.8724
√	-16.8724
ď	-16.8724
ļ	-16.8724
≥	-16.8724
☆	-16.8724
⬄	-16.8724
ḻ	-16.8724
	-16.8724
	-16.8724
	-16.8724
	-16.8724
ʋ	-17.0152
	-17.0152
ǐ	-17.0152
٦	-17.0152
ụ	-17.0152
ĥ	-17.0152
ɒ	-17.0152
ˆ	-17.0152
ẻ	-17.0152
ữ	-17.0152
⁂	-17.0152
ǁ	-17.0152
ɦ	-17.0152
१	-17.0152
	-17.1819
ỹ	-17.1819
	-17.1819
ĉ	-17.1819
ħ	-17.1819
ŝ	-17.1819
ű	-17.1819
ǒ	-17.1819
ɕ	-17.1819
ủ	-17.1819
⁠	-17.1819
★	-17.1819
☺	-17.1819
✡	-17.1819
ǝ	-17.1819
٩	-17.3819
ʏ	-17.3819
ṓ	-17.3819
ắ	-17.3819
⋅	-17.3819
ɯ	-17.3819
ɲ	-17.3819
ɹ	-17.3819
ḷ	-17.3819
ậ	-17.3819
∘	-17.3819
≈	-17.3819
	-17.3819
ẹ	-17.3819
	-17.3819
	-17.6319
ǂ	-17.6319
ẽ	-17.6319
ɩ	-17.6319
	-17.6319
ĵ	-17.6319
ǚ	-17.6319
˧	-17.6319
ḫ	-17.6319
ṅ	-17.6319
ầ	-17.6319
ổ	-17.6319
ỳ	-17.6319
‖	-17.6319
※	-17.6319
₱	-17.6319
₵	-17.6319
≠	-17.6319
●	-17.6319
♥	-17.6319
、	-17.6319
ɨ	-17.6319
ව	-17.6319
ȝ	-17.9652
ʕ	-17.9652
״	-17.9652
ƌ	-17.9652
ɘ	-17.9652
ɜ	-17.9652
ʇ	-17.9652
ˊ	-17.9652
ˋ	-17.9652
ấ	-17.9652
ỉ	-17.9652
ử	-17.9652
‬	-17.9652
‰	-17.9652
∂	-17.9652
∈	-17.9652
∗	-17.9652
∝	-17.9652
≡	-17.9652
「	-17.9652
」	-17.9652
ṛ	-17.9652
ằ	-17.9652
ɳ	-18.4652
ʎ	-18.4652
ṁ	-18.4652
ƿ	-18.4652
ɂ	-18.4652
ʂ	-18.4652
ʈ	-18.4652
ʹ	-18.4652
ˇ	-18.4652
с	-18.4652
३	-18.4652
४	-18.4652
५	-18.4652
ා	-18.4652
၁	-18.4652
ḿ	-18.4652
ṙ	-18.4652
ẏ	-18.4652
ể	-18.4652
ở	-18.4652
ự	-18.4652
⊙	-18.4652
☻	-18.4652
✅	-18.4652
✙	-18.4652
〜	-18.4652
ꜧ	-18.4652
ꞯ	-18.4652
ǣ	-18.4652
◉	-18.4652
☃	-18.4652
ǧ	-18.4652
ʐ	-18.4652
ය	-18.4652
❌	-18.4652
а	-18.4652
ේ	-18.4652
б	-18.4653
	-18.4653
	-18.4653
ǩ	-19.4631
ŧ	-19.4632
ǵ	-19.4633
‍	-19.4634
ـ	-19.4635
τ	-19.4636
ʘ	-19.4637
₩	-19.4638
υ	-19.4639
།	-19.464
ј	-19.4641
ķ	-19.4642
ņ	-19.4643
⟨	-19.4644
α	-19.4645
ễ	-19.4646
ờ	-19.4647
ẩ	-19.4648
‭	-19.4649
ồ	-19.465
̶	-19.4651
ʝ	-19.4652
ɖ	-19.4652
∼	-19.4652
⬱	-19.4652
ģ	-19.4652
ĺ	-19.4652
ŕ	-19.4652
ų	-19.4652
ƅ	-19.4652
ǃ	-19.4652
ǹ	-19.4652
ȁ	-19.4652
ȃ	-19.4652
ɗ	-19.4652
ɝ	-19.4652
ɟ	-19.4652
ɥ	-19.4652
ɮ	-19.4652
ɶ	-19.4652
ɷ	-19.4652
ɺ	-19.4652
ʑ	-19.4652
ʙ	-19.4652
ʟ	-19.4652
ʧ	-19.4652
ʽ	-19.4652
ˀ	-19.4652
˥	-19.4652
˦	-19.4652
˩	-19.4652
̈	-19.4652
β	-19.4652
й	-19.4652
к	-19.4652
м	-19.4652
о	-19.4652
у	-19.4652
ш	-19.4652
я	-19.4652
־	-19.4652
۰	-19.4652
०	-19.4652
६	-19.4652
७	-19.4652
८	-19.4652
९	-19.4652
ජ	-19.4652
බ	-19.4652
ෝ	-19.4652
၀	-19.4652
၃	-19.4652
၄	-19.4652
၅	-19.4652
၆	-19.4652
၇	-19.4652
၈	-19.4652
၉	-19.4652
᚛	-19.4652
᚜	-19.4652
០	-19.4652
១	-19.4652
២	-19.4652
៣	-19.4652
៤	-19.4652
៥	-19.4652
៦	-19.4652
៧	-19.4652
៨	-19.4652
៩	-19.4652
ḋ	-19.4652
ḏ	-19.4652
ḗ	-19.4652
ḡ	-19.4652
ḱ	-19.4652
ḵ	-19.4652
ṗ	-19.4652
ṫ	-19.4652
ṳ	-19.4652
ṹ	-19.4652
ẵ	-19.4652
ặ	-19.4652
ỏ	-19.4652
ỗ	-19.4652
ợ	-19.4652
‿	-19.4652
⁣	-19.4652
₣	-19.4652
₿	-19.4652
↊	-19.4652
↋	-19.4652
∉	-19.4652
≒	-19.4652
▼	-19.4652
☉	-19.4652
☐	-19.4652
☚	-19.4652
☛	-19.4652
☣	-19.4652
☭	-19.4652
☯	-19.4652
♄	-19.4652
♑	-19.4652
♒	-19.4652
♠	-19.4652
♡	-19.4652
♮	-19.4652
❤	-19.4652
ⱡ	-19.4652
。	-19.4652
〉	-19.4652
ṟ	-19.4652
ɸ	-19.4652
۞	-19.4652
ḩ	-19.4652
✚	-19.4652
ආ	-19.4652
ු	-19.4652
	-19.4653
́	-19.4653
