<unk>	0
<s>	0
</s>	0
<pad>	0
<0x00>	0
<0x01>	0
<0x02>	0
<0x03>	0
<0x04>	0
<0x05>	0
<0x06>	0
<0x07>	0
<0x08>	0
<0x09>	0
<0x0A>	0
<0x0B>	0
<0x0C>	0
<0x0D>	0
<0x0E>	0
<0x0F>	0
<0x10>	0
<0x11>	0
<0x12>	0
<0x13>	0
<0x14>	0
<0x15>	0
<0x16>	0
<0x17>	0
<0x18>	0
<0x19>	0
<0x1A>	0
<0x1B>	0
<0x1C>	0
<0x1D>	0
<0x1E>	0
<0x1F>	0
<0x20>	0
<0x21>	0
<0x22>	0
<0x23>	0
<0x24>	0
<0x25>	0
<0x26>	0
<0x27>	0
<0x28>	0
<0x29>	0
<0x2A>	0
<0x2B>	0
<0x2C>	0
<0x2D>	0
<0x2E>	0
<0x2F>	0
<0x30>	0
<0x31>	0
<0x32>	0
<0x33>	0
<0x34>	0
<0x35>	0
<0x36>	0
<0x37>	0
<0x38>	0
<0x39>	0
<0x3A>	0
<0x3B>	0
<0x3C>	0
<0x3D>	0
<0x3E>	0
<0x3F>	0
<0x40>	0
<0x41>	0
<0x42>	0
<0x43>	0
<0x44>	0
<0x45>	0
<0x46>	0
<0x47>	0
<0x48>	0
<0x49>	0
<0x4A>	0
<0x4B>	0
<0x4C>	0
<0x4D>	0
<0x4E>	0
<0x4F>	0
<0x50>	0
<0x51>	0
<0x52>	0
<0x53>	0
<0x54>	0
<0x55>	0
<0x56>	0
<0x57>	0
<0x58>	0
<0x59>	0
<0x5A>	0
<0x5B>	0
<0x5C>	0
<0x5D>	0
<0x5E>	0
<0x5F>	0
<0x60>	0
<0x61>	0
<0x62>	0
<0x63>	0
<0x64>	0
<0x65>	0
<0x66>	0
<0x67>	0
<0x68>	0
<0x69>	0
<0x6A>	0
<0x6B>	0
<0x6C>	0
<0x6D>	0
<0x6E>	0
<0x6F>	0
<0x70>	0
<0x71>	0
<0x72>	0
<0x73>	0
<0x74>	0
<0x75>	0
<0x76>	0
<0x77>	0
<0x78>	0
<0x79>	0
<0x7A>	0
<0x7B>	0
<0x7C>	0
<0x7D>	0
<0x7E>	0
<0x7F>	0
<0x80>	0
<0x81>	0
<0x82>	0
<0x83>	0
<0x84>	0
<0x85>	0
<0x86>	0
<0x87>	0
<0x88>	0
<0x89>	0
<0x8A>	0
<0x8B>	0
<0x8C>	0
<0x8D>	0
<0x8E>	0
<0x8F>	0
<0x90>	0
<0x91>	0
<0x92>	0
<0x93>	0
<0x94>	0
<0x95>	0
<0x96>	0
<0x97>	0
<0x98>	0
<0x99>	0
<0x9A>	0
<0x9B>	0
<0x9C>	0
<0x9D>	0
<0x9E>	0
<0x9F>	0
<0xA0>	0
<0xA1>	0
<0xA2>	0
<0xA3>	0
<0xA4>	0
<0xA5>	0
<0xA6>	0
<0xA7>	0
<0xA8>	0
<0xA9>	0
<0xAA>	0
<0xAB>	0
<0xAC>	0
<0xAD>	0
<0xAE>	0
<0xAF>	0
<0xB0>	0
<0xB1>	0
<0xB2>	0
<0xB3>	0
<0xB4>	0
<0xB5>	0
<0xB6>	0
<0xB7>	0
<0xB8>	0
<0xB9>	0
<0xBA>	0
<0xBB>	0
<0xBC>	0
<0xBD>	0
<0xBE>	0
<0xBF>	0
<0xC0>	0
<0xC1>	0
<0xC2>	0
<0xC3>	0
<0xC4>	0
<0xC5>	0
<0xC6>	0
<0xC7>	0
<0xC8>	0
<0xC9>	0
<0xCA>	0
<0xCB>	0
<0xCC>	0
<0xCD>	0
<0xCE>	0
<0xCF>	0
<0xD0>	0
<0xD1>	0
<0xD2>	0
<0xD3>	0
<0xD4>	0
<0xD5>	0
<0xD6>	0
<0xD7>	0
<0xD8>	0
<0xD9>	0
<0xDA>	0
<0xDB>	0
<0xDC>	0
<0xDD>	0
<0xDE>	0
<0xDF>	0
<0xE0>	0
<0xE1>	0
<0xE2>	0
<0xE3>	0
<0xE4>	0
<0xE5>	0
<0xE6>	0
<0xE7>	0
<0xE8>	0
<0xE9>	0
<0xEA>	0
<0xEB>	0
<0xEC>	0
<0xED>	0
<0xEE>	0
<0xEF>	0
<0xF0>	0
<0xF1>	0
<0xF2>	0
<0xF3>	0
<0xF4>	0
<0xF5>	0
<0xF6>	0
<0xF7>	0
<0xF8>	0
<0xF9>	0
<0xFA>	0
<0xFB>	0
<0xFC>	0
<0xFD>	0
<0xFE>	0
<0xFF>	0
▁t	-0
he	-1
▁a	-2
▁i	-3
▁w	-4
▁the	-5
▁s	-6
▁*	-7
ou	-8
re	-9
in	-10
▁o	-11
ha	-12
▁b	-13
hi	-14
▁m	-15
ot	-16
▁c	-17
er	-18
nd	-19
▁y	-20
▁d	-21
▁f	-22
on	-23
ing	-24
▁you	-25
▁p	-26
ll	-27
▁g	-28
▁to	-29
▁l	-30
mot	-31
an	-32
▁n	-33
es	-34
ed	-35
or	-36
▁and	-37
en	-38
hat	-39
chi	-40
▁he	-41
ar	-42
at	-43
▁of	-44
▁in	-45
it	-46
as	-47
▁it	-48
om	-49
ow	-50
▁ha	-51
▁that	-52
st	-53
et	-54
▁on	-55
ve	-56
le	-57
ay	-58
▁we	-59
▁be	-60
▁e	-61
▁u	-62
ri	-63
gh	-64
▁is	-65
se	-66
his	-67
id	-68
ld	-69
al	-70
oo	-71
ut	-72
ic	-73
▁h	-74
▁was	-75
▁k	-76
▁do	-77
▁re	-78
ad	-79
ac	-80
▁=	-81
ver	-82
▁th	-83
▁st	-84
▁for	-85
ght	-86
..	-87
ke	-88
▁[	-89
▁what	-90
ro	-91
ly	-92
▁j	-93
am	-94
is	-95
ir	-96
ent	-97
out	-98
ch	-99
▁an	-100
▁me	-101
ion	-102
▁"	-103
▁se	-104
▁go	-105
▁li	-106
ith	-107
ea	-108
▁no	-109
▁this	-110
her	-111
▁with	-112
▁as	-113
ome	-114
▁not	-115
all	-116
▁at	-117
ur	-118
▁there	-119
▁they	-120
▁have	-121
▁she	-122
▁so	-123
ter	-124
ill	-125
ra	-126
▁are	-127
▁whe	-128
▁can	-129
ce	-130
▁-	-131
ould	-132
▁but	-133
▁hi	-134
ust	-135
▁kn	-136
▁one	-137
ook	-138
im	-139
▁his	-140
▁don	-141
▁ne	-142
ct	-143
un	-144
ho	-145
ant	-146
▁all	-147
▁fr	-148
▁know	-149
au	-150
▁my	-151
...	-152
▁up	-153
▁r	-154
▁oh	-155
eah	-156
▁your	-157
▁yeah	-158
il	-159
▁her	-160
▁mo	-161
▁sa	-162
pp	-163
▁de	-164
▁ri	-165
ge	-166
um	-167
▁al	-168
▁had	-169
▁like	-170
ie	-171
us	-172
ack	-173
▁out	-174
ain	-175
▁ab	-176
xx	-177
▁pl	-178
and	-179
our	-180
ck	-181
op	-182
▁get	-183
▁did	-184
art	-185
inv	-186
▁look	-187
▁1	-188
▁see	-189
ink	-190
▁him	-191
▁from	-192
▁or	-193
▁su	-194
red	-195
ake	-196
ood	-197
ab	-198
ry	-199
ers	-200
▁v	-201
th	-202
▁here	-203
▁by	-204
qu	-205
▁just	-206
very	-207
ol	-208
▁sp	-209
han	-210
ul	-211
ight	-212
ame	-213
▁if	-214
ound	-215
ell	-216
ess	-217
▁sh	-218
est	-219
▁right	-220
▁who	-221
▁com	-222
ation	-223
ig	-224
ind	-225
▁bo	-226
▁were	-227
▁whi	-228
▁now	-229
▁some	-230
▁then	-231
▁got	-232
▁wor	-233
▁well	-234
▁them	-235
▁about	-236
▁when	-237
own	-238
one	-239
ard	-240
ak	-241
nt	-242
ong	-243
itt	-244
el	-245
▁think	-246
▁want	-247
▁said	-248
▁2	-249
na	-250
ast	-251
▁ex	-252
▁man	-253
▁would	-254
os	-255
▁ro	-256
res	-257
fe	-258
ally	-259
ive	-260
▁where	-261
fat	-262
▁con	-263
▁will	-264
▁(	-265
▁any	-266
▁tw	-267
ate	-268
▁di	-269
▁yes	-270
].	-271
▁ar	-272
ap	-273
ep	-274
▁how	-275
ber	-276
▁say	-277
▁come	-278
em	-279
▁cl	-280
▁good	-281
▁tim	-282
▁us	-283
ven	-284
hing	-285
▁ok	-286
ine	-287
ough	-288
ort	-289
▁“	-290
▁le	-291
▁put	-292
▁lo	-293
▁pro	-294
▁back	-295
▁co	-296
▁ag	-297
▁down	-298
ice	-299
▁pe	-300
▁am	-301
▁let	-302
."	-303
▁af	-304
ther	-305
▁okay	-306
other	-307
▁int	-308
ittle	-309
ag	-310
ous	-311
▁br	-312
hy	-313
▁little	-314
▁has	-315
ore	-316
▁chi	-317
ause	-318
▁been	-319
▁over	-320
▁xx	-321
way	-322
▁than	-323
ft	-324
▁more	-325
ist	-326
▁very	-327
▁going	-328
▁fe	-329
ide	-330
▁xxx	-331
▁qu	-332
▁tr	-333
▁time	-334
▁could	-335
▁too	-336
▁which	-337
▁er	-338
▁'	-339
▁two	-340
▁bl	-341
ies	-342
▁un	-343
▁20	-344
▁bec	-345
ick	-346
dy	-347
▁other	-348
ace	-349
▁off	-350
▁en	-351
▁play	-352
end	-353
▁their	-354
▁cha	-355
lf	-356
are	-357
▁19	-358
ree	-359
ity	-360
▁thing	-361
,"	-362
ose	-363
▁fl	-364
▁does	-365
▁car	-366
ure	-367
--	-368
orn	-369
▁gre	-370
omet	-371
ish	-372
my	-373
▁why	-374
nder	-375
▁po	-376
alk	-377
▁sc	-378
▁after	-379
▁uh	-380
▁somet	-381
▁gr	-382
age	-383
ought	-384
pl	-385
hed	-386
urn	-387
▁again	-388
▁mar	-389
▁make	-390
ear	-391
ud	-392
▁take	-393
▁sha	-394
pe	-395
▁into	-396
ople	-397
▁tell	-398
ps	-399
ment	-400
▁fir	-401
▁bet	-402
▁people	-403
ount	-404
▁way	-405
▁may	-406
▁jo	-407
▁because	-408
▁wat	-409
ian	-410
int	-411
ass	-412
ving	-413
iss	-414
ite	-415
ia	-416
▁call	-417
ue	-418
▁day	-419
ff	-420
▁part	-421
▁work	-422
▁mr	-423
▁every	-424
ade	-425
▁gon	-426
▁first	-427
▁these	-428
ble	-429
▁ad	-430
▁gonna	-431
▁our	-432
▁only	-433
ase	-434
▁mean	-435
ved	-436
we	-437
ves	-438
▁te	-439
▁mu	-440
so	-441
ty	-442
▁need	-443
▁gu	-444
co	-445
mp	-446
▁hand	-447
▁thr	-448
▁sm	-449
▁ho	-450
▁should	-451
▁bu	-452
uh	-453
the	-454
cl	-455
▁fo	-456
▁big	-457
▁mom	-458
▁pre	-459
▁something	-460
ouse	-461
ren	-462
day	-463
be	-464
▁new	-465
ach	-466
ool	-467
per	-468
▁ac	-469
fore	-470
self	-471
▁really	-472
▁didn	-473
ys	-474
▁happ	-475
ful	-476
iz	-477
bo	-478
augh	-479
pt	-480
man	-481
ary	-482
ci	-483
ather	-484
les	-485
wn	-486
▁ch	-487
ated	-488
▁hel	-489
thing	-490
▁much	-491
ord	-492
▁dis	-493
act	-494
▁rem	-495
ang	-496
▁pr	-497
ance	-498
ress	-499
able	-500
▁ra	-501
▁made	-502
ting	-503
te	-504
ady	-505
ub	-506
▁gir	-507
▁per	-508
▁under	-509
▁before	-510
▁year	-511
▁wa	-512
par	-513
▁long	-514
ull	-515
▁fi	-516
▁wr	-517
▁thank	-518
▁give	-519
uck	-520
▁three	-521
▁bab	-522
▁talk	-523
ory	-524
▁ke	-525
ex	-526
▁great	-527
▁fri	-528
▁ple	-529
hes	-530
▁came	-531
▁app	-532
▁old	-533
▁child	-534
00	-535
▁girl	-536
ne	-537
▁away	-538
▁	-539
e	-540
t	-541
o	-542
a	-543
i	-544
n	-545
h	-546
s	-547
r	-548
l	-549
d	-550
m	-551
u	-552
c	-553
.	-554
y	-555
w	-556
g	-557
f	-558
p	-559
b	-560
:	-561
*	-562
,	-563
k	-564
v	-565
'	-566
?	-567
"	-568
-	-569
x	-570
j	-571
=	-572
[	-573
]	-574
!	-575
1	-576
0	-577
2	-578
z	-579
q	-580
9	-581
)	-582
(	-583
;	-584
“	-585
”	-586
’	-587
3	-588
8	-589
5	-590
4	-591
7	-592
6	-593
_	-594
/	-595
%	-596
|	-597
–	-598
♪	-599
—	-600
é	-601
+	-602
#	-603
á	-604
$	-605
‘	-606
í	-607
⌈	-608
⌉	-609
&	-610
→	-611
ö	-612
⌋	-613
⌊	-614
`	-615
ü	-616
ó	-617
~	-618
ä	-619
¶	-620
ā	-621
è	-622
ú	-623
ć	-624
}	-625
ù	-626
š	-627
ç	-628
ñ	-629
{	-630
à	-631
ô	-632
―	-633
â	-634
ø	-635
å	-636
°	-637
æ	-638
ō	-639
\	-640
─	-641
£	-642
ì	-643
↗	-644
ł	-645
↫	-646
ã	-647
č	-648
ū	-649
@	-650
¿	-651
ß	-652
ò	-653
ē	-654
ś	-655
ž	-656
ș	-657
́	-658
′	-659
♫	-660
×	-661
î	-662
ï	-663
ı	-664
ş	-665
་	-666
⁄	-667
ê	-668
ë	-669
œ	-670
ř	-671
•	-672
⁎	-673
§	-674
ð	-675
đ	-676
ī	-677
∙	-678
∞	-679
✿	-680
^	-681
	-682
	-683
	-684
¡	-685
ă	-686
ą	-687
ě	-688
ń	-689
ņ	-690
ố	-691
ồ	-692
‐	-693
▔	-694
<	-695
>	-696
	-697
©	-698
·	-699
ý	-700
þ	-701
ĕ	-702
ġ	-703
ĭ	-704
İ	-705
ő	-706
ũ	-707
ź	-708
ż	-709
ư	-710
ǎ	-711
ǫ	-712
ɑ	-713
ɪ	-714
ʃ	-715
ʊ	-716
ʾ	-717
ː	-718
̶	-719
η	-720
ν	-721
й	-722
ј	-723
॥	-724
ṉ	-725
ṛ	-726
ṣ	-727
ṭ	-728
ṯ	-729
ả	-730
ắ	-731
ề	-732
ệ	-733
ọ	-734
ớ	-735
ờ	-736
‡	-737
‰	-738
€	-739
