<unk>	0
<s>	0
</s>	0
<pad>	0
<0x00>	0
<0x01>	0
<0x02>	0
<0x03>	0
<0x04>	0
<0x05>	0
<0x06>	0
<0x07>	0
<0x08>	0
<0x09>	0
<0x0A>	0
<0x0B>	0
<0x0C>	0
<0x0D>	0
<0x0E>	0
<0x0F>	0
<0x10>	0
<0x11>	0
<0x12>	0
<0x13>	0
<0x14>	0
<0x15>	0
<0x16>	0
<0x17>	0
<0x18>	0
<0x19>	0
<0x1A>	0
<0x1B>	0
<0x1C>	0
<0x1D>	0
<0x1E>	0
<0x1F>	0
<0x20>	0
<0x21>	0
<0x22>	0
<0x23>	0
<0x24>	0
<0x25>	0
<0x26>	0
<0x27>	0
<0x28>	0
<0x29>	0
<0x2A>	0
<0x2B>	0
<0x2C>	0
<0x2D>	0
<0x2E>	0
<0x2F>	0
<0x30>	0
<0x31>	0
<0x32>	0
<0x33>	0
<0x34>	0
<0x35>	0
<0x36>	0
<0x37>	0
<0x38>	0
<0x39>	0
<0x3A>	0
<0x3B>	0
<0x3C>	0
<0x3D>	0
<0x3E>	0
<0x3F>	0
<0x40>	0
<0x41>	0
<0x42>	0
<0x43>	0
<0x44>	0
<0x45>	0
<0x46>	0
<0x47>	0
<0x48>	0
<0x49>	0
<0x4A>	0
<0x4B>	0
<0x4C>	0
<0x4D>	0
<0x4E>	0
<0x4F>	0
<0x50>	0
<0x51>	0
<0x52>	0
<0x53>	0
<0x54>	0
<0x55>	0
<0x56>	0
<0x57>	0
<0x58>	0
<0x59>	0
<0x5A>	0
<0x5B>	0
<0x5C>	0
<0x5D>	0
<0x5E>	0
<0x5F>	0
<0x60>	0
<0x61>	0
<0x62>	0
<0x63>	0
<0x64>	0
<0x65>	0
<0x66>	0
<0x67>	0
<0x68>	0
<0x69>	0
<0x6A>	0
<0x6B>	0
<0x6C>	0
<0x6D>	0
<0x6E>	0
<0x6F>	0
<0x70>	0
<0x71>	0
<0x72>	0
<0x73>	0
<0x74>	0
<0x75>	0
<0x76>	0
<0x77>	0
<0x78>	0
<0x79>	0
<0x7A>	0
<0x7B>	0
<0x7C>	0
<0x7D>	0
<0x7E>	0
<0x7F>	0
<0x80>	0
<0x81>	0
<0x82>	0
<0x83>	0
<0x84>	0
<0x85>	0
<0x86>	0
<0x87>	0
<0x88>	0
<0x89>	0
<0x8A>	0
<0x8B>	0
<0x8C>	0
<0x8D>	0
<0x8E>	0
<0x8F>	0
<0x90>	0
<0x91>	0
<0x92>	0
<0x93>	0
<0x94>	0
<0x95>	0
<0x96>	0
<0x97>	0
<0x98>	0
<0x99>	0
<0x9A>	0
<0x9B>	0
<0x9C>	0
<0x9D>	0
<0x9E>	0
<0x9F>	0
<0xA0>	0
<0xA1>	0
<0xA2>	0
<0xA3>	0
<0xA4>	0
<0xA5>	0
<0xA6>	0
<0xA7>	0
<0xA8>	0
<0xA9>	0
<0xAA>	0
<0xAB>	0
<0xAC>	0
<0xAD>	0
<0xAE>	0
<0xAF>	0
<0xB0>	0
<0xB1>	0
<0xB2>	0
<0xB3>	0
<0xB4>	0
<0xB5>	0
<0xB6>	0
<0xB7>	0
<0xB8>	0
<0xB9>	0
<0xBA>	0
<0xBB>	0
<0xBC>	0
<0xBD>	0
<0xBE>	0
<0xBF>	0
<0xC0>	0
<0xC1>	0
<0xC2>	0
<0xC3>	0
<0xC4>	0
<0xC5>	0
<0xC6>	0
<0xC7>	0
<0xC8>	0
<0xC9>	0
<0xCA>	0
<0xCB>	0
<0xCC>	0
<0xCD>	0
<0xCE>	0
<0xCF>	0
<0xD0>	0
<0xD1>	0
<0xD2>	0
<0xD3>	0
<0xD4>	0
<0xD5>	0
<0xD6>	0
<0xD7>	0
<0xD8>	0
<0xD9>	0
<0xDA>	0
<0xDB>	0
<0xDC>	0
<0xDD>	0
<0xDE>	0
<0xDF>	0
<0xE0>	0
<0xE1>	0
<0xE2>	0
<0xE3>	0
<0xE4>	0
<0xE5>	0
<0xE6>	0
<0xE7>	0
<0xE8>	0
<0xE9>	0
<0xEA>	0
<0xEB>	0
<0xEC>	0
<0xED>	0
<0xEE>	0
<0xEF>	0
<0xF0>	0
<0xF1>	0
<0xF2>	0
<0xF3>	0
<0xF4>	0
<0xF5>	0
<0xF6>	0
<0xF7>	0
<0xF8>	0
<0xF9>	0
<0xFA>	0
<0xFB>	0
<0xFC>	0
<0xFD>	0
<0xFE>	0
<0xFF>	0
.	-2.83132
:	-3.31083
▁*	-3.36025
,	-3.45152
▁the	-3.55768
s	-3.65174
'	-3.77799
▁a	-4.16651
mot	-4.16671
▁you	-4.21669
▁and	-4.22751
▁i	-4.25485
▁to	-4.27711
?	-4.28461
chi	-4.36517
▁it	-4.47942
▁of	-4.50108
▁in	-4.62449
▁that	-4.70359
t	-4.79604
▁is	-5.09297
▁he	-5.10268
▁was	-5.18552
▁=	-5.28513
▁on	-5.32595
▁[	-5.3649
▁what	-5.37598
▁for	-5.42482
▁we	-5.48952
▁"	-5.5136
▁this	-5.58184
]	-5.59117
!	-5.59942
▁with	-5.63811
▁do	-5.67716
▁no	-5.70005
▁they	-5.70006
▁there	-5.74605
▁have	-5.749
▁-	-5.78904
▁be	-5.79343
▁me	-5.80623
▁not	-5.80904
▁she	-5.82266
-	-5.83345
▁at	-5.85031
▁one	-5.85357
▁are	-5.85722
▁can	-5.88811
▁but	-5.90043
▁his	-5.92796
m	-5.9282
re	-5.97704
▁as	-6.01004
▁so	-6.02302
▁all	-6.04478
▁her	-6.05555
▁oh	-6.05658
▁yeah	-6.06008
▁my	-6.08247
▁don	-6.08537
▁know	-6.10064
▁your	-6.1121
...	-6.1202
▁had	-6.13508
d	-6.14383
▁like	-6.16112
▁up	-6.16538
▁go	-6.17409
ing	-6.25636
inv	-6.25884
▁from	-6.27866
ed	-6.28396
ll	-6.29962
▁out	-6.30922
▁here	-6.32731
▁him	-6.37414
▁get	-6.40319
▁by	-6.40838
▁if	-6.41109
▁just	-6.41849
▁were	-6.42648
▁now	-6.42711
▁right	-6.44019
i	-6.44306
▁well	-6.45686
▁see	-6.45946
▁an	-6.47542
▁about	-6.50318
▁when	-6.50988
▁then	-6.5126
▁or	-6.52951
ve	-6.5544
▁them	-6.57501
▁think	-6.58304
▁got	-6.58577
▁did	-6.60894
▁said	-6.6202
▁who	-6.62452
▁	-6.63978
▁some	-6.64169
fat	-6.64617
▁where	-6.68075
▁come	-6.6895
▁would	-6.70816
;	-6.71302
▁yes	-6.71584
▁look	-6.71824
▁will	-6.72317
▁good	-6.72543
a	-6.73074
▁want	-6.75614
▁how	-6.78718
▁xxx	-6.79857
▁okay	-6.8067
▁(	-6.81307
▁little	-6.83029
▁“	-6.8329
▁down	-6.8437
▁time	-6.84624
].	-6.84633
▁going	-6.86284
▁been	-6.87718
▁more	-6.8785
y	-6.88037
▁put	-6.88065
▁back	-6.88665
’	-6.9009
▁two	-6.90429
▁very	-6.90538
"	-6.90864
▁which	-6.9134
."	-6.91932
▁has	-6.93278
▁over	-6.94251
▁their	-6.94607
ly	-6.94798
▁'	-6.97249
▁could	-7.0046
▁let	-7.01279
)	-7.03438
er	-7.03807
e	-7.06026
▁say	-7.06799
▁b	-7.12356
▁other	-7.13317
▁why	-7.14606
▁make	-7.16586
▁take	-7.16968
,"	-7.16998
▁into	-7.18262
▁man	-7.20045
▁people	-7.21351
▁way	-7.23738
▁too	-7.24977
▁because	-7.26811
▁off	-7.27596
▁first	-7.27822
▁tell	-7.27901
▁us	-7.29
▁gonna	-7.30241
▁after	-7.33188
n	-7.33514
▁these	-7.33777
▁only	-7.34259
▁any	-7.34765
▁our	-7.37935
▁uh	-7.40056
▁didn	-7.41308
in	-7.41986
r	-7.44253
▁something	-7.4433
▁really	-7.44723
▁again	-7.45081
▁much	-7.4681
--	-7.4959
▁er	-7.49888
▁made	-7.50269
▁before	-7.533
▁than	-7.54777
o	-7.55368
▁new	-7.56446
▁big	-7.56853
▁should	-7.57349
▁day	-7.57444
▁away	-7.57503
par	-7.59147
▁three	-7.60081
▁does	-7.61613
▁went	-7.61953
▁never	-7.62249
▁home	-7.62996
▁those	-7.63326
▁um	-7.63557
▁need	-7.6443
▁give	-7.65105
▁long	-7.65958
es	-7.66856
▁mean	-7.67057
▁also	-7.68849
▁house	-7.68896
▁wanna	-7.68966
▁came	-7.6963
▁play	-7.7034
▁work	-7.70433
▁another	-7.70859
▁doing	-7.70902
▁old	-7.71177
▁many	-7.71616
▁car	-7.72732
▁thought	-7.73632
▁mr	-7.73945
▁thing	-7.73951
▁still	-7.75992
▁must	-7.76939
the	-7.77038
▁things	-7.77261
?"	-7.77692
c	-7.78355
▁may	-7.78994
exp	-7.79529
▁won	-7.80067
▁am	-7.8029
▁great	-7.8063
▁through	-7.80682
▁even	-7.81149
▁find	-7.8148
▁boy	-7.81818
▁last	-7.81853
al	-7.81899
▁night	-7.84147
▁baby	-7.85363
▁isn	-7.85456
_	-7.85499
▁name	-7.87502
▁done	-7.8762
▁please	-7.88392
▁help	-7.88522
▁called	-7.88647
▁%	-7.88801
l	-7.89259
▁mother	-7.90396
▁mm	-7.90632
▁water	-7.91941
▁thank	-7.92234
▁head	-7.92596
/	-7.93127
▁might	-7.94007
it	-7.94097
▁around	-7.94506
▁mhm	-7.94749
▁hand	-7.95347
▁book	-7.95822
▁better	-7.96047
▁girl	-7.96096
▁sure	-7.96296
▁s	-7.965
.”	-7.96541
▁hey	-7.9811
▁nice	-7.98334
▁found	-7.98787
▁bit	-7.98936
▁place	-7.99289
▁love	-7.99299
▁life	-7.99761
▁most	-7.99951
▁while	-7.99966
th	-7.99992
▁eat	-8.00047
▁anything	-8.01245
▁ah	-8.01949
▁o	-8.02934
▁erm	-8.03166
p	-8.0508
▁doesn	-8.0509
▁years	-8.05451
▁being	-8.05674
▁such	-8.05882
▁used	-8.06574
▁next	-8.06903
▁father	-8.0699
g	-8.07069
b	-8.08004
▁school	-8.08205
▁de	-8.08207
▁same	-8.08486
,”	-8.09078
▁shall	-8.09226
▁room	-8.09537
▁lot	-8.09895
k	-8.11182
▁else	-8.11912
▁world	-8.1202
!"	-8.12046
▁keep	-8.12212
▁four	-8.12278
laughs	-8.12539
▁mummy	-8.13146
▁own	-8.13456
▁looks	-8.13704
add	-8.13931
▁under	-8.14049
▁always	-8.14574
▁re	-8.15021
▁told	-8.15139
▁saw	-8.15168
▁left	-8.15187
▁nothing	-8.15771
▁part	-8.15859
w	-8.1599
h	-8.15995
▁men	-8.16904
▁ever	-8.18785
▁every	-8.20005
▁chi	-8.20086
na	-8.20577
▁huh	-8.2159
▁kind	-8.21713
and	-8.21929
▁show	-8.22004
▁sorry	-8.22198
▁talk	-8.22285
man	-8.225
▁five	-8.23168
▁daddy	-8.23423
▁un	-8.23887
▁gone	-8.24367
or	-8.25411
▁e	-8.25566
▁money	-8.25921
▁coming	-8.25994
on	-8.26345
▁end	-8.26417
▁though	-8.26763
▁took	-8.26906
▁enough	-8.27213
no	-8.27297
▁maybe	-8.27457
▁door	-8.27666
▁wait	-8.27835
▁call	-8.28667
▁use	-8.28961
▁red	-8.29004
▁morning	-8.30328
▁goes	-8.30583
▁once	-8.30593
f	-8.30664
▁remember	-8.31117
sis	-8.31119
▁d	-8.31651
▁until	-8.31693
▁turn	-8.31815
▁open	-8.31819
▁leave	-8.32962
▁side	-8.33228
▁hear	-8.33267
▁course	-8.33752
▁sir	-8.3393
▁_	-8.34174
▁c	-8.34415
▁best	-8.3444
▁quite	-8.3455
▁stop	-8.34565
▁god	-8.34585
▁sit	-8.35124
▁eyes	-8.35406
le	-8.35425
▁year	-8.35721
tea	-8.35996
▁dear	-8.36276
you	-8.36403
▁both	-8.36405
▁try	-8.3657
▁today	-8.37123
▁looking	-8.37123
▁city	-8.37365
▁hm	-8.37685
▁box	-8.37848
▁yet	-8.37931
▁seen	-8.38518
▁p	-8.38612
ers	-8.39081
▁each	-8.39097
▁asked	-8.39323
▁face	-8.39746
▁round	-8.40044
▁few	-8.40046
▁together	-8.40465
▁ball	-8.40497
▁different	-8.40948
▁says	-8.41393
▁blue	-8.41426
▁mind	-8.42417
▁number	-8.42947
▁young	-8.43291
an	-8.43941
▁hard	-8.44124
▁children	-8.44171
▁getting	-8.4423
▁miss	-8.44261
▁without	-8.44671
▁feel	-8.44825
▁everything	-8.45563
▁far	-8.45982
▁read	-8.4635
to	-8.46501
mch	-8.46542
▁ready	-8.46848
▁fire	-8.46866
▁♪	-8.47125
▁heard	-8.47251
▁later	-8.47563
▁known	-8.47705
▁bed	-8.47752
▁soon	-8.47807
en	-8.47881
▁second	-8.47956
▁mommy	-8.48044
▁between	-8.48236
▁m	-8.49921
bro	-8.50383
▁haven	-8.50753
▁hi	-8.5083
▁upon	-8.51045
▁since	-8.51425
▁story	-8.51639
▁white	-8.51641
▁mrs	-8.51817
▁hold	-8.5215
▁having	-8.52272
▁himself	-8.52535
▁hafta	-8.52752
▁half	-8.53123
▁black	-8.53368
as	-8.53551
▁happened	-8.53716
▁wanted	-8.53777
▁stay	-8.5378
▁t	-8.54171
▁alright	-8.54344
▁watch	-8.54646
▁set	-8.5477
em	-8.55101
yes	-8.55228
▁bad	-8.5533
▁table	-8.5549
▁pretty	-8.5612
▁looked	-8.56446
▁ask	-8.56456
▁dog	-8.56457
▁small	-8.56475
cause	-8.56594
▁18	-8.56614
gma	-8.5665
u	-8.56997
▁run	-8.57328
we	-8.57454
▁top	-8.57967
▁war	-8.5812
▁talking	-8.58277
▁knew	-8.58356
▁friend	-8.58547
▁hello	-8.58885
▁live	-8.59179
he	-8.59207
us	-8.60093
▁hands	-8.6017
▁green	-8.6024
▁six	-8.60868
▁high	-8.61031
▁light	-8.61349
▁ma	-8.61384
ie	-8.6143
▁believe	-8.61472
1:	-8.61519
ton	-8.62006
▁1	-8.62166
▁united	-8.62331
▁moment	-8.6257
▁making	-8.62597
▁american	-8.62694
▁child	-8.62829
▁mot	-8.63174
▁family	-8.63303
▁against	-8.63415
▁boys	-8.63456
▁along	-8.63528
▁la	-8.63673
▁close	-8.63905
▁actually	-8.6403
▁king	-8.64428
▁gave	-8.64723
▁party	-8.64921
x	-8.6501
▁care	-8.65144
▁wasn	-8.65691
▁sort	-8.65745
".	-8.65971
▁real	-8.66352
▁during	-8.67162
▁matter	-8.67439
▁noise	-8.68475
la	-8.68955
de	-8.69003
▁days	-8.69016
▁whole	-8.69286
▁fine	-8.69526
▁move	-8.69548
▁air	-8.69779
▁died	-8.70073
▁game	-8.70342
do	-8.70555
▁start	-8.70768
▁wouldn	-8.70897
▁heart	-8.70981
ation	-8.7105
▁bring	-8.7123
?”	-8.71927
▁food	-8.72275
ar	-8.72488
▁states	-8.72667
oh	-8.72928
▁almost	-8.72951
▁started	-8.72988
▁born	-8.73211
▁happy	-8.73386
ch	-8.73597
▁ha	-8.73642
▁trying	-8.7367
ra	-8.73741
▁son	-8.74129
ling	-8.74262
▁person	-8.74294
▁sleep	-8.74397
ion	-8.74681
▁word	-8.74684
ro	-8.74758
▁saying	-8.74826
▁ten	-8.75126
▁town	-8.75716
but	-8.75847
▁floor	-8.75909
▁john	-8.763
▁dad	-8.76743
▁2	-8.76862
mar	-8.76863
is	-8.7703
▁playing	-8.77079
▁wrong	-8.7713
▁minute	-8.77548
▁already	-8.77714
▁probably	-8.7829
+	-8.78329
▁train	-8.78359
▁guess	-8.78388
▁sea	-8.78407
▁mine	-8.78485
ma	-8.78959
▁cat	-8.7907
▁feet	-8.79099
▁mom	-8.79364
▁hope	-8.79537
▁state	-8.79746
▁hair	-8.80398
▁near	-8.80495
▁drink	-8.80527
▁woman	-8.80795
▁voice	-8.81476
▁paper	-8.81494
▁jack	-8.81551
▁country	-8.81748
),	-8.8175
z	-8.81954
▁idea	-8.82158
▁understand	-8.82237
▁lost	-8.82513
▁picture	-8.82637
▁became	-8.82853
▁point	-8.82867
▁cut	-8.82952
▁north	-8.82952
▁g	-8.82967
▁cup	-8.83343
▁thomas	-8.83411
▁team	-8.83476
▁began	-8.83523
li	-8.83801
▁aren	-8.83942
what	-8.84746
▁gotta	-8.84819
▁line	-8.84928
▁friends	-8.85243
▁dis	-8.85338
▁sometimes	-8.85418
▁brother	-8.85934
ter	-8.86188
able	-8.86393
ta	-8.86556
▁behind	-8.86642
▁hundred	-8.86647
▁music	-8.86728
nan	-8.8705
co	-8.87143
▁sec	-8.87325
▁full	-8.87328
▁l	-8.87425
▁front	-8.87504
▁bear	-8.87504
▁listen	-8.87521
▁played	-8.87895
—	-8.87987
▁job	-8.88241
ic	-8.8841
▁lady	-8.88601
▁week	-8.88835
▁–	-8.88912
▁hot	-8.89127
▁outside	-8.89354
▁chair	-8.89523
▁u	-8.89572
▁captain	-8.89643
▁k	-8.89726
▁couldn	-8.90415
▁brought	-8.90489
▁girls	-8.90601
ty	-8.90738
▁county	-8.91027
▁movie	-8.9105
ia	-8.91521
that	-8.91573
",	-8.9175
▁rest	-8.9186
ne	-8.92272
▁stand	-8.92399
▁national	-8.92427
well	-8.92555
▁road	-8.92613
▁horse	-8.92691
▁poor	-8.92692
▁3	-8.92832
▁pay	-8.92885
ment	-8.93296
▁river	-8.93519
▁sound	-8.93741
▁doctor	-8.93804
▁turned	-8.93847
gra	-8.94382
ry	-8.9451
▁seemed	-8.9464
me	-8.95043
▁color	-8.95621
▁dead	-8.95642
▁land	-8.9565
▁guy	-8.95708
▁song	-8.95729
▁often	-8.95945
ness	-8.95968
▁however	-8.9603
▁death	-8.96295
v	-8.96319
▁someone	-8.96503
▁able	-8.96799
▁piece	-8.96822
▁n	-8.97219
▁hat	-8.97261
▁south	-8.97437
▁taken	-8.97575
ity	-8.97588
int	-8.97626
▁con	-8.97646
el	-8.97684
▁beautiful	-8.977
ted	-8.98125
▁times	-8.98285
▁al	-8.98297
cha	-8.98692
▁f	-8.989
▁short	-8.98921
▁taking	-8.99155
▁comes	-8.99181
▁stuff	-8.9921
▁tree	-8.99487
▁early	-8.99573
▁twenty	-8.99872
▁myself	-8.99912
▁case	-8.99922
ga	-8.9993
▁inside	-9.00636
se	-9.01509
be	-9.01749
▁means	-9.01773
▁walk	-9.01824
▁business	-9.01966
▁fish	-9.01989
▁ya	-9.01999
▁cold	-9.02141
!”	-9.02169
▁page	-9.02386
▁yourself	-9.02432
▁makes	-9.02671
dad	-9.02811
▁rather	-9.03021
▁fall	-9.0312
▁sun	-9.03293
▁age	-9.03302
▁yellow	-9.0369
▁fun	-9.03843
▁words	-9.03917
▁order	-9.04008
▁till	-9.04072
▁seven	-9.04107
▁true	-9.0429
).	-9.04444
go	-9.04531
▁perhaps	-9.04568
▁late	-9.04704
▁r	-9.04809
▁boat	-9.04908
▁minutes	-9.04912
▁change	-9.05305
▁wife	-9.05343
▁fact	-9.0595
▁ta	-9.05996
▁sister	-9.06072
▁felt	-9.0619
ine	-9.06252
▁pick	-9.06268
ah	-9.06278
▁!	-9.06304
il	-9.06415
▁alone	-9.06462
▁large	-9.06748
ting	-9.07106
▁funny	-9.07355
ies	-9.07565
▁wish	-9.07578
son	-9.07669
▁fell	-9.07736
▁either	-9.0802
▁sent	-9.08117
▁ago	-9.08127
▁group	-9.08312
▁tea	-9.08706
▁milk	-9.09043
pat	-9.09141
▁given	-9.0918
▁women	-9.09439
▁company	-9.09537
ist	-9.09576
2:	-9.09836
lo	-9.09957
▁ran	-9.09965
ian	-9.10138
▁france	-9.10196
est	-9.10349
j	-9.10755
▁english	-9.10822
1	-9.1094
▁meet	-9.10977
id	-9.11168
▁na	-9.11284
am	-9.11395
▁bob	-9.11461
▁buy	-9.11626
▁mum	-9.11654
da	-9.1177
▁brown	-9.11785
▁eight	-9.11786
▁somebody	-9.11807
▁toys	-9.11827
ba	-9.11868
▁ground	-9.12193
▁body	-9.12226
▁chance	-9.12641
▁important	-9.12879
▁break	-9.12917
if	-9.13365
▁several	-9.13895
▁hurt	-9.14051
born	-9.14174
▁march	-9.14194
▁ho	-9.14253
▁write	-9.14454
▁working	-9.14538
▁phone	-9.14629
land	-9.14668
▁across	-9.14833
▁hit	-9.15067
▁wind	-9.15267
huh	-9.153
▁glad	-9.15408
▁least	-9.15988
▁trouble	-9.16143
▁st	-9.16483
▁dinner	-9.16791
▁w	-9.16929
▁area	-9.17015
ha	-9.17153
ca	-9.17292
▁dark	-9.17368
▁dr	-9.1753
▁per	-9.18031
▁thanks	-9.18198
▁da	-9.18703
▁uhhuh	-9.18971
▁cos	-9.19241
▁foot	-9.1928
▁h	-9.19382
age	-9.19481
▁speak	-9.19606
▁guys	-9.19918
▁wants	-9.20183
▁power	-9.20628
▁finished	-9.20939
ish	-9.21002
▁10	-9.21103
▁animals	-9.21116
▁darling	-9.21292
▁general	-9.21424
ul	-9.21583
car	-9.21639
by	-9.21662
▁everybody	-9.21772
▁tomorrow	-9.22305
▁french	-9.22311
▁question	-9.22423
▁government	-9.22467
pa	-9.22536
▁free	-9.22727
”	-9.22777
▁past	-9.22917
▁special	-9.23062
men	-9.23186
▁deal	-9.23404
ant	-9.23407
▁hour	-9.23463
▁4	-9.2351
mo	-9.23801
▁tried	-9.23821
up	-9.2393
rs	-9.24288
▁bag	-9.24629
▁present	-9.24957
▁ship	-9.25116
▁mouth	-9.252
▁thinking	-9.25296
▁west	-9.25406
▁president	-9.25462
▁wow	-9.25491
▁fast	-9.25635
▁herself	-9.25713
▁answer	-9.25718
▁fit	-9.25737
▁club	-9.25821
loi	-9.26226
▁daughter	-9.26406
▁york	-9.26632
tic	-9.26752
▁living	-9.26953
te	-9.27126
▁cried	-9.27229
▁#	-9.27418
3	-9.27579
▁co	-9.27801
2	-9.27831
▁anyway	-9.27901
▁bye	-9.27978
▁wonder	-9.27997
▁5	-9.27997
▁usually	-9.28018
▁y	-9.28046
▁become	-9.28057
▁nine	-9.28067
▁police	-9.28138
▁street	-9.28226
un	-9.28309
ce	-9.28337
▁history	-9.28365
▁pro	-9.28542
▁v	-9.28739
▁others	-9.28772
▁football	-9.28784
▁afraid	-9.29056
▁...	-9.29082
▁running	-9.29088
▁fight	-9.2914
▁letter	-9.29329
▁en	-9.29443
▁window	-9.29582
▁sat	-9.29674
ri	-9.29984
▁held	-9.30022
▁summer	-9.3003
ke	-9.30032
▁sitting	-9.30057
▁eye	-9.30085
ful	-9.30529
▁less	-9.3067
at	-9.30706
▁park	-9.30712
dy	-9.31271
▁bus	-9.31305
▁station	-9.31468
ent	-9.31779
▁reason	-9.31861
▁series	-9.31956
▁suppose	-9.32166
▁kept	-9.32185
▁bird	-9.32283
▁sweet	-9.32313
▁clear	-9.32401
▁uncle	-9.3246
▁j	-9.32478
▁draw	-9.32486
▁rock	-9.32528
▁office	-9.32668
▁lived	-9.32841
▁birthday	-9.3301
0	-9.33493
5	-9.33631
adu	-9.33915
▁band	-9.33978
▁win	-9.33991
ate	-9.34042
▁married	-9.34095
▁books	-9.34123
▁star	-9.34142
▁strong	-9.3416
▁easy	-9.34218
▁master	-9.34239
▁happen	-9.3463
▁mar	-9.34645
▁single	-9.34656
▁department	-9.34731
▁among	-9.3488
▁problem	-9.3516
cds	-9.35281
▁toy	-9.35531
▁shot	-9.35579
▁lay	-9.35634
▁stood	-9.35737
▁board	-9.35819
ci	-9.36171
▁throw	-9.36411
my	-9.36762
▁ooh	-9.36802
é	-9.36952
▁university	-9.36997
▁seems	-9.36999
▁joe	-9.3701
▁june	-9.37095
▁tonight	-9.37113
▁ok	-9.37173
▁le	-9.37329
▁whatever	-9.37479
▁ice	-9.37563
one	-9.37896
less	-9.37905
▁send	-9.3804
don	-9.3811
▁pull	-9.38164
▁bar	-9.38209
▁january	-9.38271
▁earth	-9.38426
▁forget	-9.38784
▁orange	-9.38876
▁region	-9.38917
▁whether	-9.38919
▁main	-9.39025
▁17	-9.39067
▁hours	-9.39184
▁tired	-9.39289
ir	-9.39681
led	-9.39893
▁bill	-9.39976
▁lovely	-9.40039
ley	-9.40081
▁20	-9.40134
▁sounds	-9.40193
▁catch	-9.40296
▁village	-9.40336
▁arm	-9.40486
▁lord	-9.40534
▁drive	-9.40644
▁peter	-9.40733
▁6	-9.40854
▁clothes	-9.40856
et	-9.40968
4	-9.40991
▁church	-9.41158
um	-9.41293
▁killed	-9.41335
▁ring	-9.41361
▁nose	-9.41385
▁kids	-9.41576
▁couple	-9.41813
▁waiting	-9.41816
▁wear	-9.42169
▁eh	-9.42181
▁camp	-9.42355
▁million	-9.42474
▁named	-9.42602
▁excuse	-9.42909
▁season	-9.42995
▁within	-9.43069
▁rose	-9.43143
▁replied	-9.43194
▁themselves	-9.43357
▁careful	-9.43417
▁quick	-9.436
▁ben	-9.43683
▁lots	-9.43788
bi	-9.44038
▁released	-9.44146
▁cool	-9.4415
▁album	-9.4425
▁member	-9.44561
▁wall	-9.44573
der	-9.44678
▁vi	-9.4483
ka	-9.44915
▁forward	-9.44943
▁eating	-9.4497
▁career	-9.45019
▁district	-9.45382
makes	-9.45426
▁12	-9.45455
▁ain	-9.4547
▁island	-9.45504
▁answered	-9.45522
▁shoes	-9.45563
▁east	-9.45601
▁mark	-9.45774
▁truck	-9.45788
▁evening	-9.45804
ated	-9.45914
▁warm	-9.45931
▁months	-9.46071
all	-9.46073
▁instead	-9.46117
▁frank	-9.46146
fch	-9.46267
▁points	-9.46276
▁el	-9.4635
▁husband	-9.46367
▁possible	-9.46576
▁snow	-9.467
▁clean	-9.46805
▁tom	-9.46835
▁touch	-9.46868
▁gun	-9.46928
▁british	-9.47121
▁15	-9.47167
▁christmas	-9.47187
▁sing	-9.47349
▁middle	-9.47389
so	-9.47428
den	-9.47432
▁garden	-9.47499
▁juice	-9.47682
▁film	-9.47756
▁system	-9.47828
▁building	-9.48144
▁august	-9.48152
▁exactly	-9.48302
▁third	-9.48304
▁wood	-9.48362
way	-9.48362
ad	-9.48532
for	-9.48709
▁passed	-9.48814
▁worked	-9.48878
▁[1	-9.48971
▁cannot	-9.491
▁putting	-9.49205
▁moved	-9.49237
▁gold	-9.49305
▁act	-9.49416
▁quickly	-9.49438
▁tape	-9.49464
▁frog	-9.4948
▁above	-9.49483
▁mo	-9.495
▁stick	-9.49623
▁broken	-9.49745
▁low	-9.49915
▁takes	-9.50031
▁although	-9.50049
pe	-9.50105
▁lives	-9.50228
▁certain	-9.50355
▁toward	-9.50517
||	-9.50573
▁duck	-9.50625
▁8	-9.50672
▁quiet	-9.50856
▁german	-9.50893
▁ride	-9.51118
▁save	-9.5113
▁worry	-9.51158
▁cross	-9.51619
▁longer	-9.51816
▁post	-9.51828
ki	-9.51873
les	-9.51979
▁seat	-9.51989
▁indeed	-9.52021
▁check	-9.52074
she	-9.52124
▁thousand	-9.52129
▁whose	-9.522
▁pop	-9.52271
▁straight	-9.523
▁everyone	-9.52313
▁television	-9.52356
▁april	-9.52423
▁human	-9.52481
▁strange	-9.52492
bo	-9.52559
▁pen	-9.52588
▁england	-9.5263
▁feeling	-9.52632
▁race	-9.5291
ger	-9.5295
▁ka	-9.52983
▁list	-9.53054
ur	-9.53061
ni	-9.53063
▁16	-9.53231
▁po	-9.53253
▁seem	-9.53273
▁class	-9.53325
ism	-9.53343
▁ne	-9.53555
▁service	-9.53611
▁arms	-9.53614
▁anyone	-9.53654
▁7	-9.53669
childes	-9.53689
let	-9.53747
▁return	-9.53769
▁nearly	-9.5383
va	-9.5397
▁childes	-9.54017
▁court	-9.54046
▁october	-9.54153
▁honey	-9.54843
▁position	-9.55065
▁towards	-9.55082
▁]	-9.55455
▁mama	-9.55483
ck	-9.55599
ner	-9.55607
▁caught	-9.5562
▁attack	-9.55656
▁9	-9.5587
▁chief	-9.5601
▁ra	-9.56073
▁sight	-9.56133
▁learn	-9.56234
3:	-9.56259
gu	-9.5627
▁nobody	-9.56279
▁standing	-9.56529
▁pass	-9.5657
▁wild	-9.56594
▁november	-9.56615
▁broke	-9.56616
▁nor	-9.5669
mi	-9.56767
▁bright	-9.5688
▁hall	-9.5703
▁reached	-9.57053
▁pardon	-9.5722
how	-9.57285
▁cause	-9.5732
▁farm	-9.57391
▁ahead	-9.57397
▁july	-9.57457
▁19	-9.57476
▁noises	-9.57537
▁cake	-9.57557
▁pre	-9.57641
▁player	-9.57681
▁chapter	-9.57727
▁september	-9.57936
▁plan	-9.58154
sh	-9.58177
▁david	-9.58197
▁kid	-9.58217
▁news	-9.58475
▁law	-9.58514
▁fair	-9.5855
▁paul	-9.58786
▁fear	-9.58844
▁hungry	-9.58887
▁push	-9.58888
▁miles	-9.5892
▁certainly	-9.59006
▁fellow	-9.59018
▁met	-9.59053
▁th	-9.59198
6	-9.59315
▁army	-9.59397
▁yesterday	-9.59562
▁aunt	-9.59571
▁view	-9.59662
▁blood	-9.59753
▁mary	-9.59841
00	-9.59853
8	-9.59935
▁december	-9.59991
di	-9.60087
ak	-9.60187
ard	-9.60423
▁telling	-9.60479
▁breakfast	-9.60499
▁george	-9.60622
▁hospital	-9.60635
▁rain	-9.60726
▁public	-9.60739
7	-9.60806
▁space	-9.60883
▁returned	-9.61063
▁di	-9.61075
ous	-9.61142
▁finish	-9.61291
bu	-9.61296
▁bo	-9.61335
▁changed	-9.61342
▁kitchen	-9.6135
ho	-9.61372
▁lu	-9.61382
▁february	-9.61553
▁chicken	-9.61731
▁yep	-9.61735
▁bottle	-9.61892
▁afternoon	-9.61941
min	-9.62273
there	-9.62298
ance	-9.62306
▁carry	-9.62351
▁stopped	-9.62395
▁following	-9.6245
▁art	-9.62465
▁field	-9.62511
▁london	-9.62594
▁ca	-9.62819
▁bread	-9.62926
▁helen	-9.62957
▁major	-9.63086
▁sign	-9.63166
ge	-9.63173
time	-9.63238
▁heavy	-9.63339
ver	-9.6348
▁safe	-9.63484
▁form	-9.63685
▁trees	-9.63691
▁ba	-9.63737
▁built	-9.63748
▁secret	-9.63798
▁supposed	-9.63911
▁dress	-9.64243
ary	-9.6432
▁deep	-9.64451
▁suddenly	-9.64482
")	-9.64542
▁decided	-9.64702
▁anybody	-9.6476
per	-9.64926
▁gets	-9.6497
ran	-9.64981
▁bath	-9.65023
▁shop	-9.65029
▁common	-9.65259
▁language	-9.65263
▁written	-9.65403
▁lo	-9.65571
▁count	-9.65771
▁opened	-9.65832
▁li	-9.66088
▁lake	-9.66127
val	-9.66245
▁indian	-9.6639
ring	-9.66644
▁truth	-9.66688
%	-9.66832
▁hang	-9.66968
▁games	-9.66972
▁using	-9.67027
▁jump	-9.67069
▁followed	-9.67099
friend	-9.67348
▁wee	-9.67505
▁queen	-9.67519
▁former	-9.67644
▁cow	-9.67692
ten	-9.67882
po	-9.67969
▁super	-9.68013
of	-9.68059
▁carl	-9.68186
▁fraser	-9.68204
lin	-9.68264
▁bridge	-9.68366
▁thirty	-9.68414
ya	-9.68471
hi	-9.68541
▁fa	-9.68556
▁tv	-9.68635
▁sense	-9.68808
▁cover	-9.68823
▁visit	-9.68989
▁hasn	-9.6916
▁lead	-9.69239
ac	-9.69247
▁hurry	-9.69291
que	-9.69316
▁somewhere	-9.69332
▁grand	-9.69335
▁em	-9.69662
os	-9.69714
▁bunny	-9.6974
▁coffee	-9.69751
che	-9.69793
▁sam	-9.69803
▁11	-9.69839
▁figure	-9.69843
why	-9.69858
▁dance	-9.69865
▁giving	-9.69939
▁bought	-9.70035
▁(19	-9.70149
▁se	-9.70159
▁holding	-9.7022
▁lunch	-9.70283
▁bank	-9.7056
▁stuck	-9.70642
▁leaving	-9.7066
▁step	-9.7069
▁sa	-9.70737
▁lie	-9.71035
▁places	-9.7114
▁added	-9.71167
▁corner	-9.71239
▁x	-9.71394
▁bottom	-9.71451
▁weeks	-9.71714
▁pictures	-9.71721
▁control	-9.7178
▁follow	-9.7201
▁level	-9.72013
▁battle	-9.72107
▁whom	-9.72142
day	-9.72241
▁apple	-9.72267
▁watching	-9.72331
read	-9.72384
▁example	-9.72387
▁meeting	-9.72481
▁2020	-9.72521
▁pat	-9.72614
▁store	-9.72615
▁moon	-9.72628
▁pretend	-9.72742
▁ro	-9.72819
singing	-9.72855
▁tail	-9.72891
▁stone	-9.72956
▁led	-9.72971
▁interest	-9.73016
att	-9.73137
▁busy	-9.73191
▁mad	-9.73216
▁college	-9.73244
ence	-9.73347
▁pink	-9.73427
they	-9.73455
▁wrote	-9.73596
ko	-9.73606
▁fifty	-9.73623
▁charge	-9.73724
con	-9.73837
▁cry	-9.73919
ja	-9.74048
▁amy	-9.74128
▁dat	-9.74136
▁bow	-9.74139
▁wa	-9.74159
▁hill	-9.74204
▁13	-9.74353
▁cook	-9.74512
▁14	-9.74749
▁trust	-9.7477
▁happens	-9.74824
not	-9.74844
▁needs	-9.74986
▁pieces	-9.75008
▁silver	-9.7502
▁die	-9.75033
▁van	-9.75159
unk	-9.75176
▁laugh	-9.7529
▁sick	-9.75337
▁league	-9.75416
▁force	-9.75422
▁turns	-9.75456
▁soft	-9.75467
▁population	-9.75498
▁moving	-9.7551
▁minister	-9.75685
▁rabbit	-9.75803
▁welcome	-9.75809
▁grow	-9.75849
▁lose	-9.75993
▁ought	-9.76165
▁commune	-9.76175
ler	-9.76248
ex	-9.76294
▁hole	-9.76599
▁cheese	-9.76716
▁fly	-9.76743
▁spring	-9.7681
▁america	-9.76891
▁flowers	-9.76904
out	-9.76925
▁animal	-9.77055
▁spot	-9.77164
▁mess	-9.77181
▁council	-9.77227
▁international	-9.7727
▁finally	-9.77311
▁build	-9.77373
▁further	-9.77393
▁ar	-9.77491
▁anymore	-9.77559
▁wonderful	-9.77656
▁sad	-9.77713
▁spoke	-9.77738
▁sky	-9.77787
▁plate	-9.77791
▁ye	-9.77997
▁local	-9.78034
▁month	-9.7817
▁legs	-9.78261
▁laughs	-9.78391
▁‘	-9.7846
ff	-9.78595
▁kill	-9.78622
▁pan	-9.78671
▁except	-9.78843
ham	-9.79031
▁parents	-9.79177
▁fix	-9.79264
▁reach	-9.79349
▁beginning	-9.79411
▁none	-9.79585
mother	-9.79605
▁mi	-9.79625
▁circle	-9.79698
gasps	-9.79707
vi	-9.7972
▁received	-9.79761
▁exclaimed	-9.79837
▁doubt	-9.79921
▁dry	-9.79953
▁san	-9.80018
▁including	-9.80094
her	-9.80106
▁michael	-9.80125
▁robert	-9.80203
▁winter	-9.80335
▁officer	-9.8038
▁beat	-9.8054
▁rising	-9.80542
wa	-9.80579
▁report	-9.8075
▁machine	-9.81142
noise	-9.81194
illustration	-9.81222
▁james	-9.81302
▁ex	-9.81429
▁pet	-9.81473
▁ju	-9.81604
▁square	-9.81621
▁weren	-9.81711
now	-9.81756
au	-9.81781
▁jo	-9.8179
▁teacher	-9.81999
▁bro	-9.82046
▁attention	-9.82074
▁hide	-9.82108
▁carried	-9.82151
child	-9.82216
▁walking	-9.82272
▁ga	-9.82354
▁meant	-9.82369
ating	-9.82452
▁video	-9.82557
▁members	-9.8261
▁sand	-9.82699
box	-9.82715
▁track	-9.82793
▁works	-9.82856
▁distance	-9.82859
▁rich	-9.82907
▁dream	-9.82918
laugh	-9.82926
▁doll	-9.82983
za	-9.83036
▁pa	-9.83742
–	-9.83904
red	-9.83928
▁direction	-9.83988
▁record	-9.84021
▁lion	-9.84033
▁sub	-9.84122
▁cap	-9.84152
▁wash	-9.84264
▁century	-9.84269
▁engine	-9.84276
ee	-9.84345
9	-9.84346
ster	-9.84536
uk	-9.8461
▁appeared	-9.84663
tur	-9.8478
▁drop	-9.8495
▁object	-9.85194
▁worth	-9.85236
▁grandma	-9.8526
▁silence	-9.85448
▁jim	-9.85502
▁crying	-9.85571
▁writing	-9.85586
á	-9.8568
mon	-9.8575
▁support	-9.85839
▁capital	-9.85857
▁leg	-9.86005
▁harry	-9.86061
cat	-9.86119
ding	-9.86214
▁type	-9.86219
▁gu	-9.86231
▁tu	-9.86315
ow	-9.86386
ship	-9.86564
▁su	-9.86589
▁shouldn	-9.86829
▁match	-9.86833
▁camera	-9.86896
▁seeing	-9.86913
▁promise	-9.87056
points	-9.87063
▁dropped	-9.87064
ward	-9.87113
▁ko	-9.87146
▁billy	-9.87176
▁kiss	-9.87376
▁account	-9.8739
▁egg	-9.87584
▁allowed	-9.87616
▁information	-9.8765
qui	-9.87676
sings	-9.87727
▁spoon	-9.87817
▁due	-9.8785
▁shape	-9.8807
▁walked	-9.88172
▁pounds	-9.88346
ut	-9.88386
▁coat	-9.88394
▁favorite	-9.88402
▁taste	-9.88612
▁laughing	-9.88628
▁expect	-9.88665
▁wake	-9.88711
▁teeth	-9.88856
▁province	-9.88886
▁roll	-9.89141
▁difficult	-9.89309
▁continued	-9.89492
▁based	-9.89548
▁tall	-9.89617
▁especially	-9.89656
ial	-9.89755
▁character	-9.89831
▁stage	-9.89835
this	-9.90012
▁interesting	-9.90013
▁cream	-9.9003
▁fresh	-9.90066
▁share	-9.90084
▁surprise	-9.9016
▁shut	-9.90314
clock	-9.90366
▁monkey	-9.90376
▁grass	-9.90387
=	-9.90632
▁ow	-9.9064
▁base	-9.90918
house	-9.9092
▁sha	-9.91024
ning	-9.91115
▁roman	-9.91141
▁reading	-9.91489
▁famous	-9.91499
▁letters	-9.91523
▁row	-9.9167
gi	-9.91684
▁teddy	-9.91717
ber	-9.91788
tra	-9.91927
ier	-9.92006
can	-9.92246
▁block	-9.9225
▁pe	-9.92257
lu	-9.92346
▁fi	-9.92576
our	-9.9267
▁card	-9.92725
▁trip	-9.92758
▁bobby	-9.92999
▁scene	-9.93117
▁nin	-9.93153
▁honor	-9.93164
▁key	-9.93221
▁itself	-9.93393
▁created	-9.93423
ized	-9.93431
▁forest	-9.93458
▁period	-9.93482
▁elephant	-9.93484
▁ja	-9.93509
ru	-9.93704
▁final	-9.93757
ric	-9.93775
▁japan	-9.93818
▁smile	-9.9389
▁mountain	-9.93911
▁cha	-9.93972
▁future	-9.93995
▁ear	-9.94138
▁kitty	-9.94159
then	-9.9416
room	-9.94277
▁conversation	-9.94298
▁stars	-9.94331
▁sta	-9.94473
▁center	-9.94604
▁puts	-9.94724
▁du	-9.94734
line	-9.94773
looks	-9.94836
▁prince	-9.95102
▁chocolate	-9.95105
▁brush	-9.95177
▁pocket	-9.952
▁laughed	-9.95281
▁forgot	-9.95465
▁eggs	-9.95498
▁perfect	-9.95718
▁popular	-9.95745
▁clever	-9.95758
▁smell	-9.9579
▁germany	-9.95847
▁horses	-9.95909
▁imp	-9.95923
▁uhoh	-9.9595
▁inter	-9.95954
▁union	-9.96098
▁tower	-9.9619
▁interested	-9.96331
▁twelve	-9.96394
▁tiger	-9.96417
▁serious	-9.96448
▁glass	-9.9657
▁ears	-9.96695
▁explain	-9.96703
▁grew	-9.96737
ina	-9.96767
▁paid	-9.96801
▁crayon	-9.9683
▁va	-9.97129
▁singing	-9.97136
▁dan	-9.97223
▁alive	-9.97324
▁ni	-9.97364
▁port	-9.97369
▁shake	-9.97376
▁slowly	-9.97385
▁cor	-9.97388
▁term	-9.97449
▁radio	-9.97551
ey	-9.97554
jo	-9.97675
▁storm	-9.97797
▁pain	-9.97881
▁cars	-9.97884
▁director	-9.97921
▁picks	-9.97931
▁birds	-9.9795
▁jane	-9.98025
▁plane	-9.98133
▁health	-9.98301
▁sheep	-9.98409
▁mouse	-9.98473
▁betty	-9.98556
ig	-9.98563
▁finger	-9.99002
▁below	-9.99004
▁choo	-9.99104
▁price	-9.99165
mer	-9.99199
▁lying	-9.99209
ville	-9.99228
▁self	-9.99437
▁pot	-9.99464
▁cast	-9.99576
▁ate	-9.99742
▁fat	-9.99812
▁bet	-9.99922
▁wide	-9.9996
▁date	-9.99981
▁whoa	-10.0015
▁loved	-10.0034
▁25	-10.0048
▁size	-10.005
▁adult	-10.0052
▁boo	-10.0072
▁coast	-10.0072
▁situation	-10.0081
▁terrible	-10.0081
▁join	-10.0081
▁scared	-10.0083
▁speed	-10.0085
ford	-10.0093
▁test	-10.0103
▁neck	-10.0108
▁closed	-10.0112
▁showed	-10.0115
▁needed	-10.0116
▁computer	-10.0156
▁actor	-10.0158
▁sell	-10.0184
▁cost	-10.0185
▁ed	-10.0189
like	-10.0197
ol	-10.0198
▁politician	-10.0201
nce	-10.0209
▁yo	-10.021
urs	-10.0216
▁drawing	-10.0216
▁holds	-10.0218
▁unless	-10.0222
▁..	-10.0229
ite	-10.0241
▁inv	-10.025
▁bigger	-10.025
▁danger	-10.0254
▁california	-10.0266
▁subject	-10.0268
▁ti	-10.0275
▁⌊	-10.0283
▁sleeping	-10.0289
▁questions	-10.0291
ally	-10.0296
ned	-10.0299
field	-10.0302
▁knock	-10.0304
▁corn	-10.0309
▁shore	-10.032
▁jwww	-10.0321
▁⌈	-10.0321
20	-10.0332
ii	-10.0346
▁gas	-10.0352
▁sue	-10.0371
▁lee	-10.0374
▁asking	-10.038
▁henry	-10.039
▁kingdom	-10.0394
▁stories	-10.0398
▁richard	-10.0402
▁thus	-10.0419
ze	-10.0422
▁liked	-10.0424
▁difference	-10.044
side	-10.0442
▁driver	-10.0449
▁pi	-10.045
▁sharp	-10.0455
▁hardly	-10.0461
▁asleep	-10.0462
▁)	-10.0468
▁iron	-10.0468
▁press	-10.0472
▁phil	-10.0473
im	-10.0485
▁simple	-10.0492
▁forty	-10.0492
▁action	-10.0497
▁leaves	-10.05
í	-10.0502
▁india	-10.0505
▁leader	-10.0507
▁handle	-10.0509
▁bowl	-10.0521
▁species	-10.0532
▁hotel	-10.0536
ron	-10.0542
▁smart	-10.0545
▁bell	-10.0548
▁wheel	-10.0551
▁manner	-10.0555
▁30	-10.0567
cy	-10.0578
▁gar	-10.0596
▁countries	-10.0604
▁luck	-10.0613
▁edge	-10.0616
▁plays	-10.0619
▁skin	-10.0642
▁trade	-10.065
▁fruit	-10.0651
▁beach	-10.066
▁flat	-10.0661
tor	-10.0663
▁hate	-10.0668
▁similar	-10.0676
▁puzzle	-10.0684
▁turning	-10.0685
uh	-10.0697
pi	-10.0721
▁anne	-10.0727
▁peace	-10.0731
ub	-10.0734
gen	-10.0742
▁butter	-10.0742
▁sunday	-10.0745
io	-10.0749
▁central	-10.0749
▁bang	-10.0751
▁natural	-10.0764
ping	-10.0779
▁ri	-10.0789
▁starts	-10.0792
▁picked	-10.0798
▁val	-10.08
▁experience	-10.0803
▁according	-10.0811
▁mor	-10.0843
▁soul	-10.0844
▁aye	-10.0865
▁command	-10.0867
▁served	-10.0885
amp	-10.0889
ong	-10.0893
▁market	-10.09
▁loud	-10.0903
▁lower	-10.0904
fad	-10.091
end	-10.0911
▁judge	-10.0916
▁lock	-10.0925
▁therefore	-10.0927
▁24	-10.0931
▁meat	-10.0938
ical	-10.0942
▁sh	-10.0949
▁title	-10.0964
▁problems	-10.0973
▁helped	-10.0978
▁respect	-10.098
▁spent	-10.0982
▁older	-10.0982
op	-10.0982
mp	-10.0989
▁professional	-10.0994
▁election	-10.0995
▁pleasure	-10.0996
▁slow	-10.1005
▁include	-10.1015
▁result	-10.1017
▁speaking	-10.1027
bar	-10.1032
▁spread	-10.1038
▁suit	-10.1041
▁upstairs	-10.1044
▁cousin	-10.1044
▁mu	-10.1045
fe	-10.1051
ju	-10.1059
laughing	-10.1067
▁talked	-10.1071
▁calling	-10.1076
▁brave	-10.1077
▁puppet	-10.1082
▁movement	-10.1083
tion	-10.1084
ng	-10.1086
▁study	-10.1091
▁path	-10.1095
▁purpose	-10.1096
▁breath	-10.1105
▁lad	-10.1108
▁nature	-10.1108
▁western	-10.1112
▁learned	-10.1115
▁fingers	-10.1122
ise	-10.1126
kin	-10.1135
▁covered	-10.1141
▁double	-10.1144
▁wi	-10.1148
ku	-10.1151
▁parts	-10.1151
lan	-10.1157
lt	-10.1157
hu	-10.1158
▁shoot	-10.1164
▁beyond	-10.1165
▁social	-10.1167
▁royal	-10.1176
▁amount	-10.1182
ps	-10.119
ble	-10.1191
▁pie	-10.1192
▁bite	-10.1192
med	-10.1199
▁ru	-10.1199
tri	-10.1211
fri	-10.1215
▁("	-10.1216
who	-10.1229
bb	-10.1237
▁accident	-10.1239
▁feed	-10.1242
▁spend	-10.125
▁gate	-10.1257
▁oops	-10.1269
▁worse	-10.128
come	-10.1291
nd	-10.1291
▁joined	-10.1295
▁(20	-10.1303
▁private	-10.1312
▁paris	-10.1328
▁professor	-10.1333
vo	-10.1341
▁&	-10.1342
▁z	-10.1348
ang	-10.136
▁shoe	-10.137
king	-10.1376
▁message	-10.1383
▁deck	-10.1389
▁governor	-10.1399
▁monster	-10.1403
▁paint	-10.1407
▁shirt	-10.1408
▁japanese	-10.1413
some	-10.1414
▁caused	-10.1417
▁adam	-10.1425
du	-10.1425
▁fighting	-10.1431
▁charles	-10.144
fi	-10.1448
▁particular	-10.1452
▁fox	-10.1454
▁driving	-10.1456
▁notice	-10.1459
▁silly	-10.1462
▁christian	-10.1463
▁sarah	-10.1464
mb	-10.147
ste	-10.1501
▁heaven	-10.1503
▁escape	-10.1508
▁tiny	-10.1508
od	-10.1514
lic	-10.1526
▁length	-10.1532
▁beside	-10.1542
▁spanish	-10.1543
▁flying	-10.1547
▁bi	-10.1555
▁weather	-10.1556
▁clock	-10.1559
▁mistake	-10.1562
▁eleanor	-10.1571
ious	-10.1572
▁enemy	-10.1573
▁award	-10.158
▁project	-10.1581
▁dollars	-10.1583
▁tony	-10.1592
▁william	-10.1593
▁personal	-10.1602
▁role	-10.1605
▁guard	-10.1612
▁ver	-10.1646
ud	-10.1648
▁cookie	-10.165
▁political	-10.1651
▁mac	-10.1655
wood	-10.1656
▁smoke	-10.1661
▁dogs	-10.1673
▁missing	-10.1675
▁modern	-10.1691
▁various	-10.1699
▁background	-10.1705
▁entered	-10.1716
▁europe	-10.1728
▁lucky	-10.1731
▁tri	-10.1731
▁begin	-10.1735
▁pin	-10.1739
▁nurse	-10.1748
▁likely	-10.1751
▁fan	-10.1757
▁proud	-10.1758
▁declared	-10.1772
ok	-10.1776
▁agreed	-10.1785
tro	-10.1806
▁allow	-10.1812
▁hiding	-10.1818
gar	-10.1832
▁names	-10.1834
▁ladies	-10.1835
▁mike	-10.184
▁pair	-10.1842
▁offer	-10.1842
iv	-10.1843
▁directed	-10.186
ji	-10.1863
▁crime	-10.187
▁effect	-10.1871
ai	-10.1872
▁sch	-10.1876
▁quarter	-10.1885
▁arrived	-10.1888
▁enjoy	-10.1889
▁dressed	-10.1889
▁crazy	-10.1899
▁lid	-10.1904
▁drew	-10.1912
▁absolutely	-10.1921
▁angry	-10.1925
▁2010	-10.1935
▁starting	-10.1948
▁agree	-10.1951
▁pleasant	-10.1952
▁flower	-10.1955
law	-10.1965
▁tone	-10.1991
▁russian	-10.2012
▁spirit	-10.2021
▁original	-10.2024
han	-10.2027
▁falling	-10.2036
▁den	-10.204
▁saint	-10.2043
ice	-10.2045
▁science	-10.2046
▁dangerous	-10.2054
▁australia	-10.2058
▁happening	-10.2059
▁jesus	-10.2062
▁dolly	-10.2079
▁soldiers	-10.2097
▁sugar	-10.2099
▁census	-10.21
▁thou	-10.2102
▁extra	-10.2103
▁steps	-10.2116
▁singer	-10.2126
nt	-10.2126
▁2021	-10.2129
▁largest	-10.2131
▁bay	-10.2135
▁min	-10.2138
▁choice	-10.214
▁considered	-10.2155
▁23	-10.2156
▁apart	-10.2161
▁brain	-10.2169
▁northern	-10.2173
fa	-10.2174
▁slide	-10.2174
▁bra	-10.2176
▁accept	-10.2177
▁laid	-10.2178
▁si	-10.2184
▁version	-10.2202
▁anywhere	-10.222
▁centre	-10.2222
▁education	-10.2231
▁thick	-10.2235
▁sold	-10.2239
▁basket	-10.224
night	-10.2249
▁crew	-10.2252
▁forth	-10.2262
▁besides	-10.2263
oo	-10.2269
sib	-10.227
▁coach	-10.2271
▁mc	-10.2278
▁military	-10.2282
▁babies	-10.2287
ana	-10.229
ab	-10.2292
▁castle	-10.2292
▁meaning	-10.2294
▁saturday	-10.2298
▁meal	-10.2309
▁discovered	-10.2313
ator	-10.2324
▁plain	-10.2338
▁immediately	-10.234
▁neither	-10.2345
▁threw	-10.2351
sha	-10.2373
▁female	-10.2385
▁add	-10.2386
▁missed	-10.2393
▁easily	-10.2398
▁ocean	-10.2398
▁european	-10.2404
▁shows	-10.2405
▁blocks	-10.241
▁christ	-10.2416
▁climb	-10.2423
▁te	-10.2424
▁surprised	-10.2424
▁farmer	-10.2426
▁snake	-10.2429
▁completely	-10.2449
▁prize	-10.2455
▁bat	-10.2457
▁anna	-10.2458
▁murder	-10.2461
▁wearing	-10.2462
▁energy	-10.2472
▁purple	-10.2472
▁naughty	-10.2473
▁imagine	-10.2477
ving	-10.2483
▁bert	-10.2485
▁watched	-10.2486
▁journey	-10.2488
ita	-10.249
▁placed	-10.2492
▁process	-10.25
▁fault	-10.2503
▁→	-10.2505
ily	-10.2506
▁china	-10.2506
▁plant	-10.2512
▁joy	-10.2518
cing	-10.2522
10	-10.2525
▁twice	-10.2533
▁travel	-10.2537
▁pig	-10.2538
rd	-10.2551
▁marry	-10.2553
▁windows	-10.2553
▁spider	-10.2556
com	-10.2562
▁magic	-10.2563
▁roof	-10.2566
▁duty	-10.257
▁society	-10.2571
▁martin	-10.2574
▁goodness	-10.2582
▁empty	-10.2586
ach	-10.2589
▁woods	-10.2601
ened	-10.2603
▁pulled	-10.2611
▁municipality	-10.2611
▁current	-10.2627
ek	-10.2628
▁lines	-10.2633
▁100	-10.2639
000	-10.264
vocalizes	-10.2657
▁movies	-10.2659
▁raised	-10.2662
▁2011	-10.2678
▁barn	-10.268
▁lieutenant	-10.2684
▁model	-10.2703
ny	-10.2704
ph	-10.2711
▁higher	-10.2712
▁medicine	-10.2713
br	-10.2727
▁anti	-10.2732
sta	-10.2733
▁flight	-10.2741
▁boss	-10.275
▁supper	-10.2753
▁onto	-10.2754
▁simply	-10.2755
▁stream	-10.2762
▁plenty	-10.2764
▁oo	-10.277
▁mid	-10.2774
uff	-10.2775
om	-10.2778
▁lin	-10.2778
▁lift	-10.2784
nie	-10.2788
▁blow	-10.2804
▁vote	-10.2808
▁search	-10.2808
▁note	-10.2809
▁non	-10.2811
▁filled	-10.2813
▁hadn	-10.2813
nic	-10.2815
▁produced	-10.2815
▁goin	-10.2815
▁italian	-10.2823
▁balloon	-10.2829
▁charlie	-10.2829
▁bur	-10.2837
▁rate	-10.2842
ix	-10.2848
light	-10.2854
ium	-10.2854
▁mass	-10.2858
▁gives	-10.2861
▁2016	-10.2862
▁$	-10.2879
▁formed	-10.2886
kar	-10.2889
▁huge	-10.2896
▁flag	-10.2909
▁cho	-10.291
▁risk	-10.2922
▁fifteen	-10.2936
▁gentlemen	-10.2937
▁division	-10.2941
▁stan	-10.2947
tu	-10.2953
▁opening	-10.2953
▁studio	-10.2964
▁ge	-10.2967
col	-10.2968
▁fallen	-10.2969
▁princess	-10.2971
ile	-10.2972
▁telephone	-10.3005
▁tie	-10.3008
pro	-10.301
vin	-10.3025
kay	-10.3031
▁button	-10.3038
▁ancient	-10.3039
rya	-10.3043
▁range	-10.3043
▁eleven	-10.3049
▁practice	-10.306
▁decision	-10.3062
▁appearance	-10.3063
work	-10.3065
▁calm	-10.3067
▁sal	-10.3072
▁()	-10.3088
▁expected	-10.309
▁evidence	-10.3092
▁choose	-10.3095
▁prime	-10.3102
▁southern	-10.3107
ius	-10.3121
▁pound	-10.3121
▁songs	-10.3122
▁maggie	-10.313
▁protect	-10.313
▁male	-10.3146
▁colors	-10.3154
▁pleased	-10.3159
▁steven	-10.316
▁tin	-10.3166
▁total	-10.3171
▁whoops	-10.3173
▁channel	-10.3183
picks	-10.3189
▁ended	-10.3189
where	-10.3193
▁necessary	-10.3197
ney	-10.3202
brother	-10.3205
[	-10.3208
ack	-10.3213
▁announced	-10.3217
ip	-10.3219
30	-10.322
▁grave	-10.3221
▁success	-10.3232
_,	-10.3232
▁needta	-10.3233
▁mostly	-10.3233
▁pause	-10.3235
▁promised	-10.3243
▁gift	-10.3244
gan	-10.3251
▁swimming	-10.3254
▁gentleman	-10.3263
aft	-10.3276
are	-10.3283
▁official	-10.3283
▁ger	-10.3284
pping	-10.3288
▁comp	-10.3292
▁prove	-10.3293
off	-10.3297
▁sin	-10.3301
▁prison	-10.3314
▁believed	-10.332
▁je	-10.3325
▁rope	-10.3326
▁oil	-10.3327
▁mis	-10.3331
▁painting	-10.3333
▁usual	-10.3337
▁sail	-10.3345
▁tip	-10.3347
low	-10.3353
▁fred	-10.3353
▁salt	-10.3354
back	-10.3358
▁numbers	-10.3359
▁string	-10.336
tle	-10.3367
▁bound	-10.3374
,--	-10.3381
▁community	-10.3384
▁continues	-10.3389
▁awful	-10.3391
▁faith	-10.3395
▁mate	-10.3403
▁ke	-10.3411
▁26	-10.3413
▁op	-10.3424
ities	-10.343
▁papa	-10.3434
▁rule	-10.3453
▁ob	-10.3453
▁earlier	-10.3454
▁saved	-10.3507
▁episode	-10.3509
▁bin	-10.352
▁rough	-10.3524
▁grown	-10.3529
use	-10.3529
wi	-10.353
▁2014	-10.3536
lon	-10.3544
▁marriage	-10.3553
▁crowd	-10.3554
▁gray	-10.3559
▁laura	-10.3562
ung	-10.3569
▁writer	-10.3577
ez	-10.3578
15	-10.3595
▁ch	-10.3611
gg	-10.3615
mat	-10.3621
ette	-10.3632
▁strength	-10.3633
▁rid	-10.3637
soa	-10.3637
aw	-10.3656
▁material	-10.366
puts	-10.3667
counter	-10.3667
▁haha	-10.3674
ö	-10.3681
▁carefully	-10.3683
▁27	-10.3684
ide	-10.3686
▁2012	-10.3688
▁civil	-10.3688
▁lap	-10.3697
▁knife	-10.37
▁event	-10.3709
just	-10.3713
rus	-10.3713
▁2013	-10.3717
▁gra	-10.3721
jen	-10.3723
▁treat	-10.3728
▁aw	-10.3732
har	-10.3736
▁heat	-10.3743
▁par	-10.3744
▁ram	-10.3744
▁border	-10.3752
▁tight	-10.3768
▁mat	-10.3769
ev	-10.3774
ified	-10.3777
▁toast	-10.3784
ered	-10.3785
▁golden	-10.3788
zi	-10.3788
▁friday	-10.3791
▁tears	-10.3802
▁enter	-10.3806
▁dancing	-10.3806
oc	-10.3812
ren	-10.3814
▁har	-10.3814
▁blanket	-10.3817
takes	-10.3821
▁value	-10.3821
▁bike	-10.3822
▁style	-10.3822
▁mountains	-10.3826
▁site	-10.3827
▁jean	-10.3836
▁listening	-10.3839
▁santa	-10.3841
▁weight	-10.3845
▁dirty	-10.3852
▁fourth	-10.3853
▁texas	-10.3853
uch	-10.3856
rk	-10.3858
▁nest	-10.3858
cries	-10.3864
tan	-10.3867
▁author	-10.387
▁spell	-10.3877
shi	-10.3884
▁sudden	-10.3886
▁growing	-10.3891
▁wolf	-10.3895
ize	-10.3898
▁metal	-10.3899
▁speech	-10.3906
▁forgive	-10.3906
ov	-10.3913
ky	-10.3918
▁hum	-10.3923
▁shoulder	-10.3925
(	-10.3926
▁noticed	-10.3926
els	-10.3932
▁bonnet	-10.3939
▁obviously	-10.3952
▁28	-10.3958
▁keeping	-10.396
▁officers	-10.396
▁regular	-10.397
▁ordered	-10.3975
▁research	-10.3976
▁development	-10.3977
old	-10.3978
▁max	-10.3981
bra	-10.399
▁tro	-10.3992
ible	-10.3993
▁downstairs	-10.4001
▁2015	-10.4016
ap	-10.4041
▁ross	-10.4044
▁colonel	-10.4046
ot	-10.4047
▁struck	-10.4066
▁2018	-10.4067
▁valley	-10.4067
▁design	-10.4078
▁smith	-10.4088
▁thy	-10.4093
▁signal	-10.4099
▁2008	-10.4099
▁correct	-10.4102
▁manager	-10.4113
▁2022	-10.4123
▁involved	-10.4125
q	-10.4126
▁moves	-10.4131
▁horn	-10.4132
▁joke	-10.4141
▁teach	-10.4152
▁program	-10.4155
▁lawyer	-10.4158
▁address	-10.416
▁alice	-10.4163
ions	-10.4166
▁otherwise	-10.4166
▁terms	-10.4173
▁lights	-10.4173
▁tar	-10.4174
▁bomb	-10.4175
▁serve	-10.4175
▁bee	-10.418
▁motor	-10.4182
▁native	-10.4186
ugh	-10.4187
▁hu	-10.4188
▁cell	-10.4189
see	-10.4199
▁stairs	-10.4209
▁stock	-10.4216
▁impossible	-10.4218
▁championship	-10.4219
▁angel	-10.4223
▁sis	-10.4224
▁goodbye	-10.4229
▁log	-10.4229
▁guns	-10.4234
▁swing	-10.4239
▁pizza	-10.4244
▁youth	-10.4247
▁agent	-10.4258
▁washington	-10.4258
▁[2	-10.4263
▁29	-10.4269
▁shi	-10.4277
▁colour	-10.4278
▁taught	-10.428
▁published	-10.4282
▁wise	-10.4283
▁training	-10.4284
▁wan	-10.4284
▁lips	-10.4292
hand	-10.4295
▁magazine	-10.4296
▁decide	-10.4299
▁individual	-10.4306
▁burn	-10.4331
ag	-10.4345
mel	-10.4349
▁stranger	-10.4351
good	-10.4358
12	-10.4358
▁mission	-10.4359
▁worried	-10.4367
▁beauty	-10.437
▁italy	-10.4376
mu	-10.4391
▁comment	-10.4405
▁normal	-10.4405
▁giant	-10.4407
here	-10.4414
▁throat	-10.4419
▁canada	-10.4422
ties	-10.4423
▁crown	-10.4425
play	-10.4428
ming	-10.4434
▁disease	-10.4438
▁finding	-10.445
▁ninety	-10.445
&	-10.4452
ative	-10.4459
▁honest	-10.4463
ries	-10.4468
▁ruth	-10.4469
▁spoken	-10.4476
▁bedroom	-10.4476
with	-10.4476
▁everywhere	-10.4478
war	-10.4485
▁pool	-10.4485
▁planet	-10.4487
▁ned	-10.4489
▁2007	-10.45
▁yum	-10.4507
▁closer	-10.4514
▁fo	-10.4515
▁2009	-10.4516
tes	-10.4518
▁actress	-10.4523
▁ty	-10.4524
▁nineteen	-10.4528
▁fe	-10.453
▁blind	-10.4537
▁cards	-10.4539
▁tongue	-10.4542
▁bull	-10.4555
nor	-10.4561
▁chris	-10.4564
ou	-10.4568
▁swim	-10.4568
▁committee	-10.4572
ped	-10.4573
▁entire	-10.4578
▁brand	-10.4579
▁orders	-10.4584
▁bother	-10.4589
nny	-10.459
peter	-10.459
▁commander	-10.4597
▁strike	-10.4598
▁surface	-10.4612
⌉.	-10.4615
▁tries	-10.4624
▁spin	-10.4625
▁plants	-10.4626
▁ham	-10.4633
over	-10.4633
▁ze	-10.4657
▁fence	-10.4658
▁eastern	-10.4676
▁sixty	-10.4678
▁dare	-10.4685
▁forgotten	-10.4689
▁towel	-10.4689
▁wedding	-10.469
▁crash	-10.4691
▁claim	-10.4699
▁fixed	-10.4699
▁complete	-10.471
▁1,	-10.4721
▁begins	-10.4723
▁roger	-10.4725
▁prepared	-10.4729
gue	-10.4733
▁owner	-10.4735
sighs	-10.4743
▁wine	-10.4747
▁tim	-10.4749
▁partner	-10.4749
ations	-10.475
▁mal	-10.4755
pped	-10.4759
▁sake	-10.476
--"	-10.4761
▁republic	-10.4767
▁smaller	-10.4779
▁thin	-10.4802
▁shadow	-10.4805
▁medal	-10.4806
▁africa	-10.4826
▁beep	-10.483
▁weak	-10.4833
▁founded	-10.4837
kh	-10.4841
▁bri	-10.4843
▁ku	-10.4847
ld	-10.4858
▁spain	-10.4864
▁2006	-10.4864
▁chinese	-10.4864
▁purdie	-10.4866
▁motion	-10.4873
ec	-10.4874
▁mister	-10.4877
▁excited	-10.4879
▁nick	-10.488
▁louis	-10.4884
▁loss	-10.4885
▁21	-10.4887
▁treasure	-10.4908
▁located	-10.4919
▁50	-10.4919
▁generally	-10.492
▁drinking	-10.4921
▁gen	-10.4921
▁broad	-10.4924
▁cro	-10.4928
▁continue	-10.4928
▁pu	-10.4928
▁dump	-10.493
▁managed	-10.4933
▁trick	-10.4948
▁definitely	-10.4949
▁greater	-10.4951
▁rush	-10.4952
▁cabin	-10.4955
dor	-10.4955
▁shown	-10.4958
ik	-10.4964
▁che	-10.4967
▁zoo	-10.4973
head	-10.4975
▁sports	-10.498
11	-10.4981
▁quietly	-10.4986
▁brothers	-10.4987
▁dick	-10.4998
▁mix	-10.5004
▁reaches	-10.5004
▁del	-10.501
▁fill	-10.5021
▁dust	-10.5021
▁formula	-10.5025
ded	-10.5025
▁kick	-10.5029
▁sandwich	-10.5029
▁ann	-10.503
tis	-10.5039
▁jumped	-10.5042
▁cloth	-10.5044
▁museum	-10.505
▁upset	-10.506
▁fashion	-10.506
port	-10.5061
▁empire	-10.5073
▁attempt	-10.5076
▁condition	-10.5077
▁evil	-10.5081
▁contract	-10.5085
ple	-10.5092
when	-10.5098
▁banana	-10.5099
more	-10.5106
looking	-10.5106
▁hay	-10.5109
ken	-10.5112
gro	-10.5114
▁fellows	-10.5122
▁aged	-10.5123
▁shout	-10.5126
▁uhuh	-10.5128
▁sword	-10.5131
bye	-10.5139
▁falls	-10.5141
morrow	-10.5148
▁trail	-10.5148
▁pit	-10.5156
babbles	-10.5157
▁wheels	-10.5157
fully	-10.5158
▁grab	-10.5158
▁odd	-10.5159
▁suggest	-10.5164
▁opportunity	-10.5167
▁remain	-10.5167
▁possibly	-10.5168
▁ray	-10.5171
⌋.	-10.5179
▁fur	-10.5183
▁alarm	-10.5188
▁wave	-10.5191
oth	-10.5192
berg	-10.5204
▁carrying	-10.5213
▁novel	-10.5216
▁students	-10.5218
▁relationship	-10.5227
nes	-10.5228
▁sp	-10.5228
▁gordon	-10.523
▁gi	-10.5231
▁rocks	-10.5233
ela	-10.5234
▁remained	-10.5237
▁secretary	-10.524
▁security	-10.5253
▁runs	-10.5258
▁softly	-10.5259
▁cur	-10.5262
▁grace	-10.5264
▁rules	-10.5264
▁airport	-10.5274
▁riding	-10.5279
▁file	-10.5282
ston	-10.5288
▁greatest	-10.5296
▁cal	-10.5303
▁mamma	-10.5312
16	-10.5332
▁hero	-10.5336
▁plans	-10.5338
▁release	-10.534
▁willing	-10.5345
▁pipe	-10.5351
▁opposite	-10.5351
▁chart	-10.5358
ica	-10.5359
▁opinion	-10.5363
50	-10.5363
▁leading	-10.5372
ology	-10.5375
▁rise	-10.5376
▁monday	-10.5395
▁holiday	-10.5396
ably	-10.5399
▁pack	-10.54
▁fu	-10.5405
▁section	-10.5405
▁fl	-10.5408
▁yup	-10.5409
▁desk	-10.5416
▁showing	-10.5425
▁col	-10.5428
▁events	-10.5428
▁suggested	-10.5431
▁nope	-10.5438
▁walks	-10.5469
▁hook	-10.5471
▁equal	-10.5482
row	-10.5487
▁stayed	-10.5493
▁contact	-10.5494
▁ghost	-10.5503
▁groups	-10.552
▁hy	-10.5523
su	-10.5536
▁soldier	-10.5537
▁sentence	-10.5544
▁favor	-10.5544
▁pray	-10.5549
▁microphone	-10.5552
▁hmm	-10.5555
▁loose	-10.5561
glo	-10.5578
▁bessie	-10.5587
▁realize	-10.5588
▁greek	-10.5601
din	-10.5603
▁guide	-10.5624
▁knee	-10.5625
▁para	-10.5641
▁tan	-10.5642
▁olympics	-10.5643
▁mail	-10.5645
▁seconds	-10.5645
▁ourselves	-10.5649
▁easier	-10.5655
▁tent	-10.5656
▁offered	-10.5658
▁ken	-10.5661
und	-10.5662
▁records	-10.5665
▁direct	-10.567
▁helping	-10.5675
▁patient	-10.5675
▁wo	-10.5679
▁production	-10.5681
▁hug	-10.5681
▁afterwards	-10.5683
van	-10.5683
▁areas	-10.5693
▁chain	-10.5693
▁sex	-10.5694
jes	-10.5694
je	-10.5696
▁goat	-10.5698
▁fool	-10.57
til	-10.5702
nk	-10.5706
▁hunt	-10.5712
▁tap	-10.5713
act	-10.5713
get	-10.5724
▁staff	-10.573
▁yyy	-10.5736
▁consider	-10.5744
▁bart	-10.5745
▁cities	-10.5749
bble	-10.575
▁scott	-10.5756
nu	-10.5757
▁rome	-10.576
▁foreign	-10.5769
▁trunk	-10.5782
▁pile	-10.579
▁performance	-10.5794
rate	-10.5795
▁apparently	-10.5799
ue	-10.581
▁kim	-10.5812
die	-10.5812
▁directly	-10.5815
▁younger	-10.5817
▁glasses	-10.5817
▁’	-10.5818
▁changes	-10.5821
▁excellent	-10.5821
▁safety	-10.5834
▁frightened	-10.5836
▁host	-10.5845
▁tank	-10.5847
▁association	-10.5848
▁qua	-10.5849
▁standard	-10.5849
▁brilliant	-10.5851
▁credit	-10.5852
▁narrow	-10.5858
▁dinosaur	-10.5858
▁presently	-10.5863
/0	-10.5867
rie	-10.5868
▁manage	-10.5869
▁wal	-10.5875
pl	-10.5877
▁bringing	-10.5879
▁dutch	-10.5885
▁perfectly	-10.5894
▁surely	-10.5894
dis	-10.5896
▁text	-10.5897
▁joseph	-10.5898
▁ladder	-10.5899
▁retired	-10.5902
right	-10.5903
▁dozen	-10.5906
▁~	-10.5908
ama	-10.591
look	-10.5914
year	-10.5922
chuckles	-10.5924
▁neat	-10.593
▁ci	-10.5932
very	-10.5932
▁moo	-10.5943
▁rub	-10.5946
▁memory	-10.5947
ches	-10.5948
▁2000	-10.5949
▁academy	-10.595
▁whispered	-10.5952
▁source	-10.5956
▁fancy	-10.5957
set	-10.5958
▁shopping	-10.596
▁edward	-10.5966
▁za	-10.5968
▁honour	-10.597
▁successful	-10.5972
vis	-10.5974
▁settled	-10.5981
silence	-10.5983
▁comfortable	-10.5988
▁bump	-10.5989
▁sum	-10.5997
▁knowledge	-10.5999
▁fortune	-10.5999
▁clown	-10.6001
▁bu	-10.6002
▁code	-10.6004
ball	-10.6006
ris	-10.6011
▁awards	-10.6015
▁lamb	-10.6022
▁task	-10.6022
▁eighty	-10.6035
▁com	-10.6041
pri	-10.6047
▁anxious	-10.6061
▁horsie	-10.6061
▁pressure	-10.6062
▁forever	-10.6068
▁airplane	-10.6068
▁doggie	-10.6079
▁wondering	-10.608
▁jones	-10.608
▁silent	-10.608
▁buddy	-10.6083
▁nursery	-10.6085
▁ste	-10.6085
▁smiled	-10.6087
▁shouted	-10.6094
▁chap	-10.6101
▁response	-10.6105
filler	-10.6106
▁boots	-10.6106
▁services	-10.612
▁chairman	-10.6123
ala	-10.6126
phone	-10.6127
▁separate	-10.6128
▁bathroom	-10.6128
▁soup	-10.6136
▁mon	-10.6139
▁poo	-10.614
▁carriage	-10.6143
▁comfort	-10.6151
▁hop	-10.6151
nods	-10.6153
▁blame	-10.6154
▁bush	-10.6156
▁glance	-10.6156
▁forced	-10.616
▁mention	-10.6164
did	-10.6168
▁score	-10.6169
▁mile	-10.6176
▁fairy	-10.6178
av	-10.6184
▁biggest	-10.6187
ering	-10.6189
sen	-10.6189
ture	-10.6199
▁proper	-10.6201
▁islands	-10.6201
-19	-10.6203
▁waste	-10.6204
ax	-10.621
▁tough	-10.621
▁hammer	-10.6211
▁provide	-10.6212
▁cute	-10.6216
▁yard	-10.6216
rr	-10.6219
▁medical	-10.6223
▁palace	-10.6229
▁cu	-10.6229
▁media	-10.6233
was	-10.6237
▁dar	-10.6239
▁2017	-10.624
▁forces	-10.6241
voc	-10.6244
▁sport	-10.6246
▁pencil	-10.625
▁mag	-10.6253
▁22	-10.6253
▁hanging	-10.6255
▁trans	-10.6262
▁nu	-10.6267
▁shell	-10.6284
▁trial	-10.6289
▁2019	-10.629
▁culture	-10.6292
mic	-10.6294
▁dada	-10.6294
▁explained	-10.6295
ery	-10.6296
stone	-10.6296
13	-10.6298
▁photo	-10.6299
▁[3	-10.6303
take	-10.6304
duc	-10.6306
▁mentioned	-10.631
▁upper	-10.6311
▁pla	-10.6314
bout	-10.6319
▁particularly	-10.632
▁mirror	-10.632
▁flow	-10.6325
▁fairly	-10.6328
▁eaten	-10.6335
▁snap	-10.6336
▁dig	-10.634
▁shook	-10.634
▁waited	-10.6341
▁smiling	-10.6343
▁cases	-10.6343
▁rings	-10.6344
▁occasion	-10.6345
▁walls	-10.6348
▁destroy	-10.635
kat	-10.6355
▁jam	-10.6358
▁belong	-10.6366
▁network	-10.6372
▁bal	-10.6372
▁reply	-10.6372
▁tractor	-10.6376
▁appear	-10.6384
▁gentle	-10.6385
▁yu	-10.6385
dic	-10.6387
▁cash	-10.6389
zo	-10.6395
lyn	-10.6402
bby	-10.6411
gie	-10.6423
▁2005	-10.6424
des	-10.6428
▁remind	-10.6432
▁grandpa	-10.6437
▁included	-10.6437
▁developed	-10.644
▁birth	-10.6441
▁powerful	-10.6443
▁highest	-10.6468
▁ph	-10.6471
▁mus	-10.6488
▁duh	-10.6489
▁somewhat	-10.6489
▁sweetie	-10.6492
▁faster	-10.6492
▁pour	-10.6494
▁pilot	-10.6495
ker	-10.6495
fer	-10.6495
▁wings	-10.6501
▁houses	-10.6502
▁signed	-10.6503
place	-10.6506
▁app	-10.6514
▁crack	-10.6514
ther	-10.6516
▁express	-10.6516
▁studied	-10.6518
▁holy	-10.6522
▁amazing	-10.6524
▁penny	-10.6525
▁larger	-10.6527
▁artist	-10.654
▁cloud	-10.6541
▁rod	-10.6545
▁2004	-10.6548
▁washing	-10.6554
▁kinda	-10.6555
ay	-10.6563
▁flew	-10.6564
oon	-10.6564
bre	-10.6568
▁clearly	-10.657
▁boom	-10.6571
▁passing	-10.6571
▁method	-10.6573
▁drama	-10.6575
ep	-10.6577
▁owl	-10.6583
▁pal	-10.6588
tive	-10.6592
▁receive	-10.6597
▁avoid	-10.66
▁faint	-10.6607
pu	-10.6608
gh	-10.6609
▁gri	-10.6612
ify	-10.662
▁expression	-10.6626
ug	-10.6626
eg	-10.6629
ari	-10.6631
▁players	-10.6632
▁2001	-10.6641
▁hearing	-10.6643
▁gro	-10.6644
pan	-10.6652
▁dragon	-10.6655
▁gang	-10.6659
▁jar	-10.6659
▁calls	-10.6661
▁ships	-10.6663
ists	-10.6665
ye	-10.6676
▁afford	-10.6676
▁hung	-10.6681
▁parliament	-10.6685
▁beast	-10.6687
▁splash	-10.6692
hy	-10.6699
▁aid	-10.6709
▁ted	-10.6716
▁firm	-10.6719
air	-10.6722
▁properly	-10.6736
▁yay	-10.6739
▁repeated	-10.6742
▁hills	-10.675
▁lara	-10.6759
▁recording	-10.6762
yo	-10.6763
tal	-10.6763
▁gain	-10.6764
ged	-10.6764
▁papers	-10.6764
▁influence	-10.6768
▁turtle	-10.6769
▁ways	-10.6771
▁doin	-10.6772
▁cancer	-10.6773
▁copy	-10.6774
▁railway	-10.6776
▁ban	-10.679
▁justice	-10.6793
▁content	-10.6802
14	-10.6806
]!	-10.6811
rri	-10.6817
▁priest	-10.682
▁desire	-10.6821
▁florida	-10.6823
▁harm	-10.6823
▁chicago	-10.6826
▁skill	-10.683
▁russia	-10.6843
▁scratch	-10.685
18	-10.6855
▁stands	-10.6868
mor	-10.6871
▁madam	-10.6882
▁gil	-10.689
▁library	-10.6897
▁australian	-10.6897
▁1990	-10.6901
▁heads	-10.6901
▁ii	-10.6904
▁keys	-10.6905
say	-10.6906
▁rat	-10.6912
▁han	-10.6913
▁damage	-10.6914
▁temple	-10.6919
▁weird	-10.6923
▁companion	-10.6923
▁spare	-10.6927
▁effort	-10.693
door	-10.694
▁nervous	-10.6945
▁average	-10.6948
▁organization	-10.6948
▁hal	-10.6951
▁sides	-10.6954
▁shh	-10.6959
▁acting	-10.6967
▁raise	-10.6972
ory	-10.6985
▁related	-10.6987
▁elected	-10.6988
▁map	-10.699
▁positive	-10.6992
▁thrown	-10.6993
▁tra	-10.6994
▁vessel	-10.6997
ick	-10.6997
ura	-10.6999
rn	-10.7
▁nap	-10.7007
▁grandmother	-10.7008
▁folks	-10.701
▁baseball	-10.7017
▁concerned	-10.702
ade	-10.7025
▁fre	-10.7032
will	-10.7034
▁philip	-10.7034
book	-10.7039
▁hurried	-10.7044
down	-10.7047
▁property	-10.7049
▁peas	-10.7057
▁latter	-10.7058
▁cre	-10.7059
tte	-10.7061
▁disappeared	-10.7061
▁mill	-10.7062
▁40	-10.7062
▁alex	-10.7063
▁emperor	-10.7065
▁leaf	-10.7065
▁available	-10.7068
▁awake	-10.7069
▁der	-10.7075
lea	-10.7081
▁apartment	-10.7084
▁wound	-10.7088
▁remarked	-10.709
▁pushed	-10.709
▁cra	-10.7092
ign	-10.7096
▁rev	-10.7098
▁steve	-10.7098
▁percent	-10.7099
▁ki	-10.7104
▁african	-10.7111
ray	-10.7119
▁understood	-10.7127
▁rear	-10.7131
▁burst	-10.7134
▁tour	-10.7134
▁grant	-10.7137
▁tickle	-10.7142
izing	-10.7147
▁weekend	-10.715
▁garage	-10.7157
cle	-10.7158
▁worst	-10.7166
▁bunch	-10.7168
yard	-10.718
▁fought	-10.7183
worth	-10.7184
board	-10.7189
▁wire	-10.7199
▁route	-10.72
▁function	-10.7202
▁mummie	-10.7204
whispers	-10.7205
▁religion	-10.7207
▁los	-10.7215
▁cooking	-10.7215
▁detective	-10.7218
▁plastic	-10.7221
▁fond	-10.7226
▁jerry	-10.7229
▁fired	-10.7232
▁structure	-10.7239
▁knocked	-10.724
▁fishing	-10.7244
▁seriously	-10.7248
▁economic	-10.7253
▁noble	-10.7255
▁shooting	-10.7256
▁soviet	-10.726
▁exist	-10.726
▁magnet	-10.726
▁rank	-10.7268
▁wagon	-10.7273
▁print	-10.7275
▁drove	-10.728
▁policy	-10.7281
roz	-10.7285
ised	-10.7295
ew	-10.7296
have	-10.7298
▁competition	-10.7302
▁remembered	-10.7303
▁theory	-10.7311
▁ellie	-10.7314
sie	-10.7315
▁independent	-10.732
▁butterfly	-10.7323
▁merry	-10.7326
▁sigh	-10.7327
▁31	-10.7328
▁darkness	-10.7329
▁failed	-10.7329
▁throwing	-10.733
▁ideas	-10.7333
▁dere	-10.7343
▁jan	-10.7343
▁q	-10.7346
▁aware	-10.7346
▁create	-10.7346
nder	-10.7349
ks	-10.735
▁indians	-10.7351
▁stu	-10.7352
mr	-10.7353
rac	-10.736
▁advantage	-10.7366
▁prevent	-10.7383
shed	-10.7384
▁jimmy	-10.7386
ven	-10.7388
▁quit	-10.7388
▁wished	-10.7388
zz	-10.7389
▁drawn	-10.7396
▁peanut	-10.7398
▁pole	-10.7399
▁tommy	-10.7403
▁gently	-10.7405
▁puppy	-10.7405
▁unit	-10.7409
▁previous	-10.7413
mm	-10.7414
▁fla	-10.7429
tain	-10.7438
▁plus	-10.7439
sure	-10.744
▁friendly	-10.7441
▁sweetheart	-10.7441
▁steam	-10.7455
lia	-10.7461
thank	-10.7468
▁mud	-10.7471
▁cave	-10.7472
▁staying	-10.748
▁bark	-10.7484
▁throughout	-10.7484
▁sy	-10.749
put	-10.7491
▁temperature	-10.7494
▁freedom	-10.7494
▁fully	-10.7497
▁chase	-10.7501
▁dun	-10.7502
illa	-10.7508
▁delight	-10.7508
ging	-10.7518
bri	-10.7518
▁grey	-10.7526
▁mayor	-10.7527
▁traffic	-10.7534
▁campaign	-10.7538
▁newspaper	-10.7539
▁active	-10.7542
▁types	-10.7544
▁knowing	-10.7549
▁1980	-10.7553
▁wha	-10.7553
▁gal	-10.7556
roll	-10.7566
ada	-10.7568
▁courage	-10.757
▁image	-10.7575
▁sur	-10.7578
▁steal	-10.7578
▁vo	-10.7579
fish	-10.7582
▁bullet	-10.7583
▁somehow	-10.7584
19	-10.759
▁hunting	-10.759
stra	-10.7594
▁tied	-10.7594
▁hut	-10.7606
▁measure	-10.7613
▁mexico	-10.7614
▁smooth	-10.7614
ria	-10.7615
gged	-10.7619
▁boats	-10.7621
▁statistics	-10.7621
▁pale	-10.763
fall	-10.7635
▁benefit	-10.7636
▁nana	-10.7639
▁aft	-10.764
▁2003	-10.7641
▁activity	-10.7642
▁degree	-10.765
▁hell	-10.7657
▁drum	-10.766
ini	-10.766
▁cheer	-10.7662
▁elizabeth	-10.7662
▁entirely	-10.7667
gging	-10.7667
▁familiar	-10.7669
▁hockey	-10.7672
▁¶	-10.7675
▁mixed	-10.7678
▁prefer	-10.7678
▁advice	-10.7684
▁hidden	-10.7684
▁ahhah	-10.7687
"]	-10.7695
ets	-10.7697
▁shark	-10.7698
ock	-10.7701
▁daniel	-10.7703
▁buried	-10.7706
len	-10.7708
▁grandfather	-10.771
▁quack	-10.7711
gy	-10.7711
▁screen	-10.7716
▁turkey	-10.7717
▁gosh	-10.7724
▁julia	-10.7726
▁split	-10.7729
▁tale	-10.7731
▁jacket	-10.7733
▁sposta	-10.7735
▁shower	-10.7736
▁candy	-10.7738
▁vehicle	-10.7739
▁ur	-10.7741
mad	-10.7755
▁feelings	-10.7756
▁sar	-10.7756
▁faces	-10.7757
ara	-10.7759
▁admit	-10.7763
cent	-10.7764
▁whistle	-10.777
▁attend	-10.7771
gle	-10.7773
▁canadian	-10.7776
▁pulling	-10.7781
ü	-10.7785
21	-10.7786
▁doo	-10.7787
▁presence	-10.7787
▁deer	-10.7788
san	-10.7792
▁totally	-10.7793
▁becoming	-10.7794
▁sang	-10.7795
▁matt	-10.7797
▁eric	-10.7799
▁data	-10.7803
sey	-10.7806
▁uses	-10.7808
▁majesty	-10.7816
▁plum	-10.7822
▁net	-10.7823
▁boxes	-10.7824
hal	-10.7825
▁caterpillar	-10.7828
▁touched	-10.7833
cus	-10.7844
ena	-10.785
your	-10.7852
▁trap	-10.7853
▁brian	-10.7857
▁adventure	-10.7857
▁reported	-10.7858
▁currently	-10.7859
▁ireland	-10.7863
▁dying	-10.7864
▁branch	-10.7864
▁pond	-10.7866
▁determined	-10.7867
▁troops	-10.7869
▁desert	-10.7869
▁2002	-10.7869
▁chat	-10.7877
▁realized	-10.7877
▁chemical	-10.788
▁rice	-10.7892
▁slip	-10.79
▁jumping	-10.79
▁scotland	-10.7906
▁shock	-10.7909
vy	-10.7914
▁thunder	-10.7914
▁handsome	-10.7914
▁madame	-10.7916
▁pages	-10.7928
lie	-10.7929
▁tre	-10.7931
▁latin	-10.7934
▁teams	-10.794
▁yummy	-10.7945
▁arthur	-10.7951
▁doors	-10.7956
▁families	-10.7959
▁socks	-10.7963
▁ce	-10.7966
▁zzz	-10.7967
▁cl	-10.7969
▁student	-10.797
▁woo	-10.7979
▁eva	-10.798
▁languages	-10.7987
▁repeat	-10.7987
elle	-10.7988
▁switch	-10.7991
press	-10.7991
▁shame	-10.8004
▁labour	-10.8008
ae	-10.8019
▁electric	-10.8023
▁poet	-10.8029
▁curious	-10.8029
▁bon	-10.803
dra	-10.8033
▁knees	-10.8034
▁instant	-10.8036
▁described	-10.8046
▁recently	-10.8053
▁reckon	-10.8053
▁volume	-10.8057
▁stones	-10.8058
sound	-10.806
art	-10.8065
shire	-10.8074
▁excitement	-10.8076
▁cutting	-10.8086
▁cookies	-10.809
father	-10.809
▁locked	-10.8091
▁exercise	-10.8095
top	-10.8097
▁fifth	-10.8099
uck	-10.81
istic	-10.8102
▁paying	-10.8105
▁height	-10.8107
stand	-10.8107
▁interview	-10.8108
▁buzz	-10.8112
▁load	-10.8117
▁tax	-10.812
▁chamber	-10.813
▁matches	-10.8131
▁produce	-10.8139
sur	-10.8146
▁crayons	-10.8146
▁km	-10.8149
▁shoulders	-10.8155
tz	-10.816
▁aim	-10.8163
▁pointing	-10.8167
mal	-10.817
▁sheet	-10.8172
▁experiment	-10.8172
▁seventy	-10.8173
lar	-10.8176
▁rob	-10.8176
▁aside	-10.8182
▁loves	-10.8182
▁operation	-10.8191
▁gay	-10.8196
▁dunno	-10.8198
▁fail	-10.8201
▁issue	-10.8206
▁relax	-10.8211
▁doggy	-10.8212
rated	-10.8212
▁pony	-10.8216
▁picking	-10.8227
ever	-10.8232
▁wore	-10.8236
▁legal	-10.8237
▁chest	-10.8238
cu	-10.8245
gin	-10.8246
17	-10.8253
▁whenever	-10.8253
▁increase	-10.8259
▁fund	-10.8263
▁duke	-10.8264
▁cough	-10.8267
tell	-10.8267
▁evidently	-10.827
▁pointed	-10.8276
▁bone	-10.8277
▁catholic	-10.8277
▁iii	-10.828
pin	-10.828
▁reg	-10.8284
▁lies	-10.8289
▁appreciate	-10.8292
ight	-10.8293
ien	-10.8294
▁trace	-10.83
▁waves	-10.8303
▁festival	-10.8304
▁arrest	-10.8306
▁irish	-10.8307
▁gathered	-10.8308
bel	-10.831
▁normally	-10.831
iz	-10.8312
▁byebye	-10.8313
▁sc	-10.8317
▁strip	-10.8319
▁icecream	-10.832
▁deliver	-10.8323
▁crawl	-10.8326
▁0	-10.8331
▁rifle	-10.8332
▁eighteen	-10.8332
▁authority	-10.8341
▁postman	-10.8345
py	-10.8355
▁physical	-10.8355
▁maid	-10.8364
▁slightly	-10.8366
▁kinds	-10.8372
▁wil	-10.8374
▁progress	-10.8375
tel	-10.8376
▁cy	-10.8377
▁mount	-10.8382
25	-10.8383
▁planning	-10.8388
aunt	-10.8389
▁drunk	-10.839
▁target	-10.8391
▁goal	-10.8393
▁pooh	-10.8393
▁photograph	-10.8394
▁belt	-10.8399
▁wooden	-10.84
▁industry	-10.8402
rge	-10.8408
▁access	-10.841
▁nan	-10.841
▁climate	-10.8414
lau	-10.8414
▁drops	-10.8418
▁breaking	-10.8424
vocalize	-10.8429
▁characters	-10.8431
even	-10.8438
▁rolling	-10.8439
▁shelter	-10.8442
▁advance	-10.8456
▁musical	-10.8459
▁includes	-10.8461
▁sausage	-10.8461
▁demand	-10.8461
▁approach	-10.8464
▁len	-10.8476
▁diamond	-10.8477
▁boston	-10.8478
▁stretch	-10.8479
bil	-10.848
▁dreams	-10.8481
▁exp	-10.8489
▁statement	-10.8492
▁rescue	-10.8492
qua	-10.8496
▁jigsaw	-10.8497
▁lack	-10.8499
ä	-10.8501
▁objects	-10.8502
cho	-10.8507
▁2,	-10.8509
▁wing	-10.8514
▁figures	-10.8525
▁vol	-10.8527
dan	-10.8529
▁chu	-10.853
▁sticker	-10.8533
▁queer	-10.8552
ister	-10.8553
▁sits	-10.8554
▁observed	-10.8557
▁sixteen	-10.8557
▁wag	-10.8563
iff	-10.8569
fra	-10.8572
▁albert	-10.8575
▁elder	-10.8575
fo	-10.8576
▁whee	-10.8578
▁lisa	-10.8578
▁feels	-10.8581
▁nation	-10.8583
▁learning	-10.859
sung	-10.8591
lor	-10.8593
▁nina	-10.8593
ition	-10.8601
▁cliff	-10.8602
▁tender	-10.8603
pp	-10.8604
▁federal	-10.8605
▁eventually	-10.8613
▁slept	-10.8613
▁matters	-10.8614
yl	-10.8615
▁transport	-10.8616
▁lamp	-10.8617
▁stack	-10.862
▁eve	-10.8622
▁burning	-10.8623
▁brook	-10.8629
ern	-10.8632
▁wipe	-10.8632
ell	-10.8648
▁congress	-10.865
▁tunnel	-10.8654
▁piano	-10.8654
▁pur	-10.8654
ino	-10.8655
log	-10.8657
▁lil	-10.8664
▁scientists	-10.8666
▁clap	-10.8669
▁rent	-10.8669
▁polly	-10.8673
▁fleet	-10.8676
▁purse	-10.8678
▁recorder	-10.8681
uring	-10.8682
▁lane	-10.8683
▁cats	-10.8684
▁yards	-10.8689
▁exchange	-10.869
▁spite	-10.8692
▁tha	-10.8699
ett	-10.8699
▁victory	-10.8702
▁passage	-10.8706
▁companies	-10.8706
▁organ	-10.8707
cla	-10.8712
▁lou	-10.8714
▁coal	-10.8716
▁destroyed	-10.8722
▁conference	-10.8723
▁deserve	-10.8727
▁arab	-10.8729
cept	-10.873
▁origin	-10.873
▁scarcely	-10.8737
▁swear	-10.8743
▁1970	-10.8756
▁canoe	-10.8758
▁pillow	-10.876
▁recorded	-10.8762
bus	-10.8763
▁mainly	-10.8777
▁unknown	-10.8777
▁owe	-10.8778
turns	-10.8778
▁bloody	-10.8779
▁angeles	-10.8779
▁wounded	-10.8781
▁beneath	-10.8784
▁originally	-10.8795
▁tick	-10.8796
win	-10.8796
▁wondered	-10.8797
▁arrow	-10.8805
▁bucket	-10.8806
▁tuesday	-10.8808
▁listened	-10.8811
boy	-10.8812
about	-10.8813
▁effects	-10.8815
▁scale	-10.8817
▁racing	-10.8818
ens	-10.8821
▁cop	-10.8829
▁dorothy	-10.8829
▁clouds	-10.883
▁soap	-10.8834
ula	-10.8835
▁established	-10.8835
gre	-10.8836
▁useful	-10.8838
▁bug	-10.8839
▁fourteen	-10.8841
▁bits	-10.8842
▁stamp	-10.8849
▁custom	-10.8851
▁pity	-10.8854
fu	-10.8855
may	-10.8857
▁pants	-10.8858
▁stepped	-10.8859
ration	-10.8869
▁robin	-10.8872
▁features	-10.8879
▁speaker	-10.888
▁prisoners	-10.8882
▁democratic	-10.8886
▁plot	-10.8888
ure	-10.8889
▁creature	-10.8891
▁rail	-10.8895
▁potato	-10.8899
▁brief	-10.8902
▁craft	-10.8904
▁bodies	-10.8904
▁restaurant	-10.8907
zy	-10.8908
▁dam	-10.891
uc	-10.891
▁weapons	-10.891
▁symbol	-10.8911
▁hen	-10.8911
town	-10.8915
rum	-10.8916
▁gre	-10.8931
▁fri	-10.8933
bury	-10.8937
▁reasons	-10.894
▁stomach	-10.8945
cc	-10.8946
nch	-10.8952
making	-10.8952
▁fireman	-10.8954
▁collection	-10.8957
▁cricket	-10.8962
spir	-10.8964
▁2023	-10.8966
▁beg	-10.8968
▁flash	-10.897
60	-10.8971
”.	-10.8971
▁rapidly	-10.8973
▁describe	-10.8974
▁settlement	-10.8975
igh	-10.8982
▁lifted	-10.8987
▁ter	-10.8988
▁proved	-10.8991
▁kat	-10.8994
▁giraffe	-10.9003
eth	-10.9006
▁underneath	-10.9007
▁comedy	-10.9009
bbing	-10.901
▁enjoyed	-10.9012
▁switzerland	-10.9012
▁folk	-10.9017
ob	-10.9024
▁auntie	-10.9025
▁guest	-10.9031
▁walter	-10.9034
▁fate	-10.9035
▁lonely	-10.9041
▁engaged	-10.9046
star	-10.9047
▁guilty	-10.9048
▁performed	-10.905
music	-10.9054
long	-10.9055
▁challenge	-10.9058
▁click	-10.9065
▁counter	-10.9065
▁exciting	-10.9066
▁owned	-10.9074
▁woof	-10.9074
▁defend	-10.9075
▁keeps	-10.9075
bed	-10.9078
▁prisoner	-10.9078
▁tur	-10.9086
▁chop	-10.9094
▁fed	-10.9095
▁drug	-10.9095
▁steady	-10.9096
▁discover	-10.9097
▁horrible	-10.91
▁thursday	-10.91
▁responsible	-10.9104
▁warning	-10.9107
▁invited	-10.911
▁removed	-10.9113
▁whisper	-10.9121
▁steel	-10.9122
▁oliver	-10.9125
▁lucy	-10.9125
▁producer	-10.9127
▁fer	-10.9129
▁opera	-10.9129
▁tear	-10.9131
▁peep	-10.9135
▁couch	-10.9137
▁rec	-10.9137
cor	-10.9138
▁recognize	-10.9138
▁habit	-10.914
▁pakistan	-10.9147
▁picnic	-10.9151
▁polish	-10.9152
▁document	-10.9155
ann	-10.9156
▁unusual	-10.9156
▁senior	-10.9159
▁beans	-10.9161
▁divided	-10.9166
▁nearer	-10.9167
▁peggy	-10.9168
▁cage	-10.917
▁suspect	-10.9175
▁delicious	-10.9176
▁uniform	-10.9181
▁ser	-10.9185
▁remove	-10.9202
▁din	-10.9205
▁maria	-10.9205
▁britain	-10.9211
▁dish	-10.9214
▁mighty	-10.9215
▁bent	-10.9217
▁ordinary	-10.9219
▁comb	-10.9221
▁pitch	-10.9222
▁religious	-10.9223
▁rode	-10.923
▁settle	-10.9237
▁concert	-10.9241
cut	-10.9248
▁tend	-10.925
▁cups	-10.925
▁1960	-10.9254
▁dawn	-10.9259
▁truly	-10.9261
▁hol	-10.9264
▁bless	-10.9272
▁pure	-10.9274
▁forms	-10.9277
▁incident	-10.9279
coughs	-10.928
▁collect	-10.9286
▁shift	-10.9288
▁voices	-10.9296
▁rep	-10.9299
▁losing	-10.93
▁sergeant	-10.9301
holds	-10.9305
▁closely	-10.9308
▁jail	-10.9309
▁protest	-10.9312
▁stra	-10.9315
ero	-10.9316
giggles	-10.932
ux	-10.9322
▁kidding	-10.9325
▁struggle	-10.9327
▁difficulty	-10.9329
▁ee	-10.9329
▁trains	-10.9331
▁remark	-10.9331
▁client	-10.9331
▁location	-10.934
▁innocent	-10.934
▁pulls	-10.9344
▁1999	-10.9345
▁vice	-10.9346
▁circus	-10.9348
⌋	-10.9351
run	-10.9356
▁frame	-10.9361
▁hunter	-10.9364
▁zealand	-10.9366
▁brick	-10.9366
▁relief	-10.9374
▁def	-10.9376
▁woke	-10.9377
▁curtain	-10.9379
▁teaching	-10.9386
▁alexander	-10.9392
▁jelly	-10.9392
▁bid	-10.9397
ei	-10.9398
▁donald	-10.9406
▁susan	-10.9408
▁stroke	-10.9409
▁fields	-10.9416
▁3,	-10.9417
▁supply	-10.9422
▁bones	-10.9426
cul	-10.9428
dar	-10.9429
mark	-10.9431
▁entrance	-10.9431
▁regret	-10.9431
fire	-10.9432
rog	-10.9437
▁winner	-10.9439
▁wednesday	-10.9444
▁becky	-10.9446
▁treatment	-10.9446
▁chips	-10.9448
▁bend	-10.9448
▁sally	-10.945
his	-10.9454
▁winning	-10.9455
▁bishop	-10.9457
▁cent	-10.9458
▁washed	-10.9469
▁competed	-10.9475
ef	-10.9479
▁nicole	-10.9479
ila	-10.9485
▁lit	-10.9487
▁badly	-10.9496
▁[4	-10.9508
hel	-10.9509
del	-10.951
▁jenny	-10.9511
▁results	-10.9513
wn	-10.9518
▁witness	-10.9524
▁landed	-10.9526
fin	-10.9537
▁florence	-10.9541
▁sim	-10.9543
mus	-10.9547
cli	-10.9555
ale	-10.9559
▁junior	-10.9563
five	-10.9565
lies	-10.9573
▁hoping	-10.9575
▁bla	-10.9576
▁ski	-10.9579
ose	-10.958
▁witch	-10.9582
▁schools	-10.9597
▁generation	-10.9599
lf	-10.9599
▁bricks	-10.96
ear	-10.9603
▁firstname	-10.9604
▁regard	-10.962
▁slipped	-10.9621
▁revolution	-10.9625
▁greatly	-10.9625
pointing	-10.9626
kf	-10.9628
▁scream	-10.9631
cher	-10.9637
▁shouting	-10.964
▁mmm	-10.9641
▁pine	-10.9642
▁1996	-10.9644
▁killing	-10.9646
▁changing	-10.9648
▁policeman	-10.9648
▁occur	-10.9651
▁treated	-10.9655
bert	-10.9656
▁2020,	-10.9658
▁pitcher	-10.9659
▁quality	-10.9661
▁buildings	-10.9661
▁pad	-10.9662
▁programme	-10.9665
ó	-10.9666
▁lorry	-10.9671
▁daily	-10.9672
pet	-10.9672
az	-10.9674
▁balance	-10.9675
▁branches	-10.9675
▁gene	-10.9682
▁sisters	-10.9682
▁lesson	-10.9687
▁1992	-10.9688
▁streets	-10.969
▁thirteen	-10.9697
▁beer	-10.9711
bell	-10.9715
▁setting	-10.9716
▁limit	-10.9719
▁caroline	-10.972
▁rad	-10.9723
▁request	-10.9723
▁sno	-10.9726
▁circumstances	-10.9729
▁consul	-10.9731
form	-10.9732
▁mustn	-10.9735
▁andrew	-10.9739
▁perform	-10.9741
▁focus	-10.9742
▁nancy	-10.9743
▁toilet	-10.9746
▁pattern	-10.9746
▁temper	-10.9747
dog	-10.9749
▁ren	-10.975
gger	-10.9758
eh	-10.976
ram	-10.9766
▁bond	-10.9769
▁sid	-10.9775
▁marie	-10.9776
▁keen	-10.9777
▁uk	-10.9778
dia	-10.9783
▁sink	-10.9795
ked	-10.9809
40	-10.9809
▁accepted	-10.9813
▁fork	-10.9815
▁planned	-10.9816
bal	-10.9818
▁concern	-10.9822
ava	-10.9826
▁1998	-10.9828
▁tidy	-10.9835
tail	-10.9836
▁opens	-10.9837
▁happiness	-10.9841
▁eddie	-10.9842
▁refused	-10.9844
▁universe	-10.9855
wing	-10.9861
▁solid	-10.9861
ban	-10.9862
aries	-10.9865
▁jackson	-10.9866
▁seal	-10.9871
▁annie	-10.9871
▁holes	-10.9877
▁broadcast	-10.9878
▁kar	-10.9879
▁ruin	-10.9879
▁affairs	-10.988
▁expensive	-10.9882
▁chosen	-10.9884
▁pra	-10.989
▁creek	-10.9892
▁chum	-10.9892
▁rushed	-10.9895
▁lover	-10.9898
▁bun	-10.9899
ō	-10.9901
▁upside	-10.9905
▁oak	-10.9905
sel	-10.9907
▁farther	-10.9908
lou	-10.9914
▁frogs	-10.9914
sol	-10.9916
ect	-10.9917
▁tire	-10.9918
▁pride	-10.9923
▁flip	-10.9926
▁connection	-10.9931
▁flame	-10.9932
mate	-10.9937
▁parties	-10.9939
▁captured	-10.9945
`	-10.9947
boat	-10.9949
ization	-10.9949
▁clip	-10.9951
dale	-10.9952
▁weapon	-10.9957
ré	-10.9957
99	-10.9959
▁introduced	-10.9967
ington	-10.9967
▁marks	-10.9967
▁crocodile	-10.9979
▁cab	-10.9983
▁represent	-10.9988
▁molly	-10.9991
▁favour	-10.9992
try	-10.9995
water	-10.9996
▁bears	-10.9997
bird	-10.9999
sky	-11.0003
▁etc	-11.0006
nina	-11.0006
▁1995	-11.0007
▁matthew	-11.0011
▁becomes	-11.0019
▁replaced	-11.0019
ani	-11.0023
▁principal	-11.003
cker	-11.0033
▁engineer	-11.0035
▁required	-11.0038
▁mari	-11.0038
▁devil	-11.0039
▁clay	-11.0046
▁trousers	-11.0048
vol	-11.005
▁brazil	-11.0052
▁victim	-11.0062
▁thousands	-11.0064
▁savage	-11.0067
▁climbing	-11.007
burg	-11.0071
▁escaped	-11.008
▁arrive	-11.0081
▁actual	-11.0081
▁aah	-11.0082
▁1994	-11.0086
▁territory	-11.009
voice	-11.0097
▁ji	-11.0098
▁pas	-11.0101
▁whale	-11.0102
▁satisfied	-11.0106
▁criminal	-11.0109
hum	-11.0113
▁studies	-11.0114
boo	-11.0115
mhm	-11.0116
2.	-11.0121
eva	-11.0127
▁scary	-11.0128
▁egypt	-11.013
▁qui	-11.0131
▁intended	-11.0132
▁platform	-11.0132
▁pee	-11.0143
▁recognized	-11.0151
▁stable	-11.0151
▁tummy	-11.0151
▁debut	-11.0153
cur	-11.0153
▁pepper	-11.0162
▁tropical	-11.017
▁dishes	-11.0171
▁screw	-11.0175
▁audience	-11.0184
▁notes	-11.0187
two	-11.0192
ima	-11.0192
▁shan	-11.0194
pen	-11.0199
▁nut	-11.0201
▁splendid	-11.0203
▁conf	-11.0204
▁device	-11.0205
any	-11.0212
▁virginia	-11.0215
tom	-11.0221
▁cock	-11.0221
shouts	-11.0221
▁tam	-11.0229
▁critic	-11.0231
▁daisy	-11.0231
▁dolls	-11.0231
▁hur	-11.0233
ib	-11.0234
ese	-11.0235
pha	-11.0236
which	-11.0238
▁talks	-11.0238
▁wand	-11.024
▁sara	-11.0251
▁dee	-11.0252
▁sul	-11.0253
▁punch	-11.0253
▁(;	-11.0254
▁attacked	-11.0259
▁seek	-11.0259
ola	-11.0259
▁armed	-11.026
▁patsy	-11.0263
▁saving	-11.0267
miss	-11.027
▁laws	-11.0273
▁clo	-11.0275
ians	-11.0276
▁danny	-11.0277
break	-11.0281
▁xi	-11.0282
▁instance	-11.0284
ification	-11.0285
▁altogether	-11.0288
▁arrested	-11.0296
▁drugs	-11.0296
▁powder	-11.0298
▁mil	-11.0298
bling	-11.0299
▁killer	-11.0301
▁oven	-11.0302
▁jimmie	-11.0303
hen	-11.0304
▁belongs	-11.0307
mont	-11.0307
80	-11.0313
▁traditional	-11.0315
ddle	-11.0316
▁tune	-11.0317
rah	-11.0317
▁sooner	-11.0321
▁rolled	-11.0322
ability	-11.0324
net	-11.0331
▁ol	-11.0334
▁hasta	-11.0335
▁provided	-11.0335
▁ticket	-11.0339
▁2020)	-11.0344
▁addition	-11.0351
▁basically	-11.0351
▁semi	-11.0352
▁affair	-11.0352
▁crossed	-11.0353
▁hoped	-11.0353
▁rare	-11.0356
▁lads	-11.0359
▁gee	-11.036
▁champion	-11.0361
▁eagerly	-11.0364
▁household	-11.0366
ates	-11.037
▁stole	-11.0377
▁dreadful	-11.0378
▁technology	-11.0379
zar	-11.0382
▁pushing	-11.0383
▁fra	-11.0389
▁footnote	-11.039
mann	-11.0393
new	-11.04
▁shining	-11.0405
▁demanded	-11.0406
▁sw	-11.0407
non	-11.0409
▁gained	-11.041
▁penguin	-11.0413
ata	-11.0415
▁stir	-11.0416
ano	-11.0417
▁1997	-11.0418
▁possession	-11.042
▁conditions	-11.0421
▁signs	-11.0422
án	-11.0427
serv	-11.0428
actually	-11.0429
▁cottage	-11.0432
▁stern	-11.0434
▁fuss	-11.0438
tie	-11.0442
▁mistress	-11.0442
▁rachel	-11.0442
▁connected	-11.0446
▁lessons	-11.0453
▁dec	-11.0453
wait	-11.0455
▁delighted	-11.0457
23	-11.0459
▁bounce	-11.0459
▁mickey	-11.0461
▁cheap	-11.0463
▁spy	-11.0463
▁reaction	-11.0465
▁chairs	-11.0471
▁refer	-11.0473
▁ouch	-11.0473
ole	-11.0475
▁slave	-11.0475
▁flood	-11.0476
▁assistant	-11.0476
▁belief	-11.048
▁dy	-11.0484
key	-11.0487
▁palm	-11.0489
▁entertainment	-11.0491
▁remains	-11.0494
▁emergency	-11.05
▁60	-11.0504
▁baba	-11.0505
▁designed	-11.0506
gon	-11.0507
▁pumpkin	-11.0511
▁dem	-11.0515
▁parish	-11.0518
ane	-11.0525
▁appointed	-11.0527
▁enemies	-11.0529
▁wrestling	-11.0529
▁selected	-11.0533
▁buck	-11.0535
▁occurred	-11.0535
▁peekaboo	-11.0539
▁useta	-11.0543
▁ven	-11.0547
▁rocket	-11.0549
▁laughter	-11.055
▁navy	-11.0555
▁suffering	-11.0557
▁climbed	-11.0561
▁assembly	-11.0563
▁protection	-11.0567
playing	-11.0571
zu	-11.0572
▁clark	-11.0573
table	-11.0577
▁cooper	-11.0578
▁sending	-11.0583
babble	-11.0588
▁sale	-11.0592
▁eager	-11.0592
▁coin	-11.0593
▁ali	-11.0594
rm	-11.0598
▁kit	-11.0606
▁sexual	-11.0606
98	-11.0607
▁bags	-11.0612
▁margaret	-11.0612
▁squirrel	-11.0612
▁sunshine	-11.0612
lus	-11.0614
▁johnny	-11.0616
▁rap	-11.0616
involuntary	-11.0622
▁carpet	-11.0627
▁bold	-11.0632
▁[$	-11.0632
▁dude	-11.0636
▁scheme	-11.0637
▁$1	-11.0638
▁appears	-11.0639
▁gla	-11.0645
▁sticks	-11.0646
aka	-11.0649
▁comic	-11.0655
most	-11.0656
▁barbara	-11.0657
01	-11.0657
ening	-11.0662
▁sacrifice	-11.0667
▁oldest	-11.0669
▁selling	-11.0678
gn	-11.068
▁reference	-11.0682
▁sailor	-11.0683
▁extremely	-11.0683
aun	-11.0684
gun	-11.0689
▁georgia	-11.0691
▁ash	-11.0694
▁basketball	-11.0697
▁straw	-11.0697
load	-11.0701
▁description	-11.0701
hood	-11.0711
⌉	-11.0715
▁workers	-11.0719
▁bel	-11.0719
▁mood	-11.0723
▁dave	-11.0723
▁harder	-11.0729
dge	-11.073
▁cruel	-11.0731
▁cows	-11.0735
▁leap	-11.0736
▁seated	-11.0741
▁hawk	-11.0741
▁ringing	-11.0741
▁increased	-11.0744
▁gotten	-11.0745
▁tissue	-11.0746
▁bible	-11.075
▁ambulance	-11.0751
▁failure	-11.0751
▁mask	-11.0756
▁grim	-11.0757
▁squeeze	-11.0766
▁chip	-11.077
▁appeal	-11.0771
▁char	-11.0772
mmer	-11.0785
chan	-11.0793
ere	-11.0796
yeah	-11.0797
poli	-11.0798
▁sandy	-11.0799
90	-11.0801
var	-11.0802
rick	-11.0804
▁details	-11.0812
▁systems	-11.0813
tha	-11.0816
▁victor	-11.0818
▁reward	-11.0821
▁fierce	-11.0821
▁cart	-11.0825
▁hearts	-11.0826
vent	-11.0826
▁1991	-11.0827
▁guests	-11.0827
▁recent	-11.0831
09	-11.0832
▁drawer	-11.0832
▁1988	-11.0842
▁rattle	-11.0843
▁ly	-11.0844
eat	-11.0846
▁watches	-11.0851
▁towns	-11.0859
▁breast	-11.0861
▁distributed	-11.0861
dies	-11.0865
ically	-11.0868
nel	-11.0874
ben	-11.0875
66	-11.0875
▁kindly	-11.0877
▁commission	-11.088
▁mystery	-11.0882
▁distant	-11.0887
▁repair	-11.0892
▁potatoes	-11.0897
▁warren	-11.0901
pre	-11.0916
▁strawberry	-11.0917
▁suffered	-11.092
▁auto	-11.0921
▁argument	-11.0922
▁confidence	-11.0922
▁kitten	-11.0928
▁adventures	-11.0929
▁mabel	-11.0931
▁commercial	-11.0932
▁asia	-11.0934
▁arch	-11.0936
▁jealous	-11.0937
▁nations	-11.0939
▁theatre	-11.0942
pit	-11.0943
ean	-11.0943
▁pirate	-11.0947
▁eu	-11.0948
▁passengers	-11.0953
▁knight	-11.0954
▁grateful	-11.0958
▁candidate	-11.0963
▁kate	-11.0964
▁arranged	-11.0965
▁complex	-11.0968
oy	-11.0968
▁peak	-11.0969
▁--	-11.0976
▁rapid	-11.098
▁highly	-11.098
▁roar	-11.0982
▁nerve	-11.0983
▁kin	-11.0984
▁hoo	-11.0985
96	-11.0986
▁worm	-11.0986
▁burned	-11.0989
▁musician	-11.0995
▁cents	-11.0996
▁wales	-11.0999
▁tournament	-11.1003
▁jason	-11.1007
▁warrior	-11.1009
after	-11.1015
▁disney	-11.1017
▁suffer	-11.1023
▁hadta	-11.1023
ched	-11.1025
▁ding	-11.1027
▁awww	-11.1031
▁blowing	-11.1031
rap	-11.1033
▁twin	-11.1036
▁estate	-11.1037
bur	-11.1038
▁ends	-11.1044
▁reserve	-11.1045
07	-11.1055
▁equipment	-11.1055
▁legend	-11.1061
▁sweden	-11.1065
▁false	-11.1065
▁scout	-11.1067
rich	-11.1071
▁rude	-11.1073
▁sil	-11.1076
89	-11.108
▁williams	-11.108
▁intention	-11.1087
▁unlike	-11.1093
▁grade	-11.1095
▁landing	-11.1099
kie	-11.11
▁marked	-11.11
moves	-11.1106
▁presents	-11.1111
▁prepare	-11.1111
▁spa	-11.1119
▁julie	-11.1128
▁buttons	-11.1132
▁complain	-11.1139
▁chess	-11.1141
▁fever	-11.1141
▁buying	-11.1142
▁driven	-11.1142
ute	-11.1146
open	-11.1151
▁bare	-11.1153
}	-11.1158
▁arts	-11.1159
▁strain	-11.1161
only	-11.1163
▁cries	-11.1167
foot	-11.1167
▁lt	-11.117
▁secure	-11.117
▁sneak	-11.1174
▁grapes	-11.1181
hoo	-11.1182
▁weigh	-11.1186
▁rang	-11.1192
▁austria	-11.1199
ati	-11.1202
▁painted	-11.1206
▁kissed	-11.1206
▁hor	-11.121
02	-11.121
▁slight	-11.1214
wh	-11.1214
▁scare	-11.1215
▁institute	-11.1215
bit	-11.1224
▁labor	-11.1225
ich	-11.1228
▁worn	-11.1231
▁fold	-11.1233
06	-11.1234
yan	-11.1237
▁precious	-11.1237
▁stops	-11.1238
▁raining	-11.1239
▁tracks	-11.125
▁ker	-11.1256
▁poison	-11.1257
▁thrill	-11.1257
ú	-11.1263
▁spaghetti	-11.1268
▁louise	-11.1268
▁unable	-11.1272
▁anchor	-11.1273
▁jungle	-11.128
▁horror	-11.1284
▁cereal	-11.1284
▁lately	-11.1292
▁arrangement	-11.13
▁hun	-11.1303
▁simon	-11.1303
▁financial	-11.1305
▁sofa	-11.1308
▁breathing	-11.131
▁construction	-11.1316
nar	-11.1317
▁poorly	-11.1322
22	-11.1325
▁mol	-11.1326
rous	-11.1331
▁naturally	-11.1332
▁stronger	-11.1335
▁gum	-11.1336
▁terror	-11.1341
▁ryan	-11.1342
shakes	-11.1346
▁cord	-11.135
▁roles	-11.135
qu	-11.1352
ira	-11.1354
▁granddad	-11.1357
▁nah	-11.1358
▁chan	-11.1358
▁lodge	-11.1359
▁despite	-11.1373
▁sylvia	-11.1374
▁cru	-11.1374
▁anger	-11.1375
▁canton	-11.1377
master	-11.1379
▁chose	-11.1381
▁permission	-11.1384
▁somethin	-11.1388
▁silk	-11.1389
▁ugh	-11.1396
▁helicopter	-11.14
▁gina	-11.1401
▁parent	-11.1402
▁reign	-11.1404
▁crisp	-11.1407
▁proof	-11.1408
24	-11.1411
▁baker	-11.1414
nia	-11.1414
▁acid	-11.1416
▁spirits	-11.142
▁1993	-11.1422
▁expert	-11.1432
▁wh	-11.1432
▁guitar	-11.1435
▁nik	-11.1437
▁bubbles	-11.1444
tv	-11.1452
▁sm	-11.1453
▁presented	-11.1458
▁vision	-11.1462
▁letting	-11.1464
▁1989	-11.1465
▁melt	-11.1465
▁[5	-11.1465
calais	-11.1465
ox	-11.1468
▁environment	-11.1469
▁sprang	-11.1475
▁jobs	-11.1475
band	-11.1476
▁bomba	-11.1476
has	-11.1479
round	-11.148
▁belle	-11.1482
▁patch	-11.1486
▁fin	-11.1487
▁mont	-11.1492
▁management	-11.1493
▁stove	-11.1493
▁jeff	-11.1495
▁romantic	-11.1496
▁soil	-11.1496
▁advanced	-11.1498
▁sauce	-11.1501
▁backwards	-11.1503
whispered	-11.1505
▁returning	-11.1505
▁breathe	-11.1505
▁toes	-11.1507
▁servant	-11.1509
pos	-11.1513
▁rug	-11.1519
▁ellen	-11.1519
▁flu	-11.1523
▁pace	-11.1524
▁noisy	-11.1534
▁hurricane	-11.1539
▁fetch	-11.154
▁chick	-11.154
hold	-11.1543
wan	-11.1547
ense	-11.1547
▁tools	-11.1547
www	-11.1547
▁barrel	-11.1549
▁4,	-11.1554
▁poem	-11.1554
▁wreck	-11.1555
▁ashamed	-11.1556
▁billion	-11.1557
▁solve	-11.1564
è	-11.1565
▁specific	-11.1568
▁salad	-11.1571
▁christopher	-11.1572
▁netherlands	-11.1572
ection	-11.1574
▁powers	-11.1582
bin	-11.1585
▁sen	-11.1586
print	-11.1589
cra	-11.1589
▁missouri	-11.1594
▁basic	-11.1595
▁tru	-11.1598
▁groan	-11.16
▁container	-11.1601
▁von	-11.1602
70	-11.1607
rit	-11.1608
▁label	-11.1609
▁eli	-11.1609
▁republican	-11.1614
▁hurts	-11.1617
▁stiff	-11.1618
▁defeat	-11.1619
▁dollar	-11.1623
▁americans	-11.1624
▁speaks	-11.1626
▁marine	-11.163
▁completed	-11.1636
▁sore	-11.1637
roy	-11.1646
28	-11.165
vocalization	-11.1653
▁slice	-11.1654
▁israel	-11.1655
ounce	-11.1661
46	-11.1662
▁wit	-11.1667
▁humans	-11.1671
▁sleepy	-11.1673
26	-11.1674
cri	-11.1675
screams	-11.1681
04	-11.1684
▁briefly	-11.1688
▁lang	-11.1693
▁cells	-11.1694
ami	-11.1695
jack	-11.1697
▁article	-11.1698
▁succeeded	-11.17
▁scan	-11.1701
27	-11.1701
▁factory	-11.1701
ising	-11.1706
▁product	-11.1711
▁tray	-11.1711
ua	-11.1716
▁sounded	-11.172
▁proposed	-11.172
91	-11.1722
oli	-11.1724
▁abe	-11.1724
▁throws	-11.1725
▁rou	-11.1725
▁mur	-11.1731
▁package	-11.1732
pot	-11.1741
ffe	-11.1744
hol	-11.1745
four	-11.1752
▁glory	-11.1753
ctor	-11.1755
▁tradition	-11.176
▁depends	-11.176
▁web	-11.1764
ski	-11.1768
▁johnson	-11.1771
▁teachers	-11.1772
▁claus	-11.1775
▁shaking	-11.1775
lk	-11.1775
▁disc	-11.1776
▁jersey	-11.178
lip	-11.178
▁grandad	-11.1782
▁senate	-11.1792
▁cupboard	-11.1793
from	-11.1798
▁bass	-11.18
referring	-11.1803
▁cone	-11.1806
▁builder	-11.1809
▁ability	-11.1811
▁admitted	-11.1815
▁bud	-11.1815
kins	-11.1819
▁plates	-11.182
cer	-11.1822
ene	-11.1829
▁responsibility	-11.1829
rob	-11.1837
*	-11.184
▁pushes	-11.1843
▁rip	-11.1844
▁korea	-11.1845
▁loving	-11.1848
▁wool	-11.1849
uri	-11.185
gt	-11.185
▁carolina	-11.1852
▁leans	-11.186
american	-11.1861
92	-11.1862
▁chin	-11.1862
▁issues	-11.1865
▁conduct	-11.1865
▁mel	-11.1865
▁lois	-11.1874
▁neighbor	-11.1876
hou	-11.1876
▁handed	-11.1878
▁nat	-11.1879
▁crow	-11.1884
93	-11.1885
–1	-11.1889
far	-11.1901
▁mental	-11.1901
▁shapes	-11.1906
bob	-11.1913
▁defense	-11.1913
▁angle	-11.1914
▁constant	-11.1915
fl	-11.192
cap	-11.192
lock	-11.1928
▁highway	-11.1929
▁threat	-11.193
57	-11.1934
ace	-11.1935
bor	-11.1936
▁spec	-11.1939
▁morgan	-11.1943
ological	-11.1944
▁fro	-11.1944
▁200	-11.1946
▁occupied	-11.1948
▁ducks	-11.1949
▁squeak	-11.195
▁sorts	-11.1951
▁explanation	-11.1952
june	-11.1954
▁talent	-11.1954
▁expedition	-11.1958
▁triangle	-11.1964
▁boot	-11.1965
▁cotton	-11.1965
▁spots	-11.1967
ori	-11.1968
▁stolen	-11.1971
▁zero	-11.1973
chu	-11.1974
count	-11.1976
rin	-11.1976
▁seized	-11.1984
▁whoo	-11.1985
▁battery	-11.1986
tsu	-11.1989
▁agreement	-11.199
▁/	-11.1992
▁1950	-11.1999
▁apples	-11.2
▁diver	-11.2008
▁sock	-11.2009
▁companions	-11.201
▁sales	-11.2017
ously	-11.2017
▁francis	-11.202
▁flo	-11.202
▁jeannine	-11.202
▁profit	-11.2021
▁tribe	-11.2025
pla	-11.2026
ella	-11.2031
▁vocalises	-11.2031
▁1984	-11.2032
▁bushes	-11.2035
▁coll	-11.2037
▁norman	-11.204
▁develop	-11.2044
▁joint	-11.2048
▁screaming	-11.2049
gai	-11.2053
▁portion	-11.2056
▁bench	-11.206
ique	-11.2061
▁missus	-11.2061
▁checked	-11.2062
▁cape	-11.2062
▁discuss	-11.2064
▁valuable	-11.2065
45	-11.2066
▁stadium	-11.2071
▁funeral	-11.2071
▁headquarters	-11.2071
▁tide	-11.2073
▁sings	-11.2073
under	-11.2075
▁earn	-11.2077
▁costume	-11.2077
▁lily	-11.2077
ces	-11.2079
tree	-11.2081
▁stopping	-11.2085
▁surrounded	-11.2087
▁pope	-11.2097
▁beads	-11.2098
▁furniture	-11.21
▁qu	-11.2104
▁discovery	-11.2104
▁oop	-11.2107
▁fc	-11.2115
hmm	-11.2116
▁brings	-11.2117
stein	-11.212
▁moral	-11.213
▁dur	-11.2132
▁hind	-11.2135
▁facing	-11.2135
▁capture	-11.2136
▁drift	-11.2137
▁scar	-11.2139
▁investigation	-11.214
pur	-11.2144
▁constitution	-11.2146
▁limited	-11.2152
▁shortly	-11.2153
▁meow	-11.2154
▁reality	-11.2162
▁oxford	-11.2163
▁edition	-11.2163
▁wherever	-11.2164
▁shade	-11.2166
▁recall	-11.2168
▁merchant	-11.2168
78	-11.2171
perhaps	-11.2173
▁politics	-11.2174
▁shops	-11.2179
▁aboard	-11.2181
▁iv	-11.2185
▁inhabitants	-11.2185
68	-11.2188
▁carbon	-11.2191
▁cher	-11.2192
▁historical	-11.2193
ching	-11.2199
▁frost	-11.2201
▁cheeks	-11.2203
▁unfortunately	-11.2209
▁fame	-11.221
▁cowboy	-11.2215
cal	-11.2216
▁begun	-11.2216
▁faithful	-11.2217
▁midnight	-11.2221
▁voyage	-11.2226
▁neighborhood	-11.2226
hl	-11.2228
▁meanwhile	-11.223
tim	-11.2237
▁temp	-11.224
▁healthy	-11.2243
▁seats	-11.2244
ral	-11.2248
▁heavily	-11.2249
▁polite	-11.2249
▁vacation	-11.2255
▁loudly	-11.2256
▁illinois	-11.2266
▁senator	-11.2267
rian	-11.2272
▁economy	-11.2272
▁executive	-11.2272
▁sixth	-11.2278
▁communication	-11.2278
▁girlfriend	-11.2283
▁require	-11.2284
▁beth	-11.229
cro	-11.2291
▁worship	-11.2295
▁www	-11.23
▁momma	-11.2303
▁dim	-11.2312
wo	-11.2313
known	-11.2315
▁aha	-11.2318
▁safely	-11.2319
▁ugly	-11.2325
00,000	-11.2325
▁mau	-11.233
▁carrots	-11.2332
▁compared	-11.2334
▁nodded	-11.2336
▁minor	-11.2338
▁pete	-11.2343
▁victoria	-11.2347
oma	-11.2351
▁link	-11.2352
▁emma	-11.2352
ges	-11.2353
while	-11.2354
▁kr	-11.2354
▁merely	-11.2359
▁jr	-11.236
▁1987	-11.236
▁expecting	-11.2362
wee	-11.2367
▁suggestion	-11.2369
▁easter	-11.237
▁syn	-11.2373
▁depend	-11.2375
▁editor	-11.2377
▁creep	-11.2378
▁affect	-11.2378
▁crab	-11.2384
76	-11.239
▁ages	-11.2391
▁que	-11.2394
▁defence	-11.2396
▁wishes	-11.2397
▁nonsense	-11.2397
▁roy	-11.24
▁sydney	-11.2401
▁patrick	-11.2401
▁refuse	-11.2403
▁bou	-11.2403
bon	-11.2405
54	-11.2406
crying	-11.2409
▁gran	-11.2409
▁mercy	-11.241
yn	-11.241
67	-11.2411
▁2019,	-11.2413
▁launch	-11.2418
aki	-11.2421
hr	-11.2427
▁atlantic	-11.243
▁eagle	-11.243
▁reform	-11.2434
▁principle	-11.2436
▁pacific	-11.2437
▁neighbour	-11.2442
▁schedule	-11.2442
▁bearing	-11.2443
▁prayer	-11.2445
▁poly	-11.2448
▁kir	-11.245
▁blew	-11.2451
▁charlotte	-11.2454
▁majority	-11.2454
▁scrap	-11.2454
▁gather	-11.2459
pon	-11.2461
▁whoever	-11.2463
▁chew	-11.2465
▁anyhow	-11.2465
▁chuck	-11.2466
▁arrival	-11.2466
▁dull	-11.2468
unnecessary	-11.2472
▁nominated	-11.2472
▁stephen	-11.2472
▁shy	-11.2478
▁goals	-11.2484
▁wilson	-11.2485
▁bernard	-11.249
avi	-11.2492
▁attached	-11.2492
▁charm	-11.2493
03	-11.2496
▁var	-11.2498
eu	-11.25
▁cleaning	-11.2501
mond	-11.2501
▁5,	-11.2507
▁raid	-11.2508
▁clothing	-11.2512
▁creatures	-11.2513
▁asian	-11.2513
▁skirt	-11.2513
▁1972	-11.252
▁cle	-11.252
▁beam	-11.2521
▁1986	-11.2526
▁review	-11.2527
▁mini	-11.2534
▁percy	-11.2534
▁vain	-11.2541
wick	-11.2542
▁charming	-11.2544
▁curl	-11.2545
▁severe	-11.2548
▁borrow	-11.2549
▁exception	-11.2549
94	-11.2549
▁internet	-11.255
pose	-11.2554
▁dominic	-11.2555
▁inform	-11.2556
▁tele	-11.2557
af	-11.2564
▁alan	-11.2568
reaches	-11.2569
▁mexican	-11.2573
▁significant	-11.2573
▁chill	-11.2574
▁sons	-11.259
▁independence	-11.2591
▁umbrella	-11.2597
ologist	-11.2597
▁liberal	-11.2602
----"	-11.2605
35	-11.2614
95	-11.2614
▁survive	-11.2617
▁behave	-11.2619
▁spoil	-11.2621
▁compound	-11.2627
▁geography	-11.2627
▁1981	-11.2627
▁jake	-11.2628
▁tramp	-11.2629
▁obliged	-11.2633
▁clue	-11.2633
▁zi	-11.2633
og	-11.2633
▁mah	-11.2634
▁colored	-11.2636
thing	-11.2638
▁consequence	-11.2639
▁insurance	-11.2639
▁nuclear	-11.2645
▁jolly	-11.2645
▁breed	-11.2645
▁aircraft	-11.2646
▁est	-11.2646
east	-11.2647
▁session	-11.2647
bol	-11.2648
▁previously	-11.2649
37	-11.2649
▁stress	-11.2657
cast	-11.2658
▁confirmed	-11.2658
▁considerable	-11.266
pass	-11.266
▁jewish	-11.2663
name	-11.2664
▁bride	-11.2665
▁disappointed	-11.2669
▁echo	-11.2675
▁seventeen	-11.2675
▁delay	-11.2678
▁blu	-11.2679
pers	-11.2682
ele	-11.2686
▁disappear	-11.2686
▁covid	-11.2688
▁reaching	-11.2689
61	-11.2691
▁spill	-11.2703
mine	-11.2709
▁rubber	-11.2724
bie	-11.2725
─	-11.273
▁friendship	-11.2731
▁swell	-11.2733
fic	-11.2734
▁80	-11.2735
▁vast	-11.2738
▁grunt	-11.274
▁approaching	-11.274
▁lincoln	-11.2742
▁hath	-11.2744
▁7,	-11.2745
▁nowhere	-11.2745
▁championships	-11.2746
▁gr	-11.2748
tony	-11.2752
▁sorrow	-11.2758
▁confused	-11.276
▁income	-11.2761
gel	-11.2762
▁6,	-11.2765
▁glow	-11.2766
▁joan	-11.2767
▁bas	-11.2769
æ	-11.2772
rid	-11.2777
▁slaves	-11.2778
ggle	-11.2778
unc	-11.2779
58	-11.2783
▁rot	-11.2788
ppy	-11.2789
▁efforts	-11.2792
▁ceased	-11.2794
ular	-11.28
▁bah	-11.28
▁provision	-11.2803
▁rag	-11.2805
56	-11.2808
▁budget	-11.2815
rat	-11.2817
▁winnie	-11.2817
▁pretending	-11.2819
▁chimney	-11.2821
▁inquired	-11.2821
▁hatch	-11.2824
▁dia	-11.2826
▁berlin	-11.2826
▁importance	-11.2828
▁foundation	-11.2832
coming	-11.2835
▁ward	-11.2838
▁martine	-11.2843
▁effective	-11.2846
▁sco	-11.2849
-1	-11.2852
▁draft	-11.2852
▁snack	-11.2858
▁hip	-11.2864
▁babe	-11.2864
▁goose	-11.2865
▁shin	-11.2865
▁contains	-11.2866
▁mysterious	-11.287
maker	-11.2871
▁utterances	-11.2874
lop	-11.2875
jan	-11.2876
utter	-11.2876
ual	-11.288
▁causes	-11.2886
▁poll	-11.2891
▁visited	-11.2893
▁math	-11.2894
▁application	-11.2895
▁contest	-11.29
claim	-11.2902
▁wicked	-11.2904
▁connect	-11.291
▁biscuits	-11.2913
▁assist	-11.2913
▁preparation	-11.2914
▁fuel	-11.2916
▁delightful	-11.2916
▁dey	-11.292
▁feeding	-11.2925
▁earl	-11.2926
▁verse	-11.2926
▁1976	-11.2927
▁partly	-11.2927
▁authorities	-11.2927
▁approached	-11.293
▁sunny	-11.2931
▁negative	-11.2932
met	-11.2937
▁primary	-11.2939
▁northwest	-11.294
▁paw	-11.294
▁instantly	-11.2941
never	-11.2942
overlap	-11.2943
app	-11.2944
▁swa	-11.2946
ali	-11.2947
▁conflict	-11.2951
▁pearl	-11.2953
▁piggy	-11.2958
▁intend	-11.2967
▁tube	-11.2967
ato	-11.2971
▁throne	-11.2976
▁impression	-11.2976
▁headed	-11.2977
▁nail	-11.2978
▁doctors	-11.298
▁nar	-11.298
chen	-11.2981
▁amongst	-11.2984
▁glanced	-11.2987
▁bitter	-11.2988
give	-11.2989
▁wrap	-11.2995
▁quarters	-11.2996
▁supported	-11.2997
▁ease	-11.2998
▁artists	-11.3003
grunts	-11.3006
▁retreat	-11.3007
▁hid	-11.3007
also	-11.3009
▁orchestra	-11.3013
▁linda	-11.3014
een	-11.3017
▁understanding	-11.3019
tries	-11.3025
▁crystal	-11.3026
▁dining	-11.3029
▁massachusetts	-11.3032
▁units	-11.3033
▁multi	-11.3033
▁mobile	-11.3035
▁acted	-11.3038
geo	-11.3038
▁knot	-11.3039
▁desperate	-11.3041
pper	-11.3043
▁limb	-11.305
▁generous	-11.3051
▁baa	-11.3054
▁puff	-11.3055
▁trucks	-11.3056
▁1979	-11.3058
▁francisco	-11.3058
point	-11.306
▁earned	-11.306
gate	-11.3062
▁scientific	-11.3063
▁biscuit	-11.3064
▁granny	-11.3064
toys	-11.3065
▁luc	-11.3065
▁tag	-11.3065
▁classes	-11.3066
ito	-11.3067
▁cass	-11.3073
▁discussion	-11.3074
please	-11.3076
mbled	-11.3077
▁boyfriend	-11.3077
pul	-11.3079
▁dirt	-11.3085
▁surrounding	-11.3087
▁lung	-11.3087
▁thumb	-11.3088
▁nicely	-11.3094
ike	-11.3095
▁yell	-11.3097
mouth	-11.3101
▁necklace	-11.3101
▁kansas	-11.3101
▁commonly	-11.3107
sign	-11.3111
▁bicycle	-11.3114
▁injured	-11.3114
▁tales	-11.3114
▁pressed	-11.3116
▁candle	-11.3122
▁cattle	-11.3124
▁barry	-11.313
▁karen	-11.3132
▁hood	-11.3133
lay	-11.3135
▁theater	-11.3137
▁hindu	-11.3137
▁premier	-11.3139
▁euro	-11.314
hall	-11.3141
▁bolt	-11.3142
list	-11.3143
▁zebra	-11.3146
▁solution	-11.3152
▁cub	-11.3155
▁peach	-11.3162
▁1985	-11.3165
▁alter	-11.3167
ash	-11.317
▁envelope	-11.3171
▁punishment	-11.3171
▁tub	-11.3174
▁banks	-11.3178
▁defeated	-11.3179
mie	-11.3186
got	-11.3191
▁davis	-11.3192
▁deeply	-11.3196
▁hail	-11.3196
▁mcdonalds	-11.3199
because	-11.3202
69	-11.3205
▁carrot	-11.3208
▁rolls	-11.3221
tti	-11.3226
▁sel	-11.3226
fore	-11.3232
▁kan	-11.3233
▁formal	-11.3234
ili	-11.3237
▁follows	-11.324
▁pitched	-11.324
▁violence	-11.3241
▁servants	-11.3245
▁feast	-11.3249
▁cheers	-11.3249
nal	-11.325
▁stretched	-11.3251
..."	-11.3256
▁dora	-11.3257
▁comm	-11.3257
▁lor	-11.3258
ency	-11.3259
▁scored	-11.3259
▁serving	-11.326
▁exact	-11.3263
▁bore	-11.3263
kan	-11.3265
▁concept	-11.3268
▁whit	-11.3271
▁introduce	-11.3271
▁needle	-11.3272
ida	-11.3276
▁zo	-11.3289
▁covers	-11.3299
▁pump	-11.3304
▁items	-11.3308
▁degrees	-11.3312
▁cwww	-11.3314
▁eliminated	-11.3315
gal	-11.3322
hm	-11.3324
▁figured	-11.3325
▁prospect	-11.3325
▁nearest	-11.3325
▁separated	-11.3329
▁survey	-11.3331
▁referred	-11.3331
84	-11.3332
▁illustrations	-11.3332
▁gasp	-11.3336
▁engines	-11.3339
phe	-11.3345
▁seeds	-11.3347
ographic	-11.3349
▁trained	-11.3352
▁inches	-11.3353
▁lemme	-11.3357
ui	-11.3357
▁micro	-11.3359
▁variety	-11.3363
drop	-11.3368
▁resist	-11.3373
hara	-11.3374
47	-11.3374
▁volunteer	-11.3376
▁coloring	-11.3379
ome	-11.3383
▁officially	-11.3396
▁honestly	-11.3412
▁alongside	-11.3415
nation	-11.3418
▁multiple	-11.3422
walk	-11.3428
▁attitude	-11.3428
▁heap	-11.343
71	-11.343
body	-11.3436
▁illness	-11.3437
▁1983	-11.3441
▁debt	-11.3442
▁remaining	-11.3445
▁react	-11.3446
▁[6	-11.345
▁ron	-11.3455
▁olympic	-11.3467
▁rustling	-11.3468
▁taxi	-11.347
dem	-11.347
▁presidential	-11.3471
▁counting	-11.3471
▁committed	-11.3475
▁bees	-11.3481
vie	-11.349
▁entertain	-11.3493
▁sailing	-11.3494
▁steamer	-11.3495
▁—	-11.3499
▁cigarette	-11.35
▁90	-11.3502
▁responded	-11.3505
turn	-11.3505
â	-11.3506
▁lecture	-11.3506
▁32	-11.3512
▁attended	-11.3519
▁satisfaction	-11.352
▁teen	-11.3521
stead	-11.3522
▁closing	-11.3527
▁foolish	-11.3528
▁ballet	-11.3532
59	-11.3532
▁deputy	-11.3539
▁online	-11.3544
▁dressing	-11.3545
▁ceremony	-11.3546
▁invitation	-11.3546
97	-11.3555
truct	-11.3559
▁harbor	-11.3559
75	-11.356
▁nearby	-11.3565
cies	-11.3567
▁lab	-11.3568
lian	-11.3571
▁represented	-11.3572
would	-11.3574
▁reports	-11.3578
continues	-11.3579
▁1982	-11.3579
▁cakes	-11.3589
lash	-11.359
▁thoroughly	-11.359
▁starring	-11.359
▁kur	-11.3591
▁detect	-11.3592
▁appointment	-11.3592
ulation	-11.3593
▁inspector	-11.3599
▁thrust	-11.3599
▁respond	-11.36
▁murdered	-11.3602
▁awarded	-11.3602
▁cam	-11.3603
▁lewis	-11.3612
▁invite	-11.3613
▁liquid	-11.3619
▁fantastic	-11.3625
▁pennsylvania	-11.3625
hor	-11.363
hole	-11.3632
baby	-11.3641
ache	-11.3641
▁admire	-11.3645
pretend	-11.3652
▁interrupted	-11.3657
▁numerous	-11.3665
▁widow	-11.3665
▁1974	-11.3666
▁gates	-11.3668
▁cathy	-11.3669
▁clan	-11.3669
▁drill	-11.3671
▁sacred	-11.3672
▁muslim	-11.3672
rry	-11.3673
▁austrian	-11.3673
▁tickets	-11.3676
▁noon	-11.3677
going	-11.3677
wise	-11.3678
▁zorg	-11.3679
awa	-11.3689
▁kevin	-11.3693
cou	-11.3694
elia	-11.3696
▁gaze	-11.3698
▁drag	-11.3704
▁surgery	-11.3705
heim	-11.3707
79	-11.3709
bla	-11.3716
▁merc	-11.3719
▁actions	-11.372
65	-11.372
rock	-11.3723
▁strawberries	-11.3726
▁regiment	-11.3726
▁poke	-11.3737
iness	-11.3743
ika	-11.3744
▁gru	-11.3745
▁dash	-11.3745
▁dancer	-11.375
▁ul	-11.3751
▁larry	-11.3754
▁30,	-11.3757
▁belonged	-11.3757
▁spr	-11.376
ona	-11.3761
▁visitors	-11.3762
▁cul	-11.3764
▁literature	-11.3766
▁pill	-11.3767
▁allen	-11.3768
▁occasionally	-11.3771
▁instrument	-11.3772
▁bruce	-11.3774
▁growth	-11.3776
▁thirsty	-11.3776
▁ridge	-11.3777
▁lightning	-11.3781
hey	-11.3783
63	-11.3785
ison	-11.3785
▁glo	-11.3785
▁apologize	-11.3786
▁intelligence	-11.3786
29	-11.379
▁returns	-11.379
pie	-11.3792
▁paused	-11.3794
urg	-11.3795
▁bern	-11.3795
▁costs	-11.3799
51	-11.3811
▁factor	-11.3816
▁mit	-11.3817
▁ble	-11.382
▁northeast	-11.3822
bag	-11.3823
▁yeh	-11.3826
och	-11.3831
▁scu	-11.3832
nik	-11.3833
▁buffalo	-11.3834
▁mia	-11.3838
▁mono	-11.3839
▁michigan	-11.384
▁citizens	-11.3841
▁guardian	-11.3841
keeper	-11.3844
▁gimme	-11.3847
▁rival	-11.3851
▁cartoon	-11.3854
▁loan	-11.3856
▁liberty	-11.3862
▁peculiar	-11.3868
▁column	-11.3874
▁jon	-11.3882
▁reader	-11.3882
▁intense	-11.3882
had	-11.3883
▁ashore	-11.3884
▁display	-11.3886
▁graham	-11.389
▁pirates	-11.3891
▁smiles	-11.3894
▁nuts	-11.3896
▁zone	-11.3896
▁sample	-11.3897
▁tomato	-11.3899
rink	-11.39
▁anxiety	-11.3902
▁digger	-11.3904
▁glue	-11.3905
▁beef	-11.3906
cord	-11.3906
▁kelly	-11.3908
▁hannah	-11.3908
▁pregnant	-11.3908
▁jewel	-11.3909
▁touching	-11.3909
cen	-11.3911
▁todd	-11.3918
eau	-11.3919
▁stupid	-11.3922
▁slope	-11.3923
▁bloom	-11.3923
▁scouts	-11.3928
▁counsel	-11.3929
mag	-11.3933
▁crossing	-11.3936
▁jen	-11.3936
▁1968	-11.3937
▁conservative	-11.395
▁raymond	-11.395
▁helmet	-11.3951
gor	-11.3953
▁emotion	-11.3958
▁hugh	-11.3959
▁pear	-11.396
▁sack	-11.396
stop	-11.3964
life	-11.3968
▁hired	-11.3968
▁mock	-11.397
▁conclusion	-11.397
▁oink	-11.3971
▁korean	-11.3971
▁1978	-11.3978
▁gut	-11.398
oe	-11.3982
oop	-11.3982
▁belly	-11.3989
▁whip	-11.399
▁jet	-11.399
hon	-11.3992
aire	-11.3997
▁sho	-11.3997
▁capable	-11.3998
▁tremendous	-11.3998
▁unhappy	-11.3999
▁critical	-11.4004
▁extent	-11.4012
▁feathers	-11.4013
too	-11.4014
zer	-11.4016
▁vessels	-11.4017
hop	-11.4017
▁involve	-11.4018
▁rum	-11.4019
▁dock	-11.4025
▁anthony	-11.4025
▁composer	-11.4025
▁breeze	-11.4026
ér	-11.4026
▁enjoying	-11.4027
meter	-11.4028
▁1975	-11.4033
▁marble	-11.4035
▁gradually	-11.4039
toy	-11.4041
▁fanny	-11.4042
still	-11.4043
▁cheek	-11.4044
ctu	-11.4045
though	-11.4047
▁airline	-11.4048
▁egyptian	-11.405
▁nord	-11.4051
mber	-11.4052
▁taylor	-11.4053
▁consent	-11.4053
▁jer	-11.4055
▁feather	-11.4059
▁website	-11.406
▁innit	-11.406
▁loo	-11.4064
▁sweep	-11.4069
▁joey	-11.407
high	-11.4071
▁exc	-11.4074
▁steep	-11.4075
hhh	-11.408
▁annual	-11.4082
▁cracker	-11.4083
▁products	-11.4084
▁meters	-11.4084
▁blows	-11.4086
▁brazilian	-11.409
piece	-11.4091
▁clare	-11.4091
▁70	-11.4094
▁✿	-11.4095
mail	-11.4095
▁cops	-11.41
▁peasant	-11.4104
▁sought	-11.4104
away	-11.4106
▁convinced	-11.4108
▁dallas	-11.4109
▁examples	-11.411
▁hollow	-11.411
ille	-11.4115
▁hans	-11.4122
▁natives	-11.4122
ón	-11.4129
▁activities	-11.413
▁1969	-11.413
▁1977	-11.4137
3]	-11.4137
burn	-11.4143
▁cleared	-11.4145
▁golf	-11.415
▁amanda	-11.4151
▁packed	-11.4153
▁35	-11.4154
▁cabinet	-11.4154
▁sailed	-11.4156
▁statue	-11.4158
▁cuddle	-11.4158
cup	-11.416
▁basis	-11.4161
three	-11.4163
▁era	-11.4164
48	-11.4164
▁incredible	-11.4165
▁tang	-11.4167
▁stated	-11.4168
▁leaders	-11.4172
▁jay	-11.4175
▁stores	-11.4176
▁studying	-11.4179
▁depth	-11.4179
dio	-11.4179
▁2021)	-11.4181
▁gorgeous	-11.4186
▁alphabet	-11.4186
lick	-11.4188
▁ignore	-11.4193
▁churches	-11.4193
▁pinch	-11.4193
▁journalist	-11.4194
▁impact	-11.4196
teacher	-11.4198
▁swept	-11.42
▁rainbow	-11.42
▁recommend	-11.4201
bad	-11.4206
▁technical	-11.4207
▁leslie	-11.4207
▁railroad	-11.4207
▁gon	-11.4208
▁tooth	-11.4209
▁animated	-11.4214
▁jordan	-11.4221
▁scottish	-11.4223
2]	-11.4225
▁extreme	-11.4226
▁spending	-11.4227
▁parrot	-11.4228
▁sticking	-11.4231
▁lawrence	-11.4235
▁diana	-11.4236
▁fee	-11.4236
▁flies	-11.424
▁raw	-11.4241
▁elephants	-11.4242
▁1973	-11.4243
▁monsieur	-11.4249
thy	-11.4252
▁miller	-11.4253
▁delicate	-11.4256
▁guards	-11.426
4]	-11.4262
▁manchester	-11.4269
74	-11.4271
▁additional	-11.4271
▁kay	-11.4271
▁touches	-11.4272
▁robinson	-11.4273
▁ruler	-11.4273
▁ry	-11.4274
▁wealth	-11.4275
▁elements	-11.4276
kel	-11.4276
▁squ	-11.4277
▁transfer	-11.4285
▁lwww	-11.4287
▁congratulations	-11.4292
▁suspicion	-11.4292
▁blake	-11.4304
▁administration	-11.4313
▁clam	-11.4319
▁peg	-11.4322
▁staring	-11.4325
▁feature	-11.4327
mom	-11.4331
73	-11.4333
▁loire	-11.4335
hear	-11.4335
▁compete	-11.4336
▁(18	-11.4336
▁dropping	-11.4337
▁tool	-11.4346
▁rein	-11.4347
▁squad	-11.4349
62	-11.4351
▁passion	-11.4353
eating	-11.4356
▁kenneth	-11.4356
▁sleeve	-11.4356
▁explosion	-11.4363
▁cure	-11.4364
▁catching	-11.4366
▁option	-11.4372
▁extended	-11.4372
▁cherry	-11.4372
▁vegetables	-11.4373
▁tal	-11.4377
▁composed	-11.4378
gasp	-11.4378
▁harold	-11.4378
lav	-11.4385
hard	-11.4385
▁skip	-11.4386
36	-11.4388
▁loads	-11.4391
▁mice	-11.4391
▁tennis	-11.4392
matic	-11.4399
uz	-11.4403
dress	-11.4405
▁unexpected	-11.4406
▁beard	-11.4407
▁2018,	-11.4407
▁element	-11.4408
mates	-11.441
▁dub	-11.4413
▁sting	-11.4415
▁rig	-11.4417
▁adopted	-11.4419
▁poland	-11.4423
oph	-11.4424
55	-11.4427
▁cooked	-11.4427
▁regional	-11.4427
▁jess	-11.443
▁dried	-11.443
▁institution	-11.4432
▁gym	-11.4438
girl	-11.4444
hang	-11.4444
▁lemon	-11.4447
▁sticky	-11.4447
▁rider	-11.445
▁brig	-11.445
arian	-11.4451
▁awfully	-11.4457
phi	-11.4464
▁cannon	-11.4465
▁cheerful	-11.4467
wind	-11.4467
▁mir	-11.4469
▁jury	-11.447
▁convert	-11.4471
▁1971	-11.4472
▁panda	-11.4472
lum	-11.4472
▁representatives	-11.4475
▁root	-11.4476
▁alcohol	-11.4478
▁waving	-11.448
▁orbit	-11.4481
▁emily	-11.4485
▁virus	-11.4486
▁threatened	-11.4486
▁lyn	-11.4486
bly	-11.449
▁beating	-11.4491
▁flesh	-11.4493
▁wy	-11.4495
iya	-11.4497
woman	-11.4499
▁pri	-11.4499
▁praise	-11.4501
pol	-11.4503
▁kong	-11.4505
▁peek	-11.4507
▁cable	-11.4507
▁sew	-11.451
86	-11.451
▁esp	-11.4515
▁1930	-11.4517
▁descend	-11.4518
▁avenue	-11.4522
▁graeme	-11.4522
▁jaw	-11.4522
▁21,	-11.4528
whispering	-11.4531
▁behavior	-11.4536
▁disaster	-11.4536
▁num	-11.4537
▁saddle	-11.4538
▁terribly	-11.4544
▁prior	-11.4549
nut	-11.4551
▁grin	-11.4552
▁sniff	-11.4552
▁collar	-11.4554
▁rick	-11.4556
▁monk	-11.4559
▁vine	-11.456
▁diet	-11.4561
▁howard	-11.4561
taking	-11.4562
▁dinosaurs	-11.4563
▁bundle	-11.4566
▁sometime	-11.457
▁refers	-11.4571
▁stout	-11.4572
▁launched	-11.4574
▁regarded	-11.4574
▁patients	-11.4575
▁fled	-11.4577
5,000	-11.4578
▁industrial	-11.458
▁nickname	-11.4581
cia	-11.4582
cious	-11.4588
▁ginger	-11.4588
zen	-11.4591
▁insisted	-11.4591
home	-11.4591
▁barb	-11.4591
▁spi	-11.4592
500	-11.4595
▁kindness	-11.4599
▁bor	-11.4602
▁ruled	-11.4604
aff	-11.4605
▁sto	-11.4611
▁recovered	-11.4614
▁spit	-11.4616
▁pickle	-11.4617
▁charged	-11.4619
▁sandwiches	-11.4622
hill	-11.4623
▁——	-11.4626
made	-11.4626
▁sca	-11.4628
hur	-11.4631
▁spear	-11.4632
▁[7	-11.4639
ado	-11.4641
▁scr	-11.4643
▁blast	-11.4643
▁gloves	-11.4646
▁examine	-11.4649
▁succeed	-11.465
uv	-11.465
▁sufficient	-11.4653
88	-11.4654
▁electricity	-11.4656
▁barely	-11.466
▁potential	-11.4661
▁revenge	-11.4661
▁alien	-11.4662
▁particle	-11.4663
▁vin	-11.4667
▁baron	-11.4668
▁reception	-11.4668
▁plug	-11.467
▁skate	-11.4673
cycl	-11.4674
iest	-11.4676
▁disgust	-11.4683
▁jacob	-11.4683
▁favourite	-11.4684
▁poured	-11.4688
▁childsname	-11.469
▁superior	-11.4698
▁geo	-11.4698
▁kal	-11.47
lp	-11.4705
▁oxygen	-11.4705
lot	-11.471
▁atmosphere	-11.4713
▁instructions	-11.4713
▁crane	-11.4713
▁“‘	-11.4715
▁proceeded	-11.4715
▁hippo	-11.4716
▁fighter	-11.4716
whines	-11.4717
▁seth	-11.4723
05	-11.4727
▁scissors	-11.4727
▁indicate	-11.4728
▁cole	-11.4729
▁associated	-11.4735
▁assured	-11.4737
▁pr	-11.4739
▁increasing	-11.4742
▁tokyo	-11.4743
▁agency	-11.4743
▁engineering	-11.4744
▁cj	-11.4746
▁mend	-11.4748
▁ribbon	-11.475
atory	-11.4753
▁swallow	-11.4754
▁distress	-11.4757
▁cri	-11.4766
ude	-11.4768
▁camel	-11.4769
▁vic	-11.4772
▁enormous	-11.4772
lam	-11.4777
▁blank	-11.4778
▁burden	-11.4782
▁childhood	-11.4782
▁absence	-11.4787
ograph	-11.4794
38	-11.4797
▁personally	-11.48
▁shared	-11.48
▁mcc	-11.4805
▁shine	-11.4805
path	-11.482
▁clara	-11.4821
▁franklin	-11.4822
▁kh	-11.4823
▁monarch	-11.4825
▁disturb	-11.4828
main	-11.4829
▁ky	-11.4831
▁aeroplane	-11.4832
▁visible	-11.4832
▁evolution	-11.4834
▁insist	-11.4834
▁poetry	-11.4834
astic	-11.4844
▁1964	-11.4848
▁assistance	-11.4848
▁programs	-11.4848
▁patty	-11.4848
refers	-11.485
▁sank	-11.4852
▁1967	-11.4855
▁gap	-11.4856
▁xvi	-11.4859
▁assume	-11.4864
▁jonathan	-11.4869
▁domestic	-11.4869
wal	-11.487
▁wink	-11.4875
▁tr	-11.4877
▁leather	-11.4877
▁louder	-11.4883
cin	-11.4886
ulate	-11.4892
▁attorney	-11.4892
▁catherine	-11.4892
▁wrapped	-11.4892
▁doc	-11.4893
▁communist	-11.49
▁bells	-11.49
▁applied	-11.4907
▁sweat	-11.4909
▁recover	-11.4909
▁mist	-11.4911
53	-11.4919
▁zoe	-11.492
rio	-11.4921
▁dealing	-11.4921
▁smoking	-11.4922
lish	-11.4922
▁suicide	-11.493
▁swiss	-11.493
▁kisses	-11.493
▁rib	-11.4932
▁status	-11.4938
▁grief	-11.4938
leg	-11.4939
▁obey	-11.4943
▁stared	-11.4944
▁decent	-11.4951
▁permanent	-11.4953
▁oscar	-11.4953
case	-11.4956
▁rocky	-11.4957
▁rom	-11.496
▁conc	-11.4962
little	-11.4963
stick	-11.4964
rop	-11.4968
▁fridge	-11.4969
▁miserable	-11.4975
▁gathering	-11.4977
▁allah	-11.4982
▁dread	-11.4984
▁affected	-11.4984
▁nesting	-11.4988
▁hart	-11.4993
▁torn	-11.4994
▁illustrated	-11.4994
ility	-11.5001
08	-11.5009
spect	-11.5009
▁samuel	-11.5014
▁victims	-11.5014
°	-11.5016
tape	-11.5019
▁whilst	-11.5021
▁bavaria	-11.5021
▁fog	-11.5026
post	-11.5026
▁centuries	-11.5029
▁cushion	-11.5029
berry	-11.5029
▁carter	-11.5041
▁quote	-11.5042
yer	-11.5043
▁scholar	-11.5044
does	-11.5046
▁roo	-11.5047
▁2017,	-11.5049
cell	-11.505
aba	-11.5051
▁douglas	-11.5052
▁crept	-11.5052
▁offering	-11.5057
▁convention	-11.5059
▁nevertheless	-11.5059
▁printed	-11.5061
▁feared	-11.5062
▁sti	-11.5063
▁pap	-11.5066
▁apply	-11.5066
▁mourn	-11.5068
▁remi	-11.5069
▁ranch	-11.507
▁jill	-11.5073
uous	-11.5075
▁electronic	-11.5075
▁til	-11.5079
cry	-11.5079
▁mall	-11.508
▁obtain	-11.508
▁alligator	-11.5082
▁boring	-11.5084
▁warn	-11.5085
▁violent	-11.5088
▁employee	-11.509
▁heading	-11.5091
▁bot	-11.5091
▁useless	-11.5092
▁expressed	-11.5095
▁luke	-11.5101
▁tricks	-11.5101
▁abd	-11.5102
smith	-11.5102
▁deed	-11.5106
87	-11.5106
77	-11.5107
▁ending	-11.5107
▁organized	-11.5109
▁fake	-11.5109
▁replace	-11.511
▁autumn	-11.5113
85	-11.5115
▁snakes	-11.5119
▁supreme	-11.5121
▁detail	-11.5121
▁batteries	-11.5122
▁thorn	-11.5124
▁gear	-11.5124
▁firing	-11.5126
▁22,	-11.5127
▁encounter	-11.5132
moving	-11.5132
▁pupil	-11.5136
▁ralph	-11.5136
▁brass	-11.514
▁kangaroo	-11.5144
▁brow	-11.5145
▁articles	-11.515
▁biography	-11.5152
▁timber	-11.5154
pho	-11.5155
▁mistaken	-11.5156
▁marker	-11.5157
▁bubble	-11.5159
guard	-11.5167
▁awesome	-11.5168
▁1940	-11.5169
▁knights	-11.5171
▁genus	-11.5173
▁frequently	-11.5173
▁existence	-11.5176
▁olive	-11.5177
▁proceed	-11.5177
▁underground	-11.5177
▁hated	-11.5181
▁proposal	-11.5183
▁expense	-11.5183
▁calendar	-11.5191
bear	-11.5197
▁sympathy	-11.5198
▁yourselves	-11.5198
▁bronze	-11.52
▁aspect	-11.5203
▁spark	-11.5204
▁resources	-11.5206
▁possibility	-11.5206
▁predict	-11.5207
▁duties	-11.5208
yu	-11.521
close	-11.521
▁brad	-11.5211
▁constantly	-11.5212
both	-11.5212
▁leo	-11.5213
▁rage	-11.5213
lio	-11.5222
▁thief	-11.5222
▁grain	-11.5224
▁clerk	-11.523
32	-11.5233
▁crowded	-11.5235
▁obvious	-11.5236
▁swift	-11.5236
▁lace	-11.5236
▁rebel	-11.5237
▁peel	-11.5237
▁demon	-11.5238
▁shelf	-11.5239
▁ox	-11.5241
chris	-11.5245
▁dynasty	-11.5245
▁dragged	-11.5246
▁ent	-11.5251
▁beck	-11.5252
▁illegal	-11.5253
▁nasty	-11.5253
lessly	-11.5254
vic	-11.5256
▁phrase	-11.5261
▁soccer	-11.5261
▁mode	-11.5261
▁spray	-11.5262
▁dug	-11.5263
▁bio	-11.5264
jw	-11.5268
▁squash	-11.5269
▁trailer	-11.527
▁twist	-11.5274
▁kite	-11.5274
▁deposit	-11.5275
▁khan	-11.5277
▁remarkable	-11.5279
▁rosa	-11.5281
▁broom	-11.5283
▁vest	-11.5286
comp	-11.5287
won	-11.5288
31	-11.5288
▁kicked	-11.5289
▁hon	-11.5289
▁corporation	-11.5292
▁pel	-11.5293
▁delivered	-11.5298
▁claimed	-11.5298
▁wu	-11.5299
▁36	-11.5299
▁guinea	-11.53
▁lawn	-11.5301
▁ohio	-11.5302
▁copper	-11.5303
▁gam	-11.5311
▁carol	-11.5316
▁priscilla	-11.5316
▁accused	-11.5323
▁surrender	-11.5324
▁stall	-11.5324
▁gall	-11.5326
▁persuade	-11.5332
▁pistol	-11.5332
▁layer	-11.5337
▁champions	-11.5338
▁heels	-11.534
▁venture	-11.5342
lift	-11.5342
▁cheeky	-11.5343
▁utterance	-11.5344
▁literally	-11.5347
▁philadelphia	-11.5347
▁assault	-11.5348
▁gloom	-11.5348
rest	-11.535
free	-11.535
▁beau	-11.5353
▁abuse	-11.5356
▁1966	-11.5356
fla	-11.5358
▁grasp	-11.5358
42	-11.536
▁nephew	-11.5363
▁copies	-11.5365
▁willn	-11.5366
▁unconscious	-11.5372
▁mast	-11.5375
ule	-11.5377
▁spo	-11.5387
▁troop	-11.5389
talk	-11.539
▁warned	-11.5391
▁skipper	-11.5396
▁relations	-11.5398
face	-11.5399
range	-11.54
▁edna	-11.54
▁haul	-11.5402
▁swung	-11.5403
▁laying	-11.5404
▁(1	-11.5404
▁neighbors	-11.5406
power	-11.5407
▁script	-11.5408
▁alternative	-11.5411
▁quarrel	-11.5411
▁shield	-11.5411
▁leak	-11.5412
▁gross	-11.5412
▁moses	-11.5412
enne	-11.5414
▁creation	-11.5417
▁global	-11.5427
▁patrol	-11.5428
▁bc	-11.5431
▁sailors	-11.5433
itz	-11.5435
ā	-11.5435
▁lean	-11.544
▁sponge	-11.5443
grand	-11.5446
▁kha	-11.5446
▁aliens	-11.545
self	-11.545
untranscribed	-11.5451
▁invest	-11.5456
▁pun	-11.5457
ois	-11.5458
iel	-11.5464
▁lip	-11.5467
rud	-11.5473
etta	-11.5476
think	-11.5479
▁miracle	-11.5483
▁45	-11.5494
maybe	-11.5495
▁register	-11.5497
▁mul	-11.5497
keep	-11.55
▁appropriate	-11.5502
▁obtained	-11.5502
▁ew	-11.5504
▁500	-11.5504
places	-11.5506
pel	-11.5506
▁mississippi	-11.5507
▁deny	-11.551
▁packet	-11.5513
▁archer	-11.5513
kov	-11.5523
▁covering	-11.5524
▁jessie	-11.5525
▁prop	-11.5525
▁mun	-11.5525
▁por	-11.553
▁drank	-11.5531
▁debate	-11.5531
▁tribes	-11.5533
9]	-11.5533
▁nazi	-11.5535
enberg	-11.5536
ode	-11.5536
▁burton	-11.5537
▁admiral	-11.5539
▁solo	-11.5542
▁gary	-11.5544
▁comin	-11.5544
▁contents	-11.5547
▁panic	-11.5547
phy	-11.5547
▁nic	-11.5547
pher	-11.5549
▁begged	-11.555
▁walt	-11.5551
▁dna	-11.5553
▁arnold	-11.5563
▁sheriff	-11.5563
▁canal	-11.5574
▁arkansas	-11.5579
▁chasing	-11.5581
▁bureau	-11.5588
▁vocal	-11.5589
▁license	-11.5595
▁flour	-11.5598
▁searching	-11.5598
▁hint	-11.56
ico	-11.5601
▁gau	-11.5602
▁observation	-11.5603
▁goddess	-11.5604
▁persian	-11.5604
eur	-11.5604
view	-11.5605
▁disorder	-11.5611
▁pierre	-11.5612
▁moore	-11.5615
eous	-11.5616
▁depression	-11.562
▁earnest	-11.562
▁resolved	-11.5629
▁unique	-11.5632
▁personality	-11.5633
▁ridiculous	-11.5636
bee	-11.5637
▁collected	-11.5638
▁cer	-11.5642
▁attempts	-11.5643
▁blessed	-11.5646
▁nee	-11.5647
rov	-11.5648
▁bacon	-11.5648
▁blo	-11.5649
▁resistance	-11.5653
page	-11.5654
▁representative	-11.5656
▁kang	-11.566
▁dum	-11.5661
▁1945	-11.5661
▁seventh	-11.5661
▁daylight	-11.5662
▁lasted	-11.5664
▁evident	-11.5667
hearted	-11.5667
▁citizen	-11.5668
▁accompanied	-11.5668
via	-11.567
asse	-11.568
▁monte	-11.5683
▁suspicious	-11.5685
▁curse	-11.5691
▁villa	-11.5691
char	-11.5695
▁administrative	-11.5701
▁swamp	-11.5702
▁classic	-11.5703
pop	-11.5703
▁gazed	-11.5703
39	-11.5706
ography	-11.5708
▁resident	-11.5709
▁moscow	-11.5709
▁roast	-11.571
▁porch	-11.5711
ridge	-11.5714
▁cli	-11.5716
▁chef	-11.5717
▁maintain	-11.5717
▁wendy	-11.5718
▁oy	-11.5719
▁lend	-11.5724
▁kent	-11.5725
▁software	-11.5726
▁overall	-11.5727
loo	-11.5731
gri	-11.5733
64	-11.5733
▁passes	-11.5737
▁pier	-11.5738
▁enable	-11.5739
▁rhyme	-11.5742
▁transform	-11.5742
▁concluded	-11.5748
▁memories	-11.575
▁suburb	-11.575
▁lest	-11.5752
▁kissing	-11.5753
▁crop	-11.5757
▁peaceful	-11.5761
▁fossil	-11.5767
ckle	-11.577
loud	-11.5773
▁disco	-11.5774
squeals	-11.5774
▁revealed	-11.5776
▁divorce	-11.5778
▁fiction	-11.5779
▁juan	-11.578
▁parcel	-11.5781
▁dennis	-11.5783
▁urban	-11.5784
▁ideal	-11.5786
▁confess	-11.5787
▁extend	-11.579
bul	-11.5791
▁patience	-11.5791
▁midst	-11.5792
▁cove	-11.5792
▁dip	-11.5794
▁dive	-11.5795
▁vii	-11.5797
▁karl	-11.5799
▁messenger	-11.58
▁damn	-11.58
▁waist	-11.5804
▁tourist	-11.5804
▁mounted	-11.5805
▁potty	-11.5807
▁viii	-11.5811
▁sung	-11.5812
▁virgin	-11.5812
▁expand	-11.5814
▁combat	-11.5815
-20	-11.5819
▁beaten	-11.5824
▁troubled	-11.5824
▁massive	-11.5825
▁objection	-11.5827
ello	-11.5829
▁dough	-11.583
▁cultural	-11.5833
mbo	-11.5839
▁[8	-11.5843
bach	-11.5845
▁drain	-11.5845
▁holidays	-11.5846
▁gettin	-11.5847
hello	-11.5848
verse	-11.5849
▁stool	-11.585
▁acquaintance	-11.5858
▁swedish	-11.5858
▁ec	-11.5858
▁extraordinary	-11.5866
▁submarine	-11.5866
▁comrades	-11.5866
gives	-11.5867
▁southeast	-11.5867
▁robot	-11.5868
▁spl	-11.587
gli	-11.587
▁happily	-11.5874
▁anxiously	-11.5875
chy	-11.5877
▁trim	-11.5878
▁arose	-11.5882
▁alabama	-11.5883
last	-11.5884
▁marky	-11.5895
▁worthy	-11.5896
▁columbia	-11.5899
▁shu	-11.59
class	-11.5901
eo	-11.5904
▁belonging	-11.5907
▁roots	-11.5907
▁outfit	-11.5908
ride	-11.5909
shing	-11.5916
▁insult	-11.5925
▁sean	-11.5927
▁liber	-11.5935
▁technique	-11.5941
god	-11.5944
▁thread	-11.5945
▁stuffed	-11.5946
chr	-11.5949
▁myth	-11.5952
▁referring	-11.5953
▁mischief	-11.5958
▁austin	-11.5958
▁suitcase	-11.5967
▁confusion	-11.5967
▁ep	-11.5976
olo	-11.5983
▁painful	-11.5983
41	-11.5987
▁pip	-11.5987
lee	-11.599
▁despair	-11.5991
▁error	-11.5992
eb	-11.5994
▁hong	-11.5999
poor	-11.6004
▁cot	-11.6006
▁circuit	-11.6008
▁housing	-11.6008
▁cinema	-11.6009
▁gulf	-11.601
▁entering	-11.6014
▁strongly	-11.6015
nothing	-11.6016
▁hastily	-11.6017
▁helpless	-11.6018
▁isabel	-11.6026
▁joking	-11.6028
▁greg	-11.6028
▁visitor	-11.6031
▁complicated	-11.6034
▁youngest	-11.6035
▁sharply	-11.6037
▁meadow	-11.6042
▁colleague	-11.6042
▁reputation	-11.6042
▁blessing	-11.6046
▁confirm	-11.6049
▁jackie	-11.6049
court	-11.6051
▁donkey	-11.6057
nz	-11.6058
▁curiosity	-11.6059
▁solar	-11.606
▁1956	-11.606
49	-11.6061
▁holland	-11.6061
nick	-11.6062
school	-11.6063
lied	-11.6066
▁interfere	-11.6067
▁coo	-11.6068
▁contain	-11.607
cio	-11.607
babbling	-11.6073
▁operate	-11.6074
▁invented	-11.6076
▁digging	-11.6078
▁fel	-11.6078
▁operations	-11.6079
▁norway	-11.6082
ggy	-11.6083
▁smash	-11.6083
eng	-11.6085
▁exam	-11.6092
▁diploma	-11.6093
▁gb	-11.6095
▁naval	-11.6101
▁bib	-11.6103
first	-11.6106
▁newspapers	-11.6108
▁preparing	-11.611
▁blade	-11.6117
▁jews	-11.6121
▁vir	-11.6122
▁reasonable	-11.6124
▁guarantee	-11.6127
oke	-11.6131
dah	-11.6132
▁fella	-11.6134
▁impressed	-11.6134
▁hooray	-11.6136
▁coke	-11.6141
▁foe	-11.6141
▁jin	-11.6143
▁footballer	-11.6146
nge	-11.6147
▁improve	-11.6147
▁genius	-11.6154
dig	-11.6154
▁swinging	-11.6155
▁lego	-11.6156
▁destruction	-11.6161
▁procedure	-11.6161
▁faced	-11.6166
▁twins	-11.617
▁greece	-11.617
▁frozen	-11.617
▁arrange	-11.6174
▁prey	-11.6175
▁katie	-11.6175
▁triumph	-11.6177
▁trump	-11.6185
▁experienced	-11.6192
hh	-11.6198
▁sab	-11.6201
▁bully	-11.6202
-2	-11.6205
▁1965	-11.6205
▁hah	-11.6208
▁plea	-11.6209
▁evelyn	-11.6213
speaking	-11.6216
▁bumper	-11.6217
▁founder	-11.6219
▁aloud	-11.6221
ç	-11.6221
▁operating	-11.6224
▁causing	-11.623
▁sav	-11.6231
▁crisis	-11.6233
shirt	-11.6237
▁benjamin	-11.6239
▁inclined	-11.6239
▁abroad	-11.6239
west	-11.6243
hir	-11.6244
▁clar	-11.6246
▁accent	-11.6248
illy	-11.6249
vision	-11.625
sburg	-11.6251
▁zip	-11.6253
▁topic	-11.6256
▁wolves	-11.6256
zzle	-11.6256
sim	-11.6258
▁bash	-11.6262
▁lump	-11.6262
▁wig	-11.6263
34	-11.627
▁reveal	-11.6272
▁pension	-11.6274
iver	-11.6274
▁considering	-11.6284
member	-11.629
▁gram	-11.6292
nate	-11.6292
▁furious	-11.6292
▁whi	-11.6294
black	-11.6296
▁protected	-11.6298
▁floating	-11.6299
▁digital	-11.6299
▁stealing	-11.6301
▁stanley	-11.6302
▁raising	-11.6303
▁dessert	-11.6308
▁terrific	-11.6308
▁melissa	-11.6308
▁forehead	-11.6308
▁pep	-11.6311
▁ruff	-11.6311
uction	-11.6311
▁hitting	-11.6315
▁fright	-11.6315
▁liz	-11.6317
▁accustomed	-11.6317
▁beloved	-11.6317
▁swan	-11.6317
▁bol	-11.6318
▁amid	-11.6321
▁scattered	-11.6324
33	-11.6325
▁metropolitan	-11.6325
▁resting	-11.6332
▁startled	-11.6332
▁awkward	-11.6334
▁hamburger	-11.6334
▁dashed	-11.6334
oid	-11.6335
wall	-11.6339
▁iowa	-11.6341
▁weary	-11.6346
▁refuge	-11.6352
▁lick	-11.6359
▁colony	-11.6368
▁gill	-11.637
▁contained	-11.637
▁burnt	-11.6374
▁cuba	-11.6375
▁minnesota	-11.6378
▁automobile	-11.6378
▁ruined	-11.6378
▁harris	-11.6385
▁ceiling	-11.6387
nell	-11.6387
▁latest	-11.6389
▁payment	-11.6389
want	-11.6398
late	-11.6399
▁meantime	-11.6404
▁core	-11.6409
▁painter	-11.6409
holding	-11.6411
▁firmly	-11.6412
▁flock	-11.6417
▁rushing	-11.642
▁vietnam	-11.6421
▁?[	-11.6422
▁1961	-11.6423
200	-11.6427
aging	-11.6431
▁encourage	-11.6435
▁birdie	-11.6437
▁gabriel	-11.6438
▁willie	-11.644
▁hose	-11.6442
▁maiden	-11.6448
▁checking	-11.6456
▁comrade	-11.6456
▁orphan	-11.6457
▁gerald	-11.6457
▁pancake	-11.6457
ova	-11.6457
▁boris	-11.6462
▁cou	-11.6465
▁confident	-11.6465
▁wrist	-11.6466
▁argue	-11.6473
▁alaska	-11.6475
▁divide	-11.6479
▁philippine	-11.6483
▁substance	-11.6492
▁consideration	-11.6492
▁300	-11.6496
▁greeting	-11.6503
▁sophie	-11.651
▁claire	-11.651
▁widely	-11.6515
▁haste	-11.6516
▁loyal	-11.6518
▁graduated	-11.6518
▁unfortunate	-11.6518
▁hank	-11.6518
▁muttered	-11.6519
▁informed	-11.652
ín	-11.6524
▁2022)	-11.6525
▁knocking	-11.6526
▁earthquake	-11.6528
▁banging	-11.6531
▁affection	-11.6532
call	-11.654
▁mala	-11.6541
▁barking	-11.6543
▁1963	-11.6546
▁napkin	-11.655
▁slippers	-11.6551
▁mason	-11.6553
▁imagination	-11.6554
▁candles	-11.6555
▁leaning	-11.6558
▁realise	-11.6558
okay	-11.6563
▁imperial	-11.6563
▁yield	-11.6563
▁prayers	-11.6566
rang	-11.6568
▁alert	-11.6571
▁violin	-11.6572
▁mug	-11.658
▁sk	-11.6582
parent	-11.6588
▁inner	-11.6589
▁symptoms	-11.659
▁vienna	-11.659
▁curve	-11.659
▁nappie	-11.659
bound	-11.6597
▁examination	-11.6599
▁collapse	-11.6599
▁elbow	-11.66
▁1947	-11.66
▁visiting	-11.66
▁nails	-11.6604
▁judy	-11.6605
▁travelling	-11.6606
▁thankful	-11.6606
▁chalk	-11.6609
▁1959	-11.6609
found	-11.6609
▁cared	-11.661
▁rav	-11.6612
▁berry	-11.6612
cca	-11.6613
▁raven	-11.6615
▁bucks	-11.6616
▁drown	-11.6618
▁cycle	-11.6618
81	-11.6619
▁waved	-11.6621
▁lucia	-11.6624
jer	-11.6626
▁attractive	-11.6626
▁shepherd	-11.6626
vir	-11.6629
▁granted	-11.6631
▁barr	-11.6633
▁loaded	-11.6633
▁employed	-11.6637
▁questioned	-11.6638
▁judgment	-11.6644
▁bbc	-11.6644
▁cad	-11.6648
44	-11.665
ask	-11.665
▁southwest	-11.6654
▁adjust	-11.6654
une	-11.6656
▁celebrate	-11.6658
▁snail	-11.6662
▁historian	-11.6662
hv	-11.6665
▁conductor	-11.6666
uf	-11.6666
agon	-11.6671
――	-11.6671
▁universal	-11.6671
mur	-11.6674
▁dah	-11.6679
rman	-11.6682
▁martha	-11.6682
▁fil	-11.6684
▁peril	-11.6687
ural	-11.6689
▁alfred	-11.6689
▁injury	-11.6698
▁torture	-11.6698
▁kam	-11.6699
▁sultan	-11.6699
▁sighed	-11.6699
▁bru	-11.6705
▁tuck	-11.6705
▁journal	-11.6706
▁1962	-11.6708
▁relatives	-11.6709
▁boil	-11.6713
rina	-11.6716
▁handkerchief	-11.6716
▁antonio	-11.6716
▁kettle	-11.6716
▁thi	-11.6721
▁turk	-11.6723
▁worldwide	-11.6726
▁decade	-11.6728
horn	-11.673
▁dared	-11.6733
▁rebecca	-11.6734
----------------	-11.6734
▁1948	-11.6735
▁bugs	-11.6736
▁hurting	-11.6738
zan	-11.6741
▁addressed	-11.6741
▁glen	-11.6742
▁rit	-11.6743
▁characteristic	-11.6744
▁investment	-11.6745
▁flung	-11.6745
▁crumb	-11.6747
▁selfish	-11.6749
▁2018)	-11.675
▁parade	-11.6751
▁environmental	-11.6752
arrondissement	-11.6752
72	-11.6755
▁practical	-11.6761
▁xxi	-11.6763
▁headache	-11.6767
every	-11.6769
▁dal	-11.6769
▁malcolm	-11.677
▁glorious	-11.6771
▁opposition	-11.6771
alo	-11.6772
▁pic	-11.6776
▁vent	-11.6778
▁danced	-11.6779
▁careless	-11.6779
▁electron	-11.678
style	-11.6795
flower	-11.6795
▁investigator	-11.6795
▁humor	-11.68
▁ei	-11.6801
ancy	-11.6805
dear	-11.6805
▁bored	-11.6806
▁gem	-11.6809
help	-11.681
▁vroom	-11.6812
▁retain	-11.6814
big	-11.6815
▁ancestor	-11.6816
▁infection	-11.6816
▁equally	-11.6818
▁spaniards	-11.6821
ingham	-11.6822
▁pajamas	-11.6825
pal	-11.6826
▁listed	-11.6828
▁possessed	-11.6834
▁disappointment	-11.6835
▁whirl	-11.6835
▁phase	-11.6845
▁bury	-11.6848
▁instruments	-11.6853
step	-11.6856
▁blackie	-11.6858
▁longest	-11.6861
▁blossom	-11.6862
▁nanny	-11.6866
▁stuart	-11.6872
▁wander	-11.6876
▁twinkle	-11.688
▁chr	-11.6882
▁fig	-11.6883
43	-11.6885
▁activist	-11.689
▁michelle	-11.6891
▁supplies	-11.6899
▁install	-11.69
▁lookee	-11.69
▁+	-11.6903
▁assassin	-11.6908
▁cheering	-11.691
▁holly	-11.691
▁cleaned	-11.6911
▁dean	-11.6913
▁puzzled	-11.6915
▁identity	-11.6917
▁pudding	-11.6917
▁reviews	-11.6918
▁mild	-11.6918
▁permit	-11.6925
▁sober	-11.6926
▁combination	-11.6926
▁exhausted	-11.6927
▁1958	-11.6928
▁harp	-11.6933
▁33	-11.6935
▁skull	-11.6936
▁fastened	-11.694
▁unto	-11.6942
▁reporter	-11.6944
▁1952	-11.6946
▁1957	-11.6946
▁loop	-11.6948
whimper	-11.6949
color	-11.695
▁lighted	-11.6952
▁testing	-11.6954
▁epi	-11.6958
▁pol	-11.6959
▁nelson	-11.6964
▁lib	-11.6964
istan	-11.6966
▁naked	-11.6975
love	-11.6977
▁yer	-11.6979
▁soda	-11.698
▁blown	-11.6981
—”	-11.6981
▁debbie	-11.6982
▁smack	-11.6983
▁distinct	-11.6988
▁elevator	-11.6991
▁magnificent	-11.6991
▁interrupts	-11.6997
▁devoted	-11.6998
▁syria	-11.6998
rating	-11.7
▁accompany	-11.7001
▁escort	-11.7001
▁charity	-11.7003
▁grip	-11.7007
▁athletic	-11.701
▁valentine	-11.701
▁gesture	-11.701
▁shiver	-11.7012
▁growl	-11.7017
▁ambassador	-11.7019
▁urged	-11.7021
malley	-11.7023
▁drowned	-11.7029
▁stro	-11.7031
▁bald	-11.7034
▁advise	-11.7036
uld	-11.7037
▁sled	-11.7038
▁assure	-11.7039
▁poop	-11.704
suit	-11.7044
fur	-11.7045
▁crashed	-11.7046
▁monitor	-11.7047
▁grape	-11.7048
▁counted	-11.7049
▁classical	-11.7054
▁walker	-11.7057
▁necessarily	-11.7057
▁concentrate	-11.7057
▁customers	-11.7058
ident	-11.7059
▁sector	-11.7065
▁mortal	-11.7069
vid	-11.7071
▁75	-11.7071
▁identify	-11.7076
▁internal	-11.7076
▁treaty	-11.7079
▁runner	-11.7083
▁recognise	-11.7085
▁cel	-11.7087
▁stake	-11.7088
▁shriek	-11.709
other	-11.709
▁pho	-11.7095
▁buff	-11.7097
▁immense	-11.7104
▁marsh	-11.7105
▁scrub	-11.7109
borough	-11.711
igan	-11.7113
note	-11.7113
rag	-11.7122
amy	-11.7125
▁doorway	-11.7127
▁och	-11.7131
▁romance	-11.7131
scope	-11.7132
ault	-11.7135
▁relative	-11.7137
▁haut	-11.7146
▁pouring	-11.7151
▁fry	-11.7152
~	-11.7157
▁motorcycle	-11.716
▁genetic	-11.7161
idae	-11.7162
▁chatter	-11.7165
▁hopefully	-11.7165
▁adding	-11.7167
nne	-11.7169
▁34	-11.7171
▁suspected	-11.7173
▁upward	-11.7177
▁chapel	-11.7182
▁commit	-11.7183
▁marched	-11.7185
fast	-11.7185
▁reflect	-11.7188
▁stoop	-11.7191
▁remote	-11.7195
▁murmured	-11.7195
▁passenger	-11.7198
▁plainly	-11.7202
woo	-11.7206
▁physics	-11.7208
something	-11.7215
▁ivan	-11.7216
▁sharing	-11.7217
elli	-11.722
▁slim	-11.7221
▁sau	-11.7221
touches	-11.7223
▁murderer	-11.7226
▁robe	-11.7232
▁opposed	-11.7235
▁discipline	-11.7236
▁uncomfortable	-11.7236
▁coward	-11.7238
▁athlete	-11.7246
▁conscience	-11.7246
▁squeal	-11.7247
▁possess	-11.7252
white	-11.7253
▁immediate	-11.7255
▁dreaming	-11.7257
▁aaron	-11.7257
▁preach	-11.7258
82	-11.7258
▁attempted	-11.726
▁formation	-11.7265
▁attract	-11.7267
jim	-11.7272
▁cathedral	-11.7275
▁delivery	-11.728
lect	-11.7283
corn	-11.7284
▁brooklyn	-11.7285
▁reduced	-11.7285
gene	-11.7288
▁whoop	-11.7289
▁controlled	-11.729
▁bedtime	-11.7292
▁bade	-11.7293
▁counties	-11.7293
▁caesar	-11.7294
clears	-11.7295
know	-11.7302
▁commanded	-11.7303
▁bracelet	-11.7304
itch	-11.7309
▁parker	-11.7309
april	-11.731
▁combined	-11.7314
▁notable	-11.7317
called	-11.7317
▁kennedy	-11.7323
▁seldom	-11.7323
▁42	-11.7323
▁gown	-11.7331
▁compliment	-11.7332
▁robbie	-11.7333
▁ela	-11.7334
▁crush	-11.7341
▁typical	-11.7342
▁robber	-11.7342
uni	-11.7345
▁nothin	-11.7348
▁aunty	-11.735
▁loft	-11.7351
▁municipalities	-11.7352
▁gab	-11.7352
▁jamie	-11.7352
uel	-11.7354
▁terry	-11.7355
▁abandoned	-11.7355
▁traveling	-11.7357
▁snatch	-11.7361
▁utter	-11.7361
▁cit	-11.7361
-3	-11.7367
š	-11.7371
▁satellite	-11.7371
▁1946	-11.7372
▁franc	-11.7376
▁dreamed	-11.7378
▁merged	-11.739
word	-11.7394
▁porter	-11.7394
chair	-11.7395
▁jumper	-11.7395
pushes	-11.7397
ivity	-11.7398
▁turkish	-11.7401
grm	-11.7402
▁customer	-11.7405
▁frighten	-11.7406
▁zu	-11.7408
▁correspond	-11.741
▁receiving	-11.741
▁dustbin	-11.741
▁muscles	-11.7415
link	-11.7417
▁moss	-11.7417
▁vet	-11.7417
▁fist	-11.7417
▁shone	-11.7418
ject	-11.7418
▁amusement	-11.7419
him	-11.7423
▁hire	-11.743
▁span	-11.7435
total	-11.7435
▁`	-11.7437
▁interior	-11.7439
▁inspired	-11.7439
▁dispute	-11.7439
▁haunt	-11.7442
▁verb	-11.7447
▁explorer	-11.7448
vil	-11.7456
▁louisiana	-11.7458
▁philosophy	-11.7458
▁vanished	-11.7458
▁jazz	-11.746
▁harrison	-11.7461
▁cheat	-11.7463
ware	-11.7467
▁saxon	-11.7468
▁purchase	-11.7476
▁prefecture	-11.7478
▁relieved	-11.7479
▁badge	-11.7482
▁nomination	-11.7488
eyed	-11.7488
▁everyday	-11.7489
▁rotten	-11.7498
ope	-11.75
▁sap	-11.7501
▁brit	-11.7502
83	-11.7505
▁neglect	-11.7507
▁fen	-11.7507
▁ou	-11.7508
▁foster	-11.7509
▁snip	-11.751
▁supporting	-11.7515
▁[11	-11.7516
▁lobster	-11.7517
▁niece	-11.7517
▁pioneer	-11.7527
▁dra	-11.7528
▁claud	-11.7528
▁kicking	-11.7534
▁opponent	-11.7536
▁allison	-11.7544
▁carries	-11.7544
▁minus	-11.7546
▁bleeding	-11.7546
▁spike	-11.7547
▁fifa	-11.7549
▁panel	-11.7552
▁starred	-11.7553
▁intelligent	-11.7556
▁portugal	-11.7556
course	-11.7563
▁memorial	-11.7566
▁singapore	-11.7566
▁dimitra	-11.7566
▁departure	-11.7566
▁armenian	-11.757
▁1920	-11.757
▁cutter	-11.757
silver	-11.7573
▁1949	-11.7577
▁gallop	-11.7577
▁wheat	-11.7577
▁potter	-11.7578
jam	-11.7579
▁marvel	-11.7582
▁permitted	-11.7587
▁straighten	-11.7588
née	-11.7593
▁extinct	-11.7596
▁dramatic	-11.7596
▁hare	-11.7604
▁joining	-11.7606
▁1942	-11.7606
▁conscious	-11.7608
▁ost	-11.7612
▁complaint	-11.7613
▁dresses	-11.7615
▁trembling	-11.7615
▁leaped	-11.7622
▁fortunately	-11.7624
▁fearful	-11.7635
▁distract	-11.7636
▁pub	-11.7638
▁disturbed	-11.764
▁axe	-11.7641
▁renew	-11.7642
▁curly	-11.7645
▁bargain	-11.7645
▁pence	-11.7652
▁stem	-11.7656
▁nepal	-11.7656
▁cupcake	-11.7656
▁lied	-11.766
▁filling	-11.7664
▁sole	-11.7665
▁volleyball	-11.7665
▁pea	-11.7666
udge	-11.7669
▁neu	-11.7671
world	-11.7672
direct	-11.7673
pee	-11.7677
children	-11.7684
▁jose	-11.769
▁harmon	-11.7692
▁flap	-11.7693
▁farewell	-11.7695
▁shovel	-11.7698
▁via	-11.77
▁hunger	-11.7702
▁uncertain	-11.7708
▁tomb	-11.771
rrr	-11.7711
▁welsh	-11.7715
▁1954	-11.7716
▁adopt	-11.7718
▁exhibition	-11.7719
ground	-11.772
▁suitable	-11.7722
▁halt	-11.7723
▁perch	-11.7724
▁pears	-11.7728
▁berg	-11.7732
arch	-11.7732
bank	-11.7734
▁surgeon	-11.7735
mir	-11.7735
▁propose	-11.7736
anna	-11.7737
▁pala	-11.7737
▁regarding	-11.7748
rod	-11.7755
▁electrical	-11.7756
▁mole	-11.7769
yle	-11.7769
▁moor	-11.7772
▁reed	-11.7773
--------------	-11.7773
horse	-11.7774
▁whispering	-11.7777
▁slam	-11.7781
▁sensible	-11.7785
▁sadly	-11.7786
wen	-11.7789
▁alec	-11.7792
▁dart	-11.7793
▁shakespeare	-11.7795
▁wisdom	-11.7795
▁trigger	-11.7796
▁wandering	-11.7797
▁dame	-11.7803
▁slap	-11.7804
hra	-11.7806
▁homework	-11.7806
▁interrupt	-11.7809
aya	-11.7814
lé	-11.7815
▁instinct	-11.7816
▁lettuce	-11.7816
▁decline	-11.7817
▁borough	-11.7819
▁cau	-11.7819
▁eth	-11.7822
▁lan	-11.7822
▁chemistry	-11.7826
▁1955	-11.7827
▁iris	-11.783
cj	-11.7835
▁dialect	-11.7836
▁stripes	-11.7838
▁heir	-11.7841
▁fries	-11.7843
cular	-11.7846
▁investigate	-11.7846
▁shiny	-11.7848
▁sweater	-11.7852
▁rested	-11.7855
▁attracted	-11.7855
▁russell	-11.7856
▁dale	-11.7856
▁practically	-11.7857
▁1939	-11.7857
▁consists	-11.7858
▁improved	-11.7861
▁relation	-11.7861
▁modest	-11.7862
▁rangers	-11.7866
▁alliance	-11.7867
▁stare	-11.7868
cade	-11.7872
▁promptly	-11.7873
osh	-11.7874
▁metres	-11.7874
▁batter	-11.7875
▁cunning	-11.7876
▁execution	-11.7876
▁mario	-11.7879
fold	-11.7879
▁flee	-11.7886
▁anderson	-11.789
fil	-11.7892
▁issued	-11.7892
▁wax	-11.7893
▁historic	-11.7894
▁jennifer	-11.7897
▁bum	-11.7897
roo	-11.7903
mission	-11.7906
▁forbidden	-11.7907
▁yelling	-11.7907
dee	-11.7907
▁chant	-11.791
▁gli	-11.7917
▁sensation	-11.7917
▁moan	-11.7923
▁scientist	-11.7926
gard	-11.7927
▁acknowledge	-11.7927
▁striking	-11.7927
▁surprising	-11.7927
state	-11.7928
▁councillor	-11.7929
▁kra	-11.7934
▁tum	-11.7935
▁polo	-11.7935
▁resolution	-11.7938
bef	-11.7939
▁bail	-11.7945
▁molecule	-11.7948
▁pigeon	-11.7948
▁pursuit	-11.7948
▁bron	-11.795
▁volcano	-11.7957
▁sneeze	-11.7957
▁reduce	-11.7957
▁needn	-11.7958
▁visual	-11.7958
▁warrant	-11.7958
▁explore	-11.7959
▁yorkshire	-11.7961
▁wayne	-11.7961
▁amos	-11.7964
▁brenda	-11.7969
▁businessman	-11.797
fresh	-11.7971
city	-11.7974
▁ministry	-11.7979
▁absolute	-11.7979
▁helpful	-11.798
▁humming	-11.7981
ère	-11.7983
▁dakota	-11.7989
▁rhode	-11.7989
▁pluck	-11.7991
▁paddle	-11.7991
gold	-11.7992
people	-11.7997
▁uttered	-11.7998
▁hollywood	-11.8
▁trapped	-11.8001
▁lengthened	-11.8001
▁erect	-11.8001
▁deeper	-11.8003
▁divorced	-11.8005
posed	-11.8007
blows	-11.8007
speak	-11.8009
vor	-11.8009
▁ultimate	-11.8009
▁indonesia	-11.8009
▁canvas	-11.8016
▁dating	-11.8018
▁scarlet	-11.8021
▁hack	-11.8027
▁privilege	-11.803
▁mushroom	-11.803
▁medium	-11.8041
▁tee	-11.8047
▁globe	-11.8048
nova	-11.805
▁lantern	-11.8051
coat	-11.8058
cloth	-11.8059
▁belgium	-11.8061
▁beaver	-11.8062
▁solemn	-11.8062
anne	-11.8063
▁float	-11.8067
rton	-11.807
wer	-11.8071
▁waffle	-11.8071
▁dae	-11.8074
▁chuckles	-11.8077
▁clearing	-11.8079
▁creating	-11.8083
▁entry	-11.8086
wash	-11.8086
isn	-11.809
▁exit	-11.8093
▁1943	-11.8093
▁dolphin	-11.8094
▁romania	-11.8095
glass	-11.8097
great	-11.8097
▁whereas	-11.8099
▁colin	-11.8102
▁humble	-11.8102
▁scoop	-11.8104
▁secured	-11.8104
▁analysis	-11.8113
▁octopus	-11.8113
▁retirement	-11.8114
▁heroes	-11.8122
▁eighth	-11.8123
▁struggling	-11.8123
▁temporary	-11.8123
▁discharge	-11.8124
▁fortunate	-11.8124
▁conquer	-11.8126
▁popped	-11.8129
▁irene	-11.813
▁essay	-11.8134
phon	-11.814
▁behaviour	-11.8144
▁capacity	-11.8144
▁abraham	-11.8155
▁fulfil	-11.8155
could	-11.8155
▁pilgrim	-11.8157
own	-11.816
fly	-11.816
▁confederate	-11.8165
▁stroll	-11.8168
▁scarf	-11.8171
▁strap	-11.8173
▁imitate	-11.8175
▁roughly	-11.8175
chester	-11.8176
▁tech	-11.8176
▁blaze	-11.8177
▁survived	-11.8181
grade	-11.8184
▁pac	-11.8185
▁pursue	-11.8186
▁1944	-11.8187
▁1941	-11.8187
▁answering	-11.8188
▁featured	-11.8197
▁introduction	-11.8197
▁exposed	-11.8197
▁joyce	-11.8201
▁peninsula	-11.8207
▁steer	-11.8209
gio	-11.8211
▁camping	-11.8215
▁grove	-11.8217
▁invasion	-11.8218
▁absent	-11.8218
▁harvey	-11.8218
▁initial	-11.8219
active	-11.8227
▁rhythm	-11.8228
▁invade	-11.8231
▁identified	-11.8239
à	-11.8239
▁insects	-11.8243
▁hedge	-11.8244
▁cellar	-11.8245
shot	-11.8246
▁behalf	-11.8247
▁bothered	-11.8248
▁distribution	-11.8249
▁nellie	-11.8249
beat	-11.8252
ñ	-11.8254
▁planted	-11.8256
▁deserted	-11.8259
▁enterprise	-11.826
▁earliest	-11.826
▁eun	-11.8263
footnote	-11.8268
▁dislike	-11.8269
▁architect	-11.827
▁occupation	-11.827
▁wives	-11.8272
▁rural	-11.8273
watch	-11.8276
talking	-11.8278
ession	-11.8279
▁leaned	-11.8284
illo	-11.8285
▁fixing	-11.8288
▁tab	-11.8291
▁wah	-11.8292
▁select	-11.8299
▁lively	-11.83
▁imagined	-11.83
zing	-11.8301
pulls	-11.8302
▁rocking	-11.8302
▁strict	-11.8303
▁hermit	-11.8307
▁afterward	-11.8312
▁specimen	-11.8313
▁crunch	-11.8313
▁rio	-11.8325
▁bake	-11.8338
▁distinguished	-11.8338
▁uefa	-11.8345
▁1951	-11.8346
▁sensitive	-11.8355
▁dollhouse	-11.8359
▁crust	-11.836
aro	-11.836
took	-11.8363
▁gail	-11.8363
▁brew	-11.8374
▁missile	-11.8377
▁stump	-11.8378
▁existed	-11.8379
▁desired	-11.838
▁gale	-11.8384
▁lifetime	-11.8386
▁hamilton	-11.8387
▁casual	-11.8387
▁properties	-11.8388
▁ernest	-11.8389
ffy	-11.8398
▁taperecorder	-11.8398
▁spotted	-11.8399
▁commissioner	-11.8401
▁damaged	-11.8401
▁zoom	-11.8402
▁leon	-11.8406
▁smallest	-11.8406
▁bangladesh	-11.8409
▁bradford	-11.8409
▁slightest	-11.8411
ić	-11.8418
▁gasped	-11.8419
▁resort	-11.842
▁swiftly	-11.8422
▁withdraw	-11.8427
▁oklahoma	-11.843
▁architecture	-11.843
▁harvest	-11.8431
▁butcher	-11.8438
grf	-11.844
▁finn	-11.8448
starts	-11.845
▁freak	-11.8454
▁roller	-11.8457
▁gleam	-11.8463
▁solomon	-11.8463
▁cancel	-11.847
▁dizzy	-11.8473
▁sentiment	-11.8473
▁concerning	-11.8475
▁glove	-11.8478
▁snowman	-11.8481
▁associate	-11.8483
▁steadily	-11.8484
media	-11.8485
▁1953	-11.8485
▁wwe	-11.8486
▁parking	-11.8488
▁damp	-11.8497
▁reverse	-11.8501
kn	-11.8501
▁ukraine	-11.8506
▁promotion	-11.8506
▁bab	-11.8506
▁campus	-11.8507
▁halloween	-11.8517
▁tennessee	-11.8517
▁exhibit	-11.8523
wyn	-11.8524
▁appetite	-11.8527
▁lloyd	-11.8527
▁stain	-11.8532
based	-11.8533
▁swww	-11.8535
▁torch	-11.8537
▁cardinal	-11.8538
2)	-11.8547
▁warner	-11.8548
▁derek	-11.8549
▁contrary	-11.8549
▁marshall	-11.855
▁angela	-11.8556
▁explode	-11.856
▁highness	-11.8561
▁depending	-11.8562
▁iraq	-11.8566
▁ferr	-11.8569
▁voted	-11.8569
yne	-11.857
▁engagement	-11.8572
▁accord	-11.8574
ttering	-11.8576
▁git	-11.8578
▁roz	-11.8589
▁disgrace	-11.8593
▁cambridge	-11.8593
▁aisne	-11.8594
▁thanksgiving	-11.8594
▁popcorn	-11.8594
▁hesitated	-11.8594
▁prof	-11.8602
▁discussed	-11.8606
rup	-11.8607
52	-11.8609
▁argentina	-11.8615
▁sustain	-11.8615
eye	-11.8615
▁rah	-11.8622
▁banner	-11.8628
▁restrict	-11.8631
fc	-11.8633
▁fitted	-11.8634
knock	-11.8635
▁sequence	-11.8637
."--_	-11.8637
dict	-11.8641
bone	-11.8645
▁frederick	-11.8648
▁fairies	-11.8648
▁1936	-11.8649
▁lightly	-11.865
mount	-11.8651
lov	-11.8652
laughter	-11.8653
||1||	-11.8654
▁rosie	-11.8656
▁punk	-11.8657
ried	-11.8658
▁bunk	-11.8659
▁sketch	-11.866
▁rosy	-11.8661
▁dil	-11.8662
▁betray	-11.8665
▁dignity	-11.867
▁narrator	-11.867
▁bumped	-11.868
▁chorus	-11.8682
empt	-11.8689
▁errand	-11.8692
▁brake	-11.8693
▁kel	-11.8696
▁divine	-11.8698
▁cargo	-11.87
▁tremble	-11.8702
▁contribution	-11.8703
▁glimpse	-11.8703
▁samantha	-11.8703
▁unpleasant	-11.8703
▁shaped	-11.8705
▁finest	-11.8708
listen	-11.8711
▁spiritual	-11.8714
▁elect	-11.872
▁ledge	-11.8725
|	-11.8725
▁johann	-11.8725
▁idle	-11.8728
▁lifting	-11.8729
▁sunset	-11.873
▁ernie	-11.873
▁marian	-11.8734
▁1938	-11.8737
▁tyler	-11.8738
liness	-11.8739
▁quid	-11.874
▁1934	-11.8748
▁containing	-11.8749
▁corps	-11.8753
▁hydrogen	-11.8758
▁gilbert	-11.8759
▁conducted	-11.8761
▁cemetery	-11.8769
▁graduate	-11.877
▁fatal	-11.8772
lah	-11.8775
▁hopeless	-11.8779
▁basin	-11.8782
▁cruise	-11.8789
▁promoted	-11.8791
▁dwarf	-11.8791
▁esc	-11.8799
▁declare	-11.8803
icle	-11.8806
▁kara	-11.8812
▁messy	-11.8821
ibility	-11.8822
▁apt	-11.8822
nap	-11.8826
▁performing	-11.8827
▁finishing	-11.8828
uro	-11.8834
▁utterly	-11.8836
▁spinning	-11.8838
▁spencer	-11.8847
▁vega	-11.8854
▁rosalie	-11.8859
▁phillip	-11.8859
▁finance	-11.886
▁seeking	-11.8862
picture	-11.8868
▁é	-11.8868
▁amused	-11.8871
▁tons	-11.8877
▁viv	-11.8877
wich	-11.8877
▁violet	-11.8881
gna	-11.8884
▁elsewhere	-11.8884
▁65	-11.8886
▁tomatoes	-11.8889
▁liver	-11.8889
“	-11.8891
▁vel	-11.8891
▁steak	-11.8895
▁yuck	-11.8899
▁harsh	-11.8899
▁villain	-11.8902
▁contrast	-11.8903
▁jun	-11.8906
▁abc	-11.8907
▁ev	-11.8909
bud	-11.8917
▁punish	-11.8919
▁murmur	-11.8919
gee	-11.8922
fle	-11.8922
▁ske	-11.8924
▁paralympic	-11.8926
▁sponsor	-11.8926
▁academic	-11.8926
▁leonard	-11.8927
icia	-11.893
▁lighter	-11.893
person	-11.893
eight	-11.8933
▁$2	-11.8936
▁scold	-11.8939
▁moonlight	-11.894
▁observe	-11.8941
▁yawn	-11.8943
▁vital	-11.8944
▁ny	-11.8948
▁1933	-11.895
witch	-11.8954
fashioned	-11.8954
▁tested	-11.8957
▁vincent	-11.896
▁gha	-11.896
▁ragged	-11.8962
▁selection	-11.8965
▁horizon	-11.897
▁portuguese	-11.8971
manchester	-11.8973
▁czech	-11.8983
▁gazing	-11.8983
▁sewing	-11.8991
▁sri	-11.8992
▁spilled	-11.8995
make	-11.8996
▁interval	-11.8999
▁bau	-11.9002
▁pronounced	-11.9003
▁disguise	-11.9005
▁heath	-11.9006
▁yacht	-11.9006
aux	-11.9008
▁infant	-11.9017
▁ornament	-11.9017
▁restrain	-11.9017
throws	-11.9022
▁raft	-11.9022
▁muscle	-11.9023
▁admiration	-11.9028
▁exclamation	-11.9032
▁behold	-11.9034
▁moreover	-11.9039
▁jessica	-11.904
▁achievement	-11.9041
▁earnestly	-11.9042
wow	-11.9045
▁descended	-11.9046
wil	-11.9047
shima	-11.9049
▁crawling	-11.9049
▁bacteria	-11.9051
▁landscape	-11.9051
humming	-11.9051
▁heritage	-11.9051
▁parson	-11.9057
▁civilian	-11.9057
▁polar	-11.9058
truck	-11.9058
▁steering	-11.9061
onia	-11.9061
▁harbour	-11.9062
▁monument	-11.9062
▁federation	-11.9062
▁colon	-11.9063
▁nigeria	-11.9063
shows	-11.9064
▁mou	-11.9064
▁48	-11.9065
▁pandemic	-11.9074
▁transferred	-11.9075
▁herbert	-11.9078
imit	-11.9081
▁islam	-11.9082
▁heartily	-11.9083
▁napoleon	-11.9085
▁translation	-11.9085
hsl	-11.9085
▁frown	-11.9086
▁comedian	-11.9086
▁emotional	-11.9087
▁vow	-11.9087
▁israeli	-11.9093
▁overcome	-11.9097
odo	-11.9097
dorf	-11.9104
▁nickel	-11.9107
▁geoffrey	-11.9108
▁£	-11.9111
▁motive	-11.9112
▁ladybird	-11.9112
▁talkin	-11.9112
▁tucker	-11.9114
▁constituency	-11.912
▁decoration	-11.912
stream	-11.9121
▁mixture	-11.9121
▁fifi	-11.9123
▁publisher	-11.9124
▁dense	-11.9127
▁attraction	-11.9127
uda	-11.9128
green	-11.9131
jun	-11.9134
enter	-11.9142
▁signature	-11.9143
▁clatter	-11.9143
▁jennie	-11.9155
paper	-11.9155
pod	-11.9155
▁gallant	-11.9156
hoe	-11.9163
▁routine	-11.9166
▁employment	-11.9167
▁improvement	-11.9168
▁punished	-11.9173
eff	-11.9174
▁nobel	-11.9175
▁fragment	-11.9178
▁keith	-11.9178
▁stewart	-11.9178
▁flor	-11.9179
▁doubtless	-11.918
▁cleaner	-11.9181
▁bog	-11.9184
▁lei	-11.9184
▁assumed	-11.9187
▁kentucky	-11.9189
▁sup	-11.919
▁pasta	-11.9192
▁lala	-11.9195
trust	-11.9198
▁barbie	-11.92
▁astonishment	-11.9201
▁maisie	-11.9201
▁convey	-11.9201
/2	-11.9202
▁fried	-11.9208
hour	-11.9209
groans	-11.9211
▁bloke	-11.9214
▁gy	-11.9215
type	-11.9218
▁bruise	-11.9221
▁disagree	-11.9223
final	-11.9223
▁accurate	-11.9224
▁prophet	-11.9224
▁gallery	-11.9224
ashi	-11.9234
nese	-11.9234
▁residence	-11.9236
crib	-11.9243
▁enthusiasm	-11.9247
▁grabbed	-11.9248
▁grammy	-11.9249
▁accordingly	-11.9249
▁drake	-11.9257
▁proportion	-11.9259
▁ronald	-11.9259
▁urgent	-11.9259
▁accomplished	-11.9266
▁maryland	-11.927
▁nightmare	-11.9271
▁pierce	-11.9274
▁spelling	-11.9277
▁communicate	-11.9282
▁ewww	-11.9288
▁forgetting	-11.9288
▁ashes	-11.929
▁rover	-11.9291
▁sammy	-11.9291
▁emmy	-11.9291
▁dedicated	-11.9294
▁gratitude	-11.9294
▁sequel	-11.9294
▁genuine	-11.9306
▁regulation	-11.9306
▁context	-11.9307
▁slug	-11.9308
▁trumpet	-11.931
doo	-11.931
▁wiped	-11.9311
▁invisible	-11.9318
▁edith	-11.9318
▁flavor	-11.9318
bow	-11.9318
▁scent	-11.9321
bang	-11.9324
▁mob	-11.9328
itude	-11.9332
▁examined	-11.934
▁searched	-11.9343
▁oars	-11.9343
▁twisted	-11.9345
▁peru	-11.9346
▁accomplish	-11.9346
▁approved	-11.9346
▁formerly	-11.935
▁deadly	-11.9351
→	-11.9352
▁pomp	-11.9352
▁clutch	-11.9353
▁gardener	-11.9357
ending	-11.9359
▁interpret	-11.9361
▁arizona	-11.9365
▁calculate	-11.9365
▁oath	-11.9365
▁bandage	-11.9367
itu	-11.9367
headed	-11.9371
billboard	-11.9375
▁pp	-11.9377
▁prick	-11.9378
▁barrier	-11.9378
▁38	-11.9384
moans	-11.9387
▁wrestler	-11.9388
▁lollipop	-11.9388
cross	-11.939
ppen	-11.9392
▁carrier	-11.9393
▁proceeding	-11.9393
▁catches	-11.9395
▁diary	-11.9397
▁47	-11.9398
▁resent	-11.9401
▁gh	-11.9402
▁magnetic	-11.9403
▁consist	-11.9405
camp	-11.9406
organ	-11.9407
▁deaf	-11.9407
ovich	-11.9408
▁difficulties	-11.9409
▁govern	-11.9412
▁communities	-11.9412
▁ethan	-11.9417
▁°	-11.942
▁flushed	-11.943
▁nigel	-11.9437
▁37	-11.9439
▁estimated	-11.9444
▁nowadays	-11.9448
▁gracious	-11.9448
▁snapped	-11.9449
▁dumb	-11.9456
▁yelled	-11.9459
ô	-11.9459
▁gan	-11.9459
▁approval	-11.9459
▁philosopher	-11.9459
▁telegraph	-11.9459
▁mechanic	-11.946
▁maine	-11.9463
▁perceived	-11.9467
▁utah	-11.9472
▁mic	-11.9472
▁decorate	-11.9472
▁clinic	-11.9476
rier	-11.9477
▁hawaii	-11.9483
▁organisation	-11.9483
▁ref	-11.9483
▁salute	-11.9485
flo	-11.9492
▁roland	-11.9493
▁socialist	-11.9494
▁buster	-11.9494
▁entitled	-11.9495
▁jeremy	-11.9495
▁mathematics	-11.9495
▁horrid	-11.9496
▁lazy	-11.9501
▁tightly	-11.9505
▁animation	-11.9507
▁objective	-11.9507
▁jock	-11.9508
▁waking	-11.9511
▁happier	-11.9519
▁survivor	-11.9519
▁essential	-11.9522
▁wade	-11.9523
ume	-11.9524
▁alley	-11.9527
rome	-11.9529
sail	-11.9531
▁civilization	-11.9532
▁scorn	-11.9537
▁flashed	-11.9537
▁mule	-11.9538
▁shah	-11.9546
▁descent	-11.9547
▁{	-11.9549
▁raisin	-11.9552
▁shallow	-11.9557
▁convince	-11.9557
bridge	-11.9561
bring	-11.9566
▁portrait	-11.9567
▁ethnic	-11.9568
▁vegetable	-11.9575
nine	-11.9576
▁followers	-11.9579
▁connecticut	-11.9579
▁schooner	-11.9579
▁gravely	-11.958
▁applause	-11.9583
▁alexandr	-11.9585
▁hitler	-11.9589
▁continuous	-11.9591
▁arabic	-11.9597
qual	-11.9599
weight	-11.96
kun	-11.96
▁secondary	-11.9601
ø	-11.9603
▁democrat	-11.9605
▁reflection	-11.9609
▁lau	-11.9609
▁quo	-11.9609
lady	-11.9613
▁freeze	-11.9615
▁44	-11.9615
▁poverty	-11.9616
▁revolver	-11.9616
▁coral	-11.9622
▁marcus	-11.9622
▁swam	-11.9626
▁resigned	-11.9627
▁flush	-11.9627
▁anniversary	-11.9628
▁1929	-11.9629
kir	-11.9629
▁preferred	-11.963
▁spur	-11.9635
▁merit	-11.9636
general	-11.9639
▁convenient	-11.964
▁muffin	-11.964
mumbles	-11.964
▁rooster	-11.9641
▁continent	-11.9641
▁burger	-11.9644
▁gui	-11.9644
▁lauren	-11.9646
▁nods	-11.9649
▁tackle	-11.965
▁relate	-11.9651
▁contribute	-11.9653
▁1935	-11.9653
ulu	-11.9658
▁armour	-11.9658
craft	-11.9661
▁operated	-11.9662
▁apron	-11.9665
▁ankle	-11.9666
▁viola	-11.9667
▁tryin	-11.9669
▁bind	-11.9672
▁milan	-11.9672
▁shorter	-11.9675
france	-11.9677
▁attach	-11.9686
▁rating	-11.9688
▁category	-11.9688
▁definition	-11.9688
▁nursing	-11.9688
▁wick	-11.9693
onne	-11.9693
▁reminded	-11.9697
these	-11.9697
mill	-11.9699
▁diego	-11.9699
▁blink	-11.9699
▁radiation	-11.9701
▁caravan	-11.9701
▁64	-11.9703
▁rattling	-11.9713
▁random	-11.9713
▁josh	-11.9713
▁floss	-11.9719
▁glu	-11.9721
▁screwdriver	-11.9725
▁impressive	-11.9725
osaurus	-11.9725
▁caution	-11.9725
▁salary	-11.9728
▁bathtub	-11.9737
▁nicola	-11.9738
▁silently	-11.9738
before	-11.9739
▁cloak	-11.9739
▁nhl	-11.974
▁400	-11.9742
▁fountain	-11.9749
▁freely	-11.9751
▁leadership	-11.9753
▁ranger	-11.9757
▁youngster	-11.9757
▁regularly	-11.9759
goes	-11.976
▁elegant	-11.9762
▁paradise	-11.9762
▁reagan	-11.9762
▁endure	-11.9765
▁thompson	-11.9774
▁disk	-11.9775
▁whe	-11.9775
▁1937	-11.9775
▁scoot	-11.9776
▁lucas	-11.9779
comune	-11.9783
▁norah	-11.9785
▁trusted	-11.9785
▁colombia	-11.9786
▁1932	-11.9787
ffer	-11.979
▁mansion	-11.9794
▁bunker	-11.9796
blue	-11.9798
▁educated	-11.9799
▁summit	-11.9799
▁trading	-11.9801
▁ripped	-11.9801
▁approximately	-11.9811
▁wandered	-11.9812
▁denmark	-11.9812
▁taxes	-11.9814
▁overhead	-11.9817
▁helm	-11.9817
▁sweeping	-11.982
▁trevor	-11.9824
▁gig	-11.9824
esh	-11.9825
▁tossed	-11.9826
▁kyle	-11.983
▁barney	-11.983
▁measured	-11.9834
▁brownie	-11.9834
▁penalty	-11.9836
▁amateur	-11.9836
▁grinned	-11.9836
▁ninth	-11.9837
▁tracy	-11.9837
▁estimate	-11.9839
▁brun	-11.9842
roman	-11.9844
▁habitat	-11.9847
▁tasty	-11.9849
▁restored	-11.9852
▁basement	-11.9859
▁nintendo	-11.986
▁celebrated	-11.9865
▁pam	-11.9867
▁concentration	-11.9873
▁protein	-11.9873
▁craig	-11.9876
▁saucer	-11.9876
▁hiya	-11.988
▁restless	-11.9882
morph	-11.9883
▁upright	-11.9884
▁burglar	-11.9885
▁fern	-11.9887
▁foam	-11.9895
▁hugo	-11.9897
▁patriot	-11.9898
▁slavery	-11.9901
▁sib	-11.9901
▁ranked	-11.9903
▁fury	-11.9903
▁yucky	-11.9909
▁skeleton	-11.991
▁felix	-11.9911
▁adele	-11.9912
▁pork	-11.992
▁hush	-11.992
▁jingle	-11.9924
▁folded	-11.9929
▁establish	-11.9931
▁43	-11.9933
▁cod	-11.9933
▁bella	-11.9938
dine	-11.9939
▁travelled	-11.994
▁pressing	-11.9943
▁surf	-11.9944
▁policies	-11.9948
▁strategy	-11.9948
▁rarely	-11.9948
▁achieve	-11.995
▁prix	-11.9951
▁shave	-11.9953
▁honk	-11.9958
▁laundry	-11.996
▁influenced	-11.9965
▁nicholas	-11.9973
▁providing	-11.9973
▁cocoa	-11.9973
▁2017)	-11.9982
▁narrative	-11.9985
▁enforce	-11.9986
▁stalk	-11.9987
▁pont	-11.9993
▁reflected	-11.9997
▁clyde	-11.9998
▁organism	-12
grunting	-12.0009
▁corridor	-12.001
▁sovereign	-12.001
▁1931	-12.0012
▁neil	-12.0014
integr	-12.0014
▁mercury	-12.0023
▁simpson	-12.0023
▁microsoft	-12.0023
▁designer	-12.0029
▁logic	-12.0037
▁advised	-12.0039
▁hydro	-12.0043
▁whistling	-12.0048
▁lynn	-12.005
▁hastened	-12.005
ought	-12.0057
▁indicated	-12.0059
▁dentist	-12.0061
▁threatening	-12.0061
▁requirement	-12.0064
▁shar	-12.0064
▁scrape	-12.0066
ū	-12.0074
▁astonished	-12.0074
▁butterflies	-12.0074
▁vague	-12.0076
▁apparent	-12.0077
▁developing	-12.0078
▁gin	-12.0078
▁outline	-12.0084
▁galaxy	-12.0086
▁translated	-12.0086
▁dese	-12.0086
▁agnes	-12.0089
▁traveller	-12.009
▁chased	-12.009
▁riot	-12.0091
▁champ	-12.0097
▁electoral	-12.0099
▁footsteps	-12.0099
▁rhine	-12.0099
▁•	-12.0099
▁collie	-12.0105
natural	-12.0112
▁maurice	-12.0112
▁representing	-12.0113
john	-12.0117
▁fictional	-12.0118
▁spade	-12.0119
quin	-12.0121
▁destination	-12.0124
▁landlord	-12.0124
▁regain	-12.0124
▁lizard	-12.0125
▁annoyed	-12.0128
▁petrol	-12.0129
▁alas	-12.0131
newman	-12.0133
▁pram	-12.0135
▁prairie	-12.0137
▁predator	-12.0137
▁rescued	-12.0142
▁strait	-12.0148
▁nathaniel	-12.015
▁toronto	-12.015
▁stirring	-12.0152
▁greeted	-12.0152
hawk	-12.0154
▁foul	-12.0156
\	-12.0162
▁vacuum	-12.0163
▁scandal	-12.0163
beep	-12.0171
ê	-12.0175
▁determine	-12.018
▁existing	-12.018
▁marion	-12.0181
▁pail	-12.0191
coo	-12.0192
▁magical	-12.0193
▁genera	-12.0197
▁islamic	-12.0197
▁trench	-12.0203
▁margot	-12.0203
▁plank	-12.0203
▁weakness	-12.0207
inch	-12.0209
▁barber	-12.0212
▁recruit	-12.0214
▁transmit	-12.0214
▁boiling	-12.0215
change	-12.0218
yah	-12.0221
▁150	-12.0222
ratner	-12.0225
▁utmost	-12.0227
▁1928	-12.0228
▁idol	-12.0232
▁rumor	-12.0233
game	-12.0236
conti	-12.0237
▁equation	-12.024
▁leisure	-12.024
▁esther	-12.0241
▁lowered	-12.0242
▁brace	-12.0243
▁chewing	-12.0243
nau	-12.0252
▁oswald	-12.0252
▁amendment	-12.0252
▁portray	-12.0254
▁colorado	-12.0255
▁divi	-12.0256
rack	-12.0258
▁employer	-12.0264
▁refrigerator	-12.0266
kiss	-12.0268
▁snug	-12.0268
▁dial	-12.0271
▁frequent	-12.0271
▁limp	-12.0277
brush	-12.0278
▁harvard	-12.0278
imitating	-12.028
▁wallace	-12.028
▁largely	-12.0281
▁batman	-12.0282
cken	-12.0285
ã	-12.0291
▁captive	-12.0293
▁encouraged	-12.0297
▁shocked	-12.0303
▁confession	-12.0309
▁fantasy	-12.0317
▁vigorous	-12.0317
▁maximum	-12.0318
▁stew	-12.0322
▁sai	-12.0322
▁flutter	-12.0323
▁daring	-12.0325
▁dusk	-12.0326
▁crib	-12.0326
▁democracy	-12.033
▁fuzzy	-12.033
▁composition	-12.033
▁awoke	-12.0331
kon	-12.0339
↗	-12.0343
▁invention	-12.0343
▁annabel	-12.0347
▁shove	-12.0355
▁witnesses	-12.0357
▁someday	-12.0359
joy	-12.0362
▁debuted	-12.0368
▁countenance	-12.0369
▁owen	-12.037
50,000	-12.0372
▁pawn	-12.0377
▁tread	-12.038
▁effie	-12.0382
▁injuries	-12.0382
▁mammy	-12.0382
▁isaac	-12.0385
▁fbi	-12.0385
▁hypo	-12.0387
▁mineral	-12.0387
shin	-12.0388
▁ethel	-12.0394
▁emphasis	-12.0395
▁sie	-12.04
▁reef	-12.0404
▁taller	-12.0405
▁baked	-12.0411
jar	-12.0415
roid	-12.0421
▁liverpool	-12.0422
▁moth	-12.0424
▁tsar	-12.0424
pause	-12.0427
▁graceful	-12.0429
▁embrace	-12.0435
▁[$=1	-12.0435
▁dodge	-12.0438
▁ferry	-12.0438
▁obeyed	-12.0441
▁suite	-12.0446
▁telegram	-12.0448
▁terrorist	-12.045
▁storage	-12.0461
▁telescope	-12.0461
▁undertake	-12.0462
▁focused	-12.0462
▁junk	-12.0471
▁cluster	-12.0474
▁gravity	-12.0474
▁universities	-12.0474
▁detroit	-12.0474
▁sliding	-12.0478
▁graphic	-12.0478
putting	-12.0479
cake	-12.0486
▁lyon	-12.049
▁playgroup	-12.049
▁hub	-12.0498
▁morris	-12.05
▁mythology	-12.0501
▁traveled	-12.0505
▁jerk	-12.0506
▁amazement	-12.0514
▁audrey	-12.0514
▁josé	-12.0514
screaming	-12.0514
▁jug	-12.0523
▁doug	-12.0524
▁knives	-12.0527
braunwald	-12.0527
▁##	-12.0528
▁rubbed	-12.0528
▁burial	-12.053
plane	-12.0537
▁ambition	-12.054
▁shrine	-12.054
▁mwww	-12.0545
▁franz	-12.0546
wah	-12.0547
▁compare	-12.0548
▁mandy	-12.0549
▁rejoice	-12.0554
▁announcement	-12.0555
▁borne	-12.0556
▁successfully	-12.0556
▁annoying	-12.0557
▁sep	-12.0557
▁marcel	-12.0558
hab	-12.0559
▁lime	-12.0564
undercurrent	-12.0567
▁physician	-12.0567
▁recognition	-12.0567
▁spoiled	-12.0568
▁timid	-12.0575
▁demonstrate	-12.0575
▁executed	-12.0575
▁promote	-12.0578
▁bachelor	-12.058
▁vanilla	-12.0582
▁galley	-12.0584
▁preserve	-12.0586
isation	-12.0587
softly	-12.0589
ulf	-12.0593
▁absurd	-12.0593
▁marjorie	-12.0593
2,000	-12.0602
▁39	-12.0603
▁gir	-12.0605
▁flatter	-12.0606
▁recess	-12.0607
▁ontario	-12.0607
▁infantry	-12.0608
▁fortnight	-12.0609
▁collecting	-12.0612
100	-12.0613
neil	-12.0618
▁edmund	-12.062
▁mop	-12.062
cru	-12.0623
lene	-12.0623
oka	-12.0628
▁abandon	-12.0629
▁chester	-12.0631
▁hungary	-12.0636
▁slate	-12.0638
▁devi	-12.0644
ł	-12.0647
▁abbey	-12.0647
▁trifle	-12.0647
▁fluid	-12.0651
▁siege	-12.0651
▁suspended	-12.0652
▁cadet	-12.0654
▁clinton	-12.066
▁assigned	-12.066
▁packing	-12.0666
▁cope	-12.067
▁shaft	-12.0673
▁whisk	-12.0674
▁cavalry	-12.0674
▁parallel	-12.0674
▁pippin	-12.0674
imitates	-12.0676
jin	-12.0676
pool	-12.0677
▁bruno	-12.068
▁norwegian	-12.0687
▁receipt	-12.0687
▁readily	-12.0687
▁velvet	-12.0688
tribute	-12.0691
▁amazed	-12.0701
▁distinguish	-12.0709
▁destiny	-12.0714
picking	-12.0715
ür	-12.0717
▁stockings	-12.0717
▁operator	-12.0729
▁mitten	-12.0729
▁hampshire	-12.0741
▁jeffrey	-12.0741
flu	-12.0742
▁parlor	-12.0742
▁ascend	-12.0744
▁frankly	-12.075
gone	-12.075
▁perry	-12.0752
▁prominent	-12.0755
▁mechanism	-12.0755
▁seesaw	-12.0757
▁fum	-12.0767
▁harriet	-12.0768
▁prim	-12.0776
▁celebration	-12.0782
▁tragedy	-12.0782
▁dissolve	-12.0782
▁neighbourhood	-12.0782
▁departed	-12.0784
▁frock	-12.0786
▁giggle	-12.079
ndra	-12.0793
▁nathalie	-12.0796
▁cradle	-12.0796
▁jasper	-12.0796
▁allowing	-12.0799
▁playground	-12.0802
▁summon	-12.0807
▁ammunition	-12.0809
shaw	-12.0809
cock	-12.0809
▁jung	-12.0812
▁defined	-12.0812
▁rico	-12.0815
▁henri	-12.0818
maid	-12.0819
izz	-12.0822
▁raj	-12.0822
▁indulge	-12.0823
▁shilling	-12.0823
▁arabia	-12.0824
▁singh	-12.0825
300	-12.0827
▁retire	-12.0827
▁dwww	-12.0829
▁thor	-12.0837
▁affectionate	-12.0838
▁procession	-12.0839
▁plaster	-12.0839
▁kil	-12.0846
▁dismissed	-12.0849
▁wright	-12.0855
▁rash	-12.0856
▁lance	-12.0857
▁scrambled	-12.0859
▁michel	-12.0863
▁psycho	-12.0864
▁hull	-12.0864
▁fiddle	-12.0865
▁extract	-12.0877
▁producing	-12.0878
▁borrowed	-12.0879
▁vary	-12.088
movie	-12.0881
▁ensure	-12.0881
▁neuro	-12.0889
▁mining	-12.0893
▁linked	-12.0895
▁moose	-12.0905
▁vein	-12.0907
position	-12.0908
▁publication	-12.0909
▁outdoor	-12.091
▁stepping	-12.0911
▁update	-12.0919
▁hound	-12.0924
▁precisely	-12.0924
▁artificial	-12.0933
▁oregon	-12.0933
▁iranian	-12.0933
▁cease	-12.094
▁crushed	-12.0946
↫	-12.0947
▁playdough	-12.0947
▁franchise	-12.0947
▁musket	-12.0947
▁collins	-12.0947
▁oz	-12.0949
▁tamil	-12.095
plan	-12.0952
def	-12.0952
▁trent	-12.0953
▁crest	-12.0958
young	-12.0959
▁slot	-12.0959
▁acquainted	-12.096
▁literary	-12.096
▁rascal	-12.096
ody	-12.0969
▁appearing	-12.0972
▁grind	-12.0973
▁elliot	-12.0974
▁qualified	-12.0974
▁reindeer	-12.0974
▁wilderness	-12.0974
▁armies	-12.0978
diary	-12.0982
▁pru	-12.0982
▁fitting	-12.0983
▁overboard	-12.0985
▁satisfy	-12.0988
▁renamed	-12.0988
▁robbery	-12.099
▁tricky	-12.0996
▁calf	-12.1002
▁denied	-12.1002
having	-12.1003
▁madison	-12.1003
▁1926	-12.1004
▁erase	-12.1007
▁excitedly	-12.1008
▁joel	-12.1011
▁ponies	-12.1016
▁murray	-12.1016
▁hostage	-12.102
▁cautiously	-12.1021
▁archie	-12.1023
national	-12.1026
hush	-12.1026
feld	-12.1027
▁vitamin	-12.103
▁lyrics	-12.103
handed	-12.1033
▁teapot	-12.1033
▁kor	-12.1033
▁hoop	-12.1039
▁roxy	-12.1044
▁toothbrush	-12.1044
▁relatively	-12.1044
▁glitter	-12.1054
▁carpenter	-12.1058
▁tobacco	-12.1058
▁veteran	-12.1058
▁eldest	-12.1058
▁mara	-12.1059
▁disposed	-12.106
▁finland	-12.1061
ante	-12.1062
ncy	-12.1065
▁azerbaijan	-12.1072
▁contempt	-12.1072
▁slender	-12.1072
▁subsequent	-12.1072
▁twilight	-12.1072
▁doubtful	-12.1072
▁consciousness	-12.1074
▁electro	-12.1076
luck	-12.1078
▁profession	-12.108
▁tenth	-12.1085
▁jerusalem	-12.1086
▁mediterranean	-12.1086
▁confront	-12.1087
indeed	-12.1087
▁tease	-12.1088
▁hap	-12.1093
▁severely	-12.1094
▁95	-12.1098
▁differ	-12.1099
▁fascinating	-12.11
▁salmon	-12.1102
▁betrayed	-12.1109
▁señor	-12.1114
▁bending	-12.1124
▁berries	-12.1126
▁scotch	-12.1128
▁gregory	-12.1128
kka	-12.1134
▁christianity	-12.1137
▁conquered	-12.1139
storm	-12.1142
▁rack	-12.1143
▁sinking	-12.1147
kisses	-12.1148
▁lame	-12.115
▁impulse	-12.1156
▁dwelling	-12.1156
▁iceland	-12.1159
▁manufacture	-12.1162
▁wizard	-12.117
▁robbed	-12.1171
▁freezing	-12.1172
▁gua	-12.1172
▁muhammad	-12.1184
▁cinderella	-12.1184
▁programming	-12.1186
▁broadway	-12.1188
▁stitch	-12.1191
▁joo	-12.1194
▁patron	-12.1195
▁virtue	-12.1198
▁sleigh	-12.1198
designated	-12.1199
▁yah	-12.1201
issa	-12.1202
▁dadda	-12.1203
▁starving	-12.1204
stock	-12.1209
@	-12.1213
▁fabric	-12.1213
▁pursued	-12.1213
▁lowest	-12.1215
▁cameron	-12.1221
▁mp	-12.1222
▁lust	-12.1226
▁advertising	-12.1227
uncle	-12.1227
later	-12.1227
▁jeep	-12.1228
▁penn	-12.123
▁impatient	-12.1231
▁panting	-12.1234
▁julian	-12.1236
▁mechanical	-12.124
▁defender	-12.124
▁fritz	-12.1242
▁pennies	-12.1242
▁1927	-12.1243
▁resumed	-12.1243
▁arriving	-12.1245
▁elderly	-12.1246
▁49	-12.1252
▁cheaper	-12.1252
ë	-12.1255
▁cornflakes	-12.1255
▁lemonade	-12.1256
leave	-12.1257
▁protecting	-12.1257
▁virtual	-12.127
▁watson	-12.127
arms	-12.127
▁spaceship	-12.1276
▁struggled	-12.1283
▁jest	-12.1283
▁slack	-12.1284
▁countess	-12.1285
bah	-12.1291
rice	-12.1294
faced	-12.1297
▁taka	-12.1299
▁placing	-12.13
▁ditch	-12.1301
▁reel	-12.1308
▁ssh	-12.1309
▁jefferson	-12.1312
▁condemn	-12.1313
▁skating	-12.1313
▁rubbing	-12.1314
▁miami	-12.1316
▁demo	-12.1317
▁rusty	-12.1322
▁embarrassed	-12.1326
å	-12.1327
▁maisy	-12.1327
▁squire	-12.1327
▁colonies	-12.1328
▁tack	-12.133
▁creak	-12.1331
▁pottie	-12.1331
▁franco	-12.1333
▁achieved	-12.1337
lang	-12.1341
▁eternal	-12.1341
▁pedro	-12.1341
▁receiver	-12.1343
▁classification	-12.1343
▁continental	-12.1346
▁insane	-12.1351
▁lena	-12.1355
▁orleans	-12.1356
▁import	-12.1357
▁duncan	-12.1358
▁calmly	-12.1358
▁criticism	-12.1358
▁protested	-12.1359
▁downtown	-12.1364
▁switched	-12.1368
▁gorilla	-12.137
▁coup	-12.1374
▁plantation	-12.1374
human	-12.1374
▁alpha	-12.1375
▁recollect	-12.1384
▁doughnut	-12.1385
▁freight	-12.1385
▁hosted	-12.1386
▁swarm	-12.1386
▁atoms	-12.1387
▁thorough	-12.1389
▁earning	-12.1394
▁acquired	-12.1395
▁levi	-12.1397
▁basil	-12.1398
▁exclusive	-12.1399
▁blunt	-12.14
▁boast	-12.14
▁poster	-12.1402
▁fireplace	-12.1404
▁cheerfully	-12.1405
▁85	-12.1408
▁milli	-12.141
▁52	-12.1411
▁strengthen	-12.1413
▁agricultural	-12.1413
▁marvellous	-12.1413
▁darwin	-12.1414
▁establishment	-12.1415
▁bulk	-12.1415
▁triple	-12.1426
▁humphrey	-12.1428
▁angrily	-12.1428
▁{\	-12.1428
▁revolutionary	-12.143
▁santo	-12.1432
▁transportation	-12.1434
▁tuna	-12.1436
▁correctly	-12.1438
▁facilities	-12.1442
▁necessity	-12.1442
▁ursula	-12.1442
▁wharf	-12.1442
shaped	-12.1446
▁definite	-12.1447
▁rapper	-12.1448
▁assembled	-12.145
▁crashing	-12.1457
▁cocoon	-12.1457
▁wrestle	-12.1458
▁55	-12.1461
▁cracked	-12.1467
▁ventured	-12.1467
▁graz	-12.1471
▁indignant	-12.1471
▁recipe	-12.1471
▁blush	-12.1471
aria	-12.1474
▁confessed	-12.1475
▁budd	-12.1476
quo	-12.1476
▁preserved	-12.148
▁roared	-12.148
▁sickness	-12.1486
▁manifest	-12.1486
▁terminal	-12.1486
▁delayed	-12.1487
▁console	-12.1487
▁passport	-12.149
▁spice	-12.1492
discards	-12.1492
rose	-12.1493
▁slid	-12.1495
▁breathless	-12.1497
▁wisconsin	-12.1501
▁siren	-12.1502
▁whiskers	-12.1503
▁dismay	-12.1506
▁hungarian	-12.1516
▁specifically	-12.1516
▁raspberry	-12.152
▁annoy	-12.1524
ár	-12.153
▁traitor	-12.153
▁punjab	-12.153
begins	-12.1532
▁humanity	-12.1533
▁booth	-12.1538
▁roaring	-12.154
iller	-12.1541
▁trolley	-12.1545
▁streak	-12.1545
▁dimple	-12.1545
▁educational	-12.1549
▁allowance	-12.1549
▁bennie	-12.155
▁brute	-12.1551
▁flashing	-12.1553
▁mick	-12.1553
▁makin	-12.1556
▁hyun	-12.1558
▁picardie	-12.1559
▁deceive	-12.1559
▁pg	-12.1559
bourne	-12.1571
▁nun	-12.1572
▁magician	-12.1573
▁ritual	-12.1574
whining	-12.1576
▁swimmer	-12.1577
▁approve	-12.1582
▁corpse	-12.1585
▁wider	-12.1588
▁diagnosed	-12.1589
▁inspection	-12.1589
▁merrily	-12.1589
▁nathan	-12.159
▁successor	-12.159
▁bengal	-12.1592
▁unlock	-12.1596
trying	-12.1596
▁displayed	-12.1599
▁tumble	-12.16
dynamite	-12.1603
▁rubbish	-12.1603
▁theodore	-12.1604
▁participated	-12.1605
▁kirk	-12.1615
▁typically	-12.1618
▁neutral	-12.1618
▁clapping	-12.162
▁2024	-12.162
▁cement	-12.1624
▁houston	-12.1633
▁brigade	-12.1633
▁loaf	-12.1635
▁campbell	-12.1636
▁prompt	-12.1639
▁circum	-12.1648
▁industries	-12.1648
▁yoghurt	-12.1648
▁cob	-12.1658
▁recommendation	-12.166
▁quest	-12.1662
▁baltimore	-12.1663
▁miguel	-12.1663
▁grammar	-12.1665
▁whine	-12.1671
▁revenue	-12.1677
those	-12.1678
1||	-12.1686
▁render	-12.1688
▁ng	-12.169
▁venezuela	-12.1692
▁87	-12.1696
engine	-12.1698
jay	-12.1705
▁arise	-12.1706
▁marshal	-12.1714
angel	-12.1717
▁dj	-12.1719
▁opportunities	-12.1722
▁amusing	-12.1724
berries	-12.1727
joe	-12.173
▁cafe	-12.1733
▁frantic	-12.1734
▁screech	-12.1737
▁scholarship	-12.1738
▁madrid	-12.1739
▁yonder	-12.1739
▁groom	-12.1741
▁ricky	-12.1743
▁blah	-12.1744
▁luggage	-12.1752
▁mortgage	-12.1752
▁therapy	-12.1753
▁cork	-12.1755
▁choir	-12.1757
shore	-12.1763
▁thoughtful	-12.1764
fact	-12.1766
▁laboratory	-12.1767
nonspeech	-12.1768
▁slipping	-12.1769
▁inventor	-12.1769
▁rugby	-12.177
▁registered	-12.1772
▁backward	-12.1772
▁titan	-12.1773
▁buses	-12.1778
▁mow	-12.1779
etto	-12.1782
▁believing	-12.1782
▁hebrew	-12.1782
▁thoughtfully	-12.1785
▁kidney	-12.1787
▁grasped	-12.1787
▁rita	-12.1795
▁apollo	-12.1798
▁sever	-12.18
sniffs	-12.1804
▁danish	-12.1806
▁pineapple	-12.1812
sneezes	-12.1814
▁beetle	-12.1816
▁exile	-12.182
▁nip	-12.1822
▁employ	-12.1823
▁teasing	-12.1824
▁belgian	-12.1827
▁quiver	-12.1832
▁plunged	-12.184
▁server	-12.1841
▁commenced	-12.1842
▁quantity	-12.1842
▁spectacle	-12.1842
▁minimum	-12.1842
▁champagne	-12.1842
▁bomber	-12.1843
▁chattering	-12.1843
▁racket	-12.1844
▁devon	-12.1845
▁researcher	-12.1846
▁72	-12.1853
david	-12.1854
control	-12.1855
▁bouncing	-12.1858
▁facility	-12.1858
▁afghanistan	-12.1858
▁concrete	-12.1858
▁peck	-12.186
▁handful	-12.186
▁highland	-12.1866
▁occasional	-12.1867
||5	-12.1869
▁luxury	-12.1873
▁rebellion	-12.1873
▁yankee	-12.1873
▁ramp	-12.1874
▁halted	-12.1877
▁compelled	-12.1888
▁stirred	-12.189
▁prevented	-12.1891
▁mound	-12.1892
▁wealthy	-12.1894
▁stray	-12.19
agh	-12.1901
▁macdonald	-12.1903
▁holmes	-12.1903
▁rustle	-12.1903
▁shrub	-12.1903
▁fowl	-12.1904
▁1925	-12.1906
▁gibb	-12.1906
yama	-12.1909
super	-12.1918
▁junction	-12.1918
▁intimate	-12.1919
▁kon	-12.192
correct	-12.1921
▁wien	-12.1928
▁paragraph	-12.1934
▁sparrow	-12.1934
▁coffin	-12.1934
inaudible	-12.1934
join	-12.1939
fine	-12.1941
▁growled	-12.1942
gunshot	-12.1946
▁advisor	-12.1949
▁infinite	-12.1949
▁cigar	-12.195
speech	-12.1951
▁ransom	-12.1951
▁envy	-12.1953
▁shawn	-12.1958
▁maple	-12.1959
▁2019)	-12.1961
▁sculpture	-12.1964
▁supplied	-12.1964
▁hilary	-12.1964
▁exploit	-12.1964
▁temptation	-12.1964
▁poppy	-12.1969
best	-12.1969
▁succession	-12.1975
enburg	-12.1975
▁organic	-12.1977
▁birmingham	-12.1979
▁concealed	-12.1981
▁discussing	-12.1984
▁wholly	-12.1985
▁mik	-12.1985
zoe	-12.1986
▁initially	-12.1993
▁brumm	-12.1996
▁requested	-12.1996
▁pest	-12.1998
▁77	-12.2
▁popularity	-12.2007
▁saga	-12.2007
▁1922	-12.2012
▁anthem	-12.2015
etti	-12.2015
▁cleveland	-12.2025
alpes	-12.2026
▁tutor	-12.203
▁detailed	-12.2031
▁ellis	-12.2035
▁garbage	-12.2041
▁pulse	-12.2041
western	-12.2041
▁laurie	-12.2042
▁serbia	-12.2042
▁rape	-12.2045
natured	-12.2046
▁hoover	-12.2049
▁hudson	-12.2056
▁shrill	-12.2056
▁garments	-12.2057
▁safer	-12.2059
▁lanka	-12.2068
▁automatic	-12.2072
▁endeavour	-12.2072
▁demonstration	-12.2072
▁extensive	-12.2072
▁implement	-12.2072
▁tattoo	-12.2072
giving	-12.2077
wife	-12.2079
▁vicar	-12.2079
pole	-12.2083
▁cabbage	-12.2087
▁resemble	-12.2087
march	-12.2093
zon	-12.2099
▁vase	-12.2102
▁whining	-12.2102
▁efficient	-12.2103
worthy	-12.2103
▁partnership	-12.2106
▁hitch	-12.2109
▁adapted	-12.2117
▁agriculture	-12.2118
▁certificate	-12.2118
▁1918	-12.2122
▁observer	-12.2122
▁protestant	-12.2122
▁skiing	-12.2123
▁yama	-12.2125
rail	-12.2126
▁misfortune	-12.2134
▁transcribe	-12.2134
▁squadron	-12.2135
▁dime	-12.2137
▁recovery	-12.2139
▁artillery	-12.2149
▁continuing	-12.2149
▁deliberately	-12.2154
pour	-12.2155
▁sunlight	-12.2158
soft	-12.2161
▁battalion	-12.2165
▁cyclone	-12.2165
▁ella	-12.2166
▁subsid	-12.2167
▁presentation	-12.2167
$	-12.2168
writing	-12.2168
▁strongest	-12.2169
▁fir	-12.2174
▁terrified	-12.2181
▁malaysia	-12.2181
▁caleb	-12.2181
▁diving	-12.2186
▁sealed	-12.2192
▁marco	-12.2193
▁exceed	-12.2196
▁hymn	-12.2197
▁misery	-12.2198
happy	-12.2202
▁comparison	-12.2212
▁determination	-12.2212
▁henderson	-12.2212
▁twig	-12.2212
▁plague	-12.2214
▁loyalty	-12.2214
▁83	-12.2223
▁flowing	-12.2226
▁melbourne	-12.2228
▁idaho	-12.2228
▁cecil	-12.2228
▁liking	-12.2233
▁bait	-12.2235
▁swallowed	-12.2235
▁municipal	-12.2242
▁aggressive	-12.2243
▁explosive	-12.2243
▁fundamental	-12.2243
▁oct	-12.2243
rib	-12.2245
▁southwestern	-12.2245
▁86	-12.2257
▁occupy	-12.2259
▁orthodox	-12.2259
▁practise	-12.2259
▁reluctant	-12.2259
▁kneel	-12.2261
▁1924	-12.2261
▁purchased	-12.2262
▁quoth	-12.2265
▁territories	-12.2275
▁liquor	-12.2275
▁boiled	-12.2275
▁crank	-12.2277
▁smashed	-12.2278
▁bough	-12.2281
▁stow	-12.2286
▁indigenous	-12.2291
▁survival	-12.2291
▁greet	-12.2292
▁chuckled	-12.2293
▁bluff	-12.2294
▁(17	-12.2304
▁praised	-12.2306
▁primarily	-12.2307
▁torpedo	-12.2307
▁nottingham	-12.2307
▁screamed	-12.2308
▁livingston	-12.2311
▁bir	-12.2314
://	-12.2316
brown	-12.2319
▁intent	-12.2319
č	-12.2322
▁grocery	-12.2322
▁qualities	-12.2322
▁welfare	-12.2322
▁wrath	-12.2322
▁bryan	-12.2324
second	-12.2325
chuckling	-12.2332
▁deedee	-12.234
▁1923	-12.2341
crayon	-12.2341
fulness	-12.2351
▁squat	-12.2352
▁grub	-12.2352
▁shudder	-12.2354
▁murphy	-12.2354
▁torment	-12.2357
▁88	-12.2357
▁muddy	-12.2358
▁altitude	-12.237
▁inquiry	-12.237
▁♪♪	-12.2382
▁grandson	-12.2386
▁dvd	-12.2386
through	-12.2388
▁accidentally	-12.239
▁floated	-12.2401
▁extension	-12.2402
▁garrison	-12.2402
▁manhattan	-12.2402
choo	-12.2402
▁82	-12.241
ective	-12.2411
▁exo	-12.2414
▁kilometers	-12.2418
▁taiwan	-12.2418
▁munich	-12.2418
▁serial	-12.242
▁cordial	-12.2421
▁diesel	-12.2437
▁consisted	-12.2443
▁ripe	-12.2443
▁mcg	-12.245
▁puerto	-12.245
▁selena	-12.2451
▁shaw	-12.2451
▁hyper	-12.2452
▁veil	-12.2452
▁commitment	-12.2452
▁depart	-12.2454
▁dearest	-12.2456
▁broccoli	-12.2466
▁leicester	-12.2466
▁aroused	-12.2467
▁photographer	-12.2468
phil	-12.2471
ör	-12.2474
▁harness	-12.2475
▁41	-12.2482
▁massacre	-12.2482
▁dragging	-12.2483
▁derby	-12.2487
von	-12.2488
▁guitarist	-12.2488
▁devotion	-12.2498
▁rejoined	-12.2498
▁syllable	-12.2498
▁tweet	-12.2499
▁compass	-12.2499
▁shrink	-12.2499
▁prussia	-12.25
▁unfair	-12.2501
▁boundary	-12.2503
▁somme	-12.2504
fusion	-12.2509
communi	-12.2511
▁prevail	-12.2515
▁teenager	-12.2515
▁arguing	-12.2515
▁armor	-12.2515
▁tornado	-12.2515
fight	-12.2515
troph	-12.2515
▁tumbled	-12.252
▁wretched	-12.2524
▁wardrobe	-12.2531
▁perfume	-12.2531
▁measuring	-12.2531
▁gloria	-12.2531
▁lounge	-12.2532
central	-12.2536
▁classroom	-12.2538
▁serpent	-12.2547
▁artistic	-12.2548
▁colonial	-12.2548
▁strand	-12.2549
▁tug	-12.2557
▁abbot	-12.2563
▁trophy	-12.2564
wheel	-12.2567
▁pose	-12.257
▁lastname	-12.2574
▁mosquito	-12.2579
▁edinburgh	-12.2586
▁songwriter	-12.2591
▁ignorant	-12.2596
▁kidnapped	-12.2596
▁oatmeal	-12.2596
▁substitute	-12.2596
▁xxv	-12.2596
block	-12.2609
▁furnished	-12.261
▁conceal	-12.261
▁bradley	-12.2614
▁freud	-12.2615
▁highchair	-12.2615
▁manual	-12.2618
▁gervaise	-12.2628
▁falcon	-12.2628
▁argued	-12.2635
▁desperately	-12.2637
▁jesse	-12.264
▁glancing	-12.2645
▁montreal	-12.2645
▁fortress	-12.2645
▁adrian	-12.2646
▁lumber	-12.2646
▁flint	-12.2652
▁burp	-12.2654
▁strictly	-12.2659
▁thieves	-12.2661
▁inspiration	-12.2661
▁bennett	-12.2661
▁cheating	-12.2663
▁munch	-12.2671
draws	-12.2673
▁crawford	-12.2678
▁thump	-12.2678
▁clasped	-12.2691
▁restore	-12.2694
▁martial	-12.2694
▁township	-12.2695
▁charley	-12.2697
commune	-12.2698
▁bitterly	-12.2703
▁hoof	-12.2706
▁hostile	-12.2712
▁maintained	-12.2715
▁97	-12.2719
gmo	-12.2724
▁breach	-12.2725
▁conspiracy	-12.2727
▁warehouse	-12.2727
▁density	-12.2727
▁theories	-12.273
quarter	-12.273
haired	-12.2735
ctic	-12.2737
▁unclear	-12.274
▁equivalent	-12.2743
▁retorted	-12.2743
▁wrench	-12.2744
▁mammals	-12.2744
▁brutal	-12.2745
▁toxic	-12.275
▁christine	-12.2752
▁seize	-12.2759
▁croatia	-12.2761
▁minnie	-12.2763
▁tension	-12.2764
▁corporal	-12.2777
▁rehearsal	-12.2777
▁randall	-12.2777
▁biological	-12.2778
▁bravo	-12.278
▁congressional	-12.2793
▁manuscript	-12.2793
▁qualify	-12.2793
▁reckless	-12.2793
▁cali	-12.2803
▁variation	-12.281
▁pocketbook	-12.2812
▁jewelry	-12.2813
▁index	-12.2813
♪	-12.2822
▁fran	-12.2824
▁1000	-12.2826
▁crooked	-12.2827
▁kipper	-12.2828
▁pasture	-12.2832
▁rust	-12.2835
▁stella	-12.2836
▁countryside	-12.2841
▁pittsburgh	-12.2843
▁lettice	-12.2844
▁luis	-12.2844
▁ober	-12.2845
▁rendered	-12.2847
▁reject	-12.2848
▁gender	-12.285
▁guilt	-12.2851
▁connor	-12.2851
▁furry	-12.2851
▁halfway	-12.2859
▁squirt	-12.286
▁bosom	-12.286
▁creative	-12.2861
▁kula	-12.2866
▁risen	-12.2866
▁agony	-12.287
▁component	-12.2877
▁amazon	-12.2877
bab	-12.2878
#	-12.288
▁knob	-12.2881
▁grease	-12.2897
ün	-12.29
▁[.7	-12.2901
▁nasa	-12.2902
▁underwater	-12.2904
▁convicted	-12.2907
▁organize	-12.2908
▁lev	-12.2909
▁absorbed	-12.291
▁pretzel	-12.291
▁triumphant	-12.2912
▁81	-12.2913
▁margin	-12.2914
▁masses	-12.2917
another	-12.292
▁coil	-12.2923
▁indistinct	-12.2936
▁wallet	-12.2939
▁buggy	-12.2945
▁sufficiently	-12.2949
rub	-12.295
▁constructed	-12.296
▁medication	-12.2961
▁raja	-12.2961
▁ribbit	-12.2961
▁kip	-12.2961
▁cube	-12.2964
agne	-12.2964
▁1919	-12.2964
▁fade	-12.2967
▁isabelle	-12.2968
▁chen	-12.2969
▁curiously	-12.297
▁anticipate	-12.2978
▁sprinkle	-12.2978
▁ronnie	-12.2979
▁gospel	-12.2979
▁consistent	-12.2979
▁cheerio	-12.298
▁scarce	-12.2983
▁baking	-12.2984
▁summoned	-12.2984
▁marc	-12.2985
▁faded	-12.2988
kissing	-12.299
▁tess	-12.2993
▁exhaust	-12.2993
▁coincidence	-12.2995
▁qualification	-12.2995
▁consultation	-12.2995
road	-12.3
dging	-12.3004
▁conquest	-12.3012
▁guidance	-12.3012
▁fancied	-12.3012
▁drip	-12.3014
▁steward	-12.3015
true	-12.3021
▁grover	-12.3026
▁serge	-12.3027
▁lava	-12.3028
▁glee	-12.3032
▁slippery	-12.3037
▁declaration	-12.3046
▁strategic	-12.3046
▁joyful	-12.3046
▁altar	-12.3047
▁vermont	-12.3047
related	-12.305
▁uhhum	-12.3051
▁perish	-12.3053
▁flora	-12.3056
▁lever	-12.3057
▁exceedingly	-12.3063
covered	-12.3065
▁weeping	-12.307
proof	-12.3072
▁maxim	-12.3079
▁instruction	-12.308
▁almighty	-12.308
▁quebec	-12.308
▁bouncy	-12.308
zel	-12.3084
▁personnel	-12.3085
▁darted	-12.3085
▁wept	-12.3087
▁lola	-12.3091
▁interaction	-12.3098
▁comfortably	-12.3099
▁rejected	-12.3099
space	-12.3103
400	-12.3106
▁fugitive	-12.3114
▁reinforce	-12.3114
▁1921	-12.3117
bottle	-12.3119
▁kneeling	-12.3127
▁managing	-12.313
▁classified	-12.3136
▁tense	-12.3139
▁sip	-12.3142
▁vault	-12.3151
▁sharon	-12.3151
ière	-12.3154
action	-12.3156
▁choc	-12.3156
▁elite	-12.3162
▁phoenix	-12.3166
▁profound	-12.3168
▁singular	-12.3168
▁voting	-12.3172
zzo	-12.318
▁forecast	-12.3183
▁distinctly	-12.3184
▁considerably	-12.3185
▁emerged	-12.3186
▁attendant	-12.3188
▁pingu	-12.319
▁archive	-12.3191
tract	-12.3194
▁moderate	-12.3197
▁tribute	-12.32
▁substantial	-12.32
▁clump	-12.32
▁guild	-12.3201
▁measurement	-12.3207
▁quaint	-12.3208
▁blonde	-12.3217
▁twelfth	-12.3218
▁unbelievable	-12.3218
▁fluffy	-12.3218
▁fasten	-12.3218
▁remainder	-12.3223
better	-12.3224
▁caribbean	-12.3235
▁circular	-12.3235
▁quantum	-12.3235
▁vampire	-12.3235
▁nile	-12.3236
▁bidding	-12.3237
▁conviction	-12.3238
▁zach	-12.3239
▁otto	-12.324
demonstrates	-12.3242
▁kap	-12.3247
▁pow	-12.3249
▁solemnly	-12.3251
claps	-12.3252
▁complications	-12.3253
▁watermelon	-12.3253
▁depressed	-12.3253
▁glide	-12.3263
▁woe	-12.3265
front	-12.3268
î	-12.327
▁salzburg	-12.327
▁bulb	-12.3271
▁twww	-12.3277
▁bruin	-12.3286
▁immortal	-12.3287
▁mohammed	-12.3287
▁promising	-12.3287
▁whereupon	-12.3287
▁cromer	-12.329
▁gwen	-12.329
▁seaside	-12.3303
oria	-12.3304
▁wrinkle	-12.3305
▁duchess	-12.3305
▁porridge	-12.3305
didn	-12.3306
▁grieve	-12.3311
▁cruiser	-12.3315
▁chemist	-12.3321
▁reverend	-12.3322
▁luncheon	-12.3322
▁fraud	-12.3324
▁awright	-12.3324
▁fenn	-12.3325
▁array	-12.3326
▁slay	-12.3333
▁marcia	-12.3335
▁teletubbies	-12.334
▁zipper	-12.3343
investigator	-12.3345
story	-12.3346
▁cruz	-12.3352
▁respectable	-12.3353
▁define	-12.3362
▁announce	-12.3364
▁freddy	-12.3364
stairs	-12.3368
yawns	-12.3373
▁submit	-12.3374
▁montgomery	-12.3375
▁rosamund	-12.3375
▁misunderstand	-12.3375
▁pledge	-12.3375
▁darn	-12.3382
cide	-12.3384
▁armenia	-12.3386
write	-12.3387
▁hedgehog	-12.3393
▁apology	-12.3393
▁suppress	-12.3393
▁arctic	-12.3393
▁banned	-12.3395
songwriter	-12.3397
▁terra	-12.3409
▁leopard	-12.341
▁curtis	-12.3412
▁partially	-12.342
▁emil	-12.3423
certainly	-12.3428
▁defendant	-12.3432
▁piglet	-12.3434
▁youtube	-12.344
▁playstation	-12.3446
▁mainland	-12.3449
▁controller	-12.3454
▁mcdonald	-12.3455
present	-12.3466
▁buckle	-12.3466
▁1917	-12.3467
▁warden	-12.347
▁impatiently	-12.3476
▁rite	-12.3477
flow	-12.3478
▁compromise	-12.3481
▁congratulate	-12.3481
▁sesame	-12.3481
▁patricia	-12.3482
▁insect	-12.3485
▁whoosh	-12.3487
▁vor	-12.3496
▁barcelona	-12.3499
▁lolly	-12.35
▁burrow	-12.3501
screen	-12.3504
▁neigh	-12.3504
comb	-12.3506
▁10,000	-12.3514
▁dainty	-12.3517
▁disposition	-12.3519
▁xiv	-12.3522
▁hopped	-12.3526
▁hoarse	-12.3535
▁georgie	-12.3537
▁passionate	-12.3537
▁teaches	-12.3541
▁condo	-12.3549
▁tortoise	-12.3553
▁joshua	-12.3553
▁transition	-12.3554
pound	-12.3554
▁audio	-12.3556
▁slaughter	-12.3559
▁shoo	-12.3563
▁plough	-12.3571
▁presume	-12.3571
▁biology	-12.3573
▁carved	-12.3574
zzi	-12.3583
▁calculation	-12.3589
▁defensive	-12.3589
▁pyramid	-12.3589
▁baggage	-12.3589
▁mutual	-12.3589
▁witches	-12.3591
▁partial	-12.3595
/11	-12.3598
tropic	-12.3607
▁allied	-12.3611
▁tisha	-12.3611
▁tempted	-12.3611
▁subway	-12.3616
lessness	-12.3617
▁muck	-12.3621
▁inhabit	-12.3625
▁spies	-12.3626
▁enjoyment	-12.3637
▁engage	-12.3638
▁bonus	-12.3648
▁settlers	-12.3648
▁liv	-12.3656
▁constellation	-12.3661
▁kathryn	-12.3661
▁pharaoh	-12.3661
south	-12.3661
giggling	-12.3662
▁sanders	-12.3664
▁ashley	-12.3665
chants	-12.3665
▁repent	-12.3665
▁publishing	-12.3676
▁primitive	-12.3679
▁shampoo	-12.3679
▁gossip	-12.3679
▁dillon	-12.368
▁creator	-12.3681
▁derwood	-12.3681
▁delhi	-12.3683
▁tipped	-12.3684
▁cmon	-12.369
half	-12.3693
▁initiative	-12.3697
▁essex	-12.3697
▁cindy	-12.3697
▁diameter	-12.3698
▁morrison	-12.3701
rrington	-12.3702
december	-12.3703
rium	-12.3707
▁suck	-12.3715
ß	-12.3716
▁retrieve	-12.3716
▁trauma	-12.3716
▁cyril	-12.3716
▁revolt	-12.3716
▁workshop	-12.3717
▁harmless	-12.3718
▁drummer	-12.3718
▁lark	-12.3721
sometimes	-12.3721
▁litter	-12.3729
▁immigrant	-12.3734
▁legislative	-12.3734
▁superintendent	-12.3734
▁toothpaste	-12.3734
▁undoubtedly	-12.3734
▁marty	-12.3736
▁nibble	-12.3737
▁gabriella	-12.3737
▁brett	-12.3738
vice	-12.3744
▁intently	-12.3745
scott	-12.3745
▁patent	-12.3747
force	-12.3749
▁embarrassing	-12.3751
▁hippopotamus	-12.3752
▁humpty	-12.3752
▁crimson	-12.3752
▁hike	-12.3753
▁digest	-12.3755
▁swap	-12.3756
▁violently	-12.3757
▁billboard	-12.3758
▁seattle	-12.3758
yells	-12.3768
▁mature	-12.3768
▁advertise	-12.3769
▁glasgow	-12.377
▁ketchup	-12.377
▁1,000	-12.3772
▁coax	-12.3776
▁untie	-12.3788
▁plymouth	-12.3789
▁ukrainian	-12.3789
▁worries	-12.3789
▁vivid	-12.3792
▁luckily	-12.3793
▁pillar	-12.3793
▁announcer	-12.3796
▁knit	-12.3806
▁clad	-12.3807
▁heavier	-12.3807
▁sunrise	-12.3807
▁puddle	-12.3808
▁bertie	-12.381
quite	-12.3817
▁membership	-12.3817
▁essentially	-12.3822
▁commonwealth	-12.3826
▁emerge	-12.3826
▁lofty	-12.3826
▁representation	-12.3827
▁awakened	-12.3828
▁referee	-12.3829
▁skies	-12.383
osaur	-12.3841
▁admiring	-12.3844
▁probable	-12.3844
▁trash	-12.3846
▁graph	-12.3848
▁resolve	-12.386
▁slumber	-12.3863
hung	-12.3864
august	-12.3868
relative	-12.3868
third	-12.3869
▁fletcher	-12.3881
▁export	-12.3885
different	-12.3887
brook	-12.3894
stadt	-12.3894
ogram	-12.3894
▁assignment	-12.39
▁hazard	-12.39
▁orchard	-12.39
▁tract	-12.3911
▁threaten	-12.3915
▁amsterdam	-12.3918
▁encouraging	-12.3918
▁audition	-12.3918
▁stunt	-12.3921
neighbor	-12.3924
▁removing	-12.3925
▁thirst	-12.3927
▁ruling	-12.3934
▁advancing	-12.3937
▁intellectual	-12.3937
january	-12.3943
linda	-12.3949
▁hesitate	-12.3953
▁glenn	-12.3953
▁columbus	-12.3955
▁situated	-12.3956
▁dexter	-12.3956
▁identical	-12.3956
▁griffin	-12.3956
▁jamaica	-12.3956
▁absorb	-12.3956
▁snort	-12.3958
▁dice	-12.3958
▁percentage	-12.3961
script	-12.3962
▁mitchell	-12.3974
▁reproach	-12.3974
▁proposition	-12.3975
▁lex	-12.3976
▁wiggle	-12.3976
▁documentary	-12.3977
▁hwww	-12.3978
▁abruptly	-12.3978
▁shawl	-12.3979
▁stubborn	-12.3993
▁♫	-12.3994
▁awaiting	-12.3994
▁chirp	-12.3999
▁barge	-12.4003
▁endeavor	-12.4012
▁provincial	-12.4012
▁rwww	-12.4016
▁whin	-12.402
▁urge	-12.402
cream	-12.4025
▁leeds	-12.4027
whisper	-12.403
simultaneous	-12.403
▁firefighter	-12.403
▁dipsy	-12.4031
▁depict	-12.4049
▁nebraska	-12.4049
▁atlanta	-12.4049
▁confined	-12.4049
▁resignation	-12.4051
▁flourish	-12.4052
abba	-12.4053
▁starboard	-12.4054
▁gwww	-12.4054
▁enthusiastic	-12.4056
▁bree	-12.4059
▁ceo	-12.4062
gabr	-12.4065
▁pilchard	-12.4068
▁heather	-12.4076
hurst	-12.4078
▁marvelous	-12.4083
▁autonomous	-12.4087
▁commerce	-12.4087
▁uneasy	-12.4087
▁pleaded	-12.4088
▁yang	-12.4091
sexual	-12.4093
▁blend	-12.4101
▁shiva	-12.4102
▁relieve	-12.4104
▁ingredient	-12.4106
▁separation	-12.4106
▁throng	-12.4106
▁interference	-12.4107
▁agreeable	-12.4119
▁recite	-12.4121
▁freezer	-12.4121
▁resume	-12.4123
▁grumpy	-12.4125
▁pneumonia	-12.4125
▁medieval	-12.4125
▁mermaid	-12.4125
▁yarn	-12.4132
▁honourable	-12.4134
saint	-12.4142
▁disappoint	-12.4143
▁brennan	-12.4144
▁slain	-12.4144
▁fergus	-12.4145
▁missionary	-12.4149
shouting	-12.415
▁bertha	-12.4157
▁puppies	-12.4163
▁sworn	-12.4163
▁dripping	-12.4164
▁[1.5	-12.4164
▁tragic	-12.4164
▁1912	-12.4168
family	-12.4169
squeak	-12.417
▁geese	-12.417
▁discourage	-12.4182
▁clergy	-12.4182
▁overseas	-12.4182
wide	-12.4194
▁sandra	-12.4198
▁bribe	-12.4201
▁bulgaria	-12.4201
▁constance	-12.4201
▁gasoline	-12.4201
▁invalid	-12.4202
▁mildred	-12.4202
▁beggar	-12.4203
▁diaper	-12.4206
michael	-12.4208
▁cragg	-12.4216
▁epic	-12.4217
▁satisfactory	-12.422
▁thrash	-12.4221
▁versus	-12.4221
▁continually	-12.4224
▁speedily	-12.4225
smiles	-12.4227
aaa	-12.4236
▁zara	-12.4239
▁dimension	-12.4239
▁conservation	-12.424
▁judith	-12.424
▁presidency	-12.424
▁psychology	-12.424
▁armstrong	-12.424
probably	-12.4246
▁woah	-12.4247
▁magistrate	-12.4259
▁unsuccessful	-12.4259
▁aviation	-12.4259
▁lodging	-12.426
▁clung	-12.426
▁vicious	-12.4262
owski	-12.4266
office	-12.4277
▁roam	-12.4277
▁cobb	-12.4277
▁pablo	-12.4278
cient	-12.4279
▁1900	-12.4286
tyrann	-12.4287
▁syndrome	-12.4297
▁reptile	-12.4297
▁bailey	-12.4298
fair	-12.4299
▁frontier	-12.4299
▁sparkle	-12.4302
▁excellency	-12.4317
▁progressive	-12.4317
▁transmission	-12.4317
▁choosing	-12.4322
▁apprentice	-12.4336
▁olivia	-12.4336
▁vicinity	-12.4336
▁alternate	-12.4336
▁atomic	-12.4337
north	-12.4341
▁radical	-12.4343
meaning	-12.4343
▁generate	-12.4345
▁manufacturer	-12.4347
▁construct	-12.4355
▁avail	-12.4355
▁microwave	-12.4356
▁negotiation	-12.4356
▁offended	-12.4356
▁chancellor	-12.4356
▁melody	-12.4356
▁feeble	-12.4357
▁blanche	-12.4357
▁consume	-12.4358
ña	-12.4366
▁wireless	-12.4367
▁derived	-12.4375
▁cheque	-12.4379
▁kru	-12.4383
▁luther	-12.4386
▁contemporary	-12.4395
▁gingerbread	-12.4395
▁unwilling	-12.4395
▁disabled	-12.4395
▁nigh	-12.4397
neck	-12.4399
kawa	-12.4411
xxx	-12.4414
▁presumably	-12.4414
▁legacy	-12.4414
▁antenna	-12.4414
▁antoine	-12.4414
▁carolyn	-12.4414
▁terrace	-12.4417
▁factories	-12.4417
▁alison	-12.4424
▁yoshi	-12.4427
▁hallway	-12.4427
▁custody	-12.4434
▁dioxide	-12.4434
▁são	-12.4434
▁sierra	-12.4434
▁delegate	-12.4434
▁precede	-12.4434
▁copyright	-12.4435
▁sparta	-12.4442
▁participate	-12.4451
▁greedy	-12.4453
▁dictionary	-12.4473
▁dwight	-12.4473
▁expansion	-12.4473
▁lucinda	-12.4473
▁roosevelt	-12.4473
▁vigil	-12.4473
▁mankind	-12.4473
▁oxide	-12.4474
▁faculty	-12.4493
▁courtesy	-12.4493
▁sidewalk	-12.45
▁jab	-12.4503
▁consumer	-12.4511
ă	-12.4512
▁cucumber	-12.4512
▁daffodil	-12.4512
▁kilometres	-12.4512
▁vertical	-12.4515
▁speck	-12.4518
▁fuse	-12.4519
▁mustache	-12.4526
▁rally	-12.4527
text	-12.4531
▁scrooge	-12.4532
▁precaution	-12.4532
▁testimony	-12.4532
▁fireworks	-12.4532
▁flank	-12.4534
▁vowel	-12.4535
▁hamlet	-12.4538
▁lindsay	-12.4552
▁privacy	-12.4552
▁respectively	-12.4552
▁dispatch	-12.4552
▁beatrice	-12.4553
▁cedar	-12.4553
▁venice	-12.4553
possum	-12.4553
▁comparatively	-12.4557
▁joyous	-12.4564
yeong	-12.4567
▁eskimo	-12.4572
▁gambling	-12.4572
▁profile	-12.4573
▁resource	-12.4573
▁oyster	-12.4573
▁terence	-12.4575
addressed	-12.4579
▁resign	-12.4581
▁pollution	-12.4592
▁testament	-12.4592
▁pavement	-12.4592
▁dublin	-12.4593
▁oxen	-12.4597
▁trend	-12.4601
▁stereo	-12.4611
gawa	-12.4612
▁insert	-12.4612
▁combine	-12.4616
▁inviting	-12.4632
captain	-12.4639
▁delta	-12.4643
▁argentine	-12.4651
▁constable	-12.4652
▁adapt	-12.4654
▁mailbox	-12.4655
▁sash	-12.4657
▁exposure	-12.4671
▁sturdy	-12.4671
rhin	-12.4674
▁kwww	-12.4676
▁diane	-12.4679
crack	-12.4684
▁mademoiselle	-12.4692
▁decrease	-12.4692
▁flirt	-12.4692
▁infected	-12.4712
▁splinter	-12.4712
▁nfl	-12.4717
▁cbs	-12.4717
▁reduction	-12.4718
▁crater	-12.4721
pipe	-12.4724
▁migration	-12.4732
▁shelves	-12.4732
▁horace	-12.4732
▁embarrass	-12.4735
▁replacement	-12.4735
assi	-12.4735
▁panther	-12.4736
▁laser	-12.4739
▁martyr	-12.4745
▁prejudice	-12.4752
▁devour	-12.4752
▁beverly	-12.4753
▁trout	-12.4758
check	-12.4762
▁adore	-12.4762
ş	-12.4772
▁database	-12.4772
▁variable	-12.4772
▁giddy	-12.4772
▁trotted	-12.4772
group	-12.4783
▁pike	-12.4785
▁mathematician	-12.4793
▁beheld	-12.4793
▁advertisement	-12.4794
attempts	-12.48
▁viking	-12.4801
▁solitary	-12.4813
▁warfare	-12.4813
▁cherries	-12.4814
▁boundaries	-12.4814
▁distinction	-12.482
growls	-12.4821
mumbling	-12.4827
bleep	-12.4831
▁physicist	-12.4833
▁shirley	-12.4833
▁inscription	-12.4833
exhales	-12.4834
▁ottoman	-12.4836
▁ignorance	-12.4854
▁hesitation	-12.4854
▁slipper	-12.4856
▁estonia	-12.4856
▁rake	-12.4859
▁offensive	-12.4874
▁stephanie	-12.4874
▁keisha	-12.4874
▁syrup	-12.4875
▁cavern	-12.4876
▁gravy	-12.4876
▁horizontal	-12.4876
▁disagreeable	-12.4877
▁filter	-12.4879
▁adaptation	-12.488
should	-12.4882
▁catalogue	-12.4895
▁cathalina	-12.4895
▁supermarket	-12.4895
▁thither	-12.4895
▁squaw	-12.4896
▁whipped	-12.4896
▁1914	-12.4899
▁dirk	-12.49
church	-12.4911
▁flute	-12.4912
▁reservation	-12.4915
▁screenwriter	-12.4915
▁superhero	-12.4915
▁underwear	-12.4915
▁snarl	-12.4916
▁priority	-12.4919
▁commend	-12.4922
▁aboriginal	-12.4936
▁elaborate	-12.4936
▁maintenance	-12.4936
▁sermon	-12.4939
september	-12.4943
▁machinery	-12.4954
▁peacock	-12.4956
nvr	-12.496
▁cluck	-12.4961
▁1910	-12.4963
▁gamble	-12.4963
▁participant	-12.497
▁saul	-12.4971
▁archbishop	-12.4977
▁conceive	-12.4977
▁frequency	-12.4977
▁oriental	-12.4977
▁meteor	-12.4977
▁stoke	-12.498
century	-12.4985
groaning	-12.4989
▁heroic	-12.4992
▁probability	-12.4998
▁abilities	-12.4998
▁tinker	-12.5
▁hazel	-12.5
shoot	-12.5004
number	-12.5006
▁mathematical	-12.5018
▁oooo	-12.5019
▁cancelled	-12.502
▁snowball	-12.5024
▁denver	-12.5025
crowd	-12.5027
reaching	-12.5027
▁imaginary	-12.5039
▁examining	-12.5039
▁despise	-12.5039
▁mingled	-12.5039
▁dismiss	-12.504
▁providence	-12.5042
hausen	-12.5047
suppose	-12.5049
gillam	-12.5055
▁locate	-12.506
▁jacques	-12.506
▁protocol	-12.506
▁despatch	-12.506
▁withdrew	-12.506
▁google	-12.506
▁desmond	-12.506
running	-12.5073
▁mosque	-12.5081
▁------------	-12.5084
▁churchyard	-12.5086
drawn	-12.5095
▁garret	-12.5096
▁brussels	-12.5102
▁jupiter	-12.5102
▁frigate	-12.5103
▁varied	-12.5103
▁chuckle	-12.5105
february	-12.511
▁braid	-12.5114
▁motionless	-12.5117
▁abundant	-12.5123
▁manufacturing	-12.5123
▁monroe	-12.5123
▁canyon	-12.5126
▁cramp	-12.5127
▁readiness	-12.513
length	-12.5131
▁chauffeur	-12.5144
▁corporate	-12.5144
▁dawson	-12.5144
▁propeller	-12.5144
▁swore	-12.5144
▁regime	-12.5145
▁elementary	-12.5146
▁biden	-12.5147
▁eagerness	-12.5149
§	-12.5165
▁santiago	-12.5165
▁assurance	-12.5165
▁fatigue	-12.5165
▁prohibit	-12.5165
▁segment	-12.5165
▁urgh	-12.5166
▁whereabouts	-12.5167
since	-12.5176
▁java	-12.5182
▁smuggle	-12.5186
▁assuming	-12.5186
▁nodding	-12.5187
▁translate	-12.5188
▁grange	-12.521
▁petition	-12.521
▁rumble	-12.5212
▁nought	-12.5212
▁gruff	-12.5213
¶	-12.5215
▁recreation	-12.5228
▁fisherman	-12.5228
level	-12.5229
▁legislature	-12.525
▁sparkling	-12.5254
summer	-12.526
getting	-12.5264
▁vengeance	-12.5271
▁kiwi	-12.5273
▁minority	-12.5275
▁kilo	-12.5277
▁timmy	-12.5278
november	-12.5279
▁healing	-12.5287
▁influential	-12.5292
▁montana	-12.5294
▁riddle	-12.5297
▁nwww	-12.5297
▁breakdown	-12.5299
▁astronaut	-12.5314
▁external	-12.5314
▁pattie	-12.5319
▁kemp	-12.5323
▁graduating	-12.5335
▁kindergarten	-12.5335
▁surviving	-12.5335
▁sympathetic	-12.5335
ï	-12.5335
▁treason	-12.5335
▁preschool	-12.5337
▁veranda	-12.5338
▁parliamentary	-12.5339
▁kenny	-12.534
▁interpretation	-12.5341
stitution	-12.5343
▁ratio	-12.5354
▁balcony	-12.5356
▁matilda	-12.5356
▁thailand	-12.5356
▁draught	-12.5356
▁indication	-12.5357
▁oblast	-12.5357
▁tinky	-12.5359
▁keyboard	-12.5359
▁lease	-12.5366
ucci	-12.5372
▁ecuador	-12.5378
▁laurel	-12.5379
▁bumble	-12.5379
▁otter	-12.5379
▁eliza	-12.538
▁cruelty	-12.5384
▁avenge	-12.5399
▁obligation	-12.5399
▁nbc	-12.5399
▁sodium	-12.54
▁runaway	-12.5405
▁riley	-12.5409
▁julius	-12.5421
▁thames	-12.5421
▁baldwin	-12.5421
buck	-12.5434
▁riv	-12.5435
▁fraction	-12.5443
▁locomotive	-12.5443
▁mischievous	-12.5443
▁psychological	-12.5443
▁sensor	-12.5448
▁gertrude	-12.5464
▁volcanic	-12.5464
▁wailing	-12.5464
▁barrett	-12.5469
doctor	-12.548
▁elevation	-12.5486
▁rhoda	-12.5486
▁involving	-12.5486
▁isolated	-12.5486
▁wistful	-12.5487
▁susie	-12.549
▁perspective	-12.5508
▁wreath	-12.5508
▁competing	-12.5508
▁furnish	-12.5511
▁interruption	-12.5517
▁scamp	-12.552
œ	-12.553
▁featuring	-12.553
▁spilt	-12.5531
▁controversial	-12.5552
▁asteroid	-12.5552
▁monica	-12.5554
▁criticized	-12.5554
▁intercept	-12.5554
▁impress	-12.5554
▁shuttle	-12.5557
▁regardless	-12.5557
▁venus	-12.556
▁scribble	-12.5574
▁temporarily	-12.5574
▁subtitles	-12.5574
▁agenda	-12.5574
▁anime	-12.5575
▁georg	-12.5579
▁bonny	-12.5581
sharp	-12.5589
▁accommodation	-12.5596
▁diagram	-12.5596
▁aquatic	-12.5596
▁friedrich	-12.5596
▁caliph	-12.5596
▁elaine	-12.5598
▁barrow	-12.5603
spoken	-12.5605
activate	-12.5614
▁gypsy	-12.5618
▁immune	-12.5618
▁shoelace	-12.5618
▁clinging	-12.5618
▁1908	-12.562
▁hardware	-12.5623
election	-12.5625
object	-12.5628
▁consequently	-12.564
▁françois	-12.564
▁incredibly	-12.564
▁nitrogen	-12.564
▁retiring	-12.564
▁warsaw	-12.564
stricken	-12.564
plicate	-12.5641
▁flashlight	-12.5641
▁windmill	-12.5642
▁angelina	-12.5644
charge	-12.5645
▁coarse	-12.5662
▁clasp	-12.5666
▁fringe	-12.5669
blood	-12.5671
▁crist	-12.5681
▁deborah	-12.5684
▁whitney	-12.5685
▁shalt	-12.5691
▁scatter	-12.5694
▁superstition	-12.5706
▁uruguay	-12.5706
▁casa	-12.5707
legged	-12.5715
folk	-12.572
▁abode	-12.5729
▁corruption	-12.573
▁richmond	-12.573
▁scoring	-12.5731
latin	-12.5731
▁alida	-12.5739
left	-12.5743
▁administer	-12.5751
▁fabulous	-12.5751
▁crusade	-12.5751
▁hubert	-12.5752
▁sphere	-12.5753
▁noticing	-12.5755
▁froggie	-12.5757
▁chaos	-12.5761
worm	-12.5762
▁shack	-12.5766
▁dismal	-12.5773
▁plunder	-12.5773
▁mush	-12.5779
***	-12.5782
▁exquisite	-12.5796
▁suffolk	-12.5796
▁bankrupt	-12.5796
celeste	-12.5796
october	-12.5805
sorry	-12.5811
▁queensland	-12.5819
▁kathy	-12.5822
▁ceremonial	-12.5841
▁dialogue	-12.5841
▁westminster	-12.5841
▁alleged	-12.5841
▁bernice	-12.5842
▁petersburg	-12.5843
▁squish	-12.5844
▁tourism	-12.5846
psych	-12.5849
▁supplement	-12.5863
▁competitive	-12.5863
▁whiskey	-12.5864
▁prague	-12.5864
fellow	-12.5873
▁whiz	-12.5884
▁controversy	-12.5886
▁morocco	-12.5886
▁confusing	-12.5886
▁bliss	-12.5886
▁blazing	-12.5886
believe	-12.5896
panting	-12.5905
▁embassy	-12.5908
▁escaping	-12.5908
▁indignation	-12.5908
▁miniature	-12.5908
▁disappearance	-12.5911
▁trough	-12.5911
▁spank	-12.5931
▁cylinder	-12.5931
▁describing	-12.5931
▁kathleen	-12.5931
▁monastery	-12.5931
▁newcastle	-12.5931
▁commence	-12.5935
▁geoff	-12.5937
▁attentive	-12.5954
▁clumsy	-12.5954
▁obstacle	-12.5954
▁licence	-12.5954
▁convict	-12.5954
▁settling	-12.5955
▁wiping	-12.5959
▁1911	-12.596
▁decree	-12.5962
▁husk	-12.5963
4,000	-12.5969
▁contradict	-12.5977
▁dictator	-12.5977
▁wrapping	-12.5978
▁ivory	-12.5978
▁disturbance	-12.5979
▁mansfield	-12.5979
▁dependent	-12.598
▁skinny	-12.5983
▁staircase	-12.6
▁sussex	-12.6
▁nokia	-12.6001
▁reggie	-12.6001
▁skunk	-12.6001
▁confidential	-12.6001
▁birch	-12.6012
patsy	-12.6018
unintelligible	-12.6023
▁buenos	-12.6023
▁bungalow	-12.6023
▁manipulate	-12.6023
▁capitol	-12.6023
▁jimmieboy	-12.6023
▁sneer	-12.6024
▁travis	-12.6024
▁denise	-12.6027
aceae	-12.6027
▁pedal	-12.6029
activity	-12.6032
▁xavier	-12.6046
▁yogurt	-12.6046
▁goliath	-12.6046
▁entreat	-12.6047
▁legendary	-12.6048
▁instructor	-12.6069
▁katherine	-12.6069
▁luxembourg	-12.6069
▁charging	-12.607
▁piggie	-12.6071
▁hugging	-12.6072
▁empress	-12.6072
▁saturn	-12.6073
▁1913	-12.6074
▁significance	-12.6092
▁exertion	-12.6092
▁unkind	-12.6092
▁grandmamma	-12.6092
▁isobel	-12.6092
▁decay	-12.6093
▁tibet	-12.6093
▁abdul	-12.6095
▁pagan	-12.6097
yellow	-12.6102
▁naught	-12.6105
▁glacier	-12.6115
▁snuff	-12.6115
▁penetrate	-12.6115
▁manipur	-12.6115
▁norfolk	-12.6116
▁weasel	-12.6116
▁sideways	-12.6116
▁cardboard	-12.6118
▁edwin	-12.6129
jump	-12.6134
▁damsel	-12.6137
▁symphony	-12.6138
▁lithuania	-12.6138
▁rational	-12.6139
▁hopkins	-12.6139
▁pouch	-12.6145
▁brittany	-12.6161
▁midfielder	-12.6161
▁sullivan	-12.6161
▁aldred	-12.6161
▁tiptoe	-12.6166
suke	-12.6168
whistle	-12.6172
▁cripple	-12.6185
▁tumbling	-12.6185
▁marquis	-12.6185
▁tribal	-12.6187
▁sullen	-12.6189
▁masa	-12.6191
▁aisle	-12.6192
perfect	-12.6199
▁ceremonies	-12.6208
▁aloft	-12.6208
▁lipstick	-12.6208
▁judging	-12.6209
▁publish	-12.621
▁contestant	-12.6212
▁choking	-12.6212
safe	-12.6215
▁tripped	-12.6216
▁brent	-12.6216
▁whack	-12.6227
▁buddhist	-12.6231
▁pradesh	-12.6231
▁excess	-12.6232
english	-12.6242
▁defect	-12.6244
morning	-12.6246
▁collision	-12.6255
▁inflict	-12.6255
▁randolph	-12.6278
▁hitherto	-12.6278
▁kendall	-12.6278
▁acute	-12.628
▁testify	-12.6282
▁lobby	-12.6283
title	-12.6283
▁sorrowful	-12.6285
connect	-12.6291
▁precise	-12.6292
scale	-12.6293
▁baptist	-12.6302
▁lizzie	-12.6302
▁macaroni	-12.6302
▁shrimp	-12.6302
▁macedonia	-12.6302
▁statistical	-12.6326
▁ethiopia	-12.6326
▁negotiate	-12.6326
▁occupant	-12.6326
▁knelt	-12.6326
▁banquet	-12.6326
▁dewey	-12.6326
▁verdict	-12.6326
▁twinkling	-12.6349
▁wikipedia	-12.6349
▁auditor	-12.6349
▁wheelchair	-12.635
▁humour	-12.6354
▁buddha	-12.6356
▁chronicle	-12.6364
women	-12.6367
▁relevant	-12.6373
▁pluto	-12.6375
▁ascertain	-12.6397
▁notebook	-12.6399
ease	-12.64
written	-12.6408
▁accusation	-12.6421
▁wilhelm	-12.6421
▁evacuate	-12.6421
▁natalie	-12.6421
▁southeastern	-12.6421
▁automatically	-12.6421
▁lonesome	-12.6445
▁nevada	-12.6445
▁consort	-12.6445
▁writ	-12.6445
▁repay	-12.6446
▁vernon	-12.6447
▁compassion	-12.6447
▁imprisoned	-12.6469
▁advocate	-12.6469
▁whatsoever	-12.6469
▁settee	-12.6469
▁awaited	-12.647
▁knitting	-12.647
▁submitted	-12.6471
▁croak	-12.6476
everything	-12.648
▁ambitious	-12.6493
▁bewildered	-12.6493
▁bristol	-12.6493
▁eruption	-12.6493
▁reliable	-12.6493
▁serena	-12.6495
electric	-12.6502
minute	-12.6508
▁doctrine	-12.6517
▁quantities	-12.6517
▁occurrence	-12.6517
▁peabody	-12.6517
▁boeing	-12.6517
▁sittin	-12.6517
▁compact	-12.6519
▁obama	-12.652
▁poisonous	-12.652
▁societies	-12.6541
▁timothy	-12.6541
▁choochoo	-12.6542
▁analog	-12.6547
▁becket	-12.656
ı	-12.6565
▁phantom	-12.6565
▁remembrance	-12.6565
▁vatican	-12.6565
▁sobbed	-12.6566
▁cultivate	-12.6589
▁shanghai	-12.6589
▁naomi	-12.6589
▁mattress	-12.659
▁melanie	-12.659
▁stefan	-12.659
▁jenkins	-12.659
pitched	-12.6602
▁idiot	-12.6602
▁sebastian	-12.6614
▁bamboo	-12.6614
▁sloop	-12.6614
▁governess	-12.6614
▁bridle	-12.6615
▁seminar	-12.6617
▁transaction	-12.6638
▁garcia	-12.664
▁skipped	-12.6641
▁saudi	-12.6646
ddington	-12.6653
▁coyote	-12.6663
▁applaud	-12.6663
▁quarry	-12.6664
▁rodney	-12.6665
▁celebrity	-12.6687
▁platinum	-12.6687
▁premium	-12.6687
▁soundtrack	-12.6687
▁relating	-12.6687
▁admission	-12.6688
scoffs	-12.6706
▁assumption	-12.6712
▁exaggerate	-12.6712
▁innocence	-12.6712
▁practicing	-12.6712
▁salvation	-12.6712
▁imitation	-12.6712
cub	-12.6728
▁coordinate	-12.6736
▁enlighten	-12.6736
▁pamela	-12.6737
▁pronunciation	-12.6761
▁wolverton	-12.6761
▁illusion	-12.6761
▁pianist	-12.6761
▁razor	-12.6761
▁newcomer	-12.6786
▁compartment	-12.6811
▁irregular	-12.6811
▁observing	-12.6811
▁spectators	-12.6811
▁dixon	-12.6811
▁obscure	-12.6811
▁vacant	-12.6811
▁mould	-12.6814
▁antarctic	-12.6835
▁crucial	-12.6835
▁cairo	-12.6836
▁cartridge	-12.6836
▁tesco	-12.6837
▁accuse	-12.6839
▁neenaw	-12.686
▁enclosed	-12.686
▁stripped	-12.6862
▁blair	-12.6867
▁melancholy	-12.6885
▁radiator	-12.6885
▁duplo	-12.6885
▁dairy	-12.6885
▁stubby	-12.6887
▁doomed	-12.689
district	-12.6898
▁exploring	-12.691
▁bonnie	-12.6913
▁jeez	-12.6914
▁prescription	-12.6936
▁wheelbarrow	-12.6936
▁boulder	-12.6936
▁travers	-12.695
▁frustrated	-12.6961
▁possibilities	-12.6961
▁rectangle	-12.6961
▁uncommon	-12.6961
▁xanadu	-12.6961
▁benedict	-12.6961
▁embark	-12.6961
▁gustav	-12.6963
ì	-12.6986
▁initiate	-12.6987
ellisw	-12.7005
▁competitor	-12.7011
▁stabbed	-12.7011
▁tavern	-12.7012
▁cocktail	-12.7012
▁1905	-12.7014
drift	-12.7024
physic	-12.7029
	-12.7037
▁kashmir	-12.7037
▁prosperity	-12.7037
▁einstein	-12.7037
▁fishermen	-12.7037
▁greenbelt	-12.7037
▁sincerely	-12.7038
▁salami	-12.7038
basket	-12.7049
▁anonymous	-12.7062
▁chloride	-12.7062
▁circulation	-12.7062
▁resolute	-12.7062
▁procure	-12.7064
▁saloon	-12.7065
▁plunge	-12.7066
▁surround	-12.7077
coughing	-12.7081
▁raspberries	-12.7088
▁sunglasses	-12.7088
▁heinrich	-12.7088
▁molecular	-12.7088
▁apostle	-12.7089
▁rinse	-12.7089
▁horseshoe	-12.7089
▁clapped	-12.709
thorpe	-12.7102
ī	-12.7113
▁bundesliga	-12.7113
▁congregation	-12.7113
▁currency	-12.7113
▁paddling	-12.7113
▁belarus	-12.7113
▁overheard	-12.7113
▁scalp	-12.7115
▁spacecraft	-12.7115
clown	-12.7126
interest	-12.7126
▁blanc	-12.713
▁certified	-12.7139
▁inquiries	-12.7139
▁nominee	-12.714
▁venom	-12.714
indistinct	-12.7152
▁milkshake	-12.7158
▁mornin	-12.7161
▁legislation	-12.7165
▁fracture	-12.7165
▁responsibilitie	-12.7165
▁goofy	-12.7165
▁scorch	-12.7165
▁feud	-12.7169
{	-12.7177
▁bligh	-12.7184
▁aquarium	-12.719
▁astronomer	-12.719
▁crouched	-12.719
drawing	-12.7194
▁flaming	-12.7196
▁calvin	-12.7207
▁anthropo	-12.7215
▁supposing	-12.7216
▁reunion	-12.7216
▁kaiser	-12.7216
▁clarence	-12.722
▁investigating	-12.7242
▁provoke	-12.7242
×	-12.7268
ž	-12.7532
¡	-12.8721
¿	-12.9151
©	-12.9535
·	-12.9568
ý	-13.0037
ð	-13.0315
ș	-13.0493
ń	-13.0934
€	-13.1593
‘	-13.1772
ò	-13.1795
−	-13.1795
^	-13.2385
ś	-13.3058
	-13.3245
⁄	-13.3679
¤	-13.3779
′	-13.4135
∆	-13.4291
ř	-13.483
þ	-13.4886
∙	-13.5168
⌈	-13.5271
đ	-13.5342
û	-13.5518
£	-13.6635
ğ	-13.6648
ː	-13.6648
­	-13.6648
ˈ	-13.6715
õ	-13.6782
ě	-13.7055
ù	-13.7055
⁎	-13.7407
ē	-13.8151
ə	-13.8151
―	-13.8871
	-13.8871
ț	-13.9123
ż	-13.9647
ő	-14.02
İ	-14.0296
ę	-14.0887
¢	-14.0989
ą	-14.1196
±	-14.1515
ţ	-14.1845
ć	-14.2322
ʻ	-14.2539
ʼ	-14.3679
„	-14.3679
‡	-14.3952
η	-14.409
ṯ	-14.409
ṭ	-14.4519
ả	-14.4519
ḥ	-14.4666
ệ	-14.4815
ɪ	-14.5761
ー	-14.5761
ɛ	-14.5928
÷	-14.6097
	-14.6445
ė	-14.6445
ư	-14.6624
ź	-14.6624
®	-14.6991
>	-14.7179
ĕ	-14.7768
†	-14.8393
»	-14.8393
ʿ	-14.861
ṉ	-14.906
ṣ	-14.906
ɑ	-14.906
«	-14.906
ň	-14.953
ọ	-14.9774
¦	-15.0024
ÿ	-15.0024
ů	-15.0024
ǎ	-15.0814
	-15.0814
་	-15.1092
¬	-15.1672
ŋ	-15.1672
♫	-15.1962
॥	-15.1975
▔	-15.2287
ɔ	-15.2287
•	-15.2597
ʊ	-15.261
←	-15.261
ạ	-15.2943
	-15.3288
ʾ	-15.3645
ũ	-15.4015
ế	-15.4015
¥	-15.44
ṇ	-15.48
∇	-15.48
・	-15.48
ứ	-15.5217
♭	-15.5652
ŭ	-15.6106
ʃ	-15.6106
⟩	-15.6106
	-15.6582
ŵ	-15.6582
ộ	-15.6582
ơ	-15.7082
ố	-15.7082
‐	-15.7082
ʒ	-15.7609
ν	-15.7609
।	-15.7609
ṃ	-15.7609
ˌ	-15.8164
∞	-15.8752
ġ	-15.9377
█	-15.9377
○	-15.9377
₹	-15.9377
ŏ	-16.0044
٤	-16.0044
ề	-16.0044
ị	-16.0044
ε	-16.0044
ƒ	-16.0758
‚	-16.0758
<	-16.0758
	-16.0758
ĭ	-16.1528
١	-16.1528
ǫ	-16.1528
ʔ	-16.1528
ο	-16.1528
؟	-16.1528
∴	-16.1528
ḍ	-16.1528
ť	-16.2361
į	-16.2361
ľ	-16.2361
ǔ	-16.2361
ʌ	-16.2361
ŷ	-16.2361
ɐ	-16.327
ɣ	-16.327
↑	-16.327
ɡ	-16.327
	-16.327
	-16.327
٥	-16.427
₤	-16.427
≤	-16.427
ɾ	-16.427
ĩ	-16.5381
٢	-16.5381
٧	-16.5381
♯	-16.5381
ɫ	-16.5381
ʁ	-16.5381
٨	-16.5381
ẓ	-16.5381
ḻ	-16.6631
	-16.6631
ớ	-16.6631
☆	-16.6631
⬄	-16.6631
ď	-16.6631
ĝ	-16.6631
ļ	-16.6631
√	-16.6631
≥	-16.6631
	-16.6631
	-16.6631
	-16.6631
	-16.806
ĥ	-16.806
ǁ	-16.806
ǐ	-16.806
ɒ	-16.806
ɦ	-16.806
ʋ	-16.806
ˆ	-16.806
٦	-16.806
१	-16.806
ẻ	-16.806
ụ	-16.806
ữ	-16.806
⁂	-16.806
	-16.9726
ǒ	-16.9726
☺	-16.9726
ĉ	-16.9726
ħ	-16.9726
ű	-16.9726
ǝ	-16.9726
ủ	-16.9726
⁠	-16.9726
★	-16.9726
✡	-16.9726
ŝ	-16.9726
ɕ	-16.9726
ỹ	-16.9726
	-16.9726
	-17.1726
ʏ	-17.1726
ɯ	-17.1726
ɲ	-17.1726
ɹ	-17.1726
ḷ	-17.1726
ṓ	-17.1726
ậ	-17.1726
ắ	-17.1726
ẹ	-17.1726
∘	-17.1726
≈	-17.1726
⋅	-17.1726
٩	-17.1726
	-17.1727
ǂ	-17.4226
ḫ	-17.4226
ṅ	-17.4226
ĵ	-17.4226
ǚ	-17.4226
ɩ	-17.4226
˧	-17.4226
ව	-17.4226
ầ	-17.4226
ổ	-17.4226
ỳ	-17.4226
‖	-17.4226
※	-17.4226
₱	-17.4226
₵	-17.4226
≠	-17.4226
●	-17.4226
♥	-17.4226
、	-17.4226
ɨ	-17.4226
ẽ	-17.4226
	-17.4227
	-17.4227
ɜ	-17.756
ṛ	-17.756
‰	-17.756
∂	-17.756
ƌ	-17.756
ɘ	-17.756
ʇ	-17.756
ʕ	-17.756
ˊ	-17.756
ˋ	-17.756
״	-17.756
ấ	-17.756
ằ	-17.756
ỉ	-17.756
ử	-17.756
‬	-17.756
∈	-17.756
∗	-17.756
∝	-17.756
≡	-17.756
「	-17.756
」	-17.756
ȝ	-17.756
⌊	-18.2547
✿	-18.2547
ẏ	-18.256
ḿ	-18.256
ṙ	-18.256
✙	-18.256
❌	-18.256
〜	-18.256
ƿ	-18.256
ǣ	-18.256
ɂ	-18.256
ɳ	-18.256
ʂ	-18.256
ʈ	-18.256
ʎ	-18.256
ˇ	-18.256
а	-18.256
б	-18.256
с	-18.256
३	-18.256
४	-18.256
५	-18.256
ය	-18.256
ා	-18.256
ේ	-18.256
၁	-18.256
ṁ	-18.256
ể	-18.256
ở	-18.256
ự	-18.256
⊙	-18.256
◉	-18.256
☃	-18.256
☻	-18.256
✅	-18.256
ꜧ	-18.256
ꞯ	-18.256
ǧ	-18.256
ʹ	-18.256
ʐ	-18.256
	-18.256
	-18.256
ǩ	-19.2539
ŧ	-19.254
ǵ	-19.2541
‍	-19.2542
ـ	-19.2543
τ	-19.2544
ʘ	-19.2545
₩	-19.2546
υ	-19.2547
།	-19.2548
ј	-19.2549
ķ	-19.255
ņ	-19.2551
⟨	-19.2552
α	-19.2553
ễ	-19.2554
ờ	-19.2555
ẩ	-19.2556
‭	-19.2557
ồ	-19.2558
̶	-19.2559
ɝ	-19.2559
ˀ	-19.2559
˥	-19.2559
˩	-19.2559
ɖ	-19.256
ɸ	-19.256
β	-19.256
ḏ	-19.256
ṗ	-19.256
ģ	-19.256
ĺ	-19.256
ŕ	-19.256
ų	-19.256
ƅ	-19.256
ǃ	-19.256
ǹ	-19.256
ȁ	-19.256
ȃ	-19.256
ɗ	-19.256
ɟ	-19.256
ɥ	-19.256
ɶ	-19.256
ɷ	-19.256
ʑ	-19.256
ʙ	-19.256
ʝ	-19.256
ʟ	-19.256
ʧ	-19.256
ʽ	-19.256
˦	-19.256
̈	-19.256
к	-19.256
м	-19.256
о	-19.256
у	-19.256
ш	-19.256
я	-19.256
־	-19.256
۞	-19.256
۰	-19.256
०	-19.256
६	-19.256
७	-19.256
८	-19.256
९	-19.256
ආ	-19.256
ජ	-19.256
බ	-19.256
ු	-19.256
ෝ	-19.256
၀	-19.256
၃	-19.256
၄	-19.256
၅	-19.256
၆	-19.256
၇	-19.256
၈	-19.256
၉	-19.256
᚛	-19.256
᚜	-19.256
០	-19.256
១	-19.256
២	-19.256
៣	-19.256
៤	-19.256
៥	-19.256
៦	-19.256
៧	-19.256
៨	-19.256
៩	-19.256
ḋ	-19.256
ḗ	-19.256
ḩ	-19.256
ḵ	-19.256
ṫ	-19.256
ṳ	-19.256
ṹ	-19.256
ẵ	-19.256
ặ	-19.256
ỏ	-19.256
ỗ	-19.256
ợ	-19.256
‿	-19.256
⁣	-19.256
₣	-19.256
₿	-19.256
↊	-19.256
↋	-19.256
∉	-19.256
≒	-19.256
▼	-19.256
☉	-19.256
☐	-19.256
☚	-19.256
☣	-19.256
☭	-19.256
☯	-19.256
♄	-19.256
♑	-19.256
♒	-19.256
♠	-19.256
♡	-19.256
♮	-19.256
✚	-19.256
❤	-19.256
⬱	-19.256
ⱡ	-19.256
。	-19.256
〉	-19.256
й	-19.256
ḡ	-19.256
ḱ	-19.256
☛	-19.256
ɺ	-19.256
∼	-19.256
ɮ	-19.256
ṟ	-19.256
	-19.2561
́	-19.2561
