<unk>	0
<s>	0
</s>	0
<pad>	0
<0x00>	0
<0x01>	0
<0x02>	0
<0x03>	0
<0x04>	0
<0x05>	0
<0x06>	0
<0x07>	0
<0x08>	0
<0x09>	0
<0x0A>	0
<0x0B>	0
<0x0C>	0
<0x0D>	0
<0x0E>	0
<0x0F>	0
<0x10>	0
<0x11>	0
<0x12>	0
<0x13>	0
<0x14>	0
<0x15>	0
<0x16>	0
<0x17>	0
<0x18>	0
<0x19>	0
<0x1A>	0
<0x1B>	0
<0x1C>	0
<0x1D>	0
<0x1E>	0
<0x1F>	0
<0x20>	0
<0x21>	0
<0x22>	0
<0x23>	0
<0x24>	0
<0x25>	0
<0x26>	0
<0x27>	0
<0x28>	0
<0x29>	0
<0x2A>	0
<0x2B>	0
<0x2C>	0
<0x2D>	0
<0x2E>	0
<0x2F>	0
<0x30>	0
<0x31>	0
<0x32>	0
<0x33>	0
<0x34>	0
<0x35>	0
<0x36>	0
<0x37>	0
<0x38>	0
<0x39>	0
<0x3A>	0
<0x3B>	0
<0x3C>	0
<0x3D>	0
<0x3E>	0
<0x3F>	0
<0x40>	0
<0x41>	0
<0x42>	0
<0x43>	0
<0x44>	0
<0x45>	0
<0x46>	0
<0x47>	0
<0x48>	0
<0x49>	0
<0x4A>	0
<0x4B>	0
<0x4C>	0
<0x4D>	0
<0x4E>	0
<0x4F>	0
<0x50>	0
<0x51>	0
<0x52>	0
<0x53>	0
<0x54>	0
<0x55>	0
<0x56>	0
<0x57>	0
<0x58>	0
<0x59>	0
<0x5A>	0
<0x5B>	0
<0x5C>	0
<0x5D>	0
<0x5E>	0
<0x5F>	0
<0x60>	0
<0x61>	0
<0x62>	0
<0x63>	0
<0x64>	0
<0x65>	0
<0x66>	0
<0x67>	0
<0x68>	0
<0x69>	0
<0x6A>	0
<0x6B>	0
<0x6C>	0
<0x6D>	0
<0x6E>	0
<0x6F>	0
<0x70>	0
<0x71>	0
<0x72>	0
<0x73>	0
<0x74>	0
<0x75>	0
<0x76>	0
<0x77>	0
<0x78>	0
<0x79>	0
<0x7A>	0
<0x7B>	0
<0x7C>	0
<0x7D>	0
<0x7E>	0
<0x7F>	0
<0x80>	0
<0x81>	0
<0x82>	0
<0x83>	0
<0x84>	0
<0x85>	0
<0x86>	0
<0x87>	0
<0x88>	0
<0x89>	0
<0x8A>	0
<0x8B>	0
<0x8C>	0
<0x8D>	0
<0x8E>	0
<0x8F>	0
<0x90>	0
<0x91>	0
<0x92>	0
<0x93>	0
<0x94>	0
<0x95>	0
<0x96>	0
<0x97>	0
<0x98>	0
<0x99>	0
<0x9A>	0
<0x9B>	0
<0x9C>	0
<0x9D>	0
<0x9E>	0
<0x9F>	0
<0xA0>	0
<0xA1>	0
<0xA2>	0
<0xA3>	0
<0xA4>	0
<0xA5>	0
<0xA6>	0
<0xA7>	0
<0xA8>	0
<0xA9>	0
<0xAA>	0
<0xAB>	0
<0xAC>	0
<0xAD>	0
<0xAE>	0
<0xAF>	0
<0xB0>	0
<0xB1>	0
<0xB2>	0
<0xB3>	0
<0xB4>	0
<0xB5>	0
<0xB6>	0
<0xB7>	0
<0xB8>	0
<0xB9>	0
<0xBA>	0
<0xBB>	0
<0xBC>	0
<0xBD>	0
<0xBE>	0
<0xBF>	0
<0xC0>	0
<0xC1>	0
<0xC2>	0
<0xC3>	0
<0xC4>	0
<0xC5>	0
<0xC6>	0
<0xC7>	0
<0xC8>	0
<0xC9>	0
<0xCA>	0
<0xCB>	0
<0xCC>	0
<0xCD>	0
<0xCE>	0
<0xCF>	0
<0xD0>	0
<0xD1>	0
<0xD2>	0
<0xD3>	0
<0xD4>	0
<0xD5>	0
<0xD6>	0
<0xD7>	0
<0xD8>	0
<0xD9>	0
<0xDA>	0
<0xDB>	0
<0xDC>	0
<0xDD>	0
<0xDE>	0
<0xDF>	0
<0xE0>	0
<0xE1>	0
<0xE2>	0
<0xE3>	0
<0xE4>	0
<0xE5>	0
<0xE6>	0
<0xE7>	0
<0xE8>	0
<0xE9>	0
<0xEA>	0
<0xEB>	0
<0xEC>	0
<0xED>	0
<0xEE>	0
<0xEF>	0
<0xF0>	0
<0xF1>	0
<0xF2>	0
<0xF3>	0
<0xF4>	0
<0xF5>	0
<0xF6>	0
<0xF7>	0
<0xF8>	0
<0xF9>	0
<0xFA>	0
<0xFB>	0
<0xFC>	0
<0xFD>	0
<0xFE>	0
<0xFF>	0
▁t	-0
he	-1
▁a	-2
▁i	-3
▁w	-4
▁the	-5
▁s	-6
▁*	-7
ou	-8
re	-9
in	-10
▁o	-11
ha	-12
▁b	-13
hi	-14
▁m	-15
ot	-16
▁c	-17
er	-18
nd	-19
▁y	-20
▁d	-21
▁f	-22
on	-23
ing	-24
▁you	-25
▁p	-26
ll	-27
▁g	-28
▁to	-29
▁l	-30
mot	-31
an	-32
▁n	-33
es	-34
ed	-35
or	-36
▁and	-37
en	-38
hat	-39
chi	-40
▁he	-41
ar	-42
at	-43
▁of	-44
▁in	-45
it	-46
as	-47
▁it	-48
om	-49
ow	-50
▁ha	-51
▁that	-52
st	-53
et	-54
▁on	-55
ve	-56
le	-57
ay	-58
▁we	-59
▁be	-60
▁e	-61
▁u	-62
ri	-63
gh	-64
▁is	-65
se	-66
his	-67
id	-68
ld	-69
al	-70
oo	-71
ut	-72
ic	-73
▁h	-74
▁was	-75
▁k	-76
▁do	-77
▁re	-78
ad	-79
ac	-80
▁=	-81
ver	-82
▁th	-83
▁st	-84
▁for	-85
ght	-86
..	-87
ke	-88
▁[	-89
▁what	-90
ro	-91
ly	-92
▁j	-93
am	-94
is	-95
ir	-96
ent	-97
out	-98
ch	-99
▁an	-100
▁me	-101
ion	-102
▁"	-103
▁se	-104
▁go	-105
▁li	-106
ith	-107
ea	-108
▁no	-109
▁this	-110
her	-111
▁with	-112
▁as	-113
ome	-114
▁not	-115
all	-116
▁at	-117
ur	-118
▁there	-119
▁they	-120
▁have	-121
▁she	-122
▁so	-123
ter	-124
ill	-125
ra	-126
▁are	-127
▁whe	-128
▁can	-129
ce	-130
▁-	-131
ould	-132
▁but	-133
▁hi	-134
ust	-135
▁kn	-136
▁one	-137
ook	-138
im	-139
▁his	-140
▁don	-141
▁ne	-142
ct	-143
un	-144
ho	-145
ant	-146
▁all	-147
▁fr	-148
▁know	-149
au	-150
▁my	-151
...	-152
▁up	-153
▁r	-154
▁oh	-155
eah	-156
▁your	-157
▁yeah	-158
il	-159
▁her	-160
▁mo	-161
▁sa	-162
pp	-163
▁de	-164
▁ri	-165
ge	-166
um	-167
▁al	-168
▁had	-169
▁like	-170
ie	-171
us	-172
ack	-173
▁out	-174
ain	-175
▁ab	-176
xx	-177
▁pl	-178
and	-179
our	-180
ck	-181
op	-182
▁get	-183
▁did	-184
art	-185
inv	-186
▁look	-187
▁1	-188
▁see	-189
ink	-190
▁him	-191
▁from	-192
▁or	-193
▁su	-194
red	-195
ake	-196
ood	-197
ab	-198
ry	-199
ers	-200
▁v	-201
th	-202
▁here	-203
▁by	-204
qu	-205
▁just	-206
very	-207
ol	-208
▁sp	-209
han	-210
ul	-211
ight	-212
ame	-213
▁if	-214
ound	-215
ell	-216
ess	-217
▁sh	-218
est	-219
▁right	-220
▁who	-221
▁com	-222
ation	-223
ig	-224
ind	-225
▁bo	-226
▁were	-227
▁whi	-228
▁now	-229
▁some	-230
▁then	-231
▁got	-232
▁wor	-233
▁well	-234
▁them	-235
▁about	-236
▁when	-237
own	-238
one	-239
ard	-240
ak	-241
nt	-242
ong	-243
itt	-244
el	-245
▁think	-246
▁want	-247
▁said	-248
▁2	-249
na	-250
ast	-251
▁ex	-252
▁man	-253
▁would	-254
os	-255
▁ro	-256
res	-257
fe	-258
ally	-259
ive	-260
▁where	-261
fat	-262
▁con	-263
▁will	-264
▁(	-265
▁any	-266
▁tw	-267
ate	-268
▁di	-269
▁yes	-270
].	-271
▁ar	-272
ap	-273
ep	-274
▁how	-275
ber	-276
▁say	-277
▁come	-278
em	-279
▁cl	-280
▁good	-281
▁tim	-282
▁us	-283
ven	-284
hing	-285
▁ok	-286
ine	-287
ough	-288
ort	-289
▁“	-290
▁le	-291
▁put	-292
▁lo	-293
▁pro	-294
▁back	-295
▁co	-296
▁ag	-297
▁down	-298
ice	-299
▁pe	-300
▁am	-301
▁let	-302
."	-303
▁af	-304
ther	-305
▁okay	-306
other	-307
▁int	-308
ittle	-309
ag	-310
ous	-311
▁br	-312
hy	-313
▁little	-314
▁has	-315
ore	-316
▁chi	-317
ause	-318
▁been	-319
▁over	-320
▁xx	-321
way	-322
▁than	-323
ft	-324
▁more	-325
ist	-326
▁very	-327
▁going	-328
▁fe	-329
ide	-330
▁xxx	-331
▁qu	-332
▁tr	-333
▁time	-334
▁could	-335
▁too	-336
▁which	-337
▁er	-338
▁'	-339
▁two	-340
▁bl	-341
ies	-342
▁un	-343
▁20	-344
▁bec	-345
ick	-346
dy	-347
▁other	-348
ace	-349
▁off	-350
▁en	-351
▁play	-352
end	-353
▁their	-354
▁cha	-355
lf	-356
are	-357
▁19	-358
ree	-359
ity	-360
▁thing	-361
,"	-362
ose	-363
▁fl	-364
▁does	-365
▁car	-366
ure	-367
--	-368
orn	-369
▁gre	-370
omet	-371
ish	-372
my	-373
▁why	-374
nder	-375
▁po	-376
alk	-377
▁sc	-378
▁after	-379
▁uh	-380
▁somet	-381
▁gr	-382
age	-383
ought	-384
pl	-385
hed	-386
urn	-387
▁again	-388
▁mar	-389
▁make	-390
ear	-391
ud	-392
▁take	-393
▁sha	-394
pe	-395
▁into	-396
ople	-397
▁tell	-398
ps	-399
ment	-400
▁fir	-401
▁bet	-402
▁people	-403
ount	-404
▁way	-405
▁may	-406
▁jo	-407
▁because	-408
▁wat	-409
ian	-410
int	-411
ass	-412
ving	-413
iss	-414
ite	-415
ia	-416
▁call	-417
ue	-418
▁day	-419
ff	-420
▁part	-421
▁work	-422
▁mr	-423
▁every	-424
ade	-425
▁gon	-426
▁first	-427
▁these	-428
ble	-429
▁ad	-430
▁gonna	-431
▁our	-432
▁only	-433
ase	-434
▁mean	-435
ved	-436
we	-437
ves	-438
▁te	-439
▁mu	-440
so	-441
ty	-442
▁need	-443
▁gu	-444
co	-445
mp	-446
▁hand	-447
▁thr	-448
▁sm	-449
▁ho	-450
▁should	-451
▁bu	-452
uh	-453
the	-454
cl	-455
▁fo	-456
▁big	-457
▁mom	-458
▁pre	-459
▁something	-460
ouse	-461
ren	-462
day	-463
be	-464
▁new	-465
ach	-466
ool	-467
per	-468
▁ac	-469
fore	-470
self	-471
▁really	-472
▁didn	-473
ys	-474
▁happ	-475
ful	-476
iz	-477
bo	-478
augh	-479
pt	-480
man	-481
ary	-482
ci	-483
ather	-484
les	-485
wn	-486
▁ch	-487
ated	-488
▁hel	-489
thing	-490
▁much	-491
ord	-492
▁dis	-493
act	-494
▁rem	-495
ang	-496
▁pr	-497
ance	-498
ress	-499
able	-500
▁ra	-501
▁made	-502
ting	-503
te	-504
ady	-505
ub	-506
▁gir	-507
▁per	-508
▁under	-509
▁before	-510
▁year	-511
▁wa	-512
par	-513
▁long	-514
ull	-515
▁fi	-516
▁wr	-517
▁thank	-518
▁give	-519
uck	-520
▁three	-521
▁bab	-522
▁talk	-523
ory	-524
▁ke	-525
ex	-526
▁great	-527
▁fri	-528
▁ple	-529
hes	-530
▁came	-531
▁app	-532
▁old	-533
▁child	-534
00	-535
▁girl	-536
ne	-537
▁away	-538
▁home	-539
▁never	-540
▁ask	-541
ions	-542
▁went	-543
▁another	-544
▁wan	-545
▁doing	-546
▁act	-547
▁even	-548
▁um	-549
▁lea	-550
▁house	-551
▁turn	-552
▁count	-553
▁those	-554
pen	-555
▁thought	-556
▁head	-557
▁also	-558
▁wanna	-559
de	-560
▁eat	-561
?"	-562
▁mum	-563
▁won	-564
ma	-565
▁dr	-566
gg	-567
ise	-568
▁har	-569
▁cr	-570
akes	-571
ward	-572
▁min	-573
▁still	-574
▁through	-575
▁must	-576
▁things	-577
ffe	-578
▁el	-579
ried	-580
▁dad	-581
av	-582
▁many	-583
▁gra	-584
▁comp	-585
▁che	-586
exp	-587
yes	-588
▁find	-589
get	-590
ence	-591
▁gl	-592
▁book	-593
▁tra	-594
▁mm	-595
tain	-596
▁last	-597
▁bel	-598
▁sl	-599
▁help	-600
no	-601
▁lot	-602
▁found	-603
▁comm	-604
▁start	-605
▁ind	-606
▁sch	-607
▁love	-608
ark	-609
▁mat	-610
ors	-611
▁night	-612
▁happen	-613
hm	-614
▁ser	-615
▁name	-616
ict	-617
laugh	-618
▁open	-619
ds	-620
ans	-621
▁done	-622
ings	-623
▁baby	-624
▁isn	-625
▁bre	-626
▁miss	-627
ath	-628
ect	-629
side	-630
ily	-631
▁its	-632
▁show	-633
▁boy	-634
▁chan	-635
▁sure	-636
als	-637
land	-638
▁bit	-639
▁sho	-640
ng	-641
▁sw	-642
▁mon	-643
▁end	-644
▁called	-645
.”	-646
xt	-647
▁res	-648
▁friend	-649
▁201	-650
▁wait	-651
▁try	-652
unn	-653
▁better	-654
▁%	-655
▁might	-656
air	-657
▁bot	-658
aking	-659
ss	-660
ons	-661
▁nice	-662
▁mother	-663
med	-664
▁care	-665
add	-666
▁most	-667
up	-668
▁cont	-669
▁col	-670
ms	-671
▁str	-672
▁ma	-673
▁around	-674
▁school	-675
li	-676
anc	-677
ock	-678
▁keep	-679
ank	-680
▁hey	-681
▁please	-682
body	-683
▁ah	-684
▁erm	-685
▁water	-686
ember	-687
ious	-688
ling	-689
▁kind	-690
if	-691
▁cour	-692
▁anything	-693
ars	-694
,”	-695
ix	-696
mo	-697
▁la	-698
▁des	-699
ways	-700
▁doesn	-701
ek	-702
right	-703
▁four	-704
▁life	-705
▁gi	-706
oney	-707
ates	-708
ip	-709
ign	-710
▁cat	-711
▁nor	-712
.]	-713
▁char	-714
▁while	-715
led	-716
▁place	-717
▁mhm	-718
▁war	-719
▁sit	-720
ually	-721
laughs	-722
▁next	-723
▁room	-724
▁being	-725
▁pri	-726
▁such	-727
▁pres	-728
▁world	-729
▁beg	-730
▁fin	-731
ince	-732
▁eng	-733
▁nothing	-734
▁same	-735
ens	-736
▁father	-737
mer	-738
▁.	-739
▁own	-740
▁sec	-741
ited	-742
rent	-743
▁ele	-744
▁supp	-745
vers	-746
▁att	-747
▁looks	-748
▁shall	-749
ied	-750
▁told	-751
▁always	-752
▁far	-753
▁men	-754
▁years	-755
▁mummy	-756
▁hold	-757
inn	-758
ins	-759
▁imp	-760
!"	-761
▁3	-762
▁feel	-763
▁left	-764
ah	-765
▁z	-766
▁door	-767
▁cle	-768
▁used	-769
me	-770
amp	-771
ton	-772
ute	-773
ta	-774
▁ever	-775
▁cap	-776
ug	-777
▁pret	-778
▁bir	-779
▁maybe	-780
der	-781
▁pol	-782
▁saw	-783
▁tri	-784
▁sor	-785
bb	-786
▁once	-787
row	-788
▁cre	-789
▁else	-790
ult	-791
▁set	-792
▁read	-793
▁watch	-794
eric	-795
▁point	-796
ww	-797
arly	-798
outh	-799
▁tom	-800
▁ball	-801
ever	-802
▁bus	-803
▁spe	-804
▁unt	-805
aught	-806
▁mot	-807
cc	-808
ave	-809
rest	-810
▁red	-811
og	-812
ye	-813
▁wi	-814
▁acc	-815
ail	-816
▁lat	-817
▁young	-818
ump	-819
pped	-820
rect	-821
ung	-822
▁dist	-823
▁fam	-824
▁rep	-825
▁gone	-826
▁remember	-827
oh	-828
▁sur	-829
vel	-830
▁side	-831
▁stand	-832
si	-833
▁ob	-834
▁vo	-835
▁stop	-836
iv	-837
▁says	-838
▁enough	-839
for	-840
▁bed	-841
▁goes	-842
ew	-843
cond	-844
▁huh	-845
ition	-846
▁took	-847
▁diffe	-848
▁sorry	-849
▁list	-850
raw	-851
▁hm	-852
gr	-853
▁five	-854
▁coming	-855
▁ret	-856
▁course	-857
oun	-858
▁reg	-859
▁americ	-860
▁grand	-861
▁until	-862
▁use	-863
▁morn	-864
pect	-865
▁200	-866
▁air	-867
mber	-868
▁rec	-869
▁wo	-870
ical	-871
▁sir	-872
▁pers	-873
▁inter	-874
ents	-875
▁box	-876
▁sing	-877
ness	-878
▁best	-879
▁sound	-880
▁wom	-881
▁eyes	-882
▁seen	-883
▁pos	-884
▁sle	-885
gether	-886
▁light	-887
hir	-888
▁morning	-889
▁second	-890
ger	-891
ont	-892
ane	-893
ows	-894
▁small	-895
ru	-896
▁ed	-897
▁god	-898
▁wind	-899
▁belie	-900
▁money	-901
cha	-902
ished	-903
▁bar	-904
▁ste	-905
▁high	-906
▁walk	-907
▁hear	-908
▁real	-909
sis	-910
▁bri	-911
▁fall	-912
mb	-913
eak	-914
▁inv	-915
▁pat	-916
▁foot	-917
▁pick	-918
▁sk	-919
▁dri	-920
▁yet	-921
ations	-922
▁quite	-923
▁ter	-924
ces	-925
oup	-926
son	-927
▁daddy	-928
".	-929
but	-930
▁six	-931
▁though	-932
▁_	-933
▁sy	-934
▁hur	-935
▁num	-936
ef	-937
ret	-938
▁mrs	-939
▁asked	-940
▁haven	-941
▁mommy	-942
▁mus	-943
▁hard	-944
▁lar	-945
lo	-946
huh	-947
▁sn	-948
▁202	-949
▁today	-950
tea	-951
cle	-952
here	-953
▁bad	-954
▁bro	-955
▁hop	-956
▁dear	-957
▁fell	-958
▁together	-959
hip	-960
▁mil	-961
aster	-962
▁city	-963
▁week	-964
cal	-965
ross	-966
you	-967
▁gen	-968
▁tre	-969
ire	-970
ower	-971
hn	-972
▁run	-973
ister	-974
▁leave	-975
pri	-976
▁soon	-977
▁each	-978
▁pass	-979
▁heard	-980
▁id	-981
▁pap	-982
vie	-983
▁dec	-984
▁cent	-985
▁getting	-986
tle	-987
▁blue	-988
▁mind	-989
ets	-990
ational	-991
▁dog	-992
▁without	-993
ared	-994
rist	-995
▁pict	-996
▁known	-997
▁different	-998
▁im	-999
▁both	-1000
▁half	-1001
▁looked	-1002
mch	-1003
▁fire	-1004
▁since	-1005
▁dep	-1006
▁ent	-1007
▁face	-1008
ts	-1009
ction	-1010
▁rest	-1011
▁looking	-1012
ason	-1013
uring	-1014
▁stay	-1015
eter	-1016
ween	-1017
bab	-1018
ced	-1019
ream	-1020
▁pie	-1021
ial	-1022
une	-1023
ject	-1024
▁few	-1025
▁between	-1026
▁hu	-1027
ased	-1028
llow	-1029
lic	-1030
▁move	-1031
▁par	-1032
ph	-1033
ile	-1034
▁inst	-1035
),	-1036
▁ev	-1037
ident	-1038
▁black	-1039
▁chair	-1040
▁hands	-1041
▁direct	-1042
uff	-1043
▁john	-1044
▁children	-1045
to	-1046
ange	-1047
▁king	-1048
▁alright	-1049
fta	-1050
ries	-1051
ures	-1052
▁everything	-1053
less	-1054
▁hat	-1055
▁jack	-1056
▁land	-1057
▁green	-1058
▁round	-1059
che	-1060
ating	-1061
▁boys	-1062
▁heart	-1063
▁person	-1064
▁himself	-1065
vis	-1066
▁hafta	-1067
▁sleep	-1068
▁squ	-1069
▁wanted	-1070
llo	-1071
ten	-1072
cause	-1073
▁pretty	-1074
aw	-1075
▁ph	-1076
▁flo	-1077
▁train	-1078
▁having	-1079
▁♪	-1080
enty	-1081
▁spo	-1082
▁happened	-1083
po	-1084
io	-1085
ired	-1086
iet	-1087
ild	-1088
ric	-1089
▁met	-1090
▁cons	-1091
▁later	-1092
▁party	-1093
ash	-1094
▁18	-1095
ames	-1096
▁top	-1097
▁ready	-1098
▁story	-1099
ale	-1100
▁cho	-1101
▁knew	-1102
ines	-1103
?”	-1104
vo	-1105
▁mag	-1106
▁coll	-1107
▁days	-1108
).	-1109
▁kid	-1110
gma	-1111
cial	-1112
dd	-1113
▁sat	-1114
▁drink	-1115
ann	-1116
arn	-1117
unny	-1118
▁wonder	-1119
▁talking	-1120
▁doll	-1121
aut	-1122
bro	-1123
ush	-1124
uss	-1125
▁pop	-1126
stand	-1127
ster	-1128
▁bring	-1129
ball	-1130
▁exc	-1131
▁making	-1132
▁matter	-1133
▁sort	-1134
▁4	-1135
ched	-1136
ctor	-1137
▁anim	-1138
▁gave	-1139
az	-1140
▁ans	-1141
▁follow	-1142
▁listen	-1143
▁close	-1144
▁whole	-1145
▁meet	-1146
▁table	-1147
▁moment	-1148
▁believe	-1149
ged	-1150
unt	-1151
▁ger	-1152
▁born	-1153
▁hour	-1154
▁wasn	-1155
▁north	-1156
▁white	-1157
▁american	-1158
osed	-1159
▁rel	-1160
▁family	-1161
▁5	-1162
ics	-1163
ina	-1164
▁ge	-1165
imes	-1166
▁pen	-1167
▁feet	-1168
▁mark	-1169
its	-1170
▁kill	-1171
▁upon	-1172
▁along	-1173
▁against	-1174
ork	-1175
▁brother	-1176
not	-1177
aken	-1178
cept	-1179
most	-1180
sing	-1181
▁hor	-1182
▁live	-1183
▁christ	-1184
du	-1185
clud	-1186
▁break	-1187
▁laugh	-1188
▁return	-1189
sh	-1190
mar	-1191
where	-1192
▁bill	-1193
▁during	-1194
▁actually	-1195
cy	-1196
▁ju	-1197
ined	-1198
▁add	-1199
▁dro	-1200
▁game	-1201
▁state	-1202
uth	-1203
▁inte	-1204
▁wrong	-1205
▁number	-1206
▁hot	-1207
▁rock	-1208
▁team	-1209
▁cal	-1210
▁food	-1211
▁lead	-1212
▁quest	-1213
sel	-1214
▁pur	-1215
▁thir	-1216
ters	-1217
what	-1218
▁pay	-1219
▁compan	-1220
▁wouldn	-1221
ual	-1222
1:	-1223
▁nat	-1224
▁swe	-1225
▁vis	-1226
▁town	-1227
▁short	-1228
▁bat	-1229
▁pull	-1230
▁eight	-1231
▁friends	-1232
▁cook	-1233
▁sent	-1234
▁hello	-1235
▁outside	-1236
▁sometimes	-1237
▁fine	-1238
▁floor	-1239
▁county	-1240
▁interest	-1241
▁aw	-1242
▁inc	-1243
▁died	-1244
▁guess	-1245
▁movie	-1246
▁south	-1247
▁speak	-1248
▁country	-1249
",	-1250
▁ton	-1251
▁united	-1252
ier	-1253
▁med	-1254
ertain	-1255
vern	-1256
▁ben	-1257
▁sim	-1258
▁ten	-1259
wards	-1260
key	-1261
ully	-1262
▁199	-1263
▁beaut	-1264
ield	-1265
▁cur	-1266
child	-1267
▁song	-1268
ered	-1269
▁times	-1270
ize	-1271
ouch	-1272
▁cup	-1273
▁leg	-1274
▁gener	-1275
▁gotta	-1276
▁states	-1277
read	-1278
▁near	-1279
▁word	-1280
▁noise	-1281
▁quick	-1282
▁wh	-1283
ustr	-1284
▁sign	-1285
▁mic	-1286
iness	-1287
▁able	-1288
▁front	-1289
ues	-1290
▁bra	-1291
ither	-1292
▁hair	-1293
▁saying	-1294
▁trying	-1295
airs	-1296
▁job	-1297
▁win	-1298
ready	-1299
▁makes	-1300
▁understand	-1301
br	-1302
kes	-1303
omas	-1304
▁poor	-1305
▁contin	-1306
▁brought	-1307
zz	-1308
▁idea	-1309
▁comes	-1310
▁includ	-1311
hind	-1312
ises	-1313
▁cor	-1314
▁cut	-1315
▁son	-1316
bably	-1317
orrow	-1318
▁expl	-1319
▁pain	-1320
▁almost	-1321
▁6	-1322
▁happy	-1323
▁music	-1324
▁behind	-1325
ama	-1326
oud	-1327
wer	-1328
room	-1329
▁eas	-1330
▁build	-1331
ants	-1332
▁color	-1333
▁already	-1334
▁picture	-1335
ring	-1336
▁adv	-1337
▁hum	-1338
▁conf	-1339
▁seemed	-1340
ee	-1341
ert	-1342
ple	-1343
▁pu	-1344
aces	-1345
▁lady	-1346
▁probably	-1347
aul	-1348
ming	-1349
ular	-1350
▁mid	-1351
▁mine	-1352
▁began	-1353
▁woman	-1354
▁–	-1355
▁stre	-1356
▁govern	-1357
▁minute	-1358
▁sil	-1359
▁bear	-1360
▁draw	-1361
▁thomas	-1362
een	-1363
ages	-1364
well	-1365
▁art	-1366
▁paper	-1367
▁playing	-1368
▁fun	-1369
▁sub	-1370
▁national	-1371
▁sum	-1372
▁lost	-1373
▁till	-1374
▁present	-1375
▁sun	-1376
ots	-1377
ches	-1378
haps	-1379
ided	-1380
▁ext	-1381
▁hon	-1382
▁ones	-1383
▁es	-1384
unch	-1385
▁compl	-1386
▁fight	-1387
▁couldn	-1388
▁ann	-1389
▁fact	-1390
▁voice	-1391
ii	-1392
ding	-1393
▁bas	-1394
pping	-1395
▁boat	-1396
▁stick	-1397
▁record	-1398
▁someone	-1399
▁late	-1400
▁reac	-1401
▁means	-1402
use	-1403
▁sto	-1404
▁uni	-1405
ndred	-1406
▁hope	-1407
▁taken	-1408
▁hundred	-1409
iful	-1410
ital	-1411
ying	-1412
▁stuff	-1413
▁played	-1414
utes	-1415
▁star	-1416
▁however	-1417
▁started	-1418
gan	-1419
men	-1420
nan	-1421
sed	-1422
▁aren	-1423
▁cold	-1424
▁yell	-1425
ention	-1426
▁offic	-1427
▁thanks	-1428
▁twenty	-1429
ik	-1430
▁guy	-1431
▁pub	-1432
ouble	-1433
▁forg	-1434
itting	-1435
▁wants	-1436
rat	-1437
▁german	-1438
ape	-1439
▁mer	-1440
▁became	-1441
▁certain	-1442
▁7	-1443
▁8	-1444
ken	-1445
ner	-1446
that	-1447
▁ass	-1448
▁cir	-1449
▁del	-1450
▁full	-1451
▁girls	-1452
▁piece	-1453
▁doctor	-1454
▁myself	-1455
ib	-1456
ks	-1457
arent	-1458
rench	-1459
▁true	-1460
▁brown	-1461
▁inside	-1462
▁beautiful	-1463
▁ap	-1464
▁fel	-1465
vision	-1466
▁month	-1467
▁uhhuh	-1468
▁,	-1469
ury	-1470
www	-1471
▁dead	-1472
▁hist	-1473
▁death	-1474
jo	-1475
sc	-1476
||	-1477
pat	-1478
ured	-1479
▁tele	-1480
▁wood	-1481
▁possi	-1482
▁others	-1483
▁turned	-1484
!”	-1485
ese	-1486
▁dar	-1487
▁page	-1488
▁early	-1489
cess	-1490
cted	-1491
ense	-1492
lish	-1493
▁dark	-1494
▁mill	-1495
▁sever	-1496
▁taking	-1497
by	-1498
let	-1499
▁glad	-1500
▁road	-1501
▁seven	-1502
▁captain	-1503
rew	-1504
▁[1	-1505
amed	-1506
▁corn	-1507
▁gent	-1508
▁mount	-1509
ana	-1510
▁da	-1511
ized	-1512
▁198	-1513
▁ref	-1514
▁sand	-1515
▁french	-1516
▁several	-1517
dad	-1518
▁bye	-1519
▁mad	-1520
▁occ	-1521
▁const	-1522
▁order	-1523
▁minutes	-1524
lly	-1525
net	-1526
ron	-1527
▁ice	-1528
▁less	-1529
▁wife	-1530
▁perhaps	-1531
▁!	-1532
ted	-1533
▁ty	-1534
▁cry	-1535
▁fore	-1536
▁group	-1537
▁across	-1538
▁proble	-1539
ey	-1540
dge	-1541
urs	-1542
born	-1543
▁prof	-1544
▁funny	-1545
▁words	-1546
▁yourself	-1547
0,	-1548
▁law	-1549
▁mess	-1550
▁produ	-1551
artment	-1552
▁distri	-1553
ham	-1554
ffic	-1555
▁age	-1556
▁cos	-1557
inner	-1558
▁camp	-1559
▁form	-1560
▁birth	-1561
▁large	-1562
▁either	-1563
▁import	-1564
0.	-1565
gra	-1566
igh	-1567
min	-1568
head	-1569
▁emp	-1570
▁sea	-1571
ities	-1572
▁deal	-1573
▁question	-1574
go	-1575
▁fast	-1576
▁stra	-1577
▁rather	-1578
do	-1579
adu	-1580
ern	-1581
ote	-1582
unk	-1583
▁197	-1584
▁lad	-1585
▁stud	-1586
▁given	-1587
gin	-1588
olog	-1589
▁fro	-1590
▁ill	-1591
▁gold	-1592
▁main	-1593
▁vill	-1594
aughter	-1595
▁ground	-1596
▁reason	-1597
aim	-1598
▁lu	-1599
▁wear	-1600
▁class	-1601
▁sweet	-1602
▁change	-1603
ls	-1604
ney	-1605
ider	-1606
ient	-1607
▁fly	-1608
▁pot	-1609
anger	-1610
▁yellow	-1611
▁working	-1612
2:	-1613
ze	-1614
▁#	-1615
app	-1616
oub	-1617
ards	-1618
▁bur	-1619
▁dra	-1620
▁exp	-1621
▁throw	-1622
ley	-1623
▁em	-1624
▁je	-1625
▁ta	-1626
▁fig	-1627
▁shi	-1628
fully	-1629
▁fish	-1630
▁hung	-1631
▁line	-1632
▁news	-1633
▁past	-1634
▁roll	-1635
▁toys	-1636
▁horse	-1637
▁living	-1638
ept	-1639
fri	-1640
▁ya	-1641
dden	-1642
▁bow	-1643
▁cri	-1644
▁lay	-1645
unning	-1646
▁dress	-1647
▁animals	-1648
tern	-1649
▁repl	-1650
▁special	-1651
ened	-1652
king	-1653
▁hit	-1654
▁club	-1655
▁learn	-1656
▁quiet	-1657
▁football	-1658
bs	-1659
col	-1660
els	-1661
▁bag	-1662
▁plan	-1663
▁wish	-1664
▁alone	-1665
▁among	-1666
▁river	-1667
▁expect	-1668
▁sister	-1669
▁business	-1670
eth	-1671
▁arm	-1672
▁mur	-1673
iting	-1674
▁body	-1675
▁post	-1676
▁company	-1677
▁phi	-1678
▁tree	-1679
▁trans	-1680
▁important	-1681
oof	-1682
▁ago	-1683
▁jan	-1684
▁jap	-1685
▁sam	-1686
▁milk	-1687
▁clean	-1688
▁partic	-1689
2.	-1690
▁guys	-1691
▁jump	-1692
▁west	-1693
19	-1694
ald	-1695
ible	-1696
raid	-1697
▁sal	-1698
ments	-1699
▁felt	-1700
▁serv	-1701
▁power	-1702
▁somebody	-1703
mon	-1704
----	-1705
bert	-1706
▁bob	-1707
▁eye	-1708
▁fre	-1709
▁lie	-1710
▁tem	-1711
▁wee	-1712
▁cond	-1713
▁free	-1714
▁send	-1715
▁wall	-1716
▁uncle	-1717
▁women	-1718
▁france	-1719
▁english	-1720
▁ear	-1721
▁cool	-1722
▁rece	-1723
▁rele	-1724
▁york	-1725
▁often	-1726
gn	-1727
ove	-1728
val	-1729
▁cra	-1730
eared	-1731
▁case	-1732
selves	-1733
▁touch	-1734
▁secret	-1735
▁nin	-1736
▁bird	-1737
▁step	-1738
▁surpri	-1739
▁univers	-1740
▁x	-1741
how	-1742
oth	-1743
▁ve	-1744
▁cast	-1745
▁chap	-1746
▁oper	-1747
▁phone	-1748
▁write	-1749
▁window	-1750
▁everybody	-1751
]?	-1752
▁9	-1753
ised	-1754
iter	-1755
▁ins	-1756
▁opp	-1757
▁fair	-1758
▁gard	-1759
inning	-1760
▁allow	-1761
▁peter	-1762
▁indian	-1763
▁series	-1764
▁street	-1765
▁thinking	-1766
ery	-1767
ime	-1768
arth	-1769
come	-1770
▁fing	-1771
▁japan	-1772
▁press	-1773
▁afraid	-1774
▁trouble	-1775
uts	-1776
▁buy	-1777
▁egg	-1778
▁tea	-1779
▁wow	-1780
vered	-1781
▁grow	-1782
▁kept	-1783
▁prom	-1784
▁carry	-1785
▁island	-1786
▁strong	-1787
▁?	-1788
▁ow	-1789
fect	-1790
form	-1791
ists	-1792
▁fav	-1793
▁bath	-1794
▁brit	-1795
▁coun	-1796
▁fort	-1797
▁seat	-1798
▁catch	-1799
▁forgot	-1800
▁sitting	-1801
▁usually	-1802
▁tomorrow	-1803
▁ce	-1804
orts	-1805
▁196	-1806
▁ori	-1807
▁toy	-1808
▁held	-1809
▁park	-1810
▁prov	-1811
▁ring	-1812
▁noises	-1813
▁points	-1814
la	-1815
sy	-1816
cket	-1817
▁sus	-1818
ances	-1819
ering	-1820
▁whis	-1821
▁answer	-1822
▁dinner	-1823
▁birthday	-1824
▁president	-1825
eng	-1826
▁gun	-1827
▁aunt	-1828
▁kiss	-1829
▁lots	-1830
▁chick	-1831
▁frank	-1832
▁least	-1833
▁running	-1834
▁finished	-1835
▁mountain	-1836
gy	-1837
rap	-1838
▁15	-1839
ides	-1840
look	-1841
▁def	-1842
itten	-1843
▁geor	-1844
▁sold	-1845
▁teac	-1846
▁mouth	-1847
▁whatever	-1848
ny	-1849
ges	-1850
band	-1851
nday	-1852
ately	-1853
ining	-1854
▁takes	-1855
▁darling	-1856
bed	-1857
dle	-1858
mas	-1859
osp	-1860
▁ran	-1861
owers	-1862
▁area	-1863
▁bell	-1864
▁hill	-1865
▁check	-1866
▁field	-1867
▁knows	-1868
childes	-1869
▁commun	-1870
▁gentle	-1871
▁childes	-1872
▁history	-1873
20	-1874
fl	-1875
cil	-1876
tom	-1877
aced	-1878
▁195	-1879
▁fur	-1880
▁hus	-1881
ience	-1882
rence	-1883
▁duck	-1884
▁lang	-1885
stairs	-1886
vember	-1887
▁appro	-1888
▁march	-1889
▁named	-1890
▁seems	-1891
▁thous	-1892
4.	-1893
hen	-1894
ator	-1895
ices	-1896
more	-1897
▁lou	-1898
▁ooh	-1899
ained	-1900
ative	-1901
▁chur	-1902
▁excl	-1903
▁cried	-1904
▁cross	-1905
▁pleas	-1906
▁herself	-1907
ete	-1908
fort	-1909
▁cam	-1910
▁det	-1911
▁clim	-1912
▁east	-1913
▁block	-1914
▁dream	-1915
▁super	-1916
▁tried	-1917
▁visit	-1918
▁killed	-1919
▁letter	-1920
▁married	-1921
▁waiting	-1922
▁thousand	-1923
vi	-1924
com	-1925
uro	-1926
▁gar	-1927
▁hang	-1928
▁career	-1929
cher	-1930
stem	-1931
uary	-1932
▁fix	-1933
phone	-1934
▁army	-1935
▁choo	-1936
▁soft	-1937
▁tonight	-1938
cds	-1939
cri	-1940
ony	-1941
▁tur	-1942
iling	-1943
▁hall	-1944
▁hurt	-1945
▁port	-1946
▁prot	-1947
▁books	-1948
▁eating	-1949
▁sudden	-1950
▁general	-1951
▁suppose	-1952
ones	-1953
▁exact	-1954
▁region	-1955
1.	-1956
cks	-1957
ler	-1958
que	-1959
▁oct	-1960
▁gets	-1961
▁earth	-1962
▁lived	-1963
▁truck	-1964
▁attack	-1965
▁chance	-1966
▁lovely	-1967
▁sounds	-1968
▁summer	-1969
▁whether	-1970
▁daughter	-1971
▁november	-1972
▁possible	-1973
▁department	-1974
1,	-1975
2,	-1976
now	-1977
▁...	-1978
▁maj	-1979
▁polit	-1980
▁forget	-1981
▁system	-1982
ai	-1983
000	-1984
ene	-1985
▁cu	-1986
▁bes	-1987
▁est	-1988
▁fift	-1989
▁luck	-1990
mother	-1991
▁board	-1992
▁master	-1993
▁object	-1994
▁district	-1995
don	-1996
ead	-1997
ike	-1998
ilt	-1999
ked	-2000
pes	-2001
ses	-2002
ural	-2003
makes	-2004
▁champ	-2005
ara	-2006
ety	-2007
▁ut	-2008
ford	-2009
ints	-2010
▁cow	-2011
▁fil	-2012
▁arri	-2013
▁disc	-2014
▁heav	-2015
▁shar	-2016
▁vict	-2017
▁exper	-2018
▁tired	-2019
▁decided	-2020
▁government	-2021
3.	-2022
ti	-2023
loi	-2024
cent	-2025
▁ain	-2026
▁joe	-2027
mbers	-2028
ution	-2029
▁deep	-2030
▁safe	-2031
▁wild	-2032
ession	-2033
▁yours	-2034
▁husband	-2035
▁christmas	-2036
ams	-2037
eed	-2038
ond	-2039
aimed	-2040
velop	-2041
▁clot	-2042
iously	-2043
▁origin	-2044
▁command	-2045
3:	-2046
ka	-2047
▁pa	-2048
▁ru	-2049
▁aug	-2050
▁lau	-2051
▁sad	-2052
▁apri	-2053
▁coup	-2054
▁easy	-2055
▁kids	-2056
▁cover	-2057
▁pound	-2058
▁track	-2059
▁careful	-2060
▁evening	-2061
▁straight	-2062
orm	-2063
▁10	-2064
ility	-2065
▁cost	-2066
▁dece	-2067
▁doub	-2068
▁hors	-2069
▁russ	-2070
ically	-2071
though	-2072
▁april	-2073
▁lives	-2074
▁worry	-2075
▁university	-2076
ya	-2077
▁17	-2078
▁bud	-2079
ature	-2080
▁mist	-2081
▁nose	-2082
▁disco	-2083
▁recei	-2084
▁trust	-2085
▁garden	-2086
▁nearly	-2087
▁public	-2088
▁january	-2089
▁station	-2090
ued	-2091
uel	-2092
umb	-2093
vent	-2094
▁gas	-2095
▁decl	-2096
▁frog	-2097
▁succ	-2098
terday	-2099
▁juice	-2100
▁august	-2101
▁become	-2102
▁members	-2103
▁replied	-2104
▁yesterday	-2105
bru	-2106
gar	-2107
ino	-2108
▁eh	-2109
ific	-2110
pper	-2111
▁band	-2112
▁euro	-2113
▁nine	-2114
▁cause	-2115
▁chief	-2116
▁clear	-2117
▁organ	-2118
▁shout	-2119
▁couple	-2120
▁engine	-2121
▁village	-2122
▁returned	-2123
att	-2124
car	-2125
erv	-2126
ris	-2127
▁ba	-2128
▁abs	-2129
▁pet	-2130
▁bang	-2131
▁honey	-2132
▁human	-2133
▁langu	-2134
▁cannot	-2135
▁charac	-2136
▁church	-2137
▁danger	-2138
▁excuse	-2139
▁former	-2140
▁parent	-2141
▁police	-2142
▁england	-2143
gu	-2144
ats	-2145
yed	-2146
ober	-2147
▁194	-2148
▁fit	-2149
▁mis	-2150
▁smo	-2151
▁shop	-2152
▁above	-2153
▁drive	-2154
▁needs	-2155
▁anyway	-2156
▁contro	-2157
▁british	-2158
▁happens	-2159
▁putting	-2160
▁reached	-2161
mit	-2162
▁du	-2163
alth	-2164
like	-2165
▁ham	-2166
▁hol	-2167
▁rom	-2168
▁arms	-2169
▁ship	-2170
▁tape	-2171
▁bright	-2172
▁office	-2173
▁chapter	-2174
▁pretend	-2175
▁quickly	-2176
bye	-2177
arch	-2178
hern	-2179
▁var	-2180
ality	-2181
wered	-2182
▁reco	-2183
▁stri	-2184
bruary	-2185
▁broken	-2186
▁nobody	-2187
▁proper	-2188
▁exactly	-2189
▁instead	-2190
lt	-2191
amb	-2192
con	-2193
oop	-2194
ray	-2195
▁low	-2196
ardon	-2197
vocal	-2198
▁2020	-2199
▁lord	-2200
▁slow	-2201
▁blood	-2202
▁third	-2203
▁longer	-2204
▁problem	-2205
▁although	-2206
▁television	-2207
8.	-2208
▁]	-2209
ato	-2210
gen	-2211
▁van	-2212
there	-2213
▁hosp	-2214
▁june	-2215
▁phil	-2216
▁pupp	-2217
▁sugg	-2218
▁billy	-2219
▁bread	-2220
▁lunch	-2221
▁terri	-2222
▁appear	-2223
▁butter	-2224
▁indeed	-2225
▁months	-2226
▁answered	-2227
▁everyone	-2228
▁february	-2229
rd	-2230
bur	-2231
ude	-2232
ager	-2233
port	-2234
▁den	-2235
▁pit	-2236
▁tig	-2237
▁cake	-2238
▁mama	-2239
▁mary	-2240
▁push	-2241
▁warm	-2242
▁hours	-2243
singing	-2244
▁caught	-2245
▁member	-2246
▁suggest	-2247
ustration	-2248
6,	-2249
ky	-2250
fer	-2251
▁et	-2252
ians	-2253
phan	-2254
▁jim	-2255
ently	-2256
▁snow	-2257
ground	-2258
▁report	-2259
▁single	-2260
▁anymore	-2261
▁million	-2262
▁teacher	-2263
▁standing	-2264
gue	-2265
ives	-2266
ract	-2267
▁ang	-2268
▁dav	-2269
▁equ	-2270
tered	-2271
▁clos	-2272
▁shot	-2273
friend	-2274
▁court	-2275
▁elect	-2276
▁shoes	-2277
▁space	-2278
▁diffic	-2279
11	-2280
uk	-2281
fch	-2282
ich	-2283
iny	-2284
rop	-2285
she	-2286
chen	-2287
hold	-2288
▁cop	-2289
▁dut	-2290
▁hen	-2291
▁pal	-2292
▁rad	-2293
▁val	-2294
▁wel	-2295
▁beat	-2296
▁test	-2297
▁favor	-2298
▁reach	-2299
▁truth	-2300
▁belong	-2301
▁hungry	-2302
▁pardon	-2303
▁passed	-2304
▁worked	-2305
▁clothes	-2306
▁develop	-2307
▁october	-2308
▁strange	-2309
▁december	-2310
▁following	-2311
od	-2312
uc	-2313
zy	-2314
ism	-2315
lie	-2316
iled	-2317
oops	-2318
ston	-2319
▁193	-2320
▁cau	-2321
▁spl	-2322
▁circ	-2323
▁enjo	-2324
▁mart	-2325
▁ride	-2326
▁tast	-2327
▁bottom	-2328
▁fellow	-2329
▁middle	-2330
▁places	-2331
▁within	-2332
▁changed	-2333
▁flowers	-2334
▁stopped	-2335
▁pictures	-2336
9.	-2337
cer	-2338
gas	-2339
▁13	-2340
noon	-2341
▁ber	-2342
▁kit	-2343
▁imag	-2344
▁moon	-2345
▁ahead	-2346
▁neigh	-2347
▁sense	-2348
▁stood	-2349
▁common	-2350
▁prison	-2351
▁success	-2352
▁supposed	-2353
▁exclaimed	-2354
▁‘	-2355
gie	-2356
iff	-2357
ura	-2358
aged	-2359
they	-2360
▁dat	-2361
▁tor	-2362
▁auth	-2363
▁dest	-2364
▁farm	-2365
▁rose	-2366
▁seem	-2367
▁glass	-2368
▁whose	-2369
ulation	-2370
▁anyone	-2371
▁player	-2372
▁feeling	-2373
▁holding	-2374
▁leaving	-2375
illustration	-2376
5.	-2377
7,	-2378
7.	-2379
bby	-2380
lex	-2381
▁cas	-2382
▁dam	-2383
▁esc	-2384
▁mor	-2385
▁fear	-2386
▁lift	-2387
▁paul	-2388
▁resp	-2389
▁sick	-2390
▁whom	-2391
▁colle	-2392
▁turns	-2393
▁figure	-2394
▁finish	-2395
▁giving	-2396
▁forward	-2397
4,	-2398
5,	-2399
oul	-2400
uct	-2401
▁vi	-2402
hael	-2403
▁amy	-2404
▁dan	-2405
▁sau	-2406
▁ver	-2407
▁effe	-2408
▁rain	-2409
▁swim	-2410
▁sight	-2411
▁disapp	-2412
▁perfect	-2413
▁written	-2414
▁hospital	-2415
▁afternoon	-2416
emy	-2417
sha	-2418
▁12	-2419
ndon	-2420
▁jud	-2421
▁rul	-2422
▁sky	-2423
night	-2424
ograp	-2425
▁prin	-2426
▁puts	-2427
▁race	-2428
▁heavy	-2429
▁using	-2430
▁opened	-2431
▁chicken	-2432
▁telling	-2433
▁appeared	-2434
▁building	-2435
sa	-2436
▁⌈	-2437
bor	-2438
fast	-2439
▁bom	-2440
▁spir	-2441
▁tail	-2442
▁accept	-2443
▁effect	-2444
▁europe	-2445
▁except	-2446
▁george	-2447
▁intern	-2448
▁support	-2449
▁released	-2450
▁certainly	-2451
'.	-2452
.'	-2453
sp	-2454
ils	-2455
aser	-2456
chan	-2457
▁los	-2458
▁stu	-2459
▁yep	-2460
▁cray	-2461
▁fail	-2462
▁hasn	-2463
▁pack	-2464
▁prop	-2465
▁spot	-2466
▁miles	-2467
▁works	-2468
▁author	-2469
▁beginning	-2470
▁somewhere	-2471
hel	-2472
iew	-2473
ott	-2474
iers	-2475
▁gri	-2476
ample	-2477
house	-2478
▁bank	-2479
▁kitt	-2480
▁mass	-2481
▁pink	-2482
▁afric	-2483
▁progr	-2484
ptember	-2485
▁spring	-2486
▁century	-2487
▁grandma	-2488
▁consider	-2489
nes	-2490
▁ur	-2491
▁cab	-2492
▁vol	-2493
▁burn	-2494
▁cand	-2495
▁fred	-2496
▁rabb	-2497
▁save	-2498
▁wide	-2499
▁hurry	-2500
▁knock	-2501
▁ought	-2502
▁london	-2503
▁remain	-2504
▁season	-2505
▁account	-2506
▁college	-2507
▁towards	-2508
▁washing	-2509
ium	-2510
used	-2511
▁dry	-2512
▁lab	-2513
▁moo	-2514
▁rob	-2515
ories	-2516
▁force	-2517
▁games	-2518
▁plate	-2519
▁plays	-2520
▁trees	-2521
▁inform	-2522
▁winter	-2523
▁council	-2524
▁parents	-2525
▁watching	-2526
▁breakfast	-2527
por	-2528
ral	-2529
▁jul	-2530
▁led	-2531
▁sol	-2532
▁ital	-2533
▁vide	-2534
▁view	-2535
▁added	-2536
▁stone	-2537
▁toward	-2538
▁	-2539
e	-2540
t	-2541
o	-2542
a	-2543
i	-2544
n	-2545
h	-2546
s	-2547
r	-2548
l	-2549
d	-2550
m	-2551
u	-2552
c	-2553
.	-2554
y	-2555
w	-2556
g	-2557
f	-2558
p	-2559
b	-2560
:	-2561
*	-2562
,	-2563
k	-2564
v	-2565
'	-2566
?	-2567
"	-2568
-	-2569
x	-2570
j	-2571
=	-2572
[	-2573
]	-2574
!	-2575
1	-2576
0	-2577
2	-2578
z	-2579
q	-2580
9	-2581
)	-2582
(	-2583
;	-2584
“	-2585
”	-2586
’	-2587
3	-2588
8	-2589
5	-2590
4	-2591
7	-2592
6	-2593
_	-2594
/	-2595
%	-2596
|	-2597
–	-2598
♪	-2599
—	-2600
é	-2601
+	-2602
#	-2603
á	-2604
$	-2605
‘	-2606
í	-2607
⌈	-2608
⌉	-2609
&	-2610
→	-2611
ö	-2612
⌋	-2613
⌊	-2614
`	-2615
ü	-2616
ó	-2617
~	-2618
ä	-2619
¶	-2620
ā	-2621
è	-2622
ú	-2623
ć	-2624
}	-2625
ù	-2626
š	-2627
ç	-2628
ñ	-2629
{	-2630
à	-2631
ô	-2632
―	-2633
â	-2634
ø	-2635
å	-2636
°	-2637
æ	-2638
ō	-2639
\	-2640
─	-2641
£	-2642
ì	-2643
↗	-2644
ł	-2645
↫	-2646
ã	-2647
č	-2648
ū	-2649
@	-2650
¿	-2651
ß	-2652
ò	-2653
ē	-2654
ś	-2655
ž	-2656
ș	-2657
́	-2658
′	-2659
♫	-2660
×	-2661
î	-2662
ï	-2663
ı	-2664
ş	-2665
་	-2666
⁄	-2667
ê	-2668
ë	-2669
œ	-2670
ř	-2671
•	-2672
⁎	-2673
§	-2674
ð	-2675
đ	-2676
ī	-2677
∙	-2678
∞	-2679
✿	-2680
^	-2681
	-2682
	-2683
	-2684
¡	-2685
ă	-2686
ą	-2687
ě	-2688
ń	-2689
ņ	-2690
ố	-2691
ồ	-2692
‐	-2693
▔	-2694
<	-2695
>	-2696
	-2697
©	-2698
·	-2699
ý	-2700
þ	-2701
ĕ	-2702
ġ	-2703
ĭ	-2704
İ	-2705
ő	-2706
ũ	-2707
ź	-2708
ż	-2709
ư	-2710
ǎ	-2711
ǫ	-2712
ɑ	-2713
ɪ	-2714
ʃ	-2715
ʊ	-2716
ʾ	-2717
ː	-2718
̶	-2719
η	-2720
ν	-2721
й	-2722
ј	-2723
॥	-2724
ṉ	-2725
ṛ	-2726
ṣ	-2727
ṭ	-2728
ṯ	-2729
ả	-2730
ắ	-2731
ề	-2732
ệ	-2733
ọ	-2734
ớ	-2735
ờ	-2736
‡	-2737
‰	-2738
€	-2739
