<unk>	0
<s>	0
</s>	0
<pad>	0
<0x00>	0
<0x01>	0
<0x02>	0
<0x03>	0
<0x04>	0
<0x05>	0
<0x06>	0
<0x07>	0
<0x08>	0
<0x09>	0
<0x0A>	0
<0x0B>	0
<0x0C>	0
<0x0D>	0
<0x0E>	0
<0x0F>	0
<0x10>	0
<0x11>	0
<0x12>	0
<0x13>	0
<0x14>	0
<0x15>	0
<0x16>	0
<0x17>	0
<0x18>	0
<0x19>	0
<0x1A>	0
<0x1B>	0
<0x1C>	0
<0x1D>	0
<0x1E>	0
<0x1F>	0
<0x20>	0
<0x21>	0
<0x22>	0
<0x23>	0
<0x24>	0
<0x25>	0
<0x26>	0
<0x27>	0
<0x28>	0
<0x29>	0
<0x2A>	0
<0x2B>	0
<0x2C>	0
<0x2D>	0
<0x2E>	0
<0x2F>	0
<0x30>	0
<0x31>	0
<0x32>	0
<0x33>	0
<0x34>	0
<0x35>	0
<0x36>	0
<0x37>	0
<0x38>	0
<0x39>	0
<0x3A>	0
<0x3B>	0
<0x3C>	0
<0x3D>	0
<0x3E>	0
<0x3F>	0
<0x40>	0
<0x41>	0
<0x42>	0
<0x43>	0
<0x44>	0
<0x45>	0
<0x46>	0
<0x47>	0
<0x48>	0
<0x49>	0
<0x4A>	0
<0x4B>	0
<0x4C>	0
<0x4D>	0
<0x4E>	0
<0x4F>	0
<0x50>	0
<0x51>	0
<0x52>	0
<0x53>	0
<0x54>	0
<0x55>	0
<0x56>	0
<0x57>	0
<0x58>	0
<0x59>	0
<0x5A>	0
<0x5B>	0
<0x5C>	0
<0x5D>	0
<0x5E>	0
<0x5F>	0
<0x60>	0
<0x61>	0
<0x62>	0
<0x63>	0
<0x64>	0
<0x65>	0
<0x66>	0
<0x67>	0
<0x68>	0
<0x69>	0
<0x6A>	0
<0x6B>	0
<0x6C>	0
<0x6D>	0
<0x6E>	0
<0x6F>	0
<0x70>	0
<0x71>	0
<0x72>	0
<0x73>	0
<0x74>	0
<0x75>	0
<0x76>	0
<0x77>	0
<0x78>	0
<0x79>	0
<0x7A>	0
<0x7B>	0
<0x7C>	0
<0x7D>	0
<0x7E>	0
<0x7F>	0
<0x80>	0
<0x81>	0
<0x82>	0
<0x83>	0
<0x84>	0
<0x85>	0
<0x86>	0
<0x87>	0
<0x88>	0
<0x89>	0
<0x8A>	0
<0x8B>	0
<0x8C>	0
<0x8D>	0
<0x8E>	0
<0x8F>	0
<0x90>	0
<0x91>	0
<0x92>	0
<0x93>	0
<0x94>	0
<0x95>	0
<0x96>	0
<0x97>	0
<0x98>	0
<0x99>	0
<0x9A>	0
<0x9B>	0
<0x9C>	0
<0x9D>	0
<0x9E>	0
<0x9F>	0
<0xA0>	0
<0xA1>	0
<0xA2>	0
<0xA3>	0
<0xA4>	0
<0xA5>	0
<0xA6>	0
<0xA7>	0
<0xA8>	0
<0xA9>	0
<0xAA>	0
<0xAB>	0
<0xAC>	0
<0xAD>	0
<0xAE>	0
<0xAF>	0
<0xB0>	0
<0xB1>	0
<0xB2>	0
<0xB3>	0
<0xB4>	0
<0xB5>	0
<0xB6>	0
<0xB7>	0
<0xB8>	0
<0xB9>	0
<0xBA>	0
<0xBB>	0
<0xBC>	0
<0xBD>	0
<0xBE>	0
<0xBF>	0
<0xC0>	0
<0xC1>	0
<0xC2>	0
<0xC3>	0
<0xC4>	0
<0xC5>	0
<0xC6>	0
<0xC7>	0
<0xC8>	0
<0xC9>	0
<0xCA>	0
<0xCB>	0
<0xCC>	0
<0xCD>	0
<0xCE>	0
<0xCF>	0
<0xD0>	0
<0xD1>	0
<0xD2>	0
<0xD3>	0
<0xD4>	0
<0xD5>	0
<0xD6>	0
<0xD7>	0
<0xD8>	0
<0xD9>	0
<0xDA>	0
<0xDB>	0
<0xDC>	0
<0xDD>	0
<0xDE>	0
<0xDF>	0
<0xE0>	0
<0xE1>	0
<0xE2>	0
<0xE3>	0
<0xE4>	0
<0xE5>	0
<0xE6>	0
<0xE7>	0
<0xE8>	0
<0xE9>	0
<0xEA>	0
<0xEB>	0
<0xEC>	0
<0xED>	0
<0xEE>	0
<0xEF>	0
<0xF0>	0
<0xF1>	0
<0xF2>	0
<0xF3>	0
<0xF4>	0
<0xF5>	0
<0xF6>	0
<0xF7>	0
<0xF8>	0
<0xF9>	0
<0xFA>	0
<0xFB>	0
<0xFC>	0
<0xFD>	0
<0xFE>	0
<0xFF>	0
he	-0
▁t	-1
▁a	-2
▁s	-3
▁the	-4
in	-5
ed	-6
▁w	-7
▁f	-8
re	-9
nd	-10
▁b	-11
▁he	-12
ou	-13
▁l	-14
▁c	-15
it	-16
er	-17
▁o	-18
ing	-19
▁h	-20
ar	-21
▁to	-22
▁m	-23
▁and	-24
at	-25
▁d	-26
is	-27
an	-28
▁p	-29
ll	-30
en	-31
as	-32
or	-33
es	-34
▁g	-35
▁she	-36
▁in	-37
▁th	-38
el	-39
gh	-40
▁they	-41
ow	-42
▁st	-43
▁n	-44
on	-45
▁of	-46
▁e	-47
▁"	-48
ld	-49
ad	-50
▁her	-51
ir	-52
ght	-53
id	-54
et	-55
▁it	-56
om	-57
ac	-58
▁was	-59
ut	-60
ri	-61
▁wit	-62
im	-63
▁with	-64
st	-65
ay	-66
le	-67
▁sh	-68
am	-69
▁be	-70
▁re	-71
▁r	-72
ot	-73
▁as	-74
▁on	-75
▁but	-76
▁j	-77
▁li	-78
al	-79
ly	-80
ic	-81
oo	-82
▁k	-83
ver	-84
her	-85
▁that	-86
ked	-87
ve	-88
▁sa	-89
elt	-90
▁his	-91
▁felt	-92
ound	-93
ill	-94
▁u	-95
▁le	-96
ould	-97
ke	-98
all	-99
you	-100
ent	-101
!"	-102
out	-103
▁had	-104
▁for	-105
art	-106
hed	-107
ind	-108
ag	-109
ure	-110
▁sp	-111
ur	-112
▁wh	-113
pp	-114
▁sm	-115
oy	-116
▁their	-117
▁se	-118
▁we	-119
▁i	-120
▁you	-121
▁fe	-122
▁lo	-123
ant	-124
▁la	-125
il	-126
end	-127
un	-128
os	-129
▁pl	-130
▁not	-131
ust	-132
▁al	-133
▁said	-134
▁tre	-135
▁ne	-136
▁wor	-137
▁ha	-138
▁fri	-139
▁friend	-140
▁him	-141
ore	-142
▁an	-143
▁heart	-144
ain	-145
ered	-146
ide	-147
▁cl	-148
ard	-149
one	-150
ec	-151
▁one	-152
ight	-153
em	-154
▁day	-155
ned	-156
▁ch	-157
▁fl	-158
ft	-159
op	-160
?"	-161
▁so	-162
▁tr	-163
▁at	-164
ark	-165
▁lau	-166
▁could	-167
▁v	-168
ep	-169
▁br	-170
ach	-171
ch	-172
ce	-173
▁gr	-174
▁found	-175
get	-176
▁ab	-177
ought	-178
▁kn	-179
ers	-180
very	-181
reat	-182
ared	-183
ong	-184
▁fr	-185
▁stor	-186
▁whe	-187
▁like	-188
irl	-189
▁ex	-190
ia	-191
,"	-192
ig	-193
gether	-194
▁loo	-195
▁them	-196
▁together	-197
th	-198
▁is	-199
ream	-200
ome	-201
ies	-202
ang	-203
ood	-204
right	-205
▁every	-206
▁friends	-207
▁co	-208
ved	-209
▁feel	-210
us	-211
to	-212
▁dream	-213
▁ar	-214
▁girl	-215
ess	-216
▁ro	-217
ace	-218
▁each	-219
ack	-220
est	-221
king	-222
▁thought	-223
▁bright	-224
den	-225
▁fill	-226
▁were	-227
lp	-228
."	-229
▁can	-230
▁joy	-231
fu	-232
▁about	-233
▁want	-234
▁star	-235
▁up	-236
▁do	-237
rou	-238
▁would	-239
▁from	-240
▁str	-241
▁just	-242
ast	-243
▁into	-244
▁boy	-245
ave	-246
▁ma	-247
ame	-248
▁mia	-249
▁help	-250
nder	-251
av	-252
▁smil	-253
▁wat	-254
▁this	-255
▁light	-256
uel	-257
yes	-258
▁filled	-259
▁back	-260
way	-261
▁leo	-262
ice	-263
▁su	-264
▁find	-265
our	-266
▁out	-267
ful	-268
▁real	-269
ck	-270
and	-271
led	-272
▁looked	-273
▁too	-274
ion	-275
side	-276
ade	-277
▁when	-278
asure	-279
wh	-280
eep	-281
ist	-282
▁treasure	-283
▁sk	-284
▁old	-285
▁feeling	-286
iz	-287
▁wis	-288
▁small	-289
pl	-290
▁eyes	-291
▁ag	-292
▁dan	-293
ther	-294
▁all	-295
▁smiled	-296
▁tim	-297
▁flow	-298
qu	-299
▁saw	-300
▁other	-301
▁happ	-302
amed	-303
agic	-304
▁beg	-305
▁asked	-306
rough	-307
▁through	-308
▁magic	-309
are	-310
▁rem	-311
▁sun	-312
lex	-313
▁tur	-314
▁made	-315
▁alex	-316
▁me	-317
▁ad	-318
hing	-319
▁lear	-320
owing	-321
pped	-322
ous	-323
▁around	-324
own	-325
fe	-326
▁no	-327
▁world	-328
▁creat	-329
▁lost	-330
▁named	-331
ose	-332
▁man	-333
▁play	-334
▁wanted	-335
▁gl	-336
omet	-337
▁exc	-338
▁under	-339
▁cr	-340
▁time	-341
▁pe	-342
ange	-343
▁go	-344
wn	-345
▁night	-346
ip	-347
▁began	-348
▁stars	-349
▁sky	-350
▁pr	-351
ter	-352
▁by	-353
ened	-354
▁hop	-355
▁stories	-356
▁big	-357
▁realiz	-358
we	-359
ull	-360
▁kim	-361
▁dec	-362
▁somet	-363
▁dark	-364
ched	-365
▁if	-366
▁inside	-367
▁sam	-368
ted	-369
▁samuel	-370
▁te	-371
ds	-372
▁dreams	-373
ile	-374
▁ta	-375
vent	-376
▁its	-377
age	-378
▁war	-379
ew	-380
▁what	-381
ven	-382
ghter	-383
dden	-384
▁sudden	-385
▁learned	-386
lor	-387
what	-388
▁color	-389
ity	-390
▁who	-391
um	-392
ook	-393
▁suddenly	-394
▁see	-395
▁danc	-396
▁advent	-397
▁deep	-398
▁qu	-399
▁love	-400
▁laughter	-401
▁adventure	-402
ond	-403
▁my	-404
tle	-405
▁new	-406
▁shared	-407
▁will	-408
ather	-409
▁air	-410
▁che	-411
ided	-412
▁excit	-413
ild	-414
▁mom	-415
▁realized	-416
▁again	-417
▁gi	-418
▁am	-419
▁wal	-420
▁fo	-421
▁more	-422
▁whis	-423
ghed	-424
▁laughed	-425
▁whisp	-426
ren	-427
emb	-428
sed	-429
▁un	-430
▁mo	-431
ness	-432
▁spark	-433
▁moment	-434
▁decided	-435
▁con	-436
▁warm	-437
ick	-438
ap	-439
owed	-440
▁bl	-441
elf	-442
▁something	-443
se	-444
ey	-445
▁soft	-446
▁em	-447
▁then	-448
ings	-449
▁sc	-450
adow	-451
▁hid	-452
▁even	-453
▁op	-454
ret	-455
▁are	-456
ue	-457
aut	-458
▁how	-459
▁took	-460
▁shin	-461
▁rememb	-462
▁knew	-463
▁fun	-464
▁dr	-465
▁y	-466
ople	-467
▁fore	-468
▁shadow	-469
▁danced	-470
▁tree	-471
▁there	-472
▁down	-473
▁home	-474
▁clos	-475
▁hope	-476
▁beaut	-477
rew	-478
▁people	-479
▁flowers	-480
▁lit	-481
▁away	-482
▁over	-483
▁expl	-484
▁let	-485
arden	-486
▁walked	-487
▁garden	-488
ached	-489
oke	-490
▁did	-491
▁read	-492
▁bu	-493
▁where	-494
▁sad	-495
▁everyone	-496
▁bel	-497
▁sw	-498
▁wind	-499
self	-500
▁than	-501
▁hand	-502
▁sur	-503
ge	-504
other	-505
▁turned	-506
ried	-507
▁wr	-508
aced	-509
▁strange	-510
oin	-511
ning	-512
▁now	-513
▁way	-514
ting	-515
▁tw	-516
ath	-517
▁vill	-518
ita	-519
ink	-520
▁fin	-521
▁rita	-522
▁sat	-523
▁hidden	-524
▁vo	-525
▁sn	-526
▁sec	-527
▁stood	-528
aring	-529
▁app	-530
▁shout	-531
▁fear	-532
ie	-533
tur	-534
▁bo	-535
▁plan	-536
▁have	-537
fter	-538
▁cu	-539
ally	-540
▁lily	-541
▁secret	-542
▁after	-543
▁map	-544
▁bec	-545
▁pain	-546
▁water	-547
▁ali	-548
▁tal	-549
▁full	-550
▁place	-551
▁wa	-552
▁retur	-553
▁happy	-554
▁shouted	-555
▁en	-556
▁strong	-557
▁loved	-558
hip	-559
▁brave	-560
▁little	-561
▁came	-562
bb	-563
▁knowing	-564
▁land	-565
▁colors	-566
▁story	-567
ways	-568
▁fi	-569
ate	-570
▁told	-571
▁curi	-572
▁ste	-573
▁trees	-574
▁need	-575
ect	-576
▁others	-577
▁voice	-578
▁forest	-579
▁always	-580
▁set	-581
▁im	-582
▁make	-583
▁mar	-584
▁life	-585
ish	-586
▁kind	-587
br	-588
▁gather	-589
▁clou	-590
▁long	-591
co	-592
if	-593
▁door	-594
▁whispered	-595
▁share	-596
▁ri	-597
▁own	-598
▁city	-599
dd	-600
▁creature	-601
▁ho	-602
▁shadows	-603
▁sl	-604
ise	-605
▁alone	-606
▁reached	-607
▁hard	-608
▁bir	-609
▁watched	-610
ree	-611
ak	-612
ised	-613
ped	-614
ely	-615
aves	-616
▁dis	-617
▁beauti	-618
▁your	-619
eter	-620
▁opened	-621
ble	-622
▁child	-623
▁held	-624
▁beautiful	-625
▁list	-626
▁ac	-627
▁bot	-628
man	-629
ling	-630
▁soon	-631
▁underst	-632
ass	-633
ite	-634
▁laugh	-635
▁alice	-636
lew	-637
▁some	-638
▁cave	-639
▁rock	-640
ily	-641
▁while	-642
▁stone	-643
ied	-644
▁tall	-645
ence	-646
ated	-647
emor	-648
▁je	-649
hes	-650
▁memor	-651
▁breat	-652
▁remembered	-653
▁must	-654
▁call	-655
▁friendship	-656
ching	-657
▁village	-658
▁jose	-659
▁pic	-660
▁com	-661
ower	-662
▁heard	-663
vered	-664
▁excited	-665
▁bet	-666
▁ran	-667
▁maria	-668
▁true	-669
▁prom	-670
▁or	-671
iet	-672
▁any	-673
iced	-674
ement	-675
▁great	-676
▁fa	-677
ry	-678
▁snow	-679
▁sharing	-680
▁ready	-681
▁many	-682
▁repl	-683
▁sear	-684
▁gold	-685
▁lead	-686
▁smile	-687
pr	-688
▁giant	-689
▁part	-690
ove	-691
▁path	-692
▁room	-693
▁foll	-694
▁grew	-695
▁finally	-696
ation	-697
▁book	-698
▁power	-699
▁breath	-700
▁off	-701
▁join	-702
▁jean	-703
▁curious	-704
▁come	-705
let	-706
ward	-707
▁gu	-708
▁storm	-709
▁nodd	-710
▁len	-711
les	-712
▁fly	-713
▁both	-714
▁fam	-715
ial	-716
▁lena	-717
res	-718
▁played	-719
▁stepped	-720
▁nodded	-721
▁surpr	-722
roud	-723
▁only	-724
▁never	-725
▁became	-726
▁cheered	-727
this	-728
▁once	-729
▁spoke	-730
▁end	-731
▁excitement	-732
gg	-733
▁proud	-734
▁rain	-735
ng	-736
igh	-737
oun	-738
▁seem	-739
ear	-740
▁start	-741
▁spec	-742
▁young	-743
▁town	-744
ving	-745
▁special	-746
▁wo	-747
▁wond	-748
ten	-749
▁gathered	-750
▁best	-751
▁pull	-752
▁replied	-753
▁quiet	-754
imb	-755
manuel	-756
▁noticed	-757
oman	-758
▁emmanuel	-759
▁days	-760
▁words	-761
▁woman	-762
▁climb	-763
tain	-764
▁beh	-765
▁fish	-766
▁behind	-767
▁belie	-768
▁face	-769
▁sound	-770
▁explore	-771
az	-772
imm	-773
▁warmth	-774
▁cour	-775
ell	-776
▁heav	-777
▁clouds	-778
▁returned	-779
▁flew	-780
▁past	-781
ank	-782
▁us	-783
▁wish	-784
ering	-785
xt	-786
abb	-787
iness	-788
▁softly	-789
▁still	-790
ny	-791
▁care	-792
▁ground	-793
▁disco	-794
thing	-795
cho	-796
aces	-797
▁wait	-798
▁step	-799
▁closer	-800
be	-801
▁gent	-802
oud	-803
▁inst	-804
▁bef	-805
▁seemed	-806
▁cle	-807
▁hearts	-808
▁before	-809
▁bring	-810
▁car	-811
▁tell	-812
▁echo	-813
▁ship	-814
▁sparkled	-815
▁flower	-816
iny	-817
▁bird	-818
ool	-819
ance	-820
▁fir	-821
▁near	-822
▁river	-823
oss	-824
oom	-825
▁tiny	-826
bot	-827
ne	-828
ourn	-829
eared	-830
ined	-831
▁imag	-832
▁above	-833
▁next	-834
▁take	-835
▁know	-836
so	-837
▁heavy	-838
▁journ	-839
▁robot	-840
ushed	-841
▁met	-842
▁memories	-843
ush	-844
▁family	-845
▁change	-846
▁keep	-847
▁flo	-848
▁fell	-849
▁called	-850
agon	-851
reed	-852
▁cat	-853
▁listened	-854
▁dragon	-855
▁king	-856
▁looking	-857
▁raced	-858
▁journey	-859
als	-860
▁jum	-861
▁swe	-862
▁being	-863
▁spir	-864
▁worked	-865
sp	-866
pt	-867
▁mind	-868
▁spirit	-869
▁slow	-870
ead	-871
▁first	-872
▁work	-873
▁dif	-874
▁wonder	-875
feren	-876
▁sil	-877
▁differen	-878
▁here	-879
▁alive	-880
▁courage	-881
▁magical	-882
▁also	-883
▁outside	-884
▁loud	-885
▁promised	-886
▁inv	-887
▁appeared	-888
▁box	-889
▁things	-890
here	-891
▁remind	-892
▁himself	-893
ort	-894
▁wise	-895
▁secrets	-896
ro	-897
▁instead	-898
▁ide	-899
ine	-900
▁hold	-901
▁glowing	-902
▁sea	-903
assed	-904
▁anne	-905
▁peter	-906
▁brought	-907
▁dance	-908
▁grow	-909
▁good	-910
ks	-911
▁laughing	-912
▁herself	-913
▁try	-914
▁yet	-915
▁key	-916
▁happiness	-917
iv	-918
inking	-919
▁spot	-920
oup	-921
▁mis	-922
▁shiny	-923
▁cast	-924
▁passed	-925
land	-926
▁left	-927
▁kindness	-928
▁ca	-929
▁high	-930
▁slowly	-931
▁colorful	-932
▁hands	-933
▁wondered	-934
aybe	-935
▁showed	-936
▁moon	-937
▁fair	-938
▁tri	-939
▁show	-940
▁din	-941
ouse	-942
ired	-943
▁wall	-944
▁trust	-945
▁free	-946
▁shining	-947
▁open	-948
▁started	-949
▁alien	-950
▁our	-951
▁adventures	-952
▁scared	-953
▁thinking	-954
▁game	-955
ves	-956
▁last	-957
uth	-958
▁team	-959
▁understood	-960
dom	-961
▁sweet	-962
aur	-963
by	-964
▁win	-965
osaur	-966
▁wide	-967
the	-968
▁group	-969
▁quick	-970
▁island	-971
▁picked	-972
used	-973
▁truth	-974
uck	-975
▁wood	-976
▁different	-977
▁making	-978
▁climbed	-979
▁letter	-980
▁fig	-981
▁fad	-982
▁ben	-983
lly	-984
ountain	-985
▁lived	-986
ote	-987
▁figure	-988
la	-989
▁ball	-990
▁far	-991
imes	-992
apped	-993
▁park	-994
▁hill	-995
aw	-996
▁wrote	-997
why	-998
▁weight	-999
ebr	-1000
ost	-1001
acing	-1002
▁think	-1003
▁tou	-1004
▁plant	-1005
▁dinosaur	-1006
▁amaz	-1007
▁ow	-1008
▁grand	-1009
▁followed	-1010
▁conn	-1011
▁tales	-1012
▁song	-1013
▁owl	-1014
▁discovered	-1015
▁hero	-1016
▁waves	-1017
▁cel	-1018
read	-1019
▁cont	-1020
▁art	-1021
▁celebr	-1022
ock	-1023
where	-1024
reng	-1025
▁mus	-1026
▁build	-1027
ash	-1028
imed	-1029
▁children	-1030
▁bloom	-1031
▁streng	-1032
▁kid	-1033
▁strength	-1034
▁year	-1035
day	-1036
▁led	-1037
▁jumped	-1038
▁run	-1039
▁cry	-1040
▁creatures	-1041
▁cold	-1042
▁went	-1043
▁leaves	-1044
abbit	-1045
▁rabbit	-1046
▁been	-1047
▁music	-1048
▁better	-1049
umb	-1050
ught	-1051
▁pir	-1052
▁conf	-1053
▁everything	-1054
▁waiting	-1055
▁dust	-1056
▁pi	-1057
ugg	-1058
ons	-1059
fully	-1060
light	-1061
▁twink	-1062
▁brighter	-1063
▁beauty	-1064
▁shimm	-1065
▁fast	-1066
▁turtle	-1067
ze	-1068
igg	-1069
▁sang	-1070
ited	-1071
▁those	-1072
▁kids	-1073
▁wished	-1074
▁mountain	-1075
▁anim	-1076
▁among	-1077
ken	-1078
▁closed	-1079
avel	-1080
▁create	-1081
▁sometimes	-1082
ept	-1083
orn	-1084
▁should	-1085
ud	-1086
▁toy	-1087
ilt	-1088
ol	-1089
ets	-1090
▁often	-1091
▁chang	-1092
▁fox	-1093
▁ever	-1094
▁travel	-1095
▁moved	-1096
aving	-1097
▁say	-1098
▁food	-1099
▁flying	-1100
ished	-1101
▁appro	-1102
▁sadness	-1103
▁chest	-1104
▁deeper	-1105
mb	-1106
▁pu	-1107
▁glow	-1108
▁without	-1109
laimed	-1110
▁shone	-1111
med	-1112
▁needed	-1113
▁understand	-1114
▁vis	-1115
▁helped	-1116
▁echoed	-1117
▁remember	-1118
▁surprise	-1119
▁dist	-1120
▁explor	-1121
▁lay	-1122
▁exclaimed	-1123
illy	-1124
▁animals	-1125
▁wand	-1126
ions	-1127
ars	-1128
▁space	-1129
opped	-1130
▁empt	-1131
▁another	-1132
▁castle	-1133
idd	-1134
▁dreamed	-1135
▁gas	-1136
ans	-1137
▁quickly	-1138
▁sit	-1139
▁funny	-1140
▁bond	-1141
▁playing	-1142
▁forg	-1143
▁faded	-1144
irr	-1145
▁toward	-1146
▁pres	-1147
▁squ	-1148
rived	-1149
▁lon	-1150
▁agreed	-1151
▁stay	-1152
▁swam	-1153
▁lights	-1154
ough	-1155
▁eag	-1156
▁woods	-1157
ones	-1158
ster	-1159
ross	-1160
▁sing	-1161
▁darkness	-1162
▁across	-1163
▁poin	-1164
▁look	-1165
ained	-1166
▁cre	-1167
▁sail	-1168
▁return	-1169
eath	-1170
ary	-1171
ters	-1172
▁watching	-1173
▁forever	-1174
ix	-1175
▁ent	-1176
ung	-1177
▁glowed	-1178
▁mother	-1179
▁per	-1180
▁beneath	-1181
▁approached	-1182
▁close	-1183
▁floated	-1184
▁oce	-1185
▁blue	-1186
▁sig	-1187
▁landed	-1188
▁sand	-1189
▁piec	-1190
▁stronger	-1191
▁fall	-1192
▁searched	-1193
▁fairy	-1194
▁flick	-1195
▁father	-1196
▁treasures	-1197
▁walls	-1198
▁cho	-1199
▁imp	-1200
▁spotted	-1201
▁silly	-1202
▁head	-1203
ins	-1204
uis	-1205
▁brightly	-1206
ames	-1207
▁des	-1208
▁ocean	-1209
▁gasped	-1210
▁tight	-1211
▁shap	-1212
▁connect	-1213
▁someone	-1214
▁racing	-1215
▁boat	-1216
▁luis	-1217
▁cryst	-1218
▁gentle	-1219
▁today	-1220
round	-1221
but	-1222
▁changed	-1223
▁insp	-1224
▁turn	-1225
▁mix	-1226
umbled	-1227
ashed	-1228
▁idea	-1229
can	-1230
ible	-1231
look	-1232
cked	-1233
▁stones	-1234
▁tried	-1235
▁seen	-1236
▁sen	-1237
▁helping	-1238
▁deter	-1239
▁determ	-1240
▁mat	-1241
▁forward	-1242
sw	-1243
▁hon	-1244
▁answ	-1245
▁within	-1246
▁hoping	-1247
ued	-1248
▁kingdom	-1249
▁eager	-1250
▁dog	-1251
▁trying	-1252
▁forgot	-1253
▁gently	-1254
▁gigg	-1255
▁empty	-1256
▁less	-1257
ected	-1258
▁sparkling	-1259
▁crow	-1260
▁whispers	-1261
▁painted	-1262
for	-1263
▁lonely	-1264
fted	-1265
▁sch	-1266
▁imagined	-1267
lled	-1268
ci	-1269
▁stre	-1270
▁upon	-1271
▁villag	-1272
▁right	-1273
ase	-1274
▁wandered	-1275
▁built	-1276
▁fire	-1277
▁searching	-1278
▁mor	-1279
..	-1280
▁mu	-1281
▁ru	-1282
▁house	-1283
▁along	-1284
▁faced	-1285
▁miss	-1286
▁crew	-1287
ger	-1288
row	-1289
▁arrived	-1290
pping	-1291
▁against	-1292
▁school	-1293
▁window	-1294
thank	-1295
▁joined	-1296
▁leader	-1297
▁shell	-1298
▁villagers	-1299
▁reach	-1300
▁pulled	-1301
▁waved	-1302
ating	-1303
▁side	-1304
ff	-1305
no	-1306
iddle	-1307
irror	-1308
▁mirror	-1309
act	-1310
▁hear	-1311
ug	-1312
maybe	-1313
▁swirl	-1314
omed	-1315
▁knight	-1316
▁leaving	-1317
▁cloud	-1318
▁reve	-1319
▁trick	-1320
▁bree	-1321
ater	-1322
▁cand	-1323
▁reveal	-1324
ival	-1325
▁morning	-1326
▁safe	-1327
▁fiel	-1328
▁fest	-1329
▁might	-1330
osity	-1331
▁butter	-1332
ct	-1333
ged	-1334
▁hur	-1335
▁covered	-1336
▁wee	-1337
▁gift	-1338
▁two	-1339
▁draw	-1340
▁butterf	-1341
▁crowd	-1342
▁cried	-1343
▁leave	-1344
aid	-1345
▁grass	-1346
▁nearby	-1347
▁thick	-1348
▁wave	-1349
ches	-1350
▁games	-1351
▁race	-1352
▁below	-1353
▁stopped	-1354
joy	-1355
▁pushed	-1356
▁bus	-1357
▁festival	-1358
▁realizing	-1359
▁evening	-1360
▁get	-1361
▁fears	-1362
▁shook	-1363
▁di	-1364
▁got	-1365
awn	-1366
▁ed	-1367
▁crystal	-1368
▁breeze	-1369
▁gh	-1370
▁ghost	-1371
come	-1372
reen	-1373
kes	-1374
elled	-1375
▁belong	-1376
▁much	-1377
▁rushed	-1378
▁cap	-1379
▁paint	-1380
▁pro	-1381
▁brother	-1382
▁fight	-1383
▁give	-1384
▁act	-1385
▁created	-1386
▁los	-1387
▁wings	-1388
ination	-1389
▁att	-1390
▁piece	-1391
▁letters	-1392
▁smiling	-1393
use	-1394
▁learn	-1395
▁seed	-1396
allen	-1397
▁believed	-1398
▁twist	-1399
▁challen	-1400
ious	-1401
▁gone	-1402
▁meet	-1403
▁kept	-1404
ture	-1405
▁dancing	-1406
▁stumbled	-1407
▁listen	-1408
▁sunny	-1409
▁import	-1410
▁enjoy	-1411
▁twinkled	-1412
ms	-1413
▁spl	-1414
▁spread	-1415
▁hour	-1416
▁surprised	-1417
▁rush	-1418
ake	-1419
▁wishes	-1420
▁used	-1421
▁edge	-1422
▁note	-1423
▁worried	-1424
▁grandm	-1425
▁dreaming	-1426
▁golden	-1427
▁believe	-1428
aked	-1429
ines	-1430
ester	-1431
▁silence	-1432
els	-1433
▁thri	-1434
▁holding	-1435
ates	-1436
ever	-1437
▁sense	-1438
anger	-1439
oub	-1440
oken	-1441
▁fro	-1442
▁shine	-1443
▁bran	-1444
▁spr	-1445
ices	-1446
▁talked	-1447
zz	-1448
▁jester	-1449
▁curiosity	-1450
▁dusty	-1451
▁shore	-1452
ib	-1453
▁birds	-1454
▁carefully	-1455
ple	-1456
▁sy	-1457
▁pirate	-1458
▁cool	-1459
▁sitting	-1460
▁connection	-1461
▁painting	-1462
▁faces	-1463
▁moments	-1464
▁seek	-1465
▁sounds	-1466
▁explorer	-1467
▁thanked	-1468
▁peace	-1469
▁grabb	-1470
▁fut	-1471
▁guard	-1472
aking	-1473
▁future	-1474
▁flash	-1475
▁bur	-1476
▁inspired	-1477
▁thoughts	-1478
▁sor	-1479
▁anything	-1480
▁follow	-1481
▁mon	-1482
per	-1483
▁wrong	-1484
▁top	-1485
▁red	-1486
▁very	-1487
▁honest	-1488
▁mist	-1489
▁grin	-1490
▁tale	-1491
▁corn	-1492
▁pond	-1493
▁bes	-1494
▁beside	-1495
▁contin	-1496
▁af	-1497
▁caught	-1498
▁riddle	-1499
▁surround	-1500
vous	-1501
▁places	-1502
▁amazing	-1503
▁memory	-1504
▁ideas	-1505
▁smiles	-1506
arth	-1507
▁comp	-1508
▁quest	-1509
▁sho	-1510
▁spent	-1511
▁earth	-1512
▁closely	-1513
▁grandmother	-1514
▁cal	-1515
bow	-1516
tered	-1517
▁candy	-1518
ts	-1519
▁wild	-1520
ork	-1521
▁grabbed	-1522
▁de	-1523
▁mean	-1524
▁maybe	-1525
▁rainbow	-1526
▁ner	-1527
▁prin	-1528
▁later	-1529
ipped	-1530
▁important	-1531
ested	-1532
▁el	-1533
▁planet	-1534
▁stand	-1535
▁finding	-1536
▁has	-1537
▁rocks	-1538
cient	-1539
▁ancient	-1540
mbol	-1541
▁symbol	-1542
do	-1543
▁beach	-1544
▁vi	-1545
▁dri	-1546
▁tears	-1547
▁filling	-1548
▁everywhere	-1549
▁longer	-1550
▁sugg	-1551
▁hours	-1552
▁doub	-1553
▁quietly	-1554
▁didn	-1555
ween	-1556
▁between	-1557
▁songs	-1558
▁nervous	-1559
▁clock	-1560
▁determined	-1561
anted	-1562
▁creating	-1563
▁shi	-1564
▁sist	-1565
▁years	-1566
▁hung	-1567
head	-1568
work	-1569
▁green	-1570
▁fail	-1571
▁broken	-1572
▁rolled	-1573
▁ago	-1574
▁trans	-1575
ugged	-1576
gy	-1577
▁suggested	-1578
▁gem	-1579
▁carry	-1580
een	-1581
▁amazed	-1582
▁bear	-1583
▁party	-1584
▁touched	-1585
▁gave	-1586
▁picture	-1587
▁vall	-1588
▁valley	-1589
▁confused	-1590
▁clever	-1591
▁invis	-1592
▁hat	-1593
▁ref	-1594
▁jew	-1595
▁bloomed	-1596
▁understanding	-1597
▁transfor	-1598
rel	-1599
▁pointed	-1600
▁pa	-1601
▁kite	-1602
▁lighter	-1603
raid	-1604
▁unt	-1605
▁pre	-1606
avor	-1607
▁yelled	-1608
▁weeks	-1609
▁feels	-1610
acked	-1611
▁afraid	-1612
▁running	-1613
▁thrill	-1614
▁tightly	-1615
▁surrounded	-1616
▁happen	-1617
▁bit	-1618
irt	-1619
sh	-1620
▁forgotten	-1621
▁brid	-1622
▁loss	-1623
▁explored	-1624
▁entered	-1625
▁same	-1626
▁known	-1627
▁toys	-1628
▁squir	-1629
uit	-1630
iding	-1631
▁corner	-1632
not	-1633
▁calm	-1634
▁name	-1635
▁squirrel	-1636
▁cook	-1637
▁feather	-1638
▁danger	-1639
▁sister	-1640
▁noise	-1641
▁continued	-1642
▁resp	-1643
▁taking	-1644
▁move	-1645
▁hig	-1646
▁spe	-1647
app	-1648
▁chance	-1649
▁comes	-1650
esc	-1651
▁blew	-1652
▁write	-1653
▁shimmered	-1654
▁explained	-1655
▁soared	-1656
▁invited	-1657
▁pers	-1658
fect	-1659
▁shimmering	-1660
▁bubb	-1661
▁visit	-1662
▁fix	-1663
ause	-1664
▁queen	-1665
▁taught	-1666
▁uni	-1667
▁prot	-1668
▁ahead	-1669
▁fade	-1670
▁bre	-1671
▁rust	-1672
▁don	-1673
▁revealing	-1674
▁distance	-1675
▁z	-1676
▁mountains	-1677
▁finished	-1678
▁reminder	-1679
▁watch	-1680
▁friendly	-1681
▁teamwork	-1682
▁ballo	-1683
▁myster	-1684
▁fruit	-1685
lies	-1686
▁bra	-1687
▁field	-1688
▁tow	-1689
▁ener	-1690
▁embr	-1691
▁bridge	-1692
▁mess	-1693
▁pass	-1694
ls	-1695
ateful	-1696
▁stared	-1697
▁sol	-1698
▁going	-1699
▁these	-1700
▁energy	-1701
▁until	-1702
▁times	-1703
▁perfect	-1704
irc	-1705
▁chill	-1706
▁use	-1707
▁favor	-1708
▁invisible	-1709
ors	-1710
▁lives	-1711
ief	-1712
▁wonders	-1713
▁missed	-1714
▁cha	-1715
▁streets	-1716
▁pap	-1717
▁trapped	-1718
ray	-1719
ots	-1720
▁seeds	-1721
▁forget	-1722
▁fier	-1723
▁planned	-1724
▁showing	-1725
▁mark	-1726
▁hurt	-1727
▁talk	-1728
▁int	-1729
▁refle	-1730
bye	-1731
▁gaz	-1732
▁catch	-1733
▁wisdom	-1734
ory	-1735
▁pirates	-1736
▁tired	-1737
▁favorite	-1738
▁butterfly	-1739
sit	-1740
▁kit	-1741
▁choice	-1742
▁hesit	-1743
▁mach	-1744
▁ench	-1745
▁frog	-1746
▁exploring	-1747
akes	-1748
▁stop	-1749
▁attic	-1750
▁sighed	-1751
▁working	-1752
sure	-1753
▁sign	-1754
▁onto	-1755
▁betray	-1756
▁goodbye	-1757
▁lesson	-1758
▁woke	-1759
▁higher	-1760
▁wore	-1761
▁jewels	-1762
▁touch	-1763
▁blank	-1764
▁circ	-1765
▁jo	-1766
▁add	-1767
▁chas	-1768
▁put	-1769
▁giggled	-1770
▁rec	-1771
▁plants	-1772
▁lake	-1773
▁lift	-1774
▁reminded	-1775
▁grateful	-1776
▁nothing	-1777
▁placed	-1778
▁feet	-1779
iting	-1780
▁strugg	-1781
▁matter	-1782
▁person	-1783
▁spaces	-1784
▁clear	-1785
that	-1786
▁enchanted	-1787
▁wel	-1788
▁jump	-1789
▁sim	-1790
▁rose	-1791
▁enough	-1792
▁bat	-1793
▁promise	-1794
▁lar	-1795
ents	-1796
ab	-1797
▁adm	-1798
▁table	-1799
▁broke	-1800
▁busy	-1801
▁decl	-1802
▁meant	-1803
▁transformed	-1804
▁sunlight	-1805
▁most	-1806
▁stud	-1807
ience	-1808
less	-1809
ire	-1810
▁libr	-1811
kay	-1812
▁pur	-1813
▁captain	-1814
▁po	-1815
hell	-1816
▁because	-1817
▁doubt	-1818
▁aliens	-1819
▁telling	-1820
▁une	-1821
▁save	-1822
▁paper	-1823
▁bravery	-1824
▁coming	-1825
▁pract	-1826
▁really	-1827
ern	-1828
ont	-1829
▁cannot	-1830
▁haun	-1831
▁answer	-1832
▁singing	-1833
▁declared	-1834
pected	-1835
ries	-1836
▁flickered	-1837
▁hugged	-1838
ges	-1839
▁low	-1840
▁silver	-1841
▁glimm	-1842
▁crown	-1843
▁prep	-1844
▁trad	-1845
▁stuck	-1846
▁ur	-1847
▁branches	-1848
▁spaceship	-1849
▁silent	-1850
▁discover	-1851
▁aw	-1852
▁winter	-1853
▁teac	-1854
▁protect	-1855
ject	-1856
▁reminding	-1857
▁arms	-1858
ising	-1859
ibil	-1860
▁echoing	-1861
▁burst	-1862
▁rest	-1863
▁esc	-1864
ich	-1865
▁escap	-1866
▁library	-1867
ike	-1868
▁pret	-1869
▁cheer	-1870
▁guide	-1871
▁rocket	-1872
oh	-1873
▁freed	-1874
ask	-1875
▁disapp	-1876
ier	-1877
ress	-1878
elves	-1879
▁tast	-1880
uff	-1881
▁coins	-1882
▁smell	-1883
▁van	-1884
ature	-1885
▁growing	-1886
arl	-1887
▁twirl	-1888
▁happened	-1889
▁hit	-1890
▁drawn	-1891
▁sailed	-1892
▁well	-1893
acks	-1894
▁fierce	-1895
▁surf	-1896
▁hide	-1897
▁class	-1898
▁dinosaurs	-1899
▁mission	-1900
icked	-1901
▁worlds	-1902
▁hum	-1903
▁bag	-1904
mer	-1905
▁however	-1906
▁soc	-1907
▁anyone	-1908
▁tradit	-1909
▁celebrated	-1910
▁powerful	-1911
aged	-1912
▁neigh	-1913
▁hu	-1914
▁neighb	-1915
▁saying	-1916
▁welc	-1917
...	-1918
ced	-1919
▁happily	-1920
▁del	-1921
▁pour	-1922
▁hesitated	-1923
▁hiding	-1924
▁seas	-1925
▁talking	-1926
▁pressed	-1927
▁coll	-1928
▁moonlight	-1929
▁break	-1930
▁begin	-1931
▁hills	-1932
ump	-1933
▁clu	-1934
antern	-1935
▁ice	-1936
▁why	-1937
▁ones	-1938
▁lantern	-1939
▁shy	-1940
▁worry	-1941
▁shape	-1942
▁heal	-1943
▁moving	-1944
▁whisper	-1945
yond	-1946
▁beyond	-1947
▁anger	-1948
▁challenge	-1949
selves	-1950
▁crept	-1951
▁eagerly	-1952
▁acc	-1953
venge	-1954
▁teacher	-1955
arm	-1956
▁traveled	-1957
▁pan	-1958
▁books	-1959
▁search	-1960
▁does	-1961
▁afterno	-1962
lf	-1963
▁may	-1964
▁distant	-1965
ive	-1966
▁enc	-1967
▁carried	-1968
▁offered	-1969
▁cent	-1970
▁paused	-1971
▁prince	-1972
verse	-1973
▁imagination	-1974
▁rivers	-1975
▁revenge	-1976
▁shapes	-1977
▁twisted	-1978
how	-1979
▁remembering	-1980
▁tremb	-1981
▁fog	-1982
▁ey	-1983
▁lies	-1984
▁sorrow	-1985
▁wonderful	-1986
▁fought	-1987
dy	-1988
▁taken	-1989
cess	-1990
▁though	-1991
▁guiding	-1992
▁ang	-1993
▁nature	-1994
▁center	-1995
▁word	-1996
▁greatest	-1997
▁afternoon	-1998
▁waited	-1999
▁unsure	-2000
▁fing	-2001
▁honesty	-2002
▁feelings	-2003
uly	-2004
▁pet	-2005
▁building	-2006
▁traveler	-2007
▁dug	-2008
ages	-2009
▁few	-2010
▁hopes	-2011
▁believing	-2012
who	-2013
▁clean	-2014
▁leading	-2015
▁lock	-2016
▁walking	-2017
▁lifted	-2018
▁won	-2019
▁universe	-2020
▁clapped	-2021
▁haunted	-2022
ises	-2023
▁pound	-2024
▁winds	-2025
▁voices	-2026
▁tun	-2027
▁truly	-2028
▁slipped	-2029
▁ph	-2030
▁swirled	-2031
▁mouse	-2032
▁stick	-2033
▁cake	-2034
▁simple	-2035
▁monster	-2036
▁puzz	-2037
▁become	-2038
▁packed	-2039
▁vast	-2040
▁bringing	-2041
▁plans	-2042
▁large	-2043
▁abs	-2044
hello	-2045
▁flowed	-2046
▁cookies	-2047
gn	-2048
▁saved	-2049
▁cur	-2050
amp	-2051
▁welcomed	-2052
ushing	-2053
▁escape	-2054
▁using	-2055
▁ended	-2056
▁heroes	-2057
▁supp	-2058
▁stream	-2059
tory	-2060
wow	-2061
▁vanished	-2062
▁teach	-2063
▁leg	-2064
most	-2065
▁sum	-2066
▁snowman	-2067
▁machine	-2068
▁celebration	-2069
▁street	-2070
▁themselves	-2071
ail	-2072
gest	-2073
▁butt	-2074
▁balloon	-2075
ging	-2076
▁surface	-2077
they	-2078
▁which	-2079
▁dawn	-2080
▁paths	-2081
▁pee	-2082
help	-2083
▁speak	-2084
▁almost	-2085
▁roared	-2086
▁hun	-2087
▁bigger	-2088
▁absence	-2089
▁eye	-2090
der	-2091
▁compass	-2092
▁careful	-2093
▁front	-2094
▁dirt	-2095
aps	-2096
▁freedom	-2097
▁spring	-2098
▁standing	-2099
▁tower	-2100
▁encour	-2101
▁foc	-2102
▁sought	-2103
▁couldn	-2104
▁calling	-2105
▁blanket	-2106
▁biggest	-2107
▁hall	-2108
▁warned	-2109
▁rise	-2110
▁fluff	-2111
▁vibr	-2112
▁done	-2113
ibility	-2114
ossed	-2115
▁fingers	-2116
▁wash	-2117
▁sway	-2118
ledge	-2119
▁belonged	-2120
▁robots	-2121
▁sou	-2122
hero	-2123
▁crossed	-2124
▁wishing	-2125
ady	-2126
▁chaos	-2127
▁unco	-2128
▁unl	-2129
▁emer	-2130
▁giving	-2131
▁whispering	-2132
zy	-2133
▁fur	-2134
▁leap	-2135
▁brings	-2136
able	-2137
▁ways	-2138
▁joyful	-2139
set	-2140
▁pri	-2141
▁pages	-2142
yard	-2143
▁knowledge	-2144
vely	-2145
bo	-2146
▁pupp	-2147
▁pat	-2148
vas	-2149
▁line	-2150
▁canvas	-2151
▁butterflies	-2152
red	-2153
▁added	-2154
▁vibrant	-2155
▁loudly	-2156
▁determination	-2157
▁howled	-2158
fl	-2159
ored	-2160
ivity	-2161
▁bench	-2162
▁respons	-2163
ian	-2164
ony	-2165
▁da	-2166
gued	-2167
▁rel	-2168
▁vines	-2169
▁crashed	-2170
▁eas	-2171
▁celebrate	-2172
▁cruel	-2173
▁pearl	-2174
▁ob	-2175
▁unex	-2176
▁pounding	-2177
▁dear	-2178
▁snacks	-2179
▁gri	-2180
▁late	-2181
▁proble	-2182
▁prepared	-2183
▁towards	-2184
▁gathering	-2185
▁fields	-2186
▁creativity	-2187
uring	-2188
▁spirits	-2189
▁worth	-2190
▁unexpected	-2191
▁poured	-2192
▁sank	-2193
▁feast	-2194
▁angry	-2195
▁grant	-2196
▁ign	-2197
▁makes	-2198
▁staring	-2199
▁glass	-2200
▁wid	-2201
wel	-2202
fo	-2203
▁contro	-2204
welcome	-2205
▁ap	-2206
▁doing	-2207
▁flut	-2208
▁remained	-2209
▁self	-2210
amond	-2211
▁diamond	-2212
▁pictures	-2213
▁bad	-2214
▁challenges	-2215
ual	-2216
▁sne	-2217
▁super	-2218
▁faster	-2219
▁okay	-2220
▁stayed	-2221
ops	-2222
hen	-2223
ured	-2224
▁having	-2225
▁ra	-2226
▁embrace	-2227
▁tricks	-2228
▁scary	-2229
owned	-2230
▁sight	-2231
▁presence	-2232
▁creaked	-2233
▁spun	-2234
leep	-2235
▁drawing	-2236
oming	-2237
ember	-2238
▁huge	-2239
ball	-2240
iety	-2241
▁fluffy	-2242
▁thing	-2243
▁looks	-2244
▁awe	-2245
▁buzz	-2246
ground	-2247
resh	-2248
▁drew	-2249
cer	-2250
▁else	-2251
▁pointing	-2252
▁chuck	-2253
▁frowned	-2254
▁form	-2255
▁gazed	-2256
▁hor	-2257
night	-2258
▁summer	-2259
now	-2260
▁famil	-2261
▁walk	-2262
▁wrapped	-2263
▁fresh	-2264
▁ruins	-2265
▁betrayal	-2266
▁ride	-2267
▁society	-2268
▁missing	-2269
ction	-2270
▁loomed	-2271
▁orange	-2272
▁backyard	-2273
▁buried	-2274
▁formed	-2275
ining	-2276
▁shells	-2277
arked	-2278
▁grinned	-2279
▁ask	-2280
▁pretend	-2281
▁saf	-2282
▁pride	-2283
▁casting	-2284
▁pulling	-2285
▁branch	-2286
▁tor	-2287
oth	-2288
▁res	-2289
▁learning	-2290
▁swim	-2291
▁hoped	-2292
ner	-2293
▁liked	-2294
▁turning	-2295
▁ser	-2296
ening	-2297
▁spell	-2298
▁chose	-2299
▁choo	-2300
▁tail	-2301
▁clearing	-2302
▁reaching	-2303
▁chase	-2304
▁coun	-2305
▁brush	-2306
▁planted	-2307
▁longed	-2308
▁son	-2309
▁swirling	-2310
air	-2311
▁snowy	-2312
▁answers	-2313
▁hopped	-2314
▁choices	-2315
▁shaking	-2316
▁oak	-2317
ocked	-2318
▁circle	-2319
▁neighbor	-2320
▁tradition	-2321
▁asking	-2322
ty	-2323
▁apart	-2324
▁ir	-2325
▁pot	-2326
▁floating	-2327
▁greed	-2328
up	-2329
▁sent	-2330
ats	-2331
ths	-2332
▁failure	-2333
af	-2334
▁during	-2335
ord	-2336
▁hair	-2337
▁bed	-2338
▁puppy	-2339
ashing	-2340
ces	-2341
sing	-2342
arr	-2343
▁chir	-2344
▁floor	-2345
▁panic	-2346
▁emerged	-2347
▁bushes	-2348
▁twirled	-2349
▁diamonds	-2350
▁gen	-2351
▁solve	-2352
▁lands	-2353
▁lessons	-2354
▁comm	-2355
▁clues	-2356
▁ind	-2357
▁pen	-2358
▁beast	-2359
kn	-2360
▁ring	-2361
▁following	-2362
▁mer	-2363
▁seeing	-2364
▁enjoyed	-2365
▁peeked	-2366
▁inviting	-2367
▁final	-2368
▁superhero	-2369
▁poss	-2370
▁connected	-2371
will	-2372
▁roots	-2373
▁stret	-2374
▁symbols	-2375
▁exp	-2376
▁fort	-2377
▁mysterious	-2378
▁splashed	-2379
epend	-2380
▁steal	-2381
▁lose	-2382
▁fading	-2383
▁winning	-2384
▁meeting	-2385
▁whole	-2386
val	-2387
▁thief	-2388
▁artist	-2389
▁val	-2390
▁cor	-2391
▁control	-2392
▁shown	-2393
iff	-2394
▁chuckled	-2395
▁bike	-2396
inked	-2397
▁cher	-2398
attered	-2399
known	-2400
▁button	-2401
lph	-2402
▁dolph	-2403
▁flicker	-2404
▁weak	-2405
▁imagining	-2406
▁market	-2407
ope	-2408
apping	-2409
▁mixed	-2410
▁ant	-2411
▁visited	-2412
▁chased	-2413
▁recall	-2414
llow	-2415
▁intri	-2416
▁louder	-2417
▁zoom	-2418
▁smart	-2419
▁excitedly	-2420
▁unknown	-2421
pose	-2422
▁shop	-2423
unch	-2424
mor	-2425
▁purpose	-2426
▁difference	-2427
▁drawings	-2428
▁drifted	-2429
▁cozy	-2430
▁ten	-2431
▁view	-2432
▁beginning	-2433
▁bell	-2434
▁ling	-2435
▁practiced	-2436
▁enjoying	-2437
▁coin	-2438
▁push	-2439
▁creep	-2440
▁lean	-2441
dear	-2442
hood	-2443
arp	-2444
found	-2445
▁hole	-2446
▁finish	-2447
▁trembling	-2448
▁eat	-2449
▁white	-2450
vel	-2451
de	-2452
▁carrying	-2453
bu	-2454
ecting	-2455
▁fruits	-2456
▁pink	-2457
▁turns	-2458
book	-2459
ouble	-2460
▁choose	-2461
▁tools	-2462
▁intrigued	-2463
▁beat	-2464
▁mur	-2465
▁hunt	-2466
▁spin	-2467
▁itself	-2468
▁yourself	-2469
ughter	-2470
▁dig	-2471
▁neck	-2472
chen	-2473
▁kitchen	-2474
ying	-2475
▁storms	-2476
▁struck	-2477
▁nights	-2478
▁focused	-2479
▁yard	-2480
▁test	-2481
▁trouble	-2482
▁tug	-2483
▁train	-2484
just	-2485
▁desp	-2486
▁sunset	-2487
▁newfound	-2488
house	-2489
▁twinkle	-2490
tr	-2491
▁reg	-2492
▁vic	-2493
▁independ	-2494
▁fairies	-2495
▁bottle	-2496
▁flood	-2497
▁splash	-2498
▁blinked	-2499
▁sharp	-2500
▁scr	-2501
sion	-2502
▁lovely	-2503
haps	-2504
▁skill	-2505
▁boun	-2506
▁clot	-2507
▁cost	-2508
omes	-2509
ides	-2510
▁daughter	-2511
▁listening	-2512
▁swimm	-2513
▁bask	-2514
▁confid	-2515
▁princess	-2516
▁ear	-2517
▁wanting	-2518
hy	-2519
▁sib	-2520
▁pock	-2521
▁rang	-2522
▁sque	-2523
▁gifts	-2524
▁sure	-2525
▁washed	-2526
▁three	-2527
▁course	-2528
▁tos	-2529
▁tunn	-2530
▁week	-2531
▁clothes	-2532
▁er	-2533
▁playful	-2534
▁reflection	-2535
▁says	-2536
▁admired	-2537
rance	-2538
▁writ	-2539
▁knelt	-2540
▁min	-2541
▁falling	-2542
▁delight	-2543
▁worries	-2544
▁planets	-2545
▁sleep	-2546
▁oct	-2547
more	-2548
▁battle	-2549
▁page	-2550
▁aloud	-2551
▁responsibility	-2552
▁dim	-2553
▁reflec	-2554
owers	-2555
▁prove	-2556
▁longing	-2557
ale	-2558
▁happening	-2559
opus	-2560
▁leaf	-2561
▁octopus	-2562
▁guardian	-2563
▁project	-2564
ment	-2565
▁pile	-2566
▁glan	-2567
▁pieces	-2568
▁swing	-2569
▁crab	-2570
▁meadow	-2571
▁skies	-2572
▁rival	-2573
▁awa	-2574
▁comet	-2575
ul	-2576
cking	-2577
▁witch	-2578
izard	-2579
▁live	-2580
your	-2581
▁net	-2582
▁sword	-2583
▁digg	-2584
▁gray	-2585
▁flashlight	-2586
▁wizard	-2587
▁rusty	-2588
▁problem	-2589
▁crash	-2590
▁holds	-2591
▁digging	-2592
ps	-2593
▁swayed	-2594
▁amid	-2595
▁poet	-2596
▁bloss	-2597
▁fighting	-2598
▁yes	-2599
▁steps	-2600
▁ple	-2601
vice	-2602
▁shake	-2603
▁chirped	-2604
iday	-2605
▁suc	-2606
▁stroke	-2607
▁rainy	-2608
▁harder	-2609
under	-2610
▁mystery	-2611
▁coo	-2612
▁skin	-2613
▁encouraged	-2614
nic	-2615
▁honor	-2616
▁independence	-2617
▁hopeful	-2618
▁picnic	-2619
▁char	-2620
▁gems	-2621
▁vent	-2622
▁leaned	-2623
▁petals	-2624
▁glimmered	-2625
▁cover	-2626
▁foot	-2627
▁shel	-2628
▁losing	-2629
rem	-2630
▁ears	-2631
my	-2632
▁worn	-2633
▁entrance	-2634
board	-2635
room	-2636
▁chasing	-2637
▁message	-2638
▁anymore	-2639
ities	-2640
▁smelled	-2641
▁clo	-2642
▁dep	-2643
▁object	-2644
▁brav	-2645
▁bush	-2646
▁pocket	-2647
▁uncover	-2648
▁thank	-2649
▁seeking	-2650
▁basket	-2651
col	-2652
▁rep	-2653
▁notes	-2654
▁swimming	-2655
▁twinkling	-2656
▁lingered	-2657
▁roar	-2658
▁middle	-2659
▁hol	-2660
▁lighting	-2661
▁trap	-2662
▁letting	-2663
morrow	-2664
▁tomorrow	-2665
▁horiz	-2666
maid	-2667
▁ann	-2668
cle	-2669
elo	-2670
▁perhaps	-2671
▁given	-2672
▁mermaid	-2673
▁luck	-2674
▁marked	-2675
ift	-2676
▁coral	-2677
▁handed	-2678
▁pushing	-2679
▁goal	-2680
▁facing	-2681
▁revealed	-2682
ived	-2683
▁wolf	-2684
▁taste	-2685
▁horizon	-2686
▁yell	-2687
▁chocol	-2688
ipping	-2689
▁	-2690
e	-2691
t	-2692
a	-2693
h	-2694
o	-2695
i	-2696
s	-2697
n	-2698
r	-2699
d	-2700
l	-2701
u	-2702
w	-2703
g	-2704
.	-2705
m	-2706
f	-2707
c	-2708
y	-2709
,	-2710
p	-2711
b	-2712
k	-2713
"	-2714
v	-2715
j	-2716
!	-2717
x	-2718
?	-2719
'	-2720
z	-2721
q	-2722
;	-2723
-	-2724
:	-2725
0	-2726
1	-2727
2	-2728
3	-2729
5	-2730
9	-2731
8	-2732
*	-2733
7	-2734
4	-2735
6	-2736
(	-2737
)	-2738
+	-2739
