<unk>	0
<s>	0
</s>	0
<pad>	0
<0x00>	0
<0x01>	0
<0x02>	0
<0x03>	0
<0x04>	0
<0x05>	0
<0x06>	0
<0x07>	0
<0x08>	0
<0x09>	0
<0x0A>	0
<0x0B>	0
<0x0C>	0
<0x0D>	0
<0x0E>	0
<0x0F>	0
<0x10>	0
<0x11>	0
<0x12>	0
<0x13>	0
<0x14>	0
<0x15>	0
<0x16>	0
<0x17>	0
<0x18>	0
<0x19>	0
<0x1A>	0
<0x1B>	0
<0x1C>	0
<0x1D>	0
<0x1E>	0
<0x1F>	0
<0x20>	0
<0x21>	0
<0x22>	0
<0x23>	0
<0x24>	0
<0x25>	0
<0x26>	0
<0x27>	0
<0x28>	0
<0x29>	0
<0x2A>	0
<0x2B>	0
<0x2C>	0
<0x2D>	0
<0x2E>	0
<0x2F>	0
<0x30>	0
<0x31>	0
<0x32>	0
<0x33>	0
<0x34>	0
<0x35>	0
<0x36>	0
<0x37>	0
<0x38>	0
<0x39>	0
<0x3A>	0
<0x3B>	0
<0x3C>	0
<0x3D>	0
<0x3E>	0
<0x3F>	0
<0x40>	0
<0x41>	0
<0x42>	0
<0x43>	0
<0x44>	0
<0x45>	0
<0x46>	0
<0x47>	0
<0x48>	0
<0x49>	0
<0x4A>	0
<0x4B>	0
<0x4C>	0
<0x4D>	0
<0x4E>	0
<0x4F>	0
<0x50>	0
<0x51>	0
<0x52>	0
<0x53>	0
<0x54>	0
<0x55>	0
<0x56>	0
<0x57>	0
<0x58>	0
<0x59>	0
<0x5A>	0
<0x5B>	0
<0x5C>	0
<0x5D>	0
<0x5E>	0
<0x5F>	0
<0x60>	0
<0x61>	0
<0x62>	0
<0x63>	0
<0x64>	0
<0x65>	0
<0x66>	0
<0x67>	0
<0x68>	0
<0x69>	0
<0x6A>	0
<0x6B>	0
<0x6C>	0
<0x6D>	0
<0x6E>	0
<0x6F>	0
<0x70>	0
<0x71>	0
<0x72>	0
<0x73>	0
<0x74>	0
<0x75>	0
<0x76>	0
<0x77>	0
<0x78>	0
<0x79>	0
<0x7A>	0
<0x7B>	0
<0x7C>	0
<0x7D>	0
<0x7E>	0
<0x7F>	0
<0x80>	0
<0x81>	0
<0x82>	0
<0x83>	0
<0x84>	0
<0x85>	0
<0x86>	0
<0x87>	0
<0x88>	0
<0x89>	0
<0x8A>	0
<0x8B>	0
<0x8C>	0
<0x8D>	0
<0x8E>	0
<0x8F>	0
<0x90>	0
<0x91>	0
<0x92>	0
<0x93>	0
<0x94>	0
<0x95>	0
<0x96>	0
<0x97>	0
<0x98>	0
<0x99>	0
<0x9A>	0
<0x9B>	0
<0x9C>	0
<0x9D>	0
<0x9E>	0
<0x9F>	0
<0xA0>	0
<0xA1>	0
<0xA2>	0
<0xA3>	0
<0xA4>	0
<0xA5>	0
<0xA6>	0
<0xA7>	0
<0xA8>	0
<0xA9>	0
<0xAA>	0
<0xAB>	0
<0xAC>	0
<0xAD>	0
<0xAE>	0
<0xAF>	0
<0xB0>	0
<0xB1>	0
<0xB2>	0
<0xB3>	0
<0xB4>	0
<0xB5>	0
<0xB6>	0
<0xB7>	0
<0xB8>	0
<0xB9>	0
<0xBA>	0
<0xBB>	0
<0xBC>	0
<0xBD>	0
<0xBE>	0
<0xBF>	0
<0xC0>	0
<0xC1>	0
<0xC2>	0
<0xC3>	0
<0xC4>	0
<0xC5>	0
<0xC6>	0
<0xC7>	0
<0xC8>	0
<0xC9>	0
<0xCA>	0
<0xCB>	0
<0xCC>	0
<0xCD>	0
<0xCE>	0
<0xCF>	0
<0xD0>	0
<0xD1>	0
<0xD2>	0
<0xD3>	0
<0xD4>	0
<0xD5>	0
<0xD6>	0
<0xD7>	0
<0xD8>	0
<0xD9>	0
<0xDA>	0
<0xDB>	0
<0xDC>	0
<0xDD>	0
<0xDE>	0
<0xDF>	0
<0xE0>	0
<0xE1>	0
<0xE2>	0
<0xE3>	0
<0xE4>	0
<0xE5>	0
<0xE6>	0
<0xE7>	0
<0xE8>	0
<0xE9>	0
<0xEA>	0
<0xEB>	0
<0xEC>	0
<0xED>	0
<0xEE>	0
<0xEF>	0
<0xF0>	0
<0xF1>	0
<0xF2>	0
<0xF3>	0
<0xF4>	0
<0xF5>	0
<0xF6>	0
<0xF7>	0
<0xF8>	0
<0xF9>	0
<0xFA>	0
<0xFB>	0
<0xFC>	0
<0xFD>	0
<0xFE>	0
<0xFF>	0
he	-0
▁t	-1
▁a	-2
▁s	-3
▁the	-4
in	-5
ed	-6
▁w	-7
▁f	-8
re	-9
nd	-10
▁b	-11
▁he	-12
ou	-13
▁l	-14
▁c	-15
it	-16
er	-17
▁o	-18
ing	-19
▁h	-20
ar	-21
▁to	-22
▁m	-23
▁and	-24
at	-25
▁d	-26
is	-27
an	-28
▁p	-29
ll	-30
en	-31
as	-32
or	-33
es	-34
▁g	-35
▁she	-36
▁in	-37
▁th	-38
el	-39
gh	-40
▁they	-41
ow	-42
▁st	-43
▁n	-44
on	-45
▁of	-46
▁e	-47
▁"	-48
ld	-49
ad	-50
▁her	-51
ir	-52
ght	-53
id	-54
et	-55
▁it	-56
om	-57
ac	-58
▁was	-59
ut	-60
ri	-61
▁wit	-62
im	-63
▁with	-64
st	-65
ay	-66
le	-67
▁sh	-68
am	-69
▁be	-70
▁re	-71
▁r	-72
ot	-73
▁as	-74
▁on	-75
▁but	-76
▁j	-77
▁li	-78
al	-79
ly	-80
ic	-81
oo	-82
▁k	-83
ver	-84
her	-85
▁that	-86
ked	-87
ve	-88
▁sa	-89
elt	-90
▁his	-91
▁felt	-92
ound	-93
ill	-94
▁u	-95
▁le	-96
ould	-97
ke	-98
all	-99
you	-100
ent	-101
!"	-102
out	-103
▁had	-104
▁for	-105
art	-106
hed	-107
ind	-108
ag	-109
ure	-110
▁sp	-111
ur	-112
▁wh	-113
pp	-114
▁sm	-115
oy	-116
▁their	-117
▁se	-118
▁we	-119
▁i	-120
▁you	-121
▁fe	-122
▁lo	-123
ant	-124
▁la	-125
il	-126
end	-127
un	-128
os	-129
▁pl	-130
▁not	-131
ust	-132
▁al	-133
▁said	-134
▁tre	-135
▁ne	-136
▁wor	-137
▁ha	-138
▁fri	-139
▁friend	-140
▁him	-141
ore	-142
▁an	-143
▁heart	-144
ain	-145
ered	-146
ide	-147
▁cl	-148
ard	-149
one	-150
ec	-151
▁one	-152
ight	-153
em	-154
▁day	-155
ned	-156
▁ch	-157
▁fl	-158
ft	-159
op	-160
?"	-161
▁so	-162
▁tr	-163
▁at	-164
ark	-165
▁lau	-166
▁could	-167
▁v	-168
ep	-169
▁br	-170
ach	-171
ch	-172
ce	-173
▁gr	-174
▁found	-175
get	-176
▁ab	-177
ought	-178
▁kn	-179
ers	-180
very	-181
reat	-182
ared	-183
ong	-184
▁fr	-185
▁stor	-186
▁whe	-187
▁like	-188
irl	-189
▁ex	-190
ia	-191
,"	-192
ig	-193
gether	-194
▁loo	-195
▁them	-196
▁together	-197
th	-198
▁is	-199
ream	-200
ome	-201
ies	-202
ang	-203
ood	-204
right	-205
▁every	-206
▁friends	-207
▁co	-208
ved	-209
▁feel	-210
us	-211
to	-212
▁dream	-213
▁ar	-214
▁girl	-215
ess	-216
▁ro	-217
ace	-218
▁each	-219
ack	-220
est	-221
king	-222
▁thought	-223
▁bright	-224
den	-225
▁fill	-226
▁were	-227
lp	-228
."	-229
▁can	-230
▁joy	-231
fu	-232
▁about	-233
▁want	-234
▁star	-235
▁up	-236
▁do	-237
rou	-238
▁would	-239
▁from	-240
▁str	-241
▁just	-242
ast	-243
▁into	-244
▁boy	-245
ave	-246
▁ma	-247
ame	-248
▁mia	-249
▁help	-250
nder	-251
av	-252
▁smil	-253
▁wat	-254
▁this	-255
▁light	-256
uel	-257
yes	-258
▁filled	-259
▁back	-260
way	-261
▁leo	-262
ice	-263
▁su	-264
▁find	-265
our	-266
▁out	-267
ful	-268
▁real	-269
ck	-270
and	-271
led	-272
▁looked	-273
▁too	-274
ion	-275
side	-276
ade	-277
▁when	-278
asure	-279
wh	-280
eep	-281
ist	-282
▁treasure	-283
▁sk	-284
▁old	-285
▁feeling	-286
iz	-287
▁wis	-288
▁small	-289
pl	-290
▁eyes	-291
▁ag	-292
▁dan	-293
ther	-294
▁all	-295
▁smiled	-296
▁tim	-297
▁flow	-298
qu	-299
▁saw	-300
▁other	-301
▁happ	-302
amed	-303
agic	-304
▁beg	-305
▁asked	-306
rough	-307
▁through	-308
▁magic	-309
are	-310
▁rem	-311
▁sun	-312
lex	-313
▁tur	-314
▁made	-315
▁alex	-316
▁me	-317
▁ad	-318
hing	-319
▁lear	-320
owing	-321
pped	-322
ous	-323
▁around	-324
own	-325
fe	-326
▁no	-327
▁world	-328
▁creat	-329
▁lost	-330
▁named	-331
ose	-332
▁man	-333
▁play	-334
▁wanted	-335
▁gl	-336
omet	-337
▁exc	-338
▁under	-339
▁cr	-340
▁time	-341
▁pe	-342
ange	-343
▁go	-344
wn	-345
▁night	-346
ip	-347
▁began	-348
▁stars	-349
▁sky	-350
▁pr	-351
ter	-352
▁by	-353
ened	-354
▁hop	-355
▁stories	-356
▁big	-357
▁realiz	-358
we	-359
ull	-360
▁kim	-361
▁dec	-362
▁somet	-363
▁dark	-364
ched	-365
▁if	-366
▁inside	-367
▁sam	-368
ted	-369
▁samuel	-370
▁te	-371
ds	-372
▁dreams	-373
ile	-374
▁ta	-375
vent	-376
▁its	-377
age	-378
▁war	-379
ew	-380
▁what	-381
ven	-382
ghter	-383
dden	-384
▁sudden	-385
▁learned	-386
lor	-387
what	-388
▁color	-389
ity	-390
▁who	-391
um	-392
ook	-393
▁suddenly	-394
▁see	-395
▁danc	-396
▁advent	-397
▁deep	-398
▁qu	-399
▁love	-400
▁laughter	-401
▁adventure	-402
ond	-403
▁my	-404
tle	-405
▁new	-406
▁shared	-407
▁will	-408
ather	-409
▁air	-410
▁che	-411
ided	-412
▁excit	-413
ild	-414
▁mom	-415
▁realized	-416
▁again	-417
▁gi	-418
▁am	-419
▁wal	-420
▁fo	-421
▁more	-422
▁whis	-423
ghed	-424
▁laughed	-425
▁whisp	-426
ren	-427
emb	-428
sed	-429
▁un	-430
▁mo	-431
ness	-432
▁spark	-433
▁moment	-434
▁decided	-435
▁con	-436
▁warm	-437
ick	-438
ap	-439
owed	-440
▁bl	-441
elf	-442
▁something	-443
se	-444
ey	-445
▁soft	-446
▁em	-447
▁then	-448
ings	-449
▁sc	-450
adow	-451
▁hid	-452
▁even	-453
▁op	-454
ret	-455
▁are	-456
ue	-457
aut	-458
▁how	-459
▁took	-460
▁shin	-461
▁rememb	-462
▁knew	-463
▁fun	-464
▁dr	-465
▁y	-466
ople	-467
▁fore	-468
▁shadow	-469
▁danced	-470
▁tree	-471
▁there	-472
▁down	-473
▁home	-474
▁clos	-475
▁hope	-476
▁beaut	-477
rew	-478
▁people	-479
▁flowers	-480
▁lit	-481
▁away	-482
▁over	-483
▁expl	-484
▁let	-485
arden	-486
▁walked	-487
▁garden	-488
ached	-489
oke	-490
▁did	-491
▁read	-492
▁bu	-493
▁where	-494
▁sad	-495
▁everyone	-496
▁bel	-497
▁sw	-498
▁wind	-499
self	-500
▁than	-501
▁hand	-502
▁sur	-503
ge	-504
other	-505
▁turned	-506
ried	-507
▁wr	-508
aced	-509
▁strange	-510
oin	-511
ning	-512
▁now	-513
▁way	-514
ting	-515
▁tw	-516
ath	-517
▁vill	-518
ita	-519
ink	-520
▁fin	-521
▁rita	-522
▁sat	-523
▁hidden	-524
▁vo	-525
▁sn	-526
▁sec	-527
▁stood	-528
aring	-529
▁app	-530
▁shout	-531
▁fear	-532
ie	-533
tur	-534
▁bo	-535
▁plan	-536
▁have	-537
fter	-538
▁cu	-539
ally	-540
▁lily	-541
▁secret	-542
▁after	-543
▁map	-544
▁bec	-545
▁pain	-546
▁water	-547
▁ali	-548
▁tal	-549
▁full	-550
▁place	-551
▁wa	-552
▁retur	-553
▁happy	-554
▁shouted	-555
▁en	-556
▁strong	-557
▁loved	-558
hip	-559
▁brave	-560
▁little	-561
▁came	-562
bb	-563
▁knowing	-564
▁land	-565
▁colors	-566
▁story	-567
ways	-568
▁fi	-569
ate	-570
▁told	-571
▁curi	-572
▁ste	-573
▁trees	-574
▁need	-575
ect	-576
▁others	-577
▁voice	-578
▁forest	-579
▁always	-580
▁set	-581
▁im	-582
▁make	-583
▁mar	-584
▁life	-585
ish	-586
▁kind	-587
br	-588
▁gather	-589
▁clou	-590
▁long	-591
co	-592
if	-593
▁door	-594
▁whispered	-595
▁share	-596
▁ri	-597
▁own	-598
▁city	-599
dd	-600
▁creature	-601
▁ho	-602
▁shadows	-603
▁sl	-604
ise	-605
▁alone	-606
▁reached	-607
▁hard	-608
▁bir	-609
▁watched	-610
ree	-611
ak	-612
ised	-613
ped	-614
ely	-615
aves	-616
▁dis	-617
▁beauti	-618
▁your	-619
eter	-620
▁opened	-621
ble	-622
▁child	-623
▁held	-624
▁beautiful	-625
▁list	-626
▁ac	-627
▁bot	-628
man	-629
ling	-630
▁soon	-631
▁underst	-632
ass	-633
ite	-634
▁laugh	-635
▁alice	-636
lew	-637
▁some	-638
▁cave	-639
▁rock	-640
ily	-641
▁while	-642
▁stone	-643
ied	-644
▁tall	-645
ence	-646
ated	-647
emor	-648
▁je	-649
hes	-650
▁memor	-651
▁breat	-652
▁remembered	-653
▁must	-654
▁call	-655
▁friendship	-656
ching	-657
▁village	-658
▁jose	-659
▁pic	-660
▁com	-661
ower	-662
▁heard	-663
vered	-664
▁excited	-665
▁bet	-666
▁ran	-667
▁maria	-668
▁true	-669
▁prom	-670
▁or	-671
iet	-672
▁any	-673
iced	-674
ement	-675
▁great	-676
▁fa	-677
ry	-678
▁snow	-679
▁sharing	-680
▁ready	-681
▁many	-682
▁repl	-683
▁sear	-684
▁gold	-685
▁lead	-686
▁smile	-687
pr	-688
▁giant	-689
▁	-690
e	-691
t	-692
a	-693
h	-694
o	-695
i	-696
s	-697
n	-698
r	-699
d	-700
l	-701
u	-702
w	-703
g	-704
.	-705
m	-706
f	-707
c	-708
y	-709
,	-710
p	-711
b	-712
k	-713
"	-714
v	-715
j	-716
!	-717
x	-718
?	-719
'	-720
z	-721
q	-722
;	-723
-	-724
:	-725
0	-726
1	-727
2	-728
3	-729
5	-730
9	-731
8	-732
*	-733
7	-734
4	-735
6	-736
(	-737
)	-738
+	-739
