<unk>	0
<s>	0
</s>	0
<pad>	0
<0x00>	0
<0x01>	0
<0x02>	0
<0x03>	0
<0x04>	0
<0x05>	0
<0x06>	0
<0x07>	0
<0x08>	0
<0x09>	0
<0x0A>	0
<0x0B>	0
<0x0C>	0
<0x0D>	0
<0x0E>	0
<0x0F>	0
<0x10>	0
<0x11>	0
<0x12>	0
<0x13>	0
<0x14>	0
<0x15>	0
<0x16>	0
<0x17>	0
<0x18>	0
<0x19>	0
<0x1A>	0
<0x1B>	0
<0x1C>	0
<0x1D>	0
<0x1E>	0
<0x1F>	0
<0x20>	0
<0x21>	0
<0x22>	0
<0x23>	0
<0x24>	0
<0x25>	0
<0x26>	0
<0x27>	0
<0x28>	0
<0x29>	0
<0x2A>	0
<0x2B>	0
<0x2C>	0
<0x2D>	0
<0x2E>	0
<0x2F>	0
<0x30>	0
<0x31>	0
<0x32>	0
<0x33>	0
<0x34>	0
<0x35>	0
<0x36>	0
<0x37>	0
<0x38>	0
<0x39>	0
<0x3A>	0
<0x3B>	0
<0x3C>	0
<0x3D>	0
<0x3E>	0
<0x3F>	0
<0x40>	0
<0x41>	0
<0x42>	0
<0x43>	0
<0x44>	0
<0x45>	0
<0x46>	0
<0x47>	0
<0x48>	0
<0x49>	0
<0x4A>	0
<0x4B>	0
<0x4C>	0
<0x4D>	0
<0x4E>	0
<0x4F>	0
<0x50>	0
<0x51>	0
<0x52>	0
<0x53>	0
<0x54>	0
<0x55>	0
<0x56>	0
<0x57>	0
<0x58>	0
<0x59>	0
<0x5A>	0
<0x5B>	0
<0x5C>	0
<0x5D>	0
<0x5E>	0
<0x5F>	0
<0x60>	0
<0x61>	0
<0x62>	0
<0x63>	0
<0x64>	0
<0x65>	0
<0x66>	0
<0x67>	0
<0x68>	0
<0x69>	0
<0x6A>	0
<0x6B>	0
<0x6C>	0
<0x6D>	0
<0x6E>	0
<0x6F>	0
<0x70>	0
<0x71>	0
<0x72>	0
<0x73>	0
<0x74>	0
<0x75>	0
<0x76>	0
<0x77>	0
<0x78>	0
<0x79>	0
<0x7A>	0
<0x7B>	0
<0x7C>	0
<0x7D>	0
<0x7E>	0
<0x7F>	0
<0x80>	0
<0x81>	0
<0x82>	0
<0x83>	0
<0x84>	0
<0x85>	0
<0x86>	0
<0x87>	0
<0x88>	0
<0x89>	0
<0x8A>	0
<0x8B>	0
<0x8C>	0
<0x8D>	0
<0x8E>	0
<0x8F>	0
<0x90>	0
<0x91>	0
<0x92>	0
<0x93>	0
<0x94>	0
<0x95>	0
<0x96>	0
<0x97>	0
<0x98>	0
<0x99>	0
<0x9A>	0
<0x9B>	0
<0x9C>	0
<0x9D>	0
<0x9E>	0
<0x9F>	0
<0xA0>	0
<0xA1>	0
<0xA2>	0
<0xA3>	0
<0xA4>	0
<0xA5>	0
<0xA6>	0
<0xA7>	0
<0xA8>	0
<0xA9>	0
<0xAA>	0
<0xAB>	0
<0xAC>	0
<0xAD>	0
<0xAE>	0
<0xAF>	0
<0xB0>	0
<0xB1>	0
<0xB2>	0
<0xB3>	0
<0xB4>	0
<0xB5>	0
<0xB6>	0
<0xB7>	0
<0xB8>	0
<0xB9>	0
<0xBA>	0
<0xBB>	0
<0xBC>	0
<0xBD>	0
<0xBE>	0
<0xBF>	0
<0xC0>	0
<0xC1>	0
<0xC2>	0
<0xC3>	0
<0xC4>	0
<0xC5>	0
<0xC6>	0
<0xC7>	0
<0xC8>	0
<0xC9>	0
<0xCA>	0
<0xCB>	0
<0xCC>	0
<0xCD>	0
<0xCE>	0
<0xCF>	0
<0xD0>	0
<0xD1>	0
<0xD2>	0
<0xD3>	0
<0xD4>	0
<0xD5>	0
<0xD6>	0
<0xD7>	0
<0xD8>	0
<0xD9>	0
<0xDA>	0
<0xDB>	0
<0xDC>	0
<0xDD>	0
<0xDE>	0
<0xDF>	0
<0xE0>	0
<0xE1>	0
<0xE2>	0
<0xE3>	0
<0xE4>	0
<0xE5>	0
<0xE6>	0
<0xE7>	0
<0xE8>	0
<0xE9>	0
<0xEA>	0
<0xEB>	0
<0xEC>	0
<0xED>	0
<0xEE>	0
<0xEF>	0
<0xF0>	0
<0xF1>	0
<0xF2>	0
<0xF3>	0
<0xF4>	0
<0xF5>	0
<0xF6>	0
<0xF7>	0
<0xF8>	0
<0xF9>	0
<0xFA>	0
<0xFB>	0
<0xFC>	0
<0xFD>	0
<0xFE>	0
<0xFF>	0
he	-0
▁t	-1
▁a	-2
▁s	-3
▁the	-4
in	-5
ed	-6
▁w	-7
▁f	-8
re	-9
nd	-10
▁b	-11
▁he	-12
ou	-13
▁l	-14
▁c	-15
it	-16
er	-17
▁o	-18
ing	-19
▁h	-20
ar	-21
▁to	-22
▁m	-23
▁and	-24
at	-25
▁d	-26
is	-27
an	-28
▁p	-29
ll	-30
en	-31
as	-32
or	-33
es	-34
▁g	-35
▁she	-36
▁in	-37
▁th	-38
el	-39
gh	-40
▁they	-41
ow	-42
▁st	-43
▁n	-44
on	-45
▁of	-46
▁e	-47
▁"	-48
ld	-49
ad	-50
▁her	-51
ir	-52
ght	-53
id	-54
et	-55
▁it	-56
om	-57
ac	-58
▁was	-59
ut	-60
ri	-61
▁wit	-62
im	-63
▁with	-64
st	-65
ay	-66
le	-67
▁sh	-68
am	-69
▁be	-70
▁re	-71
▁r	-72
ot	-73
▁as	-74
▁on	-75
▁but	-76
▁j	-77
▁li	-78
al	-79
ly	-80
ic	-81
oo	-82
▁k	-83
ver	-84
her	-85
▁that	-86
ked	-87
ve	-88
▁sa	-89
elt	-90
▁his	-91
▁felt	-92
ound	-93
ill	-94
▁u	-95
▁le	-96
ould	-97
ke	-98
all	-99
you	-100
ent	-101
!"	-102
out	-103
▁had	-104
▁for	-105
art	-106
hed	-107
ind	-108
ag	-109
ure	-110
▁sp	-111
ur	-112
▁wh	-113
pp	-114
▁sm	-115
oy	-116
▁their	-117
▁se	-118
▁we	-119
▁i	-120
▁you	-121
▁fe	-122
▁lo	-123
ant	-124
▁la	-125
il	-126
end	-127
un	-128
os	-129
▁pl	-130
▁not	-131
ust	-132
▁al	-133
▁said	-134
▁tre	-135
▁ne	-136
▁wor	-137
▁ha	-138
▁fri	-139
▁friend	-140
▁him	-141
ore	-142
▁an	-143
▁heart	-144
ain	-145
ered	-146
ide	-147
▁cl	-148
ard	-149
one	-150
ec	-151
▁one	-152
ight	-153
em	-154
▁day	-155
ned	-156
▁ch	-157
▁fl	-158
ft	-159
op	-160
?"	-161
▁so	-162
▁tr	-163
▁at	-164
ark	-165
▁lau	-166
▁could	-167
▁v	-168
ep	-169
▁br	-170
ach	-171
ch	-172
ce	-173
▁gr	-174
▁found	-175
get	-176
▁ab	-177
ought	-178
▁kn	-179
ers	-180
very	-181
reat	-182
ared	-183
ong	-184
▁fr	-185
▁stor	-186
▁whe	-187
▁like	-188
irl	-189
▁ex	-190
ia	-191
,"	-192
ig	-193
gether	-194
▁loo	-195
▁them	-196
▁together	-197
th	-198
▁is	-199
ream	-200
ome	-201
ies	-202
ang	-203
ood	-204
right	-205
▁every	-206
▁friends	-207
▁co	-208
ved	-209
▁feel	-210
us	-211
to	-212
▁dream	-213
▁ar	-214
▁girl	-215
ess	-216
▁ro	-217
ace	-218
▁each	-219
ack	-220
est	-221
king	-222
▁thought	-223
▁bright	-224
den	-225
▁fill	-226
▁were	-227
lp	-228
."	-229
▁can	-230
▁joy	-231
fu	-232
▁about	-233
▁want	-234
▁star	-235
▁up	-236
▁do	-237
rou	-238
▁would	-239
▁from	-240
▁str	-241
▁just	-242
ast	-243
▁into	-244
▁boy	-245
ave	-246
▁ma	-247
ame	-248
▁mia	-249
▁help	-250
nder	-251
av	-252
▁smil	-253
▁wat	-254
▁this	-255
▁light	-256
uel	-257
yes	-258
▁filled	-259
▁back	-260
way	-261
▁leo	-262
ice	-263
▁su	-264
▁find	-265
our	-266
▁out	-267
ful	-268
▁real	-269
ck	-270
and	-271
led	-272
▁looked	-273
▁too	-274
ion	-275
side	-276
ade	-277
▁when	-278
asure	-279
wh	-280
eep	-281
ist	-282
▁treasure	-283
▁sk	-284
▁old	-285
▁feeling	-286
iz	-287
▁wis	-288
▁small	-289
pl	-290
▁eyes	-291
▁ag	-292
▁dan	-293
ther	-294
▁all	-295
▁smiled	-296
▁tim	-297
▁flow	-298
qu	-299
▁saw	-300
▁other	-301
▁happ	-302
amed	-303
agic	-304
▁beg	-305
▁asked	-306
rough	-307
▁through	-308
▁magic	-309
are	-310
▁rem	-311
▁sun	-312
lex	-313
▁tur	-314
▁made	-315
▁alex	-316
▁me	-317
▁ad	-318
hing	-319
▁lear	-320
owing	-321
pped	-322
ous	-323
▁around	-324
own	-325
fe	-326
▁no	-327
▁world	-328
▁creat	-329
▁lost	-330
▁named	-331
ose	-332
▁man	-333
▁play	-334
▁wanted	-335
▁gl	-336
omet	-337
▁exc	-338
▁under	-339
▁cr	-340
▁time	-341
▁pe	-342
ange	-343
▁go	-344
wn	-345
▁night	-346
ip	-347
▁began	-348
▁stars	-349
▁sky	-350
▁pr	-351
ter	-352
▁by	-353
ened	-354
▁hop	-355
▁stories	-356
▁big	-357
▁realiz	-358
we	-359
ull	-360
▁kim	-361
▁dec	-362
▁somet	-363
▁dark	-364
ched	-365
▁if	-366
▁inside	-367
▁sam	-368
ted	-369
▁samuel	-370
▁te	-371
ds	-372
▁dreams	-373
ile	-374
▁ta	-375
vent	-376
▁its	-377
age	-378
▁war	-379
ew	-380
▁what	-381
ven	-382
ghter	-383
dden	-384
▁sudden	-385
▁learned	-386
lor	-387
what	-388
▁color	-389
ity	-390
▁who	-391
um	-392
ook	-393
▁suddenly	-394
▁see	-395
▁danc	-396
▁advent	-397
▁deep	-398
▁qu	-399
▁love	-400
▁laughter	-401
▁adventure	-402
ond	-403
▁my	-404
tle	-405
▁new	-406
▁shared	-407
▁will	-408
ather	-409
▁air	-410
▁che	-411
ided	-412
▁excit	-413
ild	-414
▁mom	-415
▁realized	-416
▁again	-417
▁gi	-418
▁am	-419
▁wal	-420
▁fo	-421
▁more	-422
▁whis	-423
ghed	-424
▁laughed	-425
▁whisp	-426
ren	-427
emb	-428
sed	-429
▁un	-430
▁mo	-431
ness	-432
▁spark	-433
▁moment	-434
▁decided	-435
▁con	-436
▁warm	-437
ick	-438
ap	-439
owed	-440
▁bl	-441
elf	-442
▁something	-443
se	-444
ey	-445
▁soft	-446
▁em	-447
▁then	-448
ings	-449
▁sc	-450
adow	-451
▁hid	-452
▁even	-453
▁op	-454
ret	-455
▁are	-456
ue	-457
aut	-458
▁how	-459
▁took	-460
▁shin	-461
▁rememb	-462
▁knew	-463
▁fun	-464
▁dr	-465
▁y	-466
ople	-467
▁fore	-468
▁shadow	-469
▁danced	-470
▁tree	-471
▁there	-472
▁down	-473
▁home	-474
▁clos	-475
▁hope	-476
▁beaut	-477
rew	-478
▁people	-479
▁flowers	-480
▁lit	-481
▁away	-482
▁over	-483
▁expl	-484
▁let	-485
arden	-486
▁walked	-487
▁garden	-488
ached	-489
oke	-490
▁did	-491
▁read	-492
▁bu	-493
▁where	-494
▁sad	-495
▁everyone	-496
▁bel	-497
▁sw	-498
▁wind	-499
self	-500
▁than	-501
▁hand	-502
▁sur	-503
ge	-504
other	-505
▁turned	-506
ried	-507
▁wr	-508
aced	-509
▁strange	-510
oin	-511
ning	-512
▁now	-513
▁way	-514
ting	-515
▁tw	-516
ath	-517
▁vill	-518
ita	-519
ink	-520
▁fin	-521
▁rita	-522
▁sat	-523
▁hidden	-524
▁vo	-525
▁sn	-526
▁sec	-527
▁stood	-528
aring	-529
▁app	-530
▁shout	-531
▁fear	-532
ie	-533
tur	-534
▁bo	-535
▁plan	-536
▁have	-537
fter	-538
▁cu	-539
ally	-540
▁lily	-541
▁secret	-542
▁after	-543
▁map	-544
▁bec	-545
▁pain	-546
▁water	-547
▁ali	-548
▁tal	-549
▁full	-550
▁place	-551
▁wa	-552
▁retur	-553
▁happy	-554
▁shouted	-555
▁en	-556
▁strong	-557
▁loved	-558
hip	-559
▁brave	-560
▁little	-561
▁came	-562
bb	-563
▁knowing	-564
▁land	-565
▁colors	-566
▁story	-567
ways	-568
▁fi	-569
ate	-570
▁told	-571
▁curi	-572
▁ste	-573
▁trees	-574
▁need	-575
ect	-576
▁others	-577
▁voice	-578
▁forest	-579
▁always	-580
▁set	-581
▁im	-582
▁make	-583
▁mar	-584
▁life	-585
ish	-586
▁kind	-587
br	-588
▁gather	-589
▁clou	-590
▁long	-591
co	-592
if	-593
▁door	-594
▁whispered	-595
▁share	-596
▁ri	-597
▁own	-598
▁city	-599
dd	-600
▁creature	-601
▁ho	-602
▁shadows	-603
▁sl	-604
ise	-605
▁alone	-606
▁reached	-607
▁hard	-608
▁bir	-609
▁watched	-610
ree	-611
ak	-612
ised	-613
ped	-614
ely	-615
aves	-616
▁dis	-617
▁beauti	-618
▁your	-619
eter	-620
▁opened	-621
ble	-622
▁child	-623
▁held	-624
▁beautiful	-625
▁list	-626
▁ac	-627
▁bot	-628
man	-629
ling	-630
▁soon	-631
▁underst	-632
ass	-633
ite	-634
▁laugh	-635
▁alice	-636
lew	-637
▁some	-638
▁cave	-639
▁rock	-640
ily	-641
▁while	-642
▁stone	-643
ied	-644
▁tall	-645
ence	-646
ated	-647
emor	-648
▁je	-649
hes	-650
▁memor	-651
▁breat	-652
▁remembered	-653
▁must	-654
▁call	-655
▁friendship	-656
ching	-657
▁village	-658
▁jose	-659
▁pic	-660
▁com	-661
ower	-662
▁heard	-663
vered	-664
▁excited	-665
▁bet	-666
▁ran	-667
▁maria	-668
▁true	-669
▁prom	-670
▁or	-671
iet	-672
▁any	-673
iced	-674
ement	-675
▁great	-676
▁fa	-677
ry	-678
▁snow	-679
▁sharing	-680
▁ready	-681
▁many	-682
▁repl	-683
▁sear	-684
▁gold	-685
▁lead	-686
▁smile	-687
pr	-688
▁giant	-689
▁part	-690
ove	-691
▁path	-692
▁room	-693
▁foll	-694
▁grew	-695
▁finally	-696
ation	-697
▁book	-698
▁power	-699
▁breath	-700
▁off	-701
▁join	-702
▁jean	-703
▁curious	-704
▁come	-705
let	-706
ward	-707
▁gu	-708
▁storm	-709
▁nodd	-710
▁len	-711
les	-712
▁fly	-713
▁both	-714
▁fam	-715
ial	-716
▁lena	-717
res	-718
▁played	-719
▁stepped	-720
▁nodded	-721
▁surpr	-722
roud	-723
▁only	-724
▁never	-725
▁became	-726
▁cheered	-727
this	-728
▁once	-729
▁spoke	-730
▁end	-731
▁excitement	-732
gg	-733
▁proud	-734
▁rain	-735
ng	-736
igh	-737
oun	-738
▁seem	-739
ear	-740
▁start	-741
▁spec	-742
▁young	-743
▁town	-744
ving	-745
▁special	-746
▁wo	-747
▁wond	-748
ten	-749
▁gathered	-750
▁best	-751
▁pull	-752
▁replied	-753
▁quiet	-754
imb	-755
manuel	-756
▁noticed	-757
oman	-758
▁emmanuel	-759
▁days	-760
▁words	-761
▁woman	-762
▁climb	-763
tain	-764
▁beh	-765
▁fish	-766
▁behind	-767
▁belie	-768
▁face	-769
▁sound	-770
▁explore	-771
az	-772
imm	-773
▁warmth	-774
▁cour	-775
ell	-776
▁heav	-777
▁clouds	-778
▁returned	-779
▁flew	-780
▁past	-781
ank	-782
▁us	-783
▁wish	-784
ering	-785
xt	-786
abb	-787
iness	-788
▁softly	-789
▁still	-790
ny	-791
▁care	-792
▁ground	-793
▁disco	-794
thing	-795
cho	-796
aces	-797
▁wait	-798
▁step	-799
▁closer	-800
be	-801
▁gent	-802
oud	-803
▁inst	-804
▁bef	-805
▁seemed	-806
▁cle	-807
▁hearts	-808
▁before	-809
▁bring	-810
▁car	-811
▁tell	-812
▁echo	-813
▁ship	-814
▁sparkled	-815
▁flower	-816
iny	-817
▁bird	-818
ool	-819
ance	-820
▁fir	-821
▁near	-822
▁river	-823
oss	-824
oom	-825
▁tiny	-826
bot	-827
ne	-828
ourn	-829
eared	-830
ined	-831
▁imag	-832
▁above	-833
▁next	-834
▁take	-835
▁know	-836
so	-837
▁heavy	-838
▁journ	-839
▁robot	-840
ushed	-841
▁met	-842
▁memories	-843
ush	-844
▁family	-845
▁change	-846
▁keep	-847
▁flo	-848
▁fell	-849
▁called	-850
agon	-851
reed	-852
▁cat	-853
▁listened	-854
▁dragon	-855
▁king	-856
▁looking	-857
▁raced	-858
▁journey	-859
als	-860
▁jum	-861
▁swe	-862
▁being	-863
▁spir	-864
▁worked	-865
sp	-866
pt	-867
▁mind	-868
▁spirit	-869
▁slow	-870
ead	-871
▁first	-872
▁work	-873
▁dif	-874
▁wonder	-875
feren	-876
▁sil	-877
▁differen	-878
▁here	-879
▁alive	-880
▁courage	-881
▁magical	-882
▁also	-883
▁outside	-884
▁loud	-885
▁promised	-886
▁inv	-887
▁appeared	-888
▁box	-889
▁things	-890
here	-891
▁remind	-892
▁himself	-893
ort	-894
▁wise	-895
▁secrets	-896
ro	-897
▁instead	-898
▁ide	-899
ine	-900
▁hold	-901
▁glowing	-902
▁sea	-903
assed	-904
▁anne	-905
▁peter	-906
▁brought	-907
▁dance	-908
▁grow	-909
▁good	-910
ks	-911
▁laughing	-912
▁herself	-913
▁try	-914
▁yet	-915
▁key	-916
▁happiness	-917
iv	-918
inking	-919
▁spot	-920
oup	-921
▁mis	-922
▁shiny	-923
▁cast	-924
▁passed	-925
land	-926
▁left	-927
▁kindness	-928
▁ca	-929
▁high	-930
▁slowly	-931
▁colorful	-932
▁hands	-933
▁wondered	-934
aybe	-935
▁showed	-936
▁moon	-937
▁fair	-938
▁tri	-939
▁show	-940
▁din	-941
ouse	-942
ired	-943
▁wall	-944
▁trust	-945
▁free	-946
▁shining	-947
▁open	-948
▁started	-949
▁alien	-950
▁our	-951
▁adventures	-952
▁scared	-953
▁thinking	-954
▁game	-955
ves	-956
▁last	-957
uth	-958
▁team	-959
▁understood	-960
dom	-961
▁sweet	-962
aur	-963
by	-964
▁win	-965
osaur	-966
▁wide	-967
the	-968
▁group	-969
▁quick	-970
▁island	-971
▁picked	-972
used	-973
▁truth	-974
uck	-975
▁wood	-976
▁different	-977
▁making	-978
▁climbed	-979
▁letter	-980
▁fig	-981
▁fad	-982
▁ben	-983
lly	-984
ountain	-985
▁lived	-986
ote	-987
▁figure	-988
la	-989
▁ball	-990
▁far	-991
imes	-992
apped	-993
▁park	-994
▁hill	-995
aw	-996
▁wrote	-997
why	-998
▁weight	-999
ebr	-1000
ost	-1001
acing	-1002
▁think	-1003
▁tou	-1004
▁plant	-1005
▁dinosaur	-1006
▁amaz	-1007
▁ow	-1008
▁grand	-1009
▁followed	-1010
▁conn	-1011
▁tales	-1012
▁song	-1013
▁owl	-1014
▁discovered	-1015
▁hero	-1016
▁waves	-1017
▁cel	-1018
read	-1019
▁cont	-1020
▁art	-1021
▁celebr	-1022
ock	-1023
where	-1024
reng	-1025
▁mus	-1026
▁build	-1027
ash	-1028
imed	-1029
▁children	-1030
▁bloom	-1031
▁streng	-1032
▁kid	-1033
▁strength	-1034
▁year	-1035
day	-1036
▁led	-1037
▁jumped	-1038
▁run	-1039
▁cry	-1040
▁creatures	-1041
▁cold	-1042
▁went	-1043
▁leaves	-1044
abbit	-1045
▁rabbit	-1046
▁been	-1047
▁music	-1048
▁better	-1049
umb	-1050
ught	-1051
▁pir	-1052
▁conf	-1053
▁everything	-1054
▁waiting	-1055
▁dust	-1056
▁pi	-1057
ugg	-1058
ons	-1059
fully	-1060
light	-1061
▁twink	-1062
▁brighter	-1063
▁beauty	-1064
▁shimm	-1065
▁fast	-1066
▁turtle	-1067
ze	-1068
igg	-1069
▁sang	-1070
ited	-1071
▁those	-1072
▁kids	-1073
▁wished	-1074
▁mountain	-1075
▁anim	-1076
▁among	-1077
ken	-1078
▁closed	-1079
avel	-1080
▁create	-1081
▁sometimes	-1082
ept	-1083
orn	-1084
▁should	-1085
ud	-1086
▁toy	-1087
ilt	-1088
ol	-1089
ets	-1090
▁often	-1091
▁chang	-1092
▁fox	-1093
▁ever	-1094
▁travel	-1095
▁moved	-1096
aving	-1097
▁say	-1098
▁food	-1099
▁flying	-1100
ished	-1101
▁appro	-1102
▁sadness	-1103
▁chest	-1104
▁deeper	-1105
mb	-1106
▁pu	-1107
▁glow	-1108
▁without	-1109
laimed	-1110
▁shone	-1111
med	-1112
▁needed	-1113
▁understand	-1114
▁vis	-1115
▁helped	-1116
▁echoed	-1117
▁remember	-1118
▁surprise	-1119
▁dist	-1120
▁explor	-1121
▁lay	-1122
▁exclaimed	-1123
illy	-1124
▁animals	-1125
▁wand	-1126
ions	-1127
ars	-1128
▁space	-1129
opped	-1130
▁empt	-1131
▁another	-1132
▁castle	-1133
idd	-1134
▁dreamed	-1135
▁gas	-1136
ans	-1137
▁quickly	-1138
▁sit	-1139
▁funny	-1140
▁bond	-1141
▁playing	-1142
▁forg	-1143
▁faded	-1144
irr	-1145
▁toward	-1146
▁pres	-1147
▁squ	-1148
rived	-1149
▁lon	-1150
▁agreed	-1151
▁stay	-1152
▁swam	-1153
▁lights	-1154
ough	-1155
▁eag	-1156
▁woods	-1157
ones	-1158
ster	-1159
ross	-1160
▁sing	-1161
▁darkness	-1162
▁across	-1163
▁poin	-1164
▁look	-1165
ained	-1166
▁cre	-1167
▁sail	-1168
▁return	-1169
eath	-1170
ary	-1171
ters	-1172
▁watching	-1173
▁forever	-1174
ix	-1175
▁ent	-1176
ung	-1177
▁glowed	-1178
▁mother	-1179
▁per	-1180
▁beneath	-1181
▁approached	-1182
▁close	-1183
▁floated	-1184
▁oce	-1185
▁blue	-1186
▁sig	-1187
▁landed	-1188
▁sand	-1189
▁piec	-1190
▁stronger	-1191
▁fall	-1192
▁searched	-1193
▁fairy	-1194
▁flick	-1195
▁father	-1196
▁treasures	-1197
▁walls	-1198
▁cho	-1199
▁imp	-1200
▁spotted	-1201
▁silly	-1202
▁head	-1203
ins	-1204
uis	-1205
▁brightly	-1206
ames	-1207
▁des	-1208
▁ocean	-1209
▁gasped	-1210
▁tight	-1211
▁shap	-1212
▁connect	-1213
▁someone	-1214
▁racing	-1215
▁boat	-1216
▁luis	-1217
▁cryst	-1218
▁gentle	-1219
▁today	-1220
round	-1221
but	-1222
▁changed	-1223
▁insp	-1224
▁turn	-1225
▁mix	-1226
umbled	-1227
ashed	-1228
▁idea	-1229
can	-1230
ible	-1231
look	-1232
cked	-1233
▁stones	-1234
▁tried	-1235
▁seen	-1236
▁sen	-1237
▁helping	-1238
▁deter	-1239
▁determ	-1240
▁mat	-1241
▁forward	-1242
sw	-1243
▁hon	-1244
▁answ	-1245
▁within	-1246
▁hoping	-1247
ued	-1248
▁kingdom	-1249
▁eager	-1250
▁dog	-1251
▁trying	-1252
▁forgot	-1253
▁gently	-1254
▁gigg	-1255
▁empty	-1256
▁less	-1257
ected	-1258
▁sparkling	-1259
▁crow	-1260
▁whispers	-1261
▁painted	-1262
for	-1263
▁lonely	-1264
fted	-1265
▁sch	-1266
▁imagined	-1267
lled	-1268
ci	-1269
▁stre	-1270
▁upon	-1271
▁villag	-1272
▁right	-1273
ase	-1274
▁wandered	-1275
▁built	-1276
▁fire	-1277
▁searching	-1278
▁mor	-1279
..	-1280
▁mu	-1281
▁ru	-1282
▁house	-1283
▁along	-1284
▁faced	-1285
▁miss	-1286
▁crew	-1287
ger	-1288
row	-1289
▁arrived	-1290
pping	-1291
▁against	-1292
▁school	-1293
▁window	-1294
thank	-1295
▁joined	-1296
▁leader	-1297
▁shell	-1298
▁villagers	-1299
▁reach	-1300
▁pulled	-1301
▁waved	-1302
ating	-1303
▁side	-1304
ff	-1305
no	-1306
iddle	-1307
irror	-1308
▁mirror	-1309
act	-1310
▁hear	-1311
ug	-1312
maybe	-1313
▁swirl	-1314
omed	-1315
▁knight	-1316
▁leaving	-1317
▁cloud	-1318
▁reve	-1319
▁trick	-1320
▁bree	-1321
ater	-1322
▁cand	-1323
▁reveal	-1324
ival	-1325
▁morning	-1326
▁safe	-1327
▁fiel	-1328
▁fest	-1329
▁might	-1330
osity	-1331
▁butter	-1332
ct	-1333
ged	-1334
▁hur	-1335
▁covered	-1336
▁wee	-1337
▁gift	-1338
▁two	-1339
▁draw	-1340
▁butterf	-1341
▁crowd	-1342
▁cried	-1343
▁leave	-1344
aid	-1345
▁grass	-1346
▁nearby	-1347
▁thick	-1348
▁wave	-1349
ches	-1350
▁games	-1351
▁race	-1352
▁below	-1353
▁stopped	-1354
joy	-1355
▁pushed	-1356
▁bus	-1357
▁festival	-1358
▁realizing	-1359
▁evening	-1360
▁get	-1361
▁fears	-1362
▁shook	-1363
▁di	-1364
▁got	-1365
awn	-1366
▁ed	-1367
▁crystal	-1368
▁breeze	-1369
▁gh	-1370
▁ghost	-1371
come	-1372
reen	-1373
kes	-1374
elled	-1375
▁belong	-1376
▁much	-1377
▁rushed	-1378
▁cap	-1379
▁paint	-1380
▁pro	-1381
▁brother	-1382
▁fight	-1383
▁give	-1384
▁act	-1385
▁created	-1386
▁los	-1387
▁wings	-1388
ination	-1389
▁att	-1390
▁piece	-1391
▁letters	-1392
▁smiling	-1393
use	-1394
▁learn	-1395
▁seed	-1396
allen	-1397
▁believed	-1398
▁twist	-1399
▁challen	-1400
ious	-1401
▁gone	-1402
▁meet	-1403
▁kept	-1404
ture	-1405
▁dancing	-1406
▁stumbled	-1407
▁listen	-1408
▁sunny	-1409
▁import	-1410
▁enjoy	-1411
▁twinkled	-1412
ms	-1413
▁spl	-1414
▁spread	-1415
▁hour	-1416
▁surprised	-1417
▁rush	-1418
ake	-1419
▁wishes	-1420
▁used	-1421
▁edge	-1422
▁note	-1423
▁worried	-1424
▁grandm	-1425
▁dreaming	-1426
▁golden	-1427
▁believe	-1428
aked	-1429
ines	-1430
ester	-1431
▁silence	-1432
els	-1433
▁thri	-1434
▁holding	-1435
ates	-1436
ever	-1437
▁sense	-1438
anger	-1439
oub	-1440
oken	-1441
▁fro	-1442
▁shine	-1443
▁bran	-1444
▁spr	-1445
ices	-1446
▁talked	-1447
zz	-1448
▁jester	-1449
▁curiosity	-1450
▁dusty	-1451
▁shore	-1452
ib	-1453
▁birds	-1454
▁carefully	-1455
ple	-1456
▁sy	-1457
▁pirate	-1458
▁cool	-1459
▁sitting	-1460
▁connection	-1461
▁painting	-1462
▁faces	-1463
▁moments	-1464
▁seek	-1465
▁sounds	-1466
▁explorer	-1467
▁thanked	-1468
▁peace	-1469
▁grabb	-1470
▁fut	-1471
▁guard	-1472
aking	-1473
▁future	-1474
▁flash	-1475
▁bur	-1476
▁inspired	-1477
▁thoughts	-1478
▁sor	-1479
▁anything	-1480
▁follow	-1481
▁mon	-1482
per	-1483
▁wrong	-1484
▁top	-1485
▁red	-1486
▁very	-1487
▁honest	-1488
▁mist	-1489
▁grin	-1490
▁tale	-1491
▁corn	-1492
▁pond	-1493
▁bes	-1494
▁beside	-1495
▁contin	-1496
▁af	-1497
▁caught	-1498
▁riddle	-1499
▁surround	-1500
vous	-1501
▁places	-1502
▁amazing	-1503
▁memory	-1504
▁ideas	-1505
▁smiles	-1506
arth	-1507
▁comp	-1508
▁quest	-1509
▁sho	-1510
▁spent	-1511
▁earth	-1512
▁closely	-1513
▁grandmother	-1514
▁cal	-1515
bow	-1516
tered	-1517
▁candy	-1518
ts	-1519
▁wild	-1520
ork	-1521
▁grabbed	-1522
▁de	-1523
▁mean	-1524
▁maybe	-1525
▁rainbow	-1526
▁ner	-1527
▁prin	-1528
▁later	-1529
ipped	-1530
▁important	-1531
ested	-1532
▁el	-1533
▁planet	-1534
▁stand	-1535
▁finding	-1536
▁has	-1537
▁rocks	-1538
cient	-1539
▁ancient	-1540
mbol	-1541
▁symbol	-1542
do	-1543
▁beach	-1544
▁vi	-1545
▁dri	-1546
▁tears	-1547
▁filling	-1548
▁everywhere	-1549
▁longer	-1550
▁sugg	-1551
▁hours	-1552
▁doub	-1553
▁quietly	-1554
▁didn	-1555
ween	-1556
▁between	-1557
▁songs	-1558
▁nervous	-1559
▁clock	-1560
▁determined	-1561
anted	-1562
▁creating	-1563
▁shi	-1564
▁sist	-1565
▁years	-1566
▁hung	-1567
head	-1568
work	-1569
▁green	-1570
▁fail	-1571
▁broken	-1572
▁rolled	-1573
▁ago	-1574
▁trans	-1575
ugged	-1576
gy	-1577
▁suggested	-1578
▁gem	-1579
▁carry	-1580
een	-1581
▁amazed	-1582
▁bear	-1583
▁party	-1584
▁touched	-1585
▁gave	-1586
▁picture	-1587
▁vall	-1588
▁valley	-1589
▁confused	-1590
▁clever	-1591
▁invis	-1592
▁hat	-1593
▁ref	-1594
▁jew	-1595
▁bloomed	-1596
▁understanding	-1597
▁transfor	-1598
rel	-1599
▁pointed	-1600
▁pa	-1601
▁kite	-1602
▁lighter	-1603
raid	-1604
▁unt	-1605
▁pre	-1606
avor	-1607
▁yelled	-1608
▁weeks	-1609
▁feels	-1610
acked	-1611
▁afraid	-1612
▁running	-1613
▁thrill	-1614
▁tightly	-1615
▁surrounded	-1616
▁happen	-1617
▁bit	-1618
irt	-1619
sh	-1620
▁forgotten	-1621
▁brid	-1622
▁loss	-1623
▁explored	-1624
▁entered	-1625
▁same	-1626
▁known	-1627
▁toys	-1628
▁squir	-1629
uit	-1630
iding	-1631
▁corner	-1632
not	-1633
▁calm	-1634
▁name	-1635
▁squirrel	-1636
▁cook	-1637
▁feather	-1638
▁danger	-1639
▁sister	-1640
▁noise	-1641
▁continued	-1642
▁resp	-1643
▁taking	-1644
▁move	-1645
▁hig	-1646
▁spe	-1647
app	-1648
▁chance	-1649
▁comes	-1650
esc	-1651
▁blew	-1652
▁write	-1653
▁shimmered	-1654
▁explained	-1655
▁soared	-1656
▁invited	-1657
▁pers	-1658
fect	-1659
▁shimmering	-1660
▁bubb	-1661
▁visit	-1662
▁fix	-1663
ause	-1664
▁queen	-1665
▁taught	-1666
▁uni	-1667
▁prot	-1668
▁ahead	-1669
▁fade	-1670
▁bre	-1671
▁rust	-1672
▁don	-1673
▁revealing	-1674
▁distance	-1675
▁z	-1676
▁mountains	-1677
▁finished	-1678
▁reminder	-1679
▁watch	-1680
▁friendly	-1681
▁teamwork	-1682
▁ballo	-1683
▁myster	-1684
▁fruit	-1685
lies	-1686
▁bra	-1687
▁field	-1688
▁tow	-1689
▁ener	-1690
▁embr	-1691
▁bridge	-1692
▁mess	-1693
▁pass	-1694
ls	-1695
ateful	-1696
▁stared	-1697
▁sol	-1698
▁going	-1699
▁these	-1700
▁energy	-1701
▁until	-1702
▁times	-1703
▁perfect	-1704
irc	-1705
▁chill	-1706
▁use	-1707
▁favor	-1708
▁invisible	-1709
ors	-1710
▁lives	-1711
ief	-1712
▁wonders	-1713
▁missed	-1714
▁cha	-1715
▁streets	-1716
▁pap	-1717
▁trapped	-1718
ray	-1719
ots	-1720
▁seeds	-1721
▁forget	-1722
▁fier	-1723
▁planned	-1724
▁showing	-1725
▁mark	-1726
▁hurt	-1727
▁talk	-1728
▁int	-1729
▁refle	-1730
bye	-1731
▁gaz	-1732
▁catch	-1733
▁wisdom	-1734
ory	-1735
▁pirates	-1736
▁tired	-1737
▁favorite	-1738
▁butterfly	-1739
sit	-1740
▁kit	-1741
▁choice	-1742
▁hesit	-1743
▁mach	-1744
▁ench	-1745
▁frog	-1746
▁exploring	-1747
akes	-1748
▁stop	-1749
▁attic	-1750
▁sighed	-1751
▁working	-1752
sure	-1753
▁sign	-1754
▁onto	-1755
▁betray	-1756
▁goodbye	-1757
▁lesson	-1758
▁woke	-1759
▁higher	-1760
▁wore	-1761
▁jewels	-1762
▁touch	-1763
▁blank	-1764
▁circ	-1765
▁jo	-1766
▁add	-1767
▁chas	-1768
▁put	-1769
▁giggled	-1770
▁rec	-1771
▁plants	-1772
▁lake	-1773
▁lift	-1774
▁reminded	-1775
▁grateful	-1776
▁nothing	-1777
▁placed	-1778
▁feet	-1779
iting	-1780
▁strugg	-1781
▁matter	-1782
▁person	-1783
▁spaces	-1784
▁clear	-1785
that	-1786
▁enchanted	-1787
▁wel	-1788
▁jump	-1789
▁sim	-1790
▁rose	-1791
▁enough	-1792
▁bat	-1793
▁promise	-1794
▁lar	-1795
ents	-1796
ab	-1797
▁adm	-1798
▁table	-1799
▁broke	-1800
▁busy	-1801
▁decl	-1802
▁meant	-1803
▁transformed	-1804
▁sunlight	-1805
▁most	-1806
▁stud	-1807
ience	-1808
less	-1809
ire	-1810
▁libr	-1811
kay	-1812
▁pur	-1813
▁captain	-1814
▁po	-1815
hell	-1816
▁because	-1817
▁doubt	-1818
▁aliens	-1819
▁telling	-1820
▁une	-1821
▁save	-1822
▁paper	-1823
▁bravery	-1824
▁coming	-1825
▁pract	-1826
▁really	-1827
ern	-1828
ont	-1829
▁cannot	-1830
▁haun	-1831
▁answer	-1832
▁singing	-1833
▁declared	-1834
pected	-1835
ries	-1836
▁flickered	-1837
▁hugged	-1838
ges	-1839
▁low	-1840
▁silver	-1841
▁glimm	-1842
▁crown	-1843
▁prep	-1844
▁trad	-1845
▁stuck	-1846
▁ur	-1847
▁branches	-1848
▁spaceship	-1849
▁silent	-1850
▁discover	-1851
▁aw	-1852
▁winter	-1853
▁teac	-1854
▁protect	-1855
ject	-1856
▁reminding	-1857
▁arms	-1858
ising	-1859
ibil	-1860
▁echoing	-1861
▁burst	-1862
▁rest	-1863
▁esc	-1864
ich	-1865
▁escap	-1866
▁library	-1867
ike	-1868
▁pret	-1869
▁cheer	-1870
▁guide	-1871
▁rocket	-1872
oh	-1873
▁freed	-1874
ask	-1875
▁disapp	-1876
ier	-1877
ress	-1878
elves	-1879
▁tast	-1880
uff	-1881
▁coins	-1882
▁smell	-1883
▁van	-1884
ature	-1885
▁growing	-1886
arl	-1887
▁twirl	-1888
▁happened	-1889
▁hit	-1890
▁drawn	-1891
▁sailed	-1892
▁well	-1893
acks	-1894
▁fierce	-1895
▁surf	-1896
▁hide	-1897
▁class	-1898
▁dinosaurs	-1899
▁mission	-1900
icked	-1901
▁worlds	-1902
▁hum	-1903
▁bag	-1904
mer	-1905
▁however	-1906
▁soc	-1907
▁anyone	-1908
▁tradit	-1909
▁celebrated	-1910
▁powerful	-1911
aged	-1912
▁neigh	-1913
▁hu	-1914
▁neighb	-1915
▁saying	-1916
▁welc	-1917
...	-1918
ced	-1919
▁happily	-1920
▁del	-1921
▁pour	-1922
▁hesitated	-1923
▁hiding	-1924
▁seas	-1925
▁talking	-1926
▁pressed	-1927
▁coll	-1928
▁moonlight	-1929
▁break	-1930
▁begin	-1931
▁hills	-1932
ump	-1933
▁clu	-1934
antern	-1935
▁ice	-1936
▁why	-1937
▁ones	-1938
▁lantern	-1939
▁shy	-1940
▁worry	-1941
▁shape	-1942
▁heal	-1943
▁moving	-1944
▁whisper	-1945
yond	-1946
▁beyond	-1947
▁anger	-1948
▁challenge	-1949
selves	-1950
▁crept	-1951
▁eagerly	-1952
▁acc	-1953
venge	-1954
▁teacher	-1955
arm	-1956
▁traveled	-1957
▁pan	-1958
▁books	-1959
▁search	-1960
▁does	-1961
▁afterno	-1962
lf	-1963
▁may	-1964
▁distant	-1965
ive	-1966
▁enc	-1967
▁carried	-1968
▁offered	-1969
▁cent	-1970
▁paused	-1971
▁prince	-1972
verse	-1973
▁imagination	-1974
▁rivers	-1975
▁revenge	-1976
▁shapes	-1977
▁twisted	-1978
how	-1979
▁remembering	-1980
▁tremb	-1981
▁fog	-1982
▁ey	-1983
▁lies	-1984
▁sorrow	-1985
▁wonderful	-1986
▁fought	-1987
dy	-1988
▁taken	-1989
cess	-1990
▁though	-1991
▁guiding	-1992
▁ang	-1993
▁nature	-1994
▁center	-1995
▁word	-1996
▁greatest	-1997
▁afternoon	-1998
▁waited	-1999
▁unsure	-2000
▁fing	-2001
▁honesty	-2002
▁feelings	-2003
uly	-2004
▁pet	-2005
▁building	-2006
▁traveler	-2007
▁dug	-2008
ages	-2009
▁few	-2010
▁hopes	-2011
▁believing	-2012
who	-2013
▁clean	-2014
▁leading	-2015
▁lock	-2016
▁walking	-2017
▁lifted	-2018
▁won	-2019
▁universe	-2020
▁clapped	-2021
▁haunted	-2022
ises	-2023
▁pound	-2024
▁winds	-2025
▁voices	-2026
▁tun	-2027
▁truly	-2028
▁slipped	-2029
▁ph	-2030
▁swirled	-2031
▁mouse	-2032
▁stick	-2033
▁cake	-2034
▁simple	-2035
▁monster	-2036
▁puzz	-2037
▁become	-2038
▁packed	-2039
▁vast	-2040
▁bringing	-2041
▁plans	-2042
▁large	-2043
▁abs	-2044
hello	-2045
▁flowed	-2046
▁cookies	-2047
gn	-2048
▁saved	-2049
▁cur	-2050
amp	-2051
▁welcomed	-2052
ushing	-2053
▁escape	-2054
▁using	-2055
▁ended	-2056
▁heroes	-2057
▁supp	-2058
▁stream	-2059
tory	-2060
wow	-2061
▁vanished	-2062
▁teach	-2063
▁leg	-2064
most	-2065
▁sum	-2066
▁snowman	-2067
▁machine	-2068
▁celebration	-2069
▁street	-2070
▁themselves	-2071
ail	-2072
gest	-2073
▁butt	-2074
▁balloon	-2075
ging	-2076
▁surface	-2077
they	-2078
▁which	-2079
▁dawn	-2080
▁paths	-2081
▁pee	-2082
help	-2083
▁speak	-2084
▁almost	-2085
▁roared	-2086
▁hun	-2087
▁bigger	-2088
▁absence	-2089
▁eye	-2090
der	-2091
▁compass	-2092
▁careful	-2093
▁front	-2094
▁dirt	-2095
aps	-2096
▁freedom	-2097
▁spring	-2098
▁standing	-2099
▁tower	-2100
▁encour	-2101
▁foc	-2102
▁sought	-2103
▁couldn	-2104
▁calling	-2105
▁blanket	-2106
▁biggest	-2107
▁hall	-2108
▁warned	-2109
▁rise	-2110
▁fluff	-2111
▁vibr	-2112
▁done	-2113
ibility	-2114
ossed	-2115
▁fingers	-2116
▁wash	-2117
▁sway	-2118
ledge	-2119
▁belonged	-2120
▁robots	-2121
▁sou	-2122
hero	-2123
▁crossed	-2124
▁wishing	-2125
ady	-2126
▁chaos	-2127
▁unco	-2128
▁unl	-2129
▁emer	-2130
▁giving	-2131
▁whispering	-2132
zy	-2133
▁fur	-2134
▁leap	-2135
▁brings	-2136
able	-2137
▁ways	-2138
▁joyful	-2139
set	-2140
▁pri	-2141
▁pages	-2142
yard	-2143
▁knowledge	-2144
vely	-2145
bo	-2146
▁pupp	-2147
▁pat	-2148
vas	-2149
▁line	-2150
▁canvas	-2151
▁butterflies	-2152
red	-2153
▁added	-2154
▁vibrant	-2155
▁loudly	-2156
▁determination	-2157
▁howled	-2158
fl	-2159
ored	-2160
ivity	-2161
▁bench	-2162
▁respons	-2163
ian	-2164
ony	-2165
▁da	-2166
gued	-2167
▁rel	-2168
▁vines	-2169
▁crashed	-2170
▁eas	-2171
▁celebrate	-2172
▁cruel	-2173
▁pearl	-2174
▁ob	-2175
▁unex	-2176
▁pounding	-2177
▁dear	-2178
▁snacks	-2179
▁gri	-2180
▁late	-2181
▁proble	-2182
▁prepared	-2183
▁towards	-2184
▁gathering	-2185
▁fields	-2186
▁creativity	-2187
uring	-2188
▁spirits	-2189
▁worth	-2190
▁unexpected	-2191
▁poured	-2192
▁sank	-2193
▁feast	-2194
▁angry	-2195
▁grant	-2196
▁ign	-2197
▁makes	-2198
▁staring	-2199
▁glass	-2200
▁wid	-2201
wel	-2202
fo	-2203
▁contro	-2204
welcome	-2205
▁ap	-2206
▁doing	-2207
▁flut	-2208
▁remained	-2209
▁self	-2210
amond	-2211
▁diamond	-2212
▁pictures	-2213
▁bad	-2214
▁challenges	-2215
ual	-2216
▁sne	-2217
▁super	-2218
▁faster	-2219
▁okay	-2220
▁stayed	-2221
ops	-2222
hen	-2223
ured	-2224
▁having	-2225
▁ra	-2226
▁embrace	-2227
▁tricks	-2228
▁scary	-2229
owned	-2230
▁sight	-2231
▁presence	-2232
▁creaked	-2233
▁spun	-2234
leep	-2235
▁drawing	-2236
oming	-2237
ember	-2238
▁huge	-2239
ball	-2240
iety	-2241
▁fluffy	-2242
▁thing	-2243
▁looks	-2244
▁awe	-2245
▁buzz	-2246
ground	-2247
resh	-2248
▁drew	-2249
cer	-2250
▁else	-2251
▁pointing	-2252
▁chuck	-2253
▁frowned	-2254
▁form	-2255
▁gazed	-2256
▁hor	-2257
night	-2258
▁summer	-2259
now	-2260
▁famil	-2261
▁walk	-2262
▁wrapped	-2263
▁fresh	-2264
▁ruins	-2265
▁betrayal	-2266
▁ride	-2267
▁society	-2268
▁missing	-2269
ction	-2270
▁loomed	-2271
▁orange	-2272
▁backyard	-2273
▁buried	-2274
▁formed	-2275
ining	-2276
▁shells	-2277
arked	-2278
▁grinned	-2279
▁ask	-2280
▁pretend	-2281
▁saf	-2282
▁pride	-2283
▁casting	-2284
▁pulling	-2285
▁branch	-2286
▁tor	-2287
oth	-2288
▁res	-2289
▁learning	-2290
▁swim	-2291
▁hoped	-2292
ner	-2293
▁liked	-2294
▁turning	-2295
▁ser	-2296
ening	-2297
▁spell	-2298
▁chose	-2299
▁choo	-2300
▁tail	-2301
▁clearing	-2302
▁reaching	-2303
▁chase	-2304
▁coun	-2305
▁brush	-2306
▁planted	-2307
▁longed	-2308
▁son	-2309
▁swirling	-2310
air	-2311
▁snowy	-2312
▁answers	-2313
▁hopped	-2314
▁choices	-2315
▁shaking	-2316
▁oak	-2317
ocked	-2318
▁circle	-2319
▁neighbor	-2320
▁tradition	-2321
▁asking	-2322
ty	-2323
▁apart	-2324
▁ir	-2325
▁pot	-2326
▁floating	-2327
▁greed	-2328
up	-2329
▁sent	-2330
ats	-2331
ths	-2332
▁failure	-2333
af	-2334
▁during	-2335
ord	-2336
▁hair	-2337
▁bed	-2338
▁puppy	-2339
ashing	-2340
ces	-2341
sing	-2342
arr	-2343
▁chir	-2344
▁floor	-2345
▁panic	-2346
▁emerged	-2347
▁bushes	-2348
▁twirled	-2349
▁diamonds	-2350
▁gen	-2351
▁solve	-2352
▁lands	-2353
▁lessons	-2354
▁comm	-2355
▁clues	-2356
▁ind	-2357
▁pen	-2358
▁beast	-2359
kn	-2360
▁ring	-2361
▁following	-2362
▁mer	-2363
▁seeing	-2364
▁enjoyed	-2365
▁peeked	-2366
▁inviting	-2367
▁final	-2368
▁superhero	-2369
▁poss	-2370
▁connected	-2371
will	-2372
▁roots	-2373
▁stret	-2374
▁symbols	-2375
▁exp	-2376
▁fort	-2377
▁mysterious	-2378
▁splashed	-2379
epend	-2380
▁steal	-2381
▁lose	-2382
▁fading	-2383
▁winning	-2384
▁meeting	-2385
▁whole	-2386
val	-2387
▁thief	-2388
▁artist	-2389
▁val	-2390
▁cor	-2391
▁control	-2392
▁shown	-2393
iff	-2394
▁chuckled	-2395
▁bike	-2396
inked	-2397
▁cher	-2398
attered	-2399
known	-2400
▁button	-2401
lph	-2402
▁dolph	-2403
▁flicker	-2404
▁weak	-2405
▁imagining	-2406
▁market	-2407
ope	-2408
apping	-2409
▁mixed	-2410
▁ant	-2411
▁visited	-2412
▁chased	-2413
▁recall	-2414
llow	-2415
▁intri	-2416
▁louder	-2417
▁zoom	-2418
▁smart	-2419
▁excitedly	-2420
▁unknown	-2421
pose	-2422
▁shop	-2423
unch	-2424
mor	-2425
▁purpose	-2426
▁difference	-2427
▁drawings	-2428
▁drifted	-2429
▁cozy	-2430
▁ten	-2431
▁view	-2432
▁beginning	-2433
▁bell	-2434
▁ling	-2435
▁practiced	-2436
▁enjoying	-2437
▁coin	-2438
▁push	-2439
▁creep	-2440
▁lean	-2441
dear	-2442
hood	-2443
arp	-2444
found	-2445
▁hole	-2446
▁finish	-2447
▁trembling	-2448
▁eat	-2449
▁white	-2450
vel	-2451
de	-2452
▁carrying	-2453
bu	-2454
ecting	-2455
▁fruits	-2456
▁pink	-2457
▁turns	-2458
book	-2459
ouble	-2460
▁choose	-2461
▁tools	-2462
▁intrigued	-2463
▁beat	-2464
▁mur	-2465
▁hunt	-2466
▁spin	-2467
▁itself	-2468
▁yourself	-2469
ughter	-2470
▁dig	-2471
▁neck	-2472
chen	-2473
▁kitchen	-2474
ying	-2475
▁storms	-2476
▁struck	-2477
▁nights	-2478
▁focused	-2479
▁yard	-2480
▁test	-2481
▁trouble	-2482
▁tug	-2483
▁train	-2484
just	-2485
▁desp	-2486
▁sunset	-2487
▁newfound	-2488
house	-2489
▁twinkle	-2490
tr	-2491
▁reg	-2492
▁vic	-2493
▁independ	-2494
▁fairies	-2495
▁bottle	-2496
▁flood	-2497
▁splash	-2498
▁blinked	-2499
▁sharp	-2500
▁scr	-2501
sion	-2502
▁lovely	-2503
haps	-2504
▁skill	-2505
▁boun	-2506
▁clot	-2507
▁cost	-2508
omes	-2509
ides	-2510
▁daughter	-2511
▁listening	-2512
▁swimm	-2513
▁bask	-2514
▁confid	-2515
▁princess	-2516
▁ear	-2517
▁wanting	-2518
hy	-2519
▁sib	-2520
▁pock	-2521
▁rang	-2522
▁sque	-2523
▁gifts	-2524
▁sure	-2525
▁washed	-2526
▁three	-2527
▁course	-2528
▁tos	-2529
▁tunn	-2530
▁week	-2531
▁clothes	-2532
▁er	-2533
▁playful	-2534
▁reflection	-2535
▁says	-2536
▁admired	-2537
rance	-2538
▁writ	-2539
▁knelt	-2540
▁min	-2541
▁falling	-2542
▁delight	-2543
▁worries	-2544
▁planets	-2545
▁sleep	-2546
▁oct	-2547
more	-2548
▁battle	-2549
▁page	-2550
▁aloud	-2551
▁responsibility	-2552
▁dim	-2553
▁reflec	-2554
owers	-2555
▁prove	-2556
▁longing	-2557
ale	-2558
▁happening	-2559
opus	-2560
▁leaf	-2561
▁octopus	-2562
▁guardian	-2563
▁project	-2564
ment	-2565
▁pile	-2566
▁glan	-2567
▁pieces	-2568
▁swing	-2569
▁crab	-2570
▁meadow	-2571
▁skies	-2572
▁rival	-2573
▁awa	-2574
▁comet	-2575
ul	-2576
cking	-2577
▁witch	-2578
izard	-2579
▁live	-2580
your	-2581
▁net	-2582
▁sword	-2583
▁digg	-2584
▁gray	-2585
▁flashlight	-2586
▁wizard	-2587
▁rusty	-2588
▁problem	-2589
▁crash	-2590
▁holds	-2591
▁digging	-2592
ps	-2593
▁swayed	-2594
▁amid	-2595
▁poet	-2596
▁bloss	-2597
▁fighting	-2598
▁yes	-2599
▁steps	-2600
▁ple	-2601
vice	-2602
▁shake	-2603
▁chirped	-2604
iday	-2605
▁suc	-2606
▁stroke	-2607
▁rainy	-2608
▁harder	-2609
under	-2610
▁mystery	-2611
▁coo	-2612
▁skin	-2613
▁encouraged	-2614
nic	-2615
▁honor	-2616
▁independence	-2617
▁hopeful	-2618
▁picnic	-2619
▁char	-2620
▁gems	-2621
▁vent	-2622
▁leaned	-2623
▁petals	-2624
▁glimmered	-2625
▁cover	-2626
▁foot	-2627
▁shel	-2628
▁losing	-2629
rem	-2630
▁ears	-2631
my	-2632
▁worn	-2633
▁entrance	-2634
board	-2635
room	-2636
▁chasing	-2637
▁message	-2638
▁anymore	-2639
ities	-2640
▁smelled	-2641
▁clo	-2642
▁dep	-2643
▁object	-2644
▁brav	-2645
▁bush	-2646
▁pocket	-2647
▁uncover	-2648
▁thank	-2649
▁seeking	-2650
▁basket	-2651
col	-2652
▁rep	-2653
▁notes	-2654
▁swimming	-2655
▁twinkling	-2656
▁lingered	-2657
▁roar	-2658
▁middle	-2659
▁hol	-2660
▁lighting	-2661
▁trap	-2662
▁letting	-2663
morrow	-2664
▁tomorrow	-2665
▁horiz	-2666
maid	-2667
▁ann	-2668
cle	-2669
elo	-2670
▁perhaps	-2671
▁given	-2672
▁mermaid	-2673
▁luck	-2674
▁marked	-2675
ift	-2676
▁coral	-2677
▁handed	-2678
▁pushing	-2679
▁goal	-2680
▁facing	-2681
▁revealed	-2682
ived	-2683
▁wolf	-2684
▁taste	-2685
▁horizon	-2686
▁yell	-2687
▁chocol	-2688
ipping	-2689
▁living	-2690
▁holiday	-2691
▁dad	-2692
ations	-2693
▁surprises	-2694
▁crack	-2695
▁hug	-2696
▁widened	-2697
▁feared	-2698
▁belonging	-2699
alf	-2700
▁ve	-2701
▁hungry	-2702
▁rode	-2703
▁knows	-2704
cing	-2705
▁alley	-2706
▁failed	-2707
▁echoes	-2708
▁reading	-2709
ressed	-2710
▁chocolate	-2711
these	-2712
▁questions	-2713
ime	-2714
▁inc	-2715
▁sket	-2716
▁bread	-2717
▁fountain	-2718
▁smo	-2719
▁nice	-2720
▁send	-2721
▁fallen	-2722
▁cross	-2723
▁flour	-2724
▁answered	-2725
▁commun	-2726
▁rum	-2727
▁stage	-2728
▁celebrating	-2729
did	-2730
▁half	-2731
iddles	-2732
▁soul	-2733
▁cheers	-2734
▁warning	-2735
upted	-2736
▁unic	-2737
▁virt	-2738
▁ventured	-2739
▁means	-2740
▁virtual	-2741
▁jokes	-2742
▁homes	-2743
▁sorry	-2744
▁climbing	-2745
▁harm	-2746
▁easy	-2747
tles	-2748
▁guided	-2749
▁zoomed	-2750
oney	-2751
▁riddles	-2752
remember	-2753
▁bubbling	-2754
▁stretched	-2755
▁forgetting	-2756
▁riches	-2757
every	-2758
▁bold	-2759
▁orb	-2760
▁cheerful	-2761
▁replaced	-2762
▁knights	-2763
▁tonight	-2764
▁shot	-2765
▁planning	-2766
▁log	-2767
▁gener	-2768
▁keeper	-2769
▁awaited	-2770
aky	-2771
▁thunder	-2772
▁lines	-2773
lling	-2774
▁shoot	-2775
▁regret	-2776
▁player	-2777
▁cafe	-2778
▁scream	-2779
▁depths	-2780
▁prize	-2781
▁wondering	-2782
▁phot	-2783
▁roo	-2784
▁victory	-2785
iest	-2786
▁hurried	-2787
▁crystals	-2788
somet	-2789
▁bar	-2790
▁apple	-2791
▁history	-2792
▁contest	-2793
▁balloons	-2794
don	-2795
▁grown	-2796
▁smooth	-2797
▁charm	-2798
▁dolphin	-2799
▁base	-2800
▁clue	-2801
▁instant	-2802
▁cut	-2803
▁shr	-2804
▁nest	-2805
▁minut	-2806
▁explorers	-2807
▁flickering	-2808
▁melo	-2809
▁caring	-2810
▁jumping	-2811
▁event	-2812
▁neckl	-2813
▁towns	-2814
fort	-2815
▁mattered	-2816
▁legend	-2817
▁cared	-2818
▁cream	-2819
▁passing	-2820
▁support	-2821
▁cheering	-2822
▁cliff	-2823
▁treats	-2824
▁darkest	-2825
▁endless	-2826
str	-2827
▁fis	-2828
▁snowball	-2829
▁erupted	-2830
iar	-2831
▁scent	-2832
▁hot	-2833
▁tick	-2834
▁screen	-2835
▁recalled	-2836
▁stepping	-2837
ased	-2838
▁second	-2839
▁unicorn	-2840
▁buildings	-2841
▁order	-2842
▁buzzed	-2843
▁fit	-2844
▁necklace	-2845
eds	-2846
aker	-2847
▁sees	-2848
▁takes	-2849
▁spine	-2850
▁thrived	-2851
▁present	-2852
▁sparked	-2853
▁soaring	-2854
▁gre	-2855
▁flooded	-2856
▁comfort	-2857
▁giggling	-2858
▁discovery	-2859
▁enter	-2860
▁relief	-2861
▁stranger	-2862
▁fate	-2863
▁road	-2864
▁community	-2865
▁becoming	-2866
▁shift	-2867
▁lady	-2868
sometimes	-2869
▁threw	-2870
▁villain	-2871
▁locket	-2872
of	-2873
▁finds	-2874
▁dashed	-2875
▁bravely	-2876
▁bal	-2877
ef	-2878
▁pul	-2879
▁parr	-2880
ention	-2881
▁tossed	-2882
▁creeping	-2883
▁rich	-2884
▁odd	-2885
▁chair	-2886
▁port	-2887
ready	-2888
tering	-2889
▁unity	-2890
▁job	-2891
hey	-2892
unk	-2893
▁sticks	-2894
anged	-2895
▁torn	-2896
▁uniqu	-2897
▁mistakes	-2898
▁cra	-2899
▁steep	-2900
▁parrot	-2901
▁disappoin	-2902
▁deer	-2903
▁melt	-2904
▁drink	-2905
▁pudd	-2906
▁shifted	-2907
ales	-2908
▁float	-2909
▁growth	-2910
icy	-2911
olk	-2912
▁giggle	-2913
▁rece	-2914
▁knocked	-2915
▁watered	-2916
▁deser	-2917
▁needs	-2918
▁tension	-2919
▁cla	-2920
▁soar	-2921
▁notebook	-2922
▁decor	-2923
umn	-2924
folk	-2925
▁setting	-2926
▁question	-2927
▁ins	-2928
▁deeply	-2929
▁cup	-2930
▁wander	-2931
▁aut	-2932
▁pick	-2933
▁pondered	-2934
▁egg	-2935
▁townsfolk	-2936
gr	-2937
▁accep	-2938
▁raised	-2939
▁trusted	-2940
ety	-2941
▁pad	-2942
▁trip	-2943
▁shaped	-2944
▁flashed	-2945
▁cherish	-2946
▁feathers	-2947
▁myself	-2948
▁autumn	-2949
▁keeping	-2950
▁anywhere	-2951
▁thr	-2952
▁soil	-2953
▁friendships	-2954
▁grace	-2955
▁guilt	-2956
aren	-2957
▁carr	-2958
▁apples	-2959
▁doors	-2960
▁tunnel	-2961
ho	-2962
away	-2963
▁shooting	-2964
▁urged	-2965
▁square	-2966
▁proudly	-2967
▁students	-2968
▁maps	-2969
▁landing	-2970
lings	-2971
there	-2972
▁steady	-2973
▁mistake	-2974
▁blooming	-2975
▁splashing	-2976
iliz	-2977
okay	-2978
▁disappeared	-2979
▁por	-2980
▁surge	-2981
▁unique	-2982
▁metal	-2983
▁scrat	-2984
▁mural	-2985
▁getting	-2986
▁ord	-2987
▁bark	-2988
flakes	-2989
▁snowflakes	-2990
▁wearing	-2991
▁players	-2992
fall	-2993
▁porch	-2994
▁thinks	-2995
▁images	-2996
oyal	-2997
▁safety	-2998
ustr	-2999
▁unlock	-3000
▁writing	-3001
▁cons	-3002
▁fool	-3003
▁stom	-3004
▁shiver	-3005
ows	-3006
▁wooden	-3007
▁such	-3008
▁leads	-3009
▁rising	-3010
▁practice	-3011
▁exch	-3012
▁smoke	-3013
▁accept	-3014
arents	-3015
▁frustr	-3016
▁faraway	-3017
▁rhy	-3018
▁mine	-3019
▁civ	-3020
▁perfor	-3021
▁civiliz	-3022
▁glit	-3023
▁irony	-3024
▁bite	-3025
▁baker	-3026
▁inspir	-3027
water	-3028
▁leaped	-3029
▁minutes	-3030
▁invent	-3031
▁firef	-3032
▁tied	-3033
▁delic	-3034
▁scales	-3035
▁shelf	-3036
▁waving	-3037
▁ticked	-3038
▁clut	-3039
▁swift	-3040
▁shocked	-3041
▁familiar	-3042
oring	-3043
▁siblings	-3044
▁whatever	-3045
▁despair	-3046
▁machines	-3047
▁promising	-3048
▁eff	-3049
▁wants	-3050
▁scare	-3051
▁trail	-3052
▁trembled	-3053
▁ghosts	-3054
izz	-3055
▁tend	-3056
▁souls	-3057
▁portal	-3058
▁families	-3059
illed	-3060
▁drift	-3061
▁sailor	-3062
▁ill	-3063
▁ren	-3064
irred	-3065
ient	-3066
father	-3067
▁mixing	-3068
▁hats	-3069
oll	-3070
▁stat	-3071
▁scen	-3072
▁collect	-3073
▁scar	-3074
▁tough	-3075
ax	-3076
▁firm	-3077
▁emptiness	-3078
follow	-3079
▁already	-3080
▁defe	-3081
▁swept	-3082
▁dipped	-3083
▁traditions	-3084
▁desk	-3085
▁lonel	-3086
▁circles	-3087
▁united	-3088
▁pie	-3089
▁puzzle	-3090
▁creation	-3091
▁urging	-3092
▁skills	-3093
▁jung	-3094
aster	-3095
▁exper	-3096
▁crying	-3097
▁seasons	-3098
itted	-3099
▁wisely	-3100
▁betrayed	-3101
▁amidst	-3102
▁beamed	-3103
▁doubts	-3104
▁invite	-3105
tell	-3106
▁renew	-3107
▁planting	-3108
ait	-3109
▁pal	-3110
time	-3111
▁compl	-3112
▁shoes	-3113
▁spinning	-3114
▁neighbors	-3115
mates	-3116
▁purple	-3117
▁rhyth	-3118
▁parents	-3119
▁underground	-3120
▁loneliness	-3121
▁troll	-3122
▁studied	-3123
▁childhood	-3124
fish	-3125
▁dest	-3126
▁sigh	-3127
▁jungle	-3128
▁locked	-3129
▁ble	-3130
aled	-3131
▁written	-3132
cil	-3133
▁effort	-3134
▁kitten	-3135
▁struggled	-3136
▁mud	-3137
▁joke	-3138
▁valu	-3139
then	-3140
ually	-3141
eted	-3142
▁dove	-3143
▁civilization	-3144
▁embraced	-3145
▁opening	-3146
▁received	-3147
usion	-3148
▁puzzled	-3149
▁rhythm	-3150
ude	-3151
ource	-3152
▁bake	-3153
▁picking	-3154
ically	-3155
see	-3156
▁success	-3157
▁confident	-3158
using	-3159
▁renewed	-3160
bble	-3161
▁attention	-3162
▁dangerous	-3163
▁yellow	-3164
▁expected	-3165
▁joyfully	-3166
could	-3167
▁club	-3168
▁curiously	-3169
▁gal	-3170
▁pretty	-3171
cast	-3172
▁underwater	-3173
tom	-3174
ucked	-3175
▁item	-3176
ocking	-3177
▁check	-3178
▁discovering	-3179
▁chee	-3180
▁older	-3181
▁paintings	-3182
▁ate	-3183
▁mid	-3184
▁ached	-3185
▁shines	-3186
▁valuable	-3187
▁coat	-3188
▁weeds	-3189
▁serious	-3190
ming	-3191
▁wag	-3192
▁grandfather	-3193
▁uncovered	-3194
▁bubbles	-3195
ru	-3196
▁plot	-3197
▁rac	-3198
▁parts	-3199
▁waters	-3200
▁melody	-3201
▁guarded	-3202
▁breaking	-3203
▁spreading	-3204
▁wet	-3205
ize	-3206
▁reality	-3207
step	-3208
▁ripp	-3209
▁desire	-3210
▁playground	-3211
▁galax	-3212
▁warri	-3213
▁flapped	-3214
key	-3215
▁round	-3216
▁happier	-3217
▁guess	-3218
▁money	-3219
▁trunk	-3220
▁granted	-3221
▁timid	-3222
▁exchanged	-3223
▁astr	-3224
▁beating	-3225
unched	-3226
▁enem	-3227
▁ache	-3228
▁lur	-3229
please	-3230
me	-3231
keep	-3232
▁aud	-3233
▁ris	-3234
▁statue	-3235
▁lunch	-3236
▁announ	-3237
▁exciting	-3238
▁wandering	-3239
ith	-3240
▁signs	-3241
▁vowed	-3242
▁whale	-3243
▁minds	-3244
▁returning	-3245
▁shined	-3246
▁balance	-3247
▁lifting	-3248
▁shelter	-3249
▁reflecting	-3250
▁bubble	-3251
▁birth	-3252
▁cloak	-3253
▁dropped	-3254
▁darker	-3255
▁sto	-3256
▁bust	-3257
▁blend	-3258
▁boxes	-3259
▁raged	-3260
▁dress	-3261
eld	-3262
▁birthday	-3263
▁speed	-3264
aint	-3265
icking	-3266
▁struggle	-3267
ains	-3268
iant	-3269
▁craw	-3270
▁sock	-3271
▁black	-3272
▁acorn	-3273
▁tune	-3274
▁inspire	-3275
oned	-3276
ition	-3277
▁astron	-3278
▁soccer	-3279
▁dull	-3280
▁rules	-3281
▁roamed	-3282
▁accepted	-3283
▁pil	-3284
▁talent	-3285
▁sailing	-3286
▁grows	-3287
▁kites	-3288
▁pencil	-3289
▁possible	-3290
bin	-3291
▁legs	-3292
▁rivalry	-3293
▁distr	-3294
▁moves	-3295
▁astronaut	-3296
ship	-3297
▁har	-3298
▁device	-3299
▁glimmer	-3300
▁audience	-3301
▁weaving	-3302
stay	-3303
▁jelly	-3304
▁short	-3305
▁lanterns	-3306
▁wrapping	-3307
▁encourag	-3308
tled	-3309
▁notice	-3310
▁iron	-3311
▁giants	-3312
inary	-3313
gu	-3314
▁changing	-3315
ized	-3316
▁logic	-3317
▁compan	-3318
together	-3319
▁dragons	-3320
▁screamed	-3321
▁blossomed	-3322
▁desc	-3323
▁backp	-3324
▁confr	-3325
▁keys	-3326
▁flight	-3327
▁overcome	-3328
▁froze	-3329
▁lined	-3330
▁figures	-3331
▁gardens	-3332
▁sparkle	-3333
▁bri	-3334
▁pang	-3335
cious	-3336
▁cracked	-3337
▁passion	-3338
cy	-3339
▁sparkles	-3340
outh	-3341
▁nose	-3342
▁cabin	-3343
▁announced	-3344
▁waterfall	-3345
▁further	-3346
▁bonds	-3347
▁fixed	-3348
▁gripped	-3349
olen	-3350
▁chat	-3351
▁caves	-3352
▁stolen	-3353
vers	-3354
▁threat	-3355
▁pretending	-3356
▁gust	-3357
▁cookie	-3358
▁ter	-3359
▁scattered	-3360
▁baked	-3361
▁member	-3362
▁dare	-3363
▁slipping	-3364
▁teaching	-3365
▁confusion	-3366
itude	-3367
▁racco	-3368
▁safely	-3369
▁bee	-3370
▁mouth	-3371
▁tells	-3372
▁aside	-3373
▁bustling	-3374
umpy	-3375
▁collected	-3376
▁brightened	-3377
▁importance	-3378
ere	-3379
▁rocky	-3380
▁vision	-3381
▁grinning	-3382
ires	-3383
nings	-3384
▁famous	-3385
▁forth	-3386
▁shows	-3387
▁surprising	-3388
▁elder	-3389
▁flowing	-3390
▁sandw	-3391
▁body	-3392
▁faint	-3393
▁crumb	-3394
▁popped	-3395
▁powers	-3396
▁meaning	-3397
▁shoulders	-3398
▁padd	-3399
▁stomach	-3400
▁rustling	-3401
arrow	-3402
▁struggling	-3403
orm	-3404
▁dod	-3405
ilted	-3406
▁duck	-3407
▁roof	-3408
angled	-3409
▁season	-3410
▁ber	-3411
eople	-3412
shine	-3413
angers	-3414
▁unlike	-3415
▁dressed	-3416
▁sadly	-3417
▁lion	-3418
▁lying	-3419
▁impress	-3420
▁sandcast	-3421
ider	-3422
▁ped	-3423
▁point	-3424
▁kicked	-3425
▁rushing	-3426
▁thrilled	-3427
▁tasted	-3428
▁doll	-3429
▁delicious	-3430
chie	-3431
▁men	-3432
▁visions	-3433
oon	-3434
▁photo	-3435
▁younger	-3436
fold	-3437
▁det	-3438
▁caut	-3439
▁dive	-3440
asy	-3441
only	-3442
▁tel	-3443
▁bags	-3444
▁rabbits	-3445
▁firew	-3446
▁forms	-3447
▁respect	-3448
icing	-3449
▁frag	-3450
▁unfold	-3451
▁patience	-3452
zen	-3453
▁towers	-3454
cest	-3455
▁card	-3456
▁rare	-3457
▁monkey	-3458
▁price	-3459
▁resil	-3460
ery	-3461
▁scene	-3462
▁telesc	-3463
ades	-3464
▁grab	-3465
▁glade	-3466
▁early	-3467
▁rough	-3468
▁trusting	-3469
▁tap	-3470
▁frozen	-3471
▁winding	-3472
tor	-3473
▁exist	-3474
▁owner	-3475
ber	-3476
ese	-3477
▁string	-3478
▁brushed	-3479
▁drop	-3480
▁outs	-3481
▁compet	-3482
▁laughs	-3483
▁silently	-3484
▁forming	-3485
▁taller	-3486
▁gn	-3487
▁gle	-3488
tured	-3489
▁bottom	-3490
▁greeted	-3491
▁telescope	-3492
▁frogs	-3493
▁incred	-3494
▁tripped	-3495
next	-3496
▁dimm	-3497
▁scarf	-3498
▁peak	-3499
▁wasn	-3500
▁stormy	-3501
▁backpack	-3502
▁tricky	-3503
▁scratched	-3504
▁dire	-3505
▁eagle	-3506
▁cheese	-3507
▁raccoon	-3508
▁sunshine	-3509
cher	-3510
▁pulsed	-3511
▁sled	-3512
▁halls	-3513
▁gazing	-3514
ife	-3515
▁urge	-3516
▁swung	-3517
aws	-3518
▁hang	-3519
▁shock	-3520
▁admitted	-3521
ddy	-3522
▁walks	-3523
▁crawled	-3524
▁boys	-3525
▁peered	-3526
▁glimmering	-3527
▁lie	-3528
▁ruled	-3529
▁shrugged	-3530
bs	-3531
▁drum	-3532
▁resilience	-3533
arted	-3534
▁arri	-3535
▁problems	-3536
wait	-3537
▁uneasy	-3538
▁cleared	-3539
▁jewel	-3540
▁snail	-3541
▁mask	-3542
▁troub	-3543
▁fu	-3544
▁shimmer	-3545
steps	-3546
▁blocking	-3547
▁struggles	-3548
▁blooms	-3549
▁charac	-3550
izza	-3551
▁harmony	-3552
▁blink	-3553
▁sorce	-3554
▁tallest	-3555
▁whist	-3556
▁appear	-3557
▁warmed	-3558
osen	-3559
▁ban	-3560
▁gate	-3561
▁thanks	-3562
hant	-3563
▁tem	-3564
▁chosen	-3565
▁frustrated	-3566
▁sal	-3567
flowers	-3568
ibilities	-3569
▁inspiration	-3570
▁earl	-3571
▁frown	-3572
▁desert	-3573
▁earlier	-3574
▁pizza	-3575
▁fright	-3576
▁burden	-3577
▁lively	-3578
▁tangled	-3579
▁jar	-3580
▁stirred	-3581
▁beam	-3582
▁brew	-3583
▁meal	-3584
off	-3585
▁rainbows	-3586
▁flames	-3587
▁hollow	-3588
▁narrow	-3589
▁please	-3590
▁tucked	-3591
▁grumpy	-3592
▁smaller	-3593
▁fluttered	-3594
▁match	-3595
▁terri	-3596
▁fireflies	-3597
▁lightning	-3598
oop	-3599
▁warrior	-3600
umin	-3601
▁precious	-3602
▁wear	-3603
▁kis	-3604
▁resting	-3605
▁jud	-3606
▁pump	-3607
▁sly	-3608
▁skate	-3609
▁sending	-3610
▁footsteps	-3611
seen	-3612
▁reef	-3613
▁swelled	-3614
▁unseen	-3615
ouses	-3616
toise	-3617
▁harv	-3618
▁tortoise	-3619
ians	-3620
▁buttons	-3621
asks	-3622
▁task	-3623
▁joked	-3624
▁decide	-3625
▁beep	-3626
▁fre	-3627
ott	-3628
alous	-3629
buried	-3630
▁action	-3631
▁sprink	-3632
▁generosity	-3633
▁bare	-3634
▁gaze	-3635
▁dared	-3636
▁rolling	-3637
te	-3638
rex	-3639
▁pure	-3640
▁curse	-3641
▁greater	-3642
▁jealous	-3643
▁seashell	-3644
▁ironically	-3645
▁houses	-3646
▁disappointed	-3647
ech	-3648
join	-3649
trust	-3650
▁cott	-3651
▁thread	-3652
▁rad	-3653
▁grandma	-3654
▁squeaked	-3655
mon	-3656
▁bow	-3657
▁bitter	-3658
▁stole	-3659
▁bubbled	-3660
▁harvest	-3661
▁peaceful	-3662
▁brightest	-3663
▁conqu	-3664
bles	-3665
speople	-3666
▁ancest	-3667
▁townspeople	-3668
ooped	-3669
▁ringing	-3670
int	-3671
▁actions	-3672
ict	-3673
weed	-3674
▁ants	-3675
ano	-3676
▁lot	-3677
▁sprite	-3678
▁seaweed	-3679
▁midnight	-3680
▁ordinary	-3681
▁responsible	-3682
▁hurry	-3683
▁complet	-3684
▁dreamer	-3685
▁buy	-3686
bbled	-3687
▁expect	-3688
▁reader	-3689
▁treehouse	-3690
ips	-3691
▁beings	-3692
▁dinner	-3693
▁ancestors	-3694
▁galaxy	-3695
▁carrot	-3696
▁twirling	-3697
ical	-3698
▁spilled	-3699
ring	-3700
▁rebu	-3701
▁corners	-3702
▁express	-3703
▁wrap	-3704
▁recip	-3705
▁larger	-3706
peration	-3707
▁possibilities	-3708
▁reflected	-3709
▁lighthouse	-3710
▁camp	-3711
▁grat	-3712
▁sold	-3713
▁sprout	-3714
▁berries	-3715
▁castles	-3716
▁giggles	-3717
▁stealing	-3718
▁gratitude	-3719
▁tear	-3720
▁chick	-3721
▁legends	-3722
▁pretended	-3723
▁force	-3724
▁throw	-3725
▁cautious	-3726
orks	-3727
▁solved	-3728
▁forests	-3729
▁startled	-3730
▁asks	-3731
▁enemy	-3732
▁fishing	-3733
▁windows	-3734
hest	-3735
▁par	-3736
▁starry	-3737
▁neighborhood	-3738
▁blur	-3739
▁board	-3740
▁painter	-3741
▁classroom	-3742
▁confidence	-3743
▁barked	-3744
bank	-3745
▁kne	-3746
alth	-3747
▁block	-3748
▁realm	-3749
▁animal	-3750
▁tea	-3751
▁ruin	-3752
ctions	-3753
ummy	-3754
▁cupc	-3755
▁mush	-3756
▁shade	-3757
▁guards	-3758
▁source	-3759
▁royal	-3760
▁months	-3761
▁ev	-3762
should	-3763
▁wealth	-3764
▁fireworks	-3765
ently	-3766
▁supplies	-3767
▁bicy	-3768
ephant	-3769
▁glanced	-3770
▁mushroom	-3771
▁freely	-3772
▁elephant	-3773
▁lucky	-3774
▁cheeks	-3775
▁shadowy	-3776
▁eng	-3777
▁bouncing	-3778
▁pay	-3779
▁sink	-3780
▁pool	-3781
▁frost	-3782
▁glist	-3783
▁hummed	-3784
▁shield	-3785
▁bug	-3786
▁envel	-3787
▁piano	-3788
▁hers	-3789
▁company	-3790
▁paddled	-3791
▁hardship	-3792
airs	-3793
bec	-3794
osed	-3795
would	-3796
▁stands	-3797
today	-3798
▁fact	-3799
▁melted	-3800
▁foolish	-3801
▁perched	-3802
▁risk	-3803
▁opens	-3804
▁pumpk	-3805
ners	-3806
▁girls	-3807
▁chicken	-3808
▁shouting	-3809
▁glasses	-3810
▁tricked	-3811
▁pill	-3812
▁rustled	-3813
▁classmates	-3814
▁cleaned	-3815
▁emb	-3816
▁size	-3817
▁puzzles	-3818
▁cars	-3819
▁wildly	-3820
▁flourished	-3821
erest	-3822
▁lamp	-3823
ision	-3824
▁proving	-3825
▁continue	-3826
men	-3827
▁cleaning	-3828
aware	-3829
▁unexpectedly	-3830
▁comb	-3831
▁count	-3832
▁darkened	-3833
▁disappear	-3834
▁spoon	-3835
▁unaware	-3836
▁nut	-3837
▁poem	-3838
▁score	-3839
▁whenever	-3840
rupt	-3841
▁rubb	-3842
▁value	-3843
▁riverbank	-3844
▁sandcastle	-3845
▁tag	-3846
▁bicycle	-3847
▁weather	-3848
gar	-3849
▁despite	-3850
line	-3851
▁shattered	-3852
ident	-3853
▁advice	-3854
because	-3855
▁argued	-3856
▁ju	-3857
▁dry	-3858
▁loc	-3859
ushes	-3860
▁misty	-3861
▁embracing	-3862
mos	-3863
mbre	-3864
mbrell	-3865
▁fence	-3866
▁helps	-3867
▁whirl	-3868
▁single	-3869
▁battles	-3870
▁claimed	-3871
▁promises	-3872
▁saving	-3873
▁joining	-3874
▁puddles	-3875
▁streams	-3876
▁umbrell	-3877
▁distract	-3878
▁carved	-3879
▁dangers	-3880
▁healing	-3881
▁wherever	-3882
▁pra	-3883
▁emot	-3884
▁lush	-3885
▁soup	-3886
▁void	-3887
▁imagine	-3888
cl	-3889
hold	-3890
anded	-3891
▁craft	-3892
▁chilly	-3893
▁nowhere	-3894
▁incredible	-3895
▁fisher	-3896
▁master	-3897
▁tapest	-3898
▁buzzing	-3899
▁disc	-3900
--	-3901
▁heads	-3902
▁reply	-3903
▁sneak	-3904
▁cos	-3905
▁candle	-3906
▁breathe	-3907
▁timidly	-3908
▁gloom	-3909
▁oneself	-3910
▁shades	-3911
▁sle	-3912
turing	-3913
▁swall	-3914
▁fragile	-3915
dr	-3916
▁inno	-3917
▁memb	-3918
▁inter	-3919
▁seems	-3920
▁swell	-3921
osaurus	-3922
▁members	-3923
▁whistle	-3924
▁belief	-3925
oted	-3926
▁rustle	-3927
▁confront	-3928
▁goes	-3929
really	-3930
▁catching	-3931
▁illumin	-3932
▁nur	-3933
▁human	-3934
▁outsm	-3935
▁mighty	-3936
▁glory	-3937
▁calmed	-3938
▁calmly	-3939
▁eventually	-3940
ping	-3941
▁swings	-3942
ipp	-3943
▁roll	-3944
▁sick	-3945
▁eating	-3946
ially	-3947
inted	-3948
▁dimmed	-3949
▁storytell	-3950
▁moss	-3951
term	-3952
▁sensed	-3953
▁waking	-3954
▁smallest	-3955
▁collecting	-3956
▁nod	-3957
▁none	-3958
bel	-3959
▁heartbe	-3960
▁snowballs	-3961
▁bun	-3962
pec	-3963
▁pebble	-3964
▁matters	-3965
▁somewhere	-3966
od	-3967
ric	-3968
sol	-3969
▁ships	-3970
▁clutching	-3971
▁invisibility	-3972
once	-3973
ieved	-3974
▁baking	-3975
▁wheels	-3976
▁blossom	-3977
▁relieved	-3978
▁beginnings	-3979
▁anx	-3980
▁guit	-3981
▁slip	-3982
▁shaky	-3983
▁ghostly	-3984
▁hardly	-3985
▁fle	-3986
▁reward	-3987
▁counted	-3988
▁sibling	-3989
bed	-3990
▁surv	-3991
▁court	-3992
▁sniff	-3993
▁sugar	-3994
▁scents	-3995
▁dolphins	-3996
ns	-3997
▁guitar	-3998
espec	-3999
▁bounced	-4000
▁flipped	-4001
▁swiftly	-4002
especially	-4003
▁claim	-4004
▁costum	-4005
▁headed	-4006
▁starts	-4007
▁sensing	-4008
▁brothers	-4009
▁yours	-4010
▁especially	-4011
ison	-4012
▁def	-4013
▁focus	-4014
▁visible	-4015
▁interest	-4016
▁troubles	-4017
▁transform	-4018
▁connecting	-4019
▁stri	-4020
▁horse	-4021
▁settled	-4022
▁approach	-4023
▁sche	-4024
▁begun	-4025
▁begins	-4026
▁sneaky	-4027
▁pale	-4028
▁adding	-4029
▁defeated	-4030
▁asleep	-4031
▁admire	-4032
▁flutter	-4033
▁tool	-4034
▁appla	-4035
▁puddle	-4036
▁tapestry	-4037
▁cherished	-4038
▁incl	-4039
love	-4040
ruptly	-4041
▁abruptly	-4042
▁breathing	-4043
▁cooperation	-4044
▁strongest	-4045
▁glittering	-4046
▁gracefully	-4047
▁warmly	-4048
▁guardians	-4049
▁scored	-4050
▁connections	-4051
▁remain	-4052
▁journeys	-4053
▁perfectly	-4054
ceed	-4055
▁herring	-4056
▁markings	-4057
aby	-4058
olo	-4059
oard	-4060
▁stro	-4061
▁wound	-4062
▁aboard	-4063
▁succeed	-4064
▁messy	-4065
▁phone	-4066
▁teased	-4067
▁wagged	-4068
▁ignoring	-4069
sters	-4070
▁flute	-4071
▁split	-4072
▁slide	-4073
▁trash	-4074
▁swooped	-4075
▁tech	-4076
▁shoulder	-4077
▁x	-4078
▁evil	-4079
▁track	-4080
oid	-4081
▁potion	-4082
▁turtles	-4083
▁palace	-4084
▁candles	-4085
aded	-4086
▁wip	-4087
▁bees	-4088
▁dece	-4089
▁ray	-4090
▁stairs	-4091
▁heartbeat	-4092
eless	-4093
▁chur	-4094
▁plotted	-4095
▁station	-4096
ffe	-4097
happ	-4098
▁sandy	-4099
▁sits	-4100
▁lemon	-4101
▁nervously	-4102
inge	-4103
▁fuel	-4104
ishing	-4105
▁hanging	-4106
stop	-4107
▁gear	-4108
▁pair	-4109
▁boats	-4110
▁crackled	-4111
▁cham	-4112
▁aband	-4113
▁loves	-4114
▁tasty	-4115
▁sketch	-4116
▁growled	-4117
ffee	-4118
▁adv	-4119
▁damp	-4120
▁upset	-4121
▁'	-4122
oses	-4123
▁brac	-4124
▁blocked	-4125
▁anti	-4126
▁cape	-4127
▁heavier	-4128
▁crashing	-4129
reci	-4130
▁achie	-4131
▁click	-4132
▁shouts	-4133
▁afar	-4134
▁trop	-4135
▁coffee	-4136
▁bracel	-4137
▁ticking	-4138
go	-4139
▁cries	-4140
▁pouring	-4141
cap	-4142
▁contr	-4143
▁conquer	-4144
▁umbrella	-4145
while	-4146
▁crops	-4147
▁items	-4148
▁decides	-4149
▁encouraging	-4150
▁eld	-4151
▁area	-4152
▁lung	-4153
▁braver	-4154
▁glided	-4155
▁appreci	-4156
▁paintbr	-4157
its	-4158
▁touching	-4159
she	-4160
with	-4161
▁sin	-4162
▁noises	-4163
ended	-4164
▁ribb	-4165
▁cloaked	-4166
▁keepers	-4167
find	-4168
▁flame	-4169
ivated	-4170
▁patch	-4171
▁sails	-4172
▁applause	-4173
▁balls	-4174
▁hopping	-4175
essed	-4176
▁starting	-4177
▁ing	-4178
▁lab	-4179
▁twinge	-4180
▁wake	-4181
▁blind	-4182
▁ingred	-4183
▁photos	-4184
▁rested	-4185
▁anxious	-4186
▁pressing	-4187
eth	-4188
▁ash	-4189
▁remembers	-4190
ouch	-4191
▁teeth	-4192
▁throne	-4193
▁glances	-4194
▁cursed	-4195
indr	-4196
cience	-4197
▁cities	-4198
▁thankful	-4199
when	-4200
▁clar	-4201
▁raindr	-4202
▁starfish	-4203
ym	-4204
▁arg	-4205
▁gar	-4206
▁doesn	-4207
▁monsters	-4208
▁gras	-4209
ilting	-4210
▁colder	-4211
▁tunnels	-4212
▁overhead	-4213
▁rele	-4214
▁shoe	-4215
▁socks	-4216
▁veget	-4217
▁rumble	-4218
▁changes	-4219
▁sounded	-4220
▁abandoned	-4221
▁coach	-4222
▁recipe	-4223
▁terrible	-4224
▁neat	-4225
▁genie	-4226
▁fixing	-4227
▁sweets	-4228
reck	-4229
▁awoke	-4230
▁lurking	-4231
▁realize	-4232
▁conscience	-4233
▁acts	-4234
▁discus	-4235
▁shovel	-4236
▁spells	-4237
▁crossing	-4238
laim	-4239
▁surged	-4240
▁ignored	-4241
▁competition	-4242
▁knock	-4243
▁glo	-4244
ences	-4245
▁runs	-4246
unning	-4247
▁spots	-4248
▁decorated	-4249
▁cray	-4250
▁pack	-4251
▁frightened	-4252
opes	-4253
stone	-4254
▁bent	-4255
▁meanwhile	-4256
▁dead	-4257
▁desig	-4258
▁respond	-4259
▁web	-4260
▁artif	-4261
▁gained	-4262
▁charming	-4263
▁stillness	-4264
▁grip	-4265
▁checked	-4266
▁shelves	-4267
▁smells	-4268
▁artifact	-4269
▁disappoint	-4270
▁thin	-4271
▁bound	-4272
▁partner	-4273
▁speaking	-4274
▁brightening	-4275
▁shut	-4276
▁tide	-4277
▁closing	-4278
▁cooking	-4279
▁curtain	-4280
▁tip	-4281
▁math	-4282
▁tilted	-4283
▁chamber	-4284
▁highest	-4285
▁trained	-4286
▁characters	-4287
▁paintbrush	-4288
▁defeat	-4289
▁rebuild	-4290
▁covering	-4291
▁skateboard	-4292
ez	-4293
▁bull	-4294
▁scan	-4295
▁lemonade	-4296
hic	-4297
roll	-4298
▁clarity	-4299
rer	-4300
eyed	-4301
▁decision	-4302
loo	-4303
▁awak	-4304
▁gall	-4305
▁news	-4306
▁whim	-4307
▁dares	-4308
▁burned	-4309
▁descri	-4310
▁hooted	-4311
▁org	-4312
▁baby	-4313
▁petal	-4314
▁riding	-4315
▁sights	-4316
▁accident	-4317
▁crunched	-4318
▁offering	-4319
▁rope	-4320
▁gnome	-4321
▁cam	-4322
▁dut	-4323
▁eer	-4324
▁eggs	-4325
▁embarr	-4326
▁envelop	-4327
ables	-4328
▁cris	-4329
▁twig	-4330
▁prepare	-4331
▁pressure	-4332
▁acceptance	-4333
▁experience	-4334
ital	-4335
well	-4336
▁thorn	-4337
▁backward	-4338
▁vegetables	-4339
▁vehic	-4340
▁bought	-4341
▁garage	-4342
▁fake	-4343
▁carrots	-4344
▁flapping	-4345
▁pop	-4346
▁rooft	-4347
▁praised	-4348
▁realizes	-4349
▁capt	-4350
ective	-4351
▁easily	-4352
▁skipped	-4353
▁crumbling	-4354
▁disappointment	-4355
▁env	-4356
ddled	-4357
▁dancer	-4358
▁sorcerer	-4359
▁travelers	-4360
zes	-4361
▁nuts	-4362
▁banan	-4363
▁boots	-4364
▁organ	-4365
▁glistening	-4366
▁fab	-4367
▁coco	-4368
▁loyal	-4369
certain	-4370
▁dances	-4371
▁stall	-4372
▁uncertain	-4373
▁maze	-4374
inting	-4375
▁guilty	-4376
▁clutched	-4377
▁cats	-4378
▁dais	-4379
▁murm	-4380
▁launch	-4381
▁factory	-4382
▁bunny	-4383
▁beautifully	-4384
asc	-4385
ler	-4386
▁drove	-4387
▁church	-4388
▁basketball	-4389
▁trophy	-4390
▁sisters	-4391
▁bracelet	-4392
▁pix	-4393
dream	-4394
ighed	-4395
▁engine	-4396
▁heavily	-4397
▁trickster	-4398
▁gain	-4399
▁snack	-4400
▁helper	-4401
▁sleeping	-4402
▁preparing	-4403
▁dem	-4404
▁wires	-4405
▁explain	-4406
▁journal	-4407
▁patient	-4408
▁pumpkin	-4409
▁radiant	-4410
iches	-4411
▁able	-4412
ses	-4413
igate	-4414
▁glim	-4415
▁pulse	-4416
▁watering	-4417
ane	-4418
▁smir	-4419
▁driven	-4420
▁mysteries	-4421
ato	-4422
▁includ	-4423
ird	-4424
▁ce	-4425
▁fills	-4426
▁spider	-4427
▁sandwiches	-4428
▁reco	-4429
▁roses	-4430
▁flavor	-4431
▁welcome	-4432
igence	-4433
▁names	-4434
▁scroll	-4435
▁emotions	-4436
▁differently	-4437
..."	-4438
▁truths	-4439
▁weighed	-4440
▁rays	-4441
▁crisp	-4442
▁eerie	-4443
▁dodging	-4444
▁glancing	-4445
neath	-4446
▁suit	-4447
▁barn	-4448
▁underneath	-4449
take	-4450
▁rule	-4451
▁haunting	-4452
▁protected	-4453
▁arm	-4454
▁kick	-4455
▁experi	-4456
▁writer	-4457
ah	-4458
▁thud	-4459
▁brill	-4460
▁beeped	-4461
▁complete	-4462
▁beac	-4463
▁marks	-4464
▁mused	-4465
▁since	-4466
▁cul	-4467
▁weave	-4468
▁intell	-4469
▁ting	-4470
▁farmer	-4471
▁fastest	-4472
▁illuminating	-4473
▁av	-4474
isted	-4475
▁fame	-4476
▁dread	-4477
▁growl	-4478
▁curren	-4479
fire	-4480
▁outsmart	-4481
▁ty	-4482
▁gym	-4483
▁happiest	-4484
eddy	-4485
ients	-4486
▁juice	-4487
▁parted	-4488
▁landscap	-4489
▁joys	-4490
▁norm	-4491
▁drops	-4492
▁youth	-4493
▁visiting	-4494
▁mushrooms	-4495
▁embarrassed	-4496
kers	-4497
▁band	-4498
▁scient	-4499
ooky	-4500
play	-4501
orted	-4502
▁escaped	-4503
▁huddled	-4504
▁rumbled	-4505
▁student	-4506
▁deepened	-4507
▁breathless	-4508
▁gad	-4509
▁wheel	-4510
▁gadget	-4511
▁watches	-4512
▁thanking	-4513
▁scientist	-4514
hi	-4515
▁agre	-4516
▁bored	-4517
▁easier	-4518
▁rocked	-4519
▁peeking	-4520
dies	-4521
▁barely	-4522
▁humans	-4523
▁lurked	-4524
▁causing	-4525
wood	-4526
▁cro	-4527
▁cosmos	-4528
▁fluttering	-4529
ex	-4530
ints	-4531
▁wing	-4532
▁flies	-4533
▁twigs	-4534
▁papers	-4535
▁journeyed	-4536
▁ingredients	-4537
▁intelligence	-4538
each	-4539
ezed	-4540
▁lif	-4541
▁normal	-4542
▁post	-4543
▁herbs	-4544
ulet	-4545
▁mod	-4546
▁nav	-4547
solve	-4548
▁jugg	-4549
▁knot	-4550
▁fades	-4551
▁amulet	-4552
▁crafted	-4553
▁amazement	-4554
lit	-4555
▁honey	-4556
▁learns	-4557
▁wicked	-4558
▁obs	-4559
▁inser	-4560
▁teddy	-4561
▁desper	-4562
▁drifting	-4563
▁impressed	-4564
whe	-4565
▁mad	-4566
chief	-4567
▁glee	-4568
▁paws	-4569
▁ropes	-4570
▁tended	-4571
▁mischief	-4572
▁fisherman	-4573
▁cautiously	-4574
▁liz	-4575
▁cove	-4576
▁aster	-4577
▁locks	-4578
▁store	-4579
▁tipto	-4580
▁fold	-4581
▁least	-4582
▁marsh	-4583
▁widely	-4584
▁vehicle	-4585
▁vastness	-4586
▁temple	-4587
▁achieve	-4588
ky	-4589
good	-4590
mall	-4591
▁worm	-4592
▁described	-4593
atch	-4594
▁isn	-4595
▁bones	-4596
▁muddy	-4597
▁teams	-4598
▁decept	-4599
▁greedy	-4600
▁capture	-4601
▁brilliant	-4602
anting	-4603
▁boomed	-4604
▁raindrops	-4605
▁counting	-4606
▁detective	-4607
usk	-4608
▁blow	-4609
▁chef	-4610
▁puff	-4611
▁role	-4612
▁judges	-4613
▁science	-4614
▁sparkly	-4615
ament	-4616
▁glad	-4617
▁sell	-4618
▁camer	-4619
▁begged	-4620
▁patter	-4621
▁culture	-4622
▁marshmall	-4623
kind	-4624
list	-4625
ashes	-4626
vings	-4627
▁spooky	-4628
▁ripples	-4629
▁solving	-4630
▁seashells	-4631
ials	-4632
▁woven	-4633
▁rumors	-4634
▁slight	-4635
▁enveloped	-4636
▁squirrels	-4637
asing	-4638
▁mater	-4639
▁sport	-4640
▁anytime	-4641
▁blending	-4642
▁confessed	-4643
eting	-4644
unching	-4645
▁clicked	-4646
▁sniffed	-4647
▁gallery	-4648
▁asteroid	-4649
▁inserted	-4650
▁sandwich	-4651
▁strolled	-4652
▁wildflowers	-4653
cely	-4654
ately	-4655
▁flag	-4656
▁wrist	-4657
▁triump	-4658
▁fiercely	-4659
tw	-4660
true	-4661
iling	-4662
▁dusk	-4663
▁guid	-4664
▁heat	-4665
▁oven	-4666
▁pies	-4667
▁twisting	-4668
▁treat	-4669
▁kissed	-4670
▁lizard	-4671
▁throwing	-4672
▁max	-4673
▁slightly	-4674
▁unus	-4675
▁guidance	-4676
▁sco	-4677
▁mass	-4678
▁numb	-4679
▁suff	-4680
▁washing	-4681
▁local	-4682
▁blankets	-4683
urous	-4684
▁bend	-4685
▁fasc	-4686
▁camera	-4687
▁sailors	-4688
▁welcoming	-4689
▁adventurous	-4690
▁coup	-4691
▁flap	-4692
▁rooms	-4693
▁encoun	-4694
▁tiptoed	-4695
aped	-4696
▁wink	-4697
listen	-4698
▁cakes	-4699
▁sting	-4700
▁traced	-4701
▁brushes	-4702
▁swaying	-4703
▁duty	-4704
▁kindly	-4705
▁carvings	-4706
▁adventurer	-4707
▁chains	-4708
▁couple	-4709
▁sides	-4710
▁deception	-4711
▁practicing	-4712
▁storyteller	-4713
uct	-4714
back	-4715
looking	-4716
▁caused	-4717
▁crowns	-4718
▁marvel	-4719
▁insisted	-4720
▁fal	-4721
umble	-4722
ilos	-4723
oved	-4724
ilosop	-4725
▁darted	-4726
everance	-4727
▁belongs	-4728
▁philosop	-4729
riend	-4730
▁fascin	-4731
▁brown	-4732
▁wider	-4733
▁valleys	-4734
▁faith	-4735
▁cotton	-4736
▁tender	-4737
▁cleverness	-4738
▁lips	-4739
▁falls	-4740
▁fabric	-4741
▁sleepy	-4742
▁cupcakes	-4743
▁contrad	-4744
▁reclaim	-4745
▁witness	-4746
▁jellyfish	-4747
▁encouragement	-4748
roy	-4749
ycle	-4750
asted	-4751
▁unusual	-4752
▁swallowed	-4753
▁philosopher	-4754
▁perseverance	-4755
ords	-4756
▁crayons	-4757
▁sweetly	-4758
▁teammates	-4759
▁wigg	-4760
▁slept	-4761
▁blocks	-4762
▁destroy	-4763
▁fleeting	-4764
▁murmured	-4765
▁exam	-4766
▁hover	-4767
▁massive	-4768
pent	-4769
▁pear	-4770
▁cart	-4771
▁dough	-4772
▁drinks	-4773
▁gloomy	-4774
▁snowmen	-4775
▁gardener	-4776
▁launched	-4777
▁appreciate	-4778
▁contradict	-4779
▁pilot	-4780
▁daring	-4781
ments	-4782
▁dish	-4783
▁cocoa	-4784
▁ignore	-4785
▁intertw	-4786
▁islands	-4787
▁unfolded	-4788
▁performan	-4789
aight	-4790
ility	-4791
▁rout	-4792
▁shed	-4793
▁diary	-4794
▁pearls	-4795
▁clapping	-4796
▁straight	-4797
▁rap	-4798
▁globe	-4799
▁anyway	-4800
▁bakery	-4801
▁forgive	-4802
▁glitter	-4803
▁movement	-4804
▁training	-4805
ests	-4806
▁tit	-4807
▁hearing	-4808
▁inspiring	-4809
▁instantly	-4810
▁hugs	-4811
eling	-4812
▁thie	-4813
▁grove	-4814
▁snake	-4815
▁signal	-4816
▁gripping	-4817
shop	-4818
▁sta	-4819
▁masks	-4820
▁rooftop	-4821
▁wagging	-4822
▁captured	-4823
ues	-4824
▁feed	-4825
▁richer	-4826
▁sweeter	-4827
▁allowing	-4828
▁beck	-4829
▁tasks	-4830
▁unable	-4831
▁breezes	-4832
▁thieves	-4833
▁materials	-4834
dge	-4835
iec	-4836
empt	-4837
many	-4838
▁farm	-4839
▁reas	-4840
▁tries	-4841
▁parade	-4842
▁strate	-4843
▁firefly	-4844
▁serpent	-4845
▁jealousy	-4846
heard	-4847
▁twil	-4848
▁admir	-4849
▁rowed	-4850
▁scoot	-4851
▁traps	-4852
▁beacon	-4853
▁wilted	-4854
▁frustration	-4855
guing	-4856
▁slowed	-4857
▁soaked	-4858
▁destination	-4859
▁dino	-4860
▁weap	-4861
▁forgi	-4862
▁dreamers	-4863
▁twilight	-4864
▁palm	-4865
▁sets	-4866
▁spend	-4867
▁sneered	-4868
▁squealed	-4869
▁challenged	-4870
ither	-4871
▁plane	-4872
▁whims	-4873
▁artists	-4874
▁shivering	-4875
tre	-4876
▁hint	-4877
▁thro	-4878
▁bells	-4879
▁cooked	-4880
▁recogn	-4881
▁sketched	-4882
▁funn	-4883
lo	-4884
▁detail	-4885
▁landscape	-4886
▁buddy	-4887
▁gifted	-4888
weet	-4889
▁moons	-4890
▁truck	-4891
▁zipped	-4892
▁squeezed	-4893
▁supposed	-4894
▁agreement	-4895
oof	-4896
piec	-4897
▁furry	-4898
▁model	-4899
▁compassion	-4900
io	-4901
aches	-4902
▁study	-4903
▁thorns	-4904
▁scooter	-4905
▁softened	-4906
▁age	-4907
▁sub	-4908
aming	-4909
▁explod	-4910
▁served	-4911
▁cardboard	-4912
▁dreamland	-4913
gged	-4914
▁armor	-4915
▁neared	-4916
▁performance	-4917
▁mot	-4918
▁deck	-4919
▁meals	-4920
▁theirs	-4921
▁throat	-4922
▁tickle	-4923
▁breathed	-4924
▁threatened	-4925
▁decorations	-4926
▁auth	-4927
▁seat	-4928
veness	-4929
▁grasp	-4930
▁ruler	-4931
▁stack	-4932
▁paints	-4933
▁pounded	-4934
▁gummy	-4935
▁finger	-4936
▁pillow	-4937
▁tugged	-4938
▁desperate	-4939
▁gro	-4940
▁bank	-4941
▁agree	-4942
▁boring	-4943
▁happens	-4944
▁directions	-4945
▁generations	-4946
ult	-4947
wind	-4948
▁paw	-4949
ugging	-4950
▁charged	-4951
▁playfully	-4952
▁sketching	-4953
▁fascinated	-4954
drop	-4955
▁calls	-4956
▁races	-4957
▁simpl	-4958
▁hissed	-4959
▁survive	-4960
▁deadline	-4961
grap	-4962
ults	-4963
▁chr	-4964
▁acted	-4965
▁ignite	-4966
▁blurred	-4967
▁marbles	-4968
▁shivered	-4969
▁direction	-4970
box	-4971
▁hi	-4972
oosh	-4973
▁mov	-4974
▁tom	-4975
piece	-4976
▁buck	-4977
▁techn	-4978
▁forces	-4979
▁experiences	-4980
▁dogs	-4981
▁slid	-4982
▁released	-4983
▁superheroes	-4984
mas	-4985
ammed	-4986
▁bits	-4987
▁whirred	-4988
▁exploded	-4989
▁glimp	-4990
▁boldly	-4991
ourceful	-4992
▁cottage	-4993
▁wobbled	-4994
▁captivated	-4995
▁ret	-4996
▁vol	-4997
▁bang	-4998
▁nods	-4999
istmas	-5000
▁elders	-5001
▁winner	-5002
▁gliding	-5003
▁christmas	-5004
▁intertwined	-5005
▁vide	-5006
▁knife	-5007
▁wiser	-5008
▁banana	-5009
▁wounds	-5010
▁arguing	-5011
▁whiskers	-5012
▁clown	-5013
▁grief	-5014
▁squaw	-5015
▁attack	-5016
▁author	-5017
▁strings	-5018
▁shifting	-5019
▁recalling	-5020
even	-5021
▁gives	-5022
▁patterns	-5023
gl	-5024
▁pine	-5025
▁raft	-5026
▁champ	-5027
▁brewed	-5028
▁theater	-5029
▁fine	-5030
▁holes	-5031
▁acting	-5032
▁crumbled	-5033
▁invention	-5034
▁photograp	-5035
▁lad	-5036
▁mice	-5037
▁display	-5038
▁perform	-5039
▁flashlights	-5040
▁forgiveness	-5041
▁resourceful	-5042
jest	-5043
iving	-5044
ology	-5045
▁mend	-5046
▁drank	-5047
▁pedaled	-5048
▁guarding	-5049
▁unlocked	-5050
▁offer	-5051
▁victor	-5052
treasure	-5053
▁deepest	-5054
▁overheard	-5055
▁cage	-5056
▁four	-5057
friend	-5058
▁majest	-5059
▁spoken	-5060
▁rockets	-5061
▁grabbing	-5062
▁flashback	-5063
▁masterpiece	-5064
▁laz	-5065
▁med	-5066
estal	-5067
great	-5068
▁rage	-5069
▁spill	-5070
▁diving	-5071
▁dodged	-5072
▁tingle	-5073
▁tomato	-5074
▁glimpse	-5075
▁panicked	-5076
▁pedestal	-5077
▁ourselves	-5078
▁cheerfully	-5079
mo	-5080
oops	-5081
umbling	-5082
▁icy	-5083
▁goat	-5084
▁comfor	-5085
tersweet	-5086
▁dancers	-5087
▁bittersweet	-5088
ply	-5089
acles	-5090
▁anew	-5091
▁bowl	-5092
▁wist	-5093
▁prank	-5094
mp	-5095
▁tran	-5096
flower	-5097
▁shrank	-5098
▁simply	-5099
▁croaked	-5100
▁intently	-5101
▁capturing	-5102
vale	-5103
umpled	-5104
▁clung	-5105
▁acorns	-5106
▁repres	-5107
▁scheme	-5108
izzy	-5109
▁mag	-5110
▁lazily	-5111
▁prison	-5112
▁crumpled	-5113
▁approaching	-5114
ency	-5115
▁cloth	-5116
▁invest	-5117
▁vanish	-5118
▁strategy	-5119
▁fan	-5120
always	-5121
▁fights	-5122
▁wouldn	-5123
▁combined	-5124
▁gets	-5125
▁footpr	-5126
▁digital	-5127
▁brushing	-5128
▁inventor	-5129
▁streamed	-5130
mate	-5131
▁sac	-5132
irring	-5133
▁trink	-5134
▁concer	-5135
▁scri	-5136
▁summ	-5137
▁hears	-5138
▁comput	-5139
▁grandp	-5140
▁shroud	-5141
▁glinting	-5142
mom	-5143
▁panc	-5144
▁argue	-5145
▁lungs	-5146
▁shyly	-5147
uttered	-5148
▁chimed	-5149
▁sneaked	-5150
▁workshop	-5151
▁jumps	-5152
▁swords	-5153
▁daisies	-5154
▁sprinkled	-5155
ti	-5156
---	-5157
hope	-5158
▁---	-5159
joyed	-5160
▁antic	-5161
▁worse	-5162
▁height	-5163
▁hunter	-5164
▁flavors	-5165
▁numbers	-5166
▁overjoyed	-5167
▁traveling	-5168
foot	-5169
magic	-5170
earing	-5171
▁shipw	-5172
▁kings	-5173
▁unite	-5174
▁barking	-5175
▁noticing	-5176
▁restless	-5177
▁scratching	-5178
top	-5179
▁urg	-5180
▁salt	-5181
vation	-5182
▁ducks	-5183
▁logged	-5184
▁brewing	-5185
▁scu	-5186
taking	-5187
▁shall	-5188
▁purred	-5189
▁melodies	-5190
▁stretching	-5191
▁conc	-5192
▁ends	-5193
▁hars	-5194
keeper	-5195
▁cause	-5196
▁confl	-5197
▁innoc	-5198
chievous	-5199
▁marched	-5200
▁sketchbook	-5201
ums	-5202
▁beard	-5203
▁salty	-5204
▁glance	-5205
▁selling	-5206
▁mischievous	-5207
ores	-5208
acted	-5209
▁refused	-5210
▁muse	-5211
▁mirrors	-5212
▁sunflowers	-5213
ens	-5214
oen	-5215
▁alar	-5216
▁viol	-5217
▁phoen	-5218
▁sculp	-5219
▁imposs	-5220
▁shipwreck	-5221
▁investigate	-5222
▁mysteriously	-5223
▁hues	-5224
▁poor	-5225
▁computer	-5226
▁stunning	-5227
▁collection	-5228
▁hesitation	-5229
▁impossible	-5230
▁accidentally	-5231
▁trem	-5232
▁aimed	-5233
▁fueled	-5234
▁pleaded	-5235
▁resolve	-5236
▁tossing	-5237
▁astronauts	-5238
▁footprints	-5239
▁technology	-5240
arer	-5241
blet	-5242
▁dot	-5243
▁annual	-5244
▁cupcake	-5245
▁fateful	-5246
▁sorceress	-5247
ares	-5248
▁harsh	-5249
▁scoop	-5250
▁ceiling	-5251
▁current	-5252
▁sill	-5253
▁tent	-5254
▁snuck	-5255
▁thrive	-5256
▁phoenix	-5257
▁sweetest	-5258
▁breathtaking	-5259
pe	-5260
▁fed	-5261
▁opp	-5262
shaped	-5263
▁eyebr	-5264
▁grave	-5265
▁winked	-5266
▁confron	-5267
▁replies	-5268
▁teasing	-5269
▁descended	-5270
bl	-5271
mia	-5272
ding	-5273
▁deal	-5274
▁resc	-5275
run	-5276
▁costume	-5277
▁togetherness	-5278
▁transformation	-5279
happy	-5280
▁grey	-5281
▁lied	-5282
▁edges	-5283
▁whoosh	-5284
▁funniest	-5285
▁igniting	-5286
onse	-5287
▁lair	-5288
▁dizzy	-5289
▁chores	-5290
▁costumes	-5291
▁response	-5292
▁simplest	-5293
lake	-5294
oria	-5295
▁bou	-5296
atops	-5297
▁ease	-5298
▁lapped	-5299
▁tablet	-5300
▁rippled	-5301
▁pier	-5302
▁pots	-5303
broken	-5304
▁bouqu	-5305
▁overc	-5306
▁folded	-5307
▁painful	-5308
▁tumbled	-5309
▁tricer	-5310
▁choosing	-5311
▁photograph	-5312
▁triceratops	-5313
form	-5314
iled	-5315
lost	-5316
vill	-5317
▁guessed	-5318
▁hallway	-5319
▁thrilling	-5320
▁reun	-5321
▁clums	-5322
▁alarms	-5323
▁existed	-5324
▁jellybe	-5325
▁staying	-5326
▁dripping	-5327
▁failures	-5328
▁sunflower	-5329
tra	-5330
▁arr	-5331
▁bew	-5332
▁cri	-5333
▁sports	-5334
▁character	-5335
▁protector	-5336
▁gap	-5337
▁ink	-5338
glass	-5339
▁magn	-5340
▁seag	-5341
▁creak	-5342
▁batter	-5343
▁perked	-5344
▁tables	-5345
▁ignited	-5346
▁swinging	-5347
▁trinkets	-5348
shi	-5349
have	-5350
irst	-5351
ville	-5352
▁kiss	-5353
▁agent	-5354
bug	-5355
ggy	-5356
tim	-5357
body	-5358
▁envy	-5359
▁hallow	-5360
▁honored	-5361
▁seagull	-5362
▁demanded	-5363
▁discoveries	-5364
▁mr	-5365
▁skated	-5366
▁convers	-5367
▁chirping	-5368
▁halloween	-5369
▁marshmallows	-5370
ular	-5371
▁bas	-5372
▁spy	-5373
▁enemies	-5374
▁ordered	-5375
▁grumbled	-5376
▁homework	-5377
▁musician	-5378
▁represent	-5379
▁uncertainty	-5380
▁pit	-5381
azing	-5382
bbles	-5383
▁born	-5384
▁mars	-5385
▁strike	-5386
▁pleased	-5387
life	-5388
etime	-5389
flake	-5390
leave	-5391
▁pter	-5392
▁const	-5393
▁extra	-5394
▁firmly	-5395
▁cutting	-5396
▁hugging	-5397
▁peering	-5398
▁towered	-5399
▁plotting	-5400
▁snowflake	-5401
une	-5402
▁bi	-5403
ield	-5404
umped	-5405
▁image	-5406
▁month	-5407
▁piled	-5408
▁steer	-5409
▁bounce	-5410
▁shares	-5411
▁bridges	-5412
▁eyebrow	-5413
▁lifetime	-5414
▁marveled	-5415
llip	-5416
▁lollip	-5417
▁humming	-5418
▁warming	-5419
▁squawked	-5420
fast	-5421
▁twit	-5422
▁lower	-5423
▁panel	-5424
▁reason	-5425
▁senses	-5426
▁spices	-5427
▁surrounding	-5428
▁imaginations	-5429
long	-5430
▁pol	-5431
▁bugs	-5432
▁flat	-5433
▁cheek	-5434
shifter	-5435
▁nobody	-5436
▁faintly	-5437
▁teaches	-5438
▁warnings	-5439
▁alongside	-5440
acc	-5441
cts	-5442
ific	-5443
ivid	-5444
▁eve	-5445
▁craz	-5446
▁pillows	-5447
▁organized	-5448
▁protecting	-5449
▁possibility	-5450
▁stir	-5451
▁unsp	-5452
▁wiped	-5453
▁freeing	-5454
▁differences	-5455
ense	-5456
▁dam	-5457
▁laid	-5458
▁beware	-5459
▁stirring	-5460
▁unspoken	-5461
▁movie	-5462
▁navig	-5463
▁plain	-5464
▁lim	-5465
belie	-5466
▁paid	-5467
▁couch	-5468
▁drown	-5469
▁ladder	-5470
▁tracks	-5471
▁transforming	-5472
fly	-5473
rious	-5474
▁chip	-5475
▁host	-5476
▁poems	-5477
everyone	-5478
▁accepting	-5479
dad	-5480
was	-5481
ants	-5482
▁ass	-5483
▁warn	-5484
▁guests	-5485
kindness	-5486
▁clearly	-5487
▁ribbons	-5488
▁smarter	-5489
▁creations	-5490
▁innovation	-5491
▁encountered	-5492
ara	-5493
accept	-5494
▁gates	-5495
▁satur	-5496
▁handle	-5497
▁twists	-5498
▁ladybug	-5499
▁travels	-5500
▁galaxies	-5501
▁emp	-5502
▁glint	-5503
▁invit	-5504
▁rides	-5505
▁talents	-5506
▁triumph	-5507
▁controls	-5508
▁swelling	-5509
▁mir	-5510
onest	-5511
▁advis	-5512
▁furious	-5513
▁majestic	-5514
kend	-5515
▁sty	-5516
▁consum	-5517
▁weekend	-5518
alk	-5519
amm	-5520
▁failing	-5521
da	-5522
whel	-5523
udged	-5524
▁fulf	-5525
▁cycle	-5526
▁sands	-5527
▁shame	-5528
▁video	-5529
▁ripple	-5530
▁chatted	-5531
▁matched	-5532
▁tilting	-5533
ys	-5534
down	-5535
ples	-5536
▁avo	-5537
aling	-5538
stand	-5539
▁clam	-5540
▁dreamt	-5541
▁overwhel	-5542
▁breakfast	-5543
▁performed	-5544
▁responded	-5545
uh	-5546
▁suns	-5547
▁drums	-5548
▁pause	-5549
▁ponder	-5550
▁handing	-5551
▁wilting	-5552
▁starlight	-5553
▁ast	-5554
shift	-5555
▁grad	-5556
▁sunr	-5557
▁tides	-5558
▁anticip	-5559
▁kneeling	-5560
acceptance	-5561
beam	-5562
tling	-5563
▁bump	-5564
▁fuzz	-5565
▁mail	-5566
▁nightm	-5567
▁ruined	-5568
▁shopkeeper	-5569
▁reflections	-5570
wr	-5571
▁cliffs	-5572
▁rubbed	-5573
▁appears	-5574
▁placing	-5575
▁screens	-5576
happiness	-5577
▁brighten	-5578
▁bursting	-5579
▁expression	-5580
▁threatening	-5581
ives	-5582
open	-5583
▁obser	-5584
▁sheep	-5585
▁sparks	-5586
▁sparky	-5587
▁volcan	-5588
▁clouded	-5589
▁concert	-5590
▁tattered	-5591
▁whirlwind	-5592
aned	-5593
ayed	-5594
▁cups	-5595
▁hast	-5596
▁myst	-5597
▁booth	-5598
▁tribe	-5599
▁works	-5600
▁rubber	-5601
▁hurting	-5602
▁volcano	-5603
▁legendary	-5604
du	-5605
grown	-5606
▁anch	-5607
▁dart	-5608
stroke	-5609
▁wiping	-5610
▁sipping	-5611
▁whipped	-5612
▁heartbroken	-5613
amb	-5614
rie	-5615
free	-5616
want	-5617
▁hel	-5618
▁clap	-5619
▁lone	-5620
▁dimly	-5621
▁uncle	-5622
▁cracks	-5623
▁curled	-5624
▁doorway	-5625
▁examined	-5626
▁studying	-5627
▁overgrown	-5628
rect	-5629
▁airpl	-5630
▁ashamed	-5631
▁beloved	-5632
▁seekers	-5633
▁slammed	-5634
▁arriving	-5635
▁pictured	-5636
▁smoothly	-5637
▁bikes	-5638
▁museum	-5639
▁leaders	-5640
▁nodding	-5641
▁selfish	-5642
▁conflict	-5643
▁sneaking	-5644
▁gum	-5645
▁clay	-5646
▁shark	-5647
▁strum	-5648
▁instin	-5649
▁speaks	-5650
▁transp	-5651
▁daz	-5652
▁fist	-5653
▁mood	-5654
▁temp	-5655
▁blast	-5656
▁weapon	-5657
▁bouquet	-5658
▁crowded	-5659
▁remains	-5660
▁sunrise	-5661
▁zooming	-5662
▁spilling	-5663
▁brushstroke	-5664
cover	-5665
▁mini	-5666
▁fuzzy	-5667
▁moral	-5668
believe	-5669
▁warmer	-5670
▁bravest	-5671
▁scanned	-5672
▁sinking	-5673
▁muttered	-5674
▁bind	-5675
▁stur	-5676
▁bears	-5677
▁cards	-5678
▁dirty	-5679
▁false	-5680
▁ending	-5681
▁stalls	-5682
▁confronted	-5683
▁slice	-5684
▁upside	-5685
▁wobble	-5686
▁kicking	-5687
▁stretch	-5688
astic	-5689
▁	-5690
e	-5691
t	-5692
a	-5693
h	-5694
o	-5695
i	-5696
s	-5697
n	-5698
r	-5699
d	-5700
l	-5701
u	-5702
w	-5703
g	-5704
.	-5705
m	-5706
f	-5707
c	-5708
y	-5709
,	-5710
p	-5711
b	-5712
k	-5713
"	-5714
v	-5715
j	-5716
!	-5717
x	-5718
?	-5719
'	-5720
z	-5721
q	-5722
;	-5723
-	-5724
:	-5725
0	-5726
1	-5727
2	-5728
3	-5729
5	-5730
9	-5731
8	-5732
*	-5733
7	-5734
4	-5735
6	-5736
(	-5737
)	-5738
+	-5739
