<unk>	0
<s>	0
</s>	0
<pad>	0
<0x00>	0
<0x01>	0
<0x02>	0
<0x03>	0
<0x04>	0
<0x05>	0
<0x06>	0
<0x07>	0
<0x08>	0
<0x09>	0
<0x0A>	0
<0x0B>	0
<0x0C>	0
<0x0D>	0
<0x0E>	0
<0x0F>	0
<0x10>	0
<0x11>	0
<0x12>	0
<0x13>	0
<0x14>	0
<0x15>	0
<0x16>	0
<0x17>	0
<0x18>	0
<0x19>	0
<0x1A>	0
<0x1B>	0
<0x1C>	0
<0x1D>	0
<0x1E>	0
<0x1F>	0
<0x20>	0
<0x21>	0
<0x22>	0
<0x23>	0
<0x24>	0
<0x25>	0
<0x26>	0
<0x27>	0
<0x28>	0
<0x29>	0
<0x2A>	0
<0x2B>	0
<0x2C>	0
<0x2D>	0
<0x2E>	0
<0x2F>	0
<0x30>	0
<0x31>	0
<0x32>	0
<0x33>	0
<0x34>	0
<0x35>	0
<0x36>	0
<0x37>	0
<0x38>	0
<0x39>	0
<0x3A>	0
<0x3B>	0
<0x3C>	0
<0x3D>	0
<0x3E>	0
<0x3F>	0
<0x40>	0
<0x41>	0
<0x42>	0
<0x43>	0
<0x44>	0
<0x45>	0
<0x46>	0
<0x47>	0
<0x48>	0
<0x49>	0
<0x4A>	0
<0x4B>	0
<0x4C>	0
<0x4D>	0
<0x4E>	0
<0x4F>	0
<0x50>	0
<0x51>	0
<0x52>	0
<0x53>	0
<0x54>	0
<0x55>	0
<0x56>	0
<0x57>	0
<0x58>	0
<0x59>	0
<0x5A>	0
<0x5B>	0
<0x5C>	0
<0x5D>	0
<0x5E>	0
<0x5F>	0
<0x60>	0
<0x61>	0
<0x62>	0
<0x63>	0
<0x64>	0
<0x65>	0
<0x66>	0
<0x67>	0
<0x68>	0
<0x69>	0
<0x6A>	0
<0x6B>	0
<0x6C>	0
<0x6D>	0
<0x6E>	0
<0x6F>	0
<0x70>	0
<0x71>	0
<0x72>	0
<0x73>	0
<0x74>	0
<0x75>	0
<0x76>	0
<0x77>	0
<0x78>	0
<0x79>	0
<0x7A>	0
<0x7B>	0
<0x7C>	0
<0x7D>	0
<0x7E>	0
<0x7F>	0
<0x80>	0
<0x81>	0
<0x82>	0
<0x83>	0
<0x84>	0
<0x85>	0
<0x86>	0
<0x87>	0
<0x88>	0
<0x89>	0
<0x8A>	0
<0x8B>	0
<0x8C>	0
<0x8D>	0
<0x8E>	0
<0x8F>	0
<0x90>	0
<0x91>	0
<0x92>	0
<0x93>	0
<0x94>	0
<0x95>	0
<0x96>	0
<0x97>	0
<0x98>	0
<0x99>	0
<0x9A>	0
<0x9B>	0
<0x9C>	0
<0x9D>	0
<0x9E>	0
<0x9F>	0
<0xA0>	0
<0xA1>	0
<0xA2>	0
<0xA3>	0
<0xA4>	0
<0xA5>	0
<0xA6>	0
<0xA7>	0
<0xA8>	0
<0xA9>	0
<0xAA>	0
<0xAB>	0
<0xAC>	0
<0xAD>	0
<0xAE>	0
<0xAF>	0
<0xB0>	0
<0xB1>	0
<0xB2>	0
<0xB3>	0
<0xB4>	0
<0xB5>	0
<0xB6>	0
<0xB7>	0
<0xB8>	0
<0xB9>	0
<0xBA>	0
<0xBB>	0
<0xBC>	0
<0xBD>	0
<0xBE>	0
<0xBF>	0
<0xC0>	0
<0xC1>	0
<0xC2>	0
<0xC3>	0
<0xC4>	0
<0xC5>	0
<0xC6>	0
<0xC7>	0
<0xC8>	0
<0xC9>	0
<0xCA>	0
<0xCB>	0
<0xCC>	0
<0xCD>	0
<0xCE>	0
<0xCF>	0
<0xD0>	0
<0xD1>	0
<0xD2>	0
<0xD3>	0
<0xD4>	0
<0xD5>	0
<0xD6>	0
<0xD7>	0
<0xD8>	0
<0xD9>	0
<0xDA>	0
<0xDB>	0
<0xDC>	0
<0xDD>	0
<0xDE>	0
<0xDF>	0
<0xE0>	0
<0xE1>	0
<0xE2>	0
<0xE3>	0
<0xE4>	0
<0xE5>	0
<0xE6>	0
<0xE7>	0
<0xE8>	0
<0xE9>	0
<0xEA>	0
<0xEB>	0
<0xEC>	0
<0xED>	0
<0xEE>	0
<0xEF>	0
<0xF0>	0
<0xF1>	0
<0xF2>	0
<0xF3>	0
<0xF4>	0
<0xF5>	0
<0xF6>	0
<0xF7>	0
<0xF8>	0
<0xF9>	0
<0xFA>	0
<0xFB>	0
<0xFC>	0
<0xFD>	0
<0xFE>	0
<0xFF>	0
.	-2.61647
,	-2.82384
▁the	-2.91734
▁a	-3.54423
▁and	-3.8652
▁to	-4.03095
▁he	-4.11883
▁she	-4.17309
▁they	-4.3035
▁"	-4.37196
▁of	-4.40884
s	-4.42227
▁her	-4.486
▁in	-4.50774
▁it	-4.59147
▁was	-4.60131
▁with	-4.7266
▁but	-4.94382
▁that	-5.05053
▁his	-5.12221
▁felt	-5.13083
▁as	-5.17586
!"	-5.28906
▁had	-5.29259
▁their	-5.46455
▁for	-5.50357
'	-5.58348
ing	-5.59733
▁said	-5.65039
▁on	-5.71081
i	-5.72242
▁one	-5.73828
▁him	-5.79259
ed	-5.80358
▁heart	-5.8248
?"	-5.83996
▁you	-5.83997
▁could	-5.84917
▁i	-5.8616
"	-5.87834
▁not	-5.89608
▁found	-5.91178
▁at	-5.94201
▁like	-5.95349
▁day	-5.95787
▁together	-5.99065
!	-6.02303
▁them	-6.04545
▁be	-6.04919
▁girl	-6.10501
▁each	-6.14159
t	-6.14387
▁were	-6.17176
▁is	-6.17674
▁about	-6.17785
▁would	-6.19887
▁from	-6.20226
▁just	-6.20806
▁into	-6.22109
▁boy	-6.22715
▁joy	-6.23243
▁thought	-6.2347
▁mia	-6.24868
▁this	-6.26534
▁can	-6.26888
."	-6.27789
▁up	-6.30072
▁filled	-6.30346
▁leo	-6.31487
▁looked	-6.35108
▁back	-6.37414
▁friends	-6.38819
▁when	-6.3915
▁find	-6.41672
▁old	-6.42136
▁small	-6.43508
▁eyes	-6.44705
▁smiled	-6.46531
▁feeling	-6.4715
▁saw	-6.47208
▁bright	-6.48852
▁asked	-6.49461
▁through	-6.49756
▁made	-6.5078
▁alex	-6.50861
▁all	-6.51114
▁around	-6.52552
▁light	-6.52626
▁lost	-6.54273
▁named	-6.54355
▁help	-6.54959
▁treasure	-6.5526
▁wanted	-6.55426
▁time	-6.56536
▁night	-6.5875
▁began	-6.59427
▁sky	-6.59728
▁stars	-6.59983
▁by	-6.60104
▁world	-6.60277
▁stories	-6.60443
▁out	-6.60846
▁kim	-6.62314
▁if	-6.64129
▁inside	-6.6435
▁samuel	-6.664
▁dreams	-6.67667
d	-6.68171
▁what	-6.68693
▁an	-6.70369
▁learned	-6.70847
what	-6.70962
▁we	-6.71801
▁love	-6.72291
▁suddenly	-6.72303
▁big	-6.73789
▁laughter	-6.74929
▁who	-6.75713
▁new	-6.76874
▁shared	-6.7731
▁will	-6.77325
▁air	-6.78898
▁realized	-6.79752
▁more	-6.80817
▁magic	-6.81583
▁sun	-6.82329
▁laughed	-6.82359
▁its	-6.83094
?	-6.83943
n	-6.84585
▁decided	-6.84961
▁friend	-6.86229
y	-6.86652
a	-6.87173
▁something	-6.87198
you	-6.87338
▁	-6.88159
▁are	-6.90817
▁home	-6.90915
▁dark	-6.91682
▁took	-6.91703
▁my	-6.92349
▁knew	-6.92682
▁then	-6.93937
▁see	-6.94357
▁danced	-6.94519
▁me	-6.95185
▁down	-6.95499
▁tree	-6.95891
▁every	-6.96385
▁people	-6.97254
er	-6.97305
▁there	-6.97553
▁flowers	-6.985
▁away	-6.98802
▁garden	-6.99339
▁walked	-6.99349
▁hope	-7.00182
▁did	-7.00912
▁moment	-7.01184
m	-7.01516
▁where	-7.01667
▁again	-7.01754
▁everyone	-7.02032
▁do	-7.04086
▁strange	-7.04444
▁turned	-7.048
▁man	-7.04826
ly	-7.06272
▁deep	-7.06754
▁now	-7.07451
▁over	-7.0777
▁even	-7.07892
▁rita	-7.0834
▁hidden	-7.08415
e	-7.08547
▁other	-7.08729
▁stood	-7.09007
p	-7.09066
▁sat	-7.09832
▁adventure	-7.11229
▁water	-7.11253
▁how	-7.1132
▁have	-7.11995
▁way	-7.14298
▁lily	-7.14571
▁no	-7.15368
▁map	-7.15486
▁so	-7.15815
▁place	-7.16067
▁brave	-7.16795
▁full	-7.17128
r	-7.17297
▁happy	-7.17711
▁shouted	-7.18055
▁came	-7.18756
we	-7.19135
▁loved	-7.19521
▁little	-7.20303
▁knowing	-7.21499
▁colors	-7.22306
▁told	-7.23078
▁make	-7.23422
▁voice	-7.2377
▁story	-7.24204
▁life	-7.24951
▁forest	-7.25198
▁always	-7.25207
▁fun	-7.25602
▁trees	-7.257
▁others	-7.26074
▁s	-7.27072
▁under	-7.27939
▁after	-7.28319
▁too	-7.29464
▁own	-7.29646
▁door	-7.29868
▁whispered	-7.29887
▁share	-7.29938
▁city	-7.30443
l	-7.30841
▁shadows	-7.31348
▁alone	-7.3174
▁reached	-7.31925
▁watched	-7.32246
▁go	-7.33965
▁set	-7.34017
▁beautiful	-7.34168
g	-7.3441
▁cave	-7.34686
▁fear	-7.34739
▁opened	-7.35453
▁held	-7.36252
▁star	-7.37198
▁soon	-7.37331
▁than	-7.3822
▁sad	-7.38502
▁alice	-7.38797
▁stone	-7.39908
▁while	-7.40591
▁must	-7.42376
▁remembered	-7.42504
o	-7.42514
▁want	-7.42635
▁friendship	-7.4268
▁village	-7.42691
▁hard	-7.43434
▁breath	-7.43669
▁jose	-7.43687
▁your	-7.44184
▁wind	-7.44335
▁heard	-7.44402
▁ran	-7.45105
▁maria	-7.45507
▁tall	-7.456
▁true	-7.45612
▁warm	-7.46967
;	-7.46976
▁smile	-7.47096
▁sharing	-7.47965
▁ready	-7.48058
c	-7.48178
▁many	-7.48183
▁giant	-7.48579
▁come	-7.49445
▁room	-7.49586
▁grew	-7.49778
▁soft	-7.49951
▁finally	-7.50236
▁jean	-7.51082
▁both	-7.52629
▁lena	-7.5335
▁stepped	-7.5361
▁nodded	-7.5365
▁played	-7.53811
▁spoke	-7.54069
▁never	-7.54749
it	-7.54809
let	-7.55107
▁became	-7.55178
▁only	-7.55252
▁cheered	-7.5542
this	-7.55465
▁fish	-7.5551
▁once	-7.55682
▁feel	-7.56021
▁excited	-7.56146
▁excitement	-7.56252
▁hand	-7.57056
▁curious	-7.57191
▁dream	-7.5725
▁strong	-7.58055
▁young	-7.58766
▁special	-7.58976
▁gathered	-7.5966
-	-7.59858
▁best	-7.60002
▁replied	-7.60074
▁noticed	-7.60313
▁emmanuel	-7.60605
▁face	-7.61246
▁woman	-7.61386
▁words	-7.61546
▁behind	-7.6208
▁storm	-7.62199
▁long	-7.62762
▁take	-7.63065
▁warmth	-7.63175
▁wish	-7.63604
▁flew	-7.63831
▁returned	-7.63972
▁past	-7.64033
▁clouds	-7.64077
▁proud	-7.64136
▁power	-7.64475
▁path	-7.64487
▁great	-7.65445
▁softly	-7.65558
▁still	-7.65782
▁ground	-7.6627
w	-7.66655
▁days	-7.67106
▁closer	-7.6759
▁bring	-7.67739
▁flower	-7.68099
▁bird	-7.6826
▁seemed	-7.68456
▁before	-7.68861
▁play	-7.68876
▁sparkled	-7.69276
▁book	-7.70069
▁change	-7.70284
▁tiny	-7.70565
▁off	-7.71287
▁ship	-7.7142
▁need	-7.71816
▁town	-7.7197
▁above	-7.72157
▁next	-7.72186
▁heavy	-7.72772
▁being	-7.73223
▁memories	-7.73862
▁family	-7.73942
▁fell	-7.74378
▁called	-7.74431
▁listened	-7.75089
b	-7.75165
u	-7.75372
▁dance	-7.75424
▁dragon	-7.75678
▁raced	-7.76232
▁journey	-7.76275
▁looking	-7.76351
▁hearts	-7.76654
▁am	-7.76853
▁worked	-7.77207
▁mind	-7.77769
▁step	-7.77995
▁first	-7.78479
▁sea	-7.78993
▁outside	-7.79154
▁wise	-7.79571
▁magical	-7.80131
▁alive	-7.80365
▁courage	-7.80384
▁work	-7.8046
▁also	-7.80655
▁free	-7.80692
▁promised	-7.81178
▁appeared	-7.81182
▁himself	-7.82095
▁things	-7.82117
▁instead	-7.83055
es	-7.83701
▁met	-7.83806
▁secrets	-7.83906
▁secret	-7.83967
▁here	-7.84233
▁real	-7.84326
f	-7.84629
▁high	-7.84679
▁part	-7.84748
▁anne	-7.84763
▁end	-7.84767
▁glowing	-7.848
▁land	-7.84839
▁peter	-7.85123
▁us	-7.85145
▁brought	-7.85335
▁herself	-7.86418
▁laughing	-7.86502
▁yet	-7.86581
▁key	-7.86708
▁happiness	-7.86765
re	-7.87301
▁shiny	-7.87806
▁gold	-7.88094
▁some	-7.88113
▁passed	-7.88403
▁wide	-7.88499
▁left	-7.88628
▁kindness	-7.88746
▁show	-7.88751
▁slowly	-7.8904
▁colorful	-7.89161
▁box	-7.89369
▁wondered	-7.90027
▁creature	-7.90252
▁b	-7.90442
▁showed	-7.9074
▁or	-7.91499
▁sweet	-7.91936
▁game	-7.92032
▁open	-7.92077
▁shining	-7.92292
▁robot	-7.92568
▁started	-7.9259
or	-7.92594
▁hands	-7.93047
▁scared	-7.93222
▁last	-7.93623
k	-7.93639
▁thinking	-7.93676
▁understood	-7.94087
▁t	-7.94454
▁p	-7.94947
▁adventures	-7.95721
▁our	-7.95788
▁quiet	-7.9593
▁grow	-7.9631
▁group	-7.96817
▁tell	-7.9689
▁island	-7.97181
▁picked	-7.97538
▁spirit	-7.97665
▁letter	-7.97977
▁let	-7.98037
▁truth	-7.98114
▁different	-7.98451
▁c	-7.98814
▁making	-7.9885
▁river	-7.98863
▁climbed	-7.99122
▁plan	-7.99561
▁keep	-7.99586
▁park	-7.99831
▁figure	-7.99997
▁join	-8.00088
ra	-8.00191
▁lived	-8.00413
en	-8.01067
in	-8.01152
▁wrote	-8.01578
why	-8.01591
▁weight	-8.01737
▁rock	-8.0197
▁think	-8.02014
▁spark	-8.02737
▁trust	-8.02977
▁rain	-8.0364
▁far	-8.03918
▁followed	-8.04107
▁sound	-8.04736
▁tales	-8.04865
▁know	-8.04866
▁owl	-8.04961
▁kind	-8.05053
▁discovered	-8.05327
▁explore	-8.05557
▁waves	-8.06496
▁turtle	-8.07503
▁children	-8.07615
▁strength	-8.07749
▁snow	-8.07944
al	-8.08197
▁led	-8.08925
▁jumped	-8.09155
▁cold	-8.0994
▁went	-8.10033
▁rabbit	-8.104
ar	-8.10451
▁creatures	-8.10738
▁been	-8.10799
▁leaves	-8.10999
▁better	-8.11245
▁shadow	-8.11255
▁everything	-8.11922
▁waiting	-8.12037
le	-8.12677
▁create	-8.13163
▁beauty	-8.13182
▁brighter	-8.13616
▁sang	-8.14063
▁those	-8.14171
▁child	-8.14422
▁kids	-8.14902
▁music	-8.15085
▁remember	-8.15264
▁among	-8.15266
▁wished	-8.15396
▁closed	-8.15417
▁sometimes	-8.15754
▁should	-8.15991
▁castle	-8.1667
▁often	-8.16881
▁return	-8.16932
▁fox	-8.17407
▁ever	-8.17659
:	-8.18164
▁moved	-8.18267
▁wonder	-8.1935
▁food	-8.19518
▁cat	-8.1974
▁glow	-8.19912
▁flying	-8.19922
▁sadness	-8.20239
▁chest	-8.20266
▁surprise	-8.20655
▁deeper	-8.20684
▁without	-8.21066
▁shone	-8.21225
▁space	-8.21264
▁echoed	-8.21854
▁needed	-8.21862
▁moon	-8.22128
▁read	-8.22865
▁lay	-8.2287
▁exclaimed	-8.22883
▁near	-8.22935
▁loud	-8.23241
▁animals	-8.23246
▁helped	-8.23297
▁close	-8.24216
▁good	-8.24362
at	-8.247
▁fly	-8.2472
▁another	-8.24902
is	-8.24989
ch	-8.25495
▁dreamed	-8.25616
▁quickly	-8.25625
▁funny	-8.25638
▁bond	-8.25664
▁faded	-8.2595
▁toward	-8.26014
▁playing	-8.26455
▁thank	-8.26489
▁look	-8.26723
▁agreed	-8.26933
▁swam	-8.27016
▁blue	-8.28015
▁woods	-8.28188
▁darkness	-8.28201
▁across	-8.28318
▁alien	-8.28836
▁forever	-8.2959
▁watching	-8.29611
look	-8.29631
▁mother	-8.29734
▁lead	-8.29844
▁beneath	-8.2993
▁glowed	-8.29955
▁approached	-8.29985
▁ocean	-8.30183
▁floated	-8.30221
▁f	-8.30322
▁stronger	-8.31081
▁landed	-8.31111
▁searched	-8.31251
▁fairy	-8.31285
▁father	-8.31356
▁spotted	-8.32378
▁silly	-8.32457
▁walls	-8.32511
▁head	-8.33326
▁gasped	-8.33376
▁house	-8.33453
▁brightly	-8.33531
te	-8.33701
▁someone	-8.33958
▁racing	-8.33963
▁boat	-8.33992
▁gentle	-8.3405
▁luis	-8.34153
▁lights	-8.34264
▁laugh	-8.34309
▁today	-8.34323
▁idea	-8.34478
if	-8.34638
but	-8.34739
▁changed	-8.35303
▁art	-8.35543
▁realiz	-8.35606
▁hill	-8.35944
v	-8.3597
▁re	-8.36364
▁tried	-8.36475
▁seen	-8.3699
▁side	-8.37343
▁forward	-8.37679
▁hear	-8.38156
can	-8.3854
▁treasures	-8.38646
st	-8.38889
▁helping	-8.3899
▁hoping	-8.39252
▁kingdom	-8.39482
▁stones	-8.39521
▁gently	-8.39853
▁dinosaur	-8.39892
▁dog	-8.39902
▁trying	-8.40071
▁empty	-8.40131
▁within	-8.40146
▁sparkling	-8.4046
est	-8.4052
▁whispers	-8.4129
▁painted	-8.41548
▁leader	-8.41565
▁lonely	-8.41648
▁school	-8.41901
▁imagined	-8.41978
▁hero	-8.41981
▁upon	-8.42335
▁right	-8.42384
▁wandered	-8.42694
▁built	-8.42773
▁fast	-8.4292
▁pull	-8.42964
▁searching	-8.43342
▁along	-8.43999
▁crew	-8.44089
▁arrived	-8.44144
▁race	-8.44157
▁faced	-8.44167
▁rush	-8.44402
▁against	-8.44437
▁any	-8.4461
thank	-8.44715
▁window	-8.44802
▁villagers	-8.45065
▁morning	-8.45323
▁waved	-8.45332
▁joined	-8.45372
▁pulled	-8.45501
▁team	-8.45682
▁cloud	-8.45815
▁safe	-8.45992
▁shine	-8.46051
▁mirror	-8.46062
▁king	-8.46211
maybe	-8.46437
▁leaving	-8.46905
▁wave	-8.47652
yes	-8.48082
ter	-8.48169
▁might	-8.48445
▁breeze	-8.48783
▁leave	-8.48922
▁crowd	-8.49149
▁covered	-8.49366
▁two	-8.49513
▁sense	-8.49615
▁care	-8.49712
▁give	-8.4972
▁painting	-8.49824
▁ball	-8.5003
▁cried	-8.50128
▁festival	-8.50266
▁grass	-8.503
ve	-8.50438
▁nearby	-8.50524
▁thick	-8.50627
▁below	-8.51283
▁stopped	-8.51725
the	-8.51791
▁pushed	-8.52112
▁evening	-8.52956
▁games	-8.53318
▁crystal	-8.53322
▁shook	-8.5337
▁got	-8.54491
▁ghost	-8.54762
▁piece	-8.54844
▁much	-8.55086
▁edge	-8.5514
▁fire	-8.55429
▁rushed	-8.55567
▁brother	-8.55719
▁d	-8.55938
▁sand	-8.56108
▁created	-8.56367
▁wings	-8.56374
▁connection	-8.56453
th	-8.56622
▁learn	-8.56838
▁smiling	-8.57107
▁believe	-8.57502
▁believed	-8.58008
▁gone	-8.58241
▁kept	-8.58347
▁dancing	-8.58402
▁stumbled	-8.58402
▁sunny	-8.58776
▁fears	-8.5903
▁twinkled	-8.59115
do	-8.59166
▁letters	-8.59302
▁lit	-8.59678
ur	-8.59788
ro	-8.5991
▁surprised	-8.5992
▁golden	-8.59993
▁silence	-8.60169
▁wishes	-8.602
▁g	-8.6031
▁worried	-8.60321
▁used	-8.60862
ll	-8.61162
▁dreaming	-8.61422
▁stay	-8.61509
▁turn	-8.61734
▁holding	-8.61873
▁build	-8.63487
▁jester	-8.63898
▁curiosity	-8.64177
▁talked	-8.64183
▁pirate	-8.64278
▁dusty	-8.64462
▁cool	-8.64668
▁shore	-8.64748
▁carefully	-8.65147
▁kite	-8.65705
▁seek	-8.65795
▁sitting	-8.66188
ic	-8.66428
un	-8.67607
▁pain	-8.6771
▁get	-8.67995
▁birds	-8.68105
▁song	-8.68324
sh	-8.68502
ce	-8.68954
▁follow	-8.68956
▁future	-8.69027
▁thrill	-8.6913
▁inspired	-8.6932
▁anything	-8.69608
▁sounds	-8.69632
▁knight	-8.69871
▁tale	-8.69913
▁wrong	-8.70047
▁act	-8.70183
ion	-8.70312
▁very	-8.70467
▁faces	-8.70573
▁bear	-8.70581
▁win	-8.707
▁riddle	-8.7087
▁has	-8.71313
▁car	-8.71576
▁beside	-8.71693
▁de	-8.71719
▁caught	-8.71842
▁gift	-8.7216
▁amazing	-8.72505
▁paint	-8.72508
▁memory	-8.72526
▁corner	-8.72763
▁spent	-8.7329
▁mean	-8.73399
▁earth	-8.73413
▁try	-8.73479
▁hold	-8.73545
▁moments	-8.73626
▁closely	-8.73854
ent	-8.73965
▁h	-8.74045
▁planet	-8.74061
▁grandmother	-8.74062
▁red	-8.74066
h	-8.74161
▁mountain	-8.74171
▁candy	-8.74391
▁ideas	-8.74428
an	-8.74588
▁grabbed	-8.74652
ness	-8.74686
▁rainbow	-8.74871
ers	-8.74903
▁maybe	-8.74991
▁later	-8.75119
▁important	-8.75223
▁year	-8.75303
▁calm	-8.75333
▁beach	-8.75626
▁ancient	-8.76577
▁smiles	-8.76955
se	-8.77306
▁hat	-8.77369
▁write	-8.77384
▁finding	-8.77465
▁tears	-8.77654
▁filling	-8.77805
▁everywhere	-8.77808
ies	-8.77838
▁noise	-8.77927
▁spread	-8.78032
▁reach	-8.7805
▁hours	-8.78076
▁doubt	-8.78085
▁longer	-8.78107
▁quietly	-8.78235
▁between	-8.78381
▁places	-8.78406
▁top	-8.78563
▁run	-8.78668
▁nervous	-8.78677
▁name	-8.78871
▁clock	-8.78997
▁watch	-8.79035
▁determined	-8.79043
▁rocks	-8.79047
▁creating	-8.79157
▁sister	-8.79249
▁songs	-8.80016
▁green	-8.80102
▁clear	-8.80311
▁rolled	-8.80349
▁broken	-8.80391
▁years	-8.80714
▁catch	-8.80823
▁remind	-8.81022
▁ago	-8.81078
▁suggested	-8.81299
▁carry	-8.81367
▁clever	-8.81688
▁amazed	-8.81782
no	-8.82036
▁gave	-8.82065
▁party	-8.8208
▁chill	-8.82159
▁touched	-8.82165
▁valley	-8.8223
▁confused	-8.82372
ck	-8.82456
▁move	-8.82746
la	-8.82823
▁wild	-8.83061
▁fade	-8.8327
▁fall	-8.83762
▁bloomed	-8.84191
▁understanding	-8.84246
▁note	-8.84262
▁pointed	-8.84286
▁thoughts	-8.84389
▁peace	-8.84757
▁shell	-8.85078
▁mix	-8.85683
▁yelled	-8.85954
▁lighter	-8.85964
▁chance	-8.8621
▁afraid	-8.86431
▁running	-8.86506
▁weeks	-8.86751
▁fight	-8.86877
▁tightly	-8.87011
▁touch	-8.87041
▁surrounded	-8.87048
▁un	-8.8707
il	-8.87674
▁spot	-8.87683
▁forgotten	-8.87722
▁loss	-8.87855
▁same	-8.88172
▁explored	-8.88209
▁entered	-8.88251
where	-8.8828
▁known	-8.88492
▁r	-8.88595
led	-8.88996
▁bridge	-8.89004
▁squirrel	-8.89359
▁toys	-8.89624
▁hurt	-8.89715
▁continued	-8.89763
▁taking	-8.89868
to	-8.89869
▁matter	-8.90026
▁promise	-8.90485
▁feels	-8.90821
▁blew	-8.9123
▁shimmered	-8.91365
am	-8.91516
▁reminder	-8.9158
▁explained	-8.91581
▁pond	-8.91748
▁invited	-8.91835
▁soared	-8.91865
▁visit	-8.9202
▁e	-8.92034
▁shimmering	-8.9208
▁queen	-8.92427
▁table	-8.92465
▁taught	-8.92584
▁talk	-8.9262
▁ahead	-8.92715
▁listen	-8.92956
▁use	-8.93089
▁distance	-8.93294
ma	-8.93683
▁revealing	-8.93722
▁protect	-8.93824
▁field	-8.94196
▁don	-8.94289
▁rose	-8.94383
▁finished	-8.94405
▁teamwork	-8.94708
▁toy	-8.94746
▁friendly	-8.94992
▁stop	-8.95275
are	-8.95505
▁mountains	-8.9551
▁comes	-8.95764
▁bloom	-8.95814
▁explorer	-8.96238
▁energy	-8.96569
▁perfect	-8.96597
▁eager	-8.96675
▁until	-8.96788
ap	-8.96792
▁meet	-8.97022
▁invisible	-8.97034
▁missed	-8.97454
▁lives	-8.97677
ted	-8.97688
▁stared	-8.97786
▁understand	-8.97877
▁trapped	-8.97893
▁paper	-8.97916
▁sign	-8.98137
▁planned	-8.98193
▁going	-8.98304
▁favorite	-8.9847
▁streets	-8.98504
▁seeds	-8.9863
▁choice	-8.98749
▁sing	-8.98787
▁danger	-8.99135
▁tower	-8.99258
▁wisdom	-8.99336
▁showing	-8.9939
▁tired	-8.99421
▁butterfly	-8.99533
▁wonders	-8.99959
▁co	-9.00282
▁frog	-9.00295
▁goodbye	-9.00493
▁grateful	-9.00635
▁exploring	-9.00635
▁lake	-9.00697
▁start	-9.00704
▁pirates	-9.01083
▁attic	-9.0112
▁say	-9.01208
▁lesson	-9.0121
▁woke	-9.01491
▁wall	-9.017
▁sighed	-9.01719
on	-9.01732
▁dust	-9.02052
▁fierce	-9.02182
oo	-9.02199
▁onto	-9.02446
▁trick	-9.0262
▁wore	-9.02703
ir	-9.02813
▁working	-9.02916
▁higher	-9.02947
▁jewels	-9.02987
▁put	-9.03577
▁giggled	-9.03711
▁these	-9.03826
▁low	-9.04155
▁nothing	-9.04195
ful	-9.043
▁flash	-9.04331
and	-9.04442
▁reminded	-9.04456
▁plants	-9.04755
▁feet	-9.04814
▁placed	-9.0523
▁rocket	-9.05678
▁person	-9.05707
that	-9.05797
z	-9.05843
▁enchanted	-9.05917
id	-9.05949
▁enough	-9.06578
▁answer	-9.06585
ad	-9.06738
▁broke	-9.06986
ling	-9.0737
▁busy	-9.07598
▁transformed	-9.08026
▁meant	-9.08076
▁sunlight	-9.08098
um	-9.08101
▁save	-9.08186
▁most	-9.08296
▁captain	-9.08897
▁because	-9.09101
el	-9.09353
oh	-9.10069
▁bravery	-9.10158
▁coming	-9.10171
▁challenge	-9.10222
▁cannot	-9.10421
▁telling	-9.1054
▁really	-9.10691
▁hide	-9.10746
▁declared	-9.10892
▁guide	-9.10892
▁times	-9.11013
▁silver	-9.11113
▁crown	-9.11319
▁singing	-9.11321
▁gather	-9.11358
▁hugged	-9.11461
▁flickered	-9.11511
▁winter	-9.11588
▁brush	-9.11841
▁aliens	-9.1189
▁fill	-9.12062
▁climb	-9.12163
▁stuck	-9.12383
▁branches	-9.12601
▁spaceship	-9.12671
▁color	-9.12711
ha	-9.13128
▁traveler	-9.13186
▁mission	-9.1387
▁arms	-9.13973
▁burst	-9.13994
▁echoing	-9.14009
hi	-9.14049
▁monster	-9.14157
qu	-9.1432
▁plant	-9.14453
▁library	-9.14483
▁fl	-9.16064
▁fix	-9.16292
▁smell	-9.16459
▁hung	-9.17122
▁well	-9.1731
▁coins	-9.1733
▁hit	-9.17346
▁happened	-9.17414
▁drawn	-9.17435
▁fog	-9.17566
▁bit	-9.1757
▁cake	-9.17599
▁sailed	-9.17601
▁growing	-9.18275
▁bag	-9.18275
▁however	-9.18375
▁escape	-9.18479
▁anyone	-9.18526
▁whisper	-9.18719
▁powerful	-9.18772
how	-9.18784
▁celebrated	-9.18814
▁form	-9.19654
▁n	-9.19837
▁speak	-9.19881
▁saying	-9.19949
▁simple	-9.20019
▁happily	-9.20123
▁dinosaurs	-9.20347
▁shape	-9.20465
▁hesitated	-9.20538
▁pressed	-9.2092
▁sp	-9.21012
▁hiding	-9.21084
▁feather	-9.21151
▁moonlight	-9.21173
▁talking	-9.21343
▁gem	-9.21508
▁tight	-9.21533
▁search	-9.21543
▁anger	-9.21585
▁wonderful	-9.21792
he	-9.21818
▁lantern	-9.2183
▁worry	-9.22076
▁shy	-9.22076
▁why	-9.22104
less	-9.22138
▁ice	-9.2225
▁moving	-9.22288
▁beyond	-9.22323
ation	-9.2245
▁crept	-9.22712
▁books	-9.22721
▁eagerly	-9.22823
▁grand	-9.2301
▁walk	-9.23107
▁teacher	-9.23344
ine	-9.23351
▁traveled	-9.23548
▁po	-9.23703
▁afternoon	-9.23888
▁prince	-9.24089
▁may	-9.24168
▁distant	-9.24212
▁does	-9.24218
▁hills	-9.24268
▁carried	-9.2432
▁offered	-9.24429
▁become	-9.24541
▁paused	-9.24548
▁imagination	-9.24644
▁blanket	-9.2468
ped	-9.25132
▁revenge	-9.2537
▁twisted	-9.25953
▁word	-9.26148
▁sorrow	-9.26247
▁lies	-9.26584
▁fought	-9.26615
▁though	-9.26622
▁rest	-9.26626
▁wash	-9.26635
who	-9.26772
▁guiding	-9.2691
▁remembering	-9.2697
hello	-9.2701
▁shapes	-9.27076
▁surface	-9.27169
▁nature	-9.2717
▁center	-9.2728
▁taken	-9.27346
▁heal	-9.27421
▁building	-9.27443
us	-9.27462
▁greatest	-9.27468
▁unsure	-9.27544
▁waited	-9.27628
▁honesty	-9.27778
▁clean	-9.27876
▁v	-9.28059
▁dug	-9.28212
▁symbol	-9.28287
▁few	-9.28437
▁believing	-9.28475
▁twist	-9.28813
▁rivers	-9.28992
▁large	-9.29265
▁won	-9.29266
▁universe	-9.29266
▁walking	-9.29357
▁lifted	-9.29366
▁haunted	-9.2938
▁clapped	-9.29384
▁break	-9.29655
▁leading	-9.29929
▁truly	-9.30179
▁ask	-9.30222
▁slipped	-9.30526
welcome	-9.30572
▁mouse	-9.30755
▁swirled	-9.30811
▁con	-9.30855
ke	-9.3095
▁pearl	-9.31215
ge	-9.31365
▁packed	-9.3199
▁vast	-9.32067
▁sit	-9.3263
wow	-9.32771
▁tricks	-9.32977
▁dawn	-9.33085
▁flowed	-9.33135
▁saved	-9.33246
▁cookies	-9.33405
▁lift	-9.33438
▁machine	-9.33503
▁welcomed	-9.33518
▁rise	-9.33676
▁heroes	-9.3402
▁street	-9.34024
▁stream	-9.34033
▁vanished	-9.34234
▁balloon	-9.34466
▁mist	-9.34512
ant	-9.34829
▁snowman	-9.3491
▁worlds	-9.351
▁celebration	-9.3519
▁ended	-9.35221
▁themselves	-9.35311
▁happen	-9.35363
▁using	-9.35366
▁eye	-9.3543
▁button	-9.35636
lmost	-9.35754
age	-9.35953
▁late	-9.36226
▁which	-9.36362
▁forgot	-9.36484
▁quick	-9.36561
they	-9.36562
▁spring	-9.3681
help	-9.3687
ver	-9.36896
▁cruel	-9.37055
▁plans	-9.37175
▁bigger	-9.37342
▁roared	-9.37347
▁absence	-9.37506
▁winds	-9.37744
▁compass	-9.37835
x	-9.37867
▁careful	-9.37943
▁front	-9.38124
▁dirt	-9.38248
▁hunt	-9.38291
▁freedom	-9.38331
▁bench	-9.38456
▁sought	-9.38746
ment	-9.38834
▁standing	-9.38867
▁biggest	-9.3908
▁calling	-9.39142
ul	-9.39187
▁ride	-9.39292
▁warned	-9.3933
▁done	-9.39897
▁voices	-9.40011
▁fingers	-9.4034
▁silent	-9.40466
ever	-9.40538
▁belonged	-9.40912
▁hopes	-9.40936
▁trouble	-9.41189
▁crossed	-9.41404
▁chaos	-9.41488
▁class	-9.41829
▁line	-9.41879
▁giving	-9.42088
▁gathering	-9.42119
▁picture	-9.42268
▁eat	-9.42564
▁forget	-9.42692
▁whispering	-9.4273
▁joyful	-9.42939
co	-9.42978
▁knowledge	-9.43083
▁call	-9.43311
▁battle	-9.43432
▁wishing	-9.43487
▁paths	-9.43544
▁canvas	-9.43605
▁butterflies	-9.43649
▁beginning	-9.43649
▁pages	-9.43768
▁vibrant	-9.43868
▁lo	-9.43937
▁added	-9.43941
▁determination	-9.43955
▁howled	-9.4423
▁loudly	-9.44242
▁celebrate	-9.44578
▁vines	-9.44924
ho	-9.45384
▁crashed	-9.45463
▁pounding	-9.45858
▁dear	-9.45956
▁robots	-9.46231
▁problem	-9.46261
▁snacks	-9.46314
▁prepared	-9.46331
▁creativity	-9.46396
▁tr	-9.46613
▁worth	-9.4662
▁grant	-9.46725
▁poured	-9.46801
▁feast	-9.46891
▁sank	-9.46891
▁angry	-9.46981
▁orange	-9.47162
▁discover	-9.47613
▁control	-9.48254
▁fields	-9.48438
▁swim	-9.48759
▁remained	-9.48771
▁self	-9.48805
come	-9.48887
▁bad	-9.49184
▁brings	-9.49466
▁quest	-9.49481
▁travel	-9.4952
▁okay	-9.49549
▁embrace	-9.49603
▁having	-9.49636
▁faster	-9.49721
▁feelings	-9.49729
▁drawing	-9.50174
▁stayed	-9.50226
▁pictures	-9.5028
▁scary	-9.50522
▁staring	-9.50558
▁presence	-9.50615
▁hall	-9.50619
▁sight	-9.50714
▁stand	-9.50761
now	-9.50769
▁chase	-9.50771
▁circle	-9.50871
▁creaked	-9.50876
▁thing	-9.50887
▁challenges	-9.51007
▁spun	-9.51014
▁else	-9.51321
▁huge	-9.51337
▁jump	-9.51595
▁wait	-9.51737
▁spirits	-9.51895
▁fluffy	-9.51902
▁o	-9.52168
be	-9.52314
▁summer	-9.52507
▁train	-9.52746
▁drew	-9.52986
▁doing	-9.52986
▁fruit	-9.53131
▁swing	-9.53228
▁pointing	-9.53311
▁hid	-9.53347
▁honest	-9.53604
▁frowned	-9.53811
▁gazed	-9.53948
▁fresh	-9.54047
▁betrayal	-9.54053
▁wrapped	-9.54473
▁guardian	-9.54484
▁ways	-9.54957
▁society	-9.55021
▁ruins	-9.55177
▁loomed	-9.55217
▁missing	-9.55268
▁bike	-9.55316
▁backyard	-9.55365
▁crash	-9.55407
▁buried	-9.55497
▁mess	-9.55551
ry	-9.55774
ble	-9.55797
▁grinned	-9.56203
▁formed	-9.56301
▁pride	-9.56451
▁branch	-9.5646
▁looks	-9.56523
▁casting	-9.56682
▁ring	-9.56687
▁sail	-9.56689
▁hole	-9.567
▁difference	-9.5675
▁pulling	-9.57711
▁j	-9.57711
▁draw	-9.57828
▁grin	-9.57901
▁spell	-9.57952
▁learning	-9.58164
▁shells	-9.58472
▁chose	-9.58555
▁turning	-9.58825
▁tail	-9.58864
▁pile	-9.59115
▁hoped	-9.59195
▁tradition	-9.59247
▁clearing	-9.59475
▁hopped	-9.5989
▁reaching	-9.59956
▁shaking	-9.5999
▁swirling	-9.60017
▁planted	-9.6012
▁oak	-9.60196
▁snowy	-9.60259
▁meeting	-9.60377
▁finish	-9.60515
▁connect	-9.60654
▁son	-9.60656
▁makes	-9.6103
▁asking	-9.61072
▁apart	-9.61076
▁floor	-9.61128
▁teach	-9.61213
▁greed	-9.61337
▁floating	-9.61472
▁hair	-9.61493
▁failure	-9.61545
▁sent	-9.61557
▁mom	-9.61566
during	-9.61611
▁answers	-9.61847
▁prove	-9.61874
▁fair	-9.61897
▁puppy	-9.62122
▁choices	-9.62122
▁liked	-9.62472
▁solve	-9.62576
▁guard	-9.62717
▁mo	-9.63005
▁playful	-9.63049
▁final	-9.63252
▁emerged	-9.63338
▁panic	-9.63356
way	-9.63383
▁bushes	-9.63422
▁twirled	-9.63569
▁diamonds	-9.6358
▁steal	-9.63925
▁lose	-9.64195
▁beast	-9.64355
▁flicker	-9.64443
▁block	-9.64623
▁count	-9.64625
▁clues	-9.6474
▁ex	-9.64748
▁inviting	-9.64947
▁test	-9.64964
▁peeked	-9.65045
▁market	-9.65164
▁superhero	-9.65164
▁enjoyed	-9.6518
will	-9.65389
▁connected	-9.65697
▁following	-9.65756
▁roots	-9.65761
▁push	-9.65799
▁trap	-9.65877
▁mysterious	-9.6598
▁week	-9.65983
▁lessons	-9.66142
▁fading	-9.66253
▁winning	-9.66309
▁splashed	-9.66326
▁belong	-9.66387
one	-9.66471
▁giggle	-9.66606
▁thief	-9.66803
▁artist	-9.66803
▁whole	-9.67069
▁chuckled	-9.67254
▁bottle	-9.6741
▁glanc	-9.67412
▁symbols	-9.67633
▁reflection	-9.67634
▁shown	-9.67656
▁bell	-9.67854
▁sword	-9.67855
▁dolphin	-9.68189
▁bed	-9.68427
▁imagining	-9.68525
▁weak	-9.68526
ive	-9.68937
▁shout	-9.68954
▁seed	-9.68982
▁chased	-9.69181
▁splash	-9.69318
▁mixed	-9.69386
▁smart	-9.69482
▁visited	-9.69513
▁unknown	-9.69652
▁louder	-9.6977
▁enjoy	-9.69774
▁purpose	-9.69879
▁scent	-9.69936
▁beat	-9.70012
▁la	-9.70146
▁excitedly	-9.70208
▁cozy	-9.70563
▁seeing	-9.70588
▁coin	-9.70632
▁drifted	-9.70682
▁sunset	-9.70792
▁view	-9.70907
▁fort	-9.71041
uch	-9.7127
▁practiced	-9.71446
▁keeper	-9.71454
▁dim	-9.71598
▁drawings	-9.71644
▁enjoying	-9.71802
▁honor	-9.71829
▁cherish	-9.72235
dear	-9.72336
▁tick	-9.72344
▁bark	-9.72785
me	-9.72824
▁roar	-9.73045
▁shake	-9.73112
found	-9.73146
▁choose	-9.73229
▁white	-9.73229
side	-9.73362
▁trembling	-9.73405
▁sparkle	-9.7353
▁tug	-9.73641
▁twinkle	-9.73988
▁pink	-9.74649
▁intrigued	-9.74947
▁tools	-9.74957
▁itself	-9.75366
▁yourself	-9.75546
▁shop	-9.75546
▁net	-9.75547
▁rule	-9.75739
▁kitchen	-9.75847
▁fruits	-9.75966
▁pie	-9.76092
▁sharp	-9.76149
▁message	-9.76341
▁struck	-9.76634
▁focused	-9.76835
▁yard	-9.76939
▁slow	-9.77053
just	-9.77263
▁sneak	-9.77305
▁hug	-9.77774
ous	-9.78013
▁unexpected	-9.78141
▁fairies	-9.78369
▁turns	-9.7849
▁order	-9.78538
▁puzzle	-9.78845
▁stroke	-9.78846
▁blinked	-9.79074
ally	-9.79143
▁course	-9.79282
▁cheerful	-9.79606
▁daughter	-9.79657
▁struggle	-9.7972
▁goal	-9.79829
▁fur	-9.79866
▁vision	-9.80034
▁glass	-9.80182
▁princess	-9.80438
▁coral	-9.80602
▁pocket	-9.80791
▁rang	-9.81024
▁sure	-9.81026
▁three	-9.81108
▁warning	-9.81109
▁listening	-9.81114
▁pass	-9.81183
▁lovely	-9.81399
▁tunnel	-9.81427
▁clothes	-9.81435
▁collect	-9.81444
▁washed	-9.81577
▁stick	-9.81697
▁knelt	-9.81746
▁admired	-9.81792
▁worries	-9.81874
▁delight	-9.81884
▁page	-9.81947
ack	-9.82262
ie	-9.8257
▁sleep	-9.82645
▁check	-9.82775
▁falling	-9.82803
▁surge	-9.82839
▁happening	-9.82982
▁witch	-9.83163
▁aloud	-9.83228
▁leaf	-9.83228
▁responsibility	-9.83228
▁project	-9.83553
▁crab	-9.83749
▁live	-9.8384
▁wand	-9.8414
▁octopus	-9.84141
▁says	-9.84401
▁support	-9.84403
▁meadow	-9.84535
▁gifts	-9.84542
▁skies	-9.84612
▁wanting	-9.84814
▁gray	-9.85526
▁flashlight	-9.85534
▁rich	-9.8557
▁wizard	-9.85659
▁poet	-9.85659
▁rusty	-9.85726
▁entrance	-9.85925
▁planets	-9.85929
▁seem	-9.85941
▁lock	-9.8598
▁digging	-9.86059
▁pot	-9.86245
▁swayed	-9.86302
▁swirl	-9.86392
ru	-9.8644
▁comfort	-9.86662
▁cheer	-9.86797
your	-9.86871
▁storms	-9.86953
▁fate	-9.86999
of	-9.87006
▁longing	-9.87047
▁taste	-9.8721
▁comet	-9.87281
▁chirped	-9.87554
▁yes	-9.87618
▁fighting	-9.87672
▁skin	-9.88113
▁mystery	-9.88151
▁hopeful	-9.88157
▁wood	-9.88247
▁rainy	-9.88467
▁encouraged	-9.88492
▁picnic	-9.88835
▁pieces	-9.88884
▁harder	-9.88885
▁independence	-9.88904
▁hum	-9.88992
▁cover	-9.89451
bo	-9.89516
▁holds	-9.89616
▁petals	-9.89663
▁leaned	-9.89726
▁unlock	-9.89801
▁glimmered	-9.89865
▁losing	-9.89877
▁pan	-9.9002
▁worn	-9.90079
▁chasing	-9.90566
▁ears	-9.9071
▁anymore	-9.90846
▁nice	-9.91128
▁flow	-9.91268
▁uncover	-9.91318
▁z	-9.91416
▁object	-9.91479
▁bush	-9.91516
▁lett	-9.91797
▁smelled	-9.91835
▁gems	-9.91986
▁twinkling	-9.92115
▁swimming	-9.92116
▁lingered	-9.92256
▁middle	-9.92542
▁cloak	-9.92756
▁tomorrow	-9.92911
▁horizon	-9.93113
▁seeking	-9.93293
▁perhaps	-9.93344
▁mermaid	-9.93544
▁sailor	-9.9374
▁pet	-9.93742
▁shot	-9.93761
▁facing	-9.93833
▁marked	-9.93957
▁given	-9.93992
▁member	-9.94049
▁revealed	-9.94091
▁wolf	-9.94122
▁pushing	-9.94252
▁stranger	-9.94359
▁chocolate	-9.94412
▁shiver	-9.94412
▁belonging	-9.94467
▁prize	-9.94484
▁dig	-9.94558
▁living	-9.9463
▁holiday	-9.94775
▁dad	-9.94895
▁widened	-9.95143
▁enter	-9.95279
▁cafe	-9.95287
▁cook	-9.95706
▁hungry	-9.95743
▁rode	-9.95801
de	-9.95866
▁send	-9.95949
▁alley	-9.95951
▁echoes	-9.96049
▁failed	-9.96181
these	-9.96285
▁bread	-9.96688
▁ignor	-9.96762
▁fountain	-9.96836
▁action	-9.97119
▁reading	-9.97162
▁cross	-9.97206
did	-9.9728
▁half	-9.97284
▁riches	-9.97309
▁fallen	-9.97313
▁questions	-9.97326
▁steps	-9.97414
▁soul	-9.97419
▁stage	-9.97733
▁lands	-9.97901
▁thunder	-9.98034
▁notes	-9.98095
▁celebrating	-9.98184
▁answered	-9.98561
▁ventured	-9.98865
▁virtual	-9.98941
▁feared	-9.9937
▁sorry	-9.99398
▁leap	-9.99402
▁neighbor	-9.99419
remember	-9.99677
▁jokes	-9.99692
▁easy	-9.9978
▁cheers	-9.99844
▁zoomed	-10.0004
▁wi	-10.0005
▁bubbling	-10.0016
▁forgetting	-10.0017
▁guided	-10.0024
▁stretched	-10.0029
time	-10.0029
every	-10.0033
▁bold	-10.0039
▁climbing	-10.0044
▁replaced	-10.007
▁orb	-10.0082
▁planning	-10.0109
▁tonight	-10.0116
▁spine	-10.0131
▁awaited	-10.0133
▁charm	-10.0156
▁surprises	-10.0202
▁player	-10.0224
don	-10.0227
▁regret	-10.0234
▁base	-10.025
▁apple	-10.0256
▁depths	-10.0289
▁smooth	-10.0289
able	-10.0298
▁clue	-10.0304
▁means	-10.0325
▁victory	-10.0329
▁hurried	-10.0337
▁history	-10.0384
▁contest	-10.0392
▁lines	-10.0424
▁knows	-10.0432
▁riddles	-10.0447
▁drop	-10.0448
▁instant	-10.0449
▁nest	-10.0454
▁cut	-10.0466
▁creation	-10.0473
▁grown	-10.0493
▁necklace	-10.0497
▁float	-10.0502
▁knights	-10.0532
▁mark	-10.0532
▁flickering	-10.0536
▁legend	-10.0537
▁wondering	-10.054
▁jumping	-10.0552
▁cream	-10.0562
▁cliff	-10.0602
▁drink	-10.061
▁odd	-10.0619
▁mattered	-10.0625
▁caring	-10.063
▁snowball	-10.0635
▁endless	-10.0636
▁cheering	-10.0639
▁passing	-10.0642
▁erupted	-10.0643
▁balloons	-10.0644
▁treats	-10.0646
▁present	-10.0651
▁desire	-10.0651
▁darkest	-10.0654
▁add	-10.0698
▁hot	-10.0701
▁shade	-10.0717
▁screen	-10.0725
▁cared	-10.073
▁recalled	-10.0739
▁second	-10.0742
▁unicorn	-10.075
▁stepp	-10.0786
▁tea	-10.0815
▁buzzed	-10.0822
▁mural	-10.0833
▁trip	-10.0839
▁fit	-10.084
▁explorers	-10.0843
▁thrived	-10.0845
out	-10.0851
▁shift	-10.0878
▁crystals	-10.0898
▁flooded	-10.0919
▁soaring	-10.0919
▁giggling	-10.0925
▁mask	-10.0942
▁relief	-10.0942
▁discovery	-10.0945
▁flame	-10.0951
midst	-10.0951
▁throw	-10.0959
▁community	-10.0968
▁road	-10.0968
▁becoming	-10.0976
▁yellow	-10.0984
▁impress	-10.0993
▁curse	-10.0993
sometimes	-10.1
▁decide	-10.1014
▁threw	-10.1018
▁villain	-10.1018
▁locket	-10.1035
▁buildings	-10.104
▁dashed	-10.1078
▁candle	-10.1104
▁sparked	-10.1114
▁parrot	-10.113
▁tossed	-10.1131
▁creeping	-10.1156
▁chair	-10.1181
▁gripp	-10.1215
▁bar	-10.1218
there	-10.1224
▁unique	-10.1225
ity	-10.1232
▁soar	-10.1233
▁unity	-10.1252
▁bravely	-10.1259
▁job	-10.1259
hey	-10.1269
▁basket	-10.1277
▁torn	-10.1307
▁steep	-10.1312
▁melt	-10.1333
ance	-10.1335
▁tension	-10.1356
▁deer	-10.1368
▁shifted	-10.1378
▁growth	-10.139
▁question	-10.1415
▁mistakes	-10.1419
▁knocked	-10.1442
▁sticks	-10.1451
▁claim	-10.1479
▁notebook	-10.1479
▁setting	-10.1481
▁score	-10.1506
▁pick	-10.1519
▁bite	-10.1523
▁elder	-10.1551
▁puddle	-10.1551
▁twirl	-10.1584
▁less	-10.1585
▁pondered	-10.1587
▁townsfolk	-10.1596
▁egg	-10.1596
▁pro	-10.1611
▁raised	-10.1614
▁begin	-10.1641
▁talent	-10.165
▁metal	-10.1673
▁myself	-10.1677
▁shaped	-10.1683
▁autumn	-10.1686
▁mistake	-10.1703
▁anywhere	-10.1703
▁mine	-10.1704
▁guilt	-10.1714
▁carrot	-10.1723
▁crack	-10.1728
▁deeply	-10.1731
▁soil	-10.1733
▁flashed	-10.1743
away	-10.1767
▁square	-10.1768
▁shooting	-10.1768
▁urged	-10.1787
▁practice	-10.1792
▁miss	-10.1801
▁tough	-10.1805
▁steady	-10.1823
▁students	-10.1841
okay	-10.185
▁apples	-10.1863
▁desk	-10.187
▁trusted	-10.1871
▁disappeared	-10.1883
▁writing	-10.1888
▁splashing	-10.1903
▁proudly	-10.1905
▁bat	-10.1912
▁porch	-10.1916
▁getting	-10.1916
▁snowflakes	-10.1963
▁blooming	-10.1969
▁images	-10.1972
▁match	-10.1972
▁feathers	-10.1976
▁wearing	-10.1978
▁string	-10.1989
▁safety	-10.1991
▁keeping	-10.2026
▁sketch	-10.2028
▁baker	-10.206
▁wooden	-10.208
▁rising	-10.2085
▁smoke	-10.2104
▁players	-10.2118
▁cost	-10.2131
▁civilization	-10.2151
▁perform	-10.2151
▁irony	-10.2161
▁fail	-10.2169
▁landing	-10.2175
▁invite	-10.2177
▁comp	-10.2178
▁str	-10.222
▁task	-10.2228
▁minutes	-10.2231
▁leaped	-10.2246
▁scales	-10.2247
▁tied	-10.2248
▁waving	-10.2256
▁tune	-10.2257
▁shelf	-10.2258
▁force	-10.2275
▁dive	-10.2281
▁familiar	-10.2295
▁ticked	-10.2316
▁shocked	-10.2318
▁despair	-10.2324
▁portal	-10.2363
▁promising	-10.2363
▁siblings	-10.2369
▁scare	-10.238
▁trail	-10.2392
▁trembled	-10.2395
go	-10.2416
▁drift	-10.2421
▁families	-10.2431
board	-10.244
▁point	-10.2462
urging	-10.2471
▁lie	-10.2509
▁meal	-10.2514
▁pen	-10.2523
▁coat	-10.2529
▁scene	-10.2559
▁firm	-10.2569
▁peer	-10.2569
follow	-10.2579
▁emptiness	-10.2579
▁souls	-10.258
▁already	-10.2599
▁defeat	-10.2609
▁dipped	-10.2609
▁swept	-10.2609
▁clutch	-10.2619
▁purple	-10.2629
▁united	-10.2639
▁machines	-10.2663
▁mixing	-10.267
▁duck	-10.2689
▁jungle	-10.2729
▁notice	-10.2748
▁betrayed	-10.2762
▁beamed	-10.277
▁crying	-10.2775
▁statue	-10.278
▁skills	-10.2783
▁joke	-10.2799
▁shelter	-10.2811
▁bake	-10.2814
▁spinning	-10.2831
▁seasons	-10.2837
▁traditions	-10.2846
▁wisely	-10.2852
▁glitter	-10.2861
▁parents	-10.2861
▁rhythm	-10.2861
▁sigh	-10.2871
▁underground	-10.2871
▁loneliness	-10.2882
▁circles	-10.2887
▁childhood	-10.2892
▁studied	-10.2892
▁troll	-10.2892
▁shoes	-10.2894
▁planting	-10.2907
▁mud	-10.2912
▁craft	-10.2923
▁glimmer	-10.2948
wait	-10.2973
land	-10.299
▁locked	-10.299
▁neighbors	-10.2992
▁written	-10.2995
▁effort	-10.3016
▁kitten	-10.3016
▁wear	-10.3021
▁struggled	-10.3037
▁human	-10.3039
▁flutter	-10.3058
▁whale	-10.3089
▁cry	-10.309
▁photo	-10.3099
▁dove	-10.31
▁received	-10.311
▁gate	-10.312
▁embraced	-10.3127
▁please	-10.314
▁trunk	-10.3141
▁puzzled	-10.3141
love	-10.3152
▁wheel	-10.3162
▁confident	-10.3194
▁success	-10.3194
▁renewed	-10.3204
see	-10.3204
▁picking	-10.3206
▁arm	-10.322
▁attention	-10.3225
light	-10.3239
▁ache	-10.324
▁dangerous	-10.3259
could	-10.3279
▁club	-10.3289
▁short	-10.3289
▁joyfully	-10.33
▁lady	-10.33
▁expected	-10.3307
▁pretty	-10.3321
▁underwater	-10.3332
▁echo	-10.3336
then	-10.3346
▁ruin	-10.3352
▁balance	-10.3353
▁item	-10.3356
▁cheek	-10.3386
▁curiously	-10.3425
▁valuable	-10.3429
▁dreamer	-10.3433
▁ached	-10.3438
▁respect	-10.3451
▁serious	-10.3461
▁discovering	-10.3463
▁grandfather	-10.3472
▁weeds	-10.3475
▁uncovered	-10.3541
▁melody	-10.356
my	-10.3603
▁reality	-10.3609
▁playground	-10.3614
▁guarded	-10.3622
▁lunch	-10.3626
▁warrior	-10.3626
▁bubbles	-10.3635
▁flapped	-10.3637
▁happier	-10.3648
▁bubble	-10.3648
▁round	-10.3649
▁guess	-10.3659
▁money	-10.3659
▁dis	-10.3665
▁breaking	-10.3667
▁exchanged	-10.367
ound	-10.3679
▁blend	-10.3681
please	-10.3704
▁click	-10.3725
▁granted	-10.3733
▁gain	-10.3736
▁buzz	-10.374
▁wandering	-10.3748
▁spreading	-10.3751
▁beating	-10.3754
▁wrapp	-10.3757
▁passion	-10.3773
▁black	-10.3781
▁exciting	-10.3781
up	-10.3792
▁inspire	-10.3802
▁vowed	-10.3804
▁transform	-10.3818
▁reflecting	-10.3836
▁rumble	-10.3837
▁device	-10.3849
▁dropped	-10.385
▁ripple	-10.386
▁month	-10.3883
▁speed	-10.3883
▁blink	-10.3898
▁nose	-10.3902
▁dress	-10.3909
▁expect	-10.3909
▁shined	-10.3912
▁raged	-10.3917
▁lifting	-10.3932
▁accept	-10.3934
▁jar	-10.3935
▁narrow	-10.3939
▁birthday	-10.3951
▁boxes	-10.3966
▁sway	-10.3993
▁risk	-10.4008
▁lot	-10.4029
▁acorn	-10.4031
▁soccer	-10.4065
▁dull	-10.4077
▁roamed	-10.4088
▁flick	-10.4133
▁unlike	-10.4135
▁accepted	-10.4142
▁pencil	-10.417
▁possible	-10.417
▁urge	-10.4181
▁legs	-10.4181
▁lion	-10.4181
▁rivalry	-10.4182
▁audience	-10.4193
▁astronaut	-10.4205
▁reveal	-10.4208
▁weaving	-10.4228
▁sailing	-10.4233
▁logic	-10.4251
▁burn	-10.4251
stay	-10.4253
▁teaching	-10.43
▁sink	-10.4334
▁changing	-10.4346
▁experience	-10.437
together	-10.4371
▁crumb	-10.4404
▁screamed	-10.4409
▁overcome	-10.4415
▁distract	-10.4417
▁rope	-10.4417
▁ear	-10.442
▁blossomed	-10.4429
▁confront	-10.4429
▁backpack	-10.4429
▁froze	-10.4442
▁flight	-10.4444
▁lined	-10.4488
▁cabin	-10.4525
▁cracked	-10.4529
▁cookie	-10.4539
▁announced	-10.4562
▁waterfall	-10.4562
▁further	-10.4574
▁bow	-10.4586
▁eagle	-10.4622
▁stolen	-10.4631
▁rival	-10.4658
▁gust	-10.4659
▁scattered	-10.4671
▁pretending	-10.4672
▁confusion	-10.4696
▁price	-10.4696
▁slipping	-10.4696
▁fixed	-10.4696
▁baked	-10.4699
▁raccoon	-10.4708
▁launch	-10.472
▁mouth	-10.472
▁swell	-10.4739
▁faint	-10.4745
▁bustling	-10.4757
▁importance	-10.477
▁brightened	-10.477
▁sens	-10.4771
▁safely	-10.4772
▁grinning	-10.4782
▁slip	-10.4806
▁famous	-10.4807
▁surprising	-10.4819
▁season	-10.4824
▁collected	-10.4828
▁spin	-10.4839
▁body	-10.4857
▁popped	-10.4869
▁sandwich	-10.4894
▁stomach	-10.4894
▁flowing	-10.4897
▁disappear	-10.4902
▁rocky	-10.4904
▁rustling	-10.4907
j	-10.4909
▁struggling	-10.4932
▁roof	-10.4957
use	-10.4982
▁size	-10.4995
▁wilt	-10.4995
▁appear	-10.5003
▁dressed	-10.5028
▁desert	-10.5033
▁sandcastle	-10.5033
▁lying	-10.5034
▁kicked	-10.5083
▁delicious	-10.5084
▁tasted	-10.5095
▁glade	-10.5142
▁doll	-10.5143
▁paw	-10.5148
▁shock	-10.5156
▁glide	-10.5186
only	-10.5202
▁patience	-10.5212
▁unfold	-10.5212
here	-10.5221
work	-10.5239
▁track	-10.524
our	-10.5241
▁crunch	-10.5251
▁rough	-10.5251
▁rumor	-10.5251
▁monkey	-10.5264
▁rare	-10.5272
▁telescope	-10.529
▁complete	-10.5293
▁grab	-10.5303
▁drive	-10.5303
▁sudden	-10.5308
▁luck	-10.5319
▁early	-10.5326
▁gaze	-10.533
▁frozen	-10.5341
▁exist	-10.5356
▁focus	-10.5378
▁silently	-10.5448
▁bottom	-10.5474
▁greeted	-10.5487
▁ironic	-10.5487
▁peaceful	-10.5494
▁remain	-10.5497
▁tripped	-10.5502
▁value	-10.5527
next	-10.553
rex	-10.5539
▁peak	-10.5541
▁scarf	-10.5554
▁war	-10.5599
▁scratched	-10.5608
▁tear	-10.5609
▁cheese	-10.5648
▁sunshine	-10.5648
▁tricky	-10.5656
▁row	-10.5662
▁shimmer	-10.5662
▁blow	-10.5664
▁pulsed	-10.5683
▁gazing	-10.5689
▁swung	-10.5702
▁admitted	-10.5716
▁wink	-10.5726
▁sled	-10.5727
▁sprite	-10.573
▁crawled	-10.5743
▁jewel	-10.5746
▁shrugged	-10.577
▁reader	-10.5782
▁resilience	-10.5784
▁drum	-10.5784
▁ruled	-10.5799
▁glimmering	-10.5806
▁capture	-10.5839
▁cup	-10.5843
▁uneasy	-10.5853
▁snail	-10.5867
▁flour	-10.5868
▁buy	-10.5894
▁agree	-10.5909
▁pebble	-10.5922
▁character	-10.5978
▁hour	-10.5985
▁harmony	-10.5992
▁cast	-10.605
▁tallest	-10.6072
▁pizza	-10.6076
▁frustrated	-10.6118
off	-10.6139
▁frown	-10.6145
▁chosen	-10.6148
▁inspiration	-10.6161
▁earlier	-10.6175
▁tuck	-10.6189
▁continue	-10.6191
▁burden	-10.6203
▁express	-10.6203
▁tangled	-10.6203
▁wrap	-10.6208
▁hollow	-10.6218
▁stirred	-10.6218
▁lively	-10.6222
trust	-10.6264
▁grumpy	-10.6275
▁fireflies	-10.629
▁lightning	-10.6292
▁fluttered	-10.6317
▁precious	-10.6318
▁whistle	-10.6318
▁dinner	-10.6333
▁kiss	-10.6347
▁tide	-10.6347
▁potion	-10.6365
▁camp	-10.6376
▁footsteps	-10.6391
▁reef	-10.6405
▁imagine	-10.6407
▁unseen	-10.6435
▁swelled	-10.6441
▁harvest	-10.6449
▁tortoise	-10.6449
▁joked	-10.6511
buried	-10.6527
▁generosity	-10.6537
▁dared	-10.6552
▁bare	-10.6565
▁decorate	-10.6567
▁jealous	-10.6567
▁seashell	-10.6567
▁pure	-10.6567
▁disappointed	-10.6582
▁rolling	-10.6583
join	-10.6586
▁thread	-10.6597
▁grandma	-10.6602
▁squeaked	-10.6611
▁bitter	-10.6621
▁stole	-10.6631
sure	-10.6649
▁bubbled	-10.6658
▁blank	-10.6671
▁townspeople	-10.6716
▁treehouse	-10.6731
▁sell	-10.6747
▁midnight	-10.6776
▁ordinary	-10.6776
▁responsible	-10.6776
▁forgive	-10.6776
▁seaweed	-10.6777
▁hurry	-10.6791
keep	-10.6811
acceptance	-10.6834
▁ancestors	-10.6837
▁horse	-10.6837
▁galaxy	-10.6852
▁spilled	-10.6883
▁conquer	-10.6898
▁lighthouse	-10.6929
▁shield	-10.6929
▁blossom	-10.6929
▁possibilities	-10.6944
▁recipe	-10.6944
▁pool	-10.6944
▁reflected	-10.697
▁berries	-10.6975
▁gratitude	-10.6975
▁sprout	-10.6975
▁cause	-10.6975
▁larger	-10.6975
▁spoon	-10.7006
▁sprinkle	-10.7021
▁pretended	-10.7032
▁cautious	-10.7037
▁startled	-10.706
▁enemy	-10.7068
some	-10.7077
▁animal	-10.7088
▁solved	-10.7089
▁shovel	-10.7099
▁surround	-10.71
▁neighborhood	-10.7115
▁source	-10.7115
▁starry	-10.7135
▁kick	-10.7147
▁confidence	-10.7162
▁direction	-10.7162
▁classroom	-10.7162
▁board	-10.7162
hold	-10.7167
▁glint	-10.7193
▁knee	-10.7193
▁royal	-10.7209
▁partner	-10.721
▁cupcake	-10.724
▁weave	-10.7274
should	-10.7294
proving	-10.7302
▁fireworks	-10.7304
▁wealth	-10.7304
▁bug	-10.7304
▁approach	-10.7306
▁supplies	-10.732
▁bicycle	-10.7336
▁mushroom	-10.7336
▁skate	-10.7352
▁elephant	-10.7352
▁piano	-10.7368
▁lucky	-10.7381
▁bouncing	-10.74
▁pay	-10.7416
ipping	-10.7426
▁frost	-10.7432
▁hummed	-10.7432
▁envelop	-10.7448
▁company	-10.7465
▁hardship	-10.7465
▁paddled	-10.7465
▁harm	-10.7465
would	-10.7487
▁dry	-10.7487
today	-10.7503
▁foolish	-10.7513
▁perched	-10.7513
▁lamp	-10.7513
stop	-10.7518
▁pumpkin	-10.753
▁chicken	-10.7546
▁fence	-10.7546
▁bus	-10.7553
▁glasses	-10.7573
▁rustled	-10.759
▁skill	-10.7591
▁flourished	-10.7628
▁cape	-10.7661
▁knock	-10.7714
▁slide	-10.7724
ria	-10.776
▁peek	-10.7764
▁unexpectedly	-10.7767
▁despi	-10.7794
▁darkened	-10.7794
▁saving	-10.7811
▁unaware	-10.7811
▁engine	-10.7827
▁poem	-10.7827
▁riverbank	-10.7861
▁tag	-10.7878
▁pale	-10.7882
▁weather	-10.7895
each	-10.792
▁shattered	-10.7929
▁advice	-10.7946
because	-10.7969
▁ignite	-10.7997
▁hint	-10.7997
▁argued	-10.8003
when	-10.8004
▁embracing	-10.8014
▁umbrella	-10.8048
▁wake	-10.8048
▁single	-10.8049
▁carved	-10.8065
▁phone	-10.8083
▁emotion	-10.81
▁lush	-10.81
▁void	-10.81
▁soup	-10.8112
▁incredible	-10.8117
▁reply	-10.8169
▁dish	-10.8191
▁illuminat	-10.8204
▁rustle	-10.8209
▁timidly	-10.8209
▁gloom	-10.8221
▁oneself	-10.8239
▁fool	-10.8239
▁pillow	-10.8256
▁grace	-10.8256
▁kid	-10.8259
▁fragile	-10.8309
▁swallow	-10.8309
▁zipp	-10.8315
▁recall	-10.835
▁belief	-10.8362
▁thorn	-10.8362
▁sugar	-10.838
▁movement	-10.8386
▁creep	-10.8396
really	-10.8398
▁outsmart	-10.8433
▁roll	-10.8437
▁judge	-10.8451
▁eventually	-10.8469
▁glory	-10.8469
▁stack	-10.8469
▁hop	-10.8496
▁sick	-10.8505
take	-10.8513
▁dimmed	-10.8523
▁none	-10.8526
▁study	-10.8541
▁steer	-10.8541
▁moss	-10.8546
listen	-10.8548
▁waking	-10.8559
▁pretend	-10.8564
once	-10.8565
▁wobble	-10.8577
▁heartbeat	-10.8595
▁sibling	-10.862
▁lab	-10.8649
▁invisibility	-10.865
▁baking	-10.8668
▁relieved	-10.8668
▁court	-10.8668
▁guitar	-10.8686
▁shaky	-10.8686
▁gasp	-10.8711
special	-10.8712
▁reward	-10.8723
▁admire	-10.8746
▁sunflower	-10.876
▁decision	-10.8778
▁bounced	-10.8796
▁flipped	-10.8796
▁farmer	-10.8797
▁swiftly	-10.8804
▁costume	-10.8815
▁visible	-10.8852
▁interest	-10.8852
▁mar	-10.8869
▁charge	-10.8871
▁settled	-10.8871
▁begun	-10.889
▁stretch	-10.8897
▁asleep	-10.8927
▁herring	-10.8963
▁tapestry	-10.8964
▁abruptly	-10.9021
▁cooperation	-10.9021
stone	-10.9027
▁gracefully	-10.904
▁includ	-10.9059
▁flute	-10.9116
▁pair	-10.9116
▁station	-10.9116
▁markings	-10.9117
▁patch	-10.9135
▁wound	-10.9135
▁succeed	-10.9154
▁explain	-10.9163
▁wagged	-10.9193
▁teased	-10.9194
▁grip	-10.9194
▁palace	-10.9212
▁teammate	-10.9212
▁split	-10.9231
▁swooped	-10.9251
▁trash	-10.9251
▁marble	-10.9251
▁creak	-10.9259
hero	-10.9264
▁shoe	-10.9266
▁gnome	-10.927
▁evil	-10.9289
▁stairs	-10.9368
▁plotted	-10.9387
▁bump	-10.9407
▁fuel	-10.9446
▁gear	-10.9466
▁crackled	-10.9489
▁slid	-10.949
▁tasty	-10.9506
▁damp	-10.9525
▁upset	-10.9526
right	-10.9551
▁crow	-10.9562
▁heavier	-10.9565
▁coffee	-10.9605
▁afar	-10.9607
▁bracelet	-10.9625
▁achieve	-10.9646
▁cries	-10.9646
▁pouring	-10.9646
▁suit	-10.9646
▁swift	-10.9657
▁threat	-10.9666
▁invention	-10.9666
while	-10.9676
▁crops	-10.9686
▁encouraging	-10.9686
▁paintbrush	-10.9747
▁awoke	-10.9767
with	-10.9777
▁throne	-10.9788
find	-10.9818
▁applause	-10.987
▁hopping	-10.989
▁twinge	-10.9952
▁anxious	-10.9973
▁blind	-10.9973
▁pressing	-10.9973
▁foot	-10.9994
▁teeth	-11.0015
▁worm	-11.0036
▁cities	-11.0057
▁scheme	-11.0099
▁coach	-11.0099
▁chip	-11.0104
▁grasp	-11.012
▁overhead	-11.012
▁abandoned	-11.0141
▁alarm	-11.0141
▁competition	-11.0183
▁terrible	-11.0183
▁chamber	-11.0205
▁conscience	-11.0205
▁genie	-11.0205
▁neat	-11.0205
eyed	-11.0209
▁lurking	-11.0226
▁discuss	-11.0247
▁zoom	-11.0282
▁accident	-11.0333
▁ribbon	-11.0333
▁frightened	-11.0355
wood	-11.0366
▁design	-11.0398
▁respond	-11.0398
▁shelves	-11.0442
▁artifact	-11.0464
▁thin	-11.0476
▁brightening	-11.0487
▁closing	-11.0507
▁curtain	-11.0507
▁shut	-11.0507
▁spider	-11.0507
▁fake	-11.0507
▁math	-11.0508
▁tilted	-11.0529
▁rebuild	-11.0551
▁couple	-11.0574
▁skateboard	-11.0574
▁crush	-11.0596
▁lemonade	-11.0596
▁since	-11.0596
▁clarity	-11.0618
▁attack	-11.064
▁hooted	-11.0662
▁awaken	-11.0662
▁baby	-11.0685
▁riding	-11.0685
▁pressure	-11.0707
▁prepare	-11.0739
▁backward	-11.0774
▁garage	-11.0774
▁scroll	-11.0774
▁treat	-11.079
▁maze	-11.0797
▁vegetables	-11.0797
▁bought	-11.082
▁disappointment	-11.082
▁vehicle	-11.082
▁scann	-11.082
▁flapping	-11.0842
▁rooftop	-11.0865
▁easily	-11.0888
▁skipped	-11.0888
▁crumbling	-11.089
▁sorcerer	-11.0911
▁banana	-11.0934
▁boots	-11.0934
▁thud	-11.0934
▁glistening	-11.0934
▁patient	-11.0956
▁loyal	-11.0956
▁stall	-11.0979
▁uncertain	-11.0979
▁pulse	-11.099
▁snack	-11.1021
▁factory	-11.1026
▁drove	-11.1026
▁winner	-11.1026
▁bunny	-11.1049
▁knot	-11.1049
▁basketball	-11.1072
▁church	-11.1072
▁journal	-11.1072
▁trophy	-11.1095
dream	-11.1108
▁scream	-11.1112
even	-11.1112
▁heavily	-11.1119
▁preparing	-11.1142
▁radiant	-11.1165
▁role	-11.1165
▁wires	-11.1165
▁smirk	-11.1236
▁mysteries	-11.1236
▁local	-11.1236
▁ski	-11.1294
▁flavor	-11.1307
▁flood	-11.1324
▁neck	-11.1331
▁survive	-11.1331
▁crisp	-11.1355
▁dodging	-11.1379
▁eerie	-11.1379
▁rays	-11.1379
▁detective	-11.1403
▁betray	-11.1417
▁underneath	-11.1427
▁temple	-11.1451
▁store	-11.1451
▁mused	-11.1523
▁fame	-11.1524
▁juice	-11.1572
▁dread	-11.1596
▁glimpse	-11.1596
▁student	-11.1624
▁happiest	-11.1646
0	-11.9764
1	-12.4142
2	-12.4403
3	-12.6668
5	-12.9453
9	-13.5478
q	-13.7873
8	-14.104
*	-14.2016
7	-14.5692
4	-14.9204
6	-14.9204
+	-16.2494
(	-16.2494
)	-16.2494
