<unk>	0
<s>	0
</s>	0
<pad>	0
<0x00>	0
<0x01>	0
<0x02>	0
<0x03>	0
<0x04>	0
<0x05>	0
<0x06>	0
<0x07>	0
<0x08>	0
<0x09>	0
<0x0A>	0
<0x0B>	0
<0x0C>	0
<0x0D>	0
<0x0E>	0
<0x0F>	0
<0x10>	0
<0x11>	0
<0x12>	0
<0x13>	0
<0x14>	0
<0x15>	0
<0x16>	0
<0x17>	0
<0x18>	0
<0x19>	0
<0x1A>	0
<0x1B>	0
<0x1C>	0
<0x1D>	0
<0x1E>	0
<0x1F>	0
<0x20>	0
<0x21>	0
<0x22>	0
<0x23>	0
<0x24>	0
<0x25>	0
<0x26>	0
<0x27>	0
<0x28>	0
<0x29>	0
<0x2A>	0
<0x2B>	0
<0x2C>	0
<0x2D>	0
<0x2E>	0
<0x2F>	0
<0x30>	0
<0x31>	0
<0x32>	0
<0x33>	0
<0x34>	0
<0x35>	0
<0x36>	0
<0x37>	0
<0x38>	0
<0x39>	0
<0x3A>	0
<0x3B>	0
<0x3C>	0
<0x3D>	0
<0x3E>	0
<0x3F>	0
<0x40>	0
<0x41>	0
<0x42>	0
<0x43>	0
<0x44>	0
<0x45>	0
<0x46>	0
<0x47>	0
<0x48>	0
<0x49>	0
<0x4A>	0
<0x4B>	0
<0x4C>	0
<0x4D>	0
<0x4E>	0
<0x4F>	0
<0x50>	0
<0x51>	0
<0x52>	0
<0x53>	0
<0x54>	0
<0x55>	0
<0x56>	0
<0x57>	0
<0x58>	0
<0x59>	0
<0x5A>	0
<0x5B>	0
<0x5C>	0
<0x5D>	0
<0x5E>	0
<0x5F>	0
<0x60>	0
<0x61>	0
<0x62>	0
<0x63>	0
<0x64>	0
<0x65>	0
<0x66>	0
<0x67>	0
<0x68>	0
<0x69>	0
<0x6A>	0
<0x6B>	0
<0x6C>	0
<0x6D>	0
<0x6E>	0
<0x6F>	0
<0x70>	0
<0x71>	0
<0x72>	0
<0x73>	0
<0x74>	0
<0x75>	0
<0x76>	0
<0x77>	0
<0x78>	0
<0x79>	0
<0x7A>	0
<0x7B>	0
<0x7C>	0
<0x7D>	0
<0x7E>	0
<0x7F>	0
<0x80>	0
<0x81>	0
<0x82>	0
<0x83>	0
<0x84>	0
<0x85>	0
<0x86>	0
<0x87>	0
<0x88>	0
<0x89>	0
<0x8A>	0
<0x8B>	0
<0x8C>	0
<0x8D>	0
<0x8E>	0
<0x8F>	0
<0x90>	0
<0x91>	0
<0x92>	0
<0x93>	0
<0x94>	0
<0x95>	0
<0x96>	0
<0x97>	0
<0x98>	0
<0x99>	0
<0x9A>	0
<0x9B>	0
<0x9C>	0
<0x9D>	0
<0x9E>	0
<0x9F>	0
<0xA0>	0
<0xA1>	0
<0xA2>	0
<0xA3>	0
<0xA4>	0
<0xA5>	0
<0xA6>	0
<0xA7>	0
<0xA8>	0
<0xA9>	0
<0xAA>	0
<0xAB>	0
<0xAC>	0
<0xAD>	0
<0xAE>	0
<0xAF>	0
<0xB0>	0
<0xB1>	0
<0xB2>	0
<0xB3>	0
<0xB4>	0
<0xB5>	0
<0xB6>	0
<0xB7>	0
<0xB8>	0
<0xB9>	0
<0xBA>	0
<0xBB>	0
<0xBC>	0
<0xBD>	0
<0xBE>	0
<0xBF>	0
<0xC0>	0
<0xC1>	0
<0xC2>	0
<0xC3>	0
<0xC4>	0
<0xC5>	0
<0xC6>	0
<0xC7>	0
<0xC8>	0
<0xC9>	0
<0xCA>	0
<0xCB>	0
<0xCC>	0
<0xCD>	0
<0xCE>	0
<0xCF>	0
<0xD0>	0
<0xD1>	0
<0xD2>	0
<0xD3>	0
<0xD4>	0
<0xD5>	0
<0xD6>	0
<0xD7>	0
<0xD8>	0
<0xD9>	0
<0xDA>	0
<0xDB>	0
<0xDC>	0
<0xDD>	0
<0xDE>	0
<0xDF>	0
<0xE0>	0
<0xE1>	0
<0xE2>	0
<0xE3>	0
<0xE4>	0
<0xE5>	0
<0xE6>	0
<0xE7>	0
<0xE8>	0
<0xE9>	0
<0xEA>	0
<0xEB>	0
<0xEC>	0
<0xED>	0
<0xEE>	0
<0xEF>	0
<0xF0>	0
<0xF1>	0
<0xF2>	0
<0xF3>	0
<0xF4>	0
<0xF5>	0
<0xF6>	0
<0xF7>	0
<0xF8>	0
<0xF9>	0
<0xFA>	0
<0xFB>	0
<0xFC>	0
<0xFD>	0
<0xFE>	0
<0xFF>	0
.	-2.58252
,	-2.79
▁the	-2.88621
▁a	-3.53156
▁and	-3.83128
▁to	-4.00163
▁he	-4.08899
▁she	-4.14006
▁they	-4.26622
▁"	-4.33796
▁of	-4.3753
▁her	-4.45383
▁in	-4.48508
▁it	-4.56347
▁was	-4.56837
▁with	-4.69304
▁but	-4.90995
▁that	-5.01667
▁his	-5.09024
▁felt	-5.09698
▁as	-5.11466
s	-5.12416
!"	-5.25526
▁had	-5.25874
▁their	-5.42938
▁for	-5.47993
'	-5.54964
▁said	-5.61654
▁on	-5.68321
▁one	-5.72211
▁him	-5.75875
▁heart	-5.79957
?"	-5.80616
▁you	-5.81132
▁could	-5.81532
"	-5.84235
▁i	-5.84938
▁not	-5.86653
▁found	-5.87792
▁at	-5.90405
▁like	-5.92068
▁day	-5.93025
▁together	-5.96052
!	-5.98908
i	-5.99717
▁them	-5.99754
▁girl	-6.07117
▁be	-6.08807
▁each	-6.10773
▁is	-6.13665
▁were	-6.13776
▁about	-6.144
▁would	-6.16502
▁from	-6.16842
▁just	-6.1773
▁into	-6.18736
▁joy	-6.19866
▁boy	-6.20085
▁thought	-6.21276
▁mia	-6.21484
▁this	-6.23131
▁can	-6.24205
."	-6.24807
▁filled	-6.2695
▁up	-6.27415
▁leo	-6.28102
▁looked	-6.31696
▁back	-6.34703
▁friends	-6.3505
▁when	-6.35765
ing	-6.39205
▁find	-6.40461
▁old	-6.40745
▁eyes	-6.41285
▁small	-6.42856
▁smiled	-6.43108
▁saw	-6.43824
▁feeling	-6.44321
▁asked	-6.46063
▁through	-6.46372
▁made	-6.47395
▁alex	-6.47476
▁bright	-6.47749
▁all	-6.47787
▁around	-6.49167
▁light	-6.50814
▁lost	-6.50887
▁named	-6.50959
▁wanted	-6.51962
▁treasure	-6.52498
▁time	-6.53773
▁help	-6.5459
▁began	-6.56042
▁sky	-6.56343
▁stars	-6.56491
▁by	-6.56692
▁stories	-6.57059
▁world	-6.57516
▁out	-6.58038
▁kim	-6.58929
▁night	-6.59926
▁if	-6.60661
▁inside	-6.60923
▁samuel	-6.63015
▁dreams	-6.64204
▁what	-6.65241
▁learned	-6.67432
what	-6.67647
▁suddenly	-6.68917
▁big	-6.70404
▁love	-6.70618
▁laughter	-6.71541
▁new	-6.73641
▁who	-6.73856
▁shared	-6.73864
▁its	-6.74038
ed	-6.74233
▁will	-6.74458
▁we	-6.74956
▁an	-6.75439
▁air	-6.75442
▁realized	-6.76325
▁more	-6.77431
▁magic	-6.78874
▁laughed	-6.78931
▁sun	-6.79957
?	-6.80548
▁decided	-6.81573
▁friend	-6.83527
▁something	-6.83813
you	-6.84094
▁then	-6.87527
▁took	-6.88298
▁are	-6.8842
▁knew	-6.89298
▁my	-6.8951
▁danced	-6.91088
▁dark	-6.92144
▁home	-6.92581
▁down	-6.92687
▁there	-6.92733
▁tree	-6.9325
▁every	-6.93358
▁people	-6.93869
▁flowers	-6.94807
▁away	-6.95243
t	-6.95312
▁see	-6.95316
▁walked	-6.95941
▁did	-6.97522
▁hope	-6.98203
▁where	-6.98271
▁again	-6.98389
▁moment	-6.98421
▁everyone	-6.98644
▁me	-7.0001
▁garden	-7.00079
▁strange	-7.01122
▁turned	-7.01377
▁man	-7.03176
▁now	-7.04435
▁deep	-7.04757
▁rita	-7.04956
▁hidden	-7.0503
▁stood	-7.05622
▁other	-7.05965
▁over	-7.06353
▁do	-7.06734
▁sat	-7.0702
▁even	-7.07482
▁how	-7.08557
▁have	-7.08611
▁adventure	-7.10049
▁lily	-7.11186
▁way	-7.11529
▁place	-7.1341
▁happy	-7.14326
▁shouted	-7.14649
▁full	-7.14678
▁loved	-7.1597
▁map	-7.16501
▁brave	-7.1676
▁little	-7.16918
▁came	-7.17144
▁knowing	-7.18026
▁water	-7.18394
▁colors	-7.18824
▁told	-7.19691
▁voice	-7.21009
▁trees	-7.21483
▁make	-7.21512
▁always	-7.21823
▁others	-7.21956
▁story	-7.22152
▁fun	-7.22439
▁life	-7.22824
▁so	-7.23371
▁no	-7.24325
▁forest	-7.24357
▁after	-7.25585
▁under	-7.25937
▁whispered	-7.26475
▁share	-7.26657
▁city	-7.27057
▁too	-7.27521
▁shadows	-7.27671
▁alone	-7.28355
▁reached	-7.28497
▁watched	-7.28815
we	-7.30098
▁own	-7.30468
▁set	-7.31137
▁opened	-7.31955
▁held	-7.32865
▁beautiful	-7.33111
▁fear	-7.33759
▁soon	-7.33935
▁door	-7.33982
▁than	-7.34823
▁alice	-7.35413
▁cave	-7.3585
▁stone	-7.37142
▁while	-7.37204
▁go	-7.38964
▁remembered	-7.39027
▁must	-7.3919
▁village	-7.39307
▁jose	-7.40302
▁sad	-7.40409
▁heard	-7.40975
▁hard	-7.41388
▁star	-7.41692
▁ran	-7.41758
▁maria	-7.42123
▁true	-7.42226
▁your	-7.43353
;	-7.43592
▁smile	-7.44438
▁sharing	-7.44581
▁ready	-7.44633
▁many	-7.44664
▁want	-7.45303
▁friendship	-7.45369
▁wind	-7.46095
▁grew	-7.46394
▁come	-7.46793
▁finally	-7.46844
▁tall	-7.46878
▁jean	-7.47698
▁room	-7.47969
▁both	-7.49245
▁lena	-7.49965
▁giant	-7.50021
▁stepped	-7.50204
▁nodded	-7.50266
▁played	-7.50268
▁soft	-7.50901
▁never	-7.51363
▁only	-7.51476
▁breath	-7.51495
▁became	-7.51793
▁cheered	-7.52017
this	-7.5214
▁once	-7.52204
▁spoke	-7.52642
▁excited	-7.52823
▁excitement	-7.52868
let	-7.53109
▁feel	-7.53466
▁curious	-7.53868
▁warm	-7.54364
▁special	-7.55589
▁gathered	-7.56235
▁best	-7.5651
▁replied	-7.5669
▁noticed	-7.56921
▁emmanuel	-7.57221
n	-7.57466
▁fish	-7.57602
▁woman	-7.58001
▁words	-7.58043
▁hand	-7.58292
▁strong	-7.5842
▁face	-7.58588
▁behind	-7.58696
▁long	-7.59658
▁warmth	-7.5977
▁days	-7.60338
▁clouds	-7.60445
▁flew	-7.60446
▁dream	-7.60466
▁returned	-7.60471
▁wish	-7.60638
▁proud	-7.60813
▁young	-7.60915
▁past	-7.60998
▁path	-7.61726
▁softly	-7.621
-	-7.6277
▁ground	-7.62885
▁closer	-7.64169
▁storm	-7.64937
▁bring	-7.64981
▁seemed	-7.65045
▁flower	-7.65327
▁before	-7.65477
▁still	-7.65845
▁sparkled	-7.65869
▁play	-7.65979
▁bird	-7.66035
▁power	-7.6652
▁tiny	-7.67181
▁book	-7.67537
▁take	-7.68172
▁great	-7.68284
▁town	-7.68584
▁above	-7.68772
▁next	-7.68797
▁hearts	-7.69018
▁heavy	-7.69387
▁change	-7.70153
▁memories	-7.70477
▁family	-7.70557
▁called	-7.71009
▁listened	-7.71648
▁fell	-7.71822
▁ship	-7.7184
▁raced	-7.72794
▁looking	-7.72843
▁being	-7.73421
▁worked	-7.73643
▁first	-7.75094
▁off	-7.75123
▁step	-7.75313
▁magical	-7.7674
▁alive	-7.7698
▁courage	-7.76998
▁also	-7.77271
▁outside	-7.77362
▁promised	-7.77758
▁appeared	-7.77783
▁here	-7.7783
▁things	-7.78618
▁need	-7.78685
▁himself	-7.78711
▁work	-7.78718
▁wise	-7.78898
▁am	-7.7902
▁instead	-7.79671
▁dragon	-7.79804
▁secrets	-7.79904
▁journey	-7.80052
▁met	-7.80581
▁secret	-7.81204
▁glowing	-7.81272
▁anne	-7.81378
▁mind	-7.81518
▁dance	-7.81591
▁peter	-7.81728
▁brought	-7.81951
▁land	-7.82465
▁laughing	-7.8298
▁herself	-7.83033
▁yet	-7.83196
▁happiness	-7.83379
▁us	-7.8361
▁end	-7.84343
▁shiny	-7.84421
▁gold	-7.8474
▁passed	-7.84989
▁left	-7.85243
▁kindness	-7.8535
▁high	-7.8551
▁slowly	-7.85645
▁colorful	-7.85774
▁box	-7.86015
▁wondered	-7.86503
▁sea	-7.86893
▁real	-7.87053
▁showed	-7.87157
▁creature	-7.87488
▁hands	-7.88748
▁shining	-7.88907
▁started	-7.89113
▁game	-7.89269
▁robot	-7.89806
▁scared	-7.89827
▁some	-7.89914
▁thinking	-7.90084
▁last	-7.90234
▁understood	-7.90703
▁adventures	-7.90883
▁or	-7.92145
▁wide	-7.92242
▁key	-7.92349
▁our	-7.92393
▁free	-7.92547
▁quiet	-7.92606
▁let	-7.93203
▁group	-7.93433
▁picked	-7.9413
▁spirit	-7.94902
▁show	-7.95068
▁letter	-7.95184
▁making	-7.95466
▁part	-7.95499
▁climbed	-7.95678
▁river	-7.96096
▁park	-7.96446
▁keep	-7.96824
▁lived	-7.97012
▁island	-7.9807
▁wrote	-7.98194
why	-7.98276
▁truth	-7.98519
it	-7.98528
▁	-7.99365
▁different	-7.99433
▁weight	-8.00067
▁followed	-8.00626
▁plan	-8.00999
▁tales	-8.01158
▁owl	-8.01575
▁tell	-8.01694
▁discovered	-8.01895
▁explore	-8.02339
▁know	-8.02368
▁waves	-8.02702
▁join	-8.02989
a	-8.03183
▁rock	-8.03576
▁children	-8.0423
▁strength	-8.04365
▁open	-8.04527
▁sweet	-8.05013
▁figure	-8.05105
▁jumped	-8.05723
▁kind	-8.05737
▁far	-8.05938
▁snow	-8.06264
▁spark	-8.06359
▁led	-8.06557
▁creatures	-8.06596
▁went	-8.06647
▁leaves	-8.07191
▁been	-8.07197
▁sound	-8.07204
▁rain	-8.07217
▁better	-8.0786
▁trust	-8.08185
▁everything	-8.08537
▁waiting	-8.08602
▁turtle	-8.09468
▁beauty	-8.09797
▁brighter	-8.09828
▁create	-8.09882
▁sang	-8.10678
▁those	-8.10787
▁child	-8.11038
▁kids	-8.11475
▁music	-8.117
▁wished	-8.11702
▁among	-8.11881
▁closed	-8.11937
▁cold	-8.12133
▁sometimes	-8.12359
▁grow	-8.13129
▁think	-8.13384
▁often	-8.13517
▁fox	-8.14022
▁ever	-8.14335
:	-8.14779
▁moved	-8.14826
▁rabbit	-8.15818
▁shadow	-8.16087
▁food	-8.16134
▁flying	-8.16339
▁sadness	-8.16829
▁chest	-8.16882
▁glow	-8.16916
▁deeper	-8.17056
▁without	-8.17604
▁remember	-8.17703
▁shone	-8.17841
▁surprise	-8.17996
▁needed	-8.18156
▁space	-8.18266
▁echoed	-8.18447
▁helped	-8.18909
m	-8.19075
▁exclaimed	-8.19499
▁wonder	-8.19606
▁animals	-8.19809
▁read	-8.19909
▁good	-8.20973
▁castle	-8.21003
▁cat	-8.21403
▁loud	-8.21472
▁another	-8.21517
▁lay	-8.21594
▁dreamed	-8.21854
▁quickly	-8.2222
▁funny	-8.22253
▁faded	-8.22506
▁toward	-8.22629
▁playing	-8.22708
▁close	-8.23326
▁agreed	-8.23538
▁swam	-8.23632
▁fly	-8.23719
▁near	-8.23759
▁look	-8.24287
▁woods	-8.24679
▁darkness	-8.24774
▁across	-8.24947
▁return	-8.25202
▁alien	-8.26073
▁watching	-8.26088
▁forever	-8.26186
▁blue	-8.26266
▁mother	-8.2635
▁glowed	-8.26367
▁beneath	-8.26546
▁approached	-8.26578
▁ocean	-8.26798
▁floated	-8.26805
▁moon	-8.27123
▁lights	-8.27145
▁landed	-8.27433
▁stronger	-8.27534
▁searched	-8.27792
▁father	-8.27971
▁fairy	-8.28346
▁walls	-8.28808
▁spotted	-8.28987
▁silly	-8.29072
▁brightly	-8.29755
▁gasped	-8.2997
▁should	-8.30067
▁someone	-8.30568
▁racing	-8.30579
▁gentle	-8.30666
▁luis	-8.30768
▁today	-8.30932
▁treasures	-8.31452
▁idea	-8.31715
▁changed	-8.31719
ly	-8.31882
look	-8.32262
▁tried	-8.3309
▁seen	-8.33368
▁bond	-8.33424
but	-8.33701
▁forward	-8.34294
▁helping	-8.343
▁stones	-8.34472
can	-8.35224
▁within	-8.35711
▁hero	-8.35779
▁hoping	-8.35849
▁art	-8.36069
▁kingdom	-8.36097
▁gently	-8.36468
▁trying	-8.36541
▁hill	-8.36566
▁empty	-8.36747
▁sparkling	-8.37063
▁dinosaur	-8.37129
▁whispers	-8.37619
▁boat	-8.37683
▁painted	-8.38006
▁lonely	-8.38265
▁imagined	-8.38582
▁upon	-8.38877
▁right	-8.38992
▁leader	-8.39054
▁wandered	-8.39314
▁built	-8.39389
▁house	-8.39799
▁searching	-8.39864
▁pull	-8.39968
▁thank	-8.40003
▁faced	-8.40545
▁crew	-8.40704
▁dog	-8.40717
▁arrived	-8.40753
▁school	-8.40963
▁against	-8.40973
thank	-8.41399
d	-8.41632
▁villagers	-8.41678
▁joined	-8.41687
▁waved	-8.41846
▁pulled	-8.41928
▁morning	-8.41939
▁lead	-8.42306
▁hear	-8.42416
▁laugh	-8.42598
maybe	-8.43122
▁side	-8.43376
▁leaving	-8.4352
yes	-8.44609
▁safe	-8.44634
▁along	-8.44748
▁wave	-8.44993
▁covered	-8.45937
▁two	-8.46128
▁leave	-8.46159
▁fast	-8.46381
▁race	-8.46693
▁cried	-8.46744
▁mirror	-8.4682
▁festival	-8.46881
▁king	-8.4708
▁nearby	-8.4714
▁grass	-8.47622
▁below	-8.47889
▁care	-8.4793
▁head	-8.48018
▁team	-8.48246
▁stopped	-8.48335
▁pushed	-8.48667
▁evening	-8.48687
▁games	-8.48796
▁realiz	-8.49349
▁crowd	-8.49534
▁shook	-8.49986
▁cloud	-8.50315
▁crystal	-8.5056
▁got	-8.50685
▁breeze	-8.50726
▁give	-8.51235
▁much	-8.51701
▁window	-8.51861
▁rushed	-8.5196
▁piece	-8.52077
▁created	-8.52823
▁wings	-8.53032
▁any	-8.53152
▁fears	-8.53487
▁smiling	-8.53722
▁believe	-8.54218
▁believed	-8.5452
▁thick	-8.54612
▁rush	-8.54696
▁ball	-8.54708
▁letters	-8.54777
▁gone	-8.54851
▁kept	-8.54962
▁might	-8.54981
▁dancing	-8.55018
▁stumbled	-8.55018
▁sunny	-8.55391
▁twinkled	-8.55698
▁edge	-8.56169
▁lit	-8.56295
▁surprised	-8.56382
▁fire	-8.56482
▁golden	-8.56546
▁wishes	-8.56735
▁silence	-8.56785
if	-8.56932
▁worried	-8.56936
▁used	-8.57006
▁dreaming	-8.57432
▁sense	-8.57715
the	-8.5813
▁holding	-8.58306
▁shine	-8.58752
▁turn	-8.59368
y	-8.60135
▁jester	-8.60513
▁talked	-8.6066
▁curiosity	-8.6079
▁learn	-8.60794
▁dusty	-8.61019
▁shore	-8.61363
▁pirate	-8.61515
▁carefully	-8.61734
▁connection	-8.62584
▁sitting	-8.62804
▁painting	-8.62915
▁birds	-8.63062
▁brother	-8.63293
▁stay	-8.63333
▁build	-8.63999
▁sounds	-8.65012
▁faces	-8.65354
▁song	-8.65552
▁future	-8.65642
▁inspired	-8.65916
▁follow	-8.65946
▁anything	-8.66224
▁moments	-8.66821
▁sand	-8.66886
▁very	-8.67084
▁knight	-8.67109
▁tale	-8.6715
▁top	-8.67396
▁cool	-8.67778
do	-8.67931
▁riddle	-8.68108
▁beside	-8.68237
is	-8.68358
▁caught	-8.68458
▁memory	-8.69142
▁gift	-8.69397
▁spent	-8.69896
▁earth	-8.70026
▁ideas	-8.70124
▁try	-8.70212
▁get	-8.70227
▁wrong	-8.70277
▁closely	-8.70368
▁grandmother	-8.70678
▁hold	-8.7098
▁candy	-8.71004
▁seek	-8.71055
▁grabbed	-8.71267
▁planet	-8.71306
▁smiles	-8.71322
▁mountain	-8.71408
▁maybe	-8.71511
▁red	-8.71673
▁later	-8.71692
▁has	-8.71706
▁important	-8.71838
▁finding	-8.71914
▁places	-8.71922
▁beach	-8.72236
▁amazing	-8.72522
▁thoughts	-8.72854
▁bear	-8.72894
▁pain	-8.72972
▁ancient	-8.73192
▁tears	-8.74165
▁filling	-8.74276
▁rocks	-8.74279
▁everywhere	-8.74403
▁longer	-8.74477
▁hours	-8.74591
▁quietly	-8.7471
▁spread	-8.74852
▁between	-8.74996
▁year	-8.75255
▁clock	-8.75612
er	-8.75634
▁determined	-8.75658
▁creating	-8.75772
▁win	-8.75895
▁songs	-8.75938
▁years	-8.76661
▁green	-8.76717
▁rolled	-8.76941
▁broken	-8.76965
▁s	-8.77403
▁ago	-8.7744
▁suggested	-8.77909
▁remind	-8.77918
▁carry	-8.77975
▁amazed	-8.78397
▁party	-8.78462
▁reach	-8.78485
▁touched	-8.78587
▁gave	-8.78681
▁confused	-8.78988
▁note	-8.80068
▁bloomed	-8.80623
▁kite	-8.80654
▁understanding	-8.80676
▁pointed	-8.80851
▁toy	-8.80995
▁peace	-8.81024
▁lighter	-8.81781
▁shell	-8.81952
▁yelled	-8.8256
▁chance	-8.82825
▁afraid	-8.83047
▁weeks	-8.83052
▁running	-8.83121
r	-8.83367
▁tightly	-8.83581
▁surrounded	-8.83626
▁corner	-8.83929
▁ghost	-8.83953
▁forgotten	-8.84338
▁loss	-8.84462
▁write	-8.84498
▁explored	-8.84588
▁same	-8.84789
▁entered	-8.84796
▁mix	-8.84855
▁known	-8.8498
▁feels	-8.85073
▁name	-8.85116
▁toys	-8.85565
▁sister	-8.85671
▁noise	-8.85722
▁run	-8.85878
▁continued	-8.8636
▁taking	-8.86483
▁clever	-8.87067
▁valley	-8.87108
▁rainbow	-8.87546
▁nervous	-8.87588
▁blew	-8.87845
▁shimmered	-8.87945
▁reminder	-8.88089
▁explained	-8.88166
▁invited	-8.88422
▁soared	-8.88425
▁shimmering	-8.88656
▁paint	-8.88943
▁fall	-8.89004
▁taught	-8.89199
▁fade	-8.89305
▁ahead	-8.89331
▁talk	-8.89625
▁comes	-8.89733
▁distance	-8.8991
▁listen	-8.89946
▁thrill	-8.90022
▁revealing	-8.90292
▁mean	-8.90443
▁fight	-8.90705
▁finished	-8.9092
▁watch	-8.91074
▁friendly	-8.91111
re	-8.91115
▁teamwork	-8.91321
▁mountains	-8.91362
p	-8.91415
▁field	-8.91434
▁bridge	-8.91701
▁hurt	-8.9223
▁pond	-8.92967
▁energy	-8.93185
▁explorer	-8.93321
▁eager	-8.93352
▁until	-8.93403
▁stared	-8.93447
▁chill	-8.93468
▁invisible	-8.9365
▁catch	-8.93785
▁going	-8.93803
▁meet	-8.93841
▁missed	-8.94014
▁lives	-8.94031
▁use	-8.94082
▁queen	-8.94256
e	-8.94375
▁don	-8.94451
▁these	-8.94473
▁trapped	-8.94508
▁streets	-8.94641
▁planned	-8.94811
▁seeds	-8.94934
▁favorite	-8.95086
▁wonders	-8.95158
▁showing	-8.95345
▁squirrel	-8.95538
▁wisdom	-8.95952
▁choice	-8.95985
▁tired	-8.96037
▁butterfly	-8.96148
▁pirates	-8.96807
▁goodbye	-8.9711
▁exploring	-8.97251
▁lake	-8.97308
▁stop	-8.97682
▁wild	-8.9771
▁sing	-8.97712
▁attic	-8.97735
▁woke	-8.98107
▁sighed	-8.98283
▁lesson	-8.98444
▁say	-8.98652
▁dust	-8.9875
▁working	-8.98832
▁onto	-8.9892
▁higher	-8.99308
▁wore	-8.99318
▁jewels	-8.99456
▁times	-9.00005
▁touch	-9.00023
▁calm	-9.00138
▁understand	-9.00271
▁giggled	-9.00282
▁spot	-9.00606
▁grateful	-9.00755
▁plants	-9.00804
▁nothing	-9.0081
▁reminded	-9.00839
▁placed	-9.01168
▁feet	-9.01429
▁matter	-9.01441
▁move	-9.01684
▁wall	-9.02126
l	-9.02194
▁person	-9.02322
▁rose	-9.02339
that	-9.02438
▁enchanted	-9.02532
▁promise	-9.0289
▁enough	-9.03193
▁table	-9.03273
▁broke	-9.03656
▁doubt	-9.03918
▁answer	-9.0401
▁busy	-9.04196
▁meant	-9.04436
▁transformed	-9.04573
▁sunlight	-9.04691
▁most	-9.04897
▁save	-9.04905
▁captain	-9.05512
▁paper	-9.0558
▁because	-9.05704
g	-9.0587
▁put	-9.05912
▁act	-9.0597
▁telling	-9.06482
▁bravery	-9.06734
▁coming	-9.06787
▁really	-9.07061
▁cannot	-9.07075
▁visit	-9.07091
▁aliens	-9.07094
▁declared	-9.07508
▁guide	-9.07611
▁singing	-9.07692
▁silver	-9.07728
▁hat	-9.07753
no	-9.0798
▁flickered	-9.08018
▁hugged	-9.08076
▁winter	-9.08176
▁gather	-9.08364
▁stuck	-9.08999
▁fill	-9.09066
▁climb	-9.09164
▁branches	-9.09197
▁clear	-9.09219
▁spaceship	-9.09287
▁fierce	-9.10261
▁arms	-9.10311
▁mission	-9.10481
▁echoing	-9.10563
▁library	-9.11098
▁rocket	-9.11204
oh	-9.11392
▁plant	-9.11699
▁perfect	-9.12884
▁danger	-9.12925
▁coins	-9.13582
▁well	-9.13805
▁happened	-9.13863
▁drawn	-9.14009
▁bloom	-9.14054
▁flash	-9.14054
▁sailed	-9.14071
▁growing	-9.141
c	-9.14402
where	-9.14801
▁however	-9.14981
▁anyone	-9.15134
▁color	-9.15205
▁celebrated	-9.15349
▁powerful	-9.15355
how	-9.15489
▁dinosaurs	-9.15586
▁low	-9.15783
▁saying	-9.16317
▁whisper	-9.16351
▁simple	-9.16635
▁happily	-9.16738
▁hesitated	-9.17155
▁hide	-9.17187
▁shape	-9.17486
▁pressed	-9.17545
▁hiding	-9.17552
▁talking	-9.17687
▁moonlight	-9.17782
▁anger	-9.18204
▁burst	-9.18313
▁feather	-9.18388
▁ice	-9.18452
▁why	-9.18488
▁search	-9.18547
▁challenge	-9.18613
▁worry	-9.18691
▁gem	-9.18743
▁moving	-9.18903
▁beyond	-9.18938
▁crept	-9.19327
▁hills	-9.1935
▁eagerly	-9.19359
▁hung	-9.19524
▁crown	-9.19537
▁teacher	-9.19884
▁traveled	-9.2
▁frog	-9.20278
▁afternoon	-9.20504
▁does	-9.2055
▁grand	-9.20608
▁prince	-9.20716
▁distant	-9.20827
▁protect	-9.20933
▁carried	-9.20935
▁hit	-9.2101
▁offered	-9.21058
▁paused	-9.21153
es	-9.21162
▁fog	-9.21622
▁revenge	-9.21986
▁twisted	-9.22364
▁trick	-9.22435
▁worlds	-9.22449
▁sorrow	-9.22862
▁lies	-9.2291
▁remembering	-9.22936
▁books	-9.22972
▁wonderful	-9.22993
▁fought	-9.2323
▁though	-9.23358
▁shapes	-9.2337
▁rivers	-9.23371
▁word	-9.23384
▁guiding	-9.23525
▁taken	-9.23656
▁nature	-9.23785
▁center	-9.23896
▁greatest	-9.23995
▁waited	-9.24099
▁unsure	-9.24156
▁traveler	-9.24216
▁building	-9.24285
▁honesty	-9.24321
▁dug	-9.24827
▁few	-9.25052
▁believing	-9.2509
▁car	-9.25305
▁walking	-9.2571
▁lifted	-9.25805
▁universe	-9.25882
▁won	-9.25882
▁leading	-9.25926
▁large	-9.25943
▁clapped	-9.25996
▁haunted	-9.26
▁truly	-9.26794
▁cake	-9.26823
▁monster	-9.26976
▁slipped	-9.27139
▁may	-9.27245
▁swirled	-9.2732
▁mouse	-9.27369
▁tight	-9.27752
▁become	-9.27942
▁packed	-9.28616
▁tower	-9.29038
who	-9.29261
▁smell	-9.29273
hello	-9.29273
wow	-9.29386
▁shy	-9.2944
▁flowed	-9.29641
▁dawn	-9.297
▁saved	-9.29728
▁escape	-9.29796
▁cookies	-9.29811
▁fix	-9.29967
▁winds	-9.29975
▁welcomed	-9.30137
▁imagination	-9.30225
▁rise	-9.30291
▁start	-9.30402
▁lift	-9.30443
▁heroes	-9.30554
▁machine	-9.3074
▁hopes	-9.30823
▁vanished	-9.30824
▁ended	-9.30997
▁using	-9.31057
▁symbol	-9.3106
▁plans	-9.31271
▁voices	-9.31368
▁snowman	-9.31527
▁balloon	-9.31703
▁themselves	-9.31926
▁surface	-9.32186
o	-9.3223
lmost	-9.32369
▁eye	-9.32716
▁bit	-9.32924
▁which	-9.32978
they	-9.32985
▁forgot	-9.33098
▁spring	-9.33425
help	-9.33554
▁break	-9.33618
▁roared	-9.33826
▁bigger	-9.33962
▁absence	-9.34121
▁feelings	-9.34275
▁careful	-9.34598
▁front	-9.34739
▁freedom	-9.34949
▁blanket	-9.35069
▁standing	-9.35259
▁sought	-9.35361
to	-9.35456
▁calling	-9.35541
▁biggest	-9.35695
▁quick	-9.35923
▁warned	-9.35959
▁wash	-9.36256
▁done	-9.36385
▁paths	-9.36508
▁fingers	-9.37027
▁silent	-9.37142
▁belonged	-9.37367
▁crossed	-9.37887
▁chaos	-9.38103
▁gathering	-9.38457
▁sign	-9.38675
▁giving	-9.38704
▁wishing	-9.38876
▁late	-9.38924
▁whispering	-9.39085
▁line	-9.39224
▁forget	-9.39342
▁celebration	-9.39377
▁joyful	-9.39399
▁knowledge	-9.39699
▁pages	-9.39962
▁robots	-9.40003
b	-9.4011
▁canvas	-9.40221
ll	-9.40261
▁butterflies	-9.40264
▁added	-9.40427
▁vibrant	-9.40483
▁determination	-9.40571
▁loudly	-9.4065
▁howled	-9.40741
▁bench	-9.40956
▁cruel	-9.41275
▁celebrate	-9.41296
▁pearl	-9.41577
▁vines	-9.41579
▁crashed	-9.41886
▁brings	-9.42333
▁picture	-9.42476
▁pounding	-9.42478
▁speak	-9.42577
▁snacks	-9.4281
▁prepared	-9.42926
▁creativity	-9.43011
▁street	-9.43145
▁poured	-9.43425
▁feast	-9.43506
▁sank	-9.43506
▁grant	-9.43524
▁angry	-9.43597
▁orange	-9.43777
▁fields	-9.43994
▁dirt	-9.44532
▁bag	-9.44881
▁ways	-9.44903
welcome	-9.45019
▁vast	-9.45093
▁remained	-9.45311
▁staring	-9.45363
come	-9.45602
▁spirits	-9.45652
▁happen	-9.4566
▁faster	-9.46108
▁quest	-9.4611
▁okay	-9.4613
▁pictures	-9.46208
▁having	-9.46252
▁embrace	-9.46323
▁stayed	-9.46382
f	-9.46432
▁challenges	-9.46605
u	-9.46792
▁doing	-9.47064
▁scary	-9.47137
▁drawing	-9.47205
▁presence	-9.47231
▁creaked	-9.47433
▁spun	-9.47607
▁tricks	-9.47648
▁huge	-9.47895
▁else	-9.47936
▁dear	-9.4794
▁thing	-9.48128
▁fluffy	-9.48506
▁wait	-9.48708
▁compass	-9.48929
▁summer	-9.49123
▁drew	-9.49601
▁pointing	-9.4981
▁walk	-9.50082
▁honest	-9.50305
▁frowned	-9.50354
▁fruit	-9.50368
▁hid	-9.50403
▁gazed	-9.50525
▁fresh	-9.50662
▁betrayal	-9.50663
▁looks	-9.50883
▁ride	-9.50941
▁wrapped	-9.51005
▁ruins	-9.51443
▁twist	-9.51455
▁makes	-9.51457
▁worth	-9.51521
▁society	-9.51637
▁missing	-9.51774
▁loomed	-9.51837
▁backyard	-9.5198
▁buried	-9.5209
▁ask	-9.5254
▁formed	-9.5255
now	-9.52631
▁grinned	-9.5282
▁t	-9.53057
▁pride	-9.53067
▁branch	-9.53107
▁casting	-9.53225
▁lantern	-9.53379
▁pulling	-9.53685
▁shells	-9.53773
and	-9.53808
▁swim	-9.53864
▁learning	-9.54188
▁hoped	-9.54383
▁grin	-9.54516
▁chase	-9.54581
▁call	-9.54704
ever	-9.54864
▁bad	-9.54897
▁turning	-9.549
▁liked	-9.55097
▁chose	-9.55225
▁tail	-9.55479
▁clearing	-9.55541
▁control	-9.56023
▁reaching	-9.56095
▁circle	-9.56255
▁stream	-9.56381
▁planted	-9.56389
▁self	-9.56451
▁swirling	-9.56476
▁snowy	-9.5648
▁tradition	-9.56485
▁hopped	-9.56503
▁son	-9.56511
▁shaking	-9.56605
▁meeting	-9.56609
▁oak	-9.56811
▁hunt	-9.5705
▁discover	-9.57334
▁answers	-9.5739
▁asking	-9.57453
▁choices	-9.57577
▁mist	-9.57678
▁floor	-9.57743
▁floating	-9.57955
during	-9.58031
▁hair	-9.58108
▁mom	-9.58117
▁puppy	-9.58737
▁solve	-9.59296
▁bed	-9.59519
▁sit	-9.59883
▁final	-9.5993
▁emerged	-9.59955
▁bushes	-9.60014
▁twirled	-9.60035
▁diamonds	-9.60098
▁fair	-9.60253
k	-9.60506
▁lose	-9.60757
▁clues	-9.60934
▁beast	-9.6097
▁flicker	-9.61402
▁inviting	-9.61563
▁peeked	-9.61575
▁lessons	-9.61578
▁enjoyed	-9.6162
▁following	-9.61835
▁connected	-9.62072
will	-9.62111
are	-9.62234
▁roots	-9.62454
▁splashed	-9.62753
in	-9.62775
▁apart	-9.62812
▁jump	-9.62825
▁fading	-9.62869
▁winning	-9.62924
▁bike	-9.63165
▁whole	-9.63252
▁symbols	-9.63289
▁thief	-9.63418
▁button	-9.6383
▁chuckled	-9.63861
▁shown	-9.63915
▁seeing	-9.63922
▁sent	-9.64031
▁seed	-9.64601
w	-9.64917
▁imagining	-9.6514
▁panic	-9.6514
▁mixed	-9.65571
▁chased	-9.65671
▁visited	-9.65688
▁market	-9.65702
▁beat	-9.65892
▁difference	-9.66024
▁louder	-9.6605
▁unknown	-9.66267
▁excitedly	-9.66302
▁purpose	-9.66494
▁enjoy	-9.66779
▁ones	-9.66905
▁finish	-9.6695
▁draw	-9.6699
▁beginning	-9.67052
▁drifted	-9.67154
▁cozy	-9.67178
▁sunset	-9.67407
▁drawings	-9.67493
▁view	-9.67524
▁coin	-9.67803
▁practiced	-9.67996
▁enjoying	-9.68209
▁brush	-9.68266
▁push	-9.68266
dear	-9.68923
▁prove	-9.69034
▁heal	-9.6915
▁hole	-9.69319
▁shake	-9.69727
found	-9.69811
▁white	-9.69844
▁choose	-9.69847
▁trembling	-9.70021
▁sight	-9.7026
▁tug	-9.70263
▁twinkle	-9.70707
▁pink	-9.71264
▁intrigued	-9.71563
▁tools	-9.71733
▁fruits	-9.71806
▁itself	-9.71982
le	-9.72021
▁net	-9.72162
▁shop	-9.72162
▁yourself	-9.72162
▁teach	-9.72189
▁failure	-9.72363
st	-9.72391
▁kitchen	-9.72463
▁sharp	-9.72765
▁eat	-9.72778
▁turns	-9.73126
▁struck	-9.7325
▁focused	-9.73349
▁test	-9.73443
▁yard	-9.73554
▁travel	-9.74263
▁bottle	-9.74506
▁unexpected	-9.74818
▁fairies	-9.74969
▁splash	-9.75229
▁class	-9.75337
▁stroke	-9.75462
▁blinked	-9.75576
▁course	-9.76146
▁daughter	-9.76273
▁lovely	-9.76662
▁glass	-9.76828
te	-9.77139
▁rang	-9.77201
▁listening	-9.77237
▁pocket	-9.77407
▁week	-9.77455
▁storms	-9.7758
▁reflection	-9.77586
▁three	-9.77728
▁washed	-9.77839
▁awe	-9.77923
▁clothes	-9.78044
▁trouble	-9.78074
▁playful	-9.78106
▁fort	-9.78321
▁admired	-9.78322
▁knelt	-9.78361
▁worries	-9.78489
▁falling	-9.78834
▁wanting	-9.79054
▁mysterious	-9.79108
▁page	-9.79129
▁happening	-9.79236
▁gifts	-9.79268
▁says	-9.796
▁witch	-9.79779
▁aloud	-9.79843
▁leaf	-9.79843
▁responsibility	-9.79843
▁project	-9.80168
▁guardian	-9.80171
▁roar	-9.8021
▁pile	-9.80281
▁crash	-9.80406
▁greed	-9.80411
▁superhero	-9.80485
▁planets	-9.80665
▁octopus	-9.80756
▁spell	-9.80894
en	-9.80956
▁meadow	-9.8115
▁skies	-9.81217
▁live	-9.81244
▁stand	-9.8126
▁sword	-9.81424
or	-9.81744
▁problem	-9.81756
▁longing	-9.81759
▁gray	-9.82142
your	-9.82265
▁wizard	-9.82275
▁poet	-9.82275
▁rusty	-9.82342
▁entrance	-9.82541
▁princess	-9.82671
▁digging	-9.82674
▁swayed	-9.82781
▁artist	-9.83097
▁pieces	-9.83158
▁swirl	-9.83396
▁sail	-9.83617
▁fighting	-9.83699
▁taste	-9.83929
▁yes	-9.83953
▁chirped	-9.84098
▁holds	-9.84268
▁cheer	-9.84437
▁battle	-9.845
▁rainy	-9.84532
▁clean	-9.84549
▁honor	-9.8458
▁harder	-9.84601
▁skin	-9.84704
▁mystery	-9.84766
▁sure	-9.84955
▁belong	-9.84968
ness	-9.85015
▁hopeful	-9.85023
▁encouraged	-9.85109
▁mess	-9.85217
▁picnic	-9.8545
▁wood	-9.85486
▁independence	-9.85521
▁cover	-9.86235
▁leaned	-9.86302
▁glimmered	-9.86356
est	-9.8642
▁petals	-9.8646
▁losing	-9.86486
▁message	-9.86528
▁worn	-9.86694
▁ears	-9.86837
just	-9.86868
▁chasing	-9.87182
▁gems	-9.8736
▁nights	-9.87436
▁anymore	-9.87463
▁nice	-9.87744
▁smelled	-9.88024
▁uncover	-9.88118
▁bush	-9.88155
▁steps	-9.88601
▁weak	-9.88694
▁twinkling	-9.88731
▁swimming	-9.88731
▁lingered	-9.88829
▁coral	-9.89073
▁seeking	-9.89153
▁middle	-9.89157
▁lands	-9.894
▁tomorrow	-9.89518
▁smart	-9.89637
▁horizon	-9.89729
▁goal	-9.89925
▁perhaps	-9.89949
▁marked	-9.90353
▁given	-9.90365
▁shot	-9.90376
▁facing	-9.90448
al	-9.90518
▁pushing	-9.90584
▁revealed	-9.90592
▁wolf	-9.90737
▁belonging	-9.90769
▁notes	-9.9102
▁chocolate	-9.91027
▁prize	-9.911
▁dig	-9.91173
▁living	-9.91245
▁support	-9.91419
▁widened	-9.91765
▁trap	-9.92037
▁hungry	-9.92345
▁order	-9.92374
▁rode	-9.92417
▁send	-9.92566
▁reading	-9.92617
▁failed	-9.92633
▁echoes	-9.92644
these	-9.92911
▁bread	-9.93303
▁questions	-9.93334
▁feared	-9.93389
▁fountain	-9.93452
did	-9.93658
▁riches	-9.93685
▁fallen	-9.9384
▁stage	-9.94348
▁soul	-9.94539
▁warning	-9.94551
▁answered	-9.94714
▁celebrating	-9.948
▁surprises	-9.94893
▁dad	-9.95101
▁crab	-9.95276
▁form	-9.95391
▁ventured	-9.95482
▁virtual	-9.95556
▁pass	-9.95716
▁cheers	-9.95753
▁jokes	-9.95841
▁sorry	-9.96014
▁dim	-9.96064
remember	-9.96361
▁easy	-9.96395
▁knows	-9.96459
▁climbing	-9.96565
▁zoomed	-9.9657
▁guided	-9.96603
▁neighbor	-9.96656
▁bubbling	-9.96779
▁forgetting	-9.96784
▁stretched	-9.96802
▁cheerful	-9.97143
▁orb	-9.97151
▁comet	-9.972
▁means	-9.97239
▁replaced	-9.97325
▁train	-9.97344
▁keeper	-9.9739
▁tonight	-9.97557
▁cafe	-9.97706
▁planning	-9.97707
▁spine	-9.97782
▁awaited	-9.97941
▁lett	-9.98506
▁player	-9.98684
▁riddles	-9.98756
▁flow	-9.99073
▁swing	-9.9915
▁depths	-9.99537
▁knights	-9.99565
▁lines	-9.99705
▁apple	-9.99795
▁victory	-9.99903
▁hurried	-9.99983
▁slow	-10.0016
don	-10.0024
▁delight	-10.0025
▁clue	-10.0027
▁dolphin	-10.0035
▁thunder	-10.0038
▁history	-10.0046
▁contest	-10.0054
▁wondering	-10.0068
▁grown	-10.0103
▁necklace	-10.0158
ra	-10.0163
▁flickering	-10.0167
▁bell	-10.017
▁jumping	-10.0175
▁balloons	-10.0179
▁caring	-10.0186
of	-10.0188
▁float	-10.0203
▁stick	-10.0203
▁rest	-10.022
▁mattered	-10.0223
▁cream	-10.0223
▁cared	-10.0251
▁crystals	-10.0269
▁passing	-10.0274
▁darkest	-10.0275
▁cheering	-10.0276
▁treats	-10.0285
▁scent	-10.0287
▁erupted	-10.0305
▁explorers	-10.0316
▁object	-10.0353
▁recalled	-10.0392
▁stepp	-10.0396
▁holiday	-10.0411
▁unicorn	-10.0412
▁fate	-10.0427
▁flashlight	-10.0428
▁buzzed	-10.0464
▁mural	-10.0495
▁mermaid	-10.0495
▁alley	-10.0495
▁thrived	-10.0504
ar	-10.0514
▁ring	-10.0521
▁un	-10.0522
▁comfort	-10.0525
▁connect	-10.0525
▁trip	-10.0536
▁buildings	-10.0559
▁soaring	-10.0561
▁flooded	-10.0572
▁cherish	-10.0575
▁stranger	-10.0576
▁giggling	-10.0587
▁discovery	-10.059
▁steal	-10.0595
▁relief	-10.0604
▁e	-10.0608
▁sparked	-10.0623
▁community	-10.0629
▁becoming	-10.0639
sometimes	-10.0668
▁half	-10.0671
▁threw	-10.068
▁villain	-10.068
▁giggle	-10.0689
▁locket	-10.0697
▁re	-10.0708
▁dashed	-10.074
▁parrot	-10.0791
▁tossed	-10.0791
▁bravely	-10.0801
▁rich	-10.0806
▁creeping	-10.0808
▁gripp	-10.0808
ve	-10.0829
▁homes	-10.0874
▁soar	-10.0882
▁unique	-10.0886
uch	-10.0912
▁unity	-10.0912
▁p	-10.0915
▁wand	-10.0916
hey	-10.0921
▁job	-10.0921
▁torn	-10.0965
▁leap	-10.0971
▁hot	-10.0973
▁steep	-10.0973
▁deer	-10.0991
▁unlock	-10.1005
▁sticks	-10.101
▁tension	-10.1017
▁shifted	-10.1017
▁mistakes	-10.102
▁enter	-10.1024
▁growth	-10.1036
▁odd	-10.105
▁knocked	-10.1094
▁takes	-10.1124
▁bite	-10.1132
▁notebook	-10.1141
▁setting	-10.1145
▁c	-10.1196
▁less	-10.1223
he	-10.1225
▁regret	-10.1235
▁pondered	-10.1248
▁deeply	-10.1256
▁townsfolk	-10.1257
▁raised	-10.1277
▁watered	-10.1308
v	-10.1315
▁shaped	-10.1318
▁myself	-10.1339
▁flashed	-10.1343
▁tunnel	-10.1344
▁base	-10.1348
▁autumn	-10.1348
▁anywhere	-10.1362
▁mine	-10.1366
▁trusted	-10.1367
▁soil	-10.137
▁metal	-10.1401
▁endless	-10.1403
ic	-10.1405
away	-10.1418
▁shooting	-10.1425
▁mistake	-10.1426
▁square	-10.143
▁fit	-10.1432
there	-10.1438
▁urged	-10.1441
▁apples	-10.1452
▁practice	-10.1464
▁feathers	-10.1472
ch	-10.1477
▁students	-10.1479
▁pie	-10.1483
▁steady	-10.1485
▁tough	-10.1488
▁proudly	-10.1488
▁miss	-10.1502
▁keeping	-10.1504
okay	-10.1519
▁splashing	-10.1528
▁disappeared	-10.1528
▁surge	-10.1529
▁desk	-10.1531
▁blooming	-10.1549
▁writing	-10.155
▁porch	-10.1578
▁getting	-10.1579
▁snowflakes	-10.161
▁wearing	-10.1617
▁landing	-10.1619
▁images	-10.1648
▁safety	-10.1652
▁nest	-10.1668
▁players	-10.1689
▁needs	-10.1706
▁wooden	-10.1738
ro	-10.174
▁rising	-10.1746
▁smoke	-10.1765
▁cost	-10.1785
▁civilization	-10.1813
▁irony	-10.1822
▁sees	-10.1833
▁invite	-10.1849
▁minutes	-10.1881
▁leaped	-10.1883
▁second	-10.1898
▁tied	-10.1909
▁scales	-10.1916
▁waving	-10.1918
▁shelf	-10.1918
▁ticked	-10.1934
▁smooth	-10.1935
▁familiar	-10.1957
▁shocked	-10.1965
▁hall	-10.197
▁hug	-10.1974
ers	-10.198
▁despair	-10.1986
▁siblings	-10.1997
▁promising	-10.2024
▁portal	-10.2024
ling	-10.2049
▁trembled	-10.2054
x	-10.2058
▁sailor	-10.2064
▁thinks	-10.2076
▁leads	-10.2087
▁families	-10.2093
▁g	-10.2111
an	-10.2124
urging	-10.2132
▁souls	-10.2159
▁machines	-10.2168
▁coat	-10.2182
▁glanc	-10.2214
▁block	-10.222
▁peer	-10.2231
▁emptiness	-10.2241
▁mixing	-10.2247
follow	-10.2247
▁friendships	-10.2249
▁puzzle	-10.226
▁already	-10.2261
▁creation	-10.2262
▁swept	-10.227
▁dipped	-10.2271
▁lock	-10.2279
▁clutch	-10.228
▁purple	-10.229
▁ghosts	-10.2295
▁yellow	-10.2299
▁united	-10.2301
▁cliff	-10.2312
▁road	-10.2373
▁hats	-10.2375
▁traditions	-10.2384
▁doors	-10.239
▁jungle	-10.2391
▁skills	-10.2399
▁circles	-10.2405
▁betrayed	-10.2416
▁crying	-10.2417
▁notice	-10.2419
▁beamed	-10.2435
▁wisely	-10.2439
midst	-10.2439
▁statue	-10.2441
▁seasons	-10.2448
▁basket	-10.2454
▁shelter	-10.2472
▁screen	-10.2474
▁spinning	-10.2492
▁ant	-10.2501
▁planting	-10.2506
▁scare	-10.2521
▁shoes	-10.2521
▁parents	-10.2523
▁rhythm	-10.2523
▁underground	-10.2533
▁joke	-10.2533
▁loneliness	-10.2543
every	-10.2543
sh	-10.2551
▁childhood	-10.2553
▁studied	-10.2553
▁troll	-10.2553
▁sigh	-10.2563
▁neighbors	-10.257
▁mud	-10.2574
▁locked	-10.2617
▁doubts	-10.2638
▁glimmer	-10.2649
▁written	-10.2656
▁maps	-10.2671
▁kitten	-10.2677
▁struggled	-10.2679
on	-10.2703
▁bake	-10.2705
▁dove	-10.2719
▁guard	-10.2747
▁whale	-10.275
▁present	-10.2759
▁chair	-10.2765
▁cry	-10.2765
▁embraced	-10.2766
ter	-10.2768
▁received	-10.2771
▁puzzled	-10.2784
▁seem	-10.2797
▁trunk	-10.2803
▁picking	-10.284
▁success	-10.2855
▁renewed	-10.2866
▁attention	-10.2887
▁hum	-10.2897
▁opening	-10.2906
▁ache	-10.2906
▁dangerous	-10.2919
then	-10.2927
could	-10.2947
▁pet	-10.2949
▁club	-10.2951
▁expected	-10.2951
▁joyfully	-10.2952
ally	-10.2961
▁lady	-10.2961
▁pretty	-10.2983
▁curiously	-10.2989
▁wants	-10.2991
▁underwater	-10.2994
▁check	-10.3008
▁balance	-10.3015
▁echo	-10.3039
▁question	-10.3064
▁discovering	-10.3071
▁ached	-10.3082
▁valuable	-10.309
▁respect	-10.3112
▁serious	-10.3123
▁weeds	-10.3125
▁older	-10.3134
▁grandfather	-10.3134
▁pick	-10.3145
▁uncovered	-10.3174
▁desire	-10.3215
▁cloak	-10.322
▁melody	-10.3221
▁guarded	-10.3233
▁bubbles	-10.3235
▁finds	-10.3239
▁breaking	-10.3266
▁reality	-10.3267
▁playground	-10.3276
▁lunch	-10.3287
▁flapped	-10.3298
▁happier	-10.3309
▁round	-10.3309
▁spreading	-10.3313
▁money	-10.332
▁exchanged	-10.3332
▁instant	-10.334
▁granted	-10.3349
please	-10.3372
▁paintings	-10.3375
▁beating	-10.3375
▁bubble	-10.3382
▁pot	-10.34
▁shines	-10.341
um	-10.3413
▁wandering	-10.3414
▁black	-10.3443
▁exciting	-10.3443
▁wrapp	-10.3444
▁vowed	-10.3467
▁inspire	-10.3481
▁reflecting	-10.3492
z	-10.3495
▁shined	-10.3501
▁device	-10.351
▁dropped	-10.351
▁nose	-10.3523
▁lifting	-10.3535
▁drink	-10.3565
▁tune	-10.3576
▁raged	-10.3579
▁dress	-10.3589
▁expect	-10.3589
▁wet	-10.3589
▁boxes	-10.359
▁bold	-10.3597
▁struggle	-10.3597
ble	-10.36
▁narrow	-10.3601
▁darker	-10.3603
▁shift	-10.3604
ck	-10.3611
▁birthday	-10.3612
▁returning	-10.3613
▁signs	-10.3619
▁sparkle	-10.3661
la	-10.3662
▁sneak	-10.3662
led	-10.3671
▁ate	-10.3688
▁talent	-10.3726
▁soccer	-10.3727
▁dull	-10.3738
▁roamed	-10.3752
▁rules	-10.3767
▁accepted	-10.3781
▁unlike	-10.3796
▁flick	-10.3804
▁pencil	-10.3831
▁possible	-10.3831
▁parts	-10.3836
▁sailing	-10.3837
▁lion	-10.3843
▁rivalry	-10.3843
▁audience	-10.3854
▁trail	-10.3854
▁legs	-10.3858
ion	-10.3864
one	-10.3878
▁weaving	-10.389
▁passion	-10.389
▁reveal	-10.3908
▁teaching	-10.391
▁logic	-10.3913
stay	-10.3921
▁mask	-10.3937
my	-10.3973
▁changing	-10.4007
▁fur	-10.4017
together	-10.404
▁screamed	-10.4061
▁lanterns	-10.4063
ur	-10.4064
▁blossomed	-10.4074
▁overcome	-10.4077
▁moves	-10.4086
▁backpack	-10.4091
wait	-10.4097
▁flight	-10.4103
▁kites	-10.4105
▁froze	-10.411
▁lined	-10.4121
se	-10.4122
▁match	-10.4139
▁cracked	-10.4162
▁cabin	-10.4187
▁minds	-10.4203
▁waterfall	-10.4223
▁announced	-10.4223
▁further	-10.4235
▁sparkles	-10.4236
▁charm	-10.4243
be	-10.4249
▁cookie	-10.4262
ful	-10.4264
▁fixed	-10.4284
▁eagle	-10.4284
▁member	-10.4286
▁stolen	-10.4288
▁dive	-10.4292
▁pretending	-10.4319
▁gust	-10.432
▁scattered	-10.4334
▁meaning	-10.4336
▁baked	-10.4348
▁confusion	-10.4357
▁slipping	-10.4357
▁price	-10.4357
▁raccoon	-10.4369
▁mouth	-10.4382
▁vision	-10.4385
▁grows	-10.4386
▁safely	-10.4387
▁cross	-10.4403
▁bee	-10.4413
▁bustling	-10.4419
▁scene	-10.4422
▁point	-10.4431
▁importance	-10.4431
▁brightened	-10.4435
▁collected	-10.4442
▁grinning	-10.4444
▁rocky	-10.4464
▁famous	-10.4468
▁cut	-10.447
▁fail	-10.4477
▁pan	-10.4481
▁forth	-10.4511
▁body	-10.4518
▁aside	-10.4519
▁flowing	-10.452
▁owner	-10.4527
▁popped	-10.4531
▁season	-10.4547
▁stomach	-10.4556
▁rustling	-10.4568
▁shoulders	-10.4584
▁struggling	-10.4593
▁confident	-10.4603
▁roof	-10.4618
▁waters	-10.4628
see	-10.464
▁bark	-10.4653
ma	-10.466
▁dressed	-10.4669
▁crack	-10.4674
▁impress	-10.4683
▁desert	-10.4694
▁lying	-10.4694
less	-10.4717
▁kicked	-10.4726
▁bonds	-10.4729
▁sadly	-10.4734
▁tasted	-10.4737
▁delicious	-10.4745
▁figures	-10.4749
▁thrilled	-10.4776
▁keys	-10.4787
hi	-10.4789
▁younger	-10.4798
▁glade	-10.4798
ho	-10.4815
▁visions	-10.4819
only	-10.4835
▁rushing	-10.4835
▁shock	-10.4836
▁dragons	-10.4859
▁patience	-10.4874
▁short	-10.4911
▁rough	-10.4913
▁monkey	-10.4926
▁rare	-10.4926
▁forms	-10.495
▁telescope	-10.4952
▁spin	-10.4952
▁effort	-10.4958
▁sleep	-10.4959
▁b	-10.4962
▁wear	-10.4964
▁grab	-10.4965
▁sudden	-10.4975
▁string	-10.4976
▁early	-10.4979
▁luck	-10.4989
▁frozen	-10.4996
▁bags	-10.5001
▁gaze	-10.5002
ce	-10.5069
▁tells	-10.507
▁brushed	-10.507
▁giants	-10.5075
▁silently	-10.509
▁towers	-10.5108
▁bottom	-10.5136
▁forming	-10.5139
▁firm	-10.5147
▁ironic	-10.5149
▁greeted	-10.5151
▁taller	-10.5155
▁tripped	-10.5162
▁trusting	-10.5166
next	-10.5199
▁shows	-10.521
▁urge	-10.5213
▁scarf	-10.5216
▁d	-10.525
▁scratched	-10.527
▁tricky	-10.5276
▁stormy	-10.5288
▁reader	-10.5291
▁cheese	-10.531
▁sunshine	-10.531
▁tear	-10.5314
▁speed	-10.5321
ver	-10.5337
▁pulsed	-10.5338
▁winding	-10.5344
▁peaceful	-10.5348
▁gazing	-10.535
▁shimmer	-10.5363
▁swung	-10.5364
▁baker	-10.5364
▁lie	-10.5371
▁admitted	-10.5377
▁frogs	-10.5381
▁sprite	-10.5391
▁collect	-10.5403
▁crawled	-10.5407
▁men	-10.5418
▁shrugged	-10.5432
▁halls	-10.5433
▁ruled	-10.5433
▁glimmering	-10.544
▁resilience	-10.5446
▁rabbits	-10.5447
▁shiver	-10.5458
▁uneasy	-10.5514
▁snail	-10.5528
▁powers	-10.5528
▁buy	-10.5556
▁walks	-10.5557
▁laughs	-10.556
▁cleared	-10.5565
▁caves	-10.5605
▁problems	-10.5623
▁blink	-10.5653
▁harmony	-10.5653
▁gate	-10.5665
▁struggles	-10.5669
▁tallest	-10.5693
▁hour	-10.5707
ies	-10.5709
▁cast	-10.5734
▁pizza	-10.5737
▁task	-10.5764
▁frustrated	-10.578
▁jar	-10.5792
▁chosen	-10.5794
▁inspiration	-10.5822
ation	-10.5835
▁earlier	-10.5837
ting	-10.5841
▁curse	-10.5849
▁tuck	-10.5851
▁meal	-10.5853
▁blooms	-10.5855
▁wrap	-10.5862
▁continue	-10.5863
▁burden	-10.5865
▁tangled	-10.5865
▁lively	-10.587
▁hollow	-10.5879
▁stirred	-10.5879
▁warrior	-10.5907
▁please	-10.5925
trust	-10.5932
▁grumpy	-10.5937
▁warmed	-10.594
▁fluttered	-10.5946
▁fireflies	-10.5951
▁lightning	-10.5952
▁pen	-10.5955
▁flames	-10.5964
▁precious	-10.598
▁dinner	-10.5994
▁ruin	-10.5996
▁gardens	-10.6011
▁smaller	-10.6036
▁resting	-10.6039
▁footsteps	-10.6052
▁swelled	-10.6077
▁imagine	-10.608
▁decide	-10.6094
▁unseen	-10.6096
▁harvest	-10.6111
▁tortoise	-10.6111
▁joked	-10.6158
▁action	-10.6175
▁bare	-10.6189
buried	-10.6195
▁generosity	-10.6199
▁dared	-10.6216
il	-10.6223
rex	-10.6227
▁rolling	-10.6227
▁pure	-10.6228
▁drop	-10.6229
▁rainbows	-10.6237
▁disappointed	-10.6244
▁snowball	-10.6245
join	-10.6255
▁greater	-10.6258
▁grandma	-10.6259
▁squeaked	-10.6275
▁buttons	-10.6296
▁stole	-10.6298
as	-10.6305
▁bubbled	-10.6306
▁egg	-10.6315
▁blank	-10.6333
▁brightest	-10.6366
▁townspeople	-10.6378
▁lot	-10.6381
▁treehouse	-10.6393
time	-10.6395
▁shout	-10.6396
ted	-10.6401
▁guilt	-10.6406
▁rival	-10.6409
▁ringing	-10.6423
▁dreamer	-10.6426
here	-10.6432
▁realm	-10.6436
▁midnight	-10.6438
▁ordinary	-10.6438
▁responsible	-10.6438
▁seaweed	-10.6438
▁hurry	-10.6453
go	-10.6462
▁actions	-10.6468
▁carrot	-10.647
keep	-10.648
▁event	-10.6491
▁ancestors	-10.6499
▁horse	-10.6499
▁ants	-10.6513
▁galaxy	-10.6514
▁throw	-10.6538
▁twirling	-10.6541
▁spilled	-10.6546
▁r	-10.656
▁lighthouse	-10.659
▁shield	-10.659
▁pool	-10.6606
▁possibilities	-10.6606
▁larger	-10.6611
▁reflected	-10.6625
▁berries	-10.6636
▁gratitude	-10.6636
▁stealing	-10.6667
▁spoon	-10.6667
▁painter	-10.6669
▁force	-10.6671
▁pretended	-10.6677
▁shade	-10.6686
▁f	-10.6694
▁legends	-10.67
▁startled	-10.6715
▁solved	-10.672
▁enemy	-10.6729
▁giggles	-10.6743
me	-10.6749
▁tea	-10.6763
▁jewel	-10.6764
▁guess	-10.6764
▁neighborhood	-10.6776
▁source	-10.6776
▁elder	-10.6778
▁starry	-10.6779
▁houses	-10.6796
not	-10.6806
▁animal	-10.6812
▁confidence	-10.6823
▁classroom	-10.6823
▁barked	-10.6853
▁royal	-10.687
▁asks	-10.6916
▁corners	-10.694
proving	-10.6951
▁months	-10.6957
should	-10.6962
▁wealth	-10.6966
▁fireworks	-10.6977
▁supplies	-10.6981
▁guards	-10.6991
▁value	-10.6995
▁bicycle	-10.6997
▁elephant	-10.7013
▁piano	-10.7029
▁lucky	-10.7032
▁shadowy	-10.7052
▁freely	-10.7052
▁cheeks	-10.7058
▁sink	-10.7061
▁bouncing	-10.7062
▁pay	-10.708
▁hummed	-10.7094
ng	-10.71
▁fishing	-10.7105
▁surprising	-10.7124
▁company	-10.7126
▁harm	-10.7126
▁paddled	-10.7127
▁dry	-10.7143
would	-10.7155
▁slip	-10.7158
today	-10.7171
▁foolish	-10.7175
▁lamp	-10.7175
▁perched	-10.7175
▁confront	-10.7179
▁doll	-10.718
▁melted	-10.7181
▁size	-10.7198
▁chicken	-10.7207
▁fence	-10.7207
▁shouting	-10.7226
▁glasses	-10.7226
▁accept	-10.7228
hold	-10.7237
▁rustled	-10.7242
▁classmates	-10.7251
▁freed	-10.726
▁add	-10.7262
▁tricked	-10.7276
▁cleaned	-10.7285
▁flourished	-10.7294
▁peak	-10.7297
▁wildly	-10.7303
▁stands	-10.7304
ent	-10.733
▁castles	-10.7334
▁cape	-10.7344
▁slide	-10.7352
▁whistle	-10.737
▁puzzles	-10.737
▁knock	-10.7394
▁cleaning	-10.7396
▁sens	-10.7408
▁unexpectedly	-10.7412
▁disappear	-10.7427
▁despi	-10.7455
▁darkened	-10.7455
▁sled	-10.7458
▁sandcastle	-10.7464
▁saving	-10.7472
▁unaware	-10.7472
▁score	-10.7504
▁sly	-10.7521
▁riverbank	-10.7523
▁cars	-10.7548
▁tag	-10.7548
▁co	-10.7575
ment	-10.7576
▁shattered	-10.7593
▁advice	-10.7607
▁beings	-10.7617
because	-10.7638
▁hint	-10.7658
▁argued	-10.7659
when	-10.7672
▁embracing	-10.7675
▁misty	-10.7681
▁mark	-10.7691
▁single	-10.7696
th	-10.7699
▁claimed	-10.7703
▁umbrella	-10.771
▁wake	-10.771
▁astronaut	-10.772
qu	-10.7723
▁carved	-10.7727
▁breathe	-10.7738
term	-10.7738
▁phone	-10.7744
at	-10.7754
▁candle	-10.7755
▁lush	-10.7761
▁void	-10.7761
▁puddles	-10.7764
▁soup	-10.7768
▁incredible	-10.7779
▁chilly	-10.779
▁healing	-10.7794
▁thanks	-10.78
▁buzzing	-10.7803
▁acorn	-10.7807
▁nowhere	-10.7825
▁reply	-10.7831
▁battles	-10.7841
▁timidly	-10.7867
▁cook	-10.7871
▁begin	-10.7877
▁rustle	-10.7881
▁oneself	-10.79
▁streams	-10.7907
▁swell	-10.7961
▁fragile	-10.7971
▁joining	-10.7971
▁kid	-10.7983
▁shades	-10.7984
▁human	-10.8019
▁belief	-10.8024
▁recall	-10.803
▁promises	-10.803
▁sugar	-10.8041
us	-10.8045
▁dangers	-10.8051
really	-10.8058
am	-10.8064
▁opens	-10.8065
▁members	-10.8073
▁creep	-10.8078
▁seems	-10.8088
▁goes	-10.8089
once	-10.81
▁faint	-10.811
▁mighty	-10.8112
▁flutter	-10.812
▁eventually	-10.813
▁glory	-10.813
▁bitter	-10.8131
▁appear	-10.8132
▁roll	-10.8138
▁calmly	-10.8145
▁sick	-10.8166
▁catching	-10.8168
ie	-10.8171
▁dimmed	-10.8184
▁none	-10.8185
id	-10.8186
▁moss	-10.8203
▁calmed	-10.8203
ir	-10.8212
▁eating	-10.8216
▁waking	-10.822
up	-10.8224
▁pebble	-10.8234
▁collecting	-10.8243
▁sensed	-10.8254
▁heartbeat	-10.8257
▁nod	-10.8259
love	-10.8261
▁smallest	-10.8262
▁pretend	-10.8264
▁swings	-10.8282
▁invisibility	-10.8311
▁somewhere	-10.8313
▁frown	-10.8319
▁snowballs	-10.8328
▁baking	-10.8329
▁relieved	-10.8329
▁sibling	-10.8344
▁guitar	-10.8348
▁shaky	-10.8348
▁ghostly	-10.8365
▁wheels	-10.8369
lly	-10.8371
special	-10.8381
▁counted	-10.8395
▁admire	-10.8397
▁decision	-10.844
▁flipped	-10.8458
▁bounced	-10.8459
▁swiftly	-10.846
▁claim	-10.8465
▁farmer	-10.8467
▁focus	-10.8486
▁visible	-10.8514
▁beginnings	-10.8518
▁settled	-10.8533
▁pale	-10.8536
▁puddle	-10.8549
▁connecting	-10.8551
▁begun	-10.8551
▁scents	-10.8554
▁sneaky	-10.8554
▁dolphins	-10.8557
▁tick	-10.8559
▁defeated	-10.858
▁asleep	-10.8588
▁ignor	-10.8593
▁headed	-10.8603
▁herring	-10.8609
off	-10.8614
▁begins	-10.8614
▁hop	-10.8614
▁tapestry	-10.8626
▁heads	-10.8641
▁forests	-10.8647
▁blow	-10.8647
▁cherished	-10.8652
▁matters	-10.8657
▁adding	-10.8666
▁track	-10.8681
▁abruptly	-10.8683
▁cooperation	-10.8683
▁troubles	-10.8685
▁remain	-10.8688
co	-10.8699
▁gracefully	-10.8702
▁n	-10.8703
oo	-10.8706
▁web	-10.8714
▁strongest	-10.8715
▁glittering	-10.8716
▁scored	-10.8742
▁lab	-10.8754
▁starts	-10.8755
▁ear	-10.8769
▁perfectly	-10.8772
▁flute	-10.8778
▁station	-10.8778
▁pair	-10.8778
▁warmly	-10.8788
▁patch	-10.8797
▁markings	-10.8797
▁duck	-10.8803
▁board	-10.8826
▁click	-10.8843
▁wagged	-10.8854
▁teased	-10.8855
▁messy	-10.8859
ive	-10.8869
▁palace	-10.8874
de	-10.8881
she	-10.8882
▁guardians	-10.8892
▁split	-10.8893
▁shoulder	-10.8893
▁trash	-10.8912
▁potion	-10.8912
▁swooped	-10.8914
▁gnome	-10.8932
per	-10.8937
▁count	-10.894
▁evil	-10.8951
▁x	-10.8958
▁risk	-10.8988
hero	-10.8992
▁grip	-10.901
▁wip	-10.9017
▁conquer	-10.9017
▁brothers	-10.9023
▁stairs	-10.9029
▁anti	-10.9037
▁aboard	-10.9039
▁plotted	-10.9049
▁candles	-10.9056
▁amid	-10.9071
▁sandy	-10.9085
▁sway	-10.91
stop	-10.9104
▁nervously	-10.9107
▁fuel	-10.9108
▁hanging	-10.9115
▁court	-10.9127
▁flour	-10.9147
▁crackled	-10.9148
▁tasty	-10.9167
▁breathing	-10.917
each	-10.9183
▁growled	-10.9183
▁upset	-10.9187
▁damp	-10.9187
▁bees	-10.9222
▁heavier	-10.9227
▁blocked	-10.9231
▁crow	-10.9239
▁coffee	-10.9267
▁afar	-10.9267
▁cup	-10.9269
▁crashing	-10.9278
▁bracelet	-10.9287
▁connections	-10.9305
▁ticking	-10.9305
▁sits	-10.9307
▁cries	-10.9307
▁de	-10.9313
▁pouring	-10.9313
▁swift	-10.9325
▁shouts	-10.9325
while	-10.9344
▁crops	-10.9347
▁encouraging	-10.9347
out	-10.9351
▁area	-10.9357
▁glided	-10.9389
▁items	-10.94
▁paintbrush	-10.9408
▁helper	-10.9418
▁awoke	-10.9429
▁decides	-10.9429
▁braver	-10.9429
▁flame	-10.9431
▁throne	-10.9449
find	-10.9487
▁cloaked	-10.9492
▁blossom	-10.9523
▁bus	-10.953
▁applause	-10.9531
▁touching	-10.9547
▁rumble	-10.955
▁hopping	-10.9552
▁tool	-10.9561
▁drift	-10.9565
▁j	-10.9599
▁twinge	-10.9614
▁skill	-10.9627
▁keepers	-10.9633
▁pressing	-10.9642
▁foot	-10.9656
▁rested	-10.9665
▁growl	-10.9667
▁starting	-10.9669
▁teeth	-10.9676
▁windows	-10.9679
▁thread	-10.9681
▁photos	-10.9693
▁ships	-10.9694
▁worm	-10.9698
▁cursed	-10.9701
▁photo	-10.9702
▁thankful	-10.9708
▁sails	-10.9711
▁glances	-10.9717
▁cities	-10.9718
▁shoe	-10.9723
▁starfish	-10.9742
▁arm	-10.9743
▁coach	-10.976
▁scheme	-10.976
▁recipe	-10.9765
▁overhead	-10.9781
▁abandoned	-10.9803
▁colder	-10.9808
un	-10.9809
▁realize	-10.9842
▁competition	-10.9845
▁terrible	-10.9845
▁hardship	-10.985
▁shovel	-10.985
▁socks	-10.9852
▁war	-10.9859
▁chamber	-10.9866
▁conscience	-10.9866
▁genie	-10.9866
▁neat	-10.9866
▁defeat	-10.9876
▁lurking	-10.9888
▁reef	-10.9893
▁boats	-10.9908
▁crossing	-10.9917
▁tunnels	-10.9918
▁drum	-10.9919
▁offering	-10.9921
take	-10.9927
▁noises	-10.9929
▁fixing	-10.9957
▁surged	-10.9957
▁ignored	-10.9967
▁turtles	-10.997
▁launch	-10.9983
▁decorated	-10.9996
▁h	-11
▁frightened	-11.0018
▁sounded	-11.002
▁bent	-11.0039
use	-11.0041
▁weave	-11.0058
▁partner	-11.0083
▁monsters	-11.0086
▁journeys	-11.0088
▁fool	-11.0092
▁gained	-11.0093
▁stillness	-11.0097
▁spells	-11.0101
▁shelves	-11.0103
▁tide	-11.011
▁charming	-11.0112
▁checked	-11.0127
▁wink	-11.0137
▁thin	-11.0146
▁brightening	-11.0157
▁closing	-11.0169
▁fake	-11.0169
▁shut	-11.0169
▁spider	-11.0169
▁math	-11.0169
▁z	-11.0187
▁cooking	-11.019
▁tilted	-11.0191
▁highest	-11.0203
▁twirl	-11.0207
▁rebuild	-11.0213
▁balls	-11.0217
▁trained	-11.0224
▁characters	-11.0225
▁speaking	-11.0229
▁couple	-11.0235
▁skateboard	-11.0235
▁lemonade	-11.0257
▁glitter	-11.0263
▁clarity	-11.0279
▁petal	-11.0289
▁attack	-11.0302
▁rope	-11.031
▁acts	-11.0318
▁hooted	-11.0326
▁bat	-11.0326
▁burned	-11.033
▁baby	-11.0346
▁riding	-11.0346
▁experience	-11.0353
▁crunched	-11.0355
▁pressure	-11.0369
▁sp	-11.0369
▁trickster	-11.037
▁dares	-11.0372
▁illuminat	-11.0402
▁yours	-11.0406
▁prepare	-11.0412
▁acceptance	-11.0415
board	-11.0421
▁weather	-11.0424
▁spots	-11.0431
▁backward	-11.0436
▁garage	-11.0436
ad	-11.0443
▁distract	-11.0446
▁bar	-11.0447
▁smells	-11.0456
▁maze	-11.0459
▁vegetables	-11.0462
▁writer	-11.0472
▁bought	-11.0481
▁vehicle	-11.0481
▁disappointment	-11.0481
▁con	-11.0489
▁runs	-11.0502
▁flapping	-11.0504
▁eggs	-11.0507
▁seat	-11.0512
▁treat	-11.0514
▁express	-11.0526
▁rooftop	-11.0527
▁praised	-11.0527
▁item	-11.0537
▁easily	-11.0549
▁skipped	-11.0549
▁crumbling	-11.0549
▁dancer	-11.055
land	-11.0557
▁v	-11.0559
for	-11.056
▁sights	-11.057
▁sorcerer	-11.0572
▁gain	-11.0583
▁carrots	-11.0592
▁banana	-11.0595
▁boots	-11.0595
▁glistening	-11.0595
▁thud	-11.0595
▁realizes	-11.0602
▁nuts	-11.0611
▁remembers	-11.0641
▁o	-11.0649
▁pulse	-11.0662
▁guilty	-11.0667
▁drove	-11.0687
▁factory	-11.0687
▁winner	-11.0687
▁dis	-11.069
▁bunny	-11.071
▁knot	-11.071
▁church	-11.0733
▁journal	-11.0733
▁basketball	-11.0734
▁snack	-11.0745
▁trophy	-11.0757
▁pumpkin	-11.0768
▁exist	-11.0768
▁heavily	-11.078
ken	-11.0784
▁scream	-11.0792
tell	-11.0803
▁preparing	-11.0803
▁beautifully	-11.0813
▁unfold	-11.0815
▁radiant	-11.0827
▁role	-11.0827
▁sleeping	-11.0833
▁wires	-11.0839
▁welcome	-11.0842
▁boys	-11.0857
▁local	-11.0897
▁mysteries	-11.0897
▁driven	-11.09
ul	-11.0902
▁travelers	-11.0938
▁sandwiches	-11.0946
▁haunting	-11.095
▁envelop	-11.0958
▁neck	-11.0992
▁emotions	-11.1015
▁sweets	-11.1016
▁crisp	-11.1016
▁weighed	-11.1019
so	-11.1035
▁dodging	-11.104
▁eerie	-11.104
▁band	-11.1041
▁differently	-11.1046
▁rule	-11.105
▁rays	-11.1053
▁detective	-11.1064
▁underneath	-11.1088
▁betray	-11.11
▁complete	-11.1108
▁kick	-11.1108
▁temple	-11.1112
▁store	-11.1112
▁beeped	-11.1168
▁since	-11.1185
▁fame	-11.1185
▁mused	-11.1185
▁protected	-11.1191
▁juice	-11.1234
ity	-11.1237
▁fastest	-11.1241
▁glimpse	-11.1258
▁dread	-11.1258
▁marks	-11.1268
▁outsmart	-11.1271
▁sisters	-11.1306
▁happiest	-11.1307
ant	-11.1313
▁flap	-11.1332
▁landscape	-11.1332
▁reclaim	-11.1332
▁student	-11.1347
▁suit	-11.1356
▁storyteller	-11.1356
▁embarrassed	-11.1358
▁signal	-11.1359
▁cove	-11.138
▁mushrooms	-11.1389
▁youth	-11.1399
▁deepened	-11.1406
▁huddled	-11.1406
▁rumbled	-11.1409
▁breathless	-11.1417
▁escaped	-11.142
▁normal	-11.1431
▁scientist	-11.1431
▁bound	-11.1431
▁sock	-11.1438
▁watches	-11.144
▁roses	-11.1442
▁changes	-11.1451
▁drops	-11.1454
▁easier	-11.1456
▁peeking	-11.1464
▁pa	-11.1468
▁causing	-11.1481
▁lurked	-11.1481
eyed	-11.1483
▁wing	-11.1484
▁visiting	-11.1489
▁cosmos	-11.1506
▁fluttering	-11.1529
▁flies	-11.1531
bo	-11.1547
▁intelligence	-11.1556
▁names	-11.1558
▁twigs	-11.1563
▁humans	-11.1564
▁ingredients	-11.1569
▁craft	-11.1578
▁list	-11.1581
▁herbs	-11.1611
▁bored	-11.1613
▁parted	-11.1617
▁amazement	-11.1632
▁amulet	-11.1632
▁crafted	-11.1644
▁rumor	-11.165
▁agree	-11.1655
▁honey	-11.1658
▁wicked	-11.1658
▁desperate	-11.1683
▁teddy	-11.1683
▁drifting	-11.1704
▁impressed	-11.1707
▁mad	-11.1707
▁fisherman	-11.1709
▁glee	-11.1709
▁mischief	-11.1709
▁cautiously	-11.171
▁tended	-11.1712
well	-11.1718
▁rocked	-11.1722
▁paw	-11.1728
▁watering	-11.1731
▁mo	-11.1735
▁cats	-11.1743
▁least	-11.176
▁vastness	-11.1763
▁paws	-11.1767
▁ropes	-11.1776
el	-11.1781
▁achieve	-11.1784
listen	-11.1808
▁muddy	-11.1812
▁described	-11.1812
▁widely	-11.1823
▁capture	-11.1835
▁brilliant	-11.1838
▁greedy	-11.1845
▁bones	-11.186
▁snake	-11.1864
▁boomed	-11.187
▁raindrops	-11.1877
▁locks	-11.1886
▁gym	-11.189
▁journeyed	-11.1897
▁counting	-11.1912
▁chef	-11.1916
▁puff	-11.1916
▁science	-11.1916
▁glad	-11.1938
▁culture	-11.1942
▁pilot	-11.1942
▁judges	-11.1943
▁begged	-11.1949
▁camera	-11.1966
▁solving	-11.1968
▁spooky	-11.1968
▁sparkly	-11.1971
▁plane	-11.1982
▁woven	-11.1996
▁ripples	-11.2005
▁seashells	-11.2014
▁bug	-11.2015
▁confessed	-11.2024
▁anytime	-11.2024
stone	-11.2028
▁blending	-11.2036
▁papers	-11.2042
true	-11.2044
▁sniffed	-11.205
▁rumors	-11.2055
▁clicked	-11.2063
car	-11.207
▁appreciate	-11.2071
▁sandwich	-11.2073
▁gallery	-11.2074
▁inserted	-11.2074
▁wildflowers	-11.2074
▁strolled	-11.2075
▁ruler	-11.2075
▁wrist	-11.21
▁fiercely	-11.212
▁dusk	-11.2127
▁oven	-11.2127
even	-11.2133
▁heat	-11.215
▁grace	-11.2153
▁lizard	-11.2154
h	-11.2154
▁kissed	-11.2164
▁interest	-11.2164
▁gardener	-11.2174
▁max	-11.2181
▁model	-11.2181
▁slightly	-11.2181
▁throwing	-11.2183
▁sting	-11.2184
▁perform	-11.2199
▁guidance	-11.2207
▁unusual	-11.2207
▁dances	-11.221
▁fades	-11.2211
▁twisting	-11.2219
▁wheel	-11.2257
▁deception	-11.2261
▁pro	-11.2287
▁adventurous	-11.2289
▁welcoming	-11.2289
▁pies	-11.2298
▁dare	-11.2309
art	-11.231
have	-11.2313
▁tiptoed	-11.2316
▁hallway	-11.2316
run	-11.2323
▁skate	-11.2341
▁washing	-11.2343
▁traced	-11.2344
▁brushes	-11.2348
iest	-11.2352
▁swaying	-11.2366
▁duty	-11.237
▁carvings	-11.2389
▁scoop	-11.2398
▁truths	-11.2404
▁helps	-11.2405
ous	-11.2413
▁palm	-11.2425
▁practicing	-11.2425
▁chains	-11.2426
▁kindly	-11.2429
▁learns	-11.2434
▁sprout	-11.2437
sure	-11.2448
▁sailors	-11.2452
▁insisted	-11.2453
▁caused	-11.2454
▁transform	-11.2479
▁barn	-11.2487
▁bow	-11.2494
▁cotton	-11.2508
▁darted	-11.2536
▁squirrels	-11.2558
▁legend	-11.2561
▁parade	-11.2564
▁brown	-11.2595
llowing	-11.26
▁steer	-11.2608
▁faith	-11.262
▁sold	-11.262
▁tender	-11.262
▁cleverness	-11.2625
▁wider	-11.2633
▁vanish	-11.2636
▁lips	-11.264
▁fabric	-11.2648
▁blankets	-11.2649
ack	-11.2651
▁sleepy	-11.2652
▁forgive	-11.2665
ped	-11.2667
▁jellyfish	-11.2676
▁agent	-11.2676
▁encouragement	-11.2676
▁engine	-11.2688
▁cupcakes	-11.2693
▁perseverance	-11.2704
▁philosopher	-11.2704
▁fine	-11.2707
▁swallowed	-11.2711
▁poem	-11.2731
▁teams	-11.2738
▁crayons	-11.2751
▁teammates	-11.276
▁slept	-11.2761
▁fleeting	-11.2761
▁murmured	-11.2764
looking	-11.2764
▁cakes	-11.2767
▁belongs	-11.2776
▁grasp	-11.2778
▁massive	-11.2789
▁sweetly	-11.2793
▁zipp	-11.2828
▁beacon	-11.2847
▁globe	-11.2847
▁snowmen	-11.2847
▁gloomy	-11.2848
▁bowl	-11.2848
▁dough	-11.285
▁launched	-11.2862
▁daring	-11.2875
▁blend	-11.2876
▁cocoa	-11.2904
▁performance	-11.2904
▁ignore	-11.2905
▁movement	-11.2905
▁crowns	-11.2915
▁unfolded	-11.2919
▁blocks	-11.293
▁clapping	-11.2933
▁diary	-11.2933
▁straight	-11.2933
▁musician	-11.2933
▁surround	-11.2934
▁flashback	-11.2962
▁anyway	-11.2964
▁bakery	-11.2966
▁inspiring	-11.2991
▁drinks	-11.2995
▁instantly	-11.2997
vale	-11.3021
▁explain	-11.3021
▁training	-11.3025
▁grove	-11.3049
▁dino	-11.3049
▁wagging	-11.3079
▁captured	-11.3081
▁age	-11.3093
▁deserve	-11.3108
▁serpent	-11.3108
▁richer	-11.3113
▁beam	-11.3118
▁offer	-11.312
▁seas	-11.3128
with	-11.3134
▁tickle	-11.3136
▁thieves	-11.3138
▁unable	-11.3138
▁materials	-11.3145
▁sweeter	-11.3148
many	-11.3165
▁jealous	-11.3166
▁firefly	-11.3167
▁frustration	-11.3167
▁reason	-11.3167
▁tries	-11.3167
▁inventor	-11.3168
▁jealousy	-11.3169
▁goat	-11.3178
▁po	-11.3183
▁hugs	-11.3198
▁rowed	-11.3204
▁wilted	-11.3205
▁masks	-11.3225
▁scooter	-11.3227
▁destination	-11.3227
▁soaked	-11.3234
▁valleys	-11.3244
▁twilight	-11.3257
▁weapon	-11.3257
▁dot	-11.3259
▁tasks	-11.3261
▁slowed	-11.3271
▁spend	-11.3287
▁squealed	-11.3288
▁sneered	-11.3289
▁cart	-11.3291
▁falls	-11.3292
▁hearing	-11.3292
▁challenged	-11.3305
▁whir	-11.3316
▁pearls	-11.3321
▁protector	-11.3321
▁mend	-11.3322
▁br	-11.3351
▁shivering	-11.3353
▁sketched	-11.3355
▁succeed	-11.3365
▁cooked	-11.3367
▁reward	-11.3379
▁dreamers	-11.3389
▁bang	-11.3407
▁ex	-11.3429
▁fl	-11.3431
▁sides	-11.3432
▁timid	-11.3435
▁traps	-11.3436
▁buddy	-11.3438
▁supposed	-11.3468
▁throat	-11.3468
▁truck	-11.3468
▁agreement	-11.3468
▁squeezed	-11.3471
king	-11.3482
▁camp	-11.3482
▁furry	-11.3499
▁compassion	-11.3501
▁study	-11.3513
▁linger	-11.3518
ap	-11.3519
▁softened	-11.3529
▁deck	-11.353
▁thorns	-11.3552
▁ignite	-11.3558
▁cardboard	-11.356
▁armor	-11.3561
▁served	-11.3561
▁dreamland	-11.3567
▁bells	-11.3568
▁artists	-11.3582
▁deadline	-11.3591
▁crunch	-11.361
▁blast	-11.3622
▁threatened	-11.3622
▁tingle	-11.3623
▁pillow	-11.3625
▁decorations	-11.3632
▁author	-11.3653
▁pounded	-11.3655
▁gummy	-11.3684
▁tugged	-11.3684
▁cloth	-11.3714
▁bank	-11.3715
▁boring	-11.3715
▁generations	-11.373
▁fascinated	-11.3747
▁charged	-11.3748
▁meals	-11.375
▁direction	-11.3751
▁sketching	-11.3758
▁playfully	-11.3762
▁glance	-11.377
▁directions	-11.3774
▁survive	-11.3776
▁rage	-11.3776
able	-11.3792
▁kiss	-11.3798
wood	-11.3806
▁blurred	-11.381
▁cage	-11.381
▁hissed	-11.3815
ned	-11.3816
▁loves	-11.3817
▁slid	-11.3831
▁shivered	-11.3837
▁movie	-11.3841
▁melt	-11.3845
▁marbles	-11.3847
▁neared	-11.3861
▁gap	-11.3874
▁released	-11.3876
▁superheroes	-11.3878
▁-	-11.3891
▁fr	-11.3899
▁masterpiece	-11.3905
▁whirred	-11.3905
▁exploded	-11.3905
▁experiences	-11.3925
▁blind	-11.3925
ha	-11.3925
▁acted	-11.393
▁captivated	-11.3937
▁cottage	-11.3937
ru	-11.3937
▁wobbled	-11.3939
▁boldly	-11.3944
▁forces	-11.3963
▁christmas	-11.3969
▁gliding	-11.3969
▁intertwined	-11.3969
▁pad	-11.3974
ber	-11.3978
ria	-11.399
▁arguing	-11.4001
▁clown	-11.4001
▁knife	-11.4001
▁video	-11.4001
▁whiskers	-11.4001
lit	-11.4003
ge	-11.4014
▁grief	-11.4033
▁theater	-11.4034
▁wounds	-11.4041
▁wiser	-11.4055
▁patterns	-11.4066
▁curtain	-11.4072
▁invention	-11.4072
▁nods	-11.4074
▁shifting	-11.4082
▁elders	-11.409
▁raft	-11.4098
our	-11.4102
▁brewed	-11.4102
▁happens	-11.4118
▁flip	-11.4131
▁suffer	-11.4131
▁foe	-11.4131
▁crumbled	-11.4132
▁cheek	-11.4138
▁breezes	-11.4143
▁calls	-11.4148
▁mice	-11.4163
▁forgiveness	-11.4164
ke	-11.4177
▁strings	-11.4179
▁breathed	-11.4189
▁drank	-11.4196
▁pedaled	-11.4202
treasure	-11.4226
▁overheard	-11.4229
▁resolve	-11.4229
▁sell	-11.424
▁unlocked	-11.424
▁guarding	-11.4249
▁lean	-11.425
▁grabbing	-11.4262
▁deepest	-11.427
great	-11.4292
▁thrive	-11.4293
▁diving	-11.4295
▁ourselves	-11.4295
▁panicked	-11.4295
▁pedestal	-11.4295
▁prank	-11.4295
▁chatter	-11.4295
▁dodged	-11.4296
▁cheerfully	-11.4306
▁chip	-11.4307
▁acting	-11.4308
▁dish	-11.4316
▁bittersweet	-11.4362
▁icy	-11.4362
▁paints	-11.4368
▁bits	-11.4372
ry	-11.4373
▁anew	-11.4395
▁flashlights	-11.4397
▁capturing	-11.4429
▁intently	-11.4429
▁shrank	-11.4429
▁simply	-11.4429
▁croaked	-11.4433
▁dancers	-11.4448
▁holes	-11.4462
▁clung	-11.4462
▁workshop	-11.4462
▁seashell	-11.4472
▁crumpled	-11.4496
▁lazily	-11.4496
▁prison	-11.4496
▁approaching	-11.451
▁spoken	-11.4518
▁anxious	-11.4528
▁strategy	-11.453
always	-11.4561
▁triumph	-11.4564
▁combined	-11.4569
▁diamond	-11.4574
▁acorns	-11.4577
▁surrounding	-11.4584
long	-11.4588
mom	-11.4597
▁digital	-11.4598
▁islands	-11.4609
▁logg	-11.4614
▁unite	-11.463
way	-11.4636
hope	-11.4664
▁argue	-11.4665
▁shroud	-11.4667
▁strike	-11.4667
▁glinting	-11.4681
▁moons	-11.4691
▁brushing	-11.4698
▁computer	-11.4701
▁lungs	-11.4701
▁worse	-11.4701
▁chimed	-11.4703
▁finger	-11.4712
▁hunter	-11.4722
▁shyly	-11.4723
▁daisies	-11.4736
▁examin	-11.4736
▁deal	-11.4737
▁sprinkled	-11.4739
▁gear	-11.4747
▁numbers	-11.4771
▁overjoyed	-11.4771
▁whoosh	-11.4771
▁la	-11.4776
▁flavors	-11.4798
good	-11.4802
magic	-11.4802
▁shipwreck	-11.4806
▁master	-11.4806
▁cause	-11.4838
▁noticing	-11.4841
▁restless	-11.4842
▁scratching	-11.4843
▁frost	-11.4857
▁traveling	-11.4866
▁rockets	-11.4868
▁salt	-11.4874
▁ease	-11.4875
▁brewing	-11.4882
▁barking	-11.4887
side	-11.4893
▁races	-11.4898
▁melodies	-11.4911
▁puppet	-11.4911
▁purred	-11.4915
▁stretching	-11.4926
▁glide	-11.4944
▁conflict	-11.4946
▁harsh	-11.4946
▁sketchbook	-11.4946
▁slice	-11.4946
▁marched	-11.4949
▁mischievous	-11.4982
▁ducks	-11.4983
▁salty	-11.4983
▁artifact	-11.4994
--	-11.4999
▁selling	-11.5
▁beard	-11.5017
▁clap	-11.5017
▁ceiling	-11.5017
▁refused	-11.5022
▁swords	-11.5047
▁investigate	-11.5053
▁plain	-11.5053
▁transformation	-11.5053
▁rooms	-11.5069
▁log	-11.5073
▁dogs	-11.5078
▁pine	-11.5089
red	-11.5089
▁poor	-11.5089
▁mysteriously	-11.5102
▁sunflowers	-11.511
▁jumps	-11.5112
▁fluff	-11.5123
▁hesitation	-11.5125
▁impossible	-11.5125
▁response	-11.5125
▁stunning	-11.5125
▁accidentally	-11.5125
▁collection	-11.5126
▁cupcake	-11.5138
▁hues	-11.5139
nual	-11.5157
▁footprints	-11.5161
▁pleaded	-11.5161
▁technology	-11.5161
▁aimed	-11.5161
▁tossing	-11.5162
ipping	-11.5165
▁gives	-11.5167
▁fateful	-11.5167
shifter	-11.5174
▁current	-11.5175
▁sorceress	-11.5197
▁painful	-11.5206
▁lone	-11.5231
▁warn	-11.525
▁breathtaking	-11.527
▁phoenix	-11.527
▁panel	-11.527
nuck	-11.5273
▁astronauts	-11.5285
▁costume	-11.5285
▁sweetest	-11.5287
mia	-11.5302
shaped	-11.5303
▁eyebrow	-11.5307
▁replies	-11.5307
▁teasing	-11.5307
▁descended	-11.531
▁winked	-11.5326
▁fights	-11.5334
▁fed	-11.5335
ah	-11.5342
▁scroll	-11.5359
▁bounce	-11.5378
▁shoot	-11.5401
▁grey	-11.5417
▁funniest	-11.5417
▁lied	-11.5423
all	-11.5434
▁wander	-11.5438
▁igniting	-11.5454
ance	-11.5462
▁chores	-11.5492
▁dizzy	-11.5492
▁tech	-11.5492
▁lair	-11.5492
light	-11.5502
▁togetherness	-11.552
▁beep	-11.5522
▁rippled	-11.5532
▁costumes	-11.5552
▁gets	-11.5554
like	-11.5563
▁bouquet	-11.5567
▁tumbled	-11.5567
bot	-11.5571
▁folded	-11.5572
▁plate	-11.5573
▁choosing	-11.5605
▁triceratops	-11.5605
▁flat	-11.5605
▁sunflower	-11.5622
lost	-11.5639
▁rescue	-11.5642
▁tablet	-11.5649
▁character	-11.566
▁guessed	-11.5671
ville	-11.568
▁dripping	-11.568
▁threat	-11.568
▁spy	-11.5684
▁existed	-11.57
▁blur	-11.5718
▁tribe	-11.5719
▁creak	-11.5727
▁alarms	-11.5728
▁ten	-11.5734
▁tie	-11.5741
▁sports	-11.5745
▁perked	-11.5757
▁expression	-11.5757
▁ignited	-11.576
▁trinkets	-11.5764
▁pots	-11.5766
▁pit	-11.5808
leave	-11.5831
▁pause	-11.5832
▁cycle	-11.5834
▁envy	-11.5834
▁seagull	-11.5834
▁stirring	-11.5834
▁discoveries	-11.5836
lapped	-11.5837
▁swinging	-11.5839
▁demanded	-11.5839
▁mars	-11.5863
▁concern	-11.5873
▁conversation	-11.5873
▁halloween	-11.5873
▁whimsical	-11.5873
▁mr	-11.5873
▁skated	-11.5876
▁chirping	-11.5882
▁thrilling	-11.5885
▁brighten	-11.5894
▁lower	-11.5894
▁marshmallows	-11.5901
▁honored	-11.5901
▁enemies	-11.5912
▁uncertainty	-11.5912
▁grumbled	-11.5912
uh	-11.5913
▁zor	-11.5913
▁homework	-11.5918
▁snowflake	-11.5931
▁image	-11.5931
life	-11.5947
fully	-11.5948
make	-11.595
▁born	-11.5951
▁delicate	-11.5951
▁pop	-11.5952
▁pleased	-11.5957
▁hears	-11.5958
▁month	-11.5971
▁ordered	-11.5974
▁tone	-11.5978
▁majestic	-11.599
▁hugging	-11.599
▁plotting	-11.599
▁cutting	-11.5991
▁firmly	-11.5997
▁staying	-11.5999
▁lifetime	-11.6009
▁tent	-11.601
▁witness	-11.6018
▁cautious	-11.6027
▁ladder	-11.6029
▁marveled	-11.6035
▁piled	-11.6043
▁failures	-11.6056
▁cheat	-11.6069
▁squawked	-11.6069
▁humming	-11.6069
▁kings	-11.609
was	-11.6109
▁towered	-11.6109
▁sam	-11.6137
end	-11.6137
▁spices	-11.6138
▁nobody	-11.6148
▁alongside	-11.6151
▁faintly	-11.6154
▁teaches	-11.6155
▁stretch	-11.616
▁handle	-11.6181
▁eve	-11.6184
▁possibility	-11.6188
▁organized	-11.619
▁bend	-11.6212
▁tr	-11.6219
▁stir	-11.6228
▁thinker	-11.6229
▁bugs	-11.6237
▁asteroid	-11.6251
ther	-11.6264
▁pillows	-11.6264
▁innovation	-11.6269
▁unspoken	-11.6269
▁laid	-11.6269
▁couch	-11.627
▁beware	-11.627
dream	-11.6288
▁mini	-11.6309
▁mirrors	-11.6331
▁lap	-11.6348
▁paid	-11.6351
▁ending	-11.6352
try	-11.6356
▁transforming	-11.6375
▁protecting	-11.6376
everyone	-11.6389
▁host	-11.6391
▁glint	-11.6403
▁pack	-11.6405
da	-11.6409
open	-11.6428
▁accepting	-11.6433
kindness	-11.6434
▁encountered	-11.6438
▁smarter	-11.6441
▁guests	-11.6451
▁clearly	-11.6463
▁warnings	-11.6463
▁galaxies	-11.6473
▁ladybug	-11.6473
▁poems	-11.6476
▁tracks	-11.6477
▁ribbons	-11.6485
▁destroy	-11.6502
▁cap	-11.6503
rubbed	-11.6515
▁tables	-11.6523
▁approach	-11.6526
▁failing	-11.6529
▁ink	-11.6532
▁root	-11.6539
▁dock	-11.6545
ara	-11.6546
ated	-11.655
▁swelling	-11.6554
▁furious	-11.6556
▁exit	-11.6561
▁zoom	-11.6575
want	-11.6595
▁wobble	-11.6595
▁hike	-11.6595
▁weekend	-11.6598
▁ripple	-11.6621
▁edges	-11.6622
▁flag	-11.6623
▁concert	-11.6639
▁shame	-11.6639
▁gates	-11.6646
▁visitor	-11.6647
▁buzz	-11.6651
▁differences	-11.6652
▁farm	-11.6657
▁whipp	-11.6659
▁creations	-11.6675
▁illusion	-11.6681
▁clam	-11.6681
▁tilting	-11.6681
▁chatted	-11.6681
very	-11.6683
▁drums	-11.6693
line	-11.6696
▁imaginations	-11.6711
▁crush	-11.6712
▁matched	-11.6723
▁super	-11.6723
▁breakfast	-11.6723
▁talents	-11.6726
▁responded	-11.6735
▁performed	-11.6742
▁shall	-11.6766
▁shopkeeper	-11.6766
▁style	-11.6766
▁starlight	-11.6773
by	-11.6777
▁wilting	-11.6781
acceptance	-11.6805
▁raptor	-11.6808
▁kneeling	-11.6809
▁reflect	-11.6822
▁flood	-11.6823
▁cow	-11.6826
▁plac	-11.6837
▁bump	-11.6838
▁dreamt	-11.6858
▁travels	-11.6872
ily	-11.6875
▁ruined	-11.6886
happiness	-11.6891
▁trade	-11.6892
▁jelly	-11.6894
▁loyal	-11.6894
▁threatening	-11.6894
▁nightmare	-11.6894
▁doorway	-11.6902
▁poster	-11.6908
▁bridges	-11.6917
▁noble	-11.6922
▁freeing	-11.6922
▁tides	-11.6923
▁patient	-11.6935
▁champion	-11.6937
▁sweat	-11.6937
▁tattered	-11.6937
▁whirlwind	-11.6937
▁gradua	-11.6937
▁rubber	-11.6937
▁sheep	-11.6937
▁twists	-11.6976
▁defend	-11.698
▁booth	-11.698
▁legendary	-11.698
▁sunrise	-11.698
▁volcano	-11.698
▁th	-11.6987
▁controls	-11.6996
▁sparky	-11.7005
friend	-11.7021
watch	-11.7021
▁rides	-11.7022
▁heartbroken	-11.7024
▁structure	-11.7024
▁museum	-11.7024
▁appears	-11.7035
▁hang	-11.7051
▁overgrown	-11.7068
▁curled	-11.7072
▁dimly	-11.7082
▁warming	-11.7082
▁drawer	-11.7089
▁studying	-11.7091
▁screens	-11.71
▁bursting	-11.7101
boo	-11.7106
▁cups	-11.7107
▁limit	-11.7111
▁advisor	-11.7111
▁airplane	-11.7111
▁arriving	-11.7111
▁ashamed	-11.7111
▁brushstroke	-11.7111
▁moral	-11.7111
▁slammed	-11.7111
▁beloved	-11.7111
▁grandpa	-11.7112
▁smoothly	-11.7123
▁cliffs	-11.7148
▁resist	-11.7156
▁selfish	-11.7156
▁nodding	-11.716
▁seekers	-11.7166
▁smirk	-11.7188
▁admir	-11.7196
ature	-11.72
▁clay	-11.72
▁shark	-11.72
▁sneaking	-11.722
▁clouded	-11.7226
▁mood	-11.7244
▁spilling	-11.725
▁str	-11.7251
▁hurting	-11.7252
▁reflections	-11.7252
▁zooming	-11.7262
▁cracks	-11.7271
▁sip	-11.7277
▁respond	-11.7277
believe	-11.7285
▁gloom	-11.7287
▁fuzzy	-11.7289
▁muttered	-11.7289
▁scanned	-11.73
▁false	-11.7334
▁code	-11.7335
▁wit	-11.7335
▁sinking	-11.7335
▁bravest	-11.7351
▁dirty	-11.7351
▁card	-11.7358
▁leg	-11.7365
▁mushroom	-11.7365
▁confronted	-11.7366
▁remains	-11.7383
▁senses	-11.7385
▁stalls	-11.739
▁warmer	-11.739
▁cards	-11.7392
▁sketch	-11.7394
▁upside	-11.7402
▁kicking	-11.741
▁ribbon	-11.7411
▁waste	-11.7423
▁anticipation	-11.7424
▁crazy	-11.7424
▁hilltop	-11.7424
▁sturdy	-11.7424
▁tragic	-11.7424
▁transport	-11.7424
▁allowed	-11.7424
▁burn	-11.7441
▁flourish	-11.7458
▁focusing	-11.7465
▁restore	-11.7467
▁cousin	-11.7469
▁completely	-11.7474
▁press	-11.7488
mer	-11.7502
▁sands	-11.7504
▁guy	-11.7515
▁wilt	-11.7532
▁crowded	-11.7545
▁reefs	-11.7549
▁scann	-11.7549
▁charge	-11.7559
▁tremble	-11.7559
▁barrier	-11.7561
▁frosty	-11.7563
▁munching	-11.7563
▁lowered	-11.7575
▁surfaced	-11.7586
▁gears	-11.7593
▁movements	-11.7608
▁zippy	-11.761
▁bikes	-11.7634
▁ripe	-11.7653
▁sprang	-11.7653
▁vivid	-11.7653
▁gleaming	-11.7656
▁distracted	-11.7678
▁adventurers	-11.7695
▁glue	-11.7698
▁beckoned	-11.77
▁version	-11.77
▁typed	-11.7701
▁lovers	-11.7701
oops	-11.7705
▁crushed	-11.7713
▁includ	-11.7726
▁gadget	-11.7735
▁swallow	-11.7735
▁rewards	-11.7743
▁backdrop	-11.7747
▁deliver	-11.7747
▁disturb	-11.7747
▁emerging	-11.7747
▁someday	-11.7747
▁counter	-11.7752
▁stacked	-11.7758
▁clearer	-11.7769
▁row	-11.777
▁feed	-11.7777
▁stall	-11.7782
▁wound	-11.7782
▁brow	-11.7788
▁speaks	-11.7792
▁bully	-11.7794
▁foggy	-11.7794
▁mystical	-11.7794
▁pixie	-11.7794
▁underfoot	-11.7794
▁candies	-11.7794
▁crabs	-11.7826
▁hardest	-11.7835
▁decorate	-11.7838
▁altar	-11.7841
▁brick	-11.7841
▁loose	-11.7841
▁loving	-11.7841
▁staircase	-11.7841
▁title	-11.7841
▁baseball	-11.7841
▁whoever	-11.7857
▁alarm	-11.7877
▁risks	-11.7888
▁horn	-11.7888
▁magician	-11.7888
▁ages	-11.7892
▁knees	-11.7893
▁heights	-11.791
▁melting	-11.7913
▁sour	-11.7919
ouch	-11.7924
▁lots	-11.793
▁flashing	-11.7934
▁invent	-11.7935
▁motion	-11.7936
▁medal	-11.7937
▁messages	-11.7955
age	-11.7963
▁runner	-11.7973
▁crumbs	-11.7977
▁blowing	-11.7978
▁tested	-11.798
▁gumdrop	-11.7984
▁stopping	-11.7984
▁healed	-11.7986
▁warriors	-11.7987
▁stuff	-11.8032
▁fortune	-11.8032
▁lighten	-11.8042
▁claws	-11.8064
▁arrive	-11.8068
▁gizmo	-11.808
▁untouched	-11.808
▁snapped	-11.808
▁biting	-11.8085
▁mock	-11.8112
get	-11.8115
▁fins	-11.8118
▁surf	-11.8128
▁frame	-11.8129
▁five	-11.8129
▁dishes	-11.813
▁pig	-11.813
▁goals	-11.8134
▁tense	-11.814
▁stack	-11.8149
▁points	-11.8164
perhaps	-11.8174
surprise	-11.8174
▁serve	-11.8175
▁strangers	-11.8175
▁clumsy	-11.8177
▁rather	-11.8177
▁fully	-11.8177
▁hitting	-11.8181
▁rusted	-11.8182
▁sticky	-11.8188
▁fled	-11.8197
▁sped	-11.8206
▁batter	-11.8226
▁pri	-11.8226
▁tasting	-11.8226
▁skip	-11.8227
▁patiently	-11.8229
▁weary	-11.8233
▁included	-11.824
▁comets	-11.8258
▁boom	-11.8264
▁spiral	-11.8276
▁loyalty	-11.8276
▁saturday	-11.8276
▁tomatoes	-11.8276
dad	-11.828
▁objects	-11.828
▁helpless	-11.8282
▁chairs	-11.8304
▁fan	-11.8318
▁ticket	-11.8325
▁creative	-11.8325
share	-11.8326
▁cloudy	-11.8326
▁streetlight	-11.8326
▁sweetness	-11.8348
▁sealed	-11.8352
▁marble	-11.8366
▁carefree	-11.8375
▁wonderland	-11.8381
honesty	-11.8402
▁sprinkle	-11.8414
▁pixel	-11.8425
▁flashes	-11.8439
▁fearless	-11.845
▁scenes	-11.8461
▁display	-11.8463
▁minute	-11.8467
▁hides	-11.847
▁macguffin	-11.8475
▁magnificent	-11.8475
▁rebuilt	-11.8475
▁clashed	-11.8485
uck	-11.8499
▁yell	-11.8514
▁shower	-11.8522
▁carries	-11.8526
▁legacy	-11.8526
▁stardust	-11.8526
▁mansion	-11.8526
▁aching	-11.8528
▁smirked	-11.8539
▁steered	-11.8547
▁envelope	-11.8547
▁peek	-11.8548
▁graceful	-11.8574
▁disappearing	-11.8576
▁office	-11.8578
▁sprinted	-11.8578
▁adults	-11.8588
▁desires	-11.8593
▁midst	-11.8594
▁efforts	-11.8601
▁detail	-11.862
▁disaster	-11.8627
▁drone	-11.8627
▁innocent	-11.8627
▁questioned	-11.8632
▁ju	-11.8664
▁understands	-11.8665
▁threads	-11.8668
▁connects	-11.8677
▁deceit	-11.8679
▁disbelief	-11.8679
▁droop	-11.8679
▁fancy	-11.8679
▁merchant	-11.8679
▁pact	-11.8679
ba	-11.8685
▁gasping	-11.8693
▁picks	-11.8697
▁queens	-11.8728
▁hut	-11.873
▁lunged	-11.873
▁instincts	-11.874
▁chant	-11.8782
▁streak	-11.8782
▁attempt	-11.8782
▁information	-11.8782
▁awakened	-11.8791
▁angels	-11.8825
ball	-11.8829
▁system	-11.8834
▁undercover	-11.8834
▁erase	-11.8834
▁sketches	-11.8835
▁flitted	-11.8838
▁ashes	-11.8841
▁ducked	-11.8866
▁proven	-11.888
racing	-11.8883
▁mermaids	-11.8886
▁beams	-11.8886
▁luna	-11.8886
▁main	-11.8886
▁sculpture	-11.8886
▁studio	-11.8886
▁campfire	-11.8886
▁resourcefulness	-11.8887
▁arranged	-11.8887
over	-11.8899
▁succeeded	-11.8907
▁sandcastles	-11.8912
▁hunters	-11.8927
stand	-11.8936
▁bolt	-11.8939
▁mailbox	-11.8939
▁slippery	-11.8939
▁putting	-11.8944
▁rows	-11.8952
▁outsider	-11.8976
▁patt	-11.8981
▁roads	-11.8981
▁soak	-11.8982
▁knee	-11.8986
▁lick	-11.8992
▁pterodactyl	-11.8992
▁sipped	-11.8993
▁reli	-11.8993
man	-11.9021
etched	-11.9026
▁case	-11.9045
▁gang	-11.9045
▁routine	-11.9045
▁tidy	-11.9045
▁whisked	-11.9049
▁gadgets	-11.9059
▁design	-11.9082
▁inventions	-11.9088
▁gasps	-11.9096
▁generous	-11.9099
▁managed	-11.9099
▁situation	-11.9099
▁stomped	-11.9103
▁surprisingly	-11.9107
▁soda	-11.9109
ine	-11.9117
▁sliding	-11.9127
▁deeds	-11.914
▁thicker	-11.9143
power	-11.9149
▁accident	-11.9152
▁bundl	-11.9152
▁common	-11.9152
▁heaviness	-11.9152
▁unison	-11.9152
▁zog	-11.9152
▁darkening	-11.9153
▁freeze	-11.9153
▁overcoming	-11.9156
▁anxiously	-11.9156
some	-11.9191
▁comp	-11.9193
▁drive	-11.92
▁argument	-11.9206
▁softening	-11.9207
▁ski	-11.9208
▁presented	-11.9213
▁flooding	-11.9228
▁pumpkins	-11.9234
▁builder	-11.9246
leo	-11.9252
▁balcony	-11.9261
▁thousand	-11.9261
▁four	-11.9261
▁seeker	-11.9295
▁crafting	-11.9297
▁cute	-11.9308
courage	-11.9312
▁ability	-11.9315
▁vase	-11.9315
▁chatting	-11.9316
being	-11.9333
▁burning	-11.9336
▁tin	-11.936
▁filter	-11.937
▁retreat	-11.937
▁caterpillar	-11.937
▁cobwebs	-11.937
▁darting	-11.937
▁essence	-11.937
▁groaned	-11.937
▁invitation	-11.937
▁relax	-11.937
▁tongue	-11.937
▁wondrous	-11.937
▁becomes	-11.9372
▁fulfilled	-11.9374
▁awake	-11.9377
dreams	-11.9391
▁celebrations	-11.9393
▁chat	-11.9425
0	-11.9426
▁blared	-11.9426
▁fishermen	-11.9426
▁trials	-11.9426
▁wiggled	-11.9427
▁breaks	-11.9436
▁hoop	-11.9438
close	-11.9478
▁maker	-11.9479
▁selves	-11.9481
▁sage	-11.9483
▁yellowed	-11.9491
▁nestl	-11.9498
▁bottles	-11.9507
llow	-11.9526
▁bucket	-11.9534
▁extra	-11.9537
▁gesture	-11.9537
▁cruelty	-11.9537
▁justice	-11.9537
▁distraction	-11.9538
▁discuss	-11.9565
▁hopeless	-11.9578
▁chain	-11.9591
▁judge	-11.9591
▁uncertain	-11.9593
▁ashore	-11.9593
▁pl	-11.9595
▁cone	-11.9624
▁explaining	-11.9626
▁sizes	-11.9626
▁pancakes	-11.963
▁finishing	-11.9646
▁pendant	-11.965
▁scurried	-11.965
▁thickened	-11.965
▁swimmer	-11.9651
▁squinted	-11.9653
▁whe	-11.9655
▁corals	-11.966
▁worthy	-11.9671
▁artifacts	-11.9686
▁recipes	-11.9694
fish	-11.9697
▁cunning	-11.9707
▁hedgehog	-11.9707
▁lid	-11.9707
▁urgency	-11.9707
▁app	-11.9707
▁contradictions	-11.9707
▁blended	-11.973
▁die	-11.9742
room	-11.9759
▁hastily	-11.9764
▁mentioned	-11.9764
▁sale	-11.9764
▁blushed	-11.9769
▁parties	-11.9778
▁thoughtful	-11.9798
▁vow	-11.9809
▁partners	-11.9817
▁piles	-11.9817
▁crumble	-11.9819
▁oasis	-11.9821
▁scoffed	-11.9821
▁scaring	-11.9821
▁panting	-11.9822
▁introduced	-11.9823
▁jars	-11.9828
▁mayor	-11.9829
▁chips	-11.9865
▁contradiction	-11.9878
▁arrow	-11.9879
▁regain	-11.9879
▁atmosphere	-11.9879
▁hourglass	-11.9879
▁hovered	-11.9879
▁incredibly	-11.9879
▁librarian	-11.9879
▁shaping	-11.9879
▁compete	-11.9879
▁pondering	-11.9879
low	-11.9879
▁nap	-11.9879
▁potions	-11.988
▁bud	-11.9883
▁handsome	-11.9884
▁delightful	-11.9889
▁scrolls	-11.9913
▁chime	-11.9935
▁marking	-11.9935
▁borrow	-11.9937
▁exploration	-11.9937
▁pour	-11.9968
three	-11.9992
▁wife	-11.9996
▁willow	-11.9996
▁cr	-11.9998
star	-12.0004
▁flyer	-12.0027
▁camping	-12.0028
▁stare	-12.0036
▁shovels	-12.004
tomorrow	-12.0051
▁flee	-12.0054
▁craved	-12.0054
▁nurturing	-12.0054
▁orchard	-12.0054
▁violently	-12.0054
▁yummy	-12.0054
▁basement	-12.0056
▁weaver	-12.0058
▁wronged	-12.0079
▁penguin	-12.0114
▁trails	-12.0114
▁quite	-12.0114
▁closet	-12.0115
▁troubled	-12.0134
▁tips	-12.0144
▁pictur	-12.0168
▁tire	-12.0171
▁seal	-12.0171
▁tragedy	-12.0173
▁tapped	-12.0173
▁bot	-12.0176
▁seconds	-12.0178
▁constellations	-12.0181
▁elderly	-12.0182
▁pebbles	-12.0187
▁blinded	-12.0195
▁hunger	-12.0199
▁roaring	-12.0207
▁beaming	-12.0207
▁dolls	-12.0209
▁circuits	-12.0233
▁glistened	-12.0233
▁language	-12.0233
▁scholar	-12.0233
▁skating	-12.0233
▁tournament	-12.0233
▁teammate	-12.0235
▁cooler	-12.0277
think	-12.029
▁cosmic	-12.0293
▁glen	-12.0293
▁graveyard	-12.0293
▁jolt	-12.0293
▁paradise	-12.0293
▁solace	-12.0293
▁worst	-12.0293
▁elf	-12.0294
▁rais	-12.0295
▁battled	-12.0313
▁leaping	-12.0348
▁carnival	-12.0354
▁independent	-12.0354
▁intentions	-12.0354
▁glove	-12.0355
▁navigated	-12.0356
▁engines	-12.0358
▁represented	-12.0363
▁tending	-12.0365
▁blinking	-12.0366
▁bumped	-12.0371
▁circled	-12.038
▁interesting	-12.0392
▁blossoms	-12.0404
▁rings	-12.0413
▁target	-12.0415
▁brook	-12.0415
▁silk	-12.0415
▁holidays	-12.0418
▁drown	-12.0459
▁decid	-12.0462
tonight	-12.0473
▁snatch	-12.0476
▁ambition	-12.0476
▁pray	-12.0476
▁sacrifice	-12.0476
▁electric	-12.0476
▁rallied	-12.0476
▁define	-12.0476
hearted	-12.0481
▁scraps	-12.0512
▁gasp	-12.0513
▁mourn	-12.0538
▁layers	-12.0556
ee	-12.0576
▁baskets	-12.0584
catch	-12.0597
▁potential	-12.06
▁reunion	-12.06
▁dying	-12.06
▁halfway	-12.0601
▁oh	-12.0603
▁emotion	-12.0604
▁earn	-12.0605
▁weightless	-12.0616
▁clash	-12.0651
▁hate	-12.0656
ound	-12.0657
▁nurture	-12.066
▁plot	-12.0662
▁snap	-12.0662
▁grave	-12.0663
▁nectar	-12.0663
▁switch	-12.0663
▁warehouse	-12.0663
▁dribbled	-12.0663
▁ensur	-12.0664
▁soldier	-12.0667
▁photograph	-12.0667
▁regrets	-12.0693
▁online	-12.0713
▁dazzling	-12.0725
▁giraffe	-12.0725
▁hoverboard	-12.0725
▁nerves	-12.0725
▁refreshing	-12.0725
▁stegosaurus	-12.0725
▁humor	-12.0729
seek	-12.0734
▁tunes	-12.0734
work	-12.0769
▁alleys	-12.0788
▁dripped	-12.0789
▁route	-12.0789
▁grain	-12.0789
▁driver	-12.079
▁spotlight	-12.0791
▁colored	-12.0819
▁checking	-12.0824
▁lemon	-12.0852
▁disguise	-12.0852
▁sunbeam	-12.0852
▁sprinkles	-12.0863
ga	-12.0876
▁tighter	-12.0878
▁logs	-12.0893
▁greet	-12.0895
▁needle	-12.0897
climb	-12.0913
▁brief	-12.0916
▁daily	-12.0916
▁flake	-12.0916
▁solitude	-12.0916
▁stung	-12.0916
▁twice	-12.0916
▁wistfully	-12.0919
▁amazingly	-12.0922
▁lightness	-12.0927
▁thrown	-12.0938
give	-12.094
ten	-12.0974
▁frowning	-12.0976
▁carpet	-12.0981
▁actor	-12.0992
▁fists	-12.1008
▁myth	-12.1017
▁rivals	-12.1038
▁bookstore	-12.1046
▁lazy	-12.1046
▁recognized	-12.1053
▁vine	-12.1053
▁activated	-12.1111
▁schoolyard	-12.1111
▁swan	-12.1111
excuse	-12.1111
▁usual	-12.1113
▁softer	-12.1133
▁outsmarted	-12.1143
▁juggle	-12.1175
▁improve	-12.1177
▁overwhelmed	-12.1177
▁tying	-12.1177
▁brain	-12.1177
▁gun	-12.1178
rk	-12.1184
▁confidently	-12.119
▁obstacles	-12.1197
whoa	-12.1232
▁hello	-12.1235
without	-12.124
▁gnaw	-12.1243
▁redemption	-12.1243
▁storytelling	-12.1243
▁nudged	-12.1244
turn	-12.1252
▁coolness	-12.126
▁supported	-12.1284
▁jellybeans	-12.1287
▁pedal	-12.1298
▁suggest	-12.1298
▁uncle	-12.131
▁remnants	-12.131
▁shirt	-12.131
▁thump	-12.131
▁weakness	-12.1315
▁splashes	-12.132
▁doubted	-12.1368
▁background	-12.1377
▁location	-12.1377
▁victorious	-12.1377
▁budge	-12.1377
▁risky	-12.1383
▁crumb	-12.1385
ready	-12.1443
▁pace	-12.1444
▁comforting	-12.1445
▁attract	-12.1445
▁shrink	-12.1445
▁yawn	-12.1445
▁reverse	-12.1445
▁reache	-12.146
▁feeding	-12.1469
▁adventurer	-12.1474
▁weathered	-12.148
▁hardships	-12.1496
▁curtains	-12.1499
▁repair	-12.1501
▁command	-12.1501
▁dip	-12.1503
▁photographs	-12.1508
those	-12.1509
▁arrival	-12.1513
▁unease	-12.1513
▁summoned	-12.1524
▁discussed	-12.1527
▁runners	-12.1528
▁handful	-12.1541
▁chirp	-12.1553
▁awaken	-12.1559
▁navigate	-12.1579
▁solution	-12.1581
▁boss	-12.1581
▁creek	-12.1581
▁eldoria	-12.1581
▁satellite	-12.1581
▁strummed	-12.1581
▁flipping	-12.1581
▁broom	-12.1582
▁nurtured	-12.1584
plant	-12.1591
▁bone	-12.1593
▁earned	-12.1595
▁drowning	-12.16
▁chaser	-12.1601
▁comforted	-12.1609
▁workers	-12.1611
▁combine	-12.1649
▁brontosaurus	-12.165
▁siren	-12.165
▁due	-12.165
▁driftwood	-12.1651
▁bathed	-12.1656
▁poke	-12.1657
▁designs	-12.1657
▁arrives	-12.1665
▁lately	-12.1689
shift	-12.1695
▁greatness	-12.1697
dding	-12.1708
▁dagger	-12.172
▁daisy	-12.172
▁enchanting	-12.172
▁fiery	-12.172
▁hiking	-12.172
▁proposed	-12.172
▁third	-12.172
▁berry	-12.172
▁donut	-12.172
▁react	-12.172
▁proof	-12.1721
▁howl	-12.1721
▁speedy	-12.1729
yum	-12.1731
▁sprouted	-12.1749
▁dreamy	-12.1753
▁rat	-12.1761
▁flown	-12.1765
▁chuckle	-12.1787
▁roast	-12.179
▁unbreakable	-12.179
▁wobbly	-12.179
▁torch	-12.179
▁forged	-12.1791
ament	-12.1802
▁discussing	-12.181
covered	-12.1827
▁thoughtfully	-12.1828
▁conquered	-12.1832
curiosity	-12.1857
▁data	-12.186
▁instrument	-12.186
▁nebula	-12.186
▁popcorn	-12.186
▁rumbling	-12.186
▁skipping	-12.186
▁soothing	-12.186
▁velociraptor	-12.186
▁symboliz	-12.186
▁sidelines	-12.186
▁north	-12.1863
▁moonlit	-12.1866
▁quacked	-12.1867
▁sprouts	-12.1869
▁peaks	-12.1899
▁singer	-12.1927
▁wistful	-12.1928
▁boil	-12.1931
▁grade	-12.1931
▁yesterday	-12.1931
▁peel	-12.1931
▁creaky	-12.1934
▁angel	-12.1944
his	-12.1962
▁noon	-12.1979
▁summon	-12.199
exactly	-12.2002
▁advised	-12.2002
▁folk	-12.2002
▁furniture	-12.2002
▁tennis	-12.2002
▁sledding	-12.2002
ounce	-12.2004
▁restored	-12.2006
▁toast	-12.2007
▁tickled	-12.2009
▁realization	-12.2013
▁stacking	-12.2027
▁crawl	-12.2062
friendship	-12.2071
▁rod	-12.2073
▁bullies	-12.2074
▁chapter	-12.2074
▁victories	-12.2074
correct	-12.2074
fine	-12.2075
▁passage	-12.2075
happy	-12.2143
▁companion	-12.2147
▁dried	-12.2147
▁either	-12.2147
▁tapping	-12.2147
▁benches	-12.2163
▁deceive	-12.2217
▁organize	-12.2217
▁backstage	-12.222
▁pulsing	-12.222
▁whirlpool	-12.222
▁dead	-12.222
▁flags	-12.2249
▁wove	-12.2288
lily	-12.2292
▁wreck	-12.2293
▁lagoon	-12.2293
▁rejoiced	-12.2293
▁countdown	-12.2293
handed	-12.2305
▁lollipops	-12.2344
▁pierc	-12.2351
▁onion	-12.2359
first	-12.2364
▁measure	-12.2367
▁symphony	-12.2367
rubbing	-12.2369
▁unleashed	-12.2374
▁fin	-12.2378
▁scale	-12.2383
▁armed	-12.2409
fear	-12.2439
▁stumble	-12.244
▁unveil	-12.2442
▁battling	-12.2442
▁caution	-12.2442
▁chaotic	-12.2442
▁confetti	-12.2442
▁content	-12.2442
▁dew	-12.2444
▁boasted	-12.2447
▁details	-12.2453
▁flavor	-12.2458
▁el	-12.2479
rita	-12.249
▁depend	-12.2517
▁adrenaline	-12.2517
▁barren	-12.2517
▁blaze	-12.2517
▁peculiar	-12.2517
▁coast	-12.2517
dance	-12.2518
▁completed	-12.2524
lia	-12.255
▁delighted	-12.2553
▁represent	-12.2581
▁soldiers	-12.2588
▁plung	-12.2593
▁police	-12.2593
▁titan	-12.2593
▁unforgettable	-12.2593
▁veins	-12.2593
▁unhappy	-12.2593
▁adjusted	-12.2599
▁linked	-12.2602
her	-12.2618
▁cactus	-12.2669
▁consciousness	-12.2669
▁enormous	-12.2669
▁husband	-12.2669
▁revive	-12.2669
▁windowsill	-12.2669
▁indeed	-12.267
▁awaits	-12.268
▁facts	-12.2692
▁tape	-12.2703
eat	-12.2721
▁deed	-12.2732
▁entering	-12.2739
▁artichoke	-12.2746
▁creator	-12.2746
▁juggling	-12.2746
▁tiger	-12.2746
▁consumed	-12.2748
▁artwork	-12.2749
▁pod	-12.2752
▁farther	-12.2752
▁perfection	-12.2753
▁anchored	-12.2755
shifting	-12.2761
though	-12.282
thirty	-12.2824
▁considered	-12.2824
▁goblin	-12.2824
▁keyhole	-12.2824
▁robe	-12.2824
▁designed	-12.2841
▁endlessly	-12.2844
▁banners	-12.2852
▁asteroids	-12.2859
▁illuminated	-12.2865
▁wonderfully	-12.2881
quick	-12.2898
▁waddl	-12.2902
▁afterward	-12.2902
▁attached	-12.2902
▁except	-12.2902
▁process	-12.2902
▁twitched	-12.2902
▁spice	-12.2922
▁rex	-12.2923
▁firework	-12.2924
▁packing	-12.2934
▁currents	-12.295
mple	-12.2955
people	-12.2977
▁plea	-12.298
▁crime	-12.2981
▁juicy	-12.2981
▁muffin	-12.2981
▁optimism	-12.2981
▁stammered	-12.2981
▁aback	-12.2981
▁deceived	-12.2983
▁smartest	-12.2986
▁customers	-12.3001
▁weakly	-12.3008
ugh	-12.3027
ky	-12.3029
▁date	-12.303
▁avoid	-12.3031
▁receive	-12.3058
▁contrast	-12.306
▁radio	-12.306
▁sidewalk	-12.306
▁destiny	-12.3061
▁buckets	-12.3064
▁lo	-12.3071
▁post	-12.3117
bring	-12.3137
▁hammer	-12.314
▁salad	-12.314
▁cub	-12.314
▁hushed	-12.3144
▁watchers	-12.3151
▁marshmallow	-12.3162
▁touches	-12.3167
▁nails	-12.3174
war	-12.3179
▁skilled	-12.3185
▁healer	-12.3208
▁encounter	-12.3209
▁refus	-12.3209
▁bunch	-12.3221
▁sacred	-12.3221
▁spray	-12.3221
▁outfit	-12.3221
▁moat	-12.3221
▁apologized	-12.3222
▁valued	-12.3232
▁thorn	-12.3241
▁fold	-12.329
▁lure	-12.3293
▁mill	-12.3302
▁snuggl	-12.3302
▁level	-12.3302
▁taunted	-12.3302
▁teapot	-12.3302
▁transcend	-12.3302
▁headset	-12.3302
▁islanders	-12.3331
▁grasped	-12.3336
choose	-12.338
▁blessing	-12.3384
▁bouncy	-12.3384
▁crouched	-12.3384
▁devis	-12.3384
▁expose	-12.3384
▁griffin	-12.3384
▁quilt	-12.3384
▁tinker	-12.3384
▁towel	-12.3387
▁meowed	-12.3395
alright	-12.3403
▁lip	-12.3406
▁nut	-12.3408
tted	-12.3437
▁haunt	-12.3438
▁bind	-12.345
▁gratefully	-12.3452
▁emerge	-12.3464
▁approval	-12.3466
▁crooked	-12.3466
▁staff	-12.3466
▁storybook	-12.3466
▁amusing	-12.3466
▁aware	-12.3467
▁hiked	-12.3471
▁pity	-12.3472
▁roam	-12.3538
water	-12.3539
bravery	-12.3546
▁hesitate	-12.3548
▁trace	-12.3548
▁embark	-12.355
▁entire	-12.355
▁escaping	-12.355
▁sanctuary	-12.355
▁hatched	-12.355
▁assist	-12.355
▁yearning	-12.355
▁dense	-12.3554
▁looming	-12.356
▁avoided	-12.3562
▁bending	-12.3585
▁dearly	-12.3593
▁shatter	-12.3622
▁squeak	-12.3622
▁scatter	-12.3622
more	-12.3628
▁hovering	-12.3634
▁insect	-12.3634
▁sleek	-12.3634
▁fourth	-12.3634
▁scrambled	-12.3636
▁frightening	-12.3644
hoo	-12.366
▁safer	-12.3707
▁collar	-12.3719
▁difficult	-12.3719
▁heartache	-12.3719
▁seahorse	-12.3719
▁unfulfilled	-12.3719
▁lever	-12.3719
▁flock	-12.3719
▁bluebird	-12.372
▁weird	-12.3726
▁lollipop	-12.3745
▁sport	-12.3745
▁badly	-12.3759
▁meow	-12.3793
▁resourceful	-12.3803
1	-12.3804
▁potato	-12.3804
▁racket	-12.3804
▁ramp	-12.3804
▁regular	-12.3804
▁silliest	-12.3804
▁rebel	-12.3805
▁eel	-12.3806
▁commanded	-12.3819
▁avoiding	-12.3822
▁frosting	-12.3845
▁boarded	-12.3857
gged	-12.3873
▁praise	-12.3888
▁punch	-12.389
▁stitch	-12.389
▁bodies	-12.389
▁neon	-12.389
▁terrified	-12.389
▁yarn	-12.389
▁sheets	-12.389
▁admiration	-12.3891
▁thorny	-12.3892
▁paddle	-12.3975
▁program	-12.3977
▁tempting	-12.3977
▁amused	-12.3977
▁aunt	-12.3978
▁awesome	-12.3978
▁appreciat	-12.3986
▁claw	-12.4006
▁carving	-12.4006
▁marvel	-12.4053
gave	-12.4062
▁falter	-12.4065
2	-12.4065
▁brainstorm	-12.4065
▁beetle	-12.4065
▁doctor	-12.4065
▁joking	-12.4065
▁pavement	-12.4065
▁dimming	-12.4065
▁bitterness	-12.4067
▁stickers	-12.4069
▁traded	-12.4069
▁dived	-12.4081
▁fizz	-12.4081
▁bowed	-12.4102
▁fireplace	-12.4153
▁summit	-12.4153
▁dragonfly	-12.4153
gging	-12.4171
▁jellybean	-12.4184
▁pancake	-12.4184
▁creaking	-12.4192
▁fooled	-12.4202
▁stamp	-12.4243
▁desperation	-12.4243
▁dunes	-12.4243
▁ember	-12.4243
▁junk	-12.4243
▁raincoat	-12.4243
▁slope	-12.4243
▁speech	-12.4243
▁whimper	-12.4243
▁scribbled	-12.4243
▁juggled	-12.4246
▁surely	-12.4275
▁loudest	-12.4278
▁tend	-12.431
▁purr	-12.4321
night	-12.4326
▁coconut	-12.4333
▁frisbee	-12.4333
▁helmet	-12.4333
▁neither	-12.4333
▁otter	-12.4333
▁moonstone	-12.4342
▁forced	-12.4347
▁desired	-12.4351
▁flaws	-12.4354
▁results	-12.4357
▁crayon	-12.4365
▁fetch	-12.4365
made	-12.4422
read	-12.4423
▁ornament	-12.4424
▁chuckling	-12.4424
▁emerald	-12.4424
▁instructed	-12.4424
▁loaf	-12.4424
▁mumbled	-12.4424
▁stargazing	-12.4424
▁steadily	-12.4424
▁fable	-12.4424
▁fitting	-12.4426
▁died	-12.4427
▁bumpy	-12.4428
▁fury	-12.4438
▁miles	-12.4442
▁preferr	-12.4444
▁awakening	-12.4446
▁destroyed	-12.445
▁demand	-12.4504
play	-12.4512
beware	-12.4512
▁exchange	-12.4514
▁tease	-12.4515
▁chord	-12.4515
▁jacket	-12.4515
▁lens	-12.4515
▁urgent	-12.4515
▁wagon	-12.4516
▁gleamed	-12.452
▁crate	-12.4521
▁achieved	-12.4523
▁locker	-12.4529
▁include	-12.453
▁wanderer	-12.4537
▁classmate	-12.4549
face	-12.4605
▁unravel	-12.4608
▁bunnies	-12.4608
▁hawk	-12.4608
▁unicycle	-12.4608
▁wallet	-12.4608
▁archway	-12.4608
▁package	-12.4608
down	-12.4698
▁ceremony	-12.4701
▁puppies	-12.4701
▁tentacle	-12.4701
▁unstoppable	-12.4701
▁bellies	-12.4705
▁eaten	-12.471
▁displayed	-12.4724
▁brew	-12.4767
▁keen	-12.4796
▁lord	-12.4796
▁tirelessly	-12.4796
▁load	-12.4796
▁paced	-12.4799
▁bolder	-12.4809
alex	-12.4888
▁hesitant	-12.4889
▁empathy	-12.4891
▁mesmerized	-12.4891
▁shrieked	-12.4891
▁solid	-12.4891
▁revel	-12.4891
▁beak	-12.4891
joy	-12.4984
▁admit	-12.4987
▁clenched	-12.4987
▁groceries	-12.4987
▁horror	-12.4987
▁progress	-12.4987
▁hideout	-12.4992
▁diver	-12.4999
▁rider	-12.5016
▁mocking	-12.5021
▁record	-12.5084
▁blood	-12.5084
▁everyday	-12.5084
▁sauce	-12.5084
▁vendor	-12.5084
▁fellow	-12.5084
▁gut	-12.5084
▁tightened	-12.5084
▁cavern	-12.5084
▁link	-12.5171
which	-12.5179
▁blame	-12.5182
▁romance	-12.5182
▁similar	-12.5182
▁spaghetti	-12.5182
▁tricycle	-12.5182
▁twitching	-12.5182
▁obey	-12.5182
▁meteor	-12.5182
opia	-12.5182
▁adored	-12.5182
▁atop	-12.5183
▁divided	-12.5183
▁health	-12.5184
▁loop	-12.5186
▁repeated	-12.5187
▁survived	-12.5189
▁carve	-12.5191
▁binding	-12.5202
adventure	-12.5278
▁replace	-12.5281
▁friday	-12.5281
▁imaginary	-12.5281
▁mitten	-12.5281
▁reconnect	-12.5281
rned	-12.5293
▁witnessed	-12.5311
▁scrap	-12.5323
▁combin	-12.5369
▁anchor	-12.537
feel	-12.5378
goodbye	-12.5378
▁film	-12.5381
▁text	-12.5381
▁atlantis	-12.5381
▁blade	-12.5381
▁lend	-12.5381
▁mingling	-12.5381
▁plastic	-12.5381
▁squid	-12.5381
▁intense	-12.5381
▁reappeared	-12.5385
▁glinted	-12.541
▁weigh	-12.5461
kim	-12.5462
fire	-12.5478
logic	-12.5479
teamwork	-12.5479
bright	-12.548
▁tomato	-12.5482
▁blazing	-12.5482
▁burrow	-12.5482
▁correctly	-12.5482
▁opponent	-12.5482
▁wisp	-12.5482
hmm	-12.5483
ph	-12.5495
▁piercing	-12.5505
▁arch	-12.5518
mine	-12.5542
ger	-12.5581
▁quit	-12.5583
▁destruction	-12.5584
▁dramatic	-12.5584
▁luma	-12.5584
▁miracle	-12.5584
▁stash	-12.5584
▁steel	-12.5584
▁twelve	-12.5584
▁violin	-12.5584
▁tipped	-12.5585
▁doorstep	-12.5591
▁weaker	-12.5607
▁confess	-12.5676
step	-12.5678
▁grape	-12.5687
▁milk	-12.5687
▁obscure	-12.5687
▁steadied	-12.5687
▁waded	-12.5687
▁doom	-12.5688
▁million	-12.5688
▁release	-12.5688
▁gods	-12.569
▁solar	-12.5692
▁pushes	-12.5705
▁croak	-12.578
rain	-12.5782
▁dessert	-12.5792
▁entertain	-12.5792
▁rekindl	-12.5792
▁alert	-12.5792
▁astray	-12.5792
▁council	-12.5792
▁fortress	-12.5792
▁nostalgia	-12.5792
▁ostrich	-12.5792
▁pump	-12.5792
▁swish	-12.5792
▁award	-12.5792
▁dragg	-12.5792
▁apartment	-12.5796
▁trapp	-12.5799
old	-12.5809
ipped	-12.5869
▁performer	-12.5885
perfect	-12.5894
▁iron	-12.5895
▁sill	-12.5895
▁driving	-12.5897
▁reunite	-12.5897
▁thanksgiving	-12.5897
▁tribute	-12.5897
▁helm	-12.5899
▁collapsed	-12.5899
▁required	-12.5899
▁panicking	-12.5899
▁glued	-12.5902
▁reigned	-12.5908
▁robo	-12.5994
j	-12.6
▁settle	-12.6001
▁annoyed	-12.6003
▁communicate	-12.6003
▁strict	-12.6003
▁untold	-12.6003
ctually	-12.6003
▁aroma	-12.6003
▁hesitantly	-12.6006
loop	-12.6015
▁careless	-12.6021
▁ray	-12.6052
hurry	-12.6107
▁encourage	-12.6108
▁comic	-12.6111
▁academic	-12.6111
▁clink	-12.6111
▁competing	-12.6111
▁harbor	-12.6111
▁scarves	-12.6111
▁trekked	-12.6111
▁tumbling	-12.6111
▁onward	-12.6111
▁damaged	-12.6112
▁inner	-12.6114
▁contained	-12.612
▁ledge	-12.6122
▁slyly	-12.6126
▁repaired	-12.613
▁wire	-12.6162
▁agency	-12.622
▁drought	-12.622
▁interrupted	-12.622
▁recognition	-12.622
▁suitcase	-12.622
▁debate	-12.622
▁dam	-12.622
▁envisioned	-12.6222
▁catches	-12.6258
▁retrieve	-12.6269
▁raindrop	-12.6271
▁tim	-12.6288
right	-12.6299
▁den	-12.6315
3	-12.6329
▁circling	-12.6329
▁fantastic	-12.6329
▁popular	-12.6329
▁rapidly	-12.6329
▁samples	-12.6329
▁splatter	-12.6329
▁beads	-12.633
▁sniffing	-12.6343
▁oddly	-12.636
▁curl	-12.6427
wishes	-12.6437
▁consume	-12.6438
▁afloat	-12.6441
▁amnesia	-12.6441
▁compared	-12.6441
▁eternal	-12.6441
▁luminous	-12.6441
▁misunderstood	-12.6441
▁pinch	-12.6441
▁research	-12.6441
▁stunned	-12.6441
▁tank	-12.6441
▁mentor	-12.6441
▁convinced	-12.6442
daddy	-12.645
▁whistled	-12.6456
▁reign	-12.6541
▁screech	-12.6553
▁blip	-12.6553
▁infectious	-12.6553
▁droplets	-12.6553
▁icing	-12.6555
▁healthy	-12.6555
▁approaches	-12.6556
▁fearsome	-12.6567
samuel	-12.6663
▁venture	-12.6664
▁chin	-12.6667
▁liquid	-12.6667
▁occasionally	-12.6667
▁plenty	-12.6667
▁provid	-12.6667
▁survival	-12.6667
▁terrifying	-12.6667
▁business	-12.6667
▁gown	-12.6667
▁jewelry	-12.6667
▁useless	-12.6678
▁tip	-12.6722
rched	-12.6738
▁require	-12.6779
▁natural	-12.6781
▁contagious	-12.6781
▁debris	-12.6781
▁elves	-12.6781
▁experiment	-12.6781
▁gnarled	-12.6781
▁harp	-12.6781
▁innocence	-12.6781
▁judgment	-12.6781
▁mixture	-12.6781
▁noodle	-12.6781
▁reluctantly	-12.6781
▁traitor	-12.6781
▁doorbell	-12.6781
▁thirsty	-12.6782
lived	-12.6783
▁separated	-12.6783
▁munched	-12.6786
▁princesses	-12.6798
▁rust	-12.6883
▁recogniz	-12.6886
▁descend	-12.6886
▁epic	-12.6898
▁brachiosaurus	-12.6898
▁inseparable	-12.6898
▁recess	-12.6898
▁savor	-12.6898
▁abyss	-12.6898
▁dissolve	-12.6898
cat	-12.6898
▁penned	-12.6899
▁pole	-12.69
▁shorter	-12.6912
▁van	-12.6921
▁valentine	-12.7015
▁chalk	-12.7015
▁principal	-12.7015
▁nurs	-12.7016
▁wildfire	-12.7017
▁awkwardly	-12.7017
▁passes	-12.7031
▁ingredient	-12.7076
▁quack	-12.7123
view	-12.7131
scent	-12.7132
▁taco	-12.7134
hooray	-12.7134
▁nuzzl	-12.7134
▁piqued	-12.7134
▁remembrance	-12.7134
▁turbulent	-12.7134
▁sadder	-12.7135
grandmother	-12.7252
▁confuse	-12.7253
▁seiz	-12.7255
▁steam	-12.7255
▁upward	-12.7255
▁retrac	-12.7255
▁observed	-12.7256
▁mar	-12.7299
▁sneer	-12.7365
truth	-12.7373
hidden	-12.7373
count	-12.7373
create	-12.7374
gold	-12.7375
▁trudg	-12.7377
▁companionship	-12.7377
▁complained	-12.7377
▁raging	-12.7377
▁rogue	-12.7377
▁sleeve	-12.7377
▁snowstorm	-12.7377
▁subterranean	-12.7377
▁battlefield	-12.7377
▁triumphant	-12.7377
▁unclear	-12.7378
▁useful	-12.739
greetings	-12.7396
stories	-12.7421
▁guest	-12.7442
▁murmur	-12.7489
▁wiggle	-12.7498
▁frantically	-12.75
▁shortcut	-12.75
▁sunglasses	-12.75
▁vessel	-12.75
▁mirage	-12.75
▁noisy	-12.75
▁removed	-12.7501
▁untangled	-12.7502
▁experienced	-12.7515
eries	-12.7524
▁unleash	-12.7614
something	-12.7622
world	-12.7622
▁boulder	-12.7625
▁copy	-12.7625
▁invincible	-12.7625
▁knob	-12.7625
▁overwhelming	-12.7625
▁programmed	-12.7625
▁spoil	-12.7625
▁troublemaker	-12.7625
▁veil	-12.7625
▁ajar	-12.7625
▁bait	-12.7625
▁dropping	-12.7625
▁spies	-12.7627
▁zone	-12.7627
▁presentation	-12.7628
▁crackling	-12.7629
▁hoot	-12.774
change	-12.7748
meet	-12.7749
▁churn	-12.7752
▁confusing	-12.7752
▁explosion	-12.7752
▁extraordinary	-12.7752
▁bay	-12.7752
▁sunday	-12.7752
▁tv	-12.7762
▁watchful	-12.7766
▁seller	-12.7773
▁generation	-12.7821
▁tap	-12.7827
ction	-12.7847
▁dash	-12.7868
field	-12.7876
everything	-12.7877
▁barrel	-12.788
▁captive	-12.788
▁chorus	-12.788
▁crickets	-12.788
▁identity	-12.788
▁instructions	-12.788
▁melancholy	-12.788
▁shard	-12.788
▁shrimp	-12.788
▁tummy	-12.788
▁ferr	-12.788
▁superpower	-12.788
▁posed	-12.788
▁wept	-12.7881
▁dimmer	-12.7882
▁curly	-12.7882
▁buzzy	-12.7886
▁height	-12.7951
▁spill	-12.7981
bird	-12.8004
jose	-12.8007
▁streetlamp	-12.801
▁bullied	-12.801
▁cafeteria	-12.801
▁duties	-12.801
▁empowered	-12.801
▁heavens	-12.801
▁moonbeam	-12.801
▁unfair	-12.801
▁women	-12.801
▁nook	-12.801
▁bellowed	-12.801
▁rewrite	-12.801
▁candlelight	-12.8011
▁relic	-12.8013
▁spare	-12.8014
▁battery	-12.8015
▁engineer	-12.8074
coming	-12.8107
▁loom	-12.8113
▁zoo	-12.8124
▁corn	-12.814
▁engulf	-12.8142
▁album	-12.8142
▁ankylosaurus	-12.8142
▁downfall	-12.8142
▁hood	-12.8142
▁possess	-12.8142
▁stray	-12.8142
▁trickery	-12.8142
▁ankle	-12.8142
yay	-12.8142
▁uniting	-12.8142
▁kn	-12.8146
▁blush	-12.8263
▁stomp	-12.8263
▁squeez	-12.8263
jump	-12.8271
▁dodge	-12.8273
▁subject	-12.8275
yeah	-12.8275
▁decay	-12.8275
▁inquired	-12.8275
▁laptop	-12.8275
▁reborn	-12.8275
▁stubborn	-12.8275
▁wolves	-12.8275
▁starship	-12.8275
▁zap	-12.8276
▁easel	-12.8279
▁cling	-12.828
▁sniff	-12.8381
▁advantage	-12.841
▁furrowed	-12.841
▁kettle	-12.841
▁sentence	-12.841
▁striking	-12.841
▁tempted	-12.841
▁unnoticed	-12.841
▁zeta	-12.841
▁state	-12.8414
▁toaster	-12.8415
val	-12.8468
▁bath	-12.854
independence	-12.8544
▁separate	-12.8545
▁affect	-12.8547
▁prettiest	-12.8547
▁sponge	-12.8547
▁suspense	-12.8547
▁sympathy	-12.8547
▁sync	-12.8547
▁tray	-12.8547
▁file	-12.8549
kart	-12.855
▁nail	-12.8627
▁contain	-12.8674
▁type	-12.8684
▁bulb	-12.8686
▁cigarette	-12.8686
▁cluck	-12.8686
▁proclaimed	-12.8686
▁report	-12.8686
▁shady	-12.8686
▁skeptical	-12.8686
▁tavern	-12.8686
▁tranquil	-12.8686
▁vulnerability	-12.8686
▁arose	-12.8686
▁badger	-12.8687
▁beans	-12.8688
▁hotel	-12.8688
▁birdhouse	-12.8827
▁cherry	-12.8827
▁existence	-12.8827
▁hospital	-12.8827
▁marketplace	-12.8827
▁wrath	-12.8827
▁ominously	-12.8829
▁conch	-12.8829
▁fist	-12.8911
▁frighten	-12.8941
solve	-12.8966
focus	-12.8966
▁whiz	-12.897
▁feature	-12.897
▁glitch	-12.897
▁pineapple	-12.897
▁rewind	-12.897
▁screw	-12.897
▁address	-12.897
▁overcame	-12.897
▁rattled	-12.897
▁ruling	-12.897
▁scoring	-12.897
▁slither	-12.897
▁spicy	-12.897
▁thriving	-12.897
▁unearthed	-12.897
▁sensors	-12.897
▁pluck	-12.897
▁law	-12.8972
▁wi	-12.9043
▁raise	-12.908
▁swoop	-12.9103
embrace	-12.9111
lena	-12.9111
need	-12.9111
▁collapse	-12.9112
▁moth	-12.9114
5	-12.9115
▁championship	-12.9115
▁continuing	-12.9115
▁emma	-12.9115
▁humbly	-12.9115
▁jet	-12.9115
▁fern	-12.9115
▁hay	-12.9115
▁spike	-12.9115
▁oars	-12.9115
▁canyon	-12.9115
▁assured	-12.9115
▁attend	-12.9115
▁markers	-12.9118
▁hue	-12.9203
strength	-12.9258
▁benny	-12.9262
▁hilarious	-12.9262
▁hoard	-12.9262
▁trampoline	-12.9262
▁whimsy	-12.9262
▁aisles	-12.9262
▁outcast	-12.9262
▁pleasant	-12.9262
▁scampered	-12.9262
▁canoe	-12.9262
▁easter	-12.9263
▁recover	-12.9322
▁pound	-12.9383
grow	-12.9407
nothing	-12.9407
▁mid	-12.941
▁chart	-12.9411
▁breezy	-12.9411
▁crinkled	-12.9411
▁decorating	-12.9411
▁diner	-12.9411
▁gingerbread	-12.9411
▁honk	-12.9411
▁lullaby	-12.9411
▁peacock	-12.9411
▁resources	-12.9411
▁stargaze	-12.9411
▁turkey	-12.9411
▁volleyball	-12.9411
▁merry	-12.9411
▁sneezed	-12.9412
▁lur	-12.9427
heart	-12.9484
▁adjust	-12.9552
tradition	-12.9559
▁banish	-12.9562
▁anxiety	-12.9562
▁bobbed	-12.9562
▁fault	-12.9562
▁flopped	-12.9562
▁frayed	-12.9562
▁option	-12.9562
▁ritual	-12.9562
▁wrench	-12.9562
▁grim	-12.9562
▁weep	-12.9562
▁sculptor	-12.9563
rious	-12.9602
▁depth	-12.9658
child	-12.9713
emmanuel	-12.9713
nice	-12.9713
▁declare	-12.9714
▁exhausted	-12.9716
▁farewell	-12.9716
▁foam	-12.9716
▁mate	-12.9716
▁oblivious	-12.9716
▁pottery	-12.9716
▁remote	-12.9716
▁smoky	-12.9716
▁sparrow	-12.9716
▁zappy	-12.9716
▁quickened	-12.9716
▁surfboard	-12.9717
▁racers	-12.9717
flop	-12.9717
press	-12.982
▁mag	-12.9858
▁chopped	-12.9872
▁cocoon	-12.9872
▁reassured	-12.9872
▁script	-12.9872
▁servant	-12.9872
▁rejection	-12.9873
▁poof	-12.9875
▁aqua	-12.9907
▁rediscover	-12.9936
▁banner	-12.9972
▁bore	-12.9991
grandfather	-13.0028
gather	-13.0028
▁ominous	-13.0029
▁nudge	-13.0029
▁damage	-13.0029
▁port	-13.0031
▁wag	-13.0031
saurus	-13.0031
▁airship	-13.0031
▁cooperate	-13.0031
▁death	-13.0031
▁genuine	-13.0031
▁grandparents	-13.0031
▁leadership	-13.0031
▁lump	-13.0031
▁original	-13.0031
▁portrait	-13.0031
▁stained	-13.0031
▁strawberries	-13.0031
▁farthest	-13.0031
▁country	-13.0032
lock	-13.0188
▁destin	-13.019
▁raid	-13.0192
▁aimlessly	-13.0192
▁anniversary	-13.0192
▁celestia	-13.0192
▁challenging	-13.0192
▁constant	-13.0192
▁contact	-13.0192
▁eight	-13.0192
▁gravity	-13.0192
▁involved	-13.0192
▁jolly	-13.0192
▁observing	-13.0192
▁pouted	-13.0192
▁quaint	-13.0192
▁radiating	-13.0192
▁silliness	-13.0192
▁twenty	-13.0192
▁jam	-13.0194
▁mage	-13.0207
sharing	-13.0353
▁awkward	-13.0354
▁apologize	-13.0354
▁secure	-13.0356
▁astonishing	-13.0356
▁brotherhood	-13.0356
▁olive	-13.0356
▁satisfaction	-13.0356
▁scheming	-13.0356
▁trumpet	-13.0356
▁dial	-13.0356
▁goofy	-13.0356
▁wreckage	-13.0357
▁overlooked	-13.0358
▁fizzle	-13.0492
▁comb	-13.0522
▁blorp	-13.0523
▁exhibit	-13.0523
▁festivities	-13.0523
▁menacing	-13.0523
▁nymph	-13.0523
▁paddling	-13.0523
▁stakes	-13.0523
▁blurry	-13.0524
▁tripping	-13.0524
▁tomb	-13.0525
▁releas	-13.0676
▁flitt	-13.0681
▁cackled	-13.0693
▁daunting	-13.0693
▁depict	-13.0693
▁fridge	-13.0693
▁glared	-13.0693
▁malice	-13.0693
▁quill	-13.0693
▁resumed	-13.0693
▁rink	-13.0693
▁suffocating	-13.0693
▁terror	-13.0693
▁vibrate	-13.0693
▁drap	-13.0693
▁stew	-13.0693
▁twin	-13.0693
▁boast	-13.0853
▁march	-13.0854
▁pensive	-13.0865
▁chewed	-13.0865
▁crossroads	-13.0865
▁cuddle	-13.0865
▁mail	-13.0865
▁mingled	-13.0865
▁polished	-13.0865
▁prints	-13.0865
▁refuge	-13.0865
▁replayed	-13.0865
▁satisfied	-13.0865
▁scrapbook	-13.0865
▁stump	-13.0865
▁syrup	-13.0865
▁vulnerable	-13.0865
▁goose	-13.0865
▁nightfall	-13.0865
▁stress	-13.0865
▁marry	-13.0865
▁rubble	-13.0865
spire	-13.0945
revenge	-13.1037
▁curve	-13.104
▁knives	-13.104
▁mimic	-13.104
▁mold	-13.104
▁phantom	-13.104
▁sapling	-13.104
▁ivy	-13.1041
▁awful	-13.1065
plan	-13.1086
▁fulfill	-13.1207
town	-13.1216
▁muse	-13.1216
▁observe	-13.1217
▁deafening	-13.1219
▁evidence	-13.1219
▁hook	-13.1219
▁isolated	-13.1219
▁isolation	-13.1219
▁perspective	-13.1219
▁platform	-13.1219
▁scribbling	-13.1219
▁trek	-13.1219
▁vital	-13.1219
▁palette	-13.1219
▁tilly	-13.1219
▁nova	-13.1219
9	-13.5139
q	-13.7538
8	-14.0702
*	-14.1678
7	-14.5354
4	-14.8865
6	-14.8865
)	-16.2155
(	-16.2155
+	-16.2155
