<unk>	0
<s>	0
</s>	0
<pad>	0
<0x00>	0
<0x01>	0
<0x02>	0
<0x03>	0
<0x04>	0
<0x05>	0
<0x06>	0
<0x07>	0
<0x08>	0
<0x09>	0
<0x0A>	0
<0x0B>	0
<0x0C>	0
<0x0D>	0
<0x0E>	0
<0x0F>	0
<0x10>	0
<0x11>	0
<0x12>	0
<0x13>	0
<0x14>	0
<0x15>	0
<0x16>	0
<0x17>	0
<0x18>	0
<0x19>	0
<0x1A>	0
<0x1B>	0
<0x1C>	0
<0x1D>	0
<0x1E>	0
<0x1F>	0
<0x20>	0
<0x21>	0
<0x22>	0
<0x23>	0
<0x24>	0
<0x25>	0
<0x26>	0
<0x27>	0
<0x28>	0
<0x29>	0
<0x2A>	0
<0x2B>	0
<0x2C>	0
<0x2D>	0
<0x2E>	0
<0x2F>	0
<0x30>	0
<0x31>	0
<0x32>	0
<0x33>	0
<0x34>	0
<0x35>	0
<0x36>	0
<0x37>	0
<0x38>	0
<0x39>	0
<0x3A>	0
<0x3B>	0
<0x3C>	0
<0x3D>	0
<0x3E>	0
<0x3F>	0
<0x40>	0
<0x41>	0
<0x42>	0
<0x43>	0
<0x44>	0
<0x45>	0
<0x46>	0
<0x47>	0
<0x48>	0
<0x49>	0
<0x4A>	0
<0x4B>	0
<0x4C>	0
<0x4D>	0
<0x4E>	0
<0x4F>	0
<0x50>	0
<0x51>	0
<0x52>	0
<0x53>	0
<0x54>	0
<0x55>	0
<0x56>	0
<0x57>	0
<0x58>	0
<0x59>	0
<0x5A>	0
<0x5B>	0
<0x5C>	0
<0x5D>	0
<0x5E>	0
<0x5F>	0
<0x60>	0
<0x61>	0
<0x62>	0
<0x63>	0
<0x64>	0
<0x65>	0
<0x66>	0
<0x67>	0
<0x68>	0
<0x69>	0
<0x6A>	0
<0x6B>	0
<0x6C>	0
<0x6D>	0
<0x6E>	0
<0x6F>	0
<0x70>	0
<0x71>	0
<0x72>	0
<0x73>	0
<0x74>	0
<0x75>	0
<0x76>	0
<0x77>	0
<0x78>	0
<0x79>	0
<0x7A>	0
<0x7B>	0
<0x7C>	0
<0x7D>	0
<0x7E>	0
<0x7F>	0
<0x80>	0
<0x81>	0
<0x82>	0
<0x83>	0
<0x84>	0
<0x85>	0
<0x86>	0
<0x87>	0
<0x88>	0
<0x89>	0
<0x8A>	0
<0x8B>	0
<0x8C>	0
<0x8D>	0
<0x8E>	0
<0x8F>	0
<0x90>	0
<0x91>	0
<0x92>	0
<0x93>	0
<0x94>	0
<0x95>	0
<0x96>	0
<0x97>	0
<0x98>	0
<0x99>	0
<0x9A>	0
<0x9B>	0
<0x9C>	0
<0x9D>	0
<0x9E>	0
<0x9F>	0
<0xA0>	0
<0xA1>	0
<0xA2>	0
<0xA3>	0
<0xA4>	0
<0xA5>	0
<0xA6>	0
<0xA7>	0
<0xA8>	0
<0xA9>	0
<0xAA>	0
<0xAB>	0
<0xAC>	0
<0xAD>	0
<0xAE>	0
<0xAF>	0
<0xB0>	0
<0xB1>	0
<0xB2>	0
<0xB3>	0
<0xB4>	0
<0xB5>	0
<0xB6>	0
<0xB7>	0
<0xB8>	0
<0xB9>	0
<0xBA>	0
<0xBB>	0
<0xBC>	0
<0xBD>	0
<0xBE>	0
<0xBF>	0
<0xC0>	0
<0xC1>	0
<0xC2>	0
<0xC3>	0
<0xC4>	0
<0xC5>	0
<0xC6>	0
<0xC7>	0
<0xC8>	0
<0xC9>	0
<0xCA>	0
<0xCB>	0
<0xCC>	0
<0xCD>	0
<0xCE>	0
<0xCF>	0
<0xD0>	0
<0xD1>	0
<0xD2>	0
<0xD3>	0
<0xD4>	0
<0xD5>	0
<0xD6>	0
<0xD7>	0
<0xD8>	0
<0xD9>	0
<0xDA>	0
<0xDB>	0
<0xDC>	0
<0xDD>	0
<0xDE>	0
<0xDF>	0
<0xE0>	0
<0xE1>	0
<0xE2>	0
<0xE3>	0
<0xE4>	0
<0xE5>	0
<0xE6>	0
<0xE7>	0
<0xE8>	0
<0xE9>	0
<0xEA>	0
<0xEB>	0
<0xEC>	0
<0xED>	0
<0xEE>	0
<0xEF>	0
<0xF0>	0
<0xF1>	0
<0xF2>	0
<0xF3>	0
<0xF4>	0
<0xF5>	0
<0xF6>	0
<0xF7>	0
<0xF8>	0
<0xF9>	0
<0xFA>	0
<0xFB>	0
<0xFC>	0
<0xFD>	0
<0xFE>	0
<0xFF>	0
.	-2.79519
,	-3.0021
▁the	-3.08136
s	-3.61421
▁a	-3.63642
▁and	-4.0439
▁to	-4.16219
▁he	-4.24457
▁she	-4.33235
ed	-4.33644
ing	-4.35551
▁they	-4.49565
▁"	-4.55134
▁of	-4.58523
▁her	-4.62508
▁in	-4.63962
i	-4.74092
▁it	-4.75541
▁was	-4.76482
t	-4.78666
▁with	-4.87988
e	-4.90144
d	-4.9738
▁	-5.04117
▁but	-5.1102
a	-5.21267
▁that	-5.22877
m	-5.24944
o	-5.27139
▁his	-5.29325
▁felt	-5.30909
er	-5.31726
▁s	-5.35754
▁as	-5.39698
y	-5.40088
n	-5.44964
u	-5.4609
!"	-5.4671
▁had	-5.47116
p	-5.47454
l	-5.52168
r	-5.54709
▁for	-5.59329
g	-5.61582
▁their	-5.64167
w	-5.72603
'	-5.76174
▁be	-5.77622
▁said	-5.82866
▁on	-5.8455
c	-5.85251
▁heart	-5.8609
▁i	-5.89567
▁one	-5.91929
k	-5.9438
▁not	-5.95318
▁day	-5.97038
▁him	-5.97089
▁you	-6.01711
?"	-6.01806
▁could	-6.02742
ly	-6.02876
▁p	-6.03987
ar	-6.06356
"	-6.06412
f	-6.08448
▁found	-6.09002
▁c	-6.09544
▁like	-6.10662
re	-6.15669
ch	-6.16063
▁b	-6.16122
▁together	-6.1689
▁at	-6.17
in	-6.18598
!	-6.20176
v	-6.26141
▁girl	-6.28327
▁each	-6.31984
▁them	-6.32334
▁can	-6.3336
le	-6.33591
▁thought	-6.34222
▁bright	-6.34522
▁were	-6.35176
▁joy	-6.35477
▁about	-6.35611
▁up	-6.35745
▁would	-6.37712
▁from	-6.38053
▁is	-6.38163
▁just	-6.38629
▁into	-6.4022
▁boy	-6.40544
st	-6.40651
an	-6.41033
ur	-6.4245
es	-6.42568
▁mia	-6.42694
▁help	-6.43208
."	-6.43846
▁r	-6.44049
▁we	-6.44323
▁this	-6.44503
▁light	-6.4499
it	-6.45364
en	-6.4674
▁d	-6.48129
▁back	-6.48271
▁filled	-6.48344
▁h	-6.48917
▁leo	-6.49316
▁find	-6.50457
▁looked	-6.53139
▁f	-6.54168
al	-6.542
▁g	-6.54452
b	-6.55006
▁see	-6.55193
ro	-6.55975
▁t	-6.56913
▁when	-6.56975
▁friends	-6.57792
▁treasure	-6.5826
ll	-6.59179
h	-6.59281
▁old	-6.59962
▁feeling	-6.60643
▁small	-6.61335
▁eyes	-6.62464
▁smiled	-6.64632
▁saw	-6.65041
▁time	-6.66802
▁all	-6.67029
▁asked	-6.67286
▁through	-6.67582
▁made	-6.68605
▁alex	-6.68688
un	-6.69172
or	-6.69302
at	-6.69971
▁around	-6.70378
▁do	-6.71326
▁world	-6.71894
ck	-6.72085
▁lost	-6.72198
▁named	-6.72241
▁an	-6.73548
▁wanted	-6.73726
se	-6.75681
▁night	-6.76575
▁me	-6.76814
▁out	-6.77235
▁began	-6.77255
▁sky	-6.77559
▁stories	-6.78269
▁big	-6.78329
▁by	-6.78726
▁stars	-6.7914
▁kim	-6.8014
▁sun	-6.81728
▁inside	-6.82126
▁if	-6.82433
▁samuel	-6.84226
▁love	-6.85203
▁what	-6.8702
▁dreams	-6.87058
ce	-6.87584
on	-6.88155
▁who	-6.88246
what	-6.88279
▁so	-6.88805
▁co	-6.88881
▁learned	-6.88906
▁suddenly	-6.90127
ent	-6.90403
▁friend	-6.90748
▁deep	-6.92276
▁re	-6.92765
▁laughter	-6.92769
▁adventure	-6.93315
▁new	-6.94701
▁will	-6.95174
▁shared	-6.95469
▁air	-6.95802
ho	-6.96145
id	-6.96234
▁realized	-6.97792
ke	-6.97911
▁hope	-6.98019
▁again	-6.98062
th	-6.98123
ve	-6.98274
▁more	-6.98786
▁every	-6.99154
▁magic	-6.99318
▁my	-6.99435
you	-6.99636
▁laughed	-7.0041
▁sea	-7.01132
?	-7.01815
▁moment	-7.02602
▁decided	-7.02783
▁even	-7.02801
▁dark	-7.03302
we	-7.03523
▁place	-7.04024
ra	-7.04168
▁something	-7.05024
▁wish	-7.05273
▁go	-7.06419
▁star	-7.06532
▁dream	-7.07863
▁home	-7.08741
▁how	-7.08987
ad	-7.09123
▁its	-7.09527
▁took	-7.09715
▁tree	-7.0981
▁knew	-7.10508
ter	-7.10827
ry	-7.12463
▁danced	-7.12596
▁down	-7.13328
▁are	-7.14315
▁people	-7.1508
▁e	-7.16342
▁over	-7.16576
▁brave	-7.16674
▁strange	-7.16908
▁away	-7.16961
▁flowers	-7.17075
▁garden	-7.17165
▁walked	-7.17416
▁tr	-7.18172
el	-7.18618
▁play	-7.18669
▁did	-7.18944
▁where	-7.19707
▁everyone	-7.19908
▁fear	-7.21856
▁face	-7.21887
▁hand	-7.2195
il	-7.22235
▁man	-7.22319
hi	-7.22525
▁no	-7.22836
▁turned	-7.23028
▁way	-7.23621
▁other	-7.25077
▁water	-7.25607
▁there	-7.25897
▁now	-7.25962
▁rita	-7.26168
▁hidden	-7.26241
▁stone	-7.26303
ic	-7.26366
▁stood	-7.26833
▁sat	-7.27088
▁de	-7.27148
▁have	-7.29823
▁then	-7.29873
ion	-7.30296
▁sp	-7.30545
▁voice	-7.30704
te	-7.31034
sh	-7.31806
▁us	-7.32282
▁make	-7.32362
▁lily	-7.32397
oo	-7.32602
▁lo	-7.32821
▁map	-7.33317
▁under	-7.33685
▁pain	-7.3405
▁full	-7.34961
▁happy	-7.35536
▁shouted	-7.35856
ful	-7.35928
▁strong	-7.36554
▁came	-7.36584
est	-7.37245
▁mo	-7.37488
▁little	-7.38129
▁loved	-7.38303
am	-7.39155
▁wave	-7.39269
▁come	-7.39511
▁land	-7.39627
ma	-7.39946
▁knowing	-7.4005
▁story	-7.40078
▁smile	-7.40201
▁colors	-7.40356
z	-7.40876
▁told	-7.40972
▁need	-7.42255
▁fun	-7.42401
▁life	-7.42777
▁always	-7.43033
▁forest	-7.43313
▁set	-7.43358
▁long	-7.45398
▁trees	-7.45643
▁others	-7.45687
▁change	-7.46109
▁after	-7.46154
▁share	-7.47204
um	-7.47252
▁own	-7.47472
▁door	-7.47918
▁city	-7.4827
▁whispered	-7.48453
▁creature	-7.4848
la	-7.48517
▁wind	-7.49014
▁alone	-7.49575
▁hard	-7.49717
▁feel	-7.49758
▁shadows	-7.49849
▁reached	-7.50123
▁too	-7.50164
▁watched	-7.50799
▁want	-7.5092
to	-7.51023
▁beautiful	-7.51994
▁cave	-7.52516
▁po	-7.52955
▁opened	-7.53857
▁your	-7.53949
▁held	-7.54151
▁ran	-7.54376
▁bird	-7.54715
▁soon	-7.55349
▁explore	-7.55425
▁rock	-7.55518
▁than	-7.5579
▁alice	-7.56624
▁sad	-7.57143
ap	-7.58051
▁while	-7.58414
▁tall	-7.59236
▁breath	-7.59887
▁must	-7.60202
▁plan	-7.60221
▁friendship	-7.60507
▁village	-7.60508
he	-7.60541
▁remembered	-7.61031
ies	-7.61098
▁jose	-7.61513
▁heard	-7.62225
▁excited	-7.62853
▁power	-7.62927
▁take	-7.63203
▁maria	-7.63334
▁true	-7.63441
▁la	-7.64596
▁warm	-7.64716
;	-7.64802
▁show	-7.6505
▁great	-7.65214
let	-7.6548
▁snow	-7.65582
▁sharing	-7.65791
▁ready	-7.66104
led	-7.66109
▁gold	-7.6623
▁lead	-7.66264
▁giant	-7.66405
▁part	-7.66508
▁many	-7.66537
▁game	-7.66566
▁path	-7.66881
▁room	-7.67411
▁grew	-7.67607
▁soft	-7.67624
▁finally	-7.68052
▁book	-7.6823
▁wonder	-7.68657
▁join	-7.68693
▁jean	-7.68909
▁curious	-7.6894
▁work	-7.6949
▁storm	-7.69978
one	-7.70214
▁both	-7.70458
▁bring	-7.7053
▁fish	-7.70768
▁un	-7.70984
▁lena	-7.71176
ped	-7.714
▁grow	-7.71406
▁stepped	-7.71454
▁nodded	-7.71476
▁real	-7.71483
▁spoke	-7.71896
▁fly	-7.71972
▁glow	-7.72237
▁letter	-7.7256
▁never	-7.72574
this	-7.72855
▁became	-7.73004
▁played	-7.73584
▁cheered	-7.7371
▁off	-7.73764
▁end	-7.73985
▁excitement	-7.74078
▁tale	-7.7408
▁once	-7.74102
▁only	-7.74137
▁fl	-7.74234
▁proud	-7.74434
▁high	-7.7577
▁tea	-7.76178
▁know	-7.76562
▁step	-7.76585
▁young	-7.76601
▁leave	-7.76681
▁town	-7.76786
▁special	-7.76798
▁quiet	-7.77351
▁surprise	-7.77587
-	-7.77684
▁pull	-7.77827
▁replied	-7.779
▁gathered	-7.77923
▁noticed	-7.78136
▁emmanuel	-7.78431
▁or	-7.78989
▁woman	-7.79212
▁best	-7.79392
▁words	-7.79662
▁behind	-7.79907
▁sound	-7.80515
▁create	-7.80958
▁warmth	-7.81088
▁flew	-7.81661
▁past	-7.81865
▁returned	-7.82397
▁clouds	-7.82566
▁softly	-7.83568
▁car	-7.83588
▁still	-7.83608
▁ground	-7.84096
▁flower	-7.84604
▁closer	-7.85721
▁seemed	-7.86272
age	-7.86672
▁before	-7.86687
▁tell	-7.86884
▁ship	-7.87034
▁sparkled	-7.87129
▁river	-7.87929
ble	-7.87966
▁tiny	-7.88395
▁wise	-7.89538
ver	-7.89619
▁above	-7.89983
▁next	-7.90006
▁heavy	-7.90598
the	-7.90906
▁robot	-7.90907
▁memories	-7.91688
▁family	-7.91768
▁keep	-7.91984
▁fell	-7.92206
▁dance	-7.92689
▁called	-7.92701
why	-7.93209
▁listened	-7.93397
▁dragon	-7.93504
▁cat	-7.93529
▁close	-7.93556
▁j	-7.93735
▁spark	-7.9386
▁journey	-7.94101
▁met	-7.94308
▁raced	-7.94343
▁wide	-7.94431
▁looking	-7.94962
▁mind	-7.95595
▁str	-7.96052
▁spirit	-7.96104
▁first	-7.96305
▁worked	-7.9643
▁outside	-7.9696
▁whisper	-7.978
light	-7.97825
▁talk	-7.97971
▁alive	-7.98191
▁magical	-7.982
▁courage	-7.98208
▁rush	-7.98337
▁also	-7.98486
▁loud	-7.9859
▁free	-7.98613
▁watch	-7.98623
▁appeared	-7.98988
▁promised	-7.99193
▁box	-7.99324
▁things	-7.99723
▁remind	-7.99852
▁himself	-7.99921
▁secret	-8.00313
▁any	-8.00329
▁n	-8.00659
▁instead	-8.00882
▁idea	-8.00978
▁hold	-8.02277
▁anne	-8.02601
▁peter	-8.02942
▁let	-8.03136
▁brought	-8.03161
▁secrets	-8.03233
▁remember	-8.03752
▁some	-8.03998
▁glowing	-8.0409
▁herself	-8.04244
▁yet	-8.04408
▁key	-8.04542
▁happiness	-8.04589
come	-8.04599
▁laughing	-8.04908
▁shiny	-8.05632
▁win	-8.0567
▁believe	-8.06259
▁left	-8.06454
▁kindness	-8.06575
▁passed	-8.06636
▁rain	-8.06844
▁slowly	-8.06853
▁con	-8.06986
▁colorful	-8.07002
maybe	-8.08203
▁moon	-8.08569
▁open	-8.08893
▁wondered	-8.09566
▁wall	-8.09744
▁sweet	-8.09763
▁trust	-8.09851
▁shining	-8.10118
▁showed	-8.10281
▁started	-8.10322
▁alien	-8.10485
▁our	-8.10655
▁scared	-8.11036
▁float	-8.11348
▁last	-8.1174
▁understood	-8.11913
▁thinking	-8.12355
▁group	-8.14643
▁island	-8.14986
▁picked	-8.1533
▁miss	-8.15604
ous	-8.15822
▁truth	-8.15941
▁wood	-8.16175
▁different	-8.16277
▁making	-8.16677
▁read	-8.16693
▁far	-8.17224
▁climbed	-8.17454
where	-8.17517
▁park	-8.17663
▁figure	-8.17823
▁lived	-8.1864
▁look	-8.18698
▁think	-8.1892
▁hill	-8.19172
▁wrote	-8.19404
▁weight	-8.19563
▁dinosaur	-8.20743
▁child	-8.21171
▁plant	-8.21921
▁song	-8.22504
▁followed	-8.22728
▁owl	-8.22786
▁kind	-8.22873
▁mean	-8.23505
▁discovered	-8.23705
▁art	-8.24661
▁build	-8.24904
▁push	-8.2532
▁turtle	-8.25329
▁children	-8.25442
▁bloom	-8.25542
▁strength	-8.25575
▁turn	-8.25954
▁draw	-8.26389
▁year	-8.26478
▁jumped	-8.27412
▁shadow	-8.27595
▁cold	-8.27777
▁went	-8.27888
▁led	-8.28048
▁care	-8.28168
▁rabbit	-8.28226
▁music	-8.28816
▁better	-8.2908
▁pirate	-8.29502
▁everything	-8.29752
▁dust	-8.30011
▁been	-8.30346
▁waiting	-8.30502
▁beauty	-8.31008
ation	-8.31132
▁fast	-8.31207
▁sang	-8.31901
▁those	-8.31998
▁kids	-8.32645
▁touch	-8.32762
▁mountain	-8.32778
▁among	-8.33092
▁sometimes	-8.33653
▁return	-8.33749
▁should	-8.33809
▁closed	-8.34141
▁castle	-8.34494
▁often	-8.34785
▁fox	-8.35233
▁ever	-8.35252
▁travel	-8.35567
:	-8.3599
▁moved	-8.36036
▁safe	-8.36904
▁say	-8.37345
▁food	-8.37348
▁sadness	-8.38079
▁chest	-8.38098
▁without	-8.38757
▁shone	-8.39054
▁space	-8.39092
▁understand	-8.39334
▁echoed	-8.39644
qu	-8.40463
▁exclaimed	-8.40709
▁near	-8.40764
▁fill	-8.408
▁animals	-8.40971
▁broke	-8.41314
▁lay	-8.41772
ness	-8.41895
▁good	-8.42199
▁learn	-8.42595
▁another	-8.42728
▁funny	-8.43469
▁bond	-8.43497
▁quickly	-8.43504
▁toward	-8.43841
▁faded	-8.44101
▁agreed	-8.44748
▁stay	-8.44829
▁swam	-8.44847
▁thank	-8.45371
▁ex	-8.45605
▁blue	-8.45841
▁darkness	-8.46057
▁across	-8.46144
▁give	-8.46334
▁sail	-8.46597
look	-8.46948
▁fire	-8.47002
▁forever	-8.47286
▁mother	-8.47562
▁beneath	-8.47756
▁approached	-8.47785
▁ocean	-8.48009
▁sand	-8.48543
▁fall	-8.48951
▁father	-8.49182
▁fairy	-8.49307
▁twinkle	-8.49396
▁piece	-8.4941
▁happen	-8.49581
▁laugh	-8.50127
▁spotted	-8.50203
▁silly	-8.50287
▁shine	-8.50331
▁gasped	-8.51178
▁house	-8.51283
▁tight	-8.51294
▁wi	-8.51376
▁mix	-8.51789
▁racing	-8.51789
▁boat	-8.51825
▁someone	-8.51849
▁gentle	-8.51878
▁luis	-8.51979
▁crystal	-8.52008
but	-8.52084
▁today	-8.52141
▁realiz	-8.52422
x	-8.52472
▁follow	-8.5347
▁trick	-8.53515
▁shape	-8.54227
▁tried	-8.54343
▁side	-8.55181
▁forward	-8.55505
▁sigh	-8.55687
▁answer	-8.56387
▁hoping	-8.57047
▁kingdom	-8.57308
▁eager	-8.57401
▁gently	-8.57681
▁empty	-8.57958
▁reach	-8.58247
▁sparkling	-8.58278
▁lonely	-8.59474
▁flash	-8.59633
▁school	-8.59727
▁imagined	-8.5979
▁right	-8.60202
▁wandered	-8.6052
▁built	-8.60599
▁clear	-8.60764
▁flicker	-8.60983
▁race	-8.61431
▁along	-8.61689
▁gift	-8.61834
▁crew	-8.61924
▁arrived	-8.61963
thank	-8.62034
j	-9.10586
0	-12.1547
1	-12.5925
2	-12.6186
3	-12.845
5	-13.1236
9	-13.726
q	-13.9617
8	-14.2823
*	-14.3799
7	-14.7475
6	-15.0986
4	-15.0987
(	-16.4276
)	-16.4276
+	-16.4276
