<unk>	0
<s>	0
</s>	0
<pad>	0
<0x00>	0
<0x01>	0
<0x02>	0
<0x03>	0
<0x04>	0
<0x05>	0
<0x06>	0
<0x07>	0
<0x08>	0
<0x09>	0
<0x0A>	0
<0x0B>	0
<0x0C>	0
<0x0D>	0
<0x0E>	0
<0x0F>	0
<0x10>	0
<0x11>	0
<0x12>	0
<0x13>	0
<0x14>	0
<0x15>	0
<0x16>	0
<0x17>	0
<0x18>	0
<0x19>	0
<0x1A>	0
<0x1B>	0
<0x1C>	0
<0x1D>	0
<0x1E>	0
<0x1F>	0
<0x20>	0
<0x21>	0
<0x22>	0
<0x23>	0
<0x24>	0
<0x25>	0
<0x26>	0
<0x27>	0
<0x28>	0
<0x29>	0
<0x2A>	0
<0x2B>	0
<0x2C>	0
<0x2D>	0
<0x2E>	0
<0x2F>	0
<0x30>	0
<0x31>	0
<0x32>	0
<0x33>	0
<0x34>	0
<0x35>	0
<0x36>	0
<0x37>	0
<0x38>	0
<0x39>	0
<0x3A>	0
<0x3B>	0
<0x3C>	0
<0x3D>	0
<0x3E>	0
<0x3F>	0
<0x40>	0
<0x41>	0
<0x42>	0
<0x43>	0
<0x44>	0
<0x45>	0
<0x46>	0
<0x47>	0
<0x48>	0
<0x49>	0
<0x4A>	0
<0x4B>	0
<0x4C>	0
<0x4D>	0
<0x4E>	0
<0x4F>	0
<0x50>	0
<0x51>	0
<0x52>	0
<0x53>	0
<0x54>	0
<0x55>	0
<0x56>	0
<0x57>	0
<0x58>	0
<0x59>	0
<0x5A>	0
<0x5B>	0
<0x5C>	0
<0x5D>	0
<0x5E>	0
<0x5F>	0
<0x60>	0
<0x61>	0
<0x62>	0
<0x63>	0
<0x64>	0
<0x65>	0
<0x66>	0
<0x67>	0
<0x68>	0
<0x69>	0
<0x6A>	0
<0x6B>	0
<0x6C>	0
<0x6D>	0
<0x6E>	0
<0x6F>	0
<0x70>	0
<0x71>	0
<0x72>	0
<0x73>	0
<0x74>	0
<0x75>	0
<0x76>	0
<0x77>	0
<0x78>	0
<0x79>	0
<0x7A>	0
<0x7B>	0
<0x7C>	0
<0x7D>	0
<0x7E>	0
<0x7F>	0
<0x80>	0
<0x81>	0
<0x82>	0
<0x83>	0
<0x84>	0
<0x85>	0
<0x86>	0
<0x87>	0
<0x88>	0
<0x89>	0
<0x8A>	0
<0x8B>	0
<0x8C>	0
<0x8D>	0
<0x8E>	0
<0x8F>	0
<0x90>	0
<0x91>	0
<0x92>	0
<0x93>	0
<0x94>	0
<0x95>	0
<0x96>	0
<0x97>	0
<0x98>	0
<0x99>	0
<0x9A>	0
<0x9B>	0
<0x9C>	0
<0x9D>	0
<0x9E>	0
<0x9F>	0
<0xA0>	0
<0xA1>	0
<0xA2>	0
<0xA3>	0
<0xA4>	0
<0xA5>	0
<0xA6>	0
<0xA7>	0
<0xA8>	0
<0xA9>	0
<0xAA>	0
<0xAB>	0
<0xAC>	0
<0xAD>	0
<0xAE>	0
<0xAF>	0
<0xB0>	0
<0xB1>	0
<0xB2>	0
<0xB3>	0
<0xB4>	0
<0xB5>	0
<0xB6>	0
<0xB7>	0
<0xB8>	0
<0xB9>	0
<0xBA>	0
<0xBB>	0
<0xBC>	0
<0xBD>	0
<0xBE>	0
<0xBF>	0
<0xC0>	0
<0xC1>	0
<0xC2>	0
<0xC3>	0
<0xC4>	0
<0xC5>	0
<0xC6>	0
<0xC7>	0
<0xC8>	0
<0xC9>	0
<0xCA>	0
<0xCB>	0
<0xCC>	0
<0xCD>	0
<0xCE>	0
<0xCF>	0
<0xD0>	0
<0xD1>	0
<0xD2>	0
<0xD3>	0
<0xD4>	0
<0xD5>	0
<0xD6>	0
<0xD7>	0
<0xD8>	0
<0xD9>	0
<0xDA>	0
<0xDB>	0
<0xDC>	0
<0xDD>	0
<0xDE>	0
<0xDF>	0
<0xE0>	0
<0xE1>	0
<0xE2>	0
<0xE3>	0
<0xE4>	0
<0xE5>	0
<0xE6>	0
<0xE7>	0
<0xE8>	0
<0xE9>	0
<0xEA>	0
<0xEB>	0
<0xEC>	0
<0xED>	0
<0xEE>	0
<0xEF>	0
<0xF0>	0
<0xF1>	0
<0xF2>	0
<0xF3>	0
<0xF4>	0
<0xF5>	0
<0xF6>	0
<0xF7>	0
<0xF8>	0
<0xF9>	0
<0xFA>	0
<0xFB>	0
<0xFC>	0
<0xFD>	0
<0xFE>	0
<0xFF>	0
.	-2.66027
,	-2.86752
▁the	-2.95512
▁a	-3.56935
▁and	-3.90899
▁to	-4.05287
s	-4.07861
▁he	-4.15149
▁she	-4.21093
▁they	-4.35163
▁"	-4.41585
▁of	-4.45199
▁her	-4.52742
▁in	-4.54126
▁it	-4.62783
▁was	-4.64474
▁with	-4.77004
▁but	-4.98753
ing	-5.00423
▁that	-5.09422
▁his	-5.1659
▁felt	-5.17451
ed	-5.17502
▁as	-5.211
!"	-5.33268
▁had	-5.33628
i	-5.4484
▁for	-5.49419
▁their	-5.50971
'	-5.62716
▁said	-5.69407
t	-5.71463
▁on	-5.7523
▁one	-5.77734
▁him	-5.83627
d	-5.84796
▁heart	-5.85479
▁you	-5.88317
?"	-5.8836
▁i	-5.89136
▁could	-5.89286
"	-5.92431
▁not	-5.93314
▁found	-5.95548
▁like	-5.97204
▁at	-5.98725
▁day	-5.99679
▁be	-6.01349
▁together	-6.03434
!	-6.06683
▁them	-6.11659
y	-6.13245
m	-6.14188
▁girl	-6.14869
e	-6.15449
▁each	-6.18525
▁	-6.18774
a	-6.20634
▁thought	-6.20742
▁were	-6.21578
▁about	-6.22153
▁is	-6.22768
p	-6.23974
▁would	-6.24256
n	-6.24538
▁from	-6.24594
▁just	-6.25176
▁into	-6.26527
▁boy	-6.27083
▁joy	-6.27601
▁mia	-6.29236
▁this	-6.30929
▁can	-6.31291
."	-6.31692
▁up	-6.3346
▁filled	-6.34729
▁leo	-6.35854
▁looked	-6.39537
r	-6.40077
▁back	-6.40445
▁friends	-6.43492
▁when	-6.43517
▁find	-6.45748
er	-6.45863
▁old	-6.46504
▁feeling	-6.46876
▁small	-6.47876
▁eyes	-6.49114
▁bright	-6.50227
ly	-6.50471
▁smiled	-6.50959
▁saw	-6.51576
l	-6.53006
▁s	-6.53194
▁time	-6.53349
▁asked	-6.53812
▁through	-6.54124
▁all	-6.54594
▁light	-6.54817
▁made	-6.55147
▁alex	-6.55229
▁around	-6.56919
▁world	-6.58436
▁lost	-6.58644
▁named	-6.5874
▁help	-6.58781
▁treasure	-6.59153
▁wanted	-6.59924
▁we	-6.62899
o	-6.62946
▁night	-6.63117
▁began	-6.63795
▁sky	-6.64096
▁stars	-6.64584
▁by	-6.64586
▁stories	-6.64811
▁out	-6.65217
u	-6.66161
▁kim	-6.66681
g	-6.67329
▁if	-6.68639
▁inside	-6.68716
▁samuel	-6.70768
▁love	-6.72049
▁dreams	-6.72216
▁what	-6.73157
▁who	-6.74801
▁an	-6.75179
what	-6.75232
▁learned	-6.75287
▁suddenly	-6.76672
▁big	-6.78157
▁laughter	-6.79301
▁new	-6.81242
▁will	-6.81702
▁shared	-6.81775
▁see	-6.82001
▁air	-6.82865
▁realized	-6.84175
▁hope	-6.84993
▁more	-6.85191
▁magic	-6.85914
▁sun	-6.85987
you	-6.86715
▁laughed	-6.86784
?	-6.88323
▁decided	-6.89336
▁dark	-6.89846
▁friend	-6.90043
▁so	-6.90897
▁something	-6.91566
▁do	-6.91819
▁its	-6.92003
▁me	-6.93776
▁my	-6.94484
▁home	-6.95282
▁took	-6.96104
▁are	-6.96619
▁knew	-6.9705
w	-6.98032
f	-6.98119
▁danced	-6.9896
▁tree	-6.99774
ar	-6.99779
▁down	-6.99867
▁every	-7.00769
▁c	-7.0153
▁people	-7.01622
▁flowers	-7.03114
▁over	-7.03118
▁then	-7.0313
▁away	-7.03376
▁strange	-7.03449
▁garden	-7.03707
▁walked	-7.03745
c	-7.03873
▁there	-7.04674
▁b	-7.04974
▁moment	-7.05078
▁deep	-7.05104
▁did	-7.05304
▁p	-7.06017
▁where	-7.0606
▁again	-7.06098
▁everyone	-7.06408
re	-7.07318
k	-7.09033
▁man	-7.09084
▁turned	-7.09303
▁way	-7.10059
▁even	-7.11962
▁now	-7.12288
▁no	-7.12575
▁other	-7.12611
▁rita	-7.12708
▁hidden	-7.12783
▁sat	-7.12817
▁stood	-7.13375
▁adventure	-7.15114
we	-7.15477
▁water	-7.15621
▁how	-7.15679
▁brave	-7.16082
▁have	-7.16363
▁voice	-7.17246
en	-7.17397
it	-7.17504
b	-7.17511
▁t	-7.18628
▁make	-7.18903
▁lily	-7.18939
▁place	-7.19793
▁map	-7.19854
▁full	-7.21496
▁happy	-7.22078
▁shouted	-7.22444
▁came	-7.23124
▁loved	-7.24174
▁little	-7.24671
al	-7.24851
▁d	-7.24978
▁star	-7.2542
▁knowing	-7.26037
▁story	-7.26619
▁colors	-7.26746
▁told	-7.27454
▁fun	-7.28662
▁life	-7.29319
▁always	-7.29575
▁forest	-7.29681
▁go	-7.30029
▁trees	-7.30726
▁others	-7.31023
▁under	-7.31236
▁fear	-7.32146
▁after	-7.32688
le	-7.33082
▁own	-7.34014
▁share	-7.34142
▁door	-7.34276
▁whispered	-7.34295
▁city	-7.34809
▁wind	-7.35256
▁g	-7.35349
▁set	-7.35542
▁too	-7.35784
▁shadows	-7.35936
▁alone	-7.36109
▁reached	-7.36411
▁watched	-7.36674
▁want	-7.3821
▁beautiful	-7.38536
▁cave	-7.39054
▁hard	-7.39558
▁opened	-7.3997
▁ran	-7.40459
▁held	-7.40628
▁soon	-7.41749
▁than	-7.42535
▁sad	-7.42926
▁alice	-7.43165
▁stone	-7.4379
▁come	-7.44386
▁while	-7.44956
▁tall	-7.45775
▁breath	-7.46429
▁must	-7.46744
▁remembered	-7.46999
▁friendship	-7.47048
▁village	-7.47057
or	-7.47158
in	-7.47795
▁jose	-7.48054
es	-7.48148
▁heard	-7.48836
▁your	-7.48972
ur	-7.49322
▁excited	-7.49394
▁maria	-7.49875
▁true	-7.49978
▁smile	-7.50817
▁warm	-7.51324
;	-7.51344
▁wish	-7.52332
▁sharing	-7.52333
▁ready	-7.52505
▁many	-7.52719
at	-7.5284
ra	-7.5291
▁giant	-7.52946
▁path	-7.5342
▁room	-7.53952
▁grew	-7.54146
▁soft	-7.54255
▁dream	-7.54523
▁finally	-7.54612
▁book	-7.54771
▁jean	-7.5545
▁curious	-7.55482
▁play	-7.56254
▁storm	-7.56519
let	-7.5675
▁long	-7.56963
▁both	-7.56997
▁bring	-7.57051
▁fish	-7.57308
▁f	-7.57594
▁lena	-7.57718
ro	-7.57838
▁stepped	-7.57973
▁nodded	-7.58018
▁spoke	-7.58437
▁played	-7.58491
▁never	-7.59121
▁became	-7.59546
▁feel	-7.59607
this	-7.5976
▁cheered	-7.59909
▁only	-7.60023
▁once	-7.60207
▁excitement	-7.6062
se	-7.6074
▁proud	-7.60976
oo	-7.62056
▁hand	-7.62132
▁strong	-7.62359
▁young	-7.63135
▁step	-7.63146
▁special	-7.63348
▁gathered	-7.64086
-	-7.64226
st	-7.64277
▁replied	-7.64442
▁best	-7.64562
▁noticed	-7.64693
▁face	-7.64966
▁emmanuel	-7.64973
▁woman	-7.65754
▁words	-7.66009
▁behind	-7.66448
▁take	-7.67342
▁warmth	-7.67565
▁re	-7.6798
▁flew	-7.68199
▁past	-7.68401
▁returned	-7.68494
▁clouds	-7.68661
▁power	-7.6883
▁us	-7.6903
▁land	-7.69625
▁great	-7.69792
▁softly	-7.70001
v	-7.70131
▁still	-7.70149
▁ground	-7.70638
ll	-7.719
▁flower	-7.71995
▁closer	-7.72007
an	-7.72126
▁bird	-7.72144
▁seemed	-7.72792
▁before	-7.73229
▁ship	-7.73572
▁sparkled	-7.7368
▁days	-7.74154
▁change	-7.74489
ce	-7.7458
▁tiny	-7.74933
▁sea	-7.75901
▁need	-7.75924
▁wise	-7.75988
▁town	-7.76343
▁above	-7.76524
▁next	-7.7656
▁show	-7.77029
▁off	-7.77101
▁heavy	-7.7714
▁robot	-7.77449
▁snow	-7.78191
▁memories	-7.7823
▁family	-7.7831
▁end	-7.78489
▁keep	-7.78541
ch	-7.78681
▁fell	-7.78743
▁called	-7.78847
▁grow	-7.78983
▁met	-7.79073
▁river	-7.79154
▁being	-7.79485
▁listened	-7.79609
▁dance	-7.79626
▁plan	-7.79904
▁dragon	-7.80046
▁journey	-7.80642
▁raced	-7.80683
▁real	-7.80926
▁looking	-7.81012
▁work	-7.81763
▁worked	-7.81843
▁mind	-7.82137
est	-7.82382
▁spirit	-7.82646
▁first	-7.82846
on	-7.82935
▁part	-7.835
▁outside	-7.8352
▁hearts	-7.84315
▁or	-7.84471
▁magical	-7.84595
▁alive	-7.84734
▁courage	-7.84749
▁also	-7.85023
▁free	-7.85069
▁appeared	-7.85568
▁promised	-7.85601
▁box	-7.85866
▁am	-7.86211
▁himself	-7.86463
▁things	-7.86576
▁instead	-7.87423
ve	-7.878
▁secret	-7.87848
id	-7.88061
▁secrets	-7.88762
▁high	-7.88982
th	-7.89036
▁let	-7.89077
▁anne	-7.89132
ter	-7.89328
▁glowing	-7.89379
▁peter	-7.89499
▁brought	-7.89703
ck	-7.90136
is	-7.90366
▁some	-7.90521
▁herself	-7.90785
▁yet	-7.90949
▁laughing	-7.91056
▁key	-7.91076
▁happiness	-7.91131
▁shiny	-7.92174
▁gold	-7.9242
▁wide	-7.92869
▁passed	-7.92919
▁left	-7.92996
▁kindness	-7.93114
▁rain	-7.93377
▁slowly	-7.93418
▁colorful	-7.93532
▁creature	-7.94134
▁here	-7.94156
▁wondered	-7.94658
h	-7.94886
▁spark	-7.95301
▁showed	-7.95471
▁game	-7.95916
▁know	-7.96027
▁open	-7.96184
▁sweet	-7.96304
▁trust	-7.96404
▁hands	-7.96417
▁shining	-7.9666
▁started	-7.97111
▁our	-7.97197
▁co	-7.9753
▁scared	-7.97606
▁rock	-7.9764
▁last	-7.98005
▁thinking	-7.98319
▁understood	-7.98455
te	-7.99528
▁quiet	-8.00233
▁e	-8.00286
▁tell	-8.00962
▁group	-8.01185
▁adventures	-8.01223
▁island	-8.01528
z	-8.018
▁letter	-8.01868
▁picked	-8.0199
▁truth	-8.02482
▁far	-8.02746
▁different	-8.02819
▁read	-8.03189
▁making	-8.03218
▁climbed	-8.0365
▁park	-8.04199
▁join	-8.04202
▁figure	-8.04365
▁lived	-8.04828
la	-8.05638
▁hill	-8.05704
why	-8.05861
▁wrote	-8.05946
▁think	-8.06082
▁weight	-8.06105
▁look	-8.0631
▁r	-8.0637
▁loud	-8.0674
am	-8.07231
sh	-8.07856
▁wonder	-8.08288
▁sound	-8.08613
▁followed	-8.08723
▁owl	-8.09328
▁kind	-8.09418
▁tales	-8.09489
▁explore	-8.09674
un	-8.09711
▁surprise	-8.09728
▁discovered	-8.09888
▁waves	-8.1119
▁turtle	-8.1187
▁children	-8.11983
▁strength	-8.12117
▁turn	-8.13242
the	-8.13442
▁led	-8.13457
▁jumped	-8.13665
▁cold	-8.14308
▁went	-8.14403
ma	-8.14626
▁rabbit	-8.14768
▁shadow	-8.15135
led	-8.15344
▁music	-8.15357
ad	-8.15427
il	-8.15512
▁been	-8.15551
▁better	-8.15614
▁leaves	-8.15701
▁creatures	-8.15705
▁de	-8.1593
▁everything	-8.1629
ic	-8.16339
▁waiting	-8.16479
▁create	-8.17367
▁beauty	-8.1755
▁brighter	-8.18341
▁sang	-8.18431
▁those	-8.18538
▁child	-8.1879
▁remember	-8.19088
▁kids	-8.19187
▁pull	-8.19425
▁among	-8.19634
▁closed	-8.19936
▁car	-8.20079
▁sometimes	-8.20136
ped	-8.2027
▁wished	-8.20358
▁should	-8.20366
▁castle	-8.21035
▁return	-8.21039
▁often	-8.21258
▁h	-8.21601
▁fox	-8.21775
▁cat	-8.21966
▁ever	-8.21995
ers	-8.22474
:	-8.22532
▁moved	-8.22742
▁fl	-8.23234
▁glow	-8.23719
▁food	-8.23887
um	-8.24198
▁flying	-8.24576
▁sadness	-8.24614
▁chest	-8.24634
▁deeper	-8.25282
▁without	-8.25427
▁shone	-8.25593
▁space	-8.25632
if	-8.26108
▁echoed	-8.26254
he	-8.2628
▁moon	-8.26504
▁needed	-8.26661
ho	-8.2669
▁exclaimed	-8.27251
▁near	-8.27303
▁lay	-8.27328
ion	-8.27485
▁animals	-8.27655
▁close	-8.28267
▁good	-8.28726
yes	-8.2879
▁helped	-8.29076
▁sp	-8.29156
ies	-8.29167
▁fly	-8.29199
▁another	-8.2927
▁learn	-8.29887
▁funny	-8.30006
▁quickly	-8.30014
▁bond	-8.30032
▁toward	-8.30382
▁faded	-8.30411
▁dreamed	-8.30578
▁thank	-8.31066
ent	-8.31145
▁agreed	-8.31317
▁swam	-8.31384
▁playing	-8.31569
▁blue	-8.32383
ir	-8.32519
ke	-8.32548
▁darkness	-8.32586
▁across	-8.32686
▁alien	-8.3272
▁woods	-8.32899
▁give	-8.32913
can	-8.33078
▁any	-8.33129
▁lead	-8.33841
look	-8.33901
ted	-8.33998
▁forever	-8.34052
▁mother	-8.34102
▁watching	-8.34162
▁beneath	-8.34298
▁approached	-8.34376
▁ocean	-8.34551
▁glowed	-8.34613
▁floated	-8.34635
▁fall	-8.35484
▁stronger	-8.35582
▁fairy	-8.35682
▁father	-8.35724
▁searched	-8.35725
▁piece	-8.35962
▁landed	-8.36085
▁spotted	-8.36753
▁silly	-8.36825
▁shine	-8.36868
▁walls	-8.37124
ry	-8.37306
▁gasped	-8.3772
hi	-8.37819
▁house	-8.37821
▁safe	-8.37864
▁laugh	-8.38099
▁mix	-8.38331
▁racing	-8.38331
▁brightly	-8.38336
▁someone	-8.38339
▁boat	-8.3836
▁idea	-8.3836
▁gentle	-8.38418
▁luis	-8.3852
▁crystal	-8.3855
▁today	-8.387
▁head	-8.3885
but	-8.39011
▁realiz	-8.39713
▁art	-8.39961
▁changed	-8.39986
▁trick	-8.40053
▁follow	-8.40791
▁tried	-8.40844
▁lights	-8.41685
▁side	-8.41737
▁seen	-8.41867
▁team	-8.41939
▁forward	-8.42047
▁n	-8.42311
▁un	-8.42327
ful	-8.4266
▁answer	-8.42929
to	-8.43337
▁fire	-8.43698
▁hoping	-8.43709
▁dinosaur	-8.43776
▁kingdom	-8.4385
▁gently	-8.4422
▁empty	-8.44499
▁dog	-8.44601
▁trying	-8.44654
▁sparkling	-8.44838
▁stones	-8.45207
▁helping	-8.45237
▁care	-8.45415
▁within	-8.45461
▁reach	-8.45533
el	-8.45545
▁seek	-8.45783
▁whispers	-8.45886
▁lonely	-8.46016
▁leader	-8.46016
▁treasures	-8.46033
▁painted	-8.4612
ap	-8.46135
▁school	-8.46269
▁imagined	-8.46363
us	-8.4663
▁hear	-8.46675
▁right	-8.4676
▁upon	-8.46932
▁wandered	-8.47062
▁built	-8.47141
▁fast	-8.47224
▁clear	-8.47301
▁searching	-8.47847
▁along	-8.48231
▁race	-8.48361
▁gift	-8.48376
▁crew	-8.48457
▁arrived	-8.48505
▁rush	-8.4851
▁against	-8.48908
▁faced	-8.48913
thank	-8.48985
▁window	-8.4917
▁villagers	-8.49438
▁morning	-8.49691
▁cloud	-8.49695
▁waved	-8.49861
▁joined	-8.50151
▁planet	-8.50151
▁hold	-8.50256
▁pulled	-8.50319
▁mirror	-8.50429
▁king	-8.50583
maybe	-8.50707
▁knight	-8.51273
▁leaving	-8.51273
▁wave	-8.51366
▁sense	-8.51641
▁riddle	-8.51889
▁shell	-8.52138
▁hero	-8.52475
▁field	-8.52728
▁leave	-8.52802
▁might	-8.52812
▁breeze	-8.5315
▁win	-8.53162
▁crowd	-8.53506
▁mean	-8.53585
▁covered	-8.53798
▁two	-8.53881
▁plant	-8.54031
▁ball	-8.54412
▁painting	-8.54434
▁cried	-8.54496
▁festival	-8.54634
▁grass	-8.54668
▁nearby	-8.54892
▁thick	-8.54995
▁below	-8.55635
no	-8.5605
▁stopped	-8.56105
▁pushed	-8.567
ness	-8.56937
▁shook	-8.57738
ation	-8.57963
▁visit	-8.58485
▁games	-8.58586
▁evening	-8.58594
▁meet	-8.58811
▁ghost	-8.5913
▁got	-8.59346
▁much	-8.59454
▁tr	-8.59474
▁edge	-8.59509
▁brother	-8.60087
▁fight	-8.60123
▁rushed	-8.60227
▁choice	-8.60541
▁sand	-8.60571
▁wings	-8.60744
▁connection	-8.60832
▁created	-8.60987
are	-8.61288
▁smiling	-8.61475
▁believe	-8.61701
ive	-8.62027
▁listen	-8.62339
ble	-8.62487
▁believed	-8.62541
▁gone	-8.62656
▁kept	-8.62714
▁dancing	-8.6277
▁stumbled	-8.6277
▁sunny	-8.63146
do	-8.63231
▁enjoy	-8.63368
▁twinkled	-8.63535
▁lesson	-8.63537
▁challenge	-8.63593
▁fears	-8.63798
▁spread	-8.63913
▁lit	-8.64046
▁golden	-8.64449
▁silence	-8.64537
▁letters	-8.64567
▁surprised	-8.64601
▁wishes	-8.64648
▁worried	-8.64689
▁stay	-8.656
▁used	-8.66171
where	-8.66175
less	-8.66563
▁holding	-8.66695
▁dreaming	-8.66764
▁matter	-8.67169
▁build	-8.67557
▁pirate	-8.68161
▁jester	-8.68266
▁v	-8.6838
▁curiosity	-8.68541
▁talked	-8.68749
▁dusty	-8.68906
▁bit	-8.68995
▁say	-8.69028
▁cool	-8.69037
and	-8.69057
▁shore	-8.69116
▁carefully	-8.69546
▁kite	-8.70073
▁sitting	-8.70556
▁con	-8.71493
x	-8.71571
▁note	-8.71592
▁pain	-8.71887
▁song	-8.72181
▁peace	-8.72364
▁get	-8.72365
▁explorer	-8.72567
▁flash	-8.73303
▁future	-8.73394
▁thrill	-8.73498
▁inspired	-8.73718
▁tale	-8.73794
▁birds	-8.73796
▁anything	-8.73977
▁move	-8.74381
▁bloom	-8.74398
▁wrong	-8.74415
▁act	-8.74591
qu	-8.74835
▁very	-8.74835
▁sounds	-8.74933
▁run	-8.75273
▁has	-8.75691
▁bear	-8.75932
▁beside	-8.76064
▁caught	-8.7621
▁faces	-8.76398
▁paint	-8.76495
ling	-8.76584
▁splash	-8.76637
▁red	-8.76712
▁amazing	-8.76873
▁memory	-8.76894
▁corner	-8.77131
▁spent	-8.77689
▁earth	-8.77778
▁try	-8.77936
▁mountain	-8.78053
▁closely	-8.78328
▁grandmother	-8.78429
▁candy	-8.78764
▁grabbed	-8.7902
▁year	-8.79185
▁rainbow	-8.79239
▁maybe	-8.79492
▁ideas	-8.79524
▁later	-8.79558
▁important	-8.79591
▁calm	-8.79702
▁beach	-8.7999
▁danger	-8.80121
▁po	-8.80701
▁moments	-8.80704
▁ancient	-8.80945
▁guide	-8.80945
▁symbol	-8.81079
▁picture	-8.81236
▁climb	-8.81551
▁write	-8.81752
▁hat	-8.81808
▁tears	-8.81821
▁everywhere	-8.82197
▁hours	-8.82249
▁smell	-8.82249
▁noise	-8.82297
▁filling	-8.82386
▁line	-8.82408
▁doubt	-8.82453
ha	-8.82699
▁longer	-8.82732
▁between	-8.82748
▁quietly	-8.82749
▁watch	-8.82842
▁nervous	-8.83045
▁name	-8.83075
▁smiles	-8.8311
▁clock	-8.83364
▁determined	-8.8341
▁creating	-8.83525
▁sister	-8.83617
▁discover	-8.84372
▁green	-8.8447
▁ago	-8.84782
▁rocks	-8.84783
ul	-8.84808
▁broken	-8.84826
▁rolled	-8.8484
▁songs	-8.84934
▁finding	-8.84961
co	-8.85021
▁remind	-8.85056
▁catch	-8.8522
▁places	-8.85238
▁years	-8.85598
▁lo	-8.85633
▁suggested	-8.85657
▁gem	-8.85706
▁sail	-8.85708
▁carry	-8.85772
one	-8.85776
▁clever	-8.86056
▁amazed	-8.8615
▁gave	-8.86433
▁chill	-8.86527
▁valley	-8.86598
▁confused	-8.8674
▁party	-8.86772
▁touched	-8.86784
▁wash	-8.87087
▁wild	-8.87429
▁fade	-8.87474
▁start	-8.88702
▁pointed	-8.88719
▁understanding	-8.88875
▁bloomed	-8.88938
▁yelled	-8.90307
▁chance	-8.90577
▁afraid	-8.90799
▁running	-8.90875
▁lighter	-8.91027
▁happen	-8.91031
ever	-8.91171
▁touch	-8.91223
▁weeks	-8.91341
▁cheer	-8.91356
▁tightly	-8.91424
▁surrounded	-8.91457
▁shape	-8.91712
▁spot	-8.92039
▁forgotten	-8.9209
▁loss	-8.92245
▁same	-8.92541
▁entered	-8.92708
▁explored	-8.92952
▁known	-8.93123
▁sing	-8.93127
▁toys	-8.93163
▁bridge	-8.93372
▁squirrel	-8.93727
▁feather	-8.93803
▁j	-8.93877
age	-8.94029
▁hurt	-8.94083
▁continued	-8.9416
▁taking	-8.94236
way	-8.94632
▁promise	-8.94689
▁la	-8.94809
be	-8.95385
▁drawing	-8.95528
▁blew	-8.95598
▁shimmered	-8.95783
▁explained	-8.95984
▁building	-8.95989
▁reminder	-8.96028
▁pond	-8.96117
▁soared	-8.96146
▁page	-8.96153
▁invited	-8.96247
▁wi	-8.96364
▁talk	-8.96429
▁shimmering	-8.96506
▁fix	-8.9669
▁queen	-8.96795
▁table	-8.96821
▁taught	-8.96952
▁feels	-8.97069
▁ahead	-8.97085
▁distance	-8.97662
▁use	-8.97807
▁grand	-8.979
▁break	-8.98033
▁connect	-8.98166
▁protect	-8.98192
▁revealing	-8.98403
▁rose	-8.98752
▁finished	-8.98908
▁fruit	-8.98938
▁teamwork	-8.9908
▁balloon	-8.99153
▁don	-8.99515
▁stop	-8.99608
▁pass	-8.99859
▁friendly	-8.99884
▁mountains	-9.00483
▁energy	-9.00937
▁perfect	-9.00965
▁eager	-9.00978
▁until	-9.01156
▁invisible	-9.01402
▁missed	-9.01901
▁understand	-9.01947
▁trapped	-9.0227
▁paper	-9.02284
▁seeds	-9.02439
▁sign	-9.02505
▁planned	-9.02564
▁lives	-9.02585
▁favorite	-9.02838
▁comes	-9.02919
▁streets	-9.03215
▁tower	-9.03679
▁wisdom	-9.03704
▁tired	-9.03789
▁butterfly	-9.03901
▁stared	-9.03916
ant	-9.041
▁going	-9.045
▁machine	-9.04634
▁frog	-9.04663
▁goodbye	-9.04861
▁showing	-9.04995
▁exploring	-9.05003
▁grateful	-9.05003
▁lake	-9.05088
▁attic	-9.05489
▁wall	-9.05582
▁woke	-9.05859
▁str	-9.05967
▁wonders	-9.06028
▁pirates	-9.06156
▁sighed	-9.06161
▁dust	-9.06308
▁fierce	-9.0655
ous	-9.06644
▁onto	-9.07055
▁wore	-9.07071
▁jewels	-9.0746
▁higher	-9.07525
▁lift	-9.07676
▁put	-9.07948
▁giggled	-9.08162
▁working	-9.08361
▁nothing	-9.08569
▁low	-9.08606
▁reminded	-9.09155
▁feet	-9.09182
▁brush	-9.09211
ge	-9.09362
▁jump	-9.09632
▁rocket	-9.10047
▁person	-9.10075
that	-9.10204
▁enchanted	-9.10284
▁placed	-9.10693
ine	-9.10695
▁plants	-9.10926
▁enough	-9.10946
▁broke	-9.11267
▁large	-9.11672
▁busy	-9.11946
▁save	-9.12391
▁transformed	-9.12465
▁sunlight	-9.12515
▁most	-9.12698
▁meant	-9.12771
▁captain	-9.13265
▁joyful	-9.13367
▁because	-9.13486
▁push	-9.13664
▁belong	-9.1407
▁coming	-9.14543
▁bravery	-9.14646
▁cannot	-9.1479
oh	-9.15152
▁gather	-9.15166
▁hide	-9.15181
▁declared	-9.1526
▁really	-9.15336
▁silver	-9.15481
▁crown	-9.1567
▁hugged	-9.15829
▁telling	-9.15836
▁fill	-9.1587
▁winter	-9.15994
▁mo	-9.1612
▁singing	-9.16177
▁flickered	-9.16255
▁mark	-9.16272
▁glimmer	-9.16336
ment	-9.16338
▁color	-9.1658
▁stuck	-9.16751
▁branches	-9.16982
▁spaceship	-9.17039
▁silent	-9.17071
▁clue	-9.17103
▁grant	-9.17136
▁embrace	-9.1736
▁aliens	-9.17376
▁circle	-9.17489
▁flicker	-9.17495
▁traveler	-9.17626
▁arms	-9.17975
▁mission	-9.18242
▁burst	-9.18362
▁echoing	-9.18468
▁monster	-9.18525
ver	-9.1864
▁library	-9.18851
▁rest	-9.18909
▁hum	-9.19806
come	-9.20409
▁o	-9.21245
▁hung	-9.21473
▁hit	-9.21841
▁drawn	-9.21861
▁joke	-9.219
▁ruin	-9.219
▁fog	-9.21934
▁cake	-9.21968
▁coins	-9.21986
▁whisper	-9.22031
▁class	-9.22035
▁well	-9.22049
▁happened	-9.22291
▁sailed	-9.2257
▁bag	-9.22645
▁however	-9.22783
▁escape	-9.22847
▁anyone	-9.22916
▁tradition	-9.23017
▁powerful	-9.23187
how	-9.23191
▁celebrated	-9.23309
▁growing	-9.24188
▁speak	-9.24249
▁simple	-9.24387
▁happily	-9.24491
▁hesitated	-9.24906
▁saying	-9.25031
▁pressed	-9.25288
▁search	-9.2535
▁moonlight	-9.25555
▁hiding	-9.25669
▁bake	-9.25779
▁dinosaurs	-9.25804
▁tight	-9.25837
▁anger	-9.25955
▁talking	-9.26111
▁lantern	-9.26198
▁wonderful	-9.26198
▁worry	-9.26444
▁shy	-9.26446
▁moving	-9.26656
▁beyond	-9.26691
▁why	-9.26798
▁walk	-9.26914
▁won	-9.26974
▁crept	-9.2708
▁eagerly	-9.27275
▁ice	-9.27368
▁teacher	-9.2783
▁guard	-9.27898
▁grin	-9.28112
▁traveled	-9.28118
▁afternoon	-9.28256
▁prince	-9.28442
▁may	-9.28532
▁distant	-9.28579
▁eye	-9.28675
▁carried	-9.28687
▁offered	-9.288
▁does	-9.2887
▁teach	-9.28901
▁paused	-9.28904
▁drift	-9.2894
▁become	-9.2899
▁imagination	-9.29012
▁blanket	-9.29048
▁tick	-9.29595
▁revenge	-9.29737
▁word	-9.30027
▁twisted	-9.30575
▁sorrow	-9.30615
▁though	-9.30872
▁fought	-9.30983
▁lies	-9.31135
▁guiding	-9.31278
who	-9.31278
▁nature	-9.31537
▁surface	-9.31537
hello	-9.31546
▁center	-9.31649
▁stick	-9.31797
▁unsure	-9.31908
▁greatest	-9.31926
▁taken	-9.32164
▁waited	-9.32203
▁honesty	-9.32223
▁clean	-9.32244
▁remembering	-9.32252
▁chose	-9.32356
▁dug	-9.32581
▁shapes	-9.3263
▁few	-9.32806
▁believing	-9.32842
▁twist	-9.3292
▁universe	-9.33634
▁clapped	-9.33748
▁haunted	-9.33748
▁beat	-9.34021
▁walking	-9.34045
▁lifted	-9.34173
▁truly	-9.34547
▁slipped	-9.349
welcome	-9.34946
▁leading	-9.35109
▁mouse	-9.35121
▁swirled	-9.35329
board	-9.35468
▁pearl	-9.35583
▁packed	-9.36358
▁vast	-9.36436
▁puzzle	-9.36747
▁struggle	-9.36903
wow	-9.3714
▁wood	-9.37237
▁dawn	-9.37452
▁solve	-9.37769
▁saved	-9.37825
▁flowed	-9.37827
▁welcomed	-9.37886
▁street	-9.37904
▁cookies	-9.37938
▁sit	-9.37964
▁rise	-9.38046
▁stream	-9.38401
▁heroes	-9.38444
▁vanished	-9.38559
▁mist	-9.38956
▁snowman	-9.39278
light	-9.39462
▁celebration	-9.39558
▁blink	-9.39639
▁themselves	-9.39679
▁bubble	-9.3996
▁button	-9.40015
lmost	-9.40122
ally	-9.40136
▁question	-9.40427
▁late	-9.40556
▁lock	-9.40631
▁which	-9.40729
▁forgot	-9.40851
▁quick	-9.40864
▁ended	-9.41034
help	-9.4114
▁spring	-9.41181
▁tea	-9.41232
they	-9.41252
▁cruel	-9.41422
▁bigger	-9.41712
▁absence	-9.41873
▁roared	-9.41898
▁crack	-9.42038
▁compass	-9.42203
▁careful	-9.42276
▁front	-9.42492
▁dirt	-9.42617
▁hunt	-9.42661
▁freedom	-9.42699
▁bench	-9.42826
▁focus	-9.43114
▁sought	-9.43114
▁fail	-9.43156
▁biggest	-9.43448
▁standing	-9.435
▁hall	-9.43573
▁ride	-9.43676
▁warned	-9.43699
▁rule	-9.43729
▁calling	-9.43798
▁collect	-9.44412
▁done	-9.44579
▁fingers	-9.44709
▁ex	-9.4499
▁apple	-9.45301
▁leap	-9.45302
▁trouble	-9.45557
▁soul	-9.45747
▁belonged	-9.45814
▁chaos	-9.45856
▁crossed	-9.45921
▁uncover	-9.45984
▁shift	-9.46284
▁giving	-9.46456
▁gathering	-9.46894
▁forget	-9.4706
▁eat	-9.47126
▁call	-9.47172
▁knowledge	-9.4745
▁whispering	-9.47482
▁battle	-9.47799
▁canvas	-9.47973
▁butterflies	-9.48017
▁beginning	-9.48018
▁dim	-9.48113
▁added	-9.4815
▁vibrant	-9.48236
▁determination	-9.48323
▁neighbor	-9.48543
▁howled	-9.48772
▁celebrate	-9.48781
▁loudly	-9.48942
▁taste	-9.49117
▁vines	-9.49293
▁live	-9.49497
▁reveal	-9.49739
▁crashed	-9.50067
▁pounding	-9.50226
▁snacks	-9.5045
▁flow	-9.50556
▁problem	-9.50629
▁mistake	-9.50629
▁prepared	-9.50674
▁dear	-9.50692
▁creativity	-9.50763
▁worth	-9.50988
▁unexpected	-9.51033
▁poured	-9.51169
▁feast	-9.51259
▁sank	-9.51259
▁angry	-9.51349
▁orange	-9.5153
▁glass	-9.51984
▁control	-9.52622
▁panic	-9.52853
▁pot	-9.53092
▁swim	-9.53125
▁self	-9.53173
▁remained	-9.53229
▁travel	-9.53522
▁bad	-9.53835
▁quest	-9.5384
▁okay	-9.53966
▁having	-9.54004
▁faster	-9.54276
▁thing	-9.5476
▁stand	-9.54832
▁scary	-9.5489
▁chase	-9.54976
▁presence	-9.54983
now	-9.55025
▁drop	-9.55078
▁sight	-9.55136
▁stayed	-9.55229
▁creaked	-9.55307
▁spun	-9.55469
▁urge	-9.55506
▁wait	-9.55589
▁else	-9.55689
▁huge	-9.55801
▁fluffy	-9.56256
▁buzz	-9.5678
▁summer	-9.56875
▁train	-9.57115
▁drew	-9.57354
▁hid	-9.57437
▁swing	-9.57607
▁pointing	-9.57826
▁honest	-9.57862
▁pick	-9.57902
▁frowned	-9.58268
▁gazed	-9.58377
▁betrayal	-9.58415
▁fresh	-9.58415
▁wrapped	-9.58728
▁guardian	-9.58852
▁society	-9.59389
▁crash	-9.59514
▁loomed	-9.59585
▁bike	-9.59685
▁backyard	-9.59732
▁missing	-9.59796
▁buried	-9.59898
▁mess	-9.60129
▁formed	-9.60297
▁grinned	-9.60573
▁tug	-9.60672
▁pretend	-9.6072
▁branch	-9.60808
▁pride	-9.60819
▁casting	-9.60918
▁hole	-9.61069
▁difference	-9.61117
▁draw	-9.61811
▁spell	-9.62321
▁tail	-9.63233
▁pile	-9.63612
▁comp	-9.63725
▁trip	-9.63955
▁hopped	-9.64272
▁shaking	-9.64357
▁oak	-9.64564
▁swirling	-9.64615
▁finish	-9.64621
uch	-9.64856
▁apart	-9.65444
▁floor	-9.65496
▁greed	-9.65709
▁hair	-9.65861
▁failure	-9.65914
▁floating	-9.66034
▁fair	-9.66145
▁mom	-9.66183
▁prove	-9.66228
▁sent	-9.66338
▁puppy	-9.6649
▁shop	-9.66649
▁playful	-9.67514
▁final	-9.67556
▁emerged	-9.67706
▁bushes	-9.67805
▁disappear	-9.67812
during	-9.67854
▁twirled	-9.68093
▁steal	-9.68293
▁lose	-9.68685
▁beast	-9.68726
▁block	-9.68991
▁count	-9.68998
please	-9.69211
▁inviting	-9.69315
▁peeked	-9.69498
▁superhero	-9.69531
▁market	-9.69533
will	-9.6966
▁test	-9.69708
▁week	-9.69866
▁roots	-9.70129
▁stretch	-9.70129
▁trap	-9.70278
▁mysterious	-9.70348
▁fading	-9.70623
▁winning	-9.7068
▁giggle	-9.70818
▁expect	-9.7106
▁thief	-9.7117
▁artist	-9.71172
▁shock	-9.71391
▁chuckled	-9.71612
▁bottle	-9.71778
▁glanc	-9.71778
▁reflection	-9.72
▁sword	-9.72222
▁dolphin	-9.72557
▁season	-9.72841
▁imagining	-9.72893
▁weak	-9.72897
▁shout	-9.73061
▁recall	-9.73398
▁chased	-9.73747
▁smart	-9.7385
▁unknown	-9.7402
▁purpose	-9.74247
▁scent	-9.74304
▁coin	-9.74779
▁cozy	-9.74931
▁sunset	-9.75163
▁view	-9.75274
▁practiced	-9.75917
▁knock	-9.75965
▁honor	-9.76197
▁fur	-9.76235
▁creep	-9.76371
▁cherish	-9.76603
dear	-9.76613
▁accept	-9.76655
▁bark	-9.77129
▁roar	-9.77154
found	-9.77395
▁shake	-9.77479
▁choose	-9.77597
▁white	-9.77597
▁trembling	-9.77773
▁sparkle	-9.78022
▁twinkle	-9.78192
▁pan	-9.78221
side	-9.78947
▁pink	-9.79017
▁rival	-9.79195
▁intrigued	-9.79315
▁tools	-9.79344
▁dress	-9.79554
▁dig	-9.7962
▁itself	-9.79734
▁yourself	-9.79914
▁net	-9.79917
▁kitchen	-9.80215
▁sharp	-9.80517
▁flutter	-9.80578
▁message	-9.80715
▁struck	-9.81002
▁yard	-9.81306
▁slow	-9.81339
just	-9.81533
▁sneak	-9.81673
▁hug	-9.82017
▁fairies	-9.82748
▁order	-9.8291
▁stroke	-9.83214
▁course	-9.8365
▁pie	-9.83748
▁froze	-9.83837
▁cheerful	-9.84018
▁ache	-9.8402
▁daughter	-9.84025
▁wrap	-9.84247
▁vision	-9.84402
▁princess	-9.84832
▁coral	-9.84972
▁pocket	-9.85159
▁sibling	-9.85159
▁basket	-9.85222
▁sure	-9.85356
▁three	-9.85476
▁warning	-9.85477
▁clothes	-9.85795
▁tunnel	-9.85795
▁admired	-9.8605
▁knelt	-9.86114
▁worries	-9.86242
▁delight	-9.86288
▁sleep	-9.87013
▁check	-9.87143
▁surge	-9.87208
▁witch	-9.87531
▁aloud	-9.87596
▁leaf	-9.87596
▁responsibility	-9.87596
▁project	-9.87921
▁crab	-9.88117
▁wand	-9.88507
▁octopus	-9.88509
▁support	-9.88771
▁meadow	-9.88903
▁skies	-9.88969
▁rich	-9.89874
▁gray	-9.89896
▁flashlight	-9.89921
▁wizard	-9.90027
▁poet	-9.90029
▁rusty	-9.90093
▁swirl	-9.90199
▁entrance	-9.90293
▁digging	-9.90428
▁swayed	-9.90496
▁swell	-9.90562
▁student	-9.90828
▁stole	-9.90829
▁blossom	-9.9103
▁comfort	-9.9103
▁fate	-9.91368
▁base	-9.91439
j	-9.91705
▁skin	-9.92452
▁mystery	-9.92519
▁encouraged	-9.9286
▁picnic	-9.93203
▁independence	-9.93272
▁cover	-9.93613
▁leaned	-9.9403
▁petals	-9.94031
▁unlock	-9.94169
▁losing	-9.94271
▁worn	-9.94446
▁chasing	-9.94934
▁anymore	-9.95214
▁nice	-9.95499
▁kick	-9.95635
▁object	-9.95846
▁bush	-9.95857
▁twinkling	-9.96483
▁swimming	-9.96485
▁lingered	-9.96554
▁middle	-9.9691
work	-9.97044
▁cloak	-9.97124
▁tomorrow	-9.97266
▁horizon	-9.97481
▁perhaps	-9.97696
▁mermaid	-9.97912
▁luck	-9.97984
▁pet	-9.98059
▁shot	-9.98131
▁facing	-9.982
▁member	-9.98417
▁wolf	-9.98489
▁chocolate	-9.98779
▁shiver	-9.9878
▁prize	-9.98852
▁living	-9.98997
▁holiday	-9.99143
▁enter	-9.99389
▁widened	-9.99517
▁cafe	-9.99654
▁mud	-10.0002
▁cook	-10.0007
▁hungry	-10.0015
▁rode	-10.0017
▁send	-10.0032
▁alley	-10.0033
▁echoes	-10.0043
▁sketch	-10.0106
▁bread	-10.0106
▁ignor	-10.0113
▁fountain	-10.012
▁cross	-10.0131
▁action	-10.0152
▁half	-10.0165
▁riches	-10.0175
▁stage	-10.021
▁thunder	-10.024
▁celebrating	-10.0255
▁ventured	-10.0323
▁virtual	-10.0331
▁sorry	-10.0377
remember	-10.0395
▁easy	-10.0415
▁bubbling	-10.0453
▁forgetting	-10.0454
time	-10.0456
▁bold	-10.0476
▁replaced	-10.0507
▁planning	-10.0547
▁spine	-10.0553
▁awaited	-10.057
▁charm	-10.0593
▁crumb	-10.0632
▁regret	-10.0671
▁scream	-10.071
▁depths	-10.0726
▁smooth	-10.0726
▁photo	-10.075
▁victory	-10.0766
▁hurried	-10.0774
▁history	-10.0821
▁contest	-10.0829
▁float	-10.0883
▁instant	-10.0885
▁cut	-10.0909
▁creation	-10.0909
▁roll	-10.0926
▁necklace	-10.0934
ipping	-10.0973
▁legend	-10.0974
▁roof	-10.0982
▁cream	-10.0998
▁cliff	-10.1039
▁drink	-10.1047
▁odd	-10.1056
▁snowball	-10.1072
▁erupted	-10.108
▁present	-10.1088
▁desire	-10.1088
▁hot	-10.1138
▁shade	-10.1154
▁screen	-10.1162
▁second	-10.1179
▁unicorn	-10.1187
▁mural	-10.127
▁thrived	-10.1278
▁giggling	-10.1362
▁mask	-10.1379
▁relief	-10.1379
▁hop	-10.138
▁flame	-10.1388
midst	-10.1388
▁rustle	-10.1396
▁throw	-10.1396
▁community	-10.1404
▁road	-10.1404
▁becoming	-10.1413
▁yellow	-10.1421
out	-10.1423
sometimes	-10.1427
▁impress	-10.143
▁lady	-10.143
▁curse	-10.1431
▁decide	-10.1435
▁threw	-10.1455
▁villain	-10.1455
▁locket	-10.1472
▁dashed	-10.1515
▁candle	-10.1542
▁parrot	-10.1566
▁tossed	-10.1574
▁chair	-10.1618
▁unique	-10.1661
▁unity	-10.1687
▁job	-10.1696
▁steep	-10.1748
▁melt	-10.1776
▁tension	-10.1792
▁claim	-10.1916
▁notebook	-10.1916
▁setting	-10.192
▁score	-10.1943
▁puddle	-10.1988
▁elder	-10.1988
▁twirl	-10.1994
▁pondered	-10.2024
0	-12.0201
1	-12.4579
2	-12.484
3	-12.7105
5	-12.989
9	-13.5914
q	-13.8301
8	-14.1477
*	-14.2453
7	-14.6129
6	-14.9641
4	-14.9641
+	-16.293
(	-16.293
)	-16.293
