<unk>	0
<s>	0
</s>	0
<pad>	0
<0x00>	0
<0x01>	0
<0x02>	0
<0x03>	0
<0x04>	0
<0x05>	0
<0x06>	0
<0x07>	0
<0x08>	0
<0x09>	0
<0x0A>	0
<0x0B>	0
<0x0C>	0
<0x0D>	0
<0x0E>	0
<0x0F>	0
<0x10>	0
<0x11>	0
<0x12>	0
<0x13>	0
<0x14>	0
<0x15>	0
<0x16>	0
<0x17>	0
<0x18>	0
<0x19>	0
<0x1A>	0
<0x1B>	0
<0x1C>	0
<0x1D>	0
<0x1E>	0
<0x1F>	0
<0x20>	0
<0x21>	0
<0x22>	0
<0x23>	0
<0x24>	0
<0x25>	0
<0x26>	0
<0x27>	0
<0x28>	0
<0x29>	0
<0x2A>	0
<0x2B>	0
<0x2C>	0
<0x2D>	0
<0x2E>	0
<0x2F>	0
<0x30>	0
<0x31>	0
<0x32>	0
<0x33>	0
<0x34>	0
<0x35>	0
<0x36>	0
<0x37>	0
<0x38>	0
<0x39>	0
<0x3A>	0
<0x3B>	0
<0x3C>	0
<0x3D>	0
<0x3E>	0
<0x3F>	0
<0x40>	0
<0x41>	0
<0x42>	0
<0x43>	0
<0x44>	0
<0x45>	0
<0x46>	0
<0x47>	0
<0x48>	0
<0x49>	0
<0x4A>	0
<0x4B>	0
<0x4C>	0
<0x4D>	0
<0x4E>	0
<0x4F>	0
<0x50>	0
<0x51>	0
<0x52>	0
<0x53>	0
<0x54>	0
<0x55>	0
<0x56>	0
<0x57>	0
<0x58>	0
<0x59>	0
<0x5A>	0
<0x5B>	0
<0x5C>	0
<0x5D>	0
<0x5E>	0
<0x5F>	0
<0x60>	0
<0x61>	0
<0x62>	0
<0x63>	0
<0x64>	0
<0x65>	0
<0x66>	0
<0x67>	0
<0x68>	0
<0x69>	0
<0x6A>	0
<0x6B>	0
<0x6C>	0
<0x6D>	0
<0x6E>	0
<0x6F>	0
<0x70>	0
<0x71>	0
<0x72>	0
<0x73>	0
<0x74>	0
<0x75>	0
<0x76>	0
<0x77>	0
<0x78>	0
<0x79>	0
<0x7A>	0
<0x7B>	0
<0x7C>	0
<0x7D>	0
<0x7E>	0
<0x7F>	0
<0x80>	0
<0x81>	0
<0x82>	0
<0x83>	0
<0x84>	0
<0x85>	0
<0x86>	0
<0x87>	0
<0x88>	0
<0x89>	0
<0x8A>	0
<0x8B>	0
<0x8C>	0
<0x8D>	0
<0x8E>	0
<0x8F>	0
<0x90>	0
<0x91>	0
<0x92>	0
<0x93>	0
<0x94>	0
<0x95>	0
<0x96>	0
<0x97>	0
<0x98>	0
<0x99>	0
<0x9A>	0
<0x9B>	0
<0x9C>	0
<0x9D>	0
<0x9E>	0
<0x9F>	0
<0xA0>	0
<0xA1>	0
<0xA2>	0
<0xA3>	0
<0xA4>	0
<0xA5>	0
<0xA6>	0
<0xA7>	0
<0xA8>	0
<0xA9>	0
<0xAA>	0
<0xAB>	0
<0xAC>	0
<0xAD>	0
<0xAE>	0
<0xAF>	0
<0xB0>	0
<0xB1>	0
<0xB2>	0
<0xB3>	0
<0xB4>	0
<0xB5>	0
<0xB6>	0
<0xB7>	0
<0xB8>	0
<0xB9>	0
<0xBA>	0
<0xBB>	0
<0xBC>	0
<0xBD>	0
<0xBE>	0
<0xBF>	0
<0xC0>	0
<0xC1>	0
<0xC2>	0
<0xC3>	0
<0xC4>	0
<0xC5>	0
<0xC6>	0
<0xC7>	0
<0xC8>	0
<0xC9>	0
<0xCA>	0
<0xCB>	0
<0xCC>	0
<0xCD>	0
<0xCE>	0
<0xCF>	0
<0xD0>	0
<0xD1>	0
<0xD2>	0
<0xD3>	0
<0xD4>	0
<0xD5>	0
<0xD6>	0
<0xD7>	0
<0xD8>	0
<0xD9>	0
<0xDA>	0
<0xDB>	0
<0xDC>	0
<0xDD>	0
<0xDE>	0
<0xDF>	0
<0xE0>	0
<0xE1>	0
<0xE2>	0
<0xE3>	0
<0xE4>	0
<0xE5>	0
<0xE6>	0
<0xE7>	0
<0xE8>	0
<0xE9>	0
<0xEA>	0
<0xEB>	0
<0xEC>	0
<0xED>	0
<0xEE>	0
<0xEF>	0
<0xF0>	0
<0xF1>	0
<0xF2>	0
<0xF3>	0
<0xF4>	0
<0xF5>	0
<0xF6>	0
<0xF7>	0
<0xF8>	0
<0xF9>	0
<0xFA>	0
<0xFB>	0
<0xFC>	0
<0xFD>	0
<0xFE>	0
<0xFF>	0
.	-2.59755
,	-2.80498
▁the	-2.90019
▁a	-3.53613
▁and	-3.8463
▁to	-4.0149
▁he	-4.10156
▁she	-4.15476
▁they	-4.28264
▁"	-4.35302
▁of	-4.39018
▁her	-4.46865
▁in	-4.49477
▁it	-4.57525
▁was	-4.58257
s	-4.68775
▁with	-4.70788
▁but	-4.92494
▁that	-5.03166
▁his	-5.10334
▁felt	-5.11197
▁as	-5.14425
!"	-5.27023
▁had	-5.27373
▁their	-5.44481
▁for	-5.49277
'	-5.56462
▁said	-5.63153
▁on	-5.69343
▁one	-5.73402
▁him	-5.77373
▁heart	-5.8103
?"	-5.82113
▁you	-5.82128
▁could	-5.83031
▁i	-5.85413
"	-5.8583
i	-5.87099
▁not	-5.88129
▁found	-5.89291
▁at	-5.923
▁like	-5.93516
▁day	-5.94187
ing	-5.96096
▁together	-5.97178
!	-6.00411
▁them	-6.01811
▁be	-6.08402
▁girl	-6.08615
▁each	-6.12272
▁were	-6.15281
▁is	-6.15381
▁about	-6.15899
▁would	-6.18001
▁from	-6.1834
▁just	-6.19229
ed	-6.20061
▁into	-6.20216
▁boy	-6.20829
▁joy	-6.2136
▁thought	-6.21868
▁mia	-6.22982
▁this	-6.24638
▁can	-6.25377
."	-6.26123
▁up	-6.2819
▁filled	-6.28454
▁leo	-6.29601
▁looked	-6.33207
▁back	-6.36113
▁friends	-6.36756
▁when	-6.37264
▁find	-6.39899
▁old	-6.42214
▁eyes	-6.42803
▁small	-6.44318
▁smiled	-6.44626
▁saw	-6.45322
▁feeling	-6.45513
▁asked	-6.47566
▁through	-6.4787
▁bright	-6.48585
▁made	-6.48893
▁alex	-6.48975
▁all	-6.49219
▁around	-6.50666
▁light	-6.51074
▁lost	-6.52386
▁named	-6.52463
▁wanted	-6.53494
▁treasure	-6.5366
▁help	-6.54427
t	-6.54868
▁time	-6.54935
▁began	-6.57541
▁sky	-6.57842
▁stars	-6.57954
▁by	-6.58194
▁stories	-6.58557
▁world	-6.58678
▁out	-6.58962
▁kim	-6.60428
▁night	-6.60949
▁if	-6.6219
▁inside	-6.62429
▁samuel	-6.64514
▁dreams	-6.65655
▁what	-6.66771
▁learned	-6.68945
what	-6.69113
▁suddenly	-6.70416
▁love	-6.70486
▁big	-6.71903
▁laughter	-6.73041
▁who	-6.74705
▁new	-6.74988
▁shared	-6.75393
▁we	-6.75572
▁an	-6.75798
▁will	-6.75958
▁air	-6.76834
▁realized	-6.77841
▁its	-6.78556
▁more	-6.78929
▁magic	-6.80385
▁laughed	-6.80446
▁sun	-6.81199
?	-6.82051
▁decided	-6.83073
▁friend	-6.84664
▁something	-6.85312
you	-6.85525
▁took	-6.89807
▁then	-6.90177
▁are	-6.90217
▁my	-6.90461
▁knew	-6.90796
▁danced	-6.92608
▁home	-6.92798
▁dark	-6.936
▁down	-6.93613
▁tree	-6.94291
▁every	-6.94868
▁there	-6.94872
▁people	-6.95368
▁see	-6.96274
▁flowers	-6.96472
▁away	-6.96803
▁walked	-6.97447
▁garden	-6.97453
▁hope	-6.98638
▁did	-6.99022
▁me	-6.99121
▁moment	-6.99583
▁where	-6.99773
▁again	-6.99878
▁everyone	-7.00144
▁strange	-7.02591
▁turned	-7.02893
▁do	-7.0427
▁man	-7.04548
▁deep	-7.04953
▁now	-7.05956
▁over	-7.06214
▁rita	-7.06454
▁hidden	-7.06529
▁stood	-7.07121
▁other	-7.07129
▁sat	-7.08184
▁even	-7.08843
▁how	-7.09435
▁have	-7.10111
▁adventure	-7.10568
▁lily	-7.12685
▁way	-7.12693
▁water	-7.14118
▁place	-7.14521
▁full	-7.15242
▁happy	-7.15825
▁shouted	-7.1615
▁brave	-7.17164
▁loved	-7.17551
▁map	-7.17662
▁little	-7.18417
▁came	-7.18633
▁knowing	-7.19564
▁colors	-7.20377
▁told	-7.2119
d	-7.21513
▁make	-7.2179
▁no	-7.21859
▁voice	-7.22171
▁so	-7.22597
▁life	-7.23066
n	-7.23236
▁forest	-7.23254
▁always	-7.23322
▁trees	-7.2343
▁story	-7.23651
▁fun	-7.23711
▁others	-7.23849
▁under	-7.27028
▁after	-7.27084
▁whispered	-7.27986
▁share	-7.28104
▁city	-7.28556
▁shadows	-7.29304
we	-7.29409
▁too	-7.29553
▁alone	-7.29854
▁reached	-7.30016
▁watched	-7.30333
▁own	-7.31918
▁set	-7.32131
▁	-7.32257
▁cave	-7.328
▁door	-7.32856
▁fear	-7.33239
▁opened	-7.33501
▁held	-7.34365
▁beautiful	-7.34584
▁soon	-7.35438
▁than	-7.36349
▁alice	-7.36911
▁go	-7.3792
▁stone	-7.38306
a	-7.38508
▁while	-7.38704
▁star	-7.39261
▁must	-7.4049
▁remembered	-7.4057
▁village	-7.40805
▁sad	-7.41095
▁hard	-7.41596
▁jose	-7.41801
▁your	-7.42132
▁heard	-7.42495
▁ran	-7.43239
▁maria	-7.43621
▁true	-7.43725
;	-7.4509
▁smile	-7.45549
▁sharing	-7.46079
▁ready	-7.46149
▁many	-7.46218
▁want	-7.46285
▁friendship	-7.46531
▁giant	-7.46693
▁wind	-7.47178
▁room	-7.47699
▁breath	-7.47769
▁grew	-7.47892
▁come	-7.47912
▁tall	-7.4834
▁finally	-7.48346
▁jean	-7.49196
▁both	-7.50743
▁soft	-7.51375
▁lena	-7.51464
▁stepped	-7.51712
▁nodded	-7.51764
▁played	-7.5184
▁spoke	-7.52183
y	-7.52424
▁warm	-7.52719
▁never	-7.52862
▁only	-7.53138
▁became	-7.53292
let	-7.53435
▁cheered	-7.53525
this	-7.53609
▁once	-7.53737
▁excited	-7.54296
▁excitement	-7.54366
▁feel	-7.54536
▁curious	-7.55341
▁hand	-7.55481
m	-7.55554
▁special	-7.57089
▁gathered	-7.57753
-	-7.57972
▁best	-7.58054
▁replied	-7.58188
▁dream	-7.58247
▁noticed	-7.58424
▁emmanuel	-7.5872
▁fish	-7.5901
▁woman	-7.595
▁words	-7.59605
▁face	-7.59699
▁strong	-7.59881
▁behind	-7.60194
ly	-7.60435
▁long	-7.61037
▁warmth	-7.61278
▁flew	-7.61945
▁wish	-7.61947
▁returned	-7.62015
▁clouds	-7.62065
▁past	-7.62147
▁proud	-7.62286
▁young	-7.62382
▁power	-7.62591
▁path	-7.62887
▁softly	-7.63628
▁days	-7.63647
▁ground	-7.64384
▁closer	-7.65685
▁storm	-7.66063
▁bring	-7.66149
▁flower	-7.66493
▁seemed	-7.6655
▁bird	-7.66657
▁before	-7.66975
▁play	-7.6726
▁still	-7.67338
▁sparkled	-7.67375
▁book	-7.6837
▁change	-7.68451
▁great	-7.68623
▁tiny	-7.68679
▁take	-7.69314
▁ship	-7.69534
▁town	-7.70083
▁above	-7.70271
▁next	-7.70298
▁being	-7.70659
er	-7.7068
it	-7.70823
▁heavy	-7.70886
r	-7.71892
▁memories	-7.71976
▁family	-7.72056
▁fell	-7.72493
▁called	-7.72527
▁hearts	-7.72785
▁listened	-7.73172
▁off	-7.74158
▁raced	-7.74319
▁journey	-7.74389
▁looking	-7.74396
▁worked	-7.75225
▁step	-7.76443
▁first	-7.76593
p	-7.77221
▁outside	-7.77254
▁wise	-7.77716
▁sea	-7.78104
▁magical	-7.78205
▁need	-7.78402
▁alive	-7.78479
▁courage	-7.78497
▁also	-7.78769
▁work	-7.78784
▁promised	-7.79271
▁appeared	-7.79289
▁am	-7.795
▁dance	-7.79737
▁dragon	-7.79972
▁things	-7.80179
▁himself	-7.80209
▁here	-7.80407
▁instead	-7.81169
▁secrets	-7.81735
▁met	-7.81783
▁secret	-7.82367
▁mind	-7.82681
▁glowing	-7.82834
▁anne	-7.82877
▁end	-7.82983
▁peter	-7.83229
▁brought	-7.83449
▁land	-7.8345
▁laughing	-7.84529
▁herself	-7.84532
▁yet	-7.84695
▁happiness	-7.84878
▁us	-7.84908
▁shiny	-7.8592
▁gold	-7.8623
▁passed	-7.86503
▁left	-7.86742
▁kindness	-7.86854
▁high	-7.86972
▁slowly	-7.87149
▁colorful	-7.87274
▁box	-7.87501
▁wondered	-7.88067
▁real	-7.88502
▁creature	-7.88651
▁showed	-7.8874
l	-7.89417
▁sweet	-7.90051
▁wide	-7.90231
▁shining	-7.90406
▁game	-7.90432
▁part	-7.90517
▁started	-7.90642
▁hands	-7.90754
▁robot	-7.90968
▁scared	-7.91331
▁some	-7.91418
▁thinking	-7.91661
▁free	-7.91677
▁last	-7.91733
▁or	-7.91785
▁understood	-7.92201
▁key	-7.93114
▁adventures	-7.93153
▁our	-7.93896
▁show	-7.94009
▁quiet	-7.9408
▁group	-7.94931
▁island	-7.95288
▁picked	-7.95641
▁spirit	-7.96065
▁let	-7.96177
e	-7.96227
▁truth	-7.96228
▁letter	-7.96357
▁making	-7.96965
▁climbed	-7.97205
▁river	-7.97264
▁park	-7.97945
▁keep	-7.98198
▁lived	-7.98518
▁wrote	-7.99692
▁open	-7.99698
why	-7.99742
▁weight	-7.99852
▁rock	-8.0042
▁different	-8.00906
▁plan	-8.02022
▁far	-8.02022
▁followed	-8.02169
▁tell	-8.02765
▁tales	-8.02831
▁owl	-8.03075
▁sound	-8.03131
▁kind	-8.03172
▁discovered	-8.03412
▁know	-8.03416
▁explore	-8.03756
▁s	-8.04188
▁join	-8.04313
▁waves	-8.04421
▁spark	-8.05108
▁turtle	-8.05617
▁children	-8.05729
▁strength	-8.05863
▁snow	-8.06098
▁figure	-8.06267
▁led	-8.0701
▁rain	-8.07075
▁jumped	-8.07246
▁went	-8.08146
▁creatures	-8.08502
▁been	-8.08776
o	-8.08819
▁leaves	-8.08918
▁better	-8.09359
▁trust	-8.09509
▁everything	-8.10036
▁waiting	-8.10123
▁beauty	-8.11296
▁create	-8.11329
▁think	-8.11419
▁brighter	-8.11477
c	-8.11526
▁sang	-8.12177
▁those	-8.12286
▁child	-8.12536
▁kids	-8.12996
▁music	-8.13199
▁wished	-8.13344
▁among	-8.1338
▁closed	-8.13483
▁remember	-8.13585
▁cold	-8.13602
▁sometimes	-8.13863
▁grow	-8.1409
w	-8.14256
▁castle	-8.14783
▁often	-8.14992
▁fox	-8.15521
▁ever	-8.15811
:	-8.16278
▁moved	-8.16346
▁rabbit	-8.16979
▁shadow	-8.17228
▁food	-8.17632
▁cat	-8.17837
▁flying	-8.17928
▁wonder	-8.1797
▁glow	-8.18238
▁sadness	-8.1834
▁chest	-8.1838
▁deeper	-8.18647
▁surprise	-8.19108
▁without	-8.19142
▁shone	-8.19339
▁space	-8.19378
▁needed	-8.19787
▁echoed	-8.19956
▁moon	-8.2024
▁helped	-8.20868
▁lay	-8.20963
▁exclaimed	-8.20997
▁near	-8.21049
▁read	-8.21203
▁animals	-8.21336
▁loud	-8.21439
g	-8.2182
▁close	-8.22451
▁good	-8.22473
▁fly	-8.22867
▁another	-8.23016
▁dreamed	-8.23524
▁quickly	-8.23728
▁funny	-8.23752
▁faded	-8.24035
▁toward	-8.24128
▁playing	-8.24368
▁agreed	-8.25039
▁swam	-8.2513
b	-8.25253
▁look	-8.25304
▁blue	-8.26129
▁woods	-8.26244
▁darkness	-8.26293
▁across	-8.26432
▁return	-8.26523
▁alien	-8.27236
▁watching	-8.27641
▁forever	-8.27702
look	-8.27782
▁mother	-8.27849
▁glowed	-8.2796
▁beneath	-8.28044
▁approached	-8.2809
▁ocean	-8.28297
▁floated	-8.28318
▁landed	-8.29067
▁stronger	-8.29092
▁searched	-8.29325
▁fairy	-8.29385
▁father	-8.2947
▁walls	-8.30482
▁spotted	-8.30489
▁silly	-8.30571
▁lights	-8.30634
re	-8.31401
▁brightly	-8.31413
▁gasped	-8.31482
▁should	-8.31533
▁someone	-8.32068
▁racing	-8.32079
▁boat	-8.32106
▁gentle	-8.32164
▁luis	-8.32267
▁today	-8.32433
▁thank	-8.32596
▁idea	-8.32878
▁changed	-8.33317
u	-8.34089
but	-8.34298
▁bond	-8.34586
▁tried	-8.34589
▁seen	-8.34951
▁treasures	-8.34987
▁hear	-8.35441
▁art	-8.35595
▁forward	-8.35793
▁helping	-8.36375
can	-8.36613
▁stones	-8.36865
▁hoping	-8.37356
▁kingdom	-8.37596
▁hill	-8.37729
▁within	-8.37732
▁dog	-8.37868
▁gently	-8.37967
▁hero	-8.38028
▁trying	-8.38104
▁empty	-8.38245
▁dinosaur	-8.38291
▁sparkling	-8.38567
▁head	-8.38962
▁whispers	-8.39272
▁side	-8.39563
▁painted	-8.39569
▁leader	-8.39605
▁lonely	-8.39764
▁imagined	-8.40086
▁upon	-8.40409
▁right	-8.40495
▁wandered	-8.4082
▁built	-8.40887
▁house	-8.40961
▁pull	-8.4129
▁searching	-8.41404
▁faced	-8.4216
▁crew	-8.42203
▁arrived	-8.42255
▁race	-8.42323
es	-8.42457
▁school	-8.42461
▁against	-8.42512
thank	-8.42866
▁villagers	-8.43177
▁joined	-8.43312
▁lead	-8.43325
▁waved	-8.43394
▁morning	-8.43437
▁pulled	-8.43514
▁laugh	-8.43575
▁team	-8.43785
▁safe	-8.44142
▁mirror	-8.44176
▁cloud	-8.44214
▁king	-8.44324
maybe	-8.44588
▁leaving	-8.45019
▁window	-8.45069
k	-8.45233
▁wave	-8.46105
yes	-8.4612
▁along	-8.46246
▁breeze	-8.46897
▁crowd	-8.47259
▁leave	-8.47324
▁covered	-8.47458
▁two	-8.47627
▁care	-8.47795
▁fast	-8.47843
▁give	-8.47865
▁ball	-8.48123
▁cried	-8.48242
▁realiz	-8.48292
▁festival	-8.4838
▁grass	-8.48414
▁nearby	-8.48638
▁below	-8.49398
▁stopped	-8.49836
▁pushed	-8.50194
▁evening	-8.50559
▁games	-8.50906
is	-8.51246
▁shook	-8.51484
▁crystal	-8.51722
▁thick	-8.51839
▁got	-8.52341
in	-8.52736
or	-8.52745
▁much	-8.532
▁piece	-8.53241
▁edge	-8.53254
▁rushed	-8.53542
▁brother	-8.53833
f	-8.54263
▁created	-8.544
▁wings	-8.54555
▁connection	-8.54563
▁any	-8.54868
▁sense	-8.55018
▁learn	-8.55165
▁smiling	-8.55221
▁fire	-8.55611
▁believe	-8.55666
▁rush	-8.56018
▁believed	-8.5607
▁fears	-8.56157
if	-8.56298
▁gone	-8.56351
▁might	-8.56444
▁kept	-8.56461
▁dancing	-8.56516
▁stumbled	-8.56518
▁letters	-8.56889
▁sunny	-8.5689
▁twinkled	-8.57213
▁lit	-8.57792
▁surprised	-8.57956
▁golden	-8.58062
▁wishes	-8.58266
▁silence	-8.58283
▁worried	-8.58435
▁used	-8.58721
the	-8.5883
▁dreaming	-8.59196
▁stay	-8.59716
▁shine	-8.59863
▁holding	-8.59886
▁turn	-8.6035
do	-8.61455
▁build	-8.61714
▁jester	-8.62012
▁talked	-8.62223
▁curiosity	-8.62289
▁dusty	-8.62542
▁pirate	-8.62678
▁cool	-8.62782
▁shore	-8.62862
▁carefully	-8.63244
▁sand	-8.63862
▁seek	-8.63937
▁painting	-8.64161
▁sitting	-8.64301
▁t	-8.64552
▁birds	-8.65452
▁get	-8.6611
▁song	-8.6672
▁future	-8.67141
▁sounds	-8.67199
▁follow	-8.67275
▁inspired	-8.67424
▁anything	-8.67722
▁faces	-8.67837
ar	-8.68065
▁f	-8.68118
▁wrong	-8.68161
▁knight	-8.68271
▁tale	-8.68313
▁bear	-8.68494
▁very	-8.6858
▁riddle	-8.6927
▁beside	-8.69747
▁caught	-8.69956
▁moments	-8.7015
▁gift	-8.7056
▁amazing	-8.70619
▁memory	-8.7064
le	-8.7105
▁spent	-8.71397
▁earth	-8.71526
▁try	-8.71639
▁red	-8.71871
▁closely	-8.71909
▁top	-8.72033
▁hold	-8.72055
▁ideas	-8.72118
▁grandmother	-8.72177
▁planet	-8.72472
▁candy	-8.72503
▁mountain	-8.72571
▁grabbed	-8.72766
▁maybe	-8.73055
▁has	-8.73207
▁later	-8.73208
▁important	-8.73337
▁act	-8.73462
▁year	-8.73703
▁beach	-8.73736
▁smiles	-8.74026
▁finding	-8.74391
▁pain	-8.74545
▁ancient	-8.74691
▁places	-8.7508
▁tears	-8.7572
▁filling	-8.75838
▁everywhere	-8.75901
en	-8.75967
▁noise	-8.76041
▁longer	-8.76069
▁hours	-8.76144
▁spread	-8.76259
▁quietly	-8.76267
▁reach	-8.76376
▁between	-8.76495
▁rocks	-8.76545
▁run	-8.76775
▁name	-8.77037
▁clock	-8.77111
▁determined	-8.77157
▁creating	-8.77271
▁sister	-8.77363
▁win	-8.77471
▁songs	-8.7781
▁green	-8.78216
▁rolled	-8.7845
▁broken	-8.78479
▁years	-8.78527
▁thoughts	-8.78688
▁ago	-8.79127
▁remind	-8.79288
▁suggested	-8.7941
▁carry	-8.79477
▁amazed	-8.79896
▁party	-8.80051
▁touched	-8.80161
▁gave	-8.80179
▁valley	-8.80344
▁p	-8.80472
▁confused	-8.80486
▁fade	-8.81436
▁note	-8.81679
▁kite	-8.81817
▁fall	-8.82007
st	-8.82014
▁bloomed	-8.82183
▁understanding	-8.82261
▁pointed	-8.82376
▁paint	-8.82708
▁peace	-8.82874
▁shell	-8.83456
▁lighter	-8.83583
▁yelled	-8.84063
▁chance	-8.84324
▁afraid	-8.84545
▁running	-8.8462
▁weeks	-8.84682
▁thrill	-8.84837
▁ghost	-8.8509
▁corner	-8.85091
▁tightly	-8.851
▁fight	-8.85104
▁surrounded	-8.85146
▁spot	-8.85803
▁forgotten	-8.85836
▁loss	-8.85962
▁write	-8.85966
▁mix	-8.86177
▁explored	-8.86203
▁same	-8.86286
▁entered	-8.86326
ch	-8.8633
▁known	-8.86527
▁toy	-8.86623
▁watch	-8.87069
▁bridge	-8.87118
▁toys	-8.87423
▁squirrel	-8.87473
▁hurt	-8.87829
▁feels	-8.87838
▁continued	-8.87867
▁taking	-8.87982
▁matter	-8.88239
▁clever	-8.8856
▁rainbow	-8.88708
▁nervous	-8.89061
▁blew	-8.89344
▁shimmered	-8.8946
▁reminder	-8.89634
▁explained	-8.89682
▁invited	-8.89934
▁soared	-8.89949
▁shimmering	-8.90172
▁visit	-8.90233
▁queen	-8.90541
▁table	-8.9057
▁taught	-8.90698
▁ahead	-8.90829
▁talk	-8.90947
▁use	-8.91055
▁listen	-8.91273
ra	-8.91299
▁distance	-8.91408
▁mean	-8.91503
▁revealing	-8.91811
▁car	-8.92154
▁finished	-8.92468
▁rose	-8.92497
▁field	-8.92599
▁comes	-8.92649
▁catch	-8.92727
▁friendly	-8.92815
▁teamwork	-8.92823
▁mountains	-8.93272
▁pond	-8.94465
▁explorer	-8.94557
▁energy	-8.94683
▁eager	-8.94825
▁until	-8.94902
▁chill	-8.9493
▁invisible	-8.95148
▁meet	-8.95248
▁stared	-8.95372
▁missed	-8.95539
▁sing	-8.95609
▁lives	-8.9567
▁going	-8.95761
▁trapped	-8.96004
▁paper	-8.9603
▁don	-8.961
▁understand	-8.96104
▁planned	-8.96307
▁streets	-8.96418
▁favorite	-8.96584
▁seeds	-8.966
▁wild	-8.96785
▁clear	-8.96849
▁showing	-8.97109
▁choice	-8.97148
▁wonders	-8.97432
▁wisdom	-8.9745
▁tired	-8.97538
▁butterfly	-8.97647
▁touch	-8.97848
te	-8.97907
▁these	-8.9808
▁goodbye	-8.98609
▁exploring	-8.98749
▁grateful	-8.98749
▁pirates	-8.98785
to	-8.98796
▁lake	-8.98807
▁stop	-8.99181
▁attic	-8.99234
▁woke	-8.99605
▁lesson	-8.99608
▁say	-8.99723
▁sighed	-8.99806
est	-8.99872
▁wall	-9.00099
▁dust	-9.00213
▁hat	-9.00414
▁onto	-9.00524
▁doubt	-9.00624
▁working	-9.00645
al	-9.00733
ll	-9.00762
▁wore	-9.00817
▁higher	-9.00899
▁jewels	-9.01041
no	-9.01356
▁calm	-9.01526
▁put	-9.01691
▁giggled	-9.01785
v	-9.02111
▁low	-9.02234
▁nothing	-9.02308
▁reminded	-9.02445
▁flash	-9.02544
▁plants	-9.02607
▁move	-9.02793
▁feet	-9.02928
▁placed	-9.0301
▁rocket	-9.03791
▁person	-9.03821
that	-9.03913
▁promise	-9.03999
▁enchanted	-9.04031
▁enough	-9.04692
▁answer	-9.05086
▁broke	-9.05134
▁times	-9.05546
▁busy	-9.05702
▁meant	-9.06021
▁transformed	-9.06096
▁sunlight	-9.06213
▁save	-9.06353
▁most	-9.06399
▁captain	-9.07011
▁because	-9.07208
▁re	-9.07472
oh	-9.07685
▁telling	-9.08243
▁bravery	-9.08264
▁coming	-9.08285
▁cannot	-9.08574
▁really	-9.08653
▁hide	-9.0879
▁declared	-9.09006
▁guide	-9.09059
▁silver	-9.09227
▁singing	-9.09303
▁aliens	-9.09351
▁crown	-9.09428
▁flickered	-9.09567
▁hugged	-9.09575
▁winter	-9.09682
▁gather	-9.09685
▁perfect	-9.1013
▁fill	-9.10388
▁climb	-9.10488
▁stuck	-9.10497
▁branches	-9.10704
▁spaceship	-9.10785
▁color	-9.11114
▁traveler	-9.11246
▁fierce	-9.11734
▁arms	-9.11901
▁mission	-9.11981
▁echoing	-9.12089
▁burst	-9.12108
▁monster	-9.12271
▁library	-9.12597
▁plant	-9.12826
▁b	-9.13073
▁protect	-9.13854
ness	-9.14075
▁danger	-9.14086
▁smell	-9.14672
▁bloom	-9.15037
▁hung	-9.15238
▁coins	-9.15276
▁well	-9.15355
▁hit	-9.15406
▁happened	-9.15445
▁drawn	-9.15526
▁sailed	-9.15648
▁bit	-9.15658
▁cake	-9.15713
▁growing	-9.15852
▁g	-9.1605
where	-9.16273
▁however	-9.16488
▁anyone	-9.16634
▁powerful	-9.1687
▁celebrated	-9.16887
how	-9.16948
▁whisper	-9.17335
am	-9.17642
▁dinosaurs	-9.17825
▁saying	-9.17926
▁c	-9.18066
▁simple	-9.18133
▁happily	-9.18237
▁shape	-9.18598
▁hesitated	-9.18655
ers	-9.18759
▁pressed	-9.19034
▁d	-9.19058
▁hiding	-9.19116
▁moonlight	-9.19287
▁talking	-9.19306
▁feather	-9.19551
▁tight	-9.19683
▁anger	-9.19699
▁challenge	-9.19724
▁search	-9.19869
▁wonderful	-9.19897
▁gem	-9.19906
▁why	-9.20094
▁ice	-9.20097
th	-9.20155
▁shy	-9.2019
▁worry	-9.2019
▁moving	-9.20401
▁beyond	-9.20437
▁trick	-9.20714
▁tower	-9.20767
▁crept	-9.20826
▁eagerly	-9.2089
▁grand	-9.21133
▁teacher	-9.21419
▁frog	-9.21441
▁traveled	-9.21586
▁hills	-9.21621
▁afternoon	-9.22002
▁does	-9.22162
▁prince	-9.22209
▁may	-9.22284
▁distant	-9.22326
ro	-9.22362
▁carried	-9.22434
▁offered	-9.22542
▁become	-9.22648
▁paused	-9.22657
▁imagination	-9.22758
▁blanket	-9.22794
at	-9.23054
▁fog	-9.23122
ur	-9.2319
▁revenge	-9.23484
▁wash	-9.23594
▁twisted	-9.23972
▁sorrow	-9.24361
▁word	-9.24547
▁lies	-9.2459
▁fought	-9.24729
▁remembering	-9.24738
▁though	-9.2481
▁de	-9.2488
who	-9.24952
▁guiding	-9.25024
hello	-9.25078
▁shapes	-9.25226
▁taken	-9.25256
▁surface	-9.25283
▁nature	-9.25284
▁center	-9.25394
▁greatest	-9.25528
▁books	-9.25541
▁building	-9.2563
▁unsure	-9.25656
▁waited	-9.25665
▁honesty	-9.2585
▁rivers	-9.26062
▁dug	-9.26326
▁few	-9.26551
▁believing	-9.26589
▁twist	-9.27026
▁walking	-9.27281
▁won	-9.2738
▁universe	-9.2738
▁lifted	-9.27385
▁large	-9.27411
▁clapped	-9.27495
▁haunted	-9.27503
▁leading	-9.27637
▁break	-9.27882
▁truly	-9.28293
▁slipped	-9.28638
ic	-9.28678
▁worlds	-9.28842
▁swirled	-9.28868
▁mouse	-9.28868
▁pearl	-9.29329
▁packed	-9.30142
an	-9.30229
wow	-9.30885
▁flowed	-9.31194
▁dawn	-9.31199
▁escape	-9.31243
▁fix	-9.31289
▁saved	-9.31293
▁cookies	-9.31419
▁welcomed	-9.31644
▁start	-9.31728
▁lift	-9.31765
▁rise	-9.3179
▁machine	-9.31903
▁heroes	-9.32086
▁symbol	-9.32223
▁vanished	-9.32334
▁street	-9.32424
and	-9.32718
▁balloon	-9.32866
▁ended	-9.32892
▁using	-9.32955
▁snowman	-9.33024
▁celebration	-9.33304
▁themselves	-9.33425
▁winds	-9.33628
▁happen	-9.3369
▁eye	-9.33837
lmost	-9.33868
▁plans	-9.34022
▁late	-9.34354
▁which	-9.34476
they	-9.3455
▁forgot	-9.34598
▁quick	-9.34711
ter	-9.34849
▁speak	-9.3487
▁spring	-9.34924
help	-9.35021
are	-9.35318
▁roared	-9.35392
▁bigger	-9.35456
▁absence	-9.3562
▁voices	-9.35669
▁hopes	-9.3591
▁careful	-9.36084
▁front	-9.36238
▁dirt	-9.36362
▁freedom	-9.36446
▁bench	-9.3657
▁standing	-9.36816
▁sought	-9.3686
sh	-9.37127
▁calling	-9.37148
▁biggest	-9.37193
led	-9.37386
▁ride	-9.37403
▁warned	-9.37468
▁done	-9.37922
▁sp	-9.38189
▁fingers	-9.38579
▁silent	-9.38616
ful	-9.3868
▁belonged	-9.38949
▁crossed	-9.39421
▁chaos	-9.39602
▁sign	-9.39829
▁paths	-9.3996
▁gathering	-9.40079
▁giving	-9.40202
▁line	-9.40344
ever	-9.40603
▁whispering	-9.40699
▁forget	-9.40806
▁wishing	-9.40919
▁joyful	-9.41004
▁knowledge	-9.41197
il	-9.41315
▁e	-9.41386
▁call	-9.41597
▁pages	-9.41688
▁canvas	-9.41719
▁butterflies	-9.41763
▁added	-9.41955
▁vibrant	-9.41982
▁determination	-9.42069
▁picture	-9.42075
▁feelings	-9.42111
▁loudly	-9.42236
▁howled	-9.42288
▁celebrate	-9.42744
▁cruel	-9.42773
qu	-9.42818
ma	-9.42878
▁robots	-9.43025
▁vines	-9.43038
▁crashed	-9.43442
ve	-9.43907
▁pounding	-9.43972
▁dear	-9.43999
ge	-9.4403
la	-9.44131
▁snacks	-9.44373
▁prepared	-9.44435
▁creativity	-9.4451
▁worth	-9.44734
ce	-9.4483
▁poured	-9.44915
▁grant	-9.44937
▁feast	-9.45005
▁sank	-9.45005
▁angry	-9.45095
▁orange	-9.45276
▁heal	-9.45436
▁brings	-9.45836
▁bag	-9.46044
▁fields	-9.46062
▁control	-9.46368
welcome	-9.46485
▁vast	-9.46587
▁remained	-9.46851
▁swim	-9.46873
come	-9.47052
um	-9.47211
▁bad	-9.47249
se	-9.47479
▁un	-9.47554
▁quest	-9.47604
▁staring	-9.47641
▁okay	-9.47645
▁faster	-9.47687
▁having	-9.4775
▁embrace	-9.47772
▁travel	-9.47811
ted	-9.4786
▁pictures	-9.48072
▁stayed	-9.48101
▁drawing	-9.48469
▁challenges	-9.4855
▁scary	-9.48636
▁spirits	-9.48682
▁presence	-9.48729
▁sight	-9.48795
now	-9.48912
▁chase	-9.48938
▁creaked	-9.48966
▁spun	-9.49111
▁circle	-9.49271
▁thing	-9.49277
▁huge	-9.4941
▁else	-9.49435
ion	-9.49472
▁tricks	-9.4961
▁doing	-9.49689
▁jump	-9.49921
▁ways	-9.49944
▁fluffy	-9.5001
▁wait	-9.50047
▁compass	-9.50423
ling	-9.50431
▁summer	-9.50621
on	-9.50927
▁walk	-9.51065
▁drew	-9.511
▁pointing	-9.5137
▁fruit	-9.51531
▁hid	-9.5166
▁honest	-9.51768
▁frowned	-9.51891
▁gazed	-9.52043
ies	-9.52123
▁fresh	-9.52161
▁betrayal	-9.52163
hi	-9.52395
▁wrapped	-9.52542
less	-9.53113
▁society	-9.53135
▁ruins	-9.53161
▁missing	-9.53321
▁loomed	-9.53351
▁bike	-9.53429
▁backyard	-9.53479
▁looks	-9.53589
▁buried	-9.53599
▁formed	-9.54121
▁brush	-9.54141
▁grinned	-9.54317
▁lantern	-9.54542
▁pride	-9.54566
▁branch	-9.54593
▁casting	-9.54756
▁ask	-9.54778
▁hole	-9.54814
▁difference	-9.54864
▁sail	-9.55033
▁pulling	-9.55468
▁learning	-9.55966
▁shells	-9.55969
▁grin	-9.56016
▁spell	-9.56066
▁draw	-9.56089
▁makes	-9.56461
▁hoped	-9.56582
▁turning	-9.56638
▁chose	-9.56703
▁tail	-9.56978
▁pile	-9.57197
▁clearing	-9.57245
▁stream	-9.57543
▁tradition	-9.57649
▁reaching	-9.57813
▁self	-9.57949
▁hopped	-9.58002
▁swirling	-9.58044
▁planted	-9.58049
▁hunt	-9.58086
▁shaking	-9.58104
▁snowy	-9.58144
▁son	-9.58255
▁meeting	-9.58278
▁oak	-9.5831
▁liked	-9.58545
▁discover	-9.58615
▁finish	-9.58727
▁asking	-9.58944
▁mist	-9.59139
▁apart	-9.5919
▁floor	-9.59242
▁r	-9.59336
▁answers	-9.59465
▁teach	-9.59481
▁floating	-9.59512
▁sent	-9.59529
during	-9.59596
▁hair	-9.59607
▁mom	-9.59632
▁failure	-9.59659
▁choices	-9.597
ck	-9.59868
▁prove	-9.59977
▁fair	-9.6007
▁puppy	-9.60236
▁solve	-9.60742
▁h	-9.61001
▁sit	-9.61201
▁final	-9.61402
▁emerged	-9.61457
▁panic	-9.61461
▁bushes	-9.61522
▁twirled	-9.61554
▁diamonds	-9.61649
▁lose	-9.62265
▁beast	-9.62469
▁clues	-9.6266
▁flicker	-9.62745
▁test	-9.62987
▁inviting	-9.63061
▁bed	-9.63064
▁peeked	-9.63083
▁co	-9.6316
▁enjoyed	-9.632
▁market	-9.63278
will	-9.63541
▁following	-9.63572
▁connected	-9.63648
▁lessons	-9.63711
▁trap	-9.63981
▁roots	-9.63996
▁mysterious	-9.64094
▁push	-9.64125
▁splashed	-9.64344
▁trouble	-9.64361
▁fading	-9.64367
▁winning	-9.64423
ble	-9.64524
▁belong	-9.64712
▁thief	-9.64917
▁artist	-9.64917
▁whole	-9.64941
▁button	-9.64994
▁symbols	-9.65252
▁chuckled	-9.65364
▁bottle	-9.65524
▁shown	-9.65537
▁reflection	-9.65747
▁sword	-9.65969
ation	-9.65984
▁seed	-9.66526
▁imagining	-9.66639
▁weak	-9.66643
▁seeing	-9.66785
z	-9.67021
▁chased	-9.67233
▁mixed	-9.67262
el	-9.67355
▁visited	-9.67414
▁beat	-9.67579
▁smart	-9.67596
▁splash	-9.67645
▁louder	-9.67676
▁unknown	-9.67766
▁eat	-9.67918
▁purpose	-9.67993
▁excitedly	-9.68017
▁enjoy	-9.68101
▁beginning	-9.68214
▁cozy	-9.68677
▁drifted	-9.68693
▁sunset	-9.68906
▁coin	-9.68985
▁view	-9.69021
▁drawings	-9.69404
▁practiced	-9.69527
▁dim	-9.69712
▁bell	-9.69756
▁enjoying	-9.698
▁honor	-9.69943
▁battle	-9.70012
dear	-9.70459
he	-9.70979
▁shake	-9.71226
▁roar	-9.71257
found	-9.7128
▁white	-9.71343
▁choose	-9.71348
▁trembling	-9.71519
▁tug	-9.71755
▁twinkle	-9.72154
co	-9.72662
▁pink	-9.72763
▁awe	-9.73056
▁intrigued	-9.73061
▁tools	-9.73356
▁itself	-9.7348
▁net	-9.7366
▁shop	-9.7366
▁yourself	-9.7366
▁fruits	-9.73722
▁kitchen	-9.73961
▁sharp	-9.74263
▁message	-9.74448
▁struck	-9.74748
▁focused	-9.74903
▁yard	-9.75053
▁slow	-9.75195
▁train	-9.75216
be	-9.7568
▁turns	-9.75685
▁unexpected	-9.76291
▁fairies	-9.76473
▁order	-9.76651
ad	-9.7667
▁class	-9.76835
▁stroke	-9.7696
▁blinked	-9.77134
as	-9.77179
▁fort	-9.7725
▁course	-9.77396
▁goal	-9.77719
▁daughter	-9.77771
▁glass	-9.78314
▁princess	-9.78541
▁week	-9.7862
▁coral	-9.78715
▁lovely	-9.78725
▁rang	-9.78886
▁pocket	-9.78905
▁listening	-9.78954
▁sure	-9.79117
▁three	-9.7923
▁warning	-9.79268
▁washed	-9.79516
▁pass	-9.79519
▁clothes	-9.79545
▁playful	-9.79625
▁knelt	-9.7986
▁admired	-9.79866
ent	-9.79952
▁worries	-9.79988
▁delight	-9.79994
▁stick	-9.80097
▁page	-9.80302
▁po	-9.80491
▁falling	-9.80612
▁happening	-9.80914
▁witch	-9.81277
▁guardian	-9.81334
▁aloud	-9.81342
▁leaf	-9.81342
▁responsibility	-9.81342
▁wanting	-9.81512
▁swing	-9.81662
▁project	-9.81667
▁crash	-9.81728
▁gifts	-9.81781
▁says	-9.81859
▁crab	-9.81863
▁greed	-9.81874
▁storms	-9.8195
▁superhero	-9.81971
▁octopus	-9.82255
▁stand	-9.82326
▁live	-9.82329
▁support	-9.82517
▁meadow	-9.82649
▁skies	-9.82721
▁problem	-9.82918
▁mess	-9.83085
▁planets	-9.83173
▁gray	-9.8364
▁flashlight	-9.83648
▁wizard	-9.83773
▁poet	-9.83773
▁rusty	-9.8384
just	-9.8384
of	-9.8393
▁entrance	-9.84039
x	-9.84061
▁longing	-9.84101
▁digging	-9.84173
▁lock	-9.84173
▁swayed	-9.84309
your	-9.84343
▁comet	-9.84626
▁swirl	-9.84718
▁comfort	-9.84776
ant	-9.849
▁taste	-9.85376
▁fl	-9.8541
▁cheer	-9.85416
▁fighting	-9.85476
▁yes	-9.85582
▁chirped	-9.85641
ir	-9.8581
▁clean	-9.85871
▁pieces	-9.85913
▁v	-9.86166
▁hopeful	-9.86209
▁skin	-9.86217
▁rainy	-9.86247
▁mystery	-9.86265
▁harder	-9.86442
▁encouraged	-9.86606
▁wood	-9.86653
un	-9.86677
ver	-9.8675
▁holds	-9.8682
▁picnic	-9.86949
▁independence	-9.87021
▁cover	-9.87662
▁pie	-9.87701
▁leaned	-9.87819
▁glimmered	-9.87912
▁unlock	-9.87915
▁losing	-9.87985
▁ones	-9.88062
▁petals	-9.88064
▁worn	-9.88193
▁form	-9.88508
▁ears	-9.88657
▁chasing	-9.8868
▁anymore	-9.8896
▁nice	-9.89241
▁lett	-9.89471
▁gems	-9.89528
▁uncover	-9.89531
▁object	-9.89593
▁bush	-9.89643
▁flow	-9.89646
ive	-9.89723
▁smelled	-9.8974
id	-9.89987
▁twinkling	-9.90229
▁swimming	-9.90229
▁lingered	-9.90347
us	-9.90646
▁middle	-9.90656
▁seeking	-9.91002
▁tomorrow	-9.91021
ment	-9.91176
▁horizon	-9.91227
▁connect	-9.91405
▁perhaps	-9.91452
▁mermaid	-9.91658
▁sailor	-9.91831
▁shot	-9.91874
▁stranger	-9.91881
▁facing	-9.91947
▁given	-9.91963
▁marked	-9.91983
▁revealed	-9.92144
▁pushing	-9.92215
▁wolf	-9.92236
▁belonging	-9.92431
▁chocolate	-9.92526
▁shiver	-9.92526
▁prize	-9.92598
▁dig	-9.92671
▁living	-9.92744
▁holiday	-9.92889
▁dad	-9.92974
▁steps	-9.9299
▁hug	-9.93
▁widened	-9.93255
▁cafe	-9.93401
▁lands	-9.9362
uch	-9.93639
▁hungry	-9.93851
▁rode	-9.93915
▁ring	-9.94021
▁send	-9.94062
▁alley	-9.94062
▁block	-9.9408
▁echoes	-9.94151
▁failed	-9.94219
▁notes	-9.9426
these	-9.94396
▁reading	-9.9463
▁nights	-9.94643
▁bread	-9.94802
▁fountain	-9.9495
did	-9.95188
▁questions	-9.952
▁riches	-9.95278
▁fallen	-9.95372
▁half	-9.95398
▁pot	-9.95481
▁soul	-9.95745
▁stage	-9.95847
▁feared	-9.96096
▁thunder	-9.96148
▁celebrating	-9.96298
▁answered	-9.96426
▁ventured	-9.96984
▁virtual	-9.97055
▁sorry	-9.97512
▁jokes	-9.97592
▁leap	-9.97614
▁cheers	-9.97631
ped	-9.97771
▁neighbor	-9.97819
remember	-9.97828
ke	-9.97894
▁easy	-9.97894
▁zoomed	-9.9812
▁guided	-9.98226
▁bubbling	-9.98278
▁forgetting	-9.98279
▁climbing	-9.98283
▁stretched	-9.98362
▁surprises	-9.9839
ry	-9.9855
▁cheerful	-9.98623
▁keeper	-9.98771
▁orb	-9.98792
▁replaced	-9.98818
▁planning	-9.99206
▁n	-9.99262
▁tonight	-9.99282
▁spine	-9.99338
▁awaited	-9.99442
▁means	-9.99726
don	-9.99789
▁player	-10.0015
▁knows	-10.0034
▁regret	-10.0045
▁base	-10.0061
▁enter	-10.008
▁guard	-10.0083
▁apple	-10.0096
▁depths	-10.0101
▁smooth	-10.0101
▁rest	-10.0121
▁victory	-10.014
▁clue	-10.0144
▁hurried	-10.0148
▁riddles	-10.015
▁dolphin	-10.0152
▁lines	-10.0182
▁history	-10.0196
▁contest	-10.0204
▁knights	-10.0234
▁drop	-10.0259
▁nest	-10.0261
▁grown	-10.0267
▁wondering	-10.0279
▁creation	-10.0284
▁necklace	-10.0308
▁flickering	-10.0331
▁ex	-10.0333
▁float	-10.0335
▁jumping	-10.0344
▁mark	-10.0353
▁cream	-10.0373
▁caring	-10.0378
▁balloons	-10.0397
▁scent	-10.0403
▁mattered	-10.0405
▁cliff	-10.0414
▁drink	-10.0422
▁odd	-10.043
▁cheering	-10.0437
▁passing	-10.0438
▁darkest	-10.0441
▁endless	-10.0445
▁steal	-10.0445
▁treats	-10.0447
▁erupted	-10.0454
▁cared	-10.0462
▁desire	-10.0463
▁present	-10.0463
▁hot	-10.0512
▁screen	-10.0537
▁recalled	-10.0546
▁second	-10.0553
oo	-10.0555
ho	-10.0561
▁unicorn	-10.0561
ul	-10.0562
ine	-10.0563
▁stepp	-10.0566
▁explorers	-10.0567
▁crystals	-10.0575
▁fate	-10.0577
de	-10.0614
▁buzzed	-10.0617
▁hum	-10.062
▁fit	-10.0638
▁mural	-10.0645
▁trip	-10.0646
▁thrived	-10.0655
▁pan	-10.0704
▁cherish	-10.0716
▁soaring	-10.072
▁shift	-10.072
▁flooded	-10.0727
▁giggling	-10.0737
▁discovery	-10.0746
bo	-10.0752
▁mask	-10.0754
▁relief	-10.0754
▁community	-10.0779
▁road	-10.0779
midst	-10.0782
▁buildings	-10.0786
▁becoming	-10.0787
▁yellow	-10.0796
▁giggle	-10.0804
h	-10.0809
sometimes	-10.0815
▁threw	-10.083
▁villain	-10.083
▁sparked	-10.084
▁o	-10.0846
▁locket	-10.0847
▁dashed	-10.089
▁parrot	-10.0941
▁rich	-10.0942
▁tossed	-10.0942
▁creeping	-10.0962
▁chair	-10.0993
▁gripp	-10.0998
▁bravely	-10.0999
one	-10.1015
▁unique	-10.1036
▁soar	-10.1037
▁wand	-10.106
▁unity	-10.1063
▁job	-10.1071
hey	-10.1071
▁basket	-10.1088
▁torn	-10.1116
▁steep	-10.1123
▁deer	-10.1151
▁tension	-10.1167
▁shifted	-10.1179
▁growth	-10.1192
▁mistakes	-10.1203
▁sticks	-10.1223
▁knocked	-10.1248
▁question	-10.1254
▁notebook	-10.1291
▁setting	-10.1291
▁bite	-10.1306
age	-10.131
▁pick	-10.1352
there	-10.1361
▁elder	-10.1362
▁less	-10.1383
▁pondered	-10.1398
▁townsfolk	-10.1407
▁raised	-10.1429
▁tunnel	-10.146
▁talent	-10.1461
▁deeply	-10.1463
▁metal	-10.1465
▁shaped	-10.1482
▁myself	-10.1489
▁autumn	-10.1498
▁sneak	-10.151
▁anywhere	-10.1512
▁mine	-10.1516
▁flashed	-10.1524
▁con	-10.1525
▁soil	-10.1531
▁mistake	-10.1543
▁crack	-10.155
away	-10.1569
▁shooting	-10.1577
▁square	-10.158
▁trusted	-10.1584
▁check	-10.1587
▁urged	-10.1595
▁practice	-10.1609
▁miss	-10.1634
▁steady	-10.1635
▁apples	-10.1641
▁students	-10.1642
▁watered	-10.1645
▁tough	-10.1664
okay	-10.1665
▁takes	-10.1666
▁proudly	-10.167
▁surge	-10.1674
▁desk	-10.1681
▁disappeared	-10.1687
▁splashing	-10.1695
▁writing	-10.17
▁feathers	-10.1711
▁bark	-10.1718
▁blooming	-10.1725
▁porch	-10.1727
▁getting	-10.1728
▁keeping	-10.1735
▁snowflakes	-10.1768
▁wearing	-10.1779
▁match	-10.1783
▁string	-10.1784
▁safety	-10.1802
▁images	-10.1805
me	-10.1813
ally	-10.1842
▁landing	-10.1865
▁homes	-10.1877
▁players	-10.1888
▁wooden	-10.1889
▁rising	-10.1896
▁smoke	-10.1915
every	-10.1929
▁force	-10.193
▁cost	-10.1937
▁civilization	-10.1963
▁irony	-10.1972
▁fail	-10.199
▁invite	-10.1993
▁minutes	-10.2037
▁task	-10.2039
▁leaped	-10.2045
▁tied	-10.206
▁waving	-10.2068
▁tune	-10.2068
▁shelf	-10.2068
▁scales	-10.207
▁hall	-10.2083
▁ticked	-10.2088
▁dive	-10.2089
▁familiar	-10.2106
▁shocked	-10.2122
▁despair	-10.2135
▁siblings	-10.2165
▁portal	-10.2174
▁promising	-10.2174
▁scare	-10.2196
▁fur	-10.2198
▁trail	-10.2203
▁trembled	-10.2205
▁families	-10.2243
▁needs	-10.2244
board	-10.2255
▁meal	-10.2274
urging	-10.2282
▁point	-10.2295
▁coat	-10.2334
▁lie	-10.2349
▁souls	-10.2353
▁scene	-10.2371
▁puzzle	-10.2371
▁firm	-10.2381
▁peer	-10.2381
▁emptiness	-10.239
follow	-10.2394
▁ant	-10.24
▁machines	-10.2402
▁already	-10.241
▁dipped	-10.242
▁swept	-10.242
▁clutch	-10.243
▁mixing	-10.2433
▁purple	-10.244
▁leads	-10.2441
▁united	-10.2452
▁duck	-10.25
▁thinks	-10.2522
▁jungle	-10.2541
▁notice	-10.2564
▁betrayed	-10.2569
▁cut	-10.2571
▁crying	-10.2576
▁skills	-10.2577
▁ghosts	-10.2581
▁beamed	-10.2581
▁statue	-10.2591
▁traditions	-10.26
▁j	-10.2604
▁bold	-10.2606
▁wisely	-10.262
▁shelter	-10.2622
▁seasons	-10.2625
▁circles	-10.2637
▁spinning	-10.2642
▁joke	-10.2644
▁hats	-10.266
▁z	-10.2669
▁parents	-10.2673
▁rhythm	-10.2673
▁planting	-10.2682
▁underground	-10.2683
▁shoes	-10.269
▁loneliness	-10.2693
▁sigh	-10.2699
▁childhood	-10.2703
▁studied	-10.2703
▁troll	-10.2703
▁mud	-10.2724
ie	-10.2731
▁glanc	-10.2744
▁neighbors	-10.2765
▁glimmer	-10.2781
▁locked	-10.2786
wait	-10.2789
▁wear	-10.2791
▁written	-10.2806
▁effort	-10.2827
▁kitten	-10.2827
▁struggled	-10.2834
▁bake	-10.2846
▁human	-10.2849
▁dove	-10.2879
▁sees	-10.2881
ap	-10.2885
▁whale	-10.29
▁cry	-10.291
▁doubts	-10.2917
▁received	-10.2922
▁embraced	-10.2927
▁gate	-10.2931
▁puzzled	-10.2939
▁trunk	-10.2952
▁friendships	-10.2954
▁please	-10.2966
see	-10.2967
▁seem	-10.2975
▁picking	-10.3004
▁confident	-10.3005
▁success	-10.3005
▁renewed	-10.3016
▁attention	-10.3037
▁ache	-10.3053
light	-10.3055
▁dreamer	-10.3068
▁dangerous	-10.3069
could	-10.3094
▁pet	-10.3095
then	-10.3098
▁club	-10.3101
▁joyfully	-10.3102
▁expected	-10.3109
▁lady	-10.3111
▁pretty	-10.3133
ity	-10.3136
▁underwater	-10.3143
▁opening	-10.3159
▁balance	-10.3165
▁echo	-10.317
▁count	-10.3173
go	-10.3174
▁curiously	-10.3179
▁ruin	-10.3192
my	-10.3203
▁doors	-10.3214
▁ached	-10.3239
▁discovering	-10.324
▁valuable	-10.324
▁respect	-10.3262
▁serious	-10.3273
▁weeds	-10.3279
▁grandfather	-10.3284
time	-10.3297
▁uncovered	-10.3337
▁bee	-10.3356
▁cloak	-10.3362
▁melody	-10.3371
▁guarded	-10.3399
▁bubbles	-10.3418
▁reality	-10.3419
▁playground	-10.3426
▁older	-10.3431
▁lunch	-10.3437
▁warrior	-10.3437
▁breaking	-10.3445
▁flapped	-10.3449
▁happier	-10.3459
▁round	-10.3459
▁guess	-10.347
▁money	-10.347
▁exchanged	-10.3481
▁instant	-10.3487
▁bubble	-10.3493
▁spreading	-10.3507
please	-10.3519
▁granted	-10.352
▁beating	-10.3543
▁wandering	-10.357
▁wrapp	-10.3581
▁passion	-10.3583
▁black	-10.3593
▁exciting	-10.3593
▁maps	-10.3602
▁inspire	-10.3619
▁vowed	-10.3619
▁reflecting	-10.3644
▁device	-10.366
▁dropped	-10.3661
▁shined	-10.368
▁nose	-10.3686
▁speed	-10.3694
▁struggle	-10.3708
▁lifting	-10.3711
▁paintings	-10.3713
▁blink	-10.3719
▁dress	-10.373
▁expect	-10.373
▁raged	-10.3731
▁jar	-10.3741
▁tr	-10.3741
▁wants	-10.3744
▁narrow	-10.3751
▁boxes	-10.3755
▁shines	-10.3757
▁birthday	-10.3762
▁sparkle	-10.3794
▁lot	-10.3794
▁risk	-10.3819
▁returning	-10.3838
▁cross	-10.3842
▁acorn	-10.3842
▁darker	-10.3845
▁signs	-10.3858
▁soccer	-10.3877
▁dull	-10.3888
▁roamed	-10.39
▁wet	-10.3922
▁rules	-10.3933
▁accepted	-10.3943
▁unlike	-10.3946
▁flick	-10.395
ack	-10.3965
▁pencil	-10.3981
▁possible	-10.3981
▁lion	-10.3993
▁rivalry	-10.3993
▁urge	-10.3997
▁audience	-10.4004
▁short	-10.4004
▁accept	-10.4007
▁astronaut	-10.4016
▁legs	-10.4016
▁sailing	-10.4018
▁weaving	-10.4039
▁reveal	-10.404
▁logic	-10.4064
stay	-10.4068
▁teaching	-10.4086
▁nod	-10.4088
out	-10.4098
▁sink	-10.4145
▁changing	-10.4157
▁experience	-10.4181
together	-10.4186
▁screamed	-10.4215
way	-10.4217
▁pen	-10.4225
▁overcome	-10.4227
▁distract	-10.4229
▁rope	-10.4229
▁blossomed	-10.4232
▁backpack	-10.4241
▁confront	-10.4241
▁men	-10.4247
▁flight	-10.4254
▁ear	-10.4255
▁froze	-10.4257
▁lined	-10.4285
▁lanterns	-10.4294
▁cracked	-10.4327
▁cabin	-10.4337
ng	-10.434
▁moves	-10.4373
▁announced	-10.4373
▁waterfall	-10.4373
up	-10.4377
▁cookie	-10.4378
▁charm	-10.4384
▁further	-10.4385
▁member	-10.4403
ru	-10.4416
▁sparkles	-10.4422
▁kites	-10.4424
▁eagle	-10.4434
▁stolen	-10.444
▁parts	-10.4445
▁fixed	-10.446
▁rival	-10.447
▁gust	-10.447
▁pretending	-10.4475
▁scattered	-10.4486
▁vision	-10.4501
▁baked	-10.4503
▁confusion	-10.4507
▁slipping	-10.4507
▁price	-10.4507
▁raccoon	-10.4519
▁meaning	-10.4529
▁mouth	-10.4532
▁throw	-10.4543
▁faint	-10.4556
▁safely	-10.4557
▁swell	-10.4563
▁bustling	-10.4569
▁importance	-10.4581
▁brightened	-10.4581
▁grinning	-10.4593
▁collected	-10.4599
▁famous	-10.4618
▁surprising	-10.4631
▁tea	-10.4645
▁spin	-10.4655
▁rocky	-10.4656
▁season	-10.4664
▁body	-10.4668
▁popped	-10.4681
▁flowing	-10.4689
▁stomach	-10.4705
▁rustling	-10.4718
▁disappear	-10.4723
▁ate	-10.4724
she	-10.4728
▁struggling	-10.4743
▁aside	-10.4755
▁shoulders	-10.4762
▁roof	-10.4768
▁forth	-10.4777
▁owner	-10.4792
▁size	-10.4806
▁minds	-10.4818
▁impress	-10.4824
▁appear	-10.4824
▁dressed	-10.4829
▁desert	-10.4844
▁sandcastle	-10.4844
▁lying	-10.4844
▁str	-10.4859
▁grows	-10.4883
▁kicked	-10.4886
▁delicious	-10.4895
▁tasted	-10.4896
▁doll	-10.4934
▁sadly	-10.494
▁glade	-10.495
▁paw	-10.4959
▁thrilled	-10.4975
▁shock	-10.4977
only	-10.4992
▁younger	-10.5
▁visions	-10.5004
▁patience	-10.5024
▁rushing	-10.5048
▁track	-10.505
work	-10.5054
rex	-10.5057
▁rough	-10.5062
▁rumor	-10.5062
▁monkey	-10.5075
▁rare	-10.5078
▁sleep	-10.5096
▁telescope	-10.5101
▁complete	-10.5104
▁grab	-10.5114
▁sudden	-10.5123
▁early	-10.5133
▁luck	-10.5135
▁gaze	-10.5146
▁frozen	-10.5148
▁exist	-10.5167
▁bonds	-10.5169
▁forms	-10.5176
▁focus	-10.5199
▁brushed	-10.5247
▁bags	-10.5247
▁silently	-10.5248
▁bottom	-10.5286
▁figures	-10.5287
▁ironic	-10.5299
▁greeted	-10.5303
▁peaceful	-10.5303
▁forming	-10.531
▁tripped	-10.5313
▁remain	-10.5318
▁value	-10.5339
next	-10.5345
▁peak	-10.5352
▁scarf	-10.5365
▁taller	-10.5367
▁mo	-10.5367
▁keys	-10.5395
use	-10.5402
▁towers	-10.5404
▁scratched	-10.5419
▁trusting	-10.5421
▁tear	-10.5439
▁tricky	-10.544
▁cheese	-10.546
▁sunshine	-10.546
▁blow	-10.5474
▁pulsed	-10.5491
▁shimmer	-10.5495
▁gazing	-10.55
▁stormy	-10.5502
▁sled	-10.5511
▁swung	-10.5514
▁baker	-10.5514
▁reader	-10.5522
▁wink	-10.5527
▁admitted	-10.5527
▁dragons	-10.5532
▁collect	-10.5535
▁sprite	-10.5541
▁crawled	-10.5558
▁sketch	-10.5562
▁dancer	-10.557
▁shrugged	-10.5582
▁jewel	-10.5586
▁ruled	-10.5586
▁drum	-10.5596
▁resilience	-10.5596
▁glimmering	-10.5602
▁halls	-10.563
▁tells	-10.5637
▁cup	-10.5652
▁frogs	-10.566
▁uneasy	-10.5664
▁snail	-10.5678
▁winding	-10.5695
▁buy	-10.5706
love	-10.5713
▁pebble	-10.5733
▁cleared	-10.5765
our	-10.5766
▁harmony	-10.5803
▁walks	-10.5805
▁hour	-10.5824
▁shows	-10.584
▁problems	-10.5844
▁tallest	-10.5859
▁struggles	-10.586
▁cast	-10.5874
▁pizza	-10.5887
▁frustrated	-10.593
▁chosen	-10.595
▁frown	-10.5966
▁rabbits	-10.5971
▁perform	-10.5972
▁inspiration	-10.5972
▁earlier	-10.5986
▁curse	-10.5993
▁laughs	-10.5999
▁tuck	-10.6001
▁continue	-10.6008
▁burden	-10.6015
▁tangled	-10.6015
▁wrap	-10.6018
▁lively	-10.6026
▁hollow	-10.6029
▁stirred	-10.6029
▁dis	-10.6038
trust	-10.6079
▁grumpy	-10.6087
▁fireflies	-10.6101
▁lightning	-10.6102
▁fluttered	-10.6103
▁precious	-10.613
▁whistle	-10.613
▁flames	-10.6137
▁dinner	-10.6144
▁blooms	-10.615
▁tide	-10.6159
▁potion	-10.6175
▁footsteps	-10.6202
▁decide	-10.6206
▁resting	-10.6206
▁reef	-10.6217
▁imagine	-10.6224
▁swelled	-10.6241
▁unseen	-10.6246
▁harvest	-10.6261
▁tortoise	-10.6261
▁action	-10.6262
▁sly	-10.6269
▁warmed	-10.6286
▁add	-10.6309
▁joked	-10.6315
▁bare	-10.6337
buried	-10.6342
▁generosity	-10.6349
▁snowball	-10.636
▁dared	-10.6368
▁seashell	-10.6378
▁pure	-10.6378
▁smaller	-10.6379
▁rolling	-10.6385
▁disappointed	-10.6393
join	-10.6401
▁thread	-10.6408
▁grandma	-10.6411
▁squeaked	-10.6426
▁bitter	-10.6427
▁egg	-10.6432
▁sens	-10.6433
▁stole	-10.6445
▁bubbled	-10.6462
▁greater	-10.6464
able	-10.6477
here	-10.648
▁blank	-10.6482
▁shout	-10.6494
▁townspeople	-10.6527
▁buttons	-10.6537
▁treehouse	-10.6542
▁guilt	-10.6552
▁sell	-10.6558
▁brightest	-10.6563
▁rainbows	-10.6582
▁carrot	-10.6587
▁midnight	-10.6588
▁ordinary	-10.6588
▁responsible	-10.6588
▁seaweed	-10.6588
▁pro	-10.6589
▁ringing	-10.6595
▁hurry	-10.6603
▁candle	-10.6617
▁realm	-10.6626
keep	-10.6627
▁ancestors	-10.6648
▁horse	-10.6648
▁actions	-10.6653
▁galaxy	-10.6664
▁spilled	-10.6694
▁twirling	-10.6697
▁conquer	-10.6709
▁ants	-10.672
▁lighthouse	-10.674
▁shield	-10.674
▁blossom	-10.675
▁possibilities	-10.6755
▁recipe	-10.6755
▁pool	-10.6755
▁comp	-10.6757
▁larger	-10.6773
▁reflected	-10.6778
▁berries	-10.6786
▁gratitude	-10.6786
▁sprout	-10.6786
▁shade	-10.6803
▁event	-10.6812
▁spoon	-10.6817
▁pretended	-10.6834
▁stealing	-10.6835
▁painter	-10.6848
▁startled	-10.6867
▁legends	-10.6868
▁enemy	-10.6879
▁solved	-10.6885
some	-10.6889
▁shovel	-10.691
▁surround	-10.6921
land	-10.6924
▁neighborhood	-10.6926
▁source	-10.6926
▁animal	-10.6928
not	-10.6928
▁starry	-10.6939
▁giggles	-10.6954
ated	-10.6964
▁la	-10.6968
▁board	-10.6968
▁kick	-10.6968
▁direction	-10.6973
▁confidence	-10.6973
▁classroom	-10.6973
hold	-10.6982
▁glint	-10.7004
▁royal	-10.702
▁partner	-10.7021
▁barked	-10.7023
▁cupcake	-10.7052
▁drift	-10.7069
▁weave	-10.7078
ha	-10.708
per	-10.7099
proving	-10.7104
should	-10.7109
▁bug	-10.7115
▁wealth	-10.7115
▁fireworks	-10.7115
▁months	-10.7121
▁approach	-10.7127
▁supplies	-10.7131
▁bicycle	-10.7147
▁wi	-10.7156
▁elephant	-10.7163
▁skate	-10.7163
art	-10.7164
▁asks	-10.7176
▁piano	-10.7179
▁lucky	-10.7186
j	-10.7189
▁bouncing	-10.7211
▁cheeks	-10.7225
▁pay	-10.7228
▁guards	-10.7238
▁frost	-10.7244
▁hummed	-10.7244
▁freely	-10.7245
▁shadowy	-10.7248
for	-10.7249
▁ripple	-10.7253
▁envelop	-10.726
▁company	-10.7276
▁hardship	-10.7276
▁harm	-10.7276
▁paddled	-10.7277
▁houses	-10.7282
▁dry	-10.7294
would	-10.7302
▁corners	-10.7308
▁slip	-10.7308
today	-10.7318
▁foolish	-10.7325
▁lamp	-10.7325
▁perched	-10.7325
▁pumpkin	-10.7341
▁melted	-10.7342
▁arm	-10.7351
▁bus	-10.7355
▁chicken	-10.7357
▁fence	-10.7357
▁glasses	-10.7379
▁shouting	-10.7385
▁rustled	-10.7397
▁classmates	-10.7406
▁skill	-10.7431
▁transform	-10.7435
▁flourished	-10.7447
▁cleaned	-10.7456
▁fishing	-10.7467
▁tricked	-10.7468
▁wildly	-10.7469
▁cr	-10.7486
▁freed	-10.7498
▁bar	-10.751
▁cape	-10.7511
▁slide	-10.752
▁knock	-10.7535
▁stands	-10.7538
▁cleaning	-10.7568
▁unexpectedly	-10.7569
▁puzzles	-10.7576
▁despi	-10.7605
▁darkened	-10.7605
▁saving	-10.7622
▁unaware	-10.7622
▁engine	-10.7639
▁poem	-10.7639
▁score	-10.7648
▁riverbank	-10.7672
▁pale	-10.7691
▁weather	-10.7706
▁tag	-10.7708
each	-10.7734
▁shattered	-10.7744
▁advice	-10.7757
because	-10.7784
▁hint	-10.7808
▁argued	-10.7812
ance	-10.7814
when	-10.7819
▁embracing	-10.7825
▁misty	-10.7843
▁single	-10.7853
▁umbrella	-10.786
▁wake	-10.786
▁claimed	-10.7861
▁carved	-10.7877
term	-10.7883
▁phone	-10.7894
▁breathe	-10.7901
▁craft	-10.7908
▁lush	-10.7911
▁void	-10.7911
▁soup	-10.7922
▁incredible	-10.7928
▁puddles	-10.7945
▁buzzing	-10.796
▁chilly	-10.7962
▁nowhere	-10.7976
▁reply	-10.798
▁begin	-10.7993
▁healing	-10.7995
▁cook	-10.8003
▁illuminat	-10.8015
▁timidly	-10.8018
▁cars	-10.8023
▁rustle	-10.8025
▁oneself	-10.805
▁fool	-10.805
ous	-10.8054
▁grace	-10.8068
▁pillow	-10.8068
▁kid	-10.8099
▁battles	-10.8117
▁fragile	-10.812
▁zipp	-10.8125
lly	-10.8166
▁recall	-10.8171
▁streams	-10.8172
▁shades	-10.8172
▁thorn	-10.8173
▁belief	-10.8173
▁lo	-10.8177
▁sugar	-10.8191
▁movement	-10.8194
really	-10.8207
▁creep	-10.8219
▁outsmart	-10.8245
▁flutter	-10.8252
▁joining	-10.8268
▁roll	-10.827
▁members	-10.8272
▁goes	-10.8279
▁eventually	-10.828
▁glory	-10.828
▁stack	-10.828
▁seems	-10.8295
▁mighty	-10.8296
▁calmly	-10.8311
▁sick	-10.8316
take	-10.8328
▁dimmed	-10.8334
once	-10.8335
▁none	-10.8335
▁hop	-10.8336
▁study	-10.8352
▁steer	-10.8352
▁moss	-10.8353
▁waking	-10.837
▁tick	-10.8375
▁promises	-10.8381
▁catching	-10.8382
▁dangers	-10.8382
▁pretend	-10.8397
▁eating	-10.8398
▁collecting	-10.8404
▁calmed	-10.8405
▁heartbeat	-10.8406
▁lab	-10.843
▁sibling	-10.846
▁invisibility	-10.8461
▁somewhere	-10.8462
▁sensed	-10.8468
▁smallest	-10.8471
▁baking	-10.8479
▁relieved	-10.8479
▁court	-10.8479
▁guitar	-10.8497
▁shaky	-10.8497
▁snowballs	-10.852
special	-10.8528
▁gasp	-10.8532
▁reward	-10.8534
▁ghostly	-10.8534
▁wheels	-10.8547
▁anti	-10.8554
▁swings	-10.8554
▁admire	-10.8555
▁counted	-10.8569
▁sunflower	-10.8571
▁chain	-10.8589
▁decision	-10.8589
▁claim	-10.8606
▁farmer	-10.8608
▁flipped	-10.8608
▁bounced	-10.8612
▁swiftly	-10.8612
▁costume	-10.8626
ther	-10.8649
▁visible	-10.8664
▁interest	-10.8664
▁puddle	-10.8665
▁mar	-10.868
▁settled	-10.8682
▁begun	-10.8701
▁sneaky	-10.8712
▁stretch	-10.8718
▁connecting	-10.8731
▁ignor	-10.8732
▁defeated	-10.8737
▁asleep	-10.8738
▁adding	-10.8752
▁herring	-10.8764
▁crumb	-10.8774
off	-10.8775
▁tapestry	-10.8776
▁beginnings	-10.8778
▁scents	-10.8781
▁dolphins	-10.8786
▁begins	-10.88
▁tool	-10.8819
▁cherished	-10.8821
stone	-10.8822
▁abruptly	-10.8832
▁cooperation	-10.8832
▁dish	-10.8834
▁gracefully	-10.8851
▁melt	-10.8869
▁includ	-10.887
▁headed	-10.8871
▁glittering	-10.8873
▁strongest	-10.8885
▁scored	-10.8898
▁blend	-10.8921
▁flute	-10.8927
▁pair	-10.8927
▁station	-10.8927
▁markings	-10.8928
▁perfectly	-10.8938
▁patch	-10.8947
▁wound	-10.8947
sure	-10.895
▁succeed	-10.8966
▁web	-10.8976
▁click	-10.8984
▁explain	-10.8984
▁bat	-10.8996
▁wagged	-10.9004
▁teased	-10.9004
▁troubles	-10.9006
▁warmly	-10.9015
▁messy	-10.902
▁palace	-10.9023
▁teammate	-10.9023
▁split	-10.9043
▁shoulder	-10.9049
▁swooped	-10.9062
▁trash	-10.9062
▁marble	-10.9063
▁starts	-10.907
▁grip	-10.907
▁creak	-10.9081
▁gnome	-10.9081
▁evil	-10.9101
▁shoe	-10.9106
▁x	-10.912
▁guardians	-10.9142
side	-10.9176
▁stairs	-10.9179
▁plotted	-10.9199
▁amid	-10.9204
▁bump	-10.9218
hero	-10.9229
▁sway	-10.9237
stop	-10.9251
▁fuel	-10.9258
▁candles	-10.9259
▁hanging	-10.9269
▁sandy	-10.9271
▁nervously	-10.9276
▁gear	-10.9277
▁flour	-10.9298
▁crackled	-10.9299
▁wip	-10.93
▁tasty	-10.9317
▁slid	-10.9319
▁damp	-10.9337
▁upset	-10.9337
▁growled	-10.935
right	-10.9369
▁heavier	-10.9377
▁crow	-10.9382
▁blocked	-10.9412
▁coffee	-10.9417
▁afar	-10.9417
▁camp	-10.9437
▁bracelet	-10.9437
▁crashing	-10.9456
▁achieve	-10.9457
▁pouring	-10.9457
▁cries	-10.9458
▁ticking	-10.9466
▁swift	-10.9472
▁invention	-10.9477
while	-10.9491
▁crops	-10.9497
▁encouraging	-10.9497
▁shouts	-10.952
▁glided	-10.9542
▁br	-10.9548
▁flame	-10.9548
▁paintbrush	-10.9558
▁awoke	-10.9579
▁items	-10.9579
▁sits	-10.9585
with	-10.9592
▁throne	-10.9599
▁bees	-10.9611
▁decides	-10.9626
find	-10.9633
▁cloaked	-10.9657
▁applause	-10.9681
▁rumble	-10.9694
▁area	-10.9698
▁hopping	-10.9702
▁braver	-10.9708
▁twinge	-10.9764
▁touching	-10.9768
▁anxious	-10.9785
▁blind	-10.9785
▁pressing	-10.9785
▁pack	-10.9788
▁foot	-10.9805
▁photo	-10.9818
▁teeth	-10.9826
▁rested	-10.9838
▁lip	-10.9847
▁worm	-10.9847
▁cursed	-10.9858
▁thankful	-10.9859
▁starting	-10.9859
▁cities	-10.9868
▁photos	-10.9876
ipping	-10.9881
▁keepers	-10.9887
▁starfish	-10.9891
▁glances	-10.9899
▁bow	-10.9906
▁coach	-10.991
▁scheme	-10.991
▁chip	-10.9914
▁grasp	-10.9931
▁overhead	-10.9931
▁growl	-10.9931
tell	-10.9934
eyed	-10.9948
▁abandoned	-10.9952
▁alarm	-10.9952
▁realize	-10.9981
▁competition	-10.9995
▁terrible	-10.9995
ria	-10.9995
▁hunter	-11.0002
▁war	-11.0004
▁colder	-11.001
▁chamber	-11.0016
▁conscience	-11.0016
▁genie	-11.0016
▁neat	-11.0016
▁defeat	-11.0017
▁socks	-11.0031
▁lurking	-11.0037
▁discuss	-11.0059
▁offering	-11.0059
▁crossing	-11.0085
▁zoom	-11.0103
▁surged	-11.0119
▁launch	-11.0124
▁ignored	-11.013
▁helper	-11.0144
▁ribbon	-11.0145
▁tunnels	-11.0148
▁decorated	-11.0148
▁fixing	-11.0157
▁crayon	-11.0166
▁frightened	-11.0166
wood	-11.0181
▁tickle	-11.0192
▁bent	-11.0193
▁design	-11.021
▁respond	-11.021
▁gained	-11.0251
▁shelves	-11.0253
▁stillness	-11.0262
▁artifact	-11.0275
▁charming	-11.0278
▁thin	-11.0292
▁brightening	-11.0297
▁bound	-11.0298
▁checked	-11.0302
▁closing	-11.0319
▁curtain	-11.0319
▁fake	-11.0319
▁shut	-11.0319
▁spider	-11.0319
▁math	-11.0319
▁twirl	-11.0339
well	-11.0339
▁tilted	-11.0341
▁wilt	-11.0343
▁cooking	-11.0351
▁rebuild	-11.0363
▁highest	-11.037
▁couple	-11.0385
▁skateboard	-11.0385
▁characters	-11.0394
▁glitter	-11.0403
▁petal	-11.0406
▁crush	-11.0407
▁lemonade	-11.0407
▁since	-11.0407
▁trained	-11.0414
▁clarity	-11.0429
▁speaking	-11.0436
▁attack	-11.0452
▁hooted	-11.0474
▁awaken	-11.0474
▁burned	-11.0492
▁baby	-11.0496
▁riding	-11.0496
▁crunched	-11.0511
▁pressure	-11.0518
▁trickster	-11.0523
▁dares	-11.055
▁prepare	-11.0556
▁acceptance	-11.0567
▁backward	-11.0586
▁garage	-11.0586
▁scroll	-11.0586
▁maze	-11.0608
▁vegetables	-11.0608
▁treat	-11.063
▁bought	-11.0631
▁disappointment	-11.0631
▁vehicle	-11.0631
▁scann	-11.0631
▁writer	-11.0649
▁flapping	-11.0654
▁item	-11.0654
▁express	-11.0676
▁rooftop	-11.0676
▁praised	-11.0678
▁easily	-11.0699
▁skipped	-11.0699
▁crumbling	-11.07
▁eggs	-11.0709
▁sorcerer	-11.0722
▁gain	-11.0725
▁banana	-11.0745
▁boots	-11.0745
▁glistening	-11.0745
▁thud	-11.0745
▁patient	-11.0768
▁log	-11.0773
▁nuts	-11.0779
▁stall	-11.0791
▁carrots	-11.0793
▁realizes	-11.0805
▁pulse	-11.0807
▁guilty	-11.0822
ken	-11.0834
▁drove	-11.0837
▁factory	-11.0837
▁winner	-11.0837
▁bunny	-11.086
▁knot	-11.086
▁snack	-11.0861
even	-11.0882
▁basketball	-11.0883
▁church	-11.0883
▁journal	-11.0883
▁trophy	-11.0907
dream	-11.0923
▁heavily	-11.093
▁scream	-11.0933
▁preparing	-11.0953
▁unfold	-11.0956
low	-11.0962
▁radiant	-11.0977
▁role	-11.0977
▁wires	-11.0977
▁sleeping	-11.1
▁welcome	-11.1003
▁local	-11.1047
▁mysteries	-11.1047
▁smirk	-11.1047
▁driven	-11.1053
▁beautifully	-11.1072
line	-11.1077
▁sandwiches	-11.1097
▁haunting	-11.1102
▁flavor	-11.1118
▁ski	-11.1132
▁survive	-11.1142
▁neck	-11.1142
▁flood	-11.1146
▁rule	-11.1158
▁crisp	-11.1166
▁weighed	-11.1171
▁emotions	-11.1177
▁dodging	-11.119
▁eerie	-11.119
▁rays	-11.119
▁band	-11.1196
▁detective	-11.1214
▁barn	-11.1224
have	-11.1233
▁underneath	-11.1238
▁betray	-11.1241
▁differently	-11.1254
▁temple	-11.1262
▁store	-11.1262
▁beeped	-11.1325
▁mused	-11.1335
▁fame	-11.1335
▁juice	-11.1383
▁fastest	-11.1401
▁dread	-11.1408
▁glimpse	-11.1408
▁protected	-11.1411
ber	-11.1438
▁happiest	-11.1457
▁gym	-11.1457
▁student	-11.1464
▁landscape	-11.1482
▁reclaim	-11.1482
▁flap	-11.1482
▁wheel	-11.1489
▁embarrassed	-11.1506
▁storyteller	-11.1506
▁suit	-11.1506
▁refus	-11.1506
▁chirp	-11.1511
▁signal	-11.1514
▁cove	-11.153
▁current	-11.1531
▁row	-11.1536
▁burn	-11.1536
▁huddled	-11.1556
▁deepened	-11.1556
▁mushrooms	-11.1557
▁rumbled	-11.1565
▁sock	-11.1573
▁gadget	-11.1581
▁normal	-11.1581
▁scientist	-11.1581
▁breathless	-11.1585
▁escaped	-11.1602
▁watches	-11.1603
▁easier	-11.1606
▁bored	-11.1606
▁peeking	-11.1618
▁wing	-11.1619
▁knee	-11.163
▁causing	-11.1631
▁lurked	-11.1631
▁cosmos	-11.1656
▁generation	-11.1681
▁flies	-11.1684
▁fluttering	-11.1692
▁intelligence	-11.1706
▁twigs	-11.1706
▁curl	-11.1708
▁ingredients	-11.1726
▁list	-11.173
▁herbs	-11.1776
▁amazement	-11.1782
▁amulet	-11.1782
▁agree	-11.18
▁honey	-11.1807
▁wicked	-11.1807
▁crafted	-11.1812
▁desperate	-11.1833
▁teddy	-11.1833
▁mad	-11.1855
▁fisherman	-11.1859
▁glee	-11.1859
▁mischief	-11.1859
▁tended	-11.1859
▁cautiously	-11.1862
▁impressed	-11.1874
▁drifting	-11.1875
▁appreciate	-11.1889
▁least	-11.191
▁vastness	-11.1916
▁pop	-11.1952
listen	-11.1955
▁described	-11.1961
▁muddy	-11.1962
▁capture	-11.198
▁brilliant	-11.1987
▁bones	-11.1987
▁greedy	-11.2009
▁snake	-11.2013
▁boomed	-11.2024
▁raindrops	-11.2035
▁widely	-11.2044
▁chef	-11.2066
▁puff	-11.2066
▁science	-11.2066
▁glad	-11.2084
▁culture	-11.2092
▁marshmallow	-11.2092
▁pilot	-11.2092
▁counting	-11.2102
▁judges	-11.2108
▁begged	-11.2109
▁solving	-11.2118
▁spooky	-11.2118
▁woven	-11.2147
▁camera	-11.2167
▁spice	-11.2171
▁anytime	-11.2175
▁confessed	-11.2176
▁sparkly	-11.2183
▁wander	-11.2183
true	-11.2191
▁sniffed	-11.2206
▁blending	-11.2206
▁sandwich	-11.2221
▁asteroid	-11.2224
▁gallery	-11.2224
▁inserted	-11.2224
▁strolled	-11.2224
▁wildflowers	-11.2224
▁clicked	-11.2225
▁ruler	-11.2229
▁triumph	-11.225
▁wrist	-11.225
▁flag	-11.225
▁dusk	-11.2277
▁oven	-11.2277
▁fiercely	-11.2291
▁lizard	-11.2304
▁kissed	-11.2321
▁max	-11.233
▁model	-11.233
▁slightly	-11.233
▁sting	-11.2332
▁plane	-11.2343
▁ten	-11.2344
▁guidance	-11.2357
▁unusual	-11.2357
▁throwing	-11.236
▁pad	-11.2364
ah	-11.2399
▁deception	-11.2411
▁dare	-11.2426
▁adventurous	-11.2438
▁welcoming	-11.2438
▁bend	-11.2439
▁encounter	-11.2466
▁tiptoed	-11.2466
▁marvel	-11.2466
▁hallway	-11.2466
▁fine	-11.2474
▁traced	-11.2495
run	-11.2497
▁brushes	-11.2505
▁carvings	-11.252
▁duty	-11.252
▁swaying	-11.2529
▁scoop	-11.2548
▁practicing	-11.2575
▁palm	-11.2575
▁avoid	-11.2603
▁insisted	-11.2603
▁caused	-11.2608
▁cotton	-11.2658
▁feed	-11.2658
▁hike	-11.2658
▁tent	-11.2665
▁legend	-11.2677
▁darted	-11.2686
▁ease	-11.2686
▁restore	-11.2693
▁parade	-11.2714
▁clash	-11.2714
▁descend	-11.2714
▁cap	-11.2736
llowing	-11.2742
▁brown	-11.2746
▁glance	-11.2759
▁sprinkle	-11.2762
▁faith	-11.2769
▁sold	-11.2769
▁tender	-11.2769
▁vanish	-11.2777
▁cleverness	-11.2781
▁forgive	-11.2797
▁fabric	-11.2798
▁runner	-11.2798
▁sleepy	-11.2809
▁encouragement	-11.2826
▁witness	-11.2826
▁jellyfish	-11.2826
▁agent	-11.2826
▁perseverance	-11.2854
▁philosopher	-11.2854
▁swallowed	-11.2866
▁arrive	-11.2903
▁destroy	-11.2911
▁fleeting	-11.2911
▁slept	-11.2911
▁murmured	-11.2915
▁massive	-11.2939
▁beacon	-11.2996
▁contradiction	-11.2996
▁globe	-11.2996
▁snowmen	-11.2996
▁gloomy	-11.3
▁bowl	-11.3003
▁dough	-11.3004
▁launched	-11.3024
▁daring	-11.3025
▁cocoa	-11.3054
▁ignore	-11.3054
▁performance	-11.3054
▁trade	-11.3057
▁unfolded	-11.3079
▁diary	-11.3083
▁straight	-11.3083
▁clapping	-11.3083
▁musician	-11.3083
▁flashback	-11.3112
▁anyway	-11.3117
▁bakery	-11.3125
▁inspiring	-11.3141
▁instantly	-11.3154
▁drive	-11.3163
▁admir	-11.3164
vale	-11.3171
▁grove	-11.3199
▁dino	-11.3199
▁wagging	-11.3229
▁captured	-11.3237
▁deserve	-11.3258
▁serpent	-11.3258
▁richer	-11.3273
▁thieves	-11.3288
▁unable	-11.3289
many	-11.3311
▁jealous	-11.3312
▁frustration	-11.3317
▁reason	-11.3317
▁firefly	-11.3317
▁inventor	-11.3318
▁tries	-11.3319
▁jealousy	-11.3323
▁munch	-11.3347
▁goat	-11.3368
▁rowed	-11.3371
▁wilted	-11.3374
▁destination	-11.3377
▁scooter	-11.3377
▁lap	-11.3384
▁soaked	-11.3388
make	-11.3394
▁twilight	-11.3406
▁weapon	-11.3406
▁sneered	-11.3436
▁squealed	-11.3436
▁spend	-11.3436
▁whir	-11.3466
▁angel	-11.3467
▁protector	-11.3485
▁mend	-11.3485
▁challenged	-11.3499
▁cooked	-11.3532
▁sketched	-11.3541
▁bang	-11.3557
▁detail	-11.3557
▁timid	-11.3582
boo	-11.3586
▁buddy	-11.3587
▁supposed	-11.3618
▁throat	-11.3618
▁truck	-11.3618
▁agreement	-11.3619
▁squeezed	-11.3623
▁furry	-11.365
▁compassion	-11.3653
▁linger	-11.3659
▁softened	-11.3679
▁deck	-11.3685
▁ignite	-11.3703
▁cardboard	-11.371
▁armor	-11.3714
▁served	-11.3715
▁dreamland	-11.372
▁deadline	-11.3741
▁finger	-11.3742
▁crunch	-11.3751
▁blast	-11.3772
▁threatened	-11.3772
▁tingle	-11.3775
▁blur	-11.3803
▁claw	-11.3803
▁author	-11.3803
▁pounded	-11.3803
▁bud	-11.3803
room	-11.3828
▁gummy	-11.3834
▁scrap	-11.3834
▁tugged	-11.3834
▁cloth	-11.3863
▁bank	-11.3865
▁boring	-11.3865
▁fascinated	-11.3897
▁charged	-11.3902
▁playfully	-11.3921
▁rage	-11.3923
▁kiss	-11.3939
▁buzz	-11.3945
▁blurred	-11.396
▁cage	-11.3963
▁movie	-11.3991
▁super	-11.4023
▁released	-11.4023
▁gap	-11.4026
▁superheroes	-11.4034
courage	-11.4048
▁exploded	-11.4055
▁masterpiece	-11.4055
▁whirred	-11.4055
▁captivated	-11.4087
▁cottage	-11.4087
▁wobbled	-11.4092
▁boldly	-11.4103
▁christmas	-11.4119
▁gliding	-11.4119
▁intertwined	-11.4119
▁arguing	-11.4151
▁clown	-11.4151
▁knife	-11.4151
▁navigate	-11.4151
▁video	-11.4151
▁whiskers	-11.4151
▁grief	-11.4183
▁glue	-11.4183
▁mock	-11.4185
▁theater	-11.4189
▁drown	-11.4216
▁patterns	-11.4216
▁flip	-11.4219
▁brewed	-11.4248
▁raft	-11.4248
▁resourceful	-11.4248
▁cheek	-11.4254
▁photograph	-11.4281
▁suffer	-11.4281
▁foe	-11.4281
▁crumbled	-11.4282
▁display	-11.4313
▁mice	-11.4313
▁nurture	-11.4313
▁forgiveness	-11.4315
▁bucket	-11.4346
▁drank	-11.4346
▁pedaled	-11.4356
treasure	-11.4372
▁overheard	-11.4379
▁resolve	-11.4379
▁lean	-11.4392
▁grabbing	-11.4412
▁thrive	-11.4438
great	-11.4439
▁diving	-11.4445
▁dodged	-11.4445
▁ourselves	-11.4445
▁pedestal	-11.4445
▁prank	-11.4445
▁panicked	-11.4445
▁chatter	-11.4446
▁cheerfully	-11.4467
▁champion	-11.4478
▁bittersweet	-11.4512
▁icy	-11.4512
▁anew	-11.4545
▁capturing	-11.4579
▁intently	-11.4579
▁shrank	-11.4579
▁simply	-11.4579
▁croaked	-11.4585
ound	-11.4589
▁clung	-11.4612
▁represent	-11.4612
▁wistful	-11.4612
▁workshop	-11.4612
▁crumpled	-11.4646
▁lazily	-11.4646
▁prison	-11.4646
ature	-11.4646
▁strategy	-11.468
▁diamond	-11.469
always	-11.4707
▁combined	-11.4714
long	-11.4735
▁digital	-11.4748
mom	-11.4754
▁unite	-11.4775
▁soldier	-11.4783
▁argue	-11.4809
hope	-11.481
▁shroud	-11.4817
▁strike	-11.4817
▁grandpa	-11.4821
▁logg	-11.4846
▁computer	-11.4851
▁lungs	-11.4851
▁pancake	-11.4851
▁worse	-11.4851
▁chimed	-11.4856
▁daisies	-11.4886
▁examin	-11.4886
▁sprinkled	-11.4895
▁deal	-11.4897
▁height	-11.4921
▁numbers	-11.4921
▁overjoyed	-11.4921
▁whoosh	-11.4921
magic	-11.4949
good	-11.4949
▁master	-11.4955
▁shipwreck	-11.4955
▁summon	-11.4955
▁cause	-11.4983
▁scratching	-11.499
▁noticing	-11.4991
▁restless	-11.4994
gged	-11.5006
ugh	-11.5012
▁salt	-11.502
▁melodies	-11.5061
▁puppet	-11.5061
▁purred	-11.5061
▁shall	-11.5061
▁glide	-11.5089
▁conflict	-11.5096
▁harsh	-11.5096
▁sketchbook	-11.5096
▁slice	-11.5096
▁marched	-11.5096
▁mischievous	-11.5131
▁salty	-11.5137
▁painful	-11.5145
▁clap	-11.5167
▁ceiling	-11.5167
▁batter	-11.5169
▁investigate	-11.5203
▁plain	-11.5203
▁transformation	-11.5204
▁reli	-11.5213
▁pine	-11.5245
▁poor	-11.525
▁fluff	-11.5269
▁hesitation	-11.5275
▁impossible	-11.5275
▁response	-11.5275
▁stunning	-11.5275
▁accidentally	-11.5275
▁collection	-11.5277
night	-11.5304
nual	-11.5308
▁footprints	-11.5311
▁technology	-11.5311
▁pleaded	-11.5311
▁aimed	-11.5311
▁fateful	-11.5314
▁tossing	-11.5315
▁sorceress	-11.5347
▁lone	-11.5379
shifter	-11.5382
nuck	-11.5383
▁warn	-11.5386
shift	-11.5404
▁breathtaking	-11.542
▁phoenix	-11.542
▁panel	-11.5423
shaped	-11.545
mia	-11.545
fire	-11.5455
▁eyebrow	-11.5456
▁replies	-11.5456
▁teasing	-11.5457
▁bounce	-11.5524
▁surf	-11.553
▁shoot	-11.5541
happy	-11.5561
▁funniest	-11.5567
▁grey	-11.5567
▁igniting	-11.5604
▁chores	-11.5642
▁dizzy	-11.5642
▁tech	-11.5642
▁lair	-11.5643
▁beep	-11.5674
▁rippled	-11.5696
like	-11.5709
▁bouquet	-11.5717
▁tumbled	-11.5717
▁plate	-11.5717
▁choosing	-11.5754
▁triceratops	-11.5754
▁flat	-11.576
▁character	-11.5776
power	-11.5786
lost	-11.5786
▁command	-11.5792
▁deceive	-11.5792
▁juggle	-11.5792
▁rescue	-11.5792
▁threat	-11.583
ville	-11.583
▁dripping	-11.583
▁jellybean	-11.583
▁wiggle	-11.5868
▁tribe	-11.5868
▁pri	-11.5874
▁perked	-11.5907
▁expression	-11.5908
oops	-11.5914
▁ignited	-11.5916
▁pause	-11.5977
leave	-11.5977
▁cycle	-11.5984
▁demanded	-11.5984
▁envy	-11.5984
▁seagull	-11.5984
▁stirring	-11.5984
▁discoveries	-11.5989
▁concern	-11.6023
▁conversation	-11.6023
▁halloween	-11.6023
▁whimsical	-11.6023
▁mr	-11.6023
▁snowflake	-11.6048
▁image	-11.6048
▁enemies	-11.6062
▁grumbled	-11.6062
▁uncertainty	-11.6062
▁zor	-11.6072
uh	-11.6072
▁month	-11.6087
life	-11.6094
▁delicate	-11.6101
▁born	-11.6101
▁majestic	-11.614
▁plotting	-11.614
▁hugging	-11.614
▁cutting	-11.614
▁cautious	-11.6174
▁ladder	-11.6179
▁tone	-11.6203
▁tie	-11.621
▁lollipop	-11.6219
▁squawked	-11.6219
▁cheat	-11.6219
▁humming	-11.6219
▁plea	-11.627
▁nobody	-11.6298
▁alongside	-11.6303
▁eve	-11.6333
▁blush	-11.6338
▁possibility	-11.6338
▁organized	-11.6342
▁stir	-11.6378
▁innovation	-11.6419
▁unspoken	-11.6419
▁beware	-11.6419
▁laid	-11.642
▁couch	-11.6422
▁mini	-11.6459
▁paid	-11.65
everyone	-11.6536
▁host	-11.6541
kindness	-11.6575
open	-11.6575
lapped	-11.6579
▁galaxies	-11.6623
▁ladybug	-11.6623
▁root	-11.6655
rubbed	-11.6664
▁furious	-11.6706
▁wobble	-11.674
▁recogniz	-11.6747
▁repair	-11.6747
▁weekend	-11.6747
▁concert	-11.6789
▁shame	-11.6789
▁whipp	-11.6789
correct	-11.6831
▁illusion	-11.6831
▁tilting	-11.6831
▁clam	-11.6831
▁chatted	-11.6832
etched	-11.6844
▁breakfast	-11.6873
▁shopkeeper	-11.6916
▁style	-11.6916
▁rais	-11.6938
acceptance	-11.6952
▁reflect	-11.6954
▁raptor	-11.6958
▁kneeling	-11.696
▁plac	-11.6975
▁link	-11.7001
▁pierc	-11.7001
happiness	-11.7037
▁jelly	-11.7044
▁loyal	-11.7044
▁threatening	-11.7044
▁nightmare	-11.7044
▁poster	-11.7044
▁gradua	-11.7087
▁rubber	-11.7087
▁tattered	-11.7087
▁uncle	-11.7087
▁whirlwind	-11.7087
▁sweat	-11.7087
▁sheep	-11.709
▁booth	-11.713
▁defend	-11.713
▁legendary	-11.713
▁sunrise	-11.713
▁volcano	-11.713
watch	-11.7167
friend	-11.7167
▁heartbroken	-11.7174
▁museum	-11.7174
▁structure	-11.7174
▁hang	-11.7192
▁overgrown	-11.7217
▁moral	-11.7261
▁advisor	-11.7261
▁airplane	-11.7261
▁arriving	-11.7261
▁ashamed	-11.7261
▁brushstroke	-11.7261
▁limit	-11.7261
▁slammed	-11.7261
▁beloved	-11.7261
▁resist	-11.7305
▁selfish	-11.7305
▁nodding	-11.7305
▁shark	-11.735
▁clay	-11.735
▁mood	-11.7394
▁sip	-11.7423
believe	-11.7432
▁gloom	-11.7433
▁fuzzy	-11.7439
▁muttered	-11.7439
▁mushroom	-11.7482
▁leg	-11.7482
▁false	-11.7484
▁bind	-11.7484
▁code	-11.7489
▁allowed	-11.7574
▁anticipation	-11.7574
▁crazy	-11.7574
▁sturdy	-11.7574
▁tragic	-11.7574
▁transport	-11.7574
▁hilltop	-11.7574
▁flourish	-11.7599
▁cousin	-11.7619
▁mill	-11.7619
▁consume	-11.7619
▁guy	-11.7665
▁charge	-11.7703
▁tremble	-11.7703
honesty	-11.7704
▁barrier	-11.7711
▁gleaming	-11.7803
▁sprang	-11.7803
▁vivid	-11.7803
▁ripe	-11.7803
▁adventurers	-11.7808
step	-11.7845
▁beckoned	-11.785
▁unleash	-11.785
▁version	-11.785
▁swallow	-11.7876
▁backdrop	-11.7896
▁deliver	-11.7896
▁disturb	-11.7896
▁emerging	-11.7896
▁someday	-11.7896
▁brow	-11.7936
▁bully	-11.7943
▁mystical	-11.7943
▁pixie	-11.7943
▁underfoot	-11.7943
▁foggy	-11.7943
▁candies	-11.7944
▁decorate	-11.7983
▁altar	-11.7991
▁baseball	-11.7991
▁brick	-11.7991
▁staircase	-11.7991
▁loose	-11.7991
▁loving	-11.7991
▁title	-11.7991
▁toast	-11.8007
▁horn	-11.8038
▁magician	-11.8038
▁invent	-11.8083
▁motion	-11.8086
▁medal	-11.8086
▁gumdrop	-11.8133
▁stopping	-11.8134
▁nap	-11.8136
racing	-11.8175
▁fortune	-11.8181
▁stuff	-11.8181
mple	-11.8227
▁gizmo	-11.823
▁untouched	-11.823
▁snapped	-11.823
▁frame	-11.8278
▁tense	-11.8293
▁pig	-11.83
▁serve	-11.832
surprise	-11.832
perhaps	-11.8321
▁clumsy	-11.8327
▁rather	-11.8327
▁tasting	-11.8376
▁boom	-11.8405
▁loyalty	-11.8425
▁obstacle	-11.8425
▁saturday	-11.8425
▁spiral	-11.8425
▁tomatoes	-11.8425
▁creative	-11.8475
▁ticket	-11.8475
▁carefree	-11.8525
▁pixel	-11.8575
▁minute	-11.8583
▁macguffin	-11.8625
▁magnificent	-11.8625
▁rebuilt	-11.8625
▁hesitant	-11.8625
▁yell	-11.8655
▁legacy	-11.8675
▁stardust	-11.8675
▁carries	-11.8675
▁mansion	-11.8676
▁peek	-11.868
▁adults	-11.8726
▁nail	-11.8726
▁wreck	-11.8726
▁office	-11.875
▁loom	-11.8757
▁disaster	-11.8777
▁drone	-11.8777
▁innocent	-11.8777
▁disbelief	-11.8828
▁droop	-11.8828
▁fancy	-11.8828
▁merchant	-11.8828
▁pact	-11.8828
▁program	-11.8828
▁deceit	-11.8828
▁lunged	-11.888
▁hut	-11.888
ounce	-11.8885
▁attempt	-11.8932
▁information	-11.8932
▁streak	-11.8932
▁chant	-11.8932
▁banner	-11.8984
▁system	-11.8984
▁undercover	-11.8984
▁erase	-11.8984
▁luna	-11.9036
▁sculpture	-11.9036
▁studio	-11.9036
▁main	-11.9036
▁campfire	-11.9037
covered	-11.9081
▁bolt	-11.9089
▁mailbox	-11.9089
▁slippery	-11.9089
▁patt	-11.9092
▁soak	-11.9122
▁pterodactyl	-11.9142
▁lick	-11.9142
0	-11.9576
1	-12.3954
2	-12.4215
3	-12.6479
5	-12.9264
9	-13.5289
q	-13.7686
8	-14.0851
*	-14.1828
7	-14.5504
4	-14.9015
6	-14.9015
)	-16.2305
(	-16.2305
+	-16.2305
