<unk>	0
<s>	0
</s>	0
<pad>	0
<0x00>	0
<0x01>	0
<0x02>	0
<0x03>	0
<0x04>	0
<0x05>	0
<0x06>	0
<0x07>	0
<0x08>	0
<0x09>	0
<0x0A>	0
<0x0B>	0
<0x0C>	0
<0x0D>	0
<0x0E>	0
<0x0F>	0
<0x10>	0
<0x11>	0
<0x12>	0
<0x13>	0
<0x14>	0
<0x15>	0
<0x16>	0
<0x17>	0
<0x18>	0
<0x19>	0
<0x1A>	0
<0x1B>	0
<0x1C>	0
<0x1D>	0
<0x1E>	0
<0x1F>	0
<0x20>	0
<0x21>	0
<0x22>	0
<0x23>	0
<0x24>	0
<0x25>	0
<0x26>	0
<0x27>	0
<0x28>	0
<0x29>	0
<0x2A>	0
<0x2B>	0
<0x2C>	0
<0x2D>	0
<0x2E>	0
<0x2F>	0
<0x30>	0
<0x31>	0
<0x32>	0
<0x33>	0
<0x34>	0
<0x35>	0
<0x36>	0
<0x37>	0
<0x38>	0
<0x39>	0
<0x3A>	0
<0x3B>	0
<0x3C>	0
<0x3D>	0
<0x3E>	0
<0x3F>	0
<0x40>	0
<0x41>	0
<0x42>	0
<0x43>	0
<0x44>	0
<0x45>	0
<0x46>	0
<0x47>	0
<0x48>	0
<0x49>	0
<0x4A>	0
<0x4B>	0
<0x4C>	0
<0x4D>	0
<0x4E>	0
<0x4F>	0
<0x50>	0
<0x51>	0
<0x52>	0
<0x53>	0
<0x54>	0
<0x55>	0
<0x56>	0
<0x57>	0
<0x58>	0
<0x59>	0
<0x5A>	0
<0x5B>	0
<0x5C>	0
<0x5D>	0
<0x5E>	0
<0x5F>	0
<0x60>	0
<0x61>	0
<0x62>	0
<0x63>	0
<0x64>	0
<0x65>	0
<0x66>	0
<0x67>	0
<0x68>	0
<0x69>	0
<0x6A>	0
<0x6B>	0
<0x6C>	0
<0x6D>	0
<0x6E>	0
<0x6F>	0
<0x70>	0
<0x71>	0
<0x72>	0
<0x73>	0
<0x74>	0
<0x75>	0
<0x76>	0
<0x77>	0
<0x78>	0
<0x79>	0
<0x7A>	0
<0x7B>	0
<0x7C>	0
<0x7D>	0
<0x7E>	0
<0x7F>	0
<0x80>	0
<0x81>	0
<0x82>	0
<0x83>	0
<0x84>	0
<0x85>	0
<0x86>	0
<0x87>	0
<0x88>	0
<0x89>	0
<0x8A>	0
<0x8B>	0
<0x8C>	0
<0x8D>	0
<0x8E>	0
<0x8F>	0
<0x90>	0
<0x91>	0
<0x92>	0
<0x93>	0
<0x94>	0
<0x95>	0
<0x96>	0
<0x97>	0
<0x98>	0
<0x99>	0
<0x9A>	0
<0x9B>	0
<0x9C>	0
<0x9D>	0
<0x9E>	0
<0x9F>	0
<0xA0>	0
<0xA1>	0
<0xA2>	0
<0xA3>	0
<0xA4>	0
<0xA5>	0
<0xA6>	0
<0xA7>	0
<0xA8>	0
<0xA9>	0
<0xAA>	0
<0xAB>	0
<0xAC>	0
<0xAD>	0
<0xAE>	0
<0xAF>	0
<0xB0>	0
<0xB1>	0
<0xB2>	0
<0xB3>	0
<0xB4>	0
<0xB5>	0
<0xB6>	0
<0xB7>	0
<0xB8>	0
<0xB9>	0
<0xBA>	0
<0xBB>	0
<0xBC>	0
<0xBD>	0
<0xBE>	0
<0xBF>	0
<0xC0>	0
<0xC1>	0
<0xC2>	0
<0xC3>	0
<0xC4>	0
<0xC5>	0
<0xC6>	0
<0xC7>	0
<0xC8>	0
<0xC9>	0
<0xCA>	0
<0xCB>	0
<0xCC>	0
<0xCD>	0
<0xCE>	0
<0xCF>	0
<0xD0>	0
<0xD1>	0
<0xD2>	0
<0xD3>	0
<0xD4>	0
<0xD5>	0
<0xD6>	0
<0xD7>	0
<0xD8>	0
<0xD9>	0
<0xDA>	0
<0xDB>	0
<0xDC>	0
<0xDD>	0
<0xDE>	0
<0xDF>	0
<0xE0>	0
<0xE1>	0
<0xE2>	0
<0xE3>	0
<0xE4>	0
<0xE5>	0
<0xE6>	0
<0xE7>	0
<0xE8>	0
<0xE9>	0
<0xEA>	0
<0xEB>	0
<0xEC>	0
<0xED>	0
<0xEE>	0
<0xEF>	0
<0xF0>	0
<0xF1>	0
<0xF2>	0
<0xF3>	0
<0xF4>	0
<0xF5>	0
<0xF6>	0
<0xF7>	0
<0xF8>	0
<0xF9>	0
<0xFA>	0
<0xFB>	0
<0xFC>	0
<0xFD>	0
<0xFE>	0
<0xFF>	0
.	-2.57583
,	-2.78333
▁the	-2.87999
▁a	-3.52849
▁and	-3.82461
▁to	-3.99635
▁he	-4.08298
▁she	-4.13357
▁they	-4.25904
▁"	-4.33126
▁of	-4.36867
▁her	-4.4473
▁in	-4.48089
▁it	-4.55829
▁was	-4.56198
▁with	-4.68668
▁but	-4.90364
▁that	-5.00999
▁his	-5.08369
▁felt	-5.09031
▁as	-5.10163
!"	-5.2486
▁had	-5.25211
▁their	-5.42251
s	-5.44566
▁for	-5.4753
'	-5.5437
▁said	-5.60987
▁on	-5.6778
▁one	-5.71675
▁him	-5.75208
▁heart	-5.79506
?"	-5.79949
▁you	-5.80462
▁could	-5.80865
"	-5.83633
▁i	-5.84984
▁not	-5.86002
▁found	-5.87181
▁at	-5.89619
▁like	-5.91413
▁day	-5.92813
▁together	-5.95389
!	-5.98353
▁them	-5.98849
▁girl	-6.06992
i	-6.07486
▁be	-6.09068
▁each	-6.10106
▁is	-6.12888
▁were	-6.13106
▁about	-6.13733
▁would	-6.15835
▁from	-6.16175
▁just	-6.17062
▁into	-6.18063
▁joy	-6.19266
▁boy	-6.19543
▁thought	-6.20764
▁mia	-6.20816
▁this	-6.2246
▁can	-6.23839
."	-6.24206
▁filled	-6.26281
▁up	-6.2687
▁leo	-6.27435
▁looked	-6.31024
▁back	-6.34131
▁friends	-6.34286
▁when	-6.35098
▁find	-6.4004
▁old	-6.40308
▁eyes	-6.40609
▁small	-6.42203
▁smiled	-6.42437
▁saw	-6.43156
▁feeling	-6.43794
▁asked	-6.45395
▁through	-6.45705
▁made	-6.46727
▁alex	-6.46809
▁all	-6.47673
▁bright	-6.47709
▁around	-6.48503
▁lost	-6.5022
▁named	-6.50291
▁light	-6.50758
▁wanted	-6.51282
▁treasure	-6.51986
▁time	-6.53923
▁help	-6.54445
▁began	-6.55375
▁stars	-6.55762
▁sky	-6.55908
▁by	-6.56201
▁stories	-6.56392
▁world	-6.57001
▁out	-6.58251
▁kim	-6.58262
▁night	-6.59559
▁if	-6.59978
▁inside	-6.6025
ing	-6.61713
▁samuel	-6.62348
▁dreams	-6.63477
▁what	-6.64562
▁learned	-6.6676
what	-6.66991
▁suddenly	-6.68249
▁big	-6.69787
▁love	-6.70266
▁laughter	-6.70873
▁its	-6.7202
▁shared	-6.7319
▁who	-6.73258
▁new	-6.74107
▁will	-6.74134
▁air	-6.74767
▁an	-6.74937
▁we	-6.74958
▁realized	-6.75652
▁more	-6.76763
▁laughed	-6.78258
▁magic	-6.78259
?	-6.79879
▁sun	-6.80038
▁decided	-6.80906
▁friend	-6.83081
▁something	-6.83146
you	-6.83569
▁then	-6.86316
▁took	-6.87627
▁are	-6.87998
▁knew	-6.8863
▁my	-6.88912
▁danced	-6.90416
▁there	-6.91784
▁dark	-6.91788
▁home	-6.92064
▁down	-6.92193
▁every	-6.92687
▁tree	-6.9274
▁people	-6.93202
▁flowers	-6.94062
▁away	-6.94547
▁see	-6.95185
▁walked	-6.95271
▁did	-6.96854
▁where	-6.97602
▁hope	-6.97691
▁again	-6.97724
▁moment	-6.97908
▁everyone	-6.97976
▁garden	-6.99894
▁turned	-7.00703
▁me	-7.00773
▁strange	-7.00806
▁man	-7.03651
▁now	-7.03762
▁rita	-7.04288
▁hidden	-7.04363
▁deep	-7.04484
▁stood	-7.04955
ed	-7.0514
▁other	-7.05641
▁over	-7.06239
▁do	-7.0636
▁sat	-7.0654
▁even	-7.06864
▁how	-7.08165
▁have	-7.08569
▁adventure	-7.0955
▁lily	-7.10519
▁way	-7.11015
▁place	-7.1291
t	-7.13502
▁happy	-7.13681
▁shouted	-7.13981
▁full	-7.14185
▁loved	-7.15284
▁brave	-7.16119
▁little	-7.16251
▁map	-7.1626
▁came	-7.1648
▁knowing	-7.17919
▁water	-7.1794
▁colors	-7.18135
▁told	-7.19024
▁voice	-7.20496
▁trees	-7.20609
▁make	-7.2101
▁others	-7.21104
▁always	-7.21155
▁story	-7.21483
▁fun	-7.22019
▁life	-7.22823
▁forest	-7.23821
▁no	-7.24085
▁so	-7.24973
▁after	-7.2501
▁under	-7.25368
▁whispered	-7.25803
▁city	-7.2641
▁share	-7.26897
▁shadows	-7.26937
▁too	-7.26996
▁alone	-7.27688
▁reached	-7.27823
▁watched	-7.28141
▁own	-7.30388
we	-7.30564
▁opened	-7.31272
▁held	-7.32198
▁set	-7.32262
▁beautiful	-7.32454
▁door	-7.33524
▁soon	-7.33529
▁fear	-7.33602
▁than	-7.3419
▁alice	-7.34746
▁cave	-7.35332
▁while	-7.36537
▁stone	-7.36631
▁remembered	-7.38346
▁must	-7.3891
▁village	-7.39166
▁jose	-7.39635
▁go	-7.39793
▁sad	-7.39804
▁heard	-7.40303
▁hard	-7.40873
▁ran	-7.41323
▁maria	-7.41456
▁true	-7.41559
▁your	-7.4277
;	-7.42924
▁star	-7.43324
▁sharing	-7.43914
▁smile	-7.43939
▁ready	-7.43959
▁many	-7.43977
▁want	-7.44853
▁friendship	-7.44854
▁grew	-7.45727
▁finally	-7.46176
▁tall	-7.46226
▁come	-7.46569
▁wind	-7.46604
▁jean	-7.4703
▁room	-7.47443
▁both	-7.49151
▁lena	-7.49298
▁giant	-7.49505
▁stepped	-7.49533
▁played	-7.49573
▁nodded	-7.49598
▁never	-7.50696
▁only	-7.5074
▁breath	-7.50915
▁became	-7.51126
▁soft	-7.51278
▁cheered	-7.51347
this	-7.51484
▁once	-7.51522
▁spoke	-7.51985
▁excited	-7.52167
▁excitement	-7.522
let	-7.52865
▁feel	-7.52989
▁curious	-7.53212
▁warm	-7.53988
▁special	-7.54921
▁gathered	-7.55561
▁best	-7.5583
▁replied	-7.56022
▁noticed	-7.56253
▁emmanuel	-7.56554
▁woman	-7.57334
▁words	-7.57345
▁fish	-7.57519
▁strong	-7.57767
▁hand	-7.58002
▁behind	-7.58029
▁face	-7.58089
▁days	-7.5884
▁long	-7.59036
▁warmth	-7.59101
▁clouds	-7.59713
▁flew	-7.59779
▁returned	-7.59787
▁wish	-7.60044
▁proud	-7.60157
▁past	-7.60331
▁young	-7.60658
▁dream	-7.61395
▁softly	-7.6142
▁path	-7.61525
-	-7.62358
▁ground	-7.62542
▁closer	-7.63495
▁seemed	-7.64375
▁storm	-7.64437
▁bring	-7.64465
▁before	-7.64809
▁flower	-7.64892
▁still	-7.65182
▁sparkled	-7.65199
▁bird	-7.65497
▁tiny	-7.66513
▁power	-7.66604
▁play	-7.66958
▁book	-7.67359
▁hearts	-7.67362
▁great	-7.67635
▁take	-7.67973
▁above	-7.68105
▁next	-7.6813
▁town	-7.68506
▁heavy	-7.6872
▁change	-7.69646
▁memories	-7.6981
▁family	-7.6989
▁called	-7.70337
▁listened	-7.70969
▁fell	-7.71155
▁ship	-7.71322
▁raced	-7.72121
▁looking	-7.72155
▁being	-7.72726
▁worked	-7.72944
▁step	-7.7434
▁first	-7.74427
▁off	-7.74459
▁alive	-7.76317
▁magical	-7.76423
▁courage	-7.76495
▁also	-7.76603
▁here	-7.76686
▁outside	-7.767
▁promised	-7.77087
▁appeared	-7.77113
▁things	-7.77922
▁himself	-7.78044
▁need	-7.78208
▁am	-7.78581
▁wise	-7.78581
▁instead	-7.79004
▁secrets	-7.79077
▁dragon	-7.79457
▁journey	-7.79566
n	-7.79985
▁work	-7.80319
▁met	-7.80379
▁glowing	-7.80579
▁anne	-7.80711
▁mind	-7.80993
▁peter	-7.8106
▁dance	-7.81095
▁brought	-7.81283
▁secret	-7.82032
▁land	-7.82054
▁laughing	-7.82294
▁herself	-7.82366
▁yet	-7.82529
▁happiness	-7.82712
▁us	-7.83043
▁shiny	-7.83754
▁passed	-7.84318
▁kindness	-7.84679
▁left	-7.84882
▁slowly	-7.84977
▁colorful	-7.85106
▁gold	-7.85282
▁high	-7.85285
▁box	-7.85357
▁wondered	-7.85813
▁end	-7.86075
▁real	-7.86408
▁showed	-7.8646
▁sea	-7.86911
▁creature	-7.86978
▁hands	-7.87934
▁shining	-7.8824
▁started	-7.88434
▁game	-7.88758
▁scared	-7.89159
▁thinking	-7.8939
▁robot	-7.89646
▁adventures	-7.89866
▁understood	-7.90035
▁some	-7.90192
▁last	-7.91411
▁free	-7.92226
▁wide	-7.92266
▁or	-7.92554
▁key	-7.92569
▁let	-7.92935
▁our	-7.93099
▁quiet	-7.9329
▁picked	-7.9346
▁group	-7.93893
▁spirit	-7.94391
▁letter	-7.94669
▁making	-7.94799
▁climbed	-7.94999
▁part	-7.95207
▁show	-7.9543
▁river	-7.95954
▁lived	-7.96343
▁wrote	-7.97527
▁island	-7.97549
why	-7.9762
▁keep	-7.9794
▁park	-7.98344
▁different	-7.98777
▁truth	-7.98942
▁weight	-7.9937
▁followed	-7.99941
▁tales	-8.0041
▁tell	-8.01213
▁discovered	-8.01221
▁plan	-8.01468
▁explore	-8.01695
▁know	-8.019
▁waves	-8.01927
▁owl	-8.02147
▁join	-8.02385
▁rock	-8.0311
▁children	-8.03563
▁figure	-8.046
▁jumped	-8.05048
▁sweet	-8.05209
▁far	-8.05278
▁open	-8.05434
▁creatures	-8.05739
it	-8.05785
▁snow	-8.05884
▁led	-8.05888
▁went	-8.0598
▁leaves	-8.06418
▁strength	-8.06465
▁been	-8.06495
▁sound	-8.06725
▁better	-8.07193
▁trust	-8.07664
▁everything	-8.0787
▁waiting	-8.07923
▁turtle	-8.08952
▁brighter	-8.091
▁beauty	-8.0913
▁spark	-8.0926
▁rain	-8.09328
▁kind	-8.09444
▁sang	-8.10011
▁those	-8.10119
▁child	-8.10371
▁kids	-8.10796
▁wished	-8.10983
▁create	-8.11178
▁among	-8.11214
▁closed	-8.11259
▁music	-8.11382
▁sometimes	-8.11691
▁often	-8.1284
▁grow	-8.12847
▁cold	-8.12954
▁think	-8.13073
▁ever	-8.1405
▁moved	-8.14154
:	-8.14174
▁fox	-8.14448
▁rabbit	-8.15304
▁flying	-8.15641
▁sadness	-8.16153
▁deeper	-8.16352
▁shadow	-8.16666
▁food	-8.16684
▁without	-8.1692
▁shone	-8.17173
▁remember	-8.17251
▁needed	-8.17442
▁surprise	-8.17496
▁chest	-8.17535
▁echoed	-8.17776
▁helped	-8.18077
▁glow	-8.18603
▁exclaimed	-8.18831
▁animals	-8.19129
▁wonder	-8.19165
▁space	-8.2017
▁castle	-8.20489
▁read	-8.20547
▁loud	-8.2083
▁another	-8.2085
▁dreamed	-8.21126
▁cat	-8.21238
▁quickly	-8.21549
▁funny	-8.21586
▁faded	-8.21833
▁toward	-8.21962
▁playing	-8.21978
▁lay	-8.22215
▁agreed	-8.22874
▁fly	-8.23181
▁good	-8.23413
▁near	-8.23503
▁swam	-8.23741
▁woods	-8.23979
▁darkness	-8.24091
▁across	-8.2428
▁look	-8.24578
▁close	-8.24691
▁watching	-8.25402
▁forever	-8.25508
▁alien	-8.25562
▁lights	-8.25566
▁glowed	-8.25663
▁mother	-8.25683
▁beneath	-8.25879
▁approached	-8.2591
▁floated	-8.26131
▁return	-8.26544
▁landed	-8.26716
▁stronger	-8.26843
▁moon	-8.26948
▁searched	-8.27112
▁father	-8.27304
▁fairy	-8.27675
▁blue	-8.27819
▁walls	-8.28065
▁spotted	-8.28319
▁silly	-8.28405
▁ocean	-8.28656
▁brightly	-8.2902
▁gasped	-8.29302
▁should	-8.29414
▁treasures	-8.29861
▁someone	-8.299
▁racing	-8.29912
▁gentle	-8.29998
▁luis	-8.30101
▁today	-8.30264
▁changed	-8.3103
▁idea	-8.31213
▁tried	-8.32423
▁seen	-8.32659
look	-8.32668
▁bond	-8.32911
but	-8.33317
▁stones	-8.33392
▁helping	-8.33429
▁forward	-8.33627
▁hero	-8.34821
▁within	-8.34892
can	-8.35123
▁hoping	-8.35177
▁gently	-8.35801
▁trying	-8.35849
▁hill	-8.36056
▁empty	-8.3608
▁art	-8.36279
▁sparkling	-8.36392
▁dinosaur	-8.36618
▁whispers	-8.36878
▁boat	-8.37279
▁painted	-8.37318
▁kingdom	-8.37549
▁lonely	-8.37597
▁imagined	-8.37913
▁upon	-8.38192
▁wandered	-8.38645
▁built	-8.38722
▁right	-8.38967
▁searching	-8.39181
▁house	-8.39286
▁pull	-8.39366
▁thank	-8.39386
▁faced	-8.3985
▁crew	-8.40037
▁arrived	-8.40086
▁dog	-8.40165
▁against	-8.40295
▁leader	-8.40571
▁joined	-8.40974
▁villagers	-8.41018
▁waved	-8.41167
▁pulled	-8.41228
▁	-8.41458
▁hear	-8.41711
▁lead	-8.41855
▁laugh	-8.42154
maybe	-8.42466
▁leaving	-8.42853
▁morning	-8.43562
▁side	-8.43645
thank	-8.43775
yes	-8.43948
▁safe	-8.4399
▁along	-8.44073
▁school	-8.44253
▁covered	-8.45261
▁two	-8.45461
▁leave	-8.45649
▁fast	-8.45728
▁cried	-8.46077
▁wave	-8.46254
▁mirror	-8.46303
▁nearby	-8.46472
▁king	-8.46563
▁race	-8.46688
▁below	-8.47217
▁grass	-8.47318
▁stopped	-8.47667
▁team	-8.4773
▁games	-8.47846
▁pushed	-8.4799
▁festival	-8.48098
▁realiz	-8.48734
▁crowd	-8.48898
▁evening	-8.49127
▁care	-8.49274
▁shook	-8.49319
▁head	-8.49517
▁got	-8.49967
▁crystal	-8.50048
▁cloud	-8.50153
▁breeze	-8.50211
▁much	-8.51034
▁rushed	-8.51261
a	-8.51334
▁give	-8.51478
▁window	-8.51493
▁piece	-8.51632
▁created	-8.52137
▁fears	-8.523
▁wings	-8.52353
▁any	-8.52411
▁smiling	-8.53055
▁letters	-8.53825
▁believed	-8.5384
▁gone	-8.54183
▁kept	-8.54295
▁dancing	-8.54351
▁stumbled	-8.54351
▁thick	-8.54402
▁might	-8.54718
▁twinkled	-8.55027
▁rush	-8.5548
▁sunny	-8.55493
▁ball	-8.55595
▁edge	-8.55652
▁surprised	-8.55697
▁wishes	-8.56045
▁believe	-8.56175
▁used	-8.56265
▁worried	-8.56269
▁golden	-8.56271
▁lit	-8.56574
▁dreaming	-8.56672
▁sense	-8.57209
▁silence	-8.57367
▁holding	-8.57609
▁shine	-8.58253
▁turn	-8.58922
the	-8.59101
▁jester	-8.59846
▁talked	-8.59966
▁curiosity	-8.60122
▁dusty	-8.60343
▁learn	-8.60345
▁fire	-8.60841
▁pirate	-8.61004
▁carefully	-8.61061
▁birds	-8.62054
▁connection	-8.62071
▁sitting	-8.62136
▁painting	-8.62377
▁brother	-8.6278
if	-8.63459
▁sounds	-8.64067
▁shore	-8.64092
▁faces	-8.64234
▁stay	-8.64829
▁build	-8.65158
▁inspired	-8.65247
▁song	-8.65288
▁moments	-8.65321
▁anything	-8.65557
▁future	-8.66367
▁very	-8.66416
▁knight	-8.66597
▁tale	-8.66639
▁top	-8.66917
▁sand	-8.67531
▁beside	-8.67559
▁riddle	-8.67596
▁caught	-8.6779
▁follow	-8.68024
▁cool	-8.68446
▁memory	-8.68475
▁gift	-8.68886
▁ideas	-8.69227
▁spent	-8.69228
▁closely	-8.69683
▁get	-8.69712
▁wrong	-8.6988
▁grandmother	-8.7001
▁smiles	-8.70102
▁thoughts	-8.70312
▁candy	-8.70337
▁earth	-8.70397
▁places	-8.70499
▁try	-8.70511
▁grabbed	-8.706
m	-8.70686
▁maybe	-8.70828
▁mountain	-8.70897
▁hold	-8.70983
▁later	-8.71018
▁important	-8.71171
▁planet	-8.71212
▁seek	-8.71473
▁amazing	-8.71866
▁has	-8.72279
▁pain	-8.72465
▁ancient	-8.72525
▁red	-8.72871
▁beach	-8.72972
▁finding	-8.73082
▁tears	-8.7347
▁filling	-8.73585
▁rocks	-8.73701
▁everywhere	-8.73736
▁longer	-8.73772
▁hours	-8.73898
▁quietly	-8.74018
▁between	-8.74329
▁year	-8.74745
do	-8.74807
▁determined	-8.74991
▁songs	-8.75096
▁creating	-8.75105
▁spread	-8.75535
▁years	-8.75835
▁rolled	-8.76266
▁broken	-8.7629
▁ago	-8.7658
▁bear	-8.76856
▁suggested	-8.77238
▁carry	-8.77308
▁remind	-8.77311
▁amazed	-8.7773
▁party	-8.77766
▁touched	-8.77894
▁gave	-8.78014
▁clock	-8.78059
▁win	-8.78189
▁confused	-8.78321
▁toy	-8.78946
▁reach	-8.79064
▁note	-8.79741
▁bloomed	-8.79933
▁understanding	-8.79981
▁kite	-8.80118
▁pointed	-8.80177
▁green	-8.80228
▁peace	-8.80716
▁lighter	-8.80994
▁shell	-8.81209
is	-8.81863
▁yelled	-8.81888
▁weeks	-8.82324
▁afraid	-8.8238
▁running	-8.82454
▁tightly	-8.82907
▁surrounded	-8.82956
▁corner	-8.83417
▁ghost	-8.83453
▁forgotten	-8.8367
▁feels	-8.83826
▁explored	-8.83893
▁entered	-8.84119
▁same	-8.84121
▁known	-8.84289
▁name	-8.84615
▁toys	-8.84727
▁mix	-8.85055
▁noise	-8.85209
▁sister	-8.85541
▁loss	-8.85611
▁continued	-8.8569
▁taking	-8.85816
▁run	-8.85925
▁chance	-8.86208
▁valley	-8.86594
▁write	-8.8682
▁rainbow	-8.87034
▁blew	-8.87178
▁shimmered	-8.87272
▁explained	-8.87494
▁clever	-8.87731
▁soared	-8.87748
▁invited	-8.87751
▁nervous	-8.87916
▁shimmering	-8.87983
▁comes	-8.88412
▁paint	-8.88495
▁fall	-8.88521
▁taught	-8.88532
▁ahead	-8.88663
▁fade	-8.88804
▁distance	-8.89243
▁thrill	-8.8942
▁revealing	-8.89617
▁reminder	-8.89774
▁mean	-8.89934
▁finished	-8.90237
▁friendly	-8.90357
▁mountains	-8.90504
▁teamwork	-8.90653
▁field	-8.90923
▁bridge	-8.91196
▁fight	-8.91978
ly	-8.92417
▁watch	-8.92484
▁energy	-8.92518
▁stared	-8.92627
▁until	-8.92736
▁explorer	-8.9278
▁going	-8.9297
▁invisible	-8.92983
▁these	-8.92999
▁eager	-8.9327
▁lives	-8.93298
▁use	-8.93317
▁missed	-8.93337
▁queen	-8.9374
▁trapped	-8.93839
▁streets	-8.93878
▁talk	-8.94049
▁planned	-8.94143
▁pond	-8.94147
▁wonders	-8.94158
▁seeds	-8.94183
▁favorite	-8.94419
▁showing	-8.94583
▁hurt	-8.9485
▁don	-8.95023
▁squirrel	-8.95024
▁catch	-8.95058
▁wisdom	-8.95285
▁listen	-8.95309
▁choice	-8.95475
▁butterfly	-8.95481
▁tired	-8.9579
▁pirates	-8.95918
▁exploring	-8.96583
▁attic	-8.97068
▁times	-8.97527
▁sighed	-8.97606
▁goodbye	-8.97645
▁lesson	-8.97933
▁working	-8.98044
▁say	-8.98175
▁onto	-8.98223
▁woke	-8.98349
▁wild	-8.98491
▁higher	-8.98604
▁chill	-8.98636
▁wore	-8.98651
▁meet	-8.98729
▁jewels	-8.98759
▁lake	-8.99185
▁touch	-8.99389
▁giggled	-8.99631
▁understand	-8.99788
▁dust	-8.99874
▁plants	-8.99996
▁spot	-9.00096
▁grateful	-9.00099
▁reminded	-9.00132
▁placed	-9.0042
▁sing	-9.00725
▁nothing	-9.00732
▁feet	-9.00762
▁stop	-9.00901
▁matter	-9.00961
▁move	-9.01186
▁wall	-9.0162
that	-9.01782
▁enchanted	-9.01865
▁rose	-9.02098
▁promise	-9.0239
▁enough	-9.02526
▁table	-9.02957
▁broke	-9.02999
▁person	-9.0319
▁busy	-9.03527
▁meant	-9.03742
▁transformed	-9.03899
▁sunlight	-9.0402
▁save	-9.0425
▁doubt	-9.04323
▁captain	-9.04845
▁most	-9.04955
▁because	-9.05034
▁put	-9.05246
▁paper	-9.05254
▁telling	-9.05719
▁answer	-9.06033
▁bravery	-9.0606
▁aliens	-9.06076
▁coming	-9.06119
▁calm	-9.06162
▁really	-9.06355
▁act	-9.06408
▁cannot	-9.06408
▁declared	-9.0684
▁singing	-9.06983
▁flickered	-9.07331
▁hugged	-9.07409
▁winter	-9.07505
▁stuck	-9.08331
▁fill	-9.08464
▁branches	-9.08524
▁clear	-9.0864
▁visit	-9.08935
▁fierce	-9.09605
▁arms	-9.09611
▁echoing	-9.09886
▁spaceship	-9.10166
▁guide	-9.10254
▁library	-9.10431
▁silver	-9.10463
▁rocket	-9.1069
oh	-9.11163
▁plant	-9.11204
▁gather	-9.11761
▁perfect	-9.12229
▁danger	-9.12414
▁coins	-9.12823
▁well	-9.13109
▁happened	-9.13173
▁mission	-9.13254
▁drawn	-9.13336
▁growing	-9.13341
▁sailed	-9.13388
▁hat	-9.13444
▁bloom	-9.13608
▁however	-9.14308
▁anyone	-9.14466
▁flash	-9.14472
▁dinosaurs	-9.14577
▁powerful	-9.14672
▁celebrated	-9.14673
▁color	-9.1473
▁low	-9.15133
▁climb	-9.15384
where	-9.15401
▁saying	-9.1561
▁happily	-9.16071
▁hesitated	-9.16487
▁hide	-9.16593
▁hiding	-9.1686
▁pressed	-9.16874
▁talking	-9.16967
▁shape	-9.16988
▁simple	-9.17005
▁moonlight	-9.17114
▁anger	-9.17534
▁whisper	-9.17563
▁ice	-9.17719
▁why	-9.17782
▁feather	-9.18054
▁challenge	-9.18115
▁moving	-9.18236
▁beyond	-9.18271
▁hills	-9.18326
▁crept	-9.1866
▁eagerly	-9.18677
▁hung	-9.18867
▁gem	-9.18942
▁crown	-9.19022
▁burst	-9.19094
no	-9.19095
▁traveled	-9.19314
▁search	-9.19437
▁worlds	-9.1965
▁worry	-9.19738
▁does	-9.19812
▁frog	-9.19858
▁prince	-9.2005
▁distant	-9.2016
▁carried	-9.20268
▁offered	-9.20386
▁paused	-9.20485
▁revenge	-9.21318
▁fog	-9.21662
▁twisted	-9.21672
▁grand	-9.22011
▁remembering	-9.22173
▁rivers	-9.222
▁lies	-9.22201
▁hit	-9.22208
▁wonderful	-9.2233
▁shapes	-9.22536
▁fought	-9.22563
▁though	-9.22706
▁teacher	-9.22765
▁guiding	-9.22858
▁word	-9.22874
▁afternoon	-9.22874
d	-9.22925
▁taken	-9.2294
▁nature	-9.23118
▁greatest	-9.23316
▁waited	-9.23401
▁unsure	-9.23489
▁books	-9.23494
▁honesty	-9.23643
▁traveler	-9.23696
▁building	-9.23709
▁center	-9.23712
▁protect	-9.24124
▁dug	-9.2416
▁believing	-9.24423
how	-9.24806
▁walking	-9.25016
▁lifted	-9.25105
▁leading	-9.25181
▁won	-9.25214
▁universe	-9.25214
▁large	-9.25288
▁clapped	-9.25328
▁haunted	-9.25332
▁truly	-9.26127
▁cake	-9.26311
▁few	-9.26391
▁monster	-9.26465
▁slipped	-9.26471
▁may	-9.26582
▁swirled	-9.26632
▁mouse	-9.26701
▁sorrow	-9.27136
▁become	-9.27419
▁car	-9.27572
▁trick	-9.27945
▁packed	-9.27945
▁winds	-9.28311
▁tower	-9.28558
▁hopes	-9.28593
hello	-9.28618
wow	-9.28751
▁smell	-9.28796
▁flowed	-9.28953
▁saved	-9.29046
▁cookies	-9.29093
▁escape	-9.29141
▁voices	-9.29444
▁welcomed	-9.29468
▁tight	-9.29567
▁imagination	-9.29711
▁heroes	-9.29865
▁plans	-9.30019
▁vanished	-9.3015
▁ended	-9.30185
▁machine	-9.30229
▁using	-9.30244
▁fix	-9.30275
who	-9.30409
▁symbol	-9.30549
▁shy	-9.30643
▁snowman	-9.30859
▁feelings	-9.30898
▁balloon	-9.31193
▁themselves	-9.31259
▁surface	-9.31531
▁start	-9.31939
they	-9.32295
▁which	-9.32311
▁dawn	-9.32386
▁forgot	-9.32444
▁eye	-9.32504
▁lift	-9.32517
▁bit	-9.3256
▁spring	-9.32758
lmost	-9.32951
▁roared	-9.33134
▁bigger	-9.33292
▁absence	-9.33454
▁break	-9.33799
▁careful	-9.33936
▁rise	-9.34058
▁front	-9.34072
▁freedom	-9.34282
▁blanket	-9.34557
▁standing	-9.34571
▁sought	-9.34694
▁calling	-9.34846
▁paths	-9.34946
▁biggest	-9.35028
▁warned	-9.35287
▁done	-9.35702
▁wash	-9.36303
▁fingers	-9.3634
▁silent	-9.36486
▁belonged	-9.3668
▁crossed	-9.37209
▁chaos	-9.3765
▁wishing	-9.38011
▁giving	-9.38037
▁late	-9.38279
help	-9.38354
▁whispering	-9.38373
▁robots	-9.38633
▁joyful	-9.38678
▁line	-9.38723
▁celebration	-9.38863
re	-9.3903
▁knowledge	-9.39031
▁pages	-9.39189
▁butterflies	-9.39597
▁added	-9.39771
▁vibrant	-9.39816
▁quick	-9.39843
▁determination	-9.39904
▁loudly	-9.39947
▁howled	-9.40042
▁bench	-9.40298
▁forget	-9.40553
▁cruel	-9.40607
▁celebrate	-9.40641
▁brings	-9.40756
▁vines	-9.40902
▁pearl	-9.41065
▁crashed	-9.41196
▁canvas	-9.41315
▁pounding	-9.4181
▁gathering	-9.42051
▁snacks	-9.4211
▁prepared	-9.42256
▁creativity	-9.42344
▁street	-9.42636
▁ways	-9.42663
▁poured	-9.42755
▁sank	-9.42839
▁angry	-9.42929
▁fields	-9.43062
▁picture	-9.43272
▁dirt	-9.43877
▁spirits	-9.44285
▁speak	-9.44292
welcome	-9.44363
▁bag	-9.4437
▁sign	-9.44374
▁staring	-9.4442
▁vast	-9.44431
▁remained	-9.44634
▁happen	-9.45214
▁pictures	-9.45375
▁faster	-9.45409
▁okay	-9.45457
▁having	-9.45585
▁stayed	-9.45638
▁embrace	-9.45668
▁challenges	-9.4573
▁grant	-9.45829
▁doing	-9.46025
▁s	-9.46438
▁scary	-9.4647
▁presence	-9.46564
▁drawing	-9.46664
▁tricks	-9.46751
▁creaked	-9.4676
▁spun	-9.46939
▁huge	-9.47223
▁dear	-9.47274
to	-9.4757
▁thing	-9.47602
▁fluffy	-9.47837
▁compass	-9.48264
▁summer	-9.48456
▁drew	-9.48934
▁else	-9.49019
▁pointing	-9.49128
▁makes	-9.49269
▁quest	-9.49614
come	-9.49617
▁walk	-9.49637
▁looks	-9.49653
▁frowned	-9.49674
▁gazed	-9.49853
▁hid	-9.49889
▁fresh	-9.49995
▁betrayal	-9.49995
▁feast	-9.50258
▁wrapped	-9.50322
▁ride	-9.50425
▁ruins	-9.50723
▁orange	-9.50835
▁society	-9.50969
▁missing	-9.51086
▁loomed	-9.51168
▁fruit	-9.51272
▁backyard	-9.51313
▁buried	-9.51418
▁ask	-9.51455
▁formed	-9.51859
▁worth	-9.51954
▁grinned	-9.52152
▁pride	-9.52399
▁branch	-9.52448
▁casting	-9.52546
▁shells	-9.52781
▁lantern	-9.52869
▁pulling	-9.52914
▁twist	-9.53145
▁honest	-9.53379
▁learning	-9.53435
▁hoped	-9.53546
▁chase	-9.53938
▁liked	-9.53976
▁turning	-9.54145
now	-9.54175
▁call	-9.5423
▁chose	-9.54568
▁clearing	-9.54821
▁reaching	-9.55352
▁planted	-9.55663
▁son	-9.55733
▁snowy	-9.55756
▁circle	-9.55756
▁swirling	-9.55776
▁hopped	-9.55835
▁shaking	-9.55938
▁answers	-9.56438
▁choices	-9.56621
▁asking	-9.56675
▁discover	-9.56747
▁grin	-9.57011
▁oak	-9.57024
▁bad	-9.57115
▁wait	-9.57242
▁floating	-9.5726
and	-9.57425
during	-9.57441
▁hair	-9.57442
▁self	-9.57782
▁puppy	-9.5807
▁tradition	-9.58172
▁stream	-9.58273
▁solve	-9.5864
▁ones	-9.58784
▁mom	-9.58862
▁final	-9.59273
▁emerged	-9.59287
▁bushes	-9.5934
▁twirled	-9.59359
▁diamonds	-9.59406
▁mist	-9.59815
▁clues	-9.60161
▁lessons	-9.60617
▁tail	-9.60845
▁lose	-9.60883
▁inviting	-9.60895
▁peeked	-9.60905
▁enjoyed	-9.60922
▁following	-9.61071
▁connected	-9.61385
▁roots	-9.6175
▁fair	-9.61907
▁swim	-9.62046
▁splashed	-9.62058
▁apart	-9.62146
▁fading	-9.62201
▁meeting	-9.62243
▁winning	-9.62257
▁symbols	-9.62405
will	-9.62453
▁control	-9.62486
▁whole	-9.62493
▁bike	-9.62653
▁thief	-9.62751
▁seeing	-9.62761
▁shown	-9.6319
▁chuckled	-9.63193
▁button	-9.63319
▁floor	-9.63358
▁sent	-9.63359
▁flicker	-9.63488
▁sit	-9.63798
ever	-9.64308
▁panic	-9.64473
▁imagining	-9.64473
▁jump	-9.64763
▁mixed	-9.64832
▁visited	-9.6496
▁chased	-9.6499
▁louder	-9.65332
▁difference	-9.65512
▁excitedly	-9.65543
▁unknown	-9.656
▁bed	-9.65618
▁purpose	-9.65827
▁seed	-9.66062
▁drifted	-9.66476
▁cozy	-9.66511
▁beginning	-9.66541
▁drawings	-9.66633
▁practiced	-9.67321
▁enjoying	-9.67506
▁coin	-9.67638
▁heal	-9.67666
▁brush	-9.67672
▁push	-9.67672
▁enjoy	-9.67673
▁beast	-9.68162
dear	-9.6818
▁market	-9.6822
▁prove	-9.68381
▁draw	-9.68802
▁hole	-9.68807
▁finish	-9.69015
▁white	-9.69177
▁choose	-9.69179
▁trembling	-9.69353
▁sight	-9.69737
▁view	-9.69928
▁hunt	-9.70539
▁intrigued	-9.70895
▁fruits	-9.70938
▁tools	-9.71019
▁itself	-9.71314
▁beat	-9.71438
▁yourself	-9.71494
are	-9.71566
▁teach	-9.71598
▁kitchen	-9.71796
▁failure	-9.7185
found	-9.71954
▁turns	-9.71972
▁struck	-9.72582
▁twinkle	-9.72629
▁focused	-9.72671
▁yard	-9.72887
▁tug	-9.7307
▁sunset	-9.73192
▁travel	-9.7383
▁bottle	-9.73993
▁unexpected	-9.74162
▁fairies	-9.74299
▁pink	-9.74427
▁splash	-9.74636
▁blinked	-9.74895
▁eat	-9.75292
▁daughter	-9.75605
▁course	-9.75606
▁storms	-9.75627
▁lovely	-9.75762
▁glass	-9.7617
ll	-9.76264
▁listening	-9.76471
▁rang	-9.76483
▁week	-9.76946
▁three	-9.77059
▁reflection	-9.77073
▁washed	-9.77123
▁clothes	-9.77375
▁trouble	-9.77384
▁class	-9.77565
▁admired	-9.77646
▁knelt	-9.77694
▁awe	-9.77819
▁worries	-9.77822
▁wanting	-9.78041
▁falling	-9.78085
▁gifts	-9.78133
▁playful	-9.7826
▁mysterious	-9.78451
▁happening	-9.78522
▁says	-9.78582
▁page	-9.78618
▁aloud	-9.79176
▁responsibility	-9.79176
▁shop	-9.79332
▁planets	-9.79527
▁guardian	-9.7966
▁greed	-9.79757
▁pile	-9.79781
▁superhero	-9.79826
▁sharp	-9.80269
▁skies	-9.80549
▁live	-9.80757
▁stand	-9.8078
▁longing	-9.80785
▁sword	-9.80913
▁witch	-9.81142
▁problem	-9.81245
▁spell	-9.81245
▁leaf	-9.81336
your	-9.81378
▁gray	-9.81474
▁crash	-9.81519
▁rusty	-9.81674
▁net	-9.81912
▁pieces	-9.81913
▁octopus	-9.81939
▁digging	-9.82007
▁princess	-9.82009
▁swayed	-9.82103
▁artist	-9.82669
▁stroke	-9.82672
▁shake	-9.82881
▁nights	-9.82898
▁fighting	-9.82941
▁holds	-9.83111
▁sail	-9.83175
y	-9.83199
▁yes	-9.83239
▁chirped	-9.83425
▁meadow	-9.836
▁rainy	-9.83788
▁harder	-9.83797
▁honor	-9.83945
▁cheer	-9.83996
▁skin	-9.84033
▁mystery	-9.84099
▁hopeful	-9.84173
▁sure	-9.84295
▁encouraged	-9.84441
▁belong	-9.8452
▁poet	-9.84577
▁independence	-9.84853
▁battle	-9.85588
▁leaned	-9.85629
▁glimmered	-9.85662
▁petals	-9.85744
▁losing	-9.85818
▁fort	-9.85982
▁message	-9.86016
▁worn	-9.86027
▁wood	-9.86087
▁ears	-9.86113
▁entrance	-9.86225
▁gems	-9.86378
▁test	-9.86427
▁chasing	-9.86515
▁steps	-9.86662
▁anymore	-9.86796
▁mess	-9.8682
just	-9.86982
▁pocket	-9.87068
▁smelled	-9.87299
▁lands	-9.87516
▁roar	-9.87769
▁project	-9.87989
▁swimming	-9.88063
▁twinkling	-9.88063
▁lingered	-9.88146
▁seeking	-9.88357
▁middle	-9.8849
▁cover	-9.88629
▁bush	-9.88769
▁tomorrow	-9.8885
▁horizon	-9.89062
▁taste	-9.89269
▁swirl	-9.89275
▁perhaps	-9.8928
▁notes	-9.89404
▁clean	-9.89471
▁given	-9.89655
▁marked	-9.89671
▁facing	-9.89781
▁pushing	-9.89875
▁revealed	-9.89906
▁belonging	-9.90067
▁wolf	-9.9007
▁coral	-9.90149
▁chocolate	-9.9036
▁picnic	-9.90367
▁wizard	-9.9044
▁living	-9.90578
▁trap	-9.91061
▁widened	-9.91097
▁hungry	-9.91676
▁rode	-9.91749
▁reading	-9.91752
▁support	-9.91883
▁failed	-9.91947
▁echoes	-9.91971
▁weak	-9.92247
these	-9.92248
▁feared	-9.92296
▁questions	-9.9255
▁bread	-9.92636
▁smart	-9.92773
▁nice	-9.92844
▁fallen	-9.93159
▁send	-9.93209
▁surprises	-9.9332
▁goal	-9.93497
▁stage	-9.93681
▁dig	-9.93853
▁answered	-9.93963
▁warning	-9.9403
did	-9.94036
▁celebrating	-9.94133
▁dad	-9.94438
▁soul	-9.94464
▁knows	-9.94719
▁ventured	-9.94814
▁virtual	-9.94889
▁cheers	-9.94911
▁jokes	-9.95057
▁sorry	-9.95347
▁fountain	-9.9545
▁crab	-9.95682
remember	-9.95706
▁easy	-9.95728
▁climbing	-9.95797
▁zoomed	-9.95897
▁guided	-9.95905
▁uncover	-9.95969
▁dim	-9.96098
▁bubbling	-9.96112
▁forgetting	-9.96115
▁means	-9.96118
▁stretched	-9.96127
▁neighbor	-9.96145
▁riches	-9.96186
▁cheerful	-9.96484
▁comet	-9.96495
▁shot	-9.96532
▁replaced	-9.96655
▁pass	-9.96741
▁keeper	-9.9679
▁tonight	-9.96798
▁cafe	-9.97039
▁planning	-9.9704
▁awaited	-9.97278
▁lett	-9.97301
▁riddles	-9.97515
▁player	-9.98051
▁knights	-9.98313
▁prize	-9.98479
▁swing	-9.98673
▁lines	-9.98752
▁depths	-9.98862
▁victory	-9.99236
▁apple	-9.99284
▁hurried	-9.99315
▁clue	-9.99764
▁history	-9.99793
▁wondering	-9.99808
▁dolphin	-9.99844
▁contest	-9.99873
▁delight	-10.0019
▁grown	-10.003
▁t	-10.0072
▁balloons	-10.0081
▁form	-10.0082
▁necklace	-10.0092
▁flickering	-10.0095
▁jumping	-10.0103
▁caring	-10.0111
don	-10.0123
▁crystals	-10.0132
▁mattered	-10.0147
▁cream	-10.0156
▁cared	-10.0171
▁train	-10.0189
▁explorers	-10.0202
▁passing	-10.0203
▁darkest	-10.0203
▁cheering	-10.0205
▁treats	-10.0212
▁scent	-10.0236
▁erupted	-10.0238
of	-10.0261
▁object	-10.0302
▁recalled	-10.0324
▁holiday	-10.036
▁fate	-10.0361
▁flashlight	-10.0377
▁spine	-10.0393
▁buzzed	-10.0396
▁thrived	-10.0437
▁mermaid	-10.0444
▁buildings	-10.0457
▁ring	-10.0466
▁connect	-10.048
▁soaring	-10.0491
▁stranger	-10.0499
▁flooded	-10.0505
▁rest	-10.0512
▁homes	-10.0519
▁giggling	-10.052
▁discovery	-10.0521
▁sparked	-10.0531
▁relief	-10.0537
▁community	-10.0562
▁becoming	-10.0572
▁bell	-10.0598
sometimes	-10.0603
▁threw	-10.0613
▁order	-10.0629
▁locket	-10.063
▁orb	-10.0653
▁dashed	-10.0673
▁comfort	-10.0677
▁bravely	-10.0714
▁half	-10.0724
▁parrot	-10.0724
▁tossed	-10.0725
▁gripp	-10.073
▁creeping	-10.0739
▁rich	-10.0758
▁stepp	-10.0795
▁soar	-10.0816
▁unity	-10.0845
hey	-10.0854
▁wand	-10.0862
▁slow	-10.0865
▁unicorn	-10.0881
▁takes	-10.0884
▁float	-10.0894
▁sticks	-10.0922
▁deer	-10.0924
▁mistakes	-10.0939
▁giggle	-10.0945
▁shifted	-10.0948
▁tension	-10.095
▁growth	-10.0968
▁thunder	-10.1003
▁alley	-10.1014
▁knocked	-10.1026
▁steal	-10.1062
▁notebook	-10.1074
▁setting	-10.1077
▁steep	-10.1092
▁hot	-10.1101
▁stick	-10.1106
▁torn	-10.1137
▁flow	-10.1148
▁deeply	-10.1165
▁watered	-10.1182
▁pondered	-10.1182
▁townsfolk	-10.1191
▁trip	-10.1202
▁raised	-10.121
▁cherish	-10.1223
▁shaped	-10.1248
▁flashed	-10.1268
▁myself	-10.1272
▁trusted	-10.1275
▁base	-10.1281
▁autumn	-10.1281
▁villain	-10.1293
▁tunnel	-10.1293
▁anywhere	-10.1295
▁soil	-10.13
▁enter	-10.1316
▁unlock	-10.1321
▁endless	-10.1339
▁less	-10.1345
away	-10.1352
▁shooting	-10.1356
▁square	-10.1363
▁feathers	-10.1364
▁urged	-10.1373
▁mistake	-10.1375
▁regret	-10.1385
▁practice	-10.1399
▁unique	-10.14
▁keeping	-10.1405
▁students	-10.1407
▁proudly	-10.1408
▁sees	-10.1412
▁job	-10.1412
▁apples	-10.1413
▁steady	-10.1418
uch	-10.1432
▁metal	-10.1438
okay	-10.1453
▁splashing	-10.1457
▁disappeared	-10.1459
▁surge	-10.1463
▁mural	-10.1468
▁blooming	-10.1473
▁needs	-10.1474
▁writing	-10.1483
▁mine	-10.1489
▁porch	-10.1511
▁getting	-10.1511
▁landing	-10.1518
▁snowflakes	-10.154
▁wearing	-10.1547
▁leap	-10.1574
▁images	-10.1577
▁tough	-10.1578
▁safety	-10.1586
▁players	-10.1601
there	-10.1661
▁odd	-10.1664
▁wooden	-10.167
▁rising	-10.168
▁smoke	-10.1699
▁cost	-10.1718
▁bite	-10.1723
▁irony	-10.1756
▁minutes	-10.1811
▁leaped	-10.1812
▁tied	-10.1842
▁second	-10.1847
▁scales	-10.1847
▁shelf	-10.1851
▁waving	-10.1851
▁ticked	-10.1865
▁miss	-10.1868
▁smooth	-10.1869
▁thinks	-10.1887
▁shocked	-10.1896
▁hall	-10.1915
▁despair	-10.1919
▁siblings	-10.1922
▁leads	-10.1929
▁friendships	-10.1943
▁promising	-10.1958
▁portal	-10.1958
▁fit	-10.1983
▁trembled	-10.1987
▁sailor	-10.2013
▁glanc	-10.2018
▁families	-10.2026
▁doors	-10.2052
▁familiar	-10.2055
▁hug	-10.2061
▁machines	-10.2063
▁souls	-10.2072
▁peer	-10.2165
▁ghosts	-10.2166
▁mixing	-10.2167
▁block	-10.2172
▁emptiness	-10.2174
▁desk	-10.2181
follow	-10.2182
▁pie	-10.2193
▁already	-10.2194
▁swept	-10.2204
▁dipped	-10.2204
▁puzzle	-10.221
▁creation	-10.2211
▁clutch	-10.2214
▁purple	-10.2224
▁united	-10.2234
▁lock	-10.2238
▁hats	-10.2251
▁cliff	-10.2261
urging	-10.2273
▁maps	-10.2274
▁traditions	-10.2285
▁circles	-10.2307
▁road	-10.2322
▁jungle	-10.2324
▁skills	-10.2324
▁invite	-10.2331
▁crying	-10.2347
▁betrayed	-10.2347
▁wisely	-10.236
▁beamed	-10.2367
▁seasons	-10.2369
midst	-10.2369
▁basket	-10.2403
▁screen	-10.2423
▁spinning	-10.2425
▁planting	-10.2427
▁shoes	-10.2446
▁scare	-10.2455
▁rhythm	-10.2456
▁parents	-10.2457
▁nest	-10.2457
▁underground	-10.2466
every	-10.2475
▁loneliness	-10.2476
▁finds	-10.2478
▁neighbors	-10.2482
▁joke	-10.2484
▁studied	-10.2487
▁childhood	-10.2487
▁doubts	-10.2517
▁mud	-10.2538
▁locked	-10.2547
he	-10.2571
▁written	-10.259
▁ant	-10.2601
▁struggled	-10.2611
er	-10.2617
▁bake	-10.264
▁civilization	-10.264
▁dove	-10.2648
st	-10.2652
▁wants	-10.2667
▁present	-10.2696
▁embraced	-10.2696
▁guard	-10.2702
▁received	-10.2704
▁chair	-10.2714
▁puzzled	-10.2716
▁seem	-10.2719
▁picking	-10.2769
▁cry	-10.2775
▁renewed	-10.2799
▁opening	-10.2806
▁yellow	-10.2811
▁attention	-10.282
▁joyfully	-10.2878
▁expected	-10.288
could	-10.2882
▁club	-10.2884
▁lady	-10.2895
▁curiously	-10.2905
▁pretty	-10.2916
▁underwater	-10.2927
▁coat	-10.2948
▁echo	-10.298
▁discovering	-10.2998
▁older	-10.3008
then	-10.3012
▁check	-10.3014
▁valuable	-10.3024
▁shelter	-10.3024
▁ached	-10.3027
▁sigh	-10.304
▁weeds	-10.3062
▁grandfather	-10.3067
▁uncovered	-10.3101
ng	-10.3103
▁bubbles	-10.3152
▁melody	-10.3154
▁guarded	-10.3163
▁desire	-10.3165
▁breaking	-10.319
▁dangerous	-10.3197
▁reality	-10.3199
▁playground	-10.3209
▁trunk	-10.321
▁paintings	-10.3223
▁spreading	-10.3229
▁flapped	-10.3231
▁happier	-10.3242
▁round	-10.3243
▁money	-10.3253
▁shines	-10.3254
▁ache	-10.3265
▁exchanged	-10.3265
▁granted	-10.3274
▁instant	-10.3274
▁ate	-10.3299
▁beating	-10.33
please	-10.3307
▁statue	-10.3322
▁question	-10.3322
▁wandering	-10.3346
▁whale	-10.3355
▁troll	-10.3355
▁exciting	-10.3376
▁success	-10.3387
▁balance	-10.3397
▁vowed	-10.34
▁inspire	-10.3414
▁reflecting	-10.3424
▁pot	-10.3424
▁shined	-10.3427
▁device	-10.3443
▁dropped	-10.3443
▁lifting	-10.3458
▁darker	-10.3499
▁signs	-10.3504
▁raged	-10.3512
▁boxes	-10.3513
▁returning	-10.3517
▁tune	-10.3525
▁bubble	-10.3547
▁struggle	-10.3547
▁parts	-10.3596
▁sneak	-10.36
te	-10.3648
▁soccer	-10.366
▁roamed	-10.3684
▁rules	-10.3692
▁accepted	-10.3712
▁pick	-10.3717
▁unlike	-10.373
▁pa	-10.3732
▁sailing	-10.3764
▁possible	-10.3764
▁wrapp	-10.3769
▁rivalry	-10.3776
▁legs	-10.3787
▁audience	-10.3788
▁trail	-10.3803
▁glimmer	-10.3805
▁hum	-10.381
▁weaving	-10.3823
▁notice	-10.3839
▁reveal	-10.3848
▁logic	-10.3853
stay	-10.3856
▁serious	-10.3857
▁bold	-10.3903
▁kitten	-10.3933
▁dull	-10.3941
▁changing	-10.3941
▁birthday	-10.3945
▁minds	-10.3945
▁moves	-10.3957
▁lanterns	-10.3959
▁kites	-10.3973
▁screamed	-10.3991
▁shift	-10.3997
▁blossomed	-10.4004
▁overcome	-10.4009
▁flight	-10.4036
▁dress	-10.4039
▁froze	-10.4044
▁lined	-10.4051
▁wet	-10.407
▁respect	-10.4075
▁cracked	-10.4091
▁nose	-10.4092
▁sparkle	-10.4113
together	-10.4118
▁cabin	-10.412
▁cloak	-10.4129
▁fur	-10.4132
▁sparkles	-10.4151
▁black	-10.4156
▁announced	-10.4156
▁grows	-10.4165
▁further	-10.4169
▁waters	-10.4173
▁charm	-10.4179
▁fixed	-10.4207
▁cookie	-10.4211
▁stolen	-10.422
▁member	-10.4235
▁pretending	-10.425
▁gust	-10.4254
▁scattered	-10.4266
▁teaching	-10.4274
▁baked	-10.4279
▁bee	-10.4286
▁confusion	-10.429
▁slipping	-10.4291
▁safely	-10.4313
▁vision	-10.4334
▁lunch	-10.4339
▁bustling	-10.4352
▁importance	-10.4364
▁brightened	-10.4367
▁aside	-10.4371
▁collected	-10.4372
▁grinning	-10.4377
▁rocky	-10.4383
▁famous	-10.4402
▁cut	-10.4405
▁fail	-10.4417
▁forth	-10.4418
▁flowing	-10.4445
▁body	-10.4451
▁popped	-10.4464
▁stomach	-10.4489
▁season	-10.4496
▁rustling	-10.4501
▁shoulders	-10.4505
▁figures	-10.451
▁struggling	-10.4527
see	-10.4531
▁bonds	-10.4532
▁drink	-10.4533
▁passion	-10.4534
▁confident	-10.4538
▁keys	-10.4558
▁dragons	-10.457
▁flick	-10.4579
▁talent	-10.4589
▁dressed	-10.4599
▁cross	-10.4606
▁lying	-10.4628
▁sadly	-10.4643
▁kicked	-10.4658
▁tasted	-10.4668
▁delicious	-10.4679
▁pet	-10.4683
▁point	-10.469
▁thrilled	-10.4694
▁lion	-10.4699
▁giants	-10.4708
▁younger	-10.471
▁dive	-10.4711
ally	-10.472
▁glade	-10.473
▁visions	-10.4736
▁price	-10.4742
▁rushing	-10.4744
only	-10.4767
▁waterfall	-10.4777
▁patience	-10.4807
▁tells	-10.482
▁scene	-10.4842
▁short	-10.4846
▁rough	-10.4846
▁forms	-10.4851
▁telescope	-10.4885
▁bags	-10.4889
▁sudden	-10.491
▁early	-10.4912
▁owner	-10.4915
▁string	-10.4921
▁frozen	-10.4928
▁shows	-10.4941
wait	-10.4965
▁pencil	-10.4986
▁towers	-10.4989
▁brushed	-10.4996
▁silently	-10.502
▁roof	-10.5026
▁trusting	-10.5061
est	-10.5062
▁taller	-10.5063
▁forming	-10.5065
▁bottom	-10.5069
▁firm	-10.5081
▁ironic	-10.5082
▁greeted	-10.5084
▁tripped	-10.5096
▁mask	-10.5111
▁impress	-10.5114
next	-10.5133
▁backpack	-10.5146
▁urge	-10.5148
▁scarf	-10.5149
▁eagle	-10.5173
▁caves	-10.5178
▁powers	-10.519
▁stormy	-10.5198
▁raccoon	-10.52
▁scratched	-10.5203
▁winding	-10.5203
▁tricky	-10.5204
▁rabbits	-10.5214
in	-10.5215
▁effort	-10.5227
▁cheese	-10.5243
▁sunshine	-10.5243
▁mouth	-10.5254
▁frogs	-10.5256
▁speed	-10.5256
▁pulsed	-10.5271
▁gazing	-10.5284
▁shock	-10.5289
▁swung	-10.5297
▁meaning	-10.5297
▁shimmer	-10.5302
▁admitted	-10.5311
▁lie	-10.5321
▁crawled	-10.5339
▁halls	-10.5344
▁laughs	-10.5364
▁shrugged	-10.5365
▁ruled	-10.5366
▁glimmering	-10.5367
▁resilience	-10.5379
▁desert	-10.5384
one	-10.5398
▁expect	-10.5411
▁gardens	-10.5419
▁walks	-10.5446
▁uneasy	-10.5448
▁cleared	-10.5485
▁bark	-10.5493
▁luck	-10.5516
▁problems	-10.5523
▁tear	-10.5543
▁struggles	-10.5583
▁harmony	-10.5586
▁blink	-10.5592
r	-10.5601
▁tallest	-10.562
▁sleep	-10.5642
▁hour	-10.5656
▁pizza	-10.5671
▁cast	-10.5671
▁task	-10.5713
▁frustrated	-10.5713
▁blooms	-10.5723
▁chosen	-10.5724
▁baker	-10.5726
▁jar	-10.5741
▁wrap	-10.5753
▁inspiration	-10.5756
▁earlier	-10.577
▁men	-10.5774
▁narrow	-10.5776
▁curse	-10.5783
▁tuck	-10.5784
▁meal	-10.5789
▁tangled	-10.5798
▁lively	-10.5801
▁warmed	-10.5806
▁hollow	-10.5813
▁stirred	-10.5813
▁collect	-10.5833
▁warrior	-10.5856
▁please	-10.5857
▁match	-10.5862
▁grumpy	-10.587
▁wear	-10.5873
▁fluttered	-10.5877
▁fireflies	-10.5884
▁lightning	-10.5885
▁flames	-10.5886
▁smaller	-10.5892
▁grab	-10.5899
▁precious	-10.5913
▁snail	-10.5913
▁ruin	-10.5949
▁e	-10.5958
▁resting	-10.5965
▁crack	-10.5968
▁footsteps	-10.5986
▁swelled	-10.6007
▁unseen	-10.6029
▁harvest	-10.6044
▁tortoise	-10.6044
▁decide	-10.6044
e	-10.6066
▁gaze	-10.6076
▁rainbows	-10.6081
▁pen	-10.6088
▁joked	-10.6089
▁action	-10.6099
buried	-10.613
▁generosity	-10.6132
trust	-10.6145
▁dared	-10.6147
▁rolling	-10.6155
ve	-10.6158
▁greater	-10.6168
▁disappointed	-10.6177
▁drop	-10.6178
▁buttons	-10.6187
join	-10.6189
▁grandma	-10.6192
▁snowball	-10.6193
c	-10.6196
▁squeaked	-10.6207
▁stole	-10.6232
▁bubbled	-10.6237
▁egg	-10.6263
▁peaceful	-10.6265
▁brightest	-10.6283
▁bare	-10.6289
▁townspeople	-10.6311
rex	-10.6324
▁treehouse	-10.6326
▁sprite	-10.6328
▁lot	-10.6329
▁guilt	-10.634
▁gate	-10.6343
▁ringing	-10.635
▁dreamer	-10.635
▁shout	-10.6352
▁realm	-10.6352
▁rival	-10.6358
▁reader	-10.6362
▁pure	-10.6371
▁midnight	-10.6371
▁ordinary	-10.6371
▁responsible	-10.6371
▁seaweed	-10.6371
▁actions	-10.6385
▁hurry	-10.6387
▁buy	-10.6388
▁dinner	-10.6388
▁carrot	-10.6419
▁ants	-10.642
▁ancestors	-10.6432
▁galaxy	-10.6447
p	-10.6462
▁twirling	-10.6471
▁shiver	-10.6474
▁spilled	-10.6478
▁spin	-10.6495
▁rare	-10.6507
▁lighthouse	-10.6523
▁shield	-10.6523
or	-10.6535
▁possibilities	-10.6539
▁larger	-10.654
▁reflected	-10.6557
▁berries	-10.657
▁gratitude	-10.657
▁force	-10.6579
▁houses	-10.658
▁blank	-10.6584
▁painter	-10.659
▁stealing	-10.6593
▁pretended	-10.6608
▁legends	-10.6624
▁shade	-10.6635
▁giggles	-10.6645
▁startled	-10.6648
▁solved	-10.665
▁enemy	-10.6663
▁monkey	-10.6682
▁tea	-10.6697
▁source	-10.6709
▁neighborhood	-10.6709
▁starry	-10.671
▁jewel	-10.6713
▁elder	-10.6728
▁confidence	-10.6756
▁classroom	-10.6756
▁animal	-10.6761
▁corners	-10.6775
▁barked	-10.6782
▁asks	-10.6799
not	-10.6817
ver	-10.6884
▁months	-10.6884
should	-10.6897
▁guards	-10.69
▁fireworks	-10.6907
▁supplies	-10.6915
keep	-10.6961
▁fishing	-10.6961
▁piano	-10.6963
▁lucky	-10.6963
▁freely	-10.6968
▁shadowy	-10.6969
▁cheeks	-10.698
▁throw	-10.6982
here	-10.6993
▁bouncing	-10.6995
▁hummed	-10.7027
▁surprising	-10.7058
▁company	-10.7059
▁paddled	-10.706
▁royal	-10.7076
▁castles	-10.7078
would	-10.709
today	-10.7106
▁perched	-10.7108
▁melted	-10.7113
▁fence	-10.7141
my	-10.7145
▁size	-10.7148
▁shouting	-10.7155
▁glasses	-10.7157
▁accept	-10.7168
hold	-10.7171
▁freed	-10.7174
▁rustled	-10.7174
▁classmates	-10.7181
▁tricked	-10.7193
▁stands	-10.7198
▁cleaned	-10.7209
▁flourished	-10.7226
▁continue	-10.7228
proving	-10.7229
▁wildly	-10.723
▁beings	-10.7242
▁peak	-10.7246
▁puzzles	-10.7277
▁cleaning	-10.732
▁knock	-10.733
▁unexpectedly	-10.7342
▁despi	-10.7389
▁darkened	-10.739
▁wealth	-10.7405
▁saving	-10.7405
▁unaware	-10.7405
▁cars	-10.7406
▁value	-10.7411
▁sandcastle	-10.7413
▁sly	-10.7443
▁bicycle	-10.7446
▁riverbank	-10.7456
▁shattered	-10.7525
▁advice	-10.754
▁confront	-10.7566
▁thanks	-10.7566
because	-10.7572
▁argued	-10.7592
▁breathe	-10.7595
▁dry	-10.7595
▁imagine	-10.7599
when	-10.7606
▁embracing	-10.7609
▁misty	-10.761
▁spoon	-10.7617
▁single	-10.7626
▁claimed	-10.7634
▁carved	-10.766
▁astronaut	-10.7669
▁puddles	-10.7682
▁lush	-10.7695
▁void	-10.7695
▁soup	-10.7699
▁candle	-10.7704
▁incredible	-10.7712
▁tag	-10.7712
▁chilly	-10.7715
▁healing	-10.7717
▁battles	-10.7732
▁buzzing	-10.7734
▁opens	-10.7753
▁acorn	-10.7756
▁nowhere	-10.7758
▁score	-10.7763
▁reply	-10.7764
▁sink	-10.7777
▁streams	-10.7783
▁timidly	-10.7799
▁pool	-10.7808
x	-10.7812
▁rustle	-10.7815
▁begin	-10.7826
▁oneself	-10.7834
▁joining	-10.7852
▁promises	-10.7872
▁whistle	-10.7877
▁shades	-10.79
▁swell	-10.79
▁dangers	-10.7901
▁fragile	-10.7904
▁elephant	-10.7931
▁doll	-10.7956
▁belief	-10.7957
▁recall	-10.7966
▁members	-10.7984
really	-10.7991
▁seems	-10.7994
▁goes	-10.7996
term	-10.801
▁mighty	-10.8033
▁mark	-10.8034
▁faint	-10.8044
▁forests	-10.805
▁flutter	-10.806
▁eventually	-10.8064
▁glory	-10.8064
▁calmly	-10.8071
▁catching	-10.8078
▁calmed	-10.8113
▁dimmed	-10.8118
▁none	-10.8118
▁harm	-10.8132
▁eating	-10.8138
▁foolish	-10.8152
▁waking	-10.8154
▁nod	-10.8165
▁collecting	-10.817
▁sensed	-10.8172
▁smallest	-10.8176
▁swings	-10.8179
▁pebble	-10.8183
▁pretend	-10.8204
▁kid	-10.822
l	-10.8233
▁slip	-10.8238
▁snowballs	-10.8242
▁invisibility	-10.8244
▁somewhere	-10.8246
once	-10.8247
▁relieved	-10.8263
▁baking	-10.8263
▁guitar	-10.8281
▁shaky	-10.8281
▁ghostly	-10.8291
▁wheels	-10.8291
▁lamp	-10.8293
▁sibling	-10.8293
special	-10.8315
▁admire	-10.8315
▁counted	-10.8324
▁horse	-10.833
▁guess	-10.8332
▁sens	-10.8345
▁sugar	-10.8354
▁flipped	-10.8391
▁bounced	-10.8392
▁swiftly	-10.8393
▁beginnings	-10.84
▁claim	-10.8401
▁heads	-10.8411
▁focus	-10.8425
▁visible	-10.8447
▁scents	-10.8451
▁dolphins	-10.8454
▁settled	-10.8466
▁connecting	-10.8477
▁begun	-10.8484
▁sneaky	-10.8485
▁matters	-10.8492
▁add	-10.8494
▁puddle	-10.8497
▁headed	-10.85
love	-10.8508
▁defeated	-10.851
▁asleep	-10.8522
be	-10.8527
▁begins	-10.853
▁cook	-10.8537
▁adding	-10.8539
▁herring	-10.8551
▁tapestry	-10.8559
▁human	-10.8573
▁cherished	-10.8577
▁event	-10.8603
▁pale	-10.8604
▁starts	-10.8608
▁abruptly	-10.8616
▁cooperation	-10.8616
▁troubles	-10.8629
▁track	-10.863
▁gracefully	-10.8635
▁strongest	-10.8642
▁glittering	-10.8643
▁disappear	-10.8665
▁scored	-10.8674
▁warmly	-10.8691
▁perfectly	-10.8699
▁station	-10.8711
▁flute	-10.8711
▁ear	-10.872
▁markings	-10.8725
o	-10.8729
▁phone	-10.8744
▁aboard	-10.8746
▁ignor	-10.8759
▁board	-10.876
▁click	-10.8779
▁guardians	-10.8779
▁chicken	-10.8783
▁wagged	-10.8788
▁teased	-10.8788
▁messy	-10.8789
▁burden	-10.8794
▁slide	-10.8797
▁palace	-10.8807
▁brothers	-10.8809
▁split	-10.8826
▁shoulder	-10.8827
▁trash	-10.8845
▁swooped	-10.8846
▁sled	-10.8861
▁potion	-10.8861
▁creep	-10.887
▁evil	-10.8884
▁heartbeat	-10.8919
she	-10.892
▁sick	-10.8923
▁risk	-10.8938
▁conquer	-10.8954
▁stairs	-10.8962
▁grip	-10.897
▁candles	-10.8972
▁plotted	-10.8982
▁breathing	-10.9005
▁sandy	-10.9006
▁amid	-10.901
▁bees	-10.9026
▁nervously	-10.9031
stop	-10.9039
▁sway	-10.9039
▁fuel	-10.9041
▁hanging	-10.9047
▁flour	-10.9081
▁crackled	-10.9081
▁connections	-10.9085
▁cape	-10.9089
▁tasty	-10.91
▁growled	-10.9108
▁upset	-10.912
▁damp	-10.912
▁blocked	-10.9157
▁heavier	-10.916
▁sits	-10.9174
ble	-10.9178
time	-10.918
▁moss	-10.918
▁area	-10.9189
▁afar	-10.92
▁coffee	-10.92
▁crashing	-10.92
▁umbrella	-10.9217
▁ticking	-10.9232
▁shouts	-10.9237
▁cries	-10.924
▁pouring	-10.9245
▁ships	-10.925
▁boys	-10.925
▁swift	-10.9259
▁court	-10.9261
while	-10.9279
▁crops	-10.9281
▁encouraging	-10.9281
▁braver	-10.9311
▁items	-10.9319
▁glided	-10.9322
▁pay	-10.9327
▁decides	-10.934
▁flame	-10.938
▁throne	-10.9382
▁cloaked	-10.9417
find	-10.9421
▁windows	-10.9436
hero	-10.9441
▁touching	-10.9456
▁applause	-10.9464
▁tool	-10.9471
▁anti	-10.9479
an	-10.9482
▁rumble	-10.9484
▁hopping	-10.9485
▁keepers	-10.9519
▁wake	-10.9525
▁twinge	-10.9547
▁bitter	-10.9567
▁pressing	-10.9573
▁starting	-10.9579
off	-10.9586
▁rested	-10.9589
▁sails	-10.9596
▁teeth	-10.961
▁photos	-10.9611
▁thread	-10.963
▁turtles	-10.9632
▁cursed	-10.9632
▁boats	-10.9635
▁thankful	-10.9635
▁glances	-10.9637
▁wip	-10.9648
▁photo	-10.9651
▁cities	-10.9652
▁journeys	-10.9658
▁starfish	-10.9673
▁coach	-10.9694
▁x	-10.9696
▁recipe	-10.9714
▁overhead	-10.9715
▁colder	-10.9721
hi	-10.9728
▁noises	-10.9733
▁remain	-10.9734
▁pair	-10.9735
▁abandoned	-10.9736
▁socks	-10.9772
▁competition	-10.9778
▁terrible	-10.9778
▁realize	-10.978
▁hardship	-10.9799
▁shovel	-10.9799
▁chamber	-10.98
▁conscience	-10.98
▁genie	-10.98
▁defeat	-10.9812
▁tunnels	-10.9815
▁awoke	-10.9817
▁yours	-10.982
▁lurking	-10.9821
▁skill	-10.9834
▁reef	-10.9842
▁crossing	-10.9843
▁offering	-10.985
▁web	-10.9851
▁fixing	-10.9871
▁surged	-10.9887
▁sounded	-10.9894
▁ignored	-10.9896
▁shoe	-10.9907
▁duck	-10.992
▁decorated	-10.9929
▁monsters	-10.9932
▁frightened	-10.9951
▁balls	-10.9964
▁crow	-10.9966
▁bent	-10.9972
▁spells	-10.9981
▁stillness	-11.0018
▁gained	-11.0022
▁shelves	-11.0037
▁partner	-11.0037
▁charming	-11.0039
▁checked	-11.0054
▁tide	-11.0059
▁appear	-11.0081
▁brightening	-11.0087
▁closing	-11.0102
▁fake	-11.0102
▁math	-11.0105
▁cooking	-11.0118
▁paintbrush	-11.0124
▁tilted	-11.0125
▁bus	-11.0126
▁highest	-11.0131
▁launch	-11.0138
▁acts	-11.0138
▁speaking	-11.0144
▁trained	-11.0148
▁characters	-11.0149
▁skateboard	-11.0168
▁cup	-11.017
▁lemonade	-11.0191
▁decision	-11.0192
▁clarity	-11.0213
▁patch	-11.0235
▁petal	-11.0237
▁spots	-11.0247
▁hooted	-11.0259
▁gnome	-11.0259
▁rope	-11.0259
▁burned	-11.026
▁baby	-11.0279
▁riding	-11.028
▁crunched	-11.0285
▁dares	-11.0292
▁runs	-11.0296
▁smells	-11.03
▁pressure	-11.0302
▁trickster	-11.0302
▁experience	-11.0303
▁remembers	-11.0306
▁prepare	-11.0346
▁acceptance	-11.0348
▁drift	-11.0349
▁weather	-11.0361
▁garage	-11.0369
▁maze	-11.0392
▁vegetables	-11.0395
▁writer	-11.0398
▁bought	-11.0414
▁disappointment	-11.0414
▁eggs	-11.0419
▁flapping	-11.0437
▁sights	-11.0443
▁praised	-11.0461
▁tick	-11.0463
▁treat	-11.0463
▁dancer	-11.0469
▁thin	-11.0482
▁skipped	-11.0483
▁crumbling	-11.0483
▁easily	-11.0483
▁item	-11.0485
▁carrots	-11.0501
▁sorcerer	-11.0505
▁realizes	-11.0507
▁glistening	-11.0529
▁boots	-11.0532
▁nuts	-11.054
▁hint	-11.0569
▁pulse	-11.0596
▁guilty	-11.0598
al	-11.0606
▁drove	-11.062
▁factory	-11.062
▁sweets	-11.063
▁envelop	-11.0631
▁bunny	-11.0644
▁bracelet	-11.0647
▁church	-11.0667
▁journal	-11.0667
▁basketball	-11.0667
▁trophy	-11.069
▁beautifully	-11.07
▁heavily	-11.0713
▁pumpkin	-11.0717
▁helper	-11.0725
▁preparing	-11.0737
▁frown	-11.0742
▁sleeping	-11.0759
▁radiant	-11.076
▁wires	-11.0769
▁welcome	-11.0771
▁travelers	-11.0772
▁mysteries	-11.0831
▁driven	-11.0832
▁spider	-11.0835
▁hop	-11.0836
take	-11.0875
▁weave	-11.0877
▁sandwiches	-11.0878
▁haunting	-11.0882
me	-11.0918
▁neck	-11.0926
▁changes	-11.0933
▁emotions	-11.0942
▁crisp	-11.0949
▁weighed	-11.0952
▁differently	-11.0955
▁rebuild	-11.096
▁dodging	-11.0973
▁eerie	-11.0973
▁rays	-11.0983
▁lab	-11.0997
▁rule	-11.1001
▁helps	-11.1002
▁snack	-11.1003
▁twirl	-11.1004
▁underneath	-11.1021
▁thud	-11.1021
▁arm	-11.1042
▁complete	-11.1043
tell	-11.1044
▁temple	-11.1046
▁illuminat	-11.1058
▁sisters	-11.1089
▁shut	-11.1094
▁beeped	-11.1099
▁backward	-11.1099
▁protected	-11.1101
▁fame	-11.1118
▁mused	-11.1118
▁kick	-11.1121
▁farmer	-11.1125
▁growl	-11.1129
▁juice	-11.1167
▁fastest	-11.1171
▁marks	-11.1177
each	-11.118
▁dread	-11.1191
▁glimpse	-11.1191
g	-11.1193
▁outsmart	-11.1208
▁happiest	-11.124
▁roses	-11.1246
▁embarrassed	-11.129
▁distract	-11.1292
▁student	-11.1296
▁cove	-11.131
▁mushrooms	-11.1313
▁drum	-11.1319
▁names	-11.1338
▁huddled	-11.1339
▁deepened	-11.134
▁rumbled	-11.1341
▁escaped	-11.1346
▁drops	-11.1361
▁normal	-11.1364
▁watches	-11.1365
▁count	-11.1371
▁sock	-11.1373
▁breathless	-11.1378
▁cats	-11.1386
▁easier	-11.1389
▁visiting	-11.1393
ting	-11.1394
▁peeking	-11.1396
▁causing	-11.1414
▁lurked	-11.1415
▁wing	-11.1425
▁foot	-11.1439
▁cosmos	-11.144
▁fluttering	-11.1458
▁flies	-11.1464
▁humans	-11.1471
▁parted	-11.1472
eyed	-11.1483
▁watering	-11.1489
▁intelligence	-11.149
▁twigs	-11.1495
▁ingredients	-11.1499
▁knot	-11.1522
▁youth	-11.1537
▁herbs	-11.1545
▁fool	-11.1565
▁amazement	-11.1565
▁amulet	-11.1565
▁crafted	-11.157
▁rocked	-11.1583
▁honey	-11.1591
▁rumor	-11.1599
▁teddy	-11.1616
▁drifting	-11.1632
▁impressed	-11.1633
▁fisherman	-11.1642
▁mischief	-11.1642
▁cautiously	-11.1643
▁tended	-11.1644
▁vehicle	-11.165
▁store	-11.1667
▁ropes	-11.1691
▁least	-11.1693
▁vastness	-11.1694
▁dances	-11.1708
▁widely	-11.1728
▁roll	-11.1731
▁journeyed	-11.1738
▁muddy	-11.1745
▁described	-11.1745
▁blow	-11.1762
▁capture	-11.177
▁brilliant	-11.1771
▁greedy	-11.1773
▁locks	-11.1778
▁detective	-11.1779
▁bones	-11.1787
▁boomed	-11.1799
▁role	-11.1806
▁raindrops	-11.1807
▁paws	-11.1833
▁blossom	-11.1836
▁counting	-11.1837
▁papers	-11.1844
▁chef	-11.1849
▁science	-11.1849
▁judges	-11.1866
▁glad	-11.1874
▁pilot	-11.1875
▁begged	-11.1876
▁heat	-11.1878
▁sparkly	-11.1878
▁camera	-11.1879
▁spooky	-11.1901
▁solving	-11.1901
▁worm	-11.1911
▁ripples	-11.1928
▁woven	-11.1929
▁seashells	-11.1935
▁war	-11.1948
▁truths	-11.1949
▁confessed	-11.1955
▁anytime	-11.1957
▁blending	-11.1966
▁rumors	-11.1972
true	-11.1978
▁sniffed	-11.1982
▁fades	-11.1987
▁clicked	-11.1992
▁sandwich	-11.2007
▁gallery	-11.2007
▁inserted	-11.2007
▁strolled	-11.2008
▁wildflowers	-11.2009
▁wrist	-11.2034
▁gain	-11.2038
▁fiercely	-11.2045
▁neat	-11.2059
▁since	-11.2059
▁dusk	-11.206
▁oven	-11.206
▁bored	-11.206
▁grace	-11.2087
▁gym	-11.2087
▁kissed	-11.2093
▁throwing	-11.2109
▁mad	-11.2114
▁slightly	-11.2114
▁max	-11.2114
▁twisting	-11.2132
▁guidance	-11.2141
▁local	-11.2152
▁learns	-11.2157
listen	-11.2165
▁pies	-11.2176
▁deception	-11.2195
▁flap	-11.2206
▁bug	-11.2206
go	-11.2218
▁adventurous	-11.2222
▁welcoming	-11.2222
on	-11.2227
▁tiptoed	-11.2249
▁washing	-11.2253
▁dare	-11.226
▁signal	-11.2261
▁traced	-11.2277
▁brushes	-11.2277
▁wink	-11.2282
▁couple	-11.2288
▁swaying	-11.2295
▁duty	-11.2304
▁storyteller	-11.2315
▁carvings	-11.2317
▁scoop	-11.2331
▁kindly	-11.2334
▁squirrels	-11.2339
▁sailors	-11.2341
▁wheel	-11.2343
▁chains	-11.2349
▁practicing	-11.2358
▁insisted	-11.2386
▁caused	-11.2387
use	-11.2396
▁un	-11.2397
▁unfold	-11.2419
▁teams	-11.2427
▁loves	-11.2439
▁cotton	-11.2441
▁darted	-11.247
▁blankets	-11.2477
▁parade	-11.2497
▁barn	-11.2501
▁legend	-11.251
▁brown	-11.2527
▁wider	-11.2532
▁bar	-11.2545
well	-11.2552
▁sold	-11.2553
▁tender	-11.2553
▁sting	-11.2554
▁cleverness	-11.2554
▁betray	-11.257
▁sleepy	-11.2582
▁cakes	-11.2586
▁lips	-11.2596
▁forgive	-11.2597
▁reclaim	-11.26
▁seas	-11.2605
▁encouragement	-11.2609
▁jellyfish	-11.2609
▁cupcakes	-11.2614
looking	-11.2632
▁unusual	-11.2636
▁philosopher	-11.2637
▁perseverance	-11.2637
▁swallowed	-11.2643
▁belongs	-11.2645
▁engine	-11.2646
b	-11.266
▁glee	-11.2666
es	-11.2676
▁crayons	-11.2679
▁poem	-11.268
▁teammates	-11.2686
▁slept	-11.2694
▁fleeting	-11.2695
▁murmured	-11.2695
▁sweetly	-11.2699
▁grasp	-11.2714
▁wicked	-11.2721
▁massive	-11.2723
▁crowns	-11.2723
▁zipp	-11.2731
▁snake	-11.2736
▁appreciate	-11.275
▁gardener	-11.2761
▁beacon	-11.278
▁snowmen	-11.278
▁globe	-11.278
▁gloomy	-11.278
▁launched	-11.2791
▁daring	-11.2809
▁blocks	-11.2818
▁ignore	-11.2837
▁performance	-11.2837
▁cocoa	-11.2838
▁unfolded	-11.2846
▁girls	-11.2848
▁movement	-11.2853
▁diary	-11.2866
▁straight	-11.2866
▁clapping	-11.2866
▁surround	-11.2873
▁drinks	-11.2878
out	-11.2885
▁flashback	-11.2895
▁anyway	-11.2896
▁bakery	-11.2896
▁faith	-11.2898
se	-11.2909
▁lizard	-11.291
▁inspiring	-11.2926
▁instantly	-11.2928
f	-11.2938
▁training	-11.2943
▁achieve	-11.2952
▁rooftop	-11.2969
▁grove	-11.2983
▁dino	-11.2983
▁valleys	-11.3001
▁wagging	-11.3012
▁captured	-11.3013
have	-11.3039
▁serpent	-11.3041
▁richer	-11.3043
am	-11.3049
▁sweeter	-11.305
▁falls	-11.305
▁beam	-11.3058
with	-11.3069
▁tickle	-11.307
▁thieves	-11.3071
▁unable	-11.3071
▁materials	-11.3076
▁hugs	-11.3082
▁sides	-11.3086
many	-11.3098
▁jealous	-11.31
▁frustration	-11.3101
▁tries	-11.3101
▁firefly	-11.3101
▁jealousy	-11.3101
▁masks	-11.3107
▁age	-11.3122
▁rowed	-11.3135
▁wilted	-11.3136
▁pearls	-11.315
▁scooter	-11.316
▁destination	-11.316
▁tasks	-11.3161
▁hearing	-11.3164
▁soaked	-11.3165
ers	-11.3166
llowing	-11.3173
▁palm	-11.3176
▁suit	-11.3177
▁slowed	-11.3189
▁twilight	-11.319
▁plane	-11.3205
▁sprout	-11.3215
▁squealed	-11.322
▁spend	-11.3221
▁sneered	-11.3222
▁challenged	-11.3228
▁shivering	-11.3276
▁dreamers	-11.328
▁sketched	-11.3285
▁cooked	-11.3294
▁landscape	-11.3297
▁succeed	-11.3302
▁traps	-11.3306
▁bound	-11.3319
▁bang	-11.334
▁timid	-11.337
▁buddy	-11.3371
▁model	-11.3389
▁throat	-11.3401
▁truck	-11.3401
▁agreement	-11.3401
▁supposed	-11.3401
▁squeezed	-11.3402
▁cart	-11.3405
▁furry	-11.3432
▁dough	-11.3432
▁compassion	-11.3432
▁bells	-11.3434
▁artists	-11.3443
▁study	-11.3449
▁deck	-11.3463
▁softened	-11.3465
▁blend	-11.347
▁thorns	-11.3479
▁ignite	-11.3492
▁cardboard	-11.3493
▁armor	-11.3494
▁served	-11.3494
▁dreamland	-11.3497
▁exist	-11.3503
▁fabric	-11.3512
▁deadline	-11.3524
▁ruler	-11.3543
▁threatened	-11.3556
▁decorations	-11.3562
▁pillow	-11.3574
▁pounded	-11.3588
▁desperate	-11.3616
▁gummy	-11.3617
▁tugged	-11.3617
▁paw	-11.3634
▁seat	-11.3648
▁boring	-11.3649
▁meals	-11.3649
▁generations	-11.3659
▁list	-11.3668
for	-11.3678
▁fascinated	-11.368
▁charged	-11.3681
▁playfully	-11.3688
▁sketching	-11.3689
▁directions	-11.3691
up	-11.3698
▁banana	-11.37
▁direction	-11.37
▁survive	-11.371
▁rage	-11.371
▁neared	-11.372
▁bow	-11.372
▁hissed	-11.3731
▁-	-11.3732
▁cage	-11.3743
▁blurred	-11.3743
▁bat	-11.3759
▁shivered	-11.3761
▁marbles	-11.377
▁melt	-11.3784
▁slid	-11.3793
▁breezes	-11.3803
▁superheroes	-11.3807
▁released	-11.3808
▁scientist	-11.3827
▁acted	-11.383
▁experiences	-11.3835
▁author	-11.3838
▁masterpiece	-11.3838
▁exploded	-11.3838
▁whirred	-11.3839
▁winner	-11.3859
▁forces	-11.3863
▁cottage	-11.387
▁captivated	-11.387
▁wobbled	-11.3871
▁boldly	-11.3874
▁christmas	-11.3902
▁gliding	-11.3902
▁intertwined	-11.3902
▁news	-11.3909
sure	-11.3932
▁arguing	-11.3934
▁knife	-11.3934
▁whiskers	-11.3934
▁happens	-11.3943
▁wiser	-11.3944
▁wounds	-11.3958
▁breathed	-11.3967
▁grief	-11.3967
▁theater	-11.3967
▁nods	-11.3979
▁calls	-11.3981
▁elders	-11.399
▁glitter	-11.3998
▁shifting	-11.4004
▁patterns	-11.4007
▁curtain	-11.4021
▁invention	-11.4021
▁raft	-11.4031
▁fine	-11.4032
▁brewed	-11.4034
▁crumbled	-11.4065
▁strings	-11.4073
▁islands	-11.4075
▁mice	-11.4097
▁forgiveness	-11.4097
▁paints	-11.4107
▁culture	-11.4119
▁drank	-11.413
▁pedaled	-11.4131
▁glance	-11.4147
treasure	-11.416
▁unlocked	-11.4161
▁overheard	-11.4162
▁guarding	-11.4172
▁bits	-11.4179
▁sell	-11.418
▁deepest	-11.4184
▁bowl	-11.4186
▁lean	-11.4187
▁tingle	-11.4194
▁grabbing	-11.4195
▁acting	-11.4204
so	-11.4211
even	-11.4225
great	-11.4226
▁diving	-11.4229
▁ourselves	-11.4229
▁panicked	-11.4229
▁pedestal	-11.4229
▁dodged	-11.4229
▁cheerfully	-11.4234
▁rooms	-11.424
▁dish	-11.4246
▁goat	-11.4256
▁moons	-11.4263
▁flashlights	-11.4267
▁icy	-11.4295
▁bittersweet	-11.4295
▁holes	-11.4306
▁anew	-11.4344
▁scheme	-11.4349
▁dancers	-11.4359
▁capturing	-11.4362
▁shrank	-11.4362
▁simply	-11.4362
▁intently	-11.4362
▁croaked	-11.4364
▁clung	-11.4396
▁workshop	-11.4396
▁spoken	-11.44
▁cloth	-11.4416
▁seashell	-11.4421
▁lazily	-11.443
▁crumpled	-11.443
▁approaching	-11.444
▁vanish	-11.4441
▁inventor	-11.4454
▁anxious	-11.4462
▁strategy	-11.4463
ness	-11.4478
▁acorns	-11.4479
always	-11.4495
▁combined	-11.4501
▁races	-11.4522
▁diamond	-11.4523
▁digital	-11.4532
▁logg	-11.4533
▁unite	-11.4565
hope	-11.4598
▁argue	-11.4599
▁shroud	-11.46
▁brushing	-11.4611
▁glinting	-11.4611
▁computer	-11.4635
▁lungs	-11.4635
▁worse	-11.4635
▁chimed	-11.4635
▁rockets	-11.4637
▁shyly	-11.4646
▁express	-11.4647
▁finger	-11.4661
▁hunter	-11.4663
▁daisies	-11.4669
▁sprinkled	-11.4671
▁dogs	-11.4683
▁gear	-11.4696
▁overjoyed	-11.4704
▁whoosh	-11.4704
▁numbers	-11.4713
▁flavors	-11.4724
magic	-11.4737
▁shipwreck	-11.4739
▁master	-11.4739
run	-11.4751
▁cause	-11.4773
▁noticing	-11.4774
▁scratching	-11.4775
▁traveling	-11.478
▁offer	-11.4793
▁gives	-11.4794
▁restless	-11.4797
▁barking	-11.4808
▁brewing	-11.4814
▁melodies	-11.4844
▁purred	-11.4845
▁stretching	-11.4855
▁ducks	-11.4879
▁sketchbook	-11.4879
▁marched	-11.488
▁swords	-11.4897
▁salty	-11.4915
▁selling	-11.4929
▁beard	-11.493
--	-11.4934
▁jumps	-11.4937
▁artifact	-11.4943
▁ceiling	-11.4951
▁refused	-11.4953
▁investigate	-11.4986
▁transformation	-11.4986
▁log	-11.5
▁interest	-11.5
▁mend	-11.5002
▁crunch	-11.5013
shifter	-11.5016
▁band	-11.5019
▁poor	-11.5022
▁sunflowers	-11.5029
▁mysteriously	-11.5029
▁perform	-11.5035
▁fights	-11.5049
good	-11.5056
▁resolve	-11.5057
▁hesitation	-11.5058
▁impossible	-11.5058
▁response	-11.5058
▁stunning	-11.5058
▁collection	-11.5058
▁accidentally	-11.5058
▁hues	-11.5069
nual	-11.508
▁cupcake	-11.5087
▁pleaded	-11.5094
▁technology	-11.5094
▁footprints	-11.5097
▁aimed	-11.5097
▁fateful	-11.5097
▁tossing	-11.51
▁current	-11.5124
▁sorceress	-11.513
▁thrive	-11.5159
u	-11.517
nuck	-11.5175
▁astronauts	-11.5185
▁breathtaking	-11.5203
▁phoenix	-11.5203
▁panel	-11.5203
▁sweetest	-11.5212
▁gets	-11.5227
▁costume	-11.5234
mia	-11.5235
▁eyebrow	-11.524
▁replies	-11.524
▁teasing	-11.524
▁descended	-11.5241
▁fed	-11.5246
▁winked	-11.5251
long	-11.5252
shaped	-11.5255
▁pad	-11.5265
▁deal	-11.5276
lly	-11.5283
▁scroll	-11.5308
▁bounce	-11.5313
le	-11.5338
▁togetherness	-11.5341
▁funniest	-11.5351
▁grey	-11.5351
▁lied	-11.5353
▁igniting	-11.5388
our	-11.5407
▁kiss	-11.5416
▁harsh	-11.5424
▁dizzy	-11.5425
▁lair	-11.5425
▁chores	-11.5427
less	-11.5439
▁ease	-11.5461
▁rippled	-11.5464
▁costumes	-11.5469
▁deserve	-11.5499
▁painful	-11.5499
▁tumbled	-11.55
▁folded	-11.5503
▁hallway	-11.5533
▁choosing	-11.5538
▁triceratops	-11.5538
▁hears	-11.5538
▁tablet	-11.5562
▁sunflower	-11.5571
lost	-11.5574
lapped	-11.5581
▁camp	-11.5592
▁guessed	-11.5593
▁gap	-11.5609
▁character	-11.5609
▁protector	-11.5611
▁dripping	-11.5614
▁spy	-11.5614
land	-11.5618
▁existed	-11.5624
▁pots	-11.5644
▁alarms	-11.5648
▁salt	-11.5651
▁ten	-11.5675
▁kings	-11.5682
ah	-11.5682
▁agent	-11.5686
▁ignited	-11.5691
▁perked	-11.5692
▁trinkets	-11.5695
▁mischievous	-11.5727
▁transform	-11.5741
▁ink	-11.5741
▁swinging	-11.5756
▁reason	-11.5763
leave	-11.5765
▁pause	-11.5767
▁cycle	-11.5767
▁envy	-11.5767
▁stirring	-11.5767
▁discoveries	-11.5768
▁demanded	-11.5768
▁thrilling	-11.5769
▁musician	-11.5802
▁halloween	-11.5806
▁whimsical	-11.5806
▁mr	-11.5807
▁skated	-11.5807
▁chirping	-11.5811
▁honored	-11.5816
▁scream	-11.5819
▁marshmallows	-11.5827
▁strike	-11.5841
▁enemies	-11.5845
▁uncertainty	-11.5845
▁grumbled	-11.5845
▁homework	-11.5846
▁sets	-11.5848
▁staying	-11.5863
▁image	-11.588
▁snowflake	-11.588
life	-11.5882
▁born	-11.5884
▁delicate	-11.5884
▁ordered	-11.5884
▁pleased	-11.5887
▁failures	-11.5888
▁steer	-11.5901
▁examin	-11.5903
▁mirrors	-11.5916
▁month	-11.592
▁hugging	-11.5923
▁plotting	-11.5923
▁cutting	-11.5924
▁firmly	-11.5927
▁lifetime	-11.5938
▁cautious	-11.5961
▁ladder	-11.5963
uh	-11.5964
▁marveled	-11.5965
▁piled	-11.597
ling	-11.599
▁mars	-11.5994
mom	-11.6
▁squawked	-11.6003
▁towered	-11.601
▁surrounding	-11.6017
▁cheek	-11.6038
was	-11.604
▁spices	-11.6063
▁conflict	-11.6073
▁flat	-11.6082
▁nobody	-11.6082
▁alongside	-11.6082
▁teaches	-11.6082
▁faintly	-11.6085
▁explain	-11.6097
▁eve	-11.6118
▁possibility	-11.6122
▁organized	-11.6122
▁bugs	-11.6145
▁pine	-11.6159
▁stir	-11.6162
▁pillows	-11.6177
▁frost	-11.6188
▁plain	-11.6199
▁movie	-11.6199
▁asteroid	-11.62
▁unspoken	-11.6202
▁laid	-11.6202
▁couch	-11.6202
▁innovation	-11.6202
▁beware	-11.6203
▁sports	-11.6222
▁edges	-11.6227
▁tables	-11.6247
▁protecting	-11.6266
▁paid	-11.6283
▁transforming	-11.6297
▁warn	-11.6306
▁agree	-11.6307
▁warnings	-11.6311
everyone	-11.6323
▁host	-11.6324
▁reward	-11.6341
▁glint	-11.6343
▁accepting	-11.6358
kindness	-11.6367
▁smarter	-11.6367
▁encountered	-11.6369
▁tracks	-11.6376
▁guests	-11.6379
▁clearly	-11.6382
▁poems	-11.6386
▁sip	-11.6391
▁ribbons	-11.6404
▁re	-11.6405
▁handle	-11.6406
▁galaxies	-11.6406
▁ladybug	-11.6406
▁failing	-11.6451
▁approach	-11.6467
▁differences	-11.6471
▁swelling	-11.6479
▁imaginations	-11.6481
▁chip	-11.6488
▁majestic	-11.6489
▁gates	-11.6524
▁zoom	-11.6525
▁weekend	-11.6531
lit	-11.6531
▁creations	-11.6543
▁ripple	-11.6571
▁video	-11.6571
▁flag	-11.6572
▁fluff	-11.6572
▁concert	-11.6573
▁shame	-11.6573
▁whipp	-11.6582
▁talents	-11.6589
▁bridges	-11.6609
▁chatted	-11.6615
▁clam	-11.6615
▁tilting	-11.6617
▁ends	-11.6625
art	-11.663
very	-11.6635
▁matched	-11.664
▁skate	-11.6655
▁humming	-11.6657
▁breakfast	-11.6657
▁responded	-11.6663
▁performed	-11.6667
open	-11.6697
▁travels	-11.6697
▁prison	-11.6697
▁bank	-11.6699
▁shopkeeper	-11.6699
▁shall	-11.6699
▁starlight	-11.6703
▁wilting	-11.6712
▁freeing	-11.6713
acceptance	-11.6739
▁lone	-11.674
▁kneeling	-11.6744
▁flood	-11.6762
▁twists	-11.6765
▁drums	-11.6773
▁brighten	-11.6774
▁plac	-11.6775
▁controls	-11.6776
▁expression	-11.6784
▁warming	-11.6807
▁ruined	-11.681
▁rides	-11.6818
happiness	-11.6825
▁tides	-11.6826
▁loyal	-11.6827
▁jelly	-11.6827
rubbed	-11.6827
▁threatening	-11.6828
▁doorway	-11.6828
▁farm	-11.6836
▁patient	-11.6869
▁tribe	-11.687
▁rubber	-11.687
▁tattered	-11.687
▁sparky	-11.689
▁appears	-11.6912
▁sunrise	-11.6914
▁legendary	-11.6914
▁clap	-11.6914
watch	-11.6955
▁museum	-11.6957
▁heartbroken	-11.6959
▁screens	-11.6966
▁senses	-11.6969
▁hang	-11.6988
▁bursting	-11.699
▁cups	-11.6998
want	-11.6999
▁overgrown	-11.7001
▁curled	-11.7004
▁dimly	-11.7008
▁cliffs	-11.7013
▁studying	-11.702
▁lower	-11.7036
▁blast	-11.7036
▁arriving	-11.7045
▁ashamed	-11.7045
▁brushstroke	-11.7045
▁slammed	-11.7045
▁beloved	-11.7045
▁smoothly	-11.7051
▁reflections	-11.7077
▁witness	-11.708
▁clouded	-11.708
▁seekers	-11.7082
▁resist	-11.7089
▁nodding	-11.709
▁hurting	-11.7124
▁dreamt	-11.7124
▁cracks	-11.7131
▁shark	-11.7133
▁clay	-11.7133
▁bouquet	-11.7134
▁weapon	-11.7134
▁sneaking	-11.714
▁mini	-11.7149
▁beep	-11.7156
▁admir	-11.7172
▁mood	-11.7178
▁spilling	-11.718
▁zooming	-11.7192
▁creak	-11.7201
▁craft	-11.7201
believe	-11.722
▁fuzzy	-11.7222
▁muttered	-11.7222
▁scanned	-11.7231
ipping	-11.7232
ic	-11.7234
▁warmer	-11.7245
▁stretch	-11.7245
▁sinking	-11.7257
▁bravest	-11.7259
▁wobble	-11.7263
▁false	-11.7267
▁slice	-11.7267
▁remains	-11.7268
▁dirty	-11.7272
▁card	-11.7286
▁confronted	-11.729
▁exit	-11.7304
▁stalls	-11.7308
▁cards	-11.731
▁gradua	-11.7312
▁mushroom	-11.7314
▁leg	-11.7314
▁upside	-11.7317
▁kicking	-11.7337
▁hike	-11.7356
▁anticipation	-11.7357
▁hilltop	-11.7357
▁sturdy	-11.7357
▁tragic	-11.7357
▁transport	-11.7357
▁crazy	-11.7357
▁ribbon	-11.736
▁allowed	-11.7364
▁pack	-11.7381
▁focusing	-11.739
▁crowded	-11.7397
▁restore	-11.7402
▁gloom	-11.7402
▁completely	-11.7405
▁wander	-11.7427
▁bikes	-11.7438
▁reefs	-11.7449
▁wilt	-11.7472
▁scann	-11.7486
▁tremble	-11.7493
▁dot	-11.7494
▁charge	-11.7494
▁grandpa	-11.7494
▁frosty	-11.7495
▁munching	-11.7496
▁sands	-11.7498
▁lowered	-11.7504
▁gears	-11.7505
▁surfaced	-11.7506
▁movements	-11.7516
▁volcano	-11.754
▁zippy	-11.7541
▁speaks	-11.7556
w	-11.7571
▁sprang	-11.7587
▁gleaming	-11.7589
▁ripe	-11.7599
▁distracted	-11.7603
▁destroy	-11.7611
▁adventurers	-11.762
oops	-11.7623
▁bend	-11.7623
▁glide	-11.7631
▁glue	-11.7632
▁typed	-11.7634
▁beckoned	-11.7635
▁rewards	-11.7635
▁threat	-11.7636
▁crushed	-11.7641
▁lovers	-11.765
▁crabs	-11.7661
▁attack	-11.7661
▁includ	-11.767
▁swallow	-11.7671
▁backdrop	-11.768
▁emerging	-11.768
▁someday	-11.768
▁gadget	-11.7684
▁clearer	-11.7685
▁counter	-11.7686
▁stacked	-11.7688
▁feed	-11.7714
▁candies	-11.7727
▁bully	-11.7727
▁foggy	-11.7727
▁pixie	-11.7727
▁underfoot	-11.7727
▁mystical	-11.7727
▁stall	-11.7731
▁hardest	-11.7748
▁decorate	-11.7773
▁altar	-11.7774
▁staircase	-11.7774
▁sheep	-11.7774
▁loving	-11.7774
▁baseball	-11.7774
▁conversation	-11.7778
▁whoever	-11.7781
▁messages	-11.7782
▁risks	-11.7783
▁ages	-11.7796
▁knees	-11.7803
ra	-11.7808
▁lots	-11.7814
▁flashing	-11.7818
▁waste	-11.782
▁horn	-11.7821
▁magician	-11.7821
▁alarm	-11.7826
▁sour	-11.7826
▁heights	-11.7837
▁melting	-11.7841
▁warriors	-11.7868
▁motion	-11.7869
▁ending	-11.788
▁tested	-11.788
▁healed	-11.7893
▁blowing	-11.7894
▁crumbs	-11.7899
▁flourish	-11.7908
▁rescue	-11.7916
▁stopping	-11.7918
▁pop	-11.7921
▁runner	-11.7922
▁goals	-11.7951
▁fortune	-11.7965
▁stuff	-11.7965
en	-11.7966
▁fully	-11.7972
▁biting	-11.7979
▁claws	-11.7981
▁sketch	-11.7991
▁untouched	-11.8013
▁gizmo	-11.8013
▁snapped	-11.8014
▁arrive	-11.8018
ken	-11.8019
▁strangers	-11.8022
▁points	-11.803
▁fins	-11.8036
▁lap	-11.8055
▁dishes	-11.8062
▁five	-11.8062
▁clown	-11.8067
▁puppet	-11.8067
▁tense	-11.8075
▁stack	-11.8089
▁comets	-11.8091
▁concern	-11.8102
perhaps	-11.8108
surprise	-11.8108
▁serve	-11.811
▁clumsy	-11.8111
▁rather	-11.8111
▁fled	-11.8112
▁hitting	-11.8113
▁sticky	-11.8113
▁rusted	-11.8114
▁sped	-11.8115
▁drawer	-11.8119
▁objects	-11.812
▁bears	-11.8125
▁chatter	-11.8137
▁trade	-11.8154
▁tasting	-11.816
▁patiently	-11.8161
▁chairs	-11.8164
▁weary	-11.8165
▁hides	-11.8176
▁included	-11.8176
▁buzz	-11.8186
dad	-11.8207
▁saturday	-11.8209
▁loyalty	-11.8209
▁tomatoes	-11.8209
▁cloudy	-11.8223
▁creative	-11.8258
▁sweetness	-11.8263
▁sealed	-11.8269
▁nestl	-11.8293
▁carefree	-11.8308
▁wonderland	-11.8312
▁raptor	-11.8315
▁foe	-11.8315
▁marble	-11.8315
ned	-11.8317
▁scenes	-11.8323
▁understands	-11.8336
▁vivid	-11.8357
▁flashes	-11.836
▁sprinkle	-11.8364
▁prank	-11.8365
▁queens	-11.8382
▁display	-11.84
make	-11.8405
▁magnificent	-11.8408
▁rebuilt	-11.8408
▁macguffin	-11.8408
▁clashed	-11.8412
▁minute	-11.8416
▁code	-11.8417
▁shower	-11.8432
▁seal	-11.8436
▁crush	-11.8437
▁desires	-11.8454
▁triumph	-11.8458
▁carries	-11.8459
▁legacy	-11.8459
▁stardust	-11.8459
▁mansion	-11.8459
▁smirked	-11.8467
▁efforts	-11.8468
▁steered	-11.847
▁reache	-11.8484
▁peek	-11.8488
▁disappearing	-11.8495
▁aching	-11.8503
▁pictur	-11.8507
▁graceful	-11.8508
▁sprinted	-11.8511
▁connects	-11.8515
▁adults	-11.8518
▁midst	-11.8521
▁picks	-11.8545
▁questioned	-11.8549
▁sparks	-11.8553
▁disaster	-11.8561
▁threads	-11.8563
▁detail	-11.8569
▁meets	-11.8597
ily	-11.8601
▁super	-11.8612
▁disbelief	-11.8612
▁fancy	-11.8612
▁merchant	-11.8612
▁pact	-11.8612
▁airplane	-11.862
▁gasping	-11.8623
▁press	-11.8642
▁blur	-11.8663
▁lunged	-11.8663
▁hut	-11.8664
▁instincts	-11.8668
honesty	-11.8713
▁information	-11.8715
▁streak	-11.8715
▁mermaids	-11.8722
▁awakened	-11.8722
▁spaces	-11.8725
▁angels	-11.8743
▁linger	-11.8754
share	-11.8765
▁undercover	-11.8767
▁sketches	-11.8767
▁flitted	-11.877
▁ashes	-11.8772
▁whirlwind	-11.8776
▁ducked	-11.8788
▁beams	-11.8791
▁blind	-11.8796
▁sandcastles	-11.8796
▁proven	-11.8804
racing	-11.8818
▁studio	-11.882
▁campfire	-11.882
▁arranged	-11.882
▁resourcefulness	-11.882
try	-11.882
▁booth	-11.8829
▁roads	-11.8833
▁hunters	-11.8833
▁succeeded	-11.8835
▁rows	-11.8862
▁outsider	-11.8864
▁mailbox	-11.8872
▁slippery	-11.8872
▁putting	-11.8875
at	-11.8891
▁thinker	-11.8897
▁smirk	-11.8903
▁soak	-11.8917
▁selfish	-11.8925
▁pterodactyl	-11.8925
▁lick	-11.8925
▁sipped	-11.8925
▁sam	-11.8926
▁schools	-11.8942
ar	-11.8959
▁gadgets	-11.8974
▁case	-11.8978
▁gang	-11.8978
▁tidy	-11.8978
▁whisked	-11.898
▁title	-11.8988
▁inventions	-11.8996
▁gasps	-11.9015
▁generous	-11.9032
▁managed	-11.9032
▁stomped	-11.9034
▁soda	-11.9035
▁surprisingly	-11.9036
▁thicker	-11.9042
▁sliding	-11.9055
▁envelope	-11.9061
▁deeds	-11.9062
▁row	-11.9075
▁common	-11.9086
▁heaviness	-11.9086
▁unison	-11.9086
▁accident	-11.9086
▁freeze	-11.9086
▁anxiously	-11.9088
▁overcoming	-11.9089
▁becomes	-11.909
▁darkening	-11.9091
▁tie	-11.9096
▁talks	-11.9108
▁presented	-11.913
▁pumpkins	-11.9131
▁celebrations	-11.9132
▁deceit	-11.914
▁softening	-11.9146
um	-11.9155
▁flooding	-11.9157
▁breaks	-11.916
▁balcony	-11.9194
▁thousand	-11.9194
▁four	-11.9194
▁crafting	-11.921
get	-11.9211
▁seeker	-11.9214
thanks	-11.9215
being	-11.9231
▁works	-11.9234
▁cute	-11.9236
courage	-11.9246
▁shoot	-11.9249
▁ability	-11.9249
▁vase	-11.9249
▁chatting	-11.9249
▁burning	-11.9259
▁seagull	-11.9261
la	-11.9271
▁bottles	-11.9301
▁awake	-11.9302
▁moral	-11.9304
▁cobwebs	-11.9304
▁essence	-11.9304
▁tongue	-11.9304
▁wondrous	-11.9304
▁groaned	-11.9305
▁fulfilled	-11.9306
▁darting	-11.9307
leo	-11.9357
show	-11.9359
▁fishermen	-11.9359
▁blared	-11.9359
▁wiggled	-11.9359
▁trials	-11.9366
mer	-11.937
▁yellowed	-11.9404
v	-11.941
close	-11.9412
▁furious	-11.9413
▁selves	-11.9414
▁sage	-11.9415
▁reflect	-11.9461
▁corals	-11.9465
▁brow	-11.9466
▁sweat	-11.9467
▁extra	-11.947
▁zog	-11.947
▁distraction	-11.947
▁cruelty	-11.9471
▁justice	-11.9475
▁bucket	-11.9483
dreams	-11.9489
▁sizes	-11.9505
▁ashore	-11.9527
▁fearless	-11.9527
▁version	-11.954
▁finishing	-11.9542
▁explaining	-11.9545
▁pancakes	-11.9554
▁oceans	-11.9557
▁innocent	-11.9582
▁pendant	-11.9583
▁scurried	-11.9583
▁squinted	-11.9584
▁thickened	-11.9584
▁recipes	-11.9585
▁worthy	-11.9589
▁helpless	-11.9592
▁artifacts	-11.9595
▁piles	-11.9615
▁contradictions	-11.9625
ville	-11.9626
ter	-11.9633
▁pit	-11.9637
▁cunning	-11.964
▁hedgehog	-11.964
▁lid	-11.964
▁main	-11.964
▁urgency	-11.964
▁thoughtful	-11.9648
ion	-11.9654
▁blended	-11.9656
▁hastily	-11.9697
▁sale	-11.9697
▁jars	-11.9698
▁mentioned	-11.9698
▁blushed	-11.97
▁parties	-11.97
▁root	-11.9703
▁structure	-11.971
▁bump	-11.9746
▁crumble	-11.9754
▁oasis	-11.9754
▁panting	-11.9754
▁scoffed	-11.9755
▁introduced	-11.9755
▁chips	-11.9756
▁scaring	-11.9757
▁mayor	-11.9758
▁potions	-11.9767
▁medal	-11.9769
▁skip	-11.9769
▁plate	-11.9772
like	-11.9796
▁loose	-11.9808
k	-11.9811
▁atmosphere	-11.9812
▁hourglass	-11.9812
▁incredibly	-11.9812
▁librarian	-11.9812
▁shaping	-11.9812
▁hovered	-11.9813
▁handsome	-11.9816
▁hopeless	-11.9817
▁toes	-11.9817
▁pondering	-11.9817
▁scrolls	-11.9822
▁contradiction	-11.9827
▁shares	-11.9834
▁glows	-11.985
▁kinds	-11.9856
▁exploration	-11.987
▁borrow	-11.987
▁marking	-11.9871
ies	-11.9873
▁wound	-11.9877
▁drone	-11.9885
▁pour	-11.9907
▁wronged	-11.9926
three	-11.9927
▁wife	-11.9929
▁shovels	-11.993
▁cousin	-11.9944
▁camping	-11.995
▁pig	-11.9954
▁respond	-11.9966
▁trails	-11.9968
▁closet	-11.9974
tomorrow	-11.9985
▁nurturing	-11.9988
▁orchard	-11.9988
▁violently	-11.9988
▁craved	-11.9988
▁basement	-11.9988
▁yummy	-11.9988
▁seconds	-12.0015
ro	-12.0039
▁quite	-12.0047
▁troubled	-12.0056
▁champion	-12.0063
▁tips	-12.0063
▁pebbles	-12.0069
▁dolls	-12.0072
id	-12.0093
▁roaring	-12.01
▁frame	-12.0105
▁tragedy	-12.0106
▁tapped	-12.0106
▁elderly	-12.0111
▁constellations	-12.0112
▁hunger	-12.0115
▁blinded	-12.0116
▁beaming	-12.0134
▁strengths	-12.0156
etched	-12.0161
▁office	-12.0164
▁language	-12.0166
▁skating	-12.0166
▁tournament	-12.0166
▁glistened	-12.0167
▁circuits	-12.017
▁cooler	-12.0176
▁teammate	-12.0184
▁cosmic	-12.0227
▁glen	-12.0227
▁graveyard	-12.0227
▁paradise	-12.0227
▁solace	-12.0227
▁worst	-12.0227
▁elf	-12.0227
▁rings	-12.0234
▁battled	-12.0235
▁holidays	-12.0237
▁ticket	-12.0244
▁leaping	-12.0253
▁engines	-12.0258
▁blossoms	-12.0265
▁rais	-12.027
▁blinking	-12.0285
bot	-12.0287
▁carnival	-12.0287
▁independent	-12.0287
▁navigated	-12.0288
▁intentions	-12.0292
▁represented	-12.0292
▁tending	-12.0295
▁bumped	-12.0296
▁circled	-12.0299
▁interesting	-12.031
▁oranges	-12.0333
▁filter	-12.0339
▁luna	-12.034
▁drive	-12.0343
▁silk	-12.0348
▁target	-12.0348
▁brook	-12.0348
▁defend	-12.04
▁decid	-12.04
tonight	-12.0407
▁uncertain	-12.0408
▁ambition	-12.0409
▁rallied	-12.0409
hearted	-12.0413
▁creates	-12.0418
▁baskets	-12.0423
▁scraps	-12.0423
▁tent	-12.0436
▁bundl	-12.0467
▁design	-12.0468
▁gasp	-12.0468
▁layers	-12.0502
▁hate	-12.0505
▁regrets	-12.0513
▁chances	-12.0513
▁oh	-12.0514
▁potential	-12.0533
▁reunion	-12.0533
▁dying	-12.0533
▁halfway	-12.0533
▁listens	-12.0547
▁advisor	-12.0553
▁emotion	-12.0553
▁tunes	-12.0581
▁alleys	-12.0586
▁nurture	-12.0595
▁nectar	-12.0596
▁warehouse	-12.0596
▁dribbled	-12.0596
▁plot	-12.0597
▁online	-12.0604
▁situation	-12.0615
▁style	-12.0616
▁soldier	-12.0616
▁tone	-12.0618
▁plays	-12.0628
ther	-12.0652
▁dazzling	-12.0659
▁giraffe	-12.0659
▁hoverboard	-12.0659
▁nerves	-12.0659
▁refreshing	-12.0659
▁stegosaurus	-12.0659
seek	-12.066
▁humor	-12.066
▁bolt	-12.0679
▁colored	-12.0693
▁noble	-12.0693
▁nap	-12.0722
▁route	-12.0722
▁dripped	-12.0722
▁driver	-12.0723
▁spotlight	-12.0723
▁weightless	-12.0725
▁keeps	-12.0726
▁checking	-12.0737
▁attempt	-12.0742
▁lightness	-12.075
▁sprinkles	-12.0776
▁chat	-12.0785
▁disguise	-12.0786
▁tighter	-12.0791
▁needle	-12.0793
▁logs	-12.0798
▁routine	-12.0806
▁amazingly	-12.0824
▁daily	-12.085
▁solitude	-12.085
▁stung	-12.085
▁twice	-12.085
▁wistfully	-12.0851
▁thrown	-12.0866
▁frowning	-12.0887
▁cap	-12.0898
power	-12.0903
▁rivals	-12.0904
ature	-12.091
▁carpet	-12.0914
▁myth	-12.0918
▁pockets	-12.0921
▁fists	-12.0934
▁caterpillar	-12.0936
▁softer	-12.0948
▁flows	-12.0965
▁bookstore	-12.0979
▁lazy	-12.0979
▁recognized	-12.0982
▁vine	-12.1002
excuse	-12.1045
▁activated	-12.1045
▁schoolyard	-12.1045
▁swan	-12.1045
▁outsmarted	-12.1068
▁gun	-12.111
▁tying	-12.111
▁overwhelmed	-12.1111
▁confidently	-12.1117
▁obstacles	-12.1125
▁chain	-12.1125
▁shakes	-12.1134
whoa	-12.1144
▁hello	-12.1148
▁swims	-12.1165
without	-12.1175
▁redemption	-12.1177
▁gnaw	-12.1177
▁storytelling	-12.1177
▁nudged	-12.1177
▁coolness	-12.118
▁supported	-12.1188
▁judge	-12.1199
▁jellybeans	-12.1209
▁doubted	-12.123
▁adventurer	-12.1239
▁snatch	-12.1239
▁splashes	-12.1245
▁uncle	-12.1246
▁remnants	-12.1247
▁rained	-12.1258
h	-12.1266
▁nets	-12.1271
▁flee	-12.1302
▁background	-12.131
▁brief	-12.131
▁location	-12.131
▁victorious	-12.131
▁budge	-12.131
▁risky	-12.1312
▁willow	-12.1313
▁bot	-12.1314
▁crumb	-12.1335
▁comforting	-12.1349
▁flyer	-12.1351
▁invent	-12.1355
ready	-12.1376
▁pace	-12.1377
▁hardships	-12.1379
▁feeding	-12.1397
▁curtains	-12.14
▁pets	-12.1402
▁weathered	-12.1404
▁photographs	-12.1413
▁runners	-12.1439
those	-12.1444
▁delightful	-12.1445
▁arrival	-12.1446
▁unease	-12.1446
▁handful	-12.1449
▁discussed	-12.1453
▁summoned	-12.1454
▁swimmer	-12.1472
▁awaken	-12.1498
▁batter	-12.1505
▁partners	-12.1512
▁navigate	-12.1513
▁creek	-12.1514
▁eldoria	-12.1514
▁satellite	-12.1514
▁strummed	-12.1514
▁boss	-12.1515
▁flipping	-12.1515
▁comforted	-12.1515
▁nurtured	-12.1516
plant	-12.1516
▁puff	-12.1517
as	-12.1521
▁earned	-12.1522
▁drowning	-12.1524
▁knee	-12.1535
▁bone	-12.1541
▁workers	-12.1541
ping	-12.1547
▁burn	-12.1554
▁designs	-12.1562
▁dreamy	-12.1563
▁shores	-12.1567
▁disturb	-12.1575
▁arrives	-12.1576
catch	-12.1581
▁compete	-12.1582
▁combine	-12.1583
▁brontosaurus	-12.1583
▁poke	-12.1584
▁driftwood	-12.1584
▁bathed	-12.1586
▁greatness	-12.1593
▁lately	-12.1605
▁haven	-12.1615
sh	-12.1621
▁closes	-12.1628
shift	-12.1636
z	-12.1642
▁berry	-12.1653
▁daisy	-12.1653
▁fiery	-12.1653
▁third	-12.1653
▁hiking	-12.1653
▁proposed	-12.1653
▁proof	-12.1653
▁enchanting	-12.1654
▁speedy	-12.1656
▁f	-12.1663
▁sprouted	-12.1673
▁flown	-12.1685
▁lightly	-12.1686
▁whe	-12.1704
▁sacrifice	-12.1722
▁unbreakable	-12.1723
▁wobbly	-12.1723
▁forged	-12.1723
ament	-12.1724
▁discussing	-12.1734
▁thoughtfully	-12.1735
▁barrier	-12.175
▁poster	-12.175
▁sprouts	-12.1753
▁conquered	-12.1754
▁peaks	-12.1765
▁jolt	-12.1784
curiosity	-12.1791
▁data	-12.1793
▁popcorn	-12.1793
▁rumbling	-12.1793
▁sidelines	-12.1793
▁velociraptor	-12.1793
▁skipping	-12.1793
▁soothing	-12.1795
▁quacked	-12.1795
▁moonlit	-12.1798
▁al	-12.1805
▁bet	-12.1851
covered	-12.1862
▁wistful	-12.1863
▁yesterday	-12.1864
▁creaky	-12.1865
▁north	-12.1869
▁noon	-12.1883
▁vow	-12.1883
▁calming	-12.1884
▁beasts	-12.189
▁die	-12.1891
▁summon	-12.1927
▁furniture	-12.1936
▁tennis	-12.1936
▁sledding	-12.1936
▁advised	-12.1936
▁realization	-12.1937
▁tickled	-12.1938
▁restored	-12.194
▁stacking	-12.1955
▁snap	-12.196
▁dock	-12.1961
▁believes	-12.1969
▁r	-12.1971
fine	-12.1994
friendship	-12.2005
▁electric	-12.2007
▁bullies	-12.2008
▁chapter	-12.2008
▁victories	-12.2008
▁rod	-12.2008
▁returns	-12.2018
▁o	-12.2036
▁mornings	-12.2041
wood	-12.2053
happy	-12.2078
▁attract	-12.208
▁either	-12.208
▁dried	-12.208
▁tapping	-12.208
▁benches	-12.2082
ted	-12.2099
▁leaders	-12.2101
climb	-12.2137
▁organize	-12.2152
▁ours	-12.2153
▁backstage	-12.2153
▁dead	-12.2153
▁pulsing	-12.2153
▁whirlpool	-12.2153
▁timer	-12.2153
▁flags	-12.2155
light	-12.2168
▁waits	-12.2168
▁c	-12.2194
▁forts	-12.2195
▁notices	-12.2201
▁fork	-12.2205
▁stare	-12.2212
▁wove	-12.2222
by	-12.2222
lily	-12.2225
▁wreck	-12.2226
▁lagoon	-12.2227
ch	-12.2227
▁countdown	-12.2227
▁rejoiced	-12.2227
▁weakness	-12.2227
▁kingdoms	-12.2228
▁orders	-12.2229
▁lollipops	-12.2264
handed	-12.2267
▁suffer	-12.2278
first	-12.2298
▁symphony	-12.2301
▁unleashed	-12.2306
▁armed	-12.2327
give	-12.2332
▁scale	-12.2332
▁details	-12.2363
fear	-12.2373
▁define	-12.2374
▁tech	-12.2375
▁battling	-12.2375
▁broom	-12.2375
▁caution	-12.2375
▁chaotic	-12.2375
▁content	-12.2375
▁confetti	-12.2375
▁dew	-12.2375
▁boasted	-12.2377
▁stops	-12.2405
▁invitation	-12.2407
▁flavor	-12.2407
ha	-12.2443
▁lighten	-12.245
▁adrenaline	-12.245
▁barren	-12.245
▁peculiar	-12.245
▁depend	-12.245
▁completed	-12.2455
▁delighted	-12.2456
▁dip	-12.2471
▁events	-12.2477
▁pixel	-12.2483
▁chilling	-12.2497
▁soldiers	-12.2502
▁titan	-12.2526
▁unforgettable	-12.2526
▁veins	-12.2526
▁police	-12.2526
▁unhappy	-12.2526
▁adjusted	-12.253
▁linked	-12.2533
▁visitor	-12.2565
▁greet	-12.258
▁cactus	-12.2602
▁consciousness	-12.2602
▁enormous	-12.2602
▁husband	-12.2602
▁windowsill	-12.2602
▁indeed	-12.2603
▁goods	-12.261
▁facts	-12.2619
▁awaits	-12.2634
▁entering	-12.2638
▁deed	-12.2642
think	-12.2663
▁juggling	-12.2679
▁artichoke	-12.2679
▁artwork	-12.268
▁consumed	-12.268
▁perfection	-12.2681
▁farther	-12.2683
helping	-12.2685
▁anchored	-12.2686
ma	-12.269
shifting	-12.2692
ped	-12.2701
▁scholar	-12.2713
▁tape	-12.2725
▁farmers	-12.2739
▁ill	-12.2751
though	-12.2755
▁erase	-12.2755
thirty	-12.2757
▁keyhole	-12.2757
▁considered	-12.2758
▁ensur	-12.2759
▁asteroids	-12.2762
▁designed	-12.2768
▁endlessly	-12.2769
▁banners	-12.2778
▁illuminated	-12.2785
▁wonderfully	-12.2787
▁illusion	-12.2792
▁monkeys	-12.2816
▁signed	-12.2826
quick	-12.2833
▁afterward	-12.2835
▁except	-12.2835
▁process	-12.2835
▁passage	-12.2835
▁attached	-12.2836
▁twitched	-12.2837
▁rex	-12.2847
▁currents	-12.2849
▁date	-12.285
▁token	-12.2854
▁packing	-12.2858
▁spice	-12.2871
▁firework	-12.2871
▁wizards	-12.2906
people	-12.2912
rita	-12.2912
▁maker	-12.2912
▁juggle	-12.2913
▁crime	-12.2914
▁juicy	-12.2914
▁optimism	-12.2914
▁stammered	-12.2914
rubbing	-12.2914
▁deceived	-12.2915
▁smartest	-12.2917
▁weakly	-12.2928
▁customers	-12.2929
▁shirt	-12.295
▁angel	-12.295
▁secretly	-12.2952
▁aback	-12.297
▁buckets	-12.2974
▁avoid	-12.2984
▁contrast	-12.2993
▁radio	-12.2993
▁destiny	-12.2993
▁sidewalk	-12.2993
▁parked	-12.2997
▁sings	-12.3028
▁flip	-12.303
▁guy	-12.303
▁salad	-12.3073
▁hushed	-12.3076
▁touches	-12.3077
▁projects	-12.3077
▁nails	-12.3098
▁watchers	-12.3098
▁healer	-12.3098
all	-12.3101
▁skilled	-12.3106
▁tricking	-12.3109
▁marshmallow	-12.3111
▁windy	-12.3139
▁encounter	-12.3145
▁sacred	-12.3154
▁bunch	-12.3154
▁apologized	-12.3154
▁valued	-12.3159
▁thorn	-12.3192
▁discuss	-12.3213
▁lure	-12.3226
▁gathers	-12.3228
▁earn	-12.323
dance	-12.3233
▁nebula	-12.3235
▁mill	-12.3235
▁teapot	-12.3235
▁transcend	-12.3235
▁headset	-12.3235
▁taunted	-12.3236
▁islanders	-12.3244
▁grasped	-12.326
▁pierc	-12.3264
▁repair	-12.3265
▁lip	-12.3274
choose	-12.3315
▁devis	-12.3317
▁griffin	-12.3317
▁quilt	-12.3317
▁bouncy	-12.3317
▁pod	-12.3317
▁crouched	-12.332
▁meowed	-12.3326
▁strokes	-12.3348
▁gratefully	-12.3355
▁haunt	-12.3378
▁knowingly	-12.3383
some	-12.3385
▁bind	-12.3387
his	-12.3394
mple	-12.3395
▁deceive	-12.3396
▁approval	-12.34
▁crooked	-12.34
▁staff	-12.34
▁amusing	-12.34
▁pity	-12.3401
▁hiked	-12.3402
▁storybook	-12.3431
▁brick	-12.344
▁singer	-12.3449
▁frowns	-12.3469
▁meetings	-12.3469
bravery	-12.3481
▁trace	-12.3482
▁embark	-12.3483
▁escaping	-12.3483
▁sanctuary	-12.3483
▁yearning	-12.3483
▁wins	-12.3487
▁roars	-12.3488
▁hatched	-12.3488
▁looming	-12.3489
▁avoided	-12.3492
▁dearly	-12.3507
▁bending	-12.3507
▁winners	-12.3512
▁photograph	-12.3523
▁sculpture	-12.3524
▁nightmare	-12.3524
▁kittens	-12.3535
▁cheat	-12.3545
▁mock	-12.3545
more	-12.3563
▁sleek	-12.3567
▁fourth	-12.3567
▁dots	-12.3568
▁scrambled	-12.3568
▁hovering	-12.357
▁frightening	-12.3575
▁safer	-12.358
▁openly	-12.3581
▁bananas	-12.3598
▁seats	-12.3602
▁system	-12.3609
▁toss	-12.3615
▁murals	-12.3621
▁parks	-12.3637
▁collar	-12.3652
▁difficult	-12.3652
▁heartache	-12.3652
▁seahorse	-12.3652
▁unfulfilled	-12.3652
▁flock	-12.3652
▁bluebird	-12.3653
▁weird	-12.3658
ur	-12.3664
▁badly	-12.3674
▁schemes	-12.3676
▁lollipop	-12.3694
▁sport	-12.3694
▁writes	-12.3699
▁deliver	-12.3728
▁racket	-12.3737
▁resourceful	-12.3737
▁silliest	-12.3737
▁eel	-12.3737
▁commanded	-12.3744
▁avoiding	-12.3752
▁waddl	-12.3757
▁frosting	-12.3766
▁boarded	-12.3776
▁cone	-12.3781
▁relax	-12.3815
▁praise	-12.3823
▁bodies	-12.3824
▁neon	-12.3824
▁yarn	-12.3824
▁admiration	-12.3824
▁terrified	-12.3824
▁thorny	-12.3824
▁clocks	-12.3829
▁sheets	-12.3849
▁hoop	-12.3867
▁uncovering	-12.3888
▁rat	-12.3901
▁tails	-12.3904
▁paddle	-12.3909
▁amused	-12.391
▁tempting	-12.3911
▁awesome	-12.3911
▁tire	-12.3954
▁nut	-12.3955
▁carving	-12.3956
▁chuckle	-12.3957
us	-12.3958
co	-12.398
gave	-12.3996
▁receive	-12.3997
▁beetle	-12.3998
▁doctor	-12.3998
▁pavement	-12.3998
▁dimming	-12.3998
▁joking	-12.3998
▁bitterness	-12.3999
▁traded	-12.4
▁dived	-12.4005
▁stickers	-12.4009
▁tests	-12.401
▁hunts	-12.4015
▁bowed	-12.4022
▁horses	-12.4028
▁nightmares	-12.4043
▁heading	-12.4045
▁counts	-12.4062
▁spins	-12.4069
▁boom	-12.4071
▁summit	-12.4087
▁fireplace	-12.4087
▁dragonfly	-12.4089
▁creaking	-12.4113
▁fooled	-12.4117
▁owls	-12.4118
▁jellybean	-12.4133
▁pancake	-12.4133
▁streetlight	-12.4134
▁willing	-12.4155
▁mere	-12.4172
▁desperation	-12.4176
▁junk	-12.4176
▁ramp	-12.4176
▁stamp	-12.4176
▁scribbled	-12.4176
▁juggled	-12.4177
▁dunes	-12.4183
▁surely	-12.4194
▁loudest	-12.4194
il	-12.4202
▁climbs	-12.4217
ation	-12.423
▁groups	-12.4231
▁shrink	-12.4253
turn	-12.4263
▁frisbee	-12.4266
▁otter	-12.4266
▁neither	-12.4266
▁moonstone	-12.4267
bring	-12.4267
▁forced	-12.4272
▁desired	-12.4274
▁fetch	-12.4275
▁flaws	-12.4281
▁results	-12.4283
▁fin	-12.4312
▁crayon	-12.4314
▁crafts	-12.4354
▁usual	-12.4356
▁instructed	-12.4357
▁loaf	-12.4357
▁steadily	-12.4357
▁chuckling	-12.4357
▁fable	-12.4357
▁mumbled	-12.4357
▁stargazing	-12.4357
▁bumpy	-12.4358
▁died	-12.4358
▁fitting	-12.4358
▁fury	-12.4361
▁preferr	-12.4366
▁miles	-12.4371
▁destroyed	-12.4374
▁awakening	-12.4375
▁rises	-12.4388
▁locker	-12.44
▁illusions	-12.4407
▁snuggl	-12.4428
▁roast	-12.4435
▁weapons	-12.4446
exactly	-12.4446
play	-12.4446
beware	-12.4446
▁exchange	-12.4448
▁tease	-12.4448
▁dense	-12.4449
▁jacket	-12.4449
▁lens	-12.4449
▁wagon	-12.4449
▁sunsets	-12.4449
▁include	-12.4451
▁gleamed	-12.4452
▁achieved	-12.4452
▁wanderer	-12.4455
▁festivals	-12.4478
▁dagger	-12.4498
▁classmate	-12.4498
▁app	-12.4518
face	-12.4539
▁reverse	-12.454
▁archway	-12.4541
▁bunnies	-12.4541
▁hawk	-12.4541
▁unicycle	-12.4541
▁wallet	-12.4541
▁package	-12.4541
ouch	-12.4576
▁mane	-12.459
▁argument	-12.4592
▁visitors	-12.4594
▁z	-12.4595
▁narrowed	-12.4598
▁belly	-12.4605
de	-12.462
▁ceremony	-12.4635
▁puppies	-12.4635
▁unstoppable	-12.4635
▁bellies	-12.4635
▁eaten	-12.4636
▁displayed	-12.4651
▁wits	-12.467
▁companion	-12.4686
▁weaver	-12.4687
▁plung	-12.4693
▁brew	-12.4707
▁foes	-12.4716
▁regain	-12.472
▁n	-12.4726
▁lord	-12.4729
▁tirelessly	-12.4729
▁paced	-12.4731
▁bolder	-12.4732
▁glimmers	-12.4793
▁builder	-12.4797
friends	-12.4802
alex	-12.4822
▁hesitant	-12.4823
▁improve	-12.4823
▁empathy	-12.4824
▁mesmerized	-12.4824
▁solid	-12.4824
▁beak	-12.4824
▁shrieked	-12.4825
▁screams	-12.4834
ment	-12.484
▁arrows	-12.4852
▁exists	-12.4862
▁gumdrops	-12.4867
▁gumdrop	-12.4877
▁missions	-12.4894
▁g	-12.4912
▁clenched	-12.492
▁groceries	-12.492
▁horror	-12.492
▁progress	-12.492
▁hideout	-12.4924
▁grades	-12.4936
▁mocking	-12.4936
▁rider	-12.4956
▁penguin	-12.4974
▁chaser	-12.4979
▁chests	-12.5009
▁tin	-12.501
▁blood	-12.5018
▁everyday	-12.5018
▁gut	-12.5018
▁cavern	-12.5018
▁fellow	-12.5019
▁tightened	-12.5019
▁guides	-12.5029
▁hallways	-12.5031
▁sparking	-12.5042
▁allies	-12.5043
▁helpers	-12.5047
▁expressing	-12.5055
▁creator	-12.5072
▁cow	-12.5075
her	-12.5075
▁stays	-12.5076
ce	-12.5088
ated	-12.5102
▁toast	-12.5103
▁grave	-12.5104
▁switch	-12.5107
▁link	-12.5107
which	-12.5113
ir	-12.5114
▁emerge	-12.5115
▁romance	-12.5116
▁similar	-12.5116
▁tricycle	-12.5116
▁adored	-12.5116
▁spaghetti	-12.5116
▁atop	-12.5116
▁divided	-12.5116
▁twitching	-12.5118
▁survived	-12.5119
▁repeated	-12.5119
▁carve	-12.5121
▁transforms	-12.5127
▁binding	-12.5132
▁burdens	-12.5138
▁steering	-12.5149
▁limits	-12.5152
ie	-12.5152
▁blossoming	-12.5166
▁level	-12.5171
▁owned	-12.5189
▁spiral	-12.5192
stand	-12.5199
ous	-12.5201
adventure	-12.5212
▁replace	-12.5214
▁friday	-12.5215
▁imaginary	-12.5215
▁reconnect	-12.5215
▁scars	-12.523
▁capes	-12.5231
▁witnessed	-12.5234
▁lemons	-12.5238
▁blinding	-12.524
▁gloves	-12.5242
▁imagines	-12.5266
per	-12.5269
▁goblin	-12.5271
▁drown	-12.5293
▁v	-12.53
▁anchor	-12.5306
▁coast	-12.5309
made	-12.5312
feel	-12.5312
goodbye	-12.5312
▁speech	-12.5315
▁film	-12.5315
▁intense	-12.5315
▁lend	-12.5315
▁mingling	-12.5315
▁plastic	-12.5315
▁squid	-12.5315
▁atlantis	-12.5315
▁reappeared	-12.5318
▁consequences	-12.532
▁wakes	-12.5322
▁glinted	-12.5336
▁expectations	-12.5337
▁oldest	-12.5339
▁chimes	-12.5343
kim	-12.5343
▁weed	-12.5367
▁blessing	-12.5374
▁weigh	-12.5399
teamwork	-12.5413
logic	-12.5414
▁regular	-12.5414
▁tomato	-12.5416
▁blazing	-12.5416
▁burrow	-12.5416
hmm	-12.5416
▁correctly	-12.5416
▁piercing	-12.5432
▁pencils	-12.5442
▁gatherings	-12.5474
▁siren	-12.5474
▁teachers	-12.5476
▁blows	-12.5483
▁torch	-12.5518
▁aware	-12.5518
▁destruction	-12.5518
▁luma	-12.5518
▁miracle	-12.5518
▁stash	-12.5518
▁steel	-12.5518
▁twelve	-12.5518
▁violin	-12.5518
▁tipped	-12.5518
▁exclaims	-12.5522
▁weaker	-12.5522
▁doorstep	-12.5524
▁findings	-12.5542
ten	-12.5563
▁rooftops	-12.5566
▁masked	-12.5584
▁tones	-12.5588
▁allow	-12.5594
ad	-12.5606
▁post	-12.5612
step	-12.5612
▁somehow	-12.5619
▁release	-12.562
▁steadied	-12.5621
▁waded	-12.5621
▁milk	-12.5621
▁million	-12.5621
▁pushes	-12.5623
ria	-12.563
rned	-12.5637
▁gods	-12.5645
▁kinder	-12.5651
▁winking	-12.5673
▁hated	-12.5681
▁clash	-12.5703
▁layer	-12.5704
▁tend	-12.5705
▁due	-12.5717
red	-12.5725
▁program	-12.5725
▁alert	-12.5725
▁council	-12.5725
▁fortress	-12.5725
▁nostalgia	-12.5725
▁ostrich	-12.5725
▁astray	-12.5725
▁swish	-12.5725
▁apartment	-12.5726
▁orbs	-12.5728
▁dragg	-12.5729
▁foods	-12.5745
▁lingering	-12.5752
rs	-12.5774
king	-12.582
▁testing	-12.5822
▁follows	-12.5825
▁iron	-12.583
▁driving	-12.583
▁thanksgiving	-12.583
▁tribute	-12.583
▁helm	-12.583
▁panicking	-12.5831
▁collapsed	-12.5831
▁required	-12.5831
▁glued	-12.5833
▁reigned	-12.5835
▁attacked	-12.585
▁blasted	-12.5851
▁refus	-12.5922
▁settle	-12.5936
ctually	-12.5937
▁annoyed	-12.5937
▁communicate	-12.5937
▁strict	-12.5937
▁untold	-12.5937
▁hesitantly	-12.5938
▁agents	-12.5949
▁interested	-12.5962
▁builders	-12.5991
▁guys	-12.5994
un	-12.6
▁ray	-12.6002
▁continues	-12.6002
never	-12.6003
▁swirls	-12.6041
hurry	-12.6042
▁encourage	-12.6043
▁potato	-12.6044
▁assist	-12.6044
▁health	-12.6044
▁academic	-12.6044
▁competing	-12.6044
▁harbor	-12.6044
▁onward	-12.6044
▁scarves	-12.6044
▁trekked	-12.6044
▁tumbling	-12.6044
▁comic	-12.6044
▁inner	-12.6045
led	-12.6045
▁damaged	-12.6045
▁ledge	-12.6046
▁ski	-12.6048
▁contained	-12.605
▁slyly	-12.6053
▁repaired	-12.6056
▁chickens	-12.6069
▁sunbeams	-12.6074
▁performing	-12.6085
▁aroma	-12.6089
▁represent	-12.6101
▁p	-12.6104
▁donut	-12.611
▁wire	-12.611
▁feasted	-12.6128
▁shatter	-12.6131
▁peel	-12.6139
▁dam	-12.6153
▁react	-12.6153
▁agency	-12.6153
▁drought	-12.6153
▁recognition	-12.6153
▁suitcase	-12.6153
▁interrupted	-12.6154
▁envisioned	-12.6155
▁helpful	-12.6155
▁catches	-12.6158
▁explains	-12.6161
▁beats	-12.6168
ry	-12.6171
▁bricks	-12.6209
▁shots	-12.6214
▁raindrop	-12.622
▁towel	-12.622
▁rolls	-12.6226
▁stares	-12.6239
▁co	-12.6242
▁combin	-12.6254
▁spray	-12.6254
▁matching	-12.6255
alright	-12.626
▁circling	-12.6263
▁fantastic	-12.6263
▁rapidly	-12.6263
▁samples	-12.6269
▁sniffing	-12.6269
▁beads	-12.6273
▁reminders	-12.6276
▁oddly	-12.6278
▁instruments	-12.6287
▁command	-12.6322
▁posters	-12.6331
ack	-12.6335
▁respected	-12.6342
▁meow	-12.6356
▁curl	-12.6365
▁decisions	-12.6367
down	-12.6368
▁de	-12.6368
wishes	-12.6372
rched	-12.6372
▁consume	-12.6373
▁afloat	-12.6374
▁eternal	-12.6374
▁luminous	-12.6374
▁mentor	-12.6374
▁misunderstood	-12.6374
▁stunned	-12.6374
▁tank	-12.6374
▁amnesia	-12.6374
▁compared	-12.6374
▁pinch	-12.6374
▁convinced	-12.6374
▁villager	-12.6379
mine	-12.6379
▁whistled	-12.638
▁coldness	-12.6383
▁suffered	-12.6387
▁civilizations	-12.6388
▁booming	-12.6391
▁hunting	-12.6402
▁hurts	-12.6405
▁trapp	-12.6422
▁streetlights	-12.6428
▁shops	-12.644
▁raincoat	-12.6442
▁grain	-12.6443
▁actor	-12.6452
▁fold	-12.6464
▁roam	-12.6464
▁statues	-12.647
▁floats	-12.6475
▁aunt	-12.6485
▁revel	-12.6486
▁blip	-12.6486
▁infectious	-12.6486
▁doom	-12.6486
▁droplets	-12.6486
▁approaches	-12.6487
▁healthy	-12.6487
▁reads	-12.6487
ck	-12.6487
▁skates	-12.6488
▁fearsome	-12.6495
▁icing	-12.6509
▁backpacks	-12.651
▁b	-12.6521
▁chirp	-12.6534
▁solution	-12.6557
▁worms	-12.6558
▁lakes	-12.6559
▁wit	-12.6563
▁tents	-12.6565
▁quests	-12.6584
samuel	-12.6598
▁venture	-12.6599
▁chin	-12.66
▁liquid	-12.66
▁plenty	-12.66
▁survival	-12.66
▁terrifying	-12.66
▁gown	-12.66
▁occasionally	-12.66
▁jewelry	-12.66
yum	-12.6601
▁beckoning	-12.6605
▁foxes	-12.6611
▁retrieve	-12.6611
▁musicians	-12.6612
▁robes	-12.6617
ke	-12.6618
▁useless	-12.6629
▁scientists	-12.664
▁brightness	-12.6651
ent	-12.667
▁flake	-12.6672
el	-12.6677
ful	-12.6678
▁plates	-12.6685
▁shoots	-12.669
▁soften	-12.6705
▁require	-12.6714
▁contagious	-12.6715
▁debris	-12.6715
▁doorbell	-12.6715
▁elves	-12.6715
▁gnarled	-12.6715
▁harp	-12.6715
▁innocence	-12.6715
▁judgment	-12.6715
▁mixture	-12.6715
▁traitor	-12.6715
▁reluctantly	-12.6715
▁thirsty	-12.6715
▁separated	-12.6717
▁princesses	-12.6717
▁munched	-12.6718
▁yelling	-12.6721
▁onion	-12.6741
▁kindest	-12.6741
▁sung	-12.6764
▁sticking	-12.6773
▁couples	-12.6781
▁van	-12.6816
▁marvel	-12.6818
▁rust	-12.6822
▁readers	-12.6823
▁tastes	-12.6828
▁revive	-12.683
▁abyss	-12.6831
▁brachiosaurus	-12.6831
▁epic	-12.6831
▁inseparable	-12.6831
▁recess	-12.6831
▁savor	-12.6831
▁penned	-12.6832
▁pole	-12.6832
▁shorter	-12.6834
▁onboard	-12.6843
▁spines	-12.6851
▁lifeless	-12.6854
▁suggests	-12.6863
iest	-12.6875
▁slides	-12.6892
ive	-12.6894
▁limit	-12.6897
▁howl	-12.6937
ber	-12.6938
joy	-12.6946
correct	-12.6946
boo	-12.6947
▁entire	-12.6947
▁valentine	-12.6949
▁principal	-12.6949
▁awkwardly	-12.695
▁wildfire	-12.695
▁passes	-12.6951
▁drinking	-12.6957
▁whirling	-12.6958
▁umbrellas	-12.6965
▁timeless	-12.6976
▁strangely	-12.6987
able	-12.6991
▁cloaks	-12.7015
▁ingredient	-12.7025
▁seep	-12.7026
▁trips	-12.7039
▁whimper	-12.7059
▁robo	-12.706
▁fizz	-12.7067
▁piqued	-12.7068
▁remembrance	-12.7068
▁turbulent	-12.7068
hooray	-12.7068
▁nuzzl	-12.7068
▁banks	-12.7069
▁sadder	-12.7071
▁peacefully	-12.708
▁dawned	-12.7082
▁inch	-12.7128
▁afternoons	-12.7136
▁stumble	-12.7144
▁bud	-12.7144
▁chant	-12.7166
▁crawl	-12.7166
▁sp	-12.7176
ho	-12.7183
grandmother	-12.7186
▁confuse	-12.7187
▁steam	-12.7188
▁observed	-12.7189
▁symbolized	-12.7193
▁unveiled	-12.7193
▁reli	-12.7209
▁fan	-12.7214
▁quieter	-12.7229
ant	-12.7261
▁chord	-12.7266
▁aim	-12.7287
▁sneer	-12.7302
hidden	-12.7308
truth	-12.7308
stories	-12.7308
▁keen	-12.7309
▁popular	-12.731
▁companionship	-12.731
▁raging	-12.731
▁rogue	-12.731
▁sleeve	-12.731
▁snowstorm	-12.731
▁subterranean	-12.731
▁trudg	-12.731
▁unclear	-12.731
▁battlefield	-12.731
▁useful	-12.7312
▁complained	-12.7312
▁site	-12.7316
▁suffering	-12.7332
▁sleds	-12.7337
th	-12.7348
▁hinted	-12.7356
▁tr	-12.7367
▁cherishing	-12.737
▁cares	-12.7383
▁lever	-12.739
▁guest	-12.7391
▁con	-12.7402
▁trolls	-12.7414
▁wiggle	-12.7433
▁sunglasses	-12.7434
▁vessel	-12.7434
▁mirage	-12.7434
▁noisy	-12.7434
▁coats	-12.7434
▁frantically	-12.7434
▁untangled	-12.7434
▁removed	-12.7435
wing	-12.7435
▁rely	-12.7439
▁experienced	-12.7441
▁puffed	-12.7449
▁answering	-12.747
▁howling	-12.7472
man	-12.7488
▁paying	-12.7516
fully	-12.7526
ap	-12.753
▁hops	-12.7536
▁unleash	-12.755
something	-12.7556
▁ajar	-12.7559
▁bait	-12.7559
▁copy	-12.7559
▁invincible	-12.7559
▁veil	-12.7559
▁programmed	-12.7559
▁spies	-12.7559
▁troublemaker	-12.7559
▁zone	-12.7559
▁spoil	-12.7559
▁presentation	-12.7559
▁dropping	-12.7559
▁crackling	-12.7559
▁overwhelming	-12.7559
▁darken	-12.756
▁tentacles	-12.7573
▁pan	-12.7605
▁tap	-12.7611
▁burdened	-12.7615
greetings	-12.7635
over	-12.7637
!'"	-12.766
▁picnics	-12.7673
▁hoot	-12.7677
meet	-12.7683
▁punch	-12.7685
▁bay	-12.7685
▁confusing	-12.7685
▁extraordinary	-12.7685
▁sunday	-12.7685
▁explosion	-12.7685
▁tv	-12.7686
▁watchful	-12.7687
▁seller	-12.7693
▁reasons	-12.77
▁insects	-12.7707
ity	-12.7758
▁blade	-12.777
▁helmet	-12.777
▁generation	-12.777
▁ember	-12.7771
▁ties	-12.7788
▁pranks	-12.7795
▁puppets	-12.7798
▁d	-12.781
everything	-12.7811
0	-12.7813
▁captive	-12.7813
▁chorus	-12.7813
▁crickets	-12.7813
▁ferr	-12.7813
▁identity	-12.7813
▁instructions	-12.7813
▁melancholy	-12.7813
▁shrimp	-12.7813
▁tummy	-12.7813
▁wept	-12.7813
▁posed	-12.7814
▁curly	-12.7814
▁dimmer	-12.7815
▁buzzy	-12.7815
does	-12.7818
▁bitterly	-12.7822
▁attacking	-12.7851
▁arguments	-12.7873
▁pools	-12.7873
▁claw	-12.7893
▁outfit	-12.79
▁brain	-12.79
▁height	-12.79
▁villains	-12.7907
jose	-12.7941
▁bullied	-12.7943
▁cafeteria	-12.7943
▁duties	-12.7943
▁empowered	-12.7943
▁streetlamp	-12.7943
▁unfair	-12.7943
▁women	-12.7943
▁heavens	-12.7943
▁nook	-12.7943
▁rewrite	-12.7943
▁bellowed	-12.7943
▁candlelight	-12.7944
▁spare	-12.7944
▁battery	-12.7944
▁powerless	-12.7949
▁dis	-12.7954
▁puffing	-12.7969
▁engineer	-12.7969
▁glittered	-12.7978
▁visits	-12.798
▁cultures	-12.7984
▁lists	-12.7992
▁prizes	-12.8002
▁meteor	-12.8031
▁slope	-12.8031
▁styles	-12.8033
▁seagulls	-12.8046
fire	-12.8065
▁corn	-12.8074
yay	-12.8075
▁album	-12.8075
▁ankle	-12.8075
▁ankylosaurus	-12.8075
▁engulf	-12.8075
▁stray	-12.8075
▁trickery	-12.8075
▁uniting	-12.8075
▁hood	-12.8076
▁downfall	-12.8077
▁drooping	-12.808
▁daydreaming	-12.8087
▁fires	-12.8091
▁cheating	-12.8096
▁honestly	-12.811
▁agreeing	-12.8119
▁flips	-12.8146
▁barriers	-12.8156
▁dessert	-12.8164
▁talented	-12.8166
▁surf	-12.8185
▁award	-12.82
jump	-12.8206
▁dodge	-12.8207
yeah	-12.8208
▁decay	-12.8208
▁inquired	-12.8208
▁laptop	-12.8208
▁reborn	-12.8208
▁starship	-12.8208
▁wolves	-12.8208
▁cling	-12.8208
▁easel	-12.8209
▁yawned	-12.8212
▁towns	-12.8213
▁retreated	-12.8216
ul	-12.8222
▁burnt	-12.8224
▁await	-12.8236
▁eagles	-12.8236
▁butter	-12.8243
▁desks	-12.8251
▁zor	-12.8262
▁landscapes	-12.8265
▁bites	-12.8282
▁appearing	-12.8291
▁sorrowful	-12.8293
▁moat	-12.83
▁chills	-12.8305
▁la	-12.8307
▁shivers	-12.8318
▁measure	-12.8342
ounce	-12.8343
▁business	-12.8343
▁advantage	-12.8343
▁furrowed	-12.8343
▁kettle	-12.8343
▁sentence	-12.8343
▁striking	-12.8343
▁unnoticed	-12.8343
▁zeta	-12.8343
▁tempted	-12.8344
▁toaster	-12.8344
▁fished	-12.8345
▁deserved	-12.8347
▁faltered	-12.8348
▁rushes	-12.8352
▁fragments	-12.8354
▁chattered	-12.8367
▁ally	-12.8388
▁systems	-12.8413
llow	-12.8431
cat	-12.8432
▁opponent	-12.8437
lived	-12.8442
▁leapt	-12.8461
▁thinkers	-12.8468
got	-12.8477
▁grabs	-12.8478
independence	-12.8478
▁separate	-12.8479
▁prettiest	-12.848
▁suspense	-12.848
▁sympathy	-12.848
▁sync	-12.848
▁sponge	-12.848
▁tray	-12.848
best	-12.8482
▁spiraled	-12.8492
▁stark	-12.8494
▁mouths	-12.8505
▁den	-12.855
▁builds	-12.8552
▁hesitate	-12.8575
▁vendor	-12.8576
▁folk	-12.8576
▁nail	-12.8576
▁retreat	-12.8597
▁tinker	-12.8597
▁gazes	-12.8609
▁bulb	-12.8619
▁cigarette	-12.8619
▁report	-12.8619
▁shady	-12.8619
▁skeptical	-12.8619
▁tavern	-12.8619
▁vulnerability	-12.8619
▁arose	-12.8619
▁proclaimed	-12.8619
▁hotel	-12.862
▁beans	-12.862
▁badger	-12.862
▁videos	-12.8623
▁plea	-12.8625
▁losses	-12.8626
tted	-12.8626
▁whirled	-12.8626
▁agrees	-12.8627
▁muffins	-12.8652
▁sculptures	-12.8691
▁lasts	-12.8693
gging	-12.8698
▁emerald	-12.8717
▁tiger	-12.8717
▁patt	-12.8742
▁blaze	-12.8759
▁chalk	-12.876
▁birdhouse	-12.876
▁cherry	-12.876
▁existence	-12.876
▁hospital	-12.876
▁wrath	-12.876
▁conch	-12.876
▁marketplace	-12.876
▁scuttled	-12.8761
▁ominously	-12.8761
▁quit	-12.8762
▁considering	-12.8763
ance	-12.8765
▁desperately	-12.8766
▁evenings	-12.8785
▁hatch	-12.8786
▁fist	-12.886
▁frighten	-12.8881
▁sprites	-12.8882
ered	-12.8883
▁blues	-12.8887
change	-12.8901
focus	-12.8901
▁solar	-12.8901
▁glitch	-12.8903
▁rewind	-12.8903
▁address	-12.8903
▁overcame	-12.8903
▁ruling	-12.8903
▁scoring	-12.8903
▁slither	-12.8903
▁spicy	-12.8903
▁pluck	-12.8903
▁sensors	-12.8903
▁rattled	-12.8903
▁thriving	-12.8903
▁unearthed	-12.8905
▁neatly	-12.891
▁scattering	-12.8912
▁ash	-12.8919
▁raise	-12.8922
▁protectors	-12.8922
▁yells	-12.8928
▁raccoons	-12.8931
▁gardening	-12.894
▁brains	-12.8951
▁suits	-12.8967
▁lasting	-12.8967
▁bother	-12.897
da	-12.8998
▁canes	-12.8998
▁hammer	-12.9025
▁hints	-12.9029
water	-12.9035
▁dash	-12.9039
▁narrowing	-12.904
bright	-12.904
embrace	-12.9046
lena	-12.9046
need	-12.9046
gold	-12.9046
▁collapse	-12.9047
▁moth	-12.9047
▁championship	-12.9048
▁emma	-12.9048
▁humbly	-12.9048
▁spike	-12.9048
▁canyon	-12.9048
▁assured	-12.9048
▁hay	-12.9048
▁continuing	-12.9049
▁demanding	-12.9051
oo	-12.9053
▁purring	-12.9056
▁oars	-12.9057
▁appreciated	-12.906
▁markers	-12.9062
▁brightvale	-12.9063
▁disturbed	-12.9066
▁pawn	-12.9067
ging	-12.9076
looks	-12.9077
▁byte	-12.9082
▁catcher	-12.9099
▁flakes	-12.9103
▁grains	-12.9104
cing	-12.9129
▁shaken	-12.9138
▁zoo	-12.9138
▁coconut	-12.9152
▁arrow	-12.9152
▁hue	-12.9152
▁loop	-12.9153
▁sheet	-12.9153
▁daydream	-12.9173
heart	-12.9185
strength	-12.9193
▁benny	-12.9195
▁hilarious	-12.9195
▁outcast	-12.9195
▁pleasant	-12.9195
▁scampered	-12.9195
▁trampoline	-12.9195
▁whimsy	-12.9195
▁canoe	-12.9195
▁easter	-12.9195
▁glider	-12.9197
▁screeched	-12.9198
▁drooped	-12.9199
▁movies	-12.9205
▁heist	-12.9209
▁aisles	-12.9213
▁gestures	-12.9234
▁folks	-12.9241
▁offers	-12.9249
▁pixels	-12.928
▁ponder	-12.9285
▁advisors	-12.9298
vale	-12.9303
▁pound	-12.9322
▁outcome	-12.9327
rain	-12.9329
▁gnomes	-12.9334
▁stitch	-12.9335
▁entertain	-12.9335
nothing	-12.9342
▁expose	-12.9343
▁breezy	-12.9344
▁crinkled	-12.9344
▁decorating	-12.9344
▁gingerbread	-12.9344
▁lullaby	-12.9344
▁merry	-12.9344
▁peacock	-12.9344
▁turkey	-12.9344
▁volleyball	-12.9344
▁diner	-12.9344
▁sneezed	-12.9345
▁resources	-12.9346
▁chanted	-12.9355
▁regained	-12.9358
▁mocked	-12.936
▁docked	-12.9362
ical	-12.9383
▁futures	-12.9384
▁fans	-12.9398
▁lions	-12.9399
▁lifts	-12.9421
▁chime	-12.9452
▁wisp	-12.9452
▁pro	-12.9462
▁feasts	-12.9466
▁bracelets	-12.9474
▁adjust	-12.9488
hop	-12.9492
tradition	-12.9493
may	-12.9494
▁anxiety	-12.9496
▁bobbed	-12.9496
▁wrench	-12.9496
▁fault	-12.9496
▁flopped	-12.9496
▁sculptor	-12.9496
▁controlled	-12.9497
▁sir	-12.9497
▁core	-12.9497
fived	-12.9498
▁frayed	-12.9499
flying	-12.9505
▁relaxed	-12.9511
▁rooted	-12.9519
▁nests	-12.9527
▁adds	-12.9542
▁screaming	-12.9549
▁actors	-12.9554
▁fits	-12.9558
ier	-12.9559
▁cows	-12.9563
▁penguins	-12.9564
▁tip	-12.957
▁unfolding	-12.957
▁hoops	-12.9572
▁silenced	-12.9577
▁planes	-12.958
▁befriend	-12.9587
▁aren	-12.9599
ba	-12.9603
▁depth	-12.9607
eat	-12.9636
emmanuel	-12.9647
▁stubborn	-12.9649
▁exhausted	-12.9649
▁farewell	-12.9649
▁foam	-12.9649
▁oblivious	-12.9649
▁pottery	-12.9649
▁remote	-12.9649
▁smoky	-12.9649
▁sparrow	-12.9649
▁surfboard	-12.9649
▁zappy	-12.965
nice	-12.965
▁uniqueness	-12.9651
▁state	-12.9651
▁quickened	-12.9652
▁veggies	-12.9655
▁racers	-12.9668
▁floorboards	-12.9684
▁trains	-12.9691
ara	-12.9693
▁wasted	-12.9732
▁suggest	-12.9754
▁sunbeam	-12.9763
▁glove	-12.9763
▁croak	-12.9784
▁granting	-12.9789
ball	-12.9798
rious	-12.9799
▁script	-12.9806
▁servant	-12.9806
▁rejection	-12.9806
▁chopped	-12.9806
▁cocoon	-12.9806
▁reassured	-12.9806
▁poof	-12.9806
▁truthful	-12.9809
▁aqua	-12.9809
eries	-12.9814
▁clashing	-12.9826
▁entranced	-12.9829
▁mittens	-12.9831
▁sharply	-12.9838
▁weavers	-12.9878
▁cones	-12.9885
▁champions	-12.9921
▁experiment	-12.9921
▁banner	-12.9921
▁unicorns	-12.9952
▁pinks	-12.9953
▁reds	-12.9961
grandfather	-12.9962
gather	-12.9962
▁ominous	-12.9963
▁nudge	-12.9963
▁obscure	-12.9963
▁damage	-12.9963
▁dissolve	-12.9964
▁port	-12.9964
▁airship	-12.9964
▁leadership	-12.9964
▁lump	-12.9964
▁stained	-12.9964
▁strawberries	-12.9964
▁death	-12.9964
▁farthest	-12.9964
▁original	-12.9964
▁meaningful	-12.9965
▁urgently	-12.9965
▁mourned	-12.9967
▁wag	-12.9968
▁lacked	-12.997
▁grandparents	-12.9971
▁beaches	-12.9973
▁drowned	-12.9978
▁grapes	-12.9988
ty	-13.0008
ary	-13.0019
▁odds	-13.0053
war	-13.0055
▁zap	-13.0071
▁jobs	-13.0072
▁gesture	-13.0082
▁performer	-13.0084
▁retrac	-13.0088
coming	-13.0092
▁whales	-13.0101
▁contain	-13.0103
▁watcher	-13.0103
▁buying	-13.0108
▁anniversary	-13.0126
▁celestia	-13.0126
▁challenging	-13.0126
▁constant	-13.0126
▁contact	-13.0126
▁eight	-13.0126
▁gravity	-13.0126
▁observing	-13.0126
▁quaint	-13.0126
▁radiating	-13.0126
▁raid	-13.0126
▁silliness	-13.0126
▁twenty	-13.0126
▁aimlessly	-13.0126
▁jolly	-13.0126
▁mage	-13.0126
▁involved	-13.0127
▁blazed	-13.0127
▁wary	-13.0129
▁pouted	-13.0129
▁webs	-13.0129
▁army	-13.0129
▁calmness	-13.0131
▁wedding	-13.0134
▁rarely	-13.014
▁coolest	-13.0146
▁ornaments	-13.0159
▁grins	-13.0165
▁buds	-13.0184
▁gaining	-13.0208
▁withered	-13.0238
▁fools	-13.024
▁upward	-13.0246
▁admit	-13.0246
▁pattern	-13.0251
▁climber	-13.0263
▁thump	-13.0267
▁dusted	-13.0279
sharing	-13.0287
▁awkward	-13.0288
▁blame	-13.0289
▁apologize	-13.0289
▁pri	-13.0289
▁tranquil	-13.029
▁satisfaction	-13.029
▁scheming	-13.029
▁goofy	-13.029
▁wreckage	-13.029
▁brotherhood	-13.029
▁overlooked	-13.0291
▁measured	-13.0291
▁crafty	-13.0292
▁furiously	-13.0294
▁isle	-13.0387
▁pedal	-13.0391
▁number	-13.0413
▁whirl	-13.0416
▁w	-13.0436
▁research	-13.0441
▁careless	-13.0445
▁sill	-13.0456
▁comb	-13.0456
▁blorp	-13.0456
▁festivities	-13.0456
▁menacing	-13.0456
▁nymph	-13.0456
▁paddling	-13.0456
▁blurry	-13.0456
▁reel	-13.0456
▁pouch	-13.0457
▁bedroom	-13.0457
▁suck	-13.0457
▁tripping	-13.0458
▁finest	-13.0459
▁prisoner	-13.0463
▁outline	-13.0465
▁tooth	-13.0466
▁boiling	-13.0466
▁pedaling	-13.047
▁stakes	-13.0482
▁disappears	-13.0501
▁lamps	-13.0515
▁fired	-13.0542
friend	-13.0558
qu	-13.0559
▁shortcut	-13.0582
▁confess	-13.0604
fly	-13.0612
▁releas	-13.0616
▁shelters	-13.0622
old	-13.0622
home	-13.0624
▁sauce	-13.0625
▁daunting	-13.0626
▁depict	-13.0626
▁fridge	-13.0626
▁quill	-13.0626
▁rink	-13.0626
▁suffocating	-13.0626
▁drap	-13.0626
▁malice	-13.0626
▁stew	-13.0626
▁cackled	-13.0626
▁resumed	-13.0626
▁batch	-13.0626
▁glared	-13.0627
▁july	-13.0627
▁obeyed	-13.0632
▁th	-13.0635
▁rhymes	-13.0635
▁betrayer	-13.0642
▁seriously	-13.0645
▁worker	-13.0649
rely	-13.065
▁flippers	-13.066
▁flitt	-13.0663
ending	-13.0664
▁phones	-13.0668
▁tigers	-13.0678
▁mango	-13.0682
bo	-13.0682
▁passions	-13.0698
▁elephants	-13.0701
▁fearful	-13.0772
▁reign	-13.079
▁pensive	-13.0798
▁mail	-13.0798
▁mingled	-13.0798
▁polished	-13.0798
▁refuge	-13.0798
▁replayed	-13.0798
▁satisfied	-13.0798
▁stump	-13.0798
▁syrup	-13.0798
▁vulnerable	-13.0798
▁scrapbook	-13.0798
▁marry	-13.0798
▁rubble	-13.0798
▁goose	-13.0798
▁illness	-13.0799
▁tugging	-13.0799
▁keyboard	-13.08
▁chewed	-13.08
▁nightfall	-13.0802
▁crossroads	-13.0802
▁prints	-13.0812
▁cheated	-13.0816
▁bats	-13.0861
▁solutions	-13.0864
▁magically	-13.0877
▁spreads	-13.0886
▁deserted	-13.0909
▁boulder	-13.093
▁knob	-13.093
revenge	-13.0971
▁mid	-13.0973
▁ivy	-13.0974
▁knives	-13.0974
▁phantom	-13.0974
▁sapling	-13.0974
▁mold	-13.0974
▁sensation	-13.0974
▁duckling	-13.0974
▁hare	-13.0975
▁awful	-13.0975
▁bore	-13.0979
▁m	-13.0986
▁goodness	-13.0987
▁sorrows	-13.0989
▁delivered	-13.0992
▁swamp	-13.1004
▁oil	-13.1026
▁rewarding	-13.1032
▁commands	-13.1043
▁tinge	-13.1046
dream	-13.1082
▁loom	-13.1087
▁str	-13.1103
▁cub	-13.1104
▁lemon	-13.1109
▁blush	-13.1131
solve	-13.115
perfect	-13.115
▁muse	-13.1151
▁badge	-13.1152
▁deafening	-13.1152
▁dial	-13.1152
▁evidence	-13.1152
▁isolated	-13.1152
▁isolation	-13.1152
▁nova	-13.1152
▁perspective	-13.1152
▁platform	-13.1152
▁scribbling	-13.1152
▁trek	-13.1152
▁vital	-13.1152
▁hook	-13.1152
▁palette	-13.1152
▁tilly	-13.1152
▁sammy	-13.1153
▁labor	-13.1154
▁protection	-13.1155
nature	-13.1162
▁endure	-13.1163
▁yellows	-13.1163
▁crawling	-13.1172
▁patter	-13.1175
▁invites	-13.12
▁markets	-13.122
star	-13.124
▁noses	-13.1257
▁lover	-13.1263
▁makers	-13.1264
▁el	-13.1268
▁superpower	-13.129
▁muffin	-13.1291
▁reflects	-13.1292
ee	-13.1326
pick	-13.1332
music	-13.1332
kart	-13.1332
read	-13.1332
▁angrily	-13.1334
▁boundaries	-13.1334
▁disheartened	-13.1334
▁elegant	-13.1334
▁favor	-13.1334
▁heirloom	-13.1334
▁hesitating	-13.1334
▁hundred	-13.1334
▁junkyard	-13.1334
▁messenger	-13.1334
▁naughty	-13.1334
▁pleading	-13.1334
▁rolo	-13.1334
▁maiden	-13.1334
▁slick	-13.1334
▁techie	-13.1334
▁discussion	-13.1334
▁barnacles	-13.1336
▁dries	-13.1336
▁exposed	-13.1337
▁rescued	-13.1338
▁rarest	-13.1339
▁mossy	-13.1339
▁barks	-13.1355
▁outdo	-13.1356
▁slips	-13.1401
▁youngest	-13.1403
▁remaining	-13.1452
knowledge	-13.1466
▁relic	-13.1476
▁clowns	-13.1498
▁load	-13.1511
▁triumphant	-13.1518
▁cours	-13.1519
responsibilities	-13.1519
▁absorb	-13.1519
▁amusement	-13.1519
▁chariot	-13.1519
▁conductor	-13.1519
▁enthusiasm	-13.1519
▁league	-13.1519
▁ogre	-13.1519
▁rummag	-13.1519
▁silhouette	-13.1519
▁haze	-13.1519
▁poking	-13.1519
▁correct	-13.1522
▁cheeky	-13.1522
▁jet	-13.1523
▁seiz	-13.1532
▁lookout	-13.1536
▁noodles	-13.1546
▁sever	-13.1546
touch	-13.1549
side	-13.1553
▁responding	-13.1562
ine	-13.1577
ph	-13.1577
▁rulers	-13.1593
▁qu	-13.1597
▁tires	-13.1612
▁growling	-13.1636
▁decoration	-13.1665
wisdom	-13.1706
maria	-13.1706
3	-13.1708
▁compliment	-13.1708
▁deceiving	-13.1708
▁fragrant	-13.1708
▁genius	-13.1708
▁medicine	-13.1708
▁nourish	-13.1708
▁quirky	-13.1708
▁stripes	-13.1708
▁teacup	-13.1708
▁antics	-13.1708
▁rice	-13.1708
▁football	-13.1708
▁tickling	-13.1709
▁entwined	-13.1709
▁heartbreak	-13.1717
▁fewer	-13.1725
▁concerned	-13.1742
stars	-13.1751
▁views	-13.1761
▁gritt	-13.1796
▁god	-13.1799
▁locals	-13.1823
▁floorboard	-13.1857
▁fr	-13.1865
create	-13.1898
imagine	-13.1898
patience	-13.1898
space	-13.1898
▁untangle	-13.1899
▁grumble	-13.1899
filled	-13.19
▁destin	-13.19
▁adapt	-13.19
▁mundane	-13.19
▁nagged	-13.19
▁trott	-13.19
▁victim	-13.19
▁reaction	-13.19
▁strum	-13.1901
▁bookshop	-13.1902
▁guesses	-13.1902
▁starstone	-13.1906
▁splattered	-13.1907
▁pil	-13.1907
▁loaded	-13.191
▁declares	-13.1911
▁features	-13.1915
▁startl	-13.1918
▁cr	-13.1924
▁gaps	-13.1926
▁alike	-13.1931
car	-13.1952
▁donuts	-13.1978
low	-13.1986
iming	-13.1986
▁hunted	-13.1989
▁hits	-13.2027
▁vehicles	-13.2034
▁scrap	-13.2042
▁instrument	-13.2053
▁obstacle	-13.2053
▁fact	-13.2053
▁expectation	-13.2054
▁relive	-13.2068
▁eats	-13.2072
▁swoop	-13.2074
▁musty	-13.2075
▁unveil	-13.2088
▁wanders	-13.2088
▁sighs	-13.2091
▁gas	-13.2092
freedom	-13.2094
▁genuine	-13.2095
▁wears	-13.2095
▁explode	-13.2095
▁tink	-13.2096
▁opposite	-13.2096
▁relationship	-13.2096
▁absent	-13.2096
▁coexist	-13.2096
▁dreamscape	-13.2096
▁emptier	-13.2096
▁figment	-13.2096
▁referee	-13.2096
▁wiggly	-13.2096
▁charging	-13.2096
▁heritage	-13.2096
▁clownfish	-13.2096
▁jingled	-13.2097
▁squeaky	-13.2097
▁formation	-13.2097
▁sack	-13.2098
▁accomplished	-13.2098
▁humble	-13.2098
▁taunting	-13.2101
misunderstanding	-13.2103
▁pairs	-13.2104
▁prayed	-13.2105
too	-13.2106
▁sharper	-13.2107
▁deepen	-13.2107
▁piec	-13.2119
▁triumphed	-13.213
discovery	-13.2137
▁reclaimed	-13.2157
▁stumbles	-13.2167
▁onions	-13.2171
▁murmur	-13.2244
▁bridg	-13.227
▁descend	-13.2274
▁pray	-13.2287
▁appreciat	-13.2287
sorry	-13.2294
yummy	-13.2295
▁claps	-13.2295
▁mate	-13.2296
▁fright	-13.2296
▁cemetery	-13.2296
▁circus	-13.2296
▁collaboration	-13.2296
▁copied	-13.2296
▁effect	-13.2296
▁parchment	-13.2296
▁punish	-13.2296
▁receiving	-13.2296
▁stadium	-13.2296
▁strawberry	-13.2296
▁unyielding	-13.2296
▁bask	-13.2296
▁newspaper	-13.2296
▁mangoes	-13.2296
▁gateway	-13.2297
▁morphed	-13.2297
▁debated	-13.2297
▁reunited	-13.2297
▁wetter	-13.2297
▁1	-13.2298
▁roller	-13.2299
▁sputtered	-13.23
▁muscles	-13.23
▁litter	-13.2304
▁daydreamed	-13.2308
▁alleyways	-13.231
▁robbers	-13.231
▁surfing	-13.2317
▁subjects	-13.2318
ru	-13.2319
▁moats	-13.2361
▁waterfalls	-13.2366
▁nurs	-13.239
▁rains	-13.2428
▁shadowed	-13.2437
▁cousins	-13.2446
ger	-13.2447
▁flickers	-13.2447
▁barrel	-13.2457
air	-13.247
▁scatter	-13.2478
▁diver	-13.2479
▁ex	-13.2491
▁recover	-13.2492
write	-13.2498
colored	-13.2498
inside	-13.2499
someone	-13.2499
▁dramatic	-13.25
▁grim	-13.25
gone	-13.25
▁aardvark	-13.25
▁foreign	-13.25
▁guild	-13.25
▁pterosaur	-13.25
▁stove	-13.25
▁submit	-13.25
▁zero	-13.25
▁saddest	-13.25
▁thicket	-13.25
▁heroism	-13.25
▁widen	-13.2501
▁country	-13.2501
▁scissors	-13.2501
▁dramatically	-13.2501
▁pup	-13.2501
▁kisses	-13.2501
▁polly	-13.2502
▁daddy	-13.2502
▁gestured	-13.2504
▁cawed	-13.2504
▁clinked	-13.2504
▁artie	-13.2505
▁firelight	-13.2506
▁brainstormed	-13.2506
▁bath	-13.2523
▁lightened	-13.2524
▁peeling	-13.2526
▁nicely	-13.2538
▁jo	-13.2538
▁nor	-13.2539
rk	-13.2554
▁seeks	-13.2559
▁bounds	-13.2588
▁invitations	-13.262
▁spill	-13.2643
▁worrying	-13.2657
▁ornament	-13.2666
▁twig	-13.2666
▁speaker	-13.2668
▁dart	-13.2687
▁tim	-13.269
flowers	-13.2694
▁weep	-13.2695
▁hi	-13.2702
drink	-13.2707
▁tumble	-13.2708
▁bubbly	-13.2709
▁cascad	-13.2709
▁certain	-13.2709
▁commotion	-13.2709
▁fifteen	-13.2709
▁jasmine	-13.2709
▁majesty	-13.2709
▁overshadowed	-13.2709
▁pastries	-13.2709
▁reputation	-13.2709
▁rosy	-13.2709
▁submarine	-13.2709
▁velvet	-13.2709
▁wretched	-13.2709
▁starhaven	-13.2709
▁whizz	-13.2709
▁knitting	-13.2709
▁toolbox	-13.2709
▁shallow	-13.2709
▁jam	-13.2709
▁reeds	-13.2709
▁nibbled	-13.2709
▁resonated	-13.2711
▁drenched	-13.2711
▁switched	-13.2727
ge	-13.273
▁spaceships	-13.2735
▁expressed	-13.2762
▁pitch	-13.2771
▁hesitates	-13.2774
▁spoons	-13.2819
▁sooner	-13.2839
▁whisperer	-13.2848
▁flipper	-13.2878
▁chart	-13.2889
▁bandit	-13.2897
▁squeak	-13.2899
▁br	-13.2899
imagination	-13.2919
trapped	-13.2919
▁divide	-13.2921
▁recognize	-13.2921
▁bobbing	-13.2922
▁impact	-13.2922
▁nagging	-13.2922
▁poison	-13.2922
▁scarecrow	-13.2922
▁serene	-13.2922
▁solstice	-13.2922
▁turmoil	-13.2922
▁underestimated	-13.2922
▁wacky	-13.2922
▁watermelon	-13.2922
▁extend	-13.2922
▁alliance	-13.2922
▁bandage	-13.2922
▁directly	-13.2922
▁equally	-13.2922
▁profound	-13.2922
▁protective	-13.2923
▁improved	-13.2924
▁dismissed	-13.2924
▁shyness	-13.2927
night	-13.2939
▁sorts	-13.2939
▁outfits	-13.2993
▁meadows	-13.2993
▁sirens	-13.3013
▁sinks	-13.3025
▁lasted	-13.3045
ga	-13.305
start	-13.3091
▁type	-13.3094
▁unravel	-13.3116
▁conversations	-13.312
▁perk	-13.313
grab	-13.3137
▁urgent	-13.3138
▁dribble	-13.3138
▁activities	-13.3139
▁athlete	-13.3139
▁bonfire	-13.3139
▁cash	-13.3139
▁floppy	-13.3139
▁funnier	-13.3139
▁microphone	-13.3139
▁powder	-13.3139
▁ridiculous	-13.3139
▁slowpoke	-13.3139
▁swore	-13.3139
▁tapestries	-13.3139
▁trading	-13.3139
▁vengeance	-13.3139
▁peck	-13.3139
▁morality	-13.3139
▁vale	-13.3142
▁classes	-13.3143
▁finishes	-13.3144
▁streamers	-13.3144
▁creepy	-13.3145
▁pumping	-13.3148
▁wavered	-13.3149
▁lur	-13.3164
▁blown	-13.3174
▁cleaner	-13.3183
▁bob	-13.3206
▁bowls	-13.3207
▁slowing	-13.326
▁digs	-13.3297
stone	-13.3297
▁moonbeam	-13.3318
▁result	-13.3318
▁nobles	-13.332
ring	-13.3327
▁triumphs	-13.3328
▁sniff	-13.3339
▁symboliz	-13.3346
▁replac	-13.3352
dancing	-13.3359
grow	-13.3359
▁natural	-13.336
soon	-13.336
▁reunite	-13.336
▁leather	-13.3361
▁expert	-13.3361
▁gluing	-13.3361
▁hovercraft	-13.3361
▁immense	-13.3361
▁intricate	-13.3361
▁lava	-13.3361
▁mercy	-13.3361
▁surreal	-13.3361
▁unworthy	-13.3361
▁waft	-13.3361
▁opal	-13.3361
▁cupboard	-13.3361
▁loung	-13.3361
▁chipped	-13.3361
▁torches	-13.3361
▁matches	-13.3363
▁blessed	-13.3364
▁revived	-13.3366
▁rekindled	-13.3366
hill	-13.3367
▁pl	-13.3368
▁bedtime	-13.3368
▁slower	-13.337
▁sunstone	-13.3372
▁soap	-13.3374
▁thumping	-13.338
wear	-13.3386
▁tacos	-13.3399
der	-13.341
▁models	-13.3455
▁wi	-13.3469
▁guessing	-13.3527
▁whip	-13.3535
▁customer	-13.3545
age	-13.3546
▁trunks	-13.3568
▁attacks	-13.3571
▁fighter	-13.3574
▁repeat	-13.358
▁attend	-13.3584
clear	-13.3586
laughter	-13.3586
luis	-13.3586
speak	-13.3586
alice	-13.3586
▁convince	-13.3587
▁chess	-13.3588
▁distress	-13.3588
▁empire	-13.3588
▁feign	-13.3588
▁fragrance	-13.3588
▁goggles	-13.3588
▁kayak	-13.3588
▁ornate	-13.3588
▁sloth	-13.3588
▁tiko	-13.3588
▁trapdoor	-13.3588
▁tremor	-13.3588
▁ugly	-13.3588
▁vial	-13.3588
▁amends	-13.3588
▁flora	-13.3588
▁six	-13.3588
▁outstanding	-13.3588
▁unfinished	-13.3588
▁luckiest	-13.3589
▁exchang	-13.3589
▁poetry	-13.359
▁sickness	-13.359
laced	-13.359
▁saucer	-13.359
▁dresses	-13.3591
▁churned	-13.3591
▁crunchy	-13.3592
▁whirring	-13.3597
▁unraveled	-13.3598
▁thumped	-13.3601
▁richest	-13.3606
▁nibbles	-13.3611
▁orderly	-13.3625
▁foundation	-13.366
▁grounded	-13.3672
▁vanishing	-13.368
▁owners	-13.372
▁stargaze	-13.3733
ipped	-13.3764
▁boil	-13.3799
▁obey	-13.3812
▁hush	-13.3812
▁mast	-13.3819
▁restor	-13.3819
▁cooperate	-13.382
▁pose	-13.382
▁fizzle	-13.382
▁backfired	-13.3821
▁bizarre	-13.3821
▁cabbage	-13.3821
▁channel	-13.3821
▁clenching	-13.3821
▁judging	-13.3821
▁nightshade	-13.3821
▁opportunity	-13.3821
▁reckless	-13.3821
▁snorkel	-13.3821
▁vault	-13.3821
▁violet	-13.3821
▁tryouts	-13.3821
▁zara	-13.3821
▁patchwork	-13.3821
▁zorp	-13.3821
▁starfall	-13.3823
▁usually	-13.3824
topia	-13.3825
▁kneel	-13.3826
▁strengthen	-13.3827
▁covers	-13.3827
▁twinkles	-13.3836
▁bills	-13.3837
▁whir	-13.3843
▁twisty	-13.3846
▁chanting	-13.3847
▁files	-13.3851
▁mournful	-13.3853
▁bella	-13.3878
▁inventors	-13.3886
▁coconuts	-13.389
▁kn	-13.3901
▁chasers	-13.3928
ously	-13.3932
▁roles	-13.3977
▁flicked	-13.3984
▁unlocks	-13.3992
dding	-13.4004
▁goodbyes	-13.4026
▁ticks	-13.4034
▁purr	-13.4037
ched	-13.404
▁traditional	-13.4044
ask	-13.4052
▁thundered	-13.4055
▁debate	-13.4058
▁afford	-13.4059
▁canopy	-13.4059
▁carousel	-13.4059
▁chief	-13.4059
▁closure	-13.4059
▁courtyard	-13.4059
▁credit	-13.4059
▁downstairs	-13.4059
▁elude	-13.4059
▁grazed	-13.4059
▁lamb	-13.4059
▁lila	-13.4059
▁lilies	-13.4059
▁rewound	-13.4059
▁santa	-13.4059
▁serving	-13.4059
▁session	-13.4059
▁studies	-13.4059
▁unforgiving	-13.4059
▁cereal	-13.4059
▁rugged	-13.4059
▁scariest	-13.4059
▁terror	-13.4059
▁fantasy	-13.4059
▁belt	-13.4059
▁error	-13.406
▁applauded	-13.406
▁bury	-13.406
▁naturally	-13.4061
▁pathway	-13.4064
▁uplift	-13.4064
▁seven	-13.4065
▁outshine	-13.4065
▁lifeline	-13.4066
▁searches	-13.4067
▁quicker	-13.4078
▁haste	-13.4094
▁beeping	-13.4134
ky	-13.414
▁howls	-13.4148
▁chirps	-13.4151
spire	-13.4193
▁giver	-13.4207
▁record	-13.4236
▁yell	-13.4238
▁mat	-13.4274
▁fulfill	-13.4294
daddy	-13.4301
finally	-13.4301
▁prick	-13.4302
▁mug	-13.4302
▁accomplishment	-13.4303
▁actress	-13.4303
▁bragged	-13.4303
▁chasm	-13.4303
▁console	-13.4303
▁expanse	-13.4303
▁grasshopper	-13.4303
▁sapphire	-13.4303
▁scout	-13.4303
▁texture	-13.4303
▁trophies	-13.4303
▁vinegar	-13.4303
▁wavy	-13.4303
▁compell	-13.4303
▁puck	-13.4303
▁settling	-13.4303
▁mole	-13.4303
▁dazzled	-13.4303
▁popping	-13.4303
▁rebellion	-13.4304
▁blamed	-13.4304
▁huffed	-13.4305
▁squeeze	-13.4306
▁cube	-13.431
▁dreamlike	-13.4324
▁balanced	-13.4325
▁surroundings	-13.4326
▁wounded	-13.434
▁meat	-13.4346
▁draws	-13.4387
press	-13.4437
▁rightful	-13.4457
▁booths	-13.4508
round	-13.4509
▁whirlwinds	-13.451
▁insect	-13.451
▁flaw	-13.451
▁material	-13.4511
uck	-13.4516
fish	-13.4527
▁cracking	-13.4535
▁falter	-13.4544
▁endings	-13.4545
2	-13.4546
▁bouquets	-13.4547
town	-13.4549
beauty	-13.4551
family	-13.4551
generosity	-13.4551
▁provide	-13.4552
▁cacti	-13.4553
▁double	-13.4553
▁fascinating	-13.4553
▁goddess	-13.4553
▁hazy	-13.4553
▁incomplete	-13.4553
▁injured	-13.4553
▁leak	-13.4553
▁navigating	-13.4553
▁particular	-13.4553
▁raw	-13.4553
▁rebirth	-13.4553
▁romantic	-13.4553
▁sincerity	-13.4553
▁snowbank	-13.4553
▁snuff	-13.4553
▁suspicion	-13.4553
▁trove	-13.4553
▁wrinkled	-13.4553
▁saturn	-13.4553
▁sofa	-13.4553
phew	-13.4553
▁batteries	-13.4553
▁probab	-13.4553
▁duo	-13.4553
▁glo	-13.4554
▁goalie	-13.4554
▁delivery	-13.4555
▁puffy	-13.4555
▁reversed	-13.4556
▁goldfish	-13.4557
▁arena	-13.4557
▁bursts	-13.4558
▁canvases	-13.456
▁yawning	-13.4564
lies	-13.4569
▁sleeps	-13.4571
▁skied	-13.4573
▁shards	-13.4594
▁pans	-13.4622
▁represents	-13.4654
dig	-13.4661
▁storytellers	-13.4701
▁enters	-13.4738
▁rebel	-13.4766
▁prayer	-13.4766
▁taco	-13.4766
▁adult	-13.4766
▁aches	-13.4781
▁drifts	-13.4789
▁recogniz	-13.4801
▁splatter	-13.4801
▁shocking	-13.4808
▁cluster	-13.4809
▁colony	-13.4809
▁dedicated	-13.4809
▁insight	-13.4809
▁keychain	-13.4809
▁renewal	-13.4809
▁stranded	-13.4809
▁swerved	-13.4809
▁thunderclap	-13.4809
▁tingling	-13.4809
▁wiggling	-13.4809
▁imperfect	-13.4809
▁gigant	-13.4809
return	-13.481
▁bustled	-13.481
▁sphere	-13.481
maker	-13.481
▁ballroom	-13.4811
▁galloped	-13.4812
▁mourning	-13.4815
▁overboard	-13.4816
▁goldie	-13.482
danger	-13.482
▁weaved	-13.4821
▁personal	-13.4823
ice	-13.4824
▁stitched	-13.4824
▁options	-13.4839
▁forge	-13.4849
▁heartbeats	-13.4866
▁takeoff	-13.4868
▁camped	-13.4869
▁crushing	-13.4879
▁dr	-13.4888
▁emeralds	-13.4889
teach	-13.4893
▁ro	-13.4899
▁dives	-13.4906
owed	-13.4952
▁distracting	-13.4952
▁sore	-13.4978
ved	-13.4982
▁h	-13.4983
▁gardeners	-13.502
▁lingers	-13.5027
way	-13.5028
▁shard	-13.5029
▁gleam	-13.505
▁crouch	-13.5064
5	-13.507
answer	-13.507
peter	-13.507
making	-13.507
▁crows	-13.5072
▁thirst	-13.5072
▁defense	-13.5073
▁avatar	-13.5073
▁bookshelf	-13.5073
▁carriage	-13.5073
▁cranny	-13.5073
▁desolate	-13.5073
▁discouraged	-13.5073
▁downcast	-13.5073
▁eternity	-13.5073
▁foreboding	-13.5073
▁forehead	-13.5073
▁impatient	-13.5073
▁organizing	-13.5073
▁position	-13.5073
▁resilient	-13.5073
▁sake	-13.5073
▁sentinel	-13.5073
▁treacherous	-13.5073
▁unafraid	-13.5073
▁undeterred	-13.5073
▁vacation	-13.5073
▁wobbling	-13.5073
▁nutty	-13.5073
▁robin	-13.5073
▁pleasure	-13.5073
▁gleefully	-13.5073
▁sailboat	-13.5073
▁selfishness	-13.5073
▁impressive	-13.5073
five	-13.5073
▁shuffled	-13.5074
▁seedling	-13.5077
▁coughed	-13.5077
▁glittery	-13.5077
▁framed	-13.5077
▁customs	-13.508
▁boiled	-13.5082
▁nervousness	-13.5083
▁tulips	-13.5084
▁stomping	-13.5086
▁deepening	-13.5091
▁goo	-13.5106
▁screws	-13.5109
▁brightwood	-13.513
▁pinn	-13.5131
▁ho	-13.5161
▁arch	-13.5167
▁wisest	-13.519
ying	-13.5212
▁bars	-13.5218
▁signals	-13.5231
▁versions	-13.5279
line	-13.5282
ving	-13.5285
▁ce	-13.5287
▁twirls	-13.5288
▁herb	-13.5288
▁text	-13.529
▁ritual	-13.5299
▁pineapple	-13.5299
▁mitten	-13.53
▁grade	-13.53
▁steals	-13.5301
work	-13.5308
▁stomp	-13.5321
field	-13.5332
▁whisk	-13.5334
▁lack	-13.5334
▁creaks	-13.5335
bird	-13.5336
▁suspicious	-13.5341
▁intent	-13.5342
▁east	-13.5342
▁drip	-13.5343
▁chop	-13.5343
▁angrier	-13.5343
▁captivating	-13.5343
▁corridor	-13.5343
▁crucial	-13.5343
▁describing	-13.5343
▁disrupt	-13.5343
▁harness	-13.5343
▁ladies	-13.5343
▁merrily	-13.5343
▁mismatched	-13.5343
▁physical	-13.5343
▁postcard	-13.5343
▁sinister	-13.5343
▁upstairs	-13.5343
▁zebra	-13.5343
absolutely	-13.5343
▁section	-13.5343
▁exhibition	-13.5343
▁scarce	-13.5343
▁disagreed	-13.5343
▁scenery	-13.5343
▁recently	-13.5344
▁paintbrushes	-13.5344
▁foolishness	-13.5344
▁recited	-13.5345
▁sorted	-13.5347
▁wildness	-13.5353
▁quacking	-13.5355
▁scraped	-13.5355
▁fred	-13.5355
tively	-13.5356
▁undo	-13.5359
▁clawed	-13.5361
▁pays	-13.5378
▁shrinking	-13.5384
▁heave	-13.5391
▁elsewhere	-13.5404
▁j	-13.5409
▁smirking	-13.5413
▁roofs	-13.5416
▁goats	-13.5426
▁levers	-13.5439
▁teachings	-13.549
▁flaps	-13.5508
▁shifts	-13.5513
▁knots	-13.5539
▁tickets	-13.5541
▁scar	-13.5555
▁portrait	-13.5577
rin	-13.5582
▁stake	-13.5587
▁mo	-13.5598
▁beckon	-13.5599
wake	-13.5605
▁sweep	-13.5607
▁bi	-13.5616
fight	-13.5618
memories	-13.5618
promise	-13.5618
fun	-13.5619
▁observe	-13.5619
venturing	-13.5621
▁amount	-13.5621
▁anemone	-13.5621
▁babies	-13.5621
▁centuries	-13.5621
▁cinnamon	-13.5621
▁napkin	-13.5621
▁necessary	-13.5621
▁quiz	-13.5621
▁request	-13.5621
▁shoelace	-13.5621
▁typewriter	-13.5621
▁upstream	-13.5621
▁blurring	-13.5621
▁tomb	-13.5621
▁pitcher	-13.5621
▁crackle	-13.5621
▁toiled	-13.5622
▁priceless	-13.5623
▁shopping	-13.5623
▁misses	-13.5624
▁icicles	-13.5626
▁rallying	-13.5628
▁descending	-13.564
▁robotic	-13.5644
▁joyous	-13.5647
▁crates	-13.5654
▁heartstone	-13.5659
▁softness	-13.5666
▁slopes	-13.5714
▁daggers	-13.5753
▁nurse	-13.5774
▁rebuilding	-13.5781
▁tokens	-13.5782
▁docks	-13.5792
▁dies	-13.5793
▁fountains	-13.5802
▁attempts	-13.5814
▁ni	-13.5816
▁fuller	-13.5833
▁curve	-13.5862
▁mile	-13.5863
▁robe	-13.5865
▁tilt	-13.5884
▁mar	-13.5893
▁weaken	-13.59
anne	-13.5903
prepare	-13.5904
meow	-13.5904
known	-13.5905
▁fle	-13.5906
▁barista	-13.5906
▁collapsing	-13.5906
▁communication	-13.5906
▁complex	-13.5906
▁doodling	-13.5906
▁obsessed	-13.5906
▁opulen	-13.5906
▁slumber	-13.5906
▁spinosaurus	-13.5906
▁straw	-13.5906
▁thunderstorm	-13.5906
▁unanswered	-13.5906
▁laundry	-13.5906
▁enchantment	-13.5906
▁rug	-13.5906
▁sillier	-13.5906
▁stealthily	-13.5906
▁thus	-13.5906
▁advanced	-13.5906
▁pogo	-13.5906
▁relish	-13.5906
cross	-13.5907
▁lapping	-13.5907
▁pounced	-13.5907
▁thunderous	-13.5907
▁kit	-13.5908
▁mistwood	-13.5909
▁entirely	-13.591
young	-13.591
▁contemplating	-13.591
▁collector	-13.5911
▁quickening	-13.5914
▁banished	-13.5914
▁toasted	-13.5932
▁retreating	-13.5935
▁dipp	-13.5935
▁listeners	-13.5947
slow	-13.5967
hair	-13.5972
▁wipe	-13.6019
▁va	-13.6028
▁yo	-13.6037
▁snakes	-13.6057
▁birthdays	-13.6094
▁rediscover	-13.6127
▁doodle	-13.6156
▁grape	-13.6157
▁raptors	-13.6161
▁bends	-13.618
que	-13.6182
▁squeez	-13.6187
▁mimic	-13.6189
▁drag	-13.619
▁erupt	-13.6192
▁reappear	-13.6192
full	-13.6198
failure	-13.6198
jean	-13.6198
soaked	-13.6198
count	-13.6199
key	-13.62
▁flare	-13.62
▁remove	-13.62
▁tour	-13.62
▁individual	-13.62
▁bamboo	-13.62
▁blizzard	-13.62
▁complicated	-13.62
▁controller	-13.62
▁crimson	-13.62
▁entry	-13.62
▁example	-13.62
▁mammoth	-13.62
▁murky	-13.62
▁pulsating	-13.62
▁stern	-13.62
▁tainted	-13.62
▁unpredictable	-13.62
▁unsettling	-13.62
▁vortex	-13.62
▁wheelbarrow	-13.62
▁adrift	-13.62
▁defiance	-13.62
▁browsed	-13.6201
▁lettuce	-13.6201
▁dwell	-13.6201
▁hive	-13.6201
▁mustache	-13.6201
▁boost	-13.6201
▁soggy	-13.6202
▁obscured	-13.6204
▁theft	-13.6205
▁clank	-13.6206
▁dandelions	-13.6226
▁strikes	-13.6234
▁folding	-13.6236
▁showcase	-13.6242
▁roasting	-13.6244
▁starland	-13.6246
▁pads	-13.6254
▁performers	-13.6282
▁loops	-13.6289
▁embers	-13.6298
▁fl	-13.6323
▁whistles	-13.6339
▁examine	-13.6352
▁reliv	-13.6354
▁2	-13.6379
▁vows	-13.6384
▁harmless	-13.6419
▁bumps	-13.6428
▁airplanes	-13.6455
▁noodle	-13.646
▁boot	-13.6465
▁quack	-13.6469
▁brainstorm	-13.6481
▁yawn	-13.6481
▁scratch	-13.6481
▁threats	-13.6482
▁volunteer	-13.6495
▁drain	-13.6495
1	-13.6501
winning	-13.6501
little	-13.6501
silly	-13.6502
▁astonishing	-13.6502
▁po	-13.6502
▁malfunction	-13.6503
▁astonished	-13.6503
▁competitive	-13.6503
▁dreamweaver	-13.6503
▁elusive	-13.6503
▁fingertips	-13.6503
▁hips	-13.6503
▁magnet	-13.6503
▁nibbling	-13.6503
▁oyster	-13.6503
▁peanut	-13.6503
▁pippin	-13.6503
▁prey	-13.6503
▁relentless	-13.6503
▁stale	-13.6503
▁treetops	-13.6503
▁underbrush	-13.6503
▁unheard	-13.6503
▁unknowingly	-13.6503
▁allure	-13.6503
▁scarier	-13.6503
▁melodic	-13.6504
▁remarkable	-13.6504
▁hull	-13.6504
▁humanity	-13.6504
▁priest	-13.6504
▁mama	-13.6504
▁sift	-13.6504
▁gala	-13.6504
▁wriggled	-13.6506
▁recounted	-13.6507
▁pm	-13.6508
▁clucked	-13.6509
▁blueprints	-13.651
▁delightfully	-13.6511
▁fairytale	-13.6513
▁leftover	-13.6513
▁bard	-13.6515
▁strengthened	-13.6515
▁overnight	-13.6516
▁craters	-13.6519
▁brightstone	-13.6525
▁cushions	-13.6526
▁sprayed	-13.6528
▁leafy	-13.6528
end	-13.6529
▁invented	-13.6543
▁zing	-13.6548
▁pineapples	-13.6553
▁donate	-13.6564
▁playtime	-13.6576
▁west	-13.6577
▁wisps	-13.6592
▁climbers	-13.6596
▁helmets	-13.6608
▁fashion	-13.6675
▁backup	-13.668
▁pip	-13.6688
▁throws	-13.6718
under	-13.6751
▁spiders	-13.6764
▁screw	-13.6772
▁unkind	-13.6786
▁finder	-13.6788
tock	-13.6793
▁munch	-13.6794
changing	-13.68
▁sprinkl	-13.6807
▁sprint	-13.6807
▁stroll	-13.6807
▁law	-13.6812
draw	-13.6814
both	-13.6814
▁snails	-13.6815
▁corrupt	-13.6816
▁abilities	-13.6816
▁arranging	-13.6816
▁cannons	-13.6816
▁chameleon	-13.6816
▁chimney	-13.6816
▁collage	-13.6816
▁crane	-13.6816
▁knead	-13.6816
▁motorcycle	-13.6816
▁perfume	-13.6816
▁pranced	-13.6816
▁shuttle	-13.6816
▁unfamiliar	-13.6816
▁yourselves	-13.6816
▁bleep	-13.6816
gotcha	-13.6816
▁chopping	-13.6816
▁ploop	-13.6816
▁pry	-13.6816
▁newcomer	-13.6816
▁spat	-13.6816
▁blurted	-13.6816
▁wheat	-13.6816
▁issue	-13.6816
▁cuddled	-13.6817
▁secured	-13.6818
▁boldness	-13.6819
▁provided	-13.6822
▁pier	-13.6824
▁tightening	-13.6826
▁squawking	-13.6827
▁erased	-13.6829
▁brainstorming	-13.683
▁wickedly	-13.6831
▁followers	-13.6834
▁plains	-13.684
▁eras	-13.6842
▁croaking	-13.6843
▁dangerously	-13.6856
▁texts	-13.6867
▁moonbeams	-13.6878
eating	-13.6879
▁bandits	-13.6881
▁conflicted	-13.6886
▁fabrics	-13.6945
▁softest	-13.6948
▁woken	-13.6955
▁companions	-13.6963
▁caress	-13.6963
▁bicycles	-13.6999
▁fro	-13.7002
▁detectives	-13.7031
▁routines	-13.7034
▁pal	-13.7035
▁bolts	-13.7036
▁structures	-13.7059
▁backwards	-13.7069
▁drying	-13.7071
▁eclipse	-13.7085
▁dinners	-13.7092
▁fern	-13.7095
▁trinket	-13.7096
▁lo	-13.71
▁retriev	-13.7106
▁droop	-13.7116
plan	-13.7118
▁slices	-13.7127
▁ensure	-13.713
▁expand	-13.713
▁trumpet	-13.713
▁banish	-13.713
▁abandon	-13.713
los	-13.713
right	-13.7136
wave	-13.7137
learn	-13.7137
▁sneeze	-13.7138
▁pounce	-13.7138
▁disco	-13.7138
▁balancing	-13.7139
▁blob	-13.7139
▁brimming	-13.7139
▁drill	-13.7139
▁essential	-13.7139
▁fairground	-13.7139
▁flurry	-13.7139
▁giggly	-13.7139
▁goliath	-13.7139
▁injury	-13.7139
▁lane	-13.7139
▁martian	-13.7139
▁navigator	-13.7139
▁opportunities	-13.7139
▁palpable	-13.7139
▁preparation	-13.7139
▁smash	-13.7139
▁tiki	-13.7139
▁trio	-13.7139
▁unbearable	-13.7139
▁zigzagged	-13.7139
▁forgetfulness	-13.7139
▁maplewood	-13.7139
▁astra	-13.7139
▁humility	-13.7139
▁plight	-13.7139
▁vain	-13.7139
▁hacker	-13.7139
▁flared	-13.714
▁silverstone	-13.714
▁wrappers	-13.7142
▁shuddered	-13.7142
▁ju	-13.7143
▁controlling	-13.7144
▁setback	-13.7144
▁railing	-13.7144
▁moaned	-13.7144
▁witches	-13.7145
▁squinting	-13.7145
▁alright	-13.7145
▁eraser	-13.7146
▁exactly	-13.7147
traveling	-13.7147
▁schemed	-13.7149
▁wealthy	-13.7149
▁texted	-13.7149
▁nicer	-13.715
▁officer	-13.7154
▁bakers	-13.7157
▁intruders	-13.7158
▁props	-13.7159
▁waver	-13.7165
▁coldly	-13.717
▁roaming	-13.7178
▁skiing	-13.718
▁nightstand	-13.7184
▁murmurs	-13.721
almost	-13.7226
▁vendors	-13.7241
▁grumpie	-13.7253
▁towels	-13.7269
▁swimmers	-13.7349
▁skips	-13.7388
whee	-13.739
ow	-13.7412
▁trial	-13.7429
▁vegetable	-13.7429
▁file	-13.7429
ching	-13.7441
▁plank	-13.7447
▁pump	-13.745
▁wield	-13.7463
▁stress	-13.7463
▁clan	-13.7463
scent	-13.7466
room	-13.7466
real	-13.7469
brave	-13.747
dark	-13.747
shall	-13.747
▁rum	-13.7472
▁cockpit	-13.7472
▁curb	-13.7472
▁festive	-13.7472
▁outnumbered	-13.7472
▁pedant	-13.7472
▁persistence	-13.7472
▁raven	-13.7472
▁rehearsed	-13.7472
▁rude	-13.7472
▁spacecraft	-13.7472
▁strategies	-13.7472
▁strumming	-13.7472
▁supply	-13.7472
▁unimportant	-13.7472
▁unroll	-13.7472
▁vanilla	-13.7472
▁yonder	-13.7472
▁heartfelt	-13.7472
▁kill	-13.7472
▁skidded	-13.7472
▁kitty	-13.7472
▁descent	-13.7472
▁toppings	-13.7472
▁recreate	-13.7472
▁grandchildren	-13.7472
▁rift	-13.7473
▁snore	-13.7473
▁vibrated	-13.7473
board	-13.7473
▁glaring	-13.7473
▁patches	-13.7474
▁tribes	-13.7474
▁typing	-13.7475
▁sunk	-13.7477
▁labeled	-13.7478
▁trumpeted	-13.7481
▁angle	-13.7482
▁methods	-13.7484
▁verses	-13.7484
▁drumm	-13.7485
▁starbright	-13.7486
▁goodies	-13.7487
▁refuse	-13.749
▁tinkered	-13.7493
▁simpler	-13.7497
▁pines	-13.7498
times	-13.7509
▁indifferent	-13.7509
▁prized	-13.7516
▁ferns	-13.7517
▁flashy	-13.7525
ze	-13.7537
▁pedals	-13.7561
▁admits	-13.7562
▁lowering	-13.7577
▁ha	-13.7592
▁warmest	-13.7609
▁lizards	-13.764
▁values	-13.7672
ups	-13.7682
▁caps	-13.7701
tting	-13.7712
▁flyers	-13.7722
▁medals	-13.773
▁growls	-13.7741
▁olive	-13.7772
▁seize	-13.7792
▁march	-13.7795
▁whirr	-13.7799
▁bo	-13.78
▁groan	-13.7808
shadow	-13.7812
free	-13.7812
father	-13.7813
mistakes	-13.7814
winter	-13.7814
silence	-13.7814
order	-13.7815
▁vibrate	-13.7816
▁secure	-13.7816
▁twin	-13.7816
▁mira	-13.7817
▁apron	-13.7817
▁concluded	-13.7817
▁coward	-13.7817
▁dribbling	-13.7817
▁drumbeat	-13.7817
▁hiccup	-13.7817
▁naive	-13.7817
▁partnership	-13.7817
▁prettier	-13.7817
▁pursue	-13.7817
▁reassuring	-13.7817
▁restaurant	-13.7817
▁revisit	-13.7817
▁shrine	-13.7817
▁shrug	-13.7817
▁skull	-13.7817
▁snoring	-13.7817
▁temptation	-13.7817
▁trench	-13.7817
▁triangle	-13.7817
▁burger	-13.7817
▁gooey	-13.7817
▁freezing	-13.7817
▁sniffled	-13.7817
▁nine	-13.7817
▁accordi	-13.7817
▁lunchroom	-13.7817
▁receded	-13.7817
song	-13.7819
▁techy	-13.7819
▁snickered	-13.7819
▁sweaty	-13.782
▁fireball	-13.7821
▁defined	-13.7822
▁lunchtime	-13.7822
▁shadowvale	-13.7823
▁rediscovered	-13.7827
▁marching	-13.783
▁sliced	-13.7831
▁entertained	-13.7837
▁warns	-13.784
▁coals	-13.784
▁limited	-13.7843
▁trader	-13.785
▁thumbs	-13.7851
sky	-13.7857
▁musical	-13.7863
▁spiraling	-13.7865
▁greener	-13.7867
▁rituals	-13.7873
ew	-13.7877
▁inventing	-13.7887
▁spills	-13.789
▁barrels	-13.7891
▁rewarded	-13.7892
▁doubtful	-13.7898
prove	-13.7902
▁orbit	-13.7954
▁bowing	-13.7969
▁goblins	-13.797
▁sprouting	-13.7977
▁palms	-13.7978
▁hurtful	-13.798
▁chuckles	-13.7992
ook	-13.8009
▁scholars	-13.8016
▁wa	-13.8093
▁crate	-13.813
▁aisle	-13.8131
▁era	-13.8132
▁critic	-13.814
ath	-13.8161
▁possess	-13.8165
▁flush	-13.8165
wish	-13.8171
j	-13.8171
from	-13.8172
faster	-13.8172
▁tremendous	-13.8172
▁intrigue	-13.8173
▁exam	-13.8174
opical	-13.8174
▁apology	-13.8174
▁bleachers	-13.8174
▁calendar	-13.8174
▁eerily	-13.8174
▁interview	-13.8174
▁optimistic	-13.8174
▁rainstorm	-13.8174
▁relative	-13.8174
▁stride	-13.8174
▁turbo	-13.8174
▁verenthia	-13.8174
▁yelped	-13.8174
▁glum	-13.8174
▁pinata	-13.8174
▁charity	-13.8174
▁embarrassment	-13.8174
▁gloop	-13.8174
▁subway	-13.8174
▁dreamhaven	-13.8174
▁possession	-13.8174
▁witty	-13.8174
▁dice	-13.8174
▁tinkling	-13.8174
▁frostvale	-13.8174
▁ruby	-13.8174
▁panted	-13.8174
▁jumbled	-13.8174
▁handwriting	-13.8175
▁astonishingly	-13.8175
▁triumphantly	-13.8176
▁schoolwork	-13.8177
▁protested	-13.8177
▁blackness	-13.8177
▁successful	-13.8178
▁competed	-13.8179
▁hoarded	-13.8179
▁octopuses	-13.8181
▁rainwater	-13.8182
▁squealing	-13.8182
▁stressed	-13.8183
▁marvelous	-13.8186
last	-13.8187
▁hammered	-13.8196
▁orion	-13.8197
▁surfed	-13.8198
▁schemer	-13.8198
▁whimpered	-13.82
trees	-13.8201
▁posted	-13.8205
▁hammering	-13.8208
hoo	-13.8213
▁divers	-13.8218
lia	-13.8235
▁inning	-13.8237
▁lightening	-13.824
▁maple	-13.825
▁questioning	-13.8253
▁cubs	-13.8263
▁mended	-13.8263
▁nearer	-13.8266
▁u	-13.8266
▁glitters	-13.8298
▁creators	-13.8337
▁je	-13.8369
▁greeting	-13.8385
▁caterpillars	-13.8421
▁situations	-13.8429
br	-13.8439
cloud	-13.8498
secret	-13.8498
▁option	-13.8501
▁tentacle	-13.8501
▁newest	-13.8504
▁pops	-13.8509
▁arc	-13.8511
about	-13.8542
creativity	-13.8542
forgotten	-13.8542
moments	-13.8542
neck	-13.8542
swim	-13.8542
▁boar	-13.8542
boy	-13.8543
▁rekindle	-13.8543
▁compare	-13.8544
▁deliberate	-13.8544
ricket	-13.8544
▁blaming	-13.8544
▁bluebell	-13.8544
▁brilliance	-13.8544
▁choking	-13.8544
▁colleague	-13.8544
▁email	-13.8544
▁ethereal	-13.8544
▁flib	-13.8544
▁grazing	-13.8544
▁grill	-13.8544
▁grumbling	-13.8544
▁lavender	-13.8544
▁merrier	-13.8544
▁overflowed	-13.8544
▁passengers	-13.8544
▁positive	-13.8544
▁precision	-13.8544
▁rooster	-13.8544
▁rotten	-13.8544
▁ruthless	-13.8544
▁societies	-13.8544
▁tyrant	-13.8544
▁ufo	-13.8544
▁unwavering	-13.8544
▁wrestling	-13.8544
▁bomb	-13.8544
▁cheetah	-13.8544
▁cucumber	-13.8544
▁granddaughter	-13.8544
▁nonsense	-13.8544
▁sideways	-13.8544
▁windmill	-13.8544
▁separation	-13.8544
▁tackle	-13.8544
▁comedy	-13.8544
▁capable	-13.8544
▁quitting	-13.8545
▁confrontation	-13.8545
▁stretches	-13.8545
▁witnesses	-13.8545
▁bedside	-13.8545
▁tremendously	-13.8546
▁fizzy	-13.8546
▁greenfield	-13.8546
▁mint	-13.8548
▁greenvale	-13.8548
lot	-13.8548
▁successes	-13.8548
▁carelessly	-13.8549
▁solara	-13.855
▁expressions	-13.855
▁judged	-13.855
▁sewing	-13.8555
▁mommy	-13.8561
▁flicking	-13.8572
powered	-13.8582
▁lasers	-13.8583
▁meowing	-13.859
▁shattering	-13.8591
▁plo	-13.8592
▁lunar	-13.8596
▁defended	-13.8598
▁portraits	-13.8603
▁thrives	-13.8618
▁bumping	-13.8634
▁rowing	-13.864
▁quietest	-13.8647
▁destroying	-13.8655
▁chords	-13.868
▁brightland	-13.8699
▁graves	-13.8709
books	-13.8821
▁rev	-13.886
▁showcas	-13.8874
▁prefer	-13.8889
lessly	-13.8903
▁boast	-13.8906
arrr	-13.8918
boat	-13.8926
beautiful	-13.8927
doubt	-13.8927
guess	-13.8927
invisible	-13.8927
hugged	-13.8928
▁boredom	-13.8929
▁bravado	-13.8929
▁brink	-13.8929
▁clumsily	-13.8929
▁fumbled	-13.8929
▁immediately	-13.8929
▁intact	-13.8929
▁labyrinth	-13.8929
▁marigolds	-13.8929
▁memorable	-13.8929
▁nostalgic	-13.8929
▁otherworldly	-13.8929
▁overcast	-13.8929
▁pausing	-13.8929
▁savior	-13.8929
▁schedule	-13.8929
▁bragging	-13.8929
▁plopp	-13.8929
▁rim	-13.8929
▁riverbed	-13.8929
▁ripped	-13.8929
▁temper	-13.8929
▁solemnly	-13.8929
▁ascended	-13.8931
▁cookbook	-13.8931
▁enjoyable	-13.8931
▁cluttered	-13.8931
▁greenstone	-13.8931
▁rejected	-13.8932
enter	-13.8932
▁auntie	-13.8933
their	-13.8934
▁peppers	-13.8935
▁goldstone	-13.8936
▁crashes	-13.8936
▁tube	-13.8937
▁flushed	-13.8938
▁resolved	-13.894
▁dreamvale	-13.8942
▁cuddle	-13.8958
▁duet	-13.8959
▁cleverest	-13.897
mr	-13.8972
▁chained	-13.8981
▁earning	-13.8995
▁rebels	-13.8995
▁types	-13.9007
▁se	-13.9016
▁jumper	-13.9021
▁opponents	-13.9054
▁meteors	-13.9059
▁daylight	-13.9074
▁mending	-13.9079
▁plunge	-13.9079
▁pickle	-13.9096
▁cleverly	-13.9135
▁k	-13.914
▁waiter	-13.9157
▁pin	-13.9234
book	-13.9275
val	-13.9278
row	-13.9285
▁habit	-13.9285
▁subject	-13.9286
▁drawers	-13.9292
▁sticker	-13.9302
▁squawk	-13.9307
▁swarm	-13.932
▁disappoint	-13.932
▁fray	-13.932
most	-13.9324
▁rob	-13.9326
mind	-13.9327
beep	-13.9327
check	-13.9327
food	-13.9327
wonder	-13.9327
throw	-13.9327
clock	-13.9327
▁coco	-13.9327
race	-13.9327
▁tame	-13.9328
▁arrange	-13.9328
▁fond	-13.9328
▁shini	-13.9328
▁frantic	-13.9329
▁repa	-13.9329
▁mic	-13.9329
▁magnif	-13.9329
saurus	-13.9329
▁allosaurus	-13.9329
▁antenna	-13.9329
▁barbecue	-13.9329
▁centaur	-13.9329
▁crevice	-13.9329
▁cuddly	-13.9329
▁element	-13.9329
▁equipment	-13.9329
▁facade	-13.9329
▁fuss	-13.9329
▁gigi	-13.9329
▁intertwining	-13.9329
▁intriguing	-13.9329
▁liar	-13.9329
▁licorice	-13.9329
▁lute	-13.9329
▁predator	-13.9329
▁pursuit	-13.9329
▁threshold	-13.9329
▁unreadable	-13.9329
▁wailed	-13.9329
▁disagreement	-13.9329
▁uncontrollably	-13.9329
▁clara	-13.9329
▁unbroken	-13.9329
▁pants	-13.9329
▁voyager	-13.9329
▁misuse	-13.9329
▁peach	-13.9329
▁rover	-13.9329
▁dishonesty	-13.933
▁presses	-13.933
▁juggler	-13.933
▁comfortable	-13.933
▁dollar	-13.933
▁neatness	-13.933
▁photographer	-13.9331
▁ribbit	-13.9331
▁brightens	-13.9337
▁decode	-13.9338
▁dreamstone	-13.9338
▁clinking	-13.9339
▁techniques	-13.9344
▁attended	-13.9344
▁topic	-13.9345
▁stored	-13.9348
▁loosen	-13.9349
▁highlight	-13.9351
▁coaster	-13.9352
pass	-13.9362
▁moo	-13.9405
▁designing	-13.9419
back	-13.9439
▁pe	-13.9464
▁harmed	-13.9529
▁repairs	-13.9548
glo	-13.9559
▁singers	-13.9561
▁puffs	-13.9591
▁drones	-13.9638
▁titles	-13.9668
▁codes	-13.9688
▁document	-13.9702
▁laser	-13.9702
▁gorg	-13.972
lead	-13.9726
smart	-13.9729
travel	-13.973
▁prais	-13.9733
▁rekindl	-13.9737
▁neglect	-13.9737
▁cradl	-13.9737
▁mention	-13.9737
▁perch	-13.9737
▁pout	-13.9737
▁hur	-13.9738
cookies	-13.9743
instead	-13.9743
mission	-13.9743
roar	-13.9744
▁casual	-13.9744
▁ultimate	-13.9744
▁heavie	-13.9745
ahoy	-13.9745
rigid	-13.9745
▁audition	-13.9745
▁bartender	-13.9745
▁concentrated	-13.9745
▁declaring	-13.9745
▁dedication	-13.9745
▁delay	-13.9745
▁diwali	-13.9745
▁dollhouse	-13.9745
▁falcon	-13.9745
▁felix	-13.9745
▁jaw	-13.9745
▁jersey	-13.9745
▁juiciest	-13.9745
▁lining	-13.9745
▁maneuver	-13.9745
▁measuring	-13.9745
▁obvious	-13.9745
▁packet	-13.9745
▁precise	-13.9745
▁reminiscing	-13.9745
▁solo	-13.9745
▁spade	-13.9745
▁swoosh	-13.9745
▁tastiest	-13.9745
▁traffic	-13.9745
▁untied	-13.9745
▁zephyr	-13.9745
▁tombstone	-13.9746
▁gum	-13.9746
▁chatty	-13.9746
▁lunchbox	-13.9746
▁electricity	-13.9746
▁pantry	-13.9746
▁random	-13.9746
▁prankster	-13.9746
▁effortlessly	-13.9746
▁timmy	-13.9746
▁potatoes	-13.9746
▁selflessness	-13.9746
▁contributed	-13.9746
▁greenery	-13.9746
▁stealth	-13.9747
▁ultimately	-13.9747
nope	-13.9747
▁snowfall	-13.9747
▁gulped	-13.9748
▁buzzer	-13.9748
▁pointless	-13.9749
▁keenly	-13.975
▁canceled	-13.9751
▁lawn	-13.9751
▁thicken	-13.9753
▁structured	-13.9753
▁honked	-13.9754
▁sincere	-13.9758
▁truthfully	-13.976
asty	-13.9761
▁pol	-13.9763
▁sweater	-13.9765
▁uniforms	-13.9767
▁helplessly	-13.9771
▁bundle	-13.9777
▁foolishly	-13.9778
▁confessing	-13.978
▁achievements	-13.9784
ug	-13.9785
▁quietness	-13.9791
▁fruity	-13.9792
▁pickles	-13.9792
▁jolted	-13.9798
▁mode	-13.9855
▁experiments	-13.9863
▁chattering	-13.9865
ction	-13.9887
▁clothing	-13.9918
▁mostly	-13.9934
▁shirts	-13.9982
owl	-13.9983
edged	-14.0068
▁flit	-14.0068
▁nibble	-14.0136
▁thumb	-14.0137
▁constellation	-14.0137
▁parent	-14.0138
▁skater	-14.0139
gged	-14.0144
▁honk	-14.0158
talk	-14.0164
▁tighten	-14.0166
wise	-14.0169
view	-14.0172
hood	-14.0173
flop	-14.0178
stick	-14.0178
whoosh	-14.0178
intelligence	-14.0178
strong	-14.0178
▁passionate	-14.0179
cap	-14.0179
▁squish	-14.018
▁exhibit	-14.018
9	-14.018
▁battleground	-14.018
▁bleak	-14.018
▁bramble	-14.018
▁chapel	-14.018
▁concrete	-14.018
▁criminal	-14.018
▁domain	-14.018
▁dreary	-14.018
▁envious	-14.018
▁gymnastics	-14.018
▁hologram	-14.018
▁indoors	-14.018
▁intoxicating	-14.018
▁jax	-14.018
▁kelp	-14.018
▁marathon	-14.018
▁misfit	-14.018
▁mosaic	-14.018
▁nimble	-14.018
▁oracle	-14.018
▁overflowing	-14.018
▁pollution	-14.018
▁prowled	-14.018
▁schoolhouse	-14.018
▁stinky	-14.018
▁swap	-14.018
▁tiring	-14.018
▁vacuum	-14.018
▁waffle	-14.018
▁pudding	-14.018
▁thaw	-14.018
▁vote	-14.018
▁affection	-14.018
▁hardened	-14.018
▁robby	-14.018
▁zorak	-14.018
▁jack	-14.018
▁recital	-14.018
▁appreciation	-14.018
▁unreal	-14.018
▁saltwater	-14.0181
▁choked	-14.0181
▁duel	-14.0181
▁sandbox	-14.0181
▁awareness	-14.0181
▁anna	-14.0181
▁bookworm	-14.0182
▁prospered	-14.0182
▁snarled	-14.0182
▁shoreline	-14.0183
▁ruffled	-14.0184
ound	-14.0184
▁dullness	-14.0184
escent	-14.0185
▁dissolved	-14.0186
▁silverwood	-14.0187
▁sorting	-14.0192
▁listener	-14.0192
▁weakened	-14.0194
▁mimick	-14.0197
▁drumming	-14.0198
▁starfire	-14.0201
▁chicks	-14.0201
▁racer	-14.0203
▁washes	-14.0213
▁defenders	-14.0215
▁fixer	-14.0219
▁surfers	-14.0223
whoever	-14.0252
▁prayers	-14.0256
▁relics	-14.0285
▁superpowers	-14.0287
▁boulders	-14.0291
▁knobs	-14.0291
▁fairly	-14.0292
▁bounded	-14.031
▁pipe	-14.0318
▁skyland	-14.0348
▁raincoats	-14.0354
▁blessings	-14.0374
yo	-14.0498
▁cracker	-14.0506
istic	-14.0528
▁mu	-14.0563
▁worthless	-14.0578
▁sabotage	-14.0581
▁cobblestone	-14.0591
▁pyramid	-14.0591
▁cowboy	-14.0591
▁instinct	-14.0592
▁surfer	-14.0592
▁marker	-14.0601
▁imp	-14.0601
▁rid	-14.0612
▁twitch	-14.0613
▁hover	-14.0613
▁sew	-14.0614
▁cla	-14.0619
▁cluck	-14.0626
▁rippl	-14.0626
ribbit	-14.0633
bound	-14.0633
anything	-14.0633
captain	-14.0633
mud	-14.0633
growth	-14.0633
put	-14.0633
▁tangle	-14.0634
▁tiptoe	-14.0634
▁dishonest	-14.0634
▁sculpt	-14.0635
▁stab	-14.0635
▁whiz	-14.0635
▁patrol	-14.0635
▁frequent	-14.0635
▁intervene	-14.0635
▁oppos	-14.0635
mobile	-14.0635
▁architect	-14.0635
▁bounty	-14.0635
▁chandelier	-14.0635
▁clumsiness	-14.0635
▁compartment	-14.0635
▁doughnut	-14.0635
▁downstream	-14.0635
▁energetic	-14.0635
▁grotto	-14.0635
▁hopscotch	-14.0635
▁kangaroo	-14.0635
▁kooky	-14.0635
▁lullabies	-14.0635
▁manipulate	-14.0635
▁melancholic	-14.0635
▁merging	-14.0635
▁metallic	-14.0635
▁mishap	-14.0635
▁nudging	-14.0635
▁octagon	-14.0635
▁rake	-14.0635
▁screwdriver	-14.0635
▁shunned	-14.0635
▁smug	-14.0635
▁snowdrift	-14.0635
▁sobbed	-14.0635
▁spear	-14.0635
▁survey	-14.0635
▁territory	-14.0635
▁thugs	-14.0635
▁unsaid	-14.0635
definitely	-14.0635
▁hedge	-14.0635
▁stargazers	-14.0635
▁fonder	-14.0635
▁collided	-14.0635
▁squishy	-14.0635
▁tread	-14.0636
▁muffled	-14.0636
▁casually	-14.0636
▁regretted	-14.0638
▁sweetopia	-14.0638
▁hotter	-14.0638
▁rollo	-14.0638
▁unbe	-14.0638
▁bickered	-14.064
▁grunted	-14.064
▁scurrying	-14.0641
▁bickering	-14.0642
▁churning	-14.0643
building	-14.0644
▁hoarding	-14.0646
▁drained	-14.0648
hide	-14.0649
▁secretive	-14.0651
▁boasting	-14.0651
▁mischievously	-14.0651
▁recorded	-14.0651
▁runes	-14.0658
▁blender	-14.0658
warded	-14.0662
▁demands	-14.0671
▁scribbles	-14.0673
▁cowboys	-14.0679
▁curves	-14.0706
▁holder	-14.0709
▁records	-14.0718
▁awoken	-14.0727
sea	-14.075
▁shortcuts	-14.0755
▁upwards	-14.0759
▁blades	-14.0794
▁levels	-14.0842
▁reshape	-14.0883
▁swipe	-14.1019
▁ninja	-14.1067
▁achievement	-14.1068
sized	-14.1078
▁lurk	-14.1089
world	-14.1096
▁slic	-14.1102
treating	-14.1102
▁sputter	-14.1102
▁screech	-14.1102
▁envision	-14.1102
explore	-14.1109
speed	-14.1109
pirates	-14.1109
riddles	-14.1109
splash	-14.1109
super	-14.1109
fluffy	-14.1109
search	-14.111
tterly	-14.1111
▁detect	-14.1111
imaginable	-14.1111
▁applied	-14.1111
▁binoculars	-14.1111
▁bride	-14.1111
▁capsule	-14.1111
▁decipher	-14.1111
▁engraved	-14.1111
▁garbage	-14.1111
▁giddy	-14.1111
▁glorp	-14.1111
▁helicopter	-14.1111
▁hunched	-14.1111
▁igloo	-14.1111
▁innovate	-14.1111
▁leash	-14.1111
▁lessened	-14.1111
▁misfortune	-14.1111
▁ollie	-14.1111
▁outstretched	-14.1111
▁relay	-14.1111
▁satisfying	-14.1111
▁slimy	-14.1111
▁stumbling	-14.1111
▁sunbathing	-14.1111
▁tiles	-14.1111
▁treachery	-14.1111
▁waitress	-14.1111
▁slam	-14.1111
▁thudded	-14.1111
▁flopping	-14.1111
▁driveway	-14.1111
▁stable	-14.1111
▁improving	-14.1111
▁whoop	-14.1111
▁produce	-14.1111
▁hose	-14.1111
▁zork	-14.1111
▁disk	-14.1111
lade	-14.1111
▁aura	-14.1111
▁punches	-14.1111
▁mote	-14.1112
▁pacing	-14.1112
▁vet	-14.1112
add	-14.1113
▁flop	-14.1113
▁smartie	-14.1113
▁published	-14.1114
▁triggered	-14.1114
▁calculated	-14.1114
▁lamented	-14.1114
dinosaurs	-14.1118
▁citizens	-14.1119
▁surrendered	-14.1119
▁mightiest	-14.1119
▁wearer	-14.1123
▁archer	-14.1123
▁blindly	-14.1124
▁sugary	-14.1125
▁eagerness	-14.113
▁steeper	-14.113
▁fearlessly	-14.1131
▁wavering	-14.1136
▁skyline	-14.1137
▁pigeons	-14.1138
▁sparklers	-14.1141
▁squeaking	-14.1142
▁smarty	-14.1146
▁grasses	-14.1146
▁surging	-14.115
▁stems	-14.1153
ey	-14.1154
▁blankly	-14.1154
▁fleet	-14.1157
▁highness	-14.1167
▁bead	-14.1176
filtered	-14.1182
nted	-14.1185
thinking	-14.1196
▁retrace	-14.1226
▁fighters	-14.1226
▁acknowledg	-14.1249
▁desserts	-14.1272
▁skis	-14.1309
anned	-14.134
▁zora	-14.1377
▁snapp	-14.1432
▁stem	-14.1567
▁dandelion	-14.1567
opia	-14.1577
▁quicken	-14.1597
▁rally	-14.16
▁moan	-14.1603
▁label	-14.1603
belonging	-14.1609
big	-14.1609
buddy	-14.1609
invisibility	-14.1609
push	-14.1609
robots	-14.1609
footsteps	-14.1609
frog	-14.1609
two	-14.1609
▁recent	-14.161
▁lou	-14.161
▁clang	-14.161
▁radiate	-14.161
▁describe	-14.161
▁defi	-14.1611
▁mass	-14.1611
▁sub	-14.1611
▁zib	-14.1611
*	-14.1611
▁clover	-14.1611
▁ballerina	-14.1611
▁campsite	-14.1611
▁catapult	-14.1611
▁choir	-14.1611
▁consuming	-14.1611
▁contributing	-14.1611
▁departure	-14.1611
▁environment	-14.1611
▁exterior	-14.1611
▁fanciful	-14.1611
▁grizzle	-14.1611
▁humiliated	-14.1611
▁iguanodon	-14.1611
▁infinite	-14.1611
▁kiki	-14.1611
▁kraken	-14.1611
▁mineral	-14.1611
▁mockery	-14.1611
▁narrator	-14.1611
▁parasaurolophus	-14.1611
▁pepperoni	-14.1611
▁permission	-14.1611
▁retorted	-14.1611
▁simplicity	-14.1611
▁tempest	-14.1611
▁tutu	-14.1611
▁vibrations	-14.1611
▁whistling	-14.1611
▁xylo	-14.1611
▁golem	-14.1611
▁mislead	-14.1611
▁mound	-14.1611
▁nib	-14.1611
▁gull	-14.1611
▁scarred	-14.1611
▁timekeeper	-14.1611
▁director	-14.1611
▁hail	-14.1611
▁pansies	-14.1611
▁zingo	-14.1611
▁wig	-14.1611
▁nix	-14.1611
▁observer	-14.1611
▁merged	-14.1612
▁sidekick	-14.1612
▁droopy	-14.1612
▁cure	-14.1612
▁radiated	-14.1612
▁unwrapped	-14.1612
▁tamed	-14.1612
▁cooperated	-14.1613
▁gemstone	-14.1613
▁directed	-14.1615
▁hacked	-14.1617
falling	-14.1618
▁sacrificed	-14.1621
▁fairness	-14.1621
▁cradled	-14.1622
▁possessed	-14.1623
▁pumped	-14.1624
▁volunteered	-14.1626
▁honking	-14.1627
▁tingled	-14.1627
▁nothingness	-14.163
▁forgiving	-14.163
▁recovered	-14.1634
▁sweetland	-14.1655
▁tinkering	-14.1661
secrets	-14.1669
▁olives	-14.1676
▁congratulat	-14.1678
mall	-14.1691
actic	-14.1693
▁charts	-14.1717
▁unch	-14.1736
▁looms	-14.1737
▁cu	-14.1776
▁fogg	-14.1897
▁courageous	-14.1985
▁sort	-14.2072
▁print	-14.2086
tree	-14.2092
▁scribble	-14.2092
▁fragment	-14.2094
▁dune	-14.2094
▁taunt	-14.2115
▁clink	-14.2115
build	-14.2121
▁surrender	-14.2129
▁cough	-14.2129
▁caw	-14.2129
goers	-14.2129
▁scrambl	-14.2129
blue	-14.2135
child	-14.2135
ghost	-14.2135
planning	-14.2135
pull	-14.2135
careful	-14.2135
▁rub	-14.2135
blast	-14.2135
enjoy	-14.2135
▁stru	-14.2136
forget	-14.2136
▁reignite	-14.2136
▁sizzle	-14.2136
▁persevere	-14.2136
▁wane	-14.2136
▁huddle	-14.2136
▁twink	-14.2137
▁access	-14.2137
▁activity	-14.2137
▁agenda	-14.2137
▁apatosaurus	-14.2137
▁behavior	-14.2137
▁bookshelves	-14.2137
▁botley	-14.2137
▁bubblegum	-14.2137
▁cartoon	-14.2137
▁cellar	-14.2137
▁cheap	-14.2137
▁defiantly	-14.2137
▁delved	-14.2137
▁disconnected	-14.2137
▁downpour	-14.2137
▁dragonflies	-14.2137
▁earthquake	-14.2137
▁elysium	-14.2137
▁ensnare	-14.2137
▁evident	-14.2137
▁flailed	-14.2137
▁foul	-14.2137
▁historian	-14.2137
▁imposing	-14.2137
▁inscription	-14.2137
▁instructor	-14.2137
▁jiggle	-14.2137
▁jupiter	-14.2137
▁kaleidoscope	-14.2137
▁limbs	-14.2137
▁loaves	-14.2137
▁planetarium	-14.2137
▁public	-14.2137
▁rehearsal	-14.2137
▁stairway	-14.2137
▁torrent	-14.2137
▁unbelievabl	-14.2137
▁unreachable	-14.2137
▁waist	-14.2137
▁warlord	-14.2137
▁coding	-14.2137
▁programming	-14.2137
▁luminara	-14.2137
▁regardless	-14.2137
▁unwilling	-14.2137
▁superstar	-14.2138
▁emergency	-14.2138
▁scoreboard	-14.2138
▁planner	-14.2138
▁hikers	-14.2138
▁fang	-14.2138
▁distrust	-14.2138
▁attackers	-14.2139
▁nebulae	-14.2139
landia	-14.214
▁clattered	-14.214
▁giggleville	-14.2141
▁deny	-14.2142
▁cleanbot	-14.2142
▁snorted	-14.2143
▁sunnyvale	-14.2144
▁underworld	-14.2145
▁messes	-14.2147
▁innocently	-14.215
ray	-14.2151
▁slowest	-14.2155
▁tougher	-14.2158
▁sweeping	-14.2164
▁heroic	-14.2169
▁zorb	-14.2172
▁timing	-14.2174
▁blushing	-14.2179
▁ninjas	-14.2186
▁pyramids	-14.2189
▁pipes	-14.219
▁documents	-14.2193
▁bothered	-14.2193
▁habits	-14.2196
clouds	-14.2198
wit	-14.2207
▁planks	-14.2208
▁doodles	-14.2218
climbing	-14.2237
▁exited	-14.2244
deal	-14.2369
▁flu	-14.2443
▁comp	-14.2448
▁inspect	-14.2452
▁bu	-14.2462
lessness	-14.2505
▁gravel	-14.2512
dded	-14.2524
live	-14.2557
▁demand	-14.2627
▁feature	-14.265
▁intention	-14.265
▁defender	-14.2652
▁boo	-14.2656
shine	-14.2666
▁hoard	-14.267
▁suspect	-14.2684
▁complain	-14.2684
sweet	-14.269
candy	-14.2691
save	-14.2691
▁bustle	-14.2692
▁futur	-14.2693
▁maid	-14.2693
▁aftermath	-14.2693
▁annoying	-14.2693
▁astounding	-14.2693
▁awning	-14.2693
▁cheesy	-14.2693
▁clasped	-14.2693
▁coworker	-14.2693
▁deaf	-14.2693
▁dewdrops	-14.2693
▁disdain	-14.2693
▁egypt	-14.2693
▁enigmatic	-14.2693
▁forbidden	-14.2693
▁fraud	-14.2693
▁heartwarming	-14.2693
▁hooves	-14.2693
▁hustle	-14.2693
▁indicated	-14.2693
▁jig	-14.2693
▁kale	-14.2693
▁limp	-14.2693
▁monument	-14.2693
▁motivated	-14.2693
▁organ	-14.2693
▁rockslide	-14.2693
▁scolded	-14.2693
▁scribe	-14.2693
▁sizzling	-14.2693
▁slime	-14.2693
▁sobbing	-14.2693
▁stiff	-14.2693
▁submerged	-14.2693
▁swimsuit	-14.2693
▁thinner	-14.2693
▁unimpressed	-14.2693
▁unstable	-14.2693
▁untamed	-14.2693
▁venus	-14.2693
▁everlasting	-14.2693
▁minions	-14.2693
▁noblewoman	-14.2693
▁somber	-14.2693
▁coiled	-14.2693
▁swu	-14.2693
▁grandson	-14.2693
▁cork	-14.2693
▁review	-14.2693
▁reminisced	-14.2693
▁bruised	-14.2693
▁thunderfoot	-14.2693
▁billowing	-14.2693
▁antique	-14.2693
▁hopper	-14.2694
▁waned	-14.2694
▁madness	-14.2695
▁clockmaker	-14.2696
▁meaningless	-14.2697
▁trickled	-14.2699
▁scowled	-14.2699
▁kart	-14.27
▁extinguished	-14.27
▁regularly	-14.2701
▁clanged	-14.2703
▁sewed	-14.2704
▁otherwise	-14.2704
▁eased	-14.2709
▁sweetie	-14.2712
▁survivors	-14.2714
▁unusually	-14.2721
▁recording	-14.2725
▁pillars	-14.2727
▁unraveling	-14.2729
▁weeping	-14.273
▁swooping	-14.2733
▁widening	-14.2734
▁announces	-14.2735
▁bushy	-14.2736
▁sunvale	-14.2737
▁dreamville	-14.2744
▁cobblestones	-14.2747
▁skaters	-14.275
▁battered	-14.2767
▁mixy	-14.2814
▁earthy	-14.2833
ingness	-14.2894
bbled	-14.2931
2-	-14.2945
▁preserv	-14.296
▁grump	-14.3073
▁mourn	-14.3176
▁zip	-14.3228
▁announce	-14.3236
▁cushion	-14.3238
smelling	-14.3244
▁squeal	-14.3259
▁bless	-14.3259
▁din	-14.3264
▁experienc	-14.3272
▁puzzl	-14.3272
hand	-14.3277
after	-14.3279
innovation	-14.3279
alien	-14.3279
funny	-14.3279
garden	-14.3279
fix	-14.3279
warning	-14.3279
▁drizzle	-14.328
▁advise	-14.328
▁jingle	-14.328
▁giga	-14.3281
▁tornado	-14.3281
▁gloob	-14.3281
▁auroria	-14.3281
▁balm	-14.3281
▁bountiful	-14.3281
▁brawn	-14.3281
▁cannonball	-14.3281
▁cider	-14.3281
▁concentration	-14.3281
▁crust	-14.3281
▁defy	-14.3281
▁dumb	-14.3281
▁dumpster	-14.3281
▁elevator	-14.3281
▁exhilarating	-14.3281
▁firing	-14.3281
▁frail	-14.3281
▁hockey	-14.3281
▁initials	-14.3281
▁java	-14.3281
▁lexi	-14.3281
▁misplaced	-14.3281
▁outdoors	-14.3281
▁pews	-14.3281
▁phrase	-14.3281
▁plague	-14.3281
▁predict	-14.3281
▁previous	-14.3281
▁reckon	-14.3281
▁resembl	-14.3281
▁sandstorm	-14.3281
▁skylar	-14.3281
▁slay	-14.3281
▁south	-14.3281
▁terroriz	-14.3281
▁yanked	-14.3281
▁ziggy	-14.3281
▁storage	-14.3281
▁lumber	-14.3281
▁pleads	-14.3281
▁savannah	-14.3281
▁whiskey	-14.3281
▁jogged	-14.3281
▁misled	-14.3281
▁bathroom	-14.3281
▁bree	-14.3281
▁muted	-14.3281
▁wax	-14.3281
▁fluffiest	-14.3282
▁clucky	-14.3282
▁grime	-14.3282
▁royalty	-14.3282
▁blissfully	-14.3282
▁briskly	-14.3282
▁wasteland	-14.3282
▁familiarity	-14.3283
▁passionately	-14.3283
▁brand	-14.3283
▁vanishes	-14.3283
▁humbled	-14.3284
dive	-14.3284
idden	-14.3286
▁dealer	-14.3287
▁oakwood	-14.3287
▁bigfoot	-14.3288
▁neglected	-14.3294
talking	-14.3298
▁budd	-14.3299
▁funky	-14.33
▁showdown	-14.3301
▁cargo	-14.3303
▁manage	-14.3303
▁appearances	-14.3304
▁volumes	-14.3307
dragons	-14.3307
working	-14.3309
▁timeline	-14.3314
▁cloudland	-14.3314
rent	-14.3324
▁jumpy	-14.3339
▁kin	-14.3346
▁calmer	-14.3349
▁giggler	-14.3361
▁illuminate	-14.3367
enthusiastically	-14.343
▁figur	-14.3436
▁ga	-14.3582
▁grit	-14.3614
▁bill	-14.3628
▁mis	-14.3837
▁robber	-14.3862
▁footprint	-14.3863
▁coal	-14.3863
▁alleyway	-14.3864
break	-14.3873
▁glisten	-14.3885
fiv	-14.3889
▁provid	-14.3896
▁unearth	-14.3898
▁loo	-14.39
moon	-14.3903
children	-14.3903
▁complet	-14.3903
cake	-14.3904
indeed	-14.3904
chocolate	-14.3904
foolish	-14.3904
giant	-14.3904
snack	-14.3904
another	-14.3904
say	-14.3905
▁pix	-14.3905
▁victor	-14.3906
▁numb	-14.3906
choo	-14.3906
▁till	-14.3906
nev	-14.3906
▁glim	-14.3906
olent	-14.3906
▁annoyance	-14.3906
▁basil	-14.3906
▁blacksmith	-14.3906
▁broccoli	-14.3906
▁bullet	-14.3906
▁camaraderie	-14.3906
▁comfy	-14.3906
▁comment	-14.3906
▁competitor	-14.3906
▁cooperating	-14.3906
▁cruiser	-14.3906
▁deceptive	-14.3906
▁dreamcatcher	-14.3906
▁fiddl	-14.3906
▁fragility	-14.3906
▁friendlier	-14.3906
▁gamble	-14.3906
▁gossip	-14.3906
▁halt	-14.3906
▁iguana	-14.3906
▁inflat	-14.3906
▁influence	-14.3906
▁insists	-14.3906
▁jinx	-14.3906
▁liz	-14.3906
▁loneliest	-14.3906
▁luxury	-14.3906
▁modern	-14.3906
▁mount	-14.3906
▁nightingale	-14.3906
▁notepad	-14.3906
▁oxygen	-14.3906
▁qor	-14.3906
▁radar	-14.3906
▁recoiled	-14.3906
▁refreshed	-14.3906
▁resolute	-14.3906
▁strained	-14.3906
▁tarp	-14.3906
▁thunderbolt	-14.3906
▁trimmed	-14.3906
▁troubling	-14.3906
▁unfurled	-14.3906
braced	-14.3906
▁uncork	-14.3906
▁kidding	-14.3906
▁knitted	-14.3906
▁disorder	-14.3906
▁ballet	-14.3906
▁punchline	-14.3906
▁alluring	-14.3906
▁stingray	-14.3906
size	-14.3906
▁beaver	-14.3906
▁hummingbird	-14.3906
▁revelation	-14.3906
▁goalpost	-14.3906
▁atheron	-14.3907
tweet	-14.3907
▁techville	-14.3907
▁whined	-14.3907
▁blackboard	-14.3907
▁breakthrough	-14.3907
▁properly	-14.3907
▁baton	-14.3909
▁chirpy	-14.3909
▁suspiciously	-14.3909
▁goldentown	-14.3911
▁firestone	-14.3912
▁comedian	-14.3912
▁hatred	-14.3913
▁affected	-14.3914
egan	-14.3914
▁squirmed	-14.3914
▁printed	-14.3917
▁chewing	-14.3918
▁seaside	-14.3919
▁swarmed	-14.392
▁firewood	-14.3923
▁expanded	-14.3924
▁vividly	-14.3924
▁deceiver	-14.3928
▁sender	-14.3937
▁painfully	-14.3938
fishing	-14.3939
▁researched	-14.394
▁kindra	-14.3946
▁dreamwood	-14.3951
▁evolve	-14.3961
▁critical	-14.3966
▁starville	-14.3975
trick	-14.4088
lumine	-14.4097
wheee	-14.4134
fashioned	-14.4199
new	-14.4281
luc	-14.4308
eo	-14.4436
▁tact	-14.4467
gal	-14.4519
▁char	-14.4525
▁remnant	-14.453
▁prop	-14.453
▁oar	-14.453
▁hu	-14.4535
dian	-14.4536
▁chuck	-14.4544
▁squint	-14.4551
▁threaten	-14.4552
▁squirm	-14.4564
▁extinguish	-14.4564
▁dismiss	-14.4564
▁interrupt	-14.4564
▁recount	-14.4564
▁cancel	-14.4564
▁insert	-14.4564
▁reviv	-14.4565
lock	-14.457
ugged	-14.457
▁mag	-14.457
linked	-14.457
granting	-14.4571
absence	-14.4571
grandma	-14.4571
paint	-14.4571
shiny	-14.4571
spring	-14.4571
taste	-14.4571
smile	-14.4571
baking	-14.4571
▁brisk	-14.4571
▁crave	-14.4572
▁remarkabl	-14.4573
▁voyage	-14.4573
▁rapt	-14.4573
▁memori	-14.4573
▁polka	-14.4573
▁resolution	-14.4573
▁application	-14.4573
▁blorf	-14.4573
▁bookmark	-14.4573
▁bowtie	-14.4573
▁cauldron	-14.4573
▁chipmunk	-14.4573
▁climax	-14.4573
▁collaborate	-14.4573
▁commitment	-14.4573
▁compost	-14.4573
▁critter	-14.4573
▁daffodil	-14.4573
▁dangling	-14.4573
▁eldora	-14.4573
▁expensive	-14.4573
▁freddie	-14.4573
▁fretted	-14.4573
▁furrowing	-14.4573
▁general	-14.4573
▁gilly	-14.4573
▁glyn	-14.4573
▁gorilla	-14.4573
▁grom	-14.4573
▁insecurities	-14.4573
▁intended	-14.4573
▁jetpack	-14.4573
▁miserably	-14.4573
▁motives	-14.4573
▁motor	-14.4573
▁obs	-14.4573
▁parachute	-14.4573
▁prompt	-14.4573
▁pufferfish	-14.4573
▁rattling	-14.4573
▁service	-14.4573
▁slate	-14.4573
▁sprocket	-14.4573
▁stuttered	-14.4573
▁teens	-14.4573
▁tendrils	-14.4573
▁terribly	-14.4573
▁thrashed	-14.4573
▁undone	-14.4573
▁unprepared	-14.4573
▁unsuspecting	-14.4573
▁untouchable	-14.4573
▁whiff	-14.4573
▁trix	-14.4573
▁mustard	-14.4573
▁novel	-14.4573
▁sharpened	-14.4573
▁zephyria	-14.4573
▁flair	-14.4573
▁tyranno	-14.4573
▁patrolled	-14.4573
▁plush	-14.4573
▁formula	-14.4573
▁temperature	-14.4573
▁flesh	-14.4573
▁fulfillment	-14.4573
▁posing	-14.4573
▁assistant	-14.4573
▁scratches	-14.4573
▁axe	-14.4573
▁terms	-14.4573
▁affectionately	-14.4573
▁engaged	-14.4573
▁squad	-14.4573
▁napping	-14.4573
▁lonesome	-14.4574
▁rethink	-14.4574
▁xel	-14.4574
▁spoonful	-14.4574
▁persevered	-14.4574
▁network	-14.4574
▁sleepover	-14.4574
▁matey	-14.4575
▁avenge	-14.4575
▁sisterhood	-14.4575
▁supportive	-14.4576
▁photography	-14.4577
▁fift	-14.4579
▁clattering	-14.4579
▁crosses	-14.458
▁inhaled	-14.458
▁aligned	-14.458
▁beaten	-14.4581
▁knit	-14.4582
▁starview	-14.4582
▁greenie	-14.4584
▁suspected	-14.4584
▁uncertainly	-14.4588
▁trickle	-14.4589
aught	-14.4591
▁wielded	-14.4591
▁sunnyville	-14.4597
▁harshly	-14.4598
▁tiredness	-14.4599
▁menu	-14.461
lust	-14.4671
▁bin	-14.4725
▁loser	-14.4731
▁selfie	-14.4915
▁sooth	-14.4934
▁fe	-14.4965
ugh	-14.5075
fall	-14.5231
▁bun	-14.5234
▁pillar	-14.5243
▁sample	-14.5244
▁intruder	-14.5244
▁sparkler	-14.5259
understanding	-14.5259
▁chew	-14.5265
▁consider	-14.5265
▁shoo	-14.5271
▁affect	-14.5278
▁grunt	-14.5278
through	-14.5284
thriving	-14.5285
anytime	-14.5285
knock	-14.5285
laughing	-14.5285
monster	-14.5285
pizza	-14.5285
protect	-14.5285
pop	-14.5285
mother	-14.5285
▁contribute	-14.5286
▁jumble	-14.5286
▁rattle	-14.5286
▁cultur	-14.5287
max	-14.5287
▁mechanic	-14.5287
q	-14.5287
▁freddy	-14.5287
▁jay	-14.5287
▁outrageous	-14.5287
▁rufus	-14.5287
▁specific	-14.5287
▁thrust	-14.5287
7	-14.5287
▁analyze	-14.5287
▁astonishment	-14.5287
▁awestruck	-14.5287
▁bewildered	-14.5287
▁cherries	-14.5287
▁comparison	-14.5287
▁conjur	-14.5287
▁conquest	-14.5287
▁cooed	-14.5287
▁ellie	-14.5287
▁execute	-14.5287
▁fantasia	-14.5287
▁flattered	-14.5287
▁folly	-14.5287
▁gaming	-14.5287
▁garlic	-14.5287
▁gruff	-14.5287
▁hurricane	-14.5287
▁imaginative	-14.5287
▁inhabitants	-14.5287
▁lightbulb	-14.5287
▁liking	-14.5287
▁lopsided	-14.5287
▁mirthful	-14.5287
▁misery	-14.5287
▁multiplies	-14.5287
▁nostrils	-14.5287
▁professor	-14.5287
▁quarter	-14.5287
▁scavenger	-14.5287
▁sketchpad	-14.5287
▁sportsmanship	-14.5287
▁sworn	-14.5287
▁tagged	-14.5287
▁tiara	-14.5287
▁unguarded	-14.5287
▁unsolved	-14.5287
▁unwelcoming	-14.5287
▁vex	-14.5287
▁virus	-14.5287
▁flim	-14.5287
▁messiness	-14.5287
▁bidding	-14.5287
▁donations	-14.5287
▁wool	-14.5287
▁chalkboard	-14.5287
▁countryside	-14.5287
ctic	-14.5287
▁fluid	-14.5287
▁jambo	-14.5287
▁plus	-14.5287
▁regal	-14.5287
▁zari	-14.5287
▁hub	-14.5287
▁angelfish	-14.5287
▁businessman	-14.5287
▁lightbringer	-14.5287
▁crazier	-14.5287
▁confession	-14.5287
▁ranks	-14.5287
▁sheepishly	-14.5288
▁integrity	-14.5288
▁popper	-14.5288
▁security	-14.5288
lashed	-14.5288
▁involve	-14.5288
▁weaknesses	-14.5288
▁politely	-14.5288
▁splat	-14.5288
▁illumination	-14.5289
▁volcanoes	-14.5289
heroes	-14.5289
▁cookbot	-14.5289
finished	-14.529
▁squabbl	-14.529
▁swear	-14.529
▁terra	-14.529
▁uneven	-14.529
▁fizzled	-14.5291
▁majestically	-14.5292
▁quarreled	-14.5293
▁amiss	-14.5293
▁lunches	-14.5295
▁dreamworld	-14.5295
▁hasty	-14.5295
▁hugo	-14.5301
▁halftime	-14.5303
▁starfield	-14.5304
▁pledg	-14.5304
▁loosened	-14.5304
▁purest	-14.5306
▁symbolize	-14.5307
▁researcher	-14.5315
▁quacker	-14.5317
▁cleanup	-14.5318
medie	-14.5319
▁um	-14.5322
▁mixes	-14.5324
woo	-14.5384
▁blu	-14.5401
▁eclips	-14.5409
ffe	-14.5441
▁snuggle	-14.5456
rummed	-14.5738
oki	-14.5775
cluded	-14.5942
▁brav	-14.5996
▁declare	-14.6012
▁pigeon	-14.6012
▁rhyme	-14.6013
▁circuit	-14.6013
▁wildflower	-14.6013
▁churn	-14.6034
▁introduc	-14.6039
▁tub	-14.6041
aye	-14.6041
▁rail	-14.6043
other	-14.6044
▁mystic	-14.6046
▁hack	-14.6046
▁align	-14.6047
▁scowl	-14.6047
▁snort	-14.6047
▁shudder	-14.6048
▁drench	-14.6048
▁embarrass	-14.6048
▁bur	-14.6048
hole	-14.6051
walk	-14.6052
box	-14.6053
paper	-14.6054
uncle	-14.6054
celebrate	-14.6054
practice	-14.6054
zoom	-14.6054
amazing	-14.6054
move	-14.6054
saw	-14.6054
golden	-14.6054
▁polite	-14.6055
▁blissful	-14.6055
▁equal	-14.6055
▁stabilize	-14.6055
▁merge	-14.6055
▁occasion	-14.6056
▁invisibl	-14.6056
▁greeb	-14.6056
ility	-14.6056
▁assembl	-14.6056
▁coax	-14.6056
▁monk	-14.6056
congratulati	-14.6056
▁accused	-14.6056
▁aetheria	-14.6056
▁aiko	-14.6056
▁announcing	-14.6056
▁anticipated	-14.6056
▁astronomy	-14.6056
▁bandana	-14.6056
▁barkley	-14.6056
▁blimp	-14.6056
▁centerpiece	-14.6056
▁comparing	-14.6056
▁comrade	-14.6056
▁contraption	-14.6056
▁dazed	-14.6056
▁demons	-14.6056
▁draft	-14.6056
▁ebb	-14.6056
▁eldara	-14.6056
▁enigma	-14.6056
▁envied	-14.6056
▁flailing	-14.6056
▁funhouse	-14.6056
▁groove	-14.6056
▁hobbies	-14.6056
▁indifference	-14.6056
▁interact	-14.6056
▁internet	-14.6056
▁janitor	-14.6056
▁jingling	-14.6056
▁jubilant	-14.6056
▁keylo	-14.6056
▁lasso	-14.6056
▁margin	-14.6056
▁patrons	-14.6056
▁prophecy	-14.6056
▁pursuing	-14.6056
▁ragged	-14.6056
▁regroup	-14.6056
▁scour	-14.6056
▁scrunch	-14.6056
▁select	-14.6056
▁slumped	-14.6056
▁stool	-14.6056
▁supernova	-14.6056
▁supreme	-14.6056
▁thompson	-14.6056
▁tractor	-14.6056
▁unfazed	-14.6056
▁universal	-14.6056
▁unmatched	-14.6056
▁unpacked	-14.6056
▁untangling	-14.6056
▁vague	-14.6056
▁vesper	-14.6056
▁worship	-14.6056
▁wubble	-14.6056
8	-14.6056
▁grappl	-14.6056
▁zigzagging	-14.6056
▁swatt	-14.6056
▁asteria	-14.6056
▁orca	-14.6056
▁strutted	-14.6056
▁arrangement	-14.6056
▁enduring	-14.6056
▁relate	-14.6056
▁clip	-14.6057
▁snacktopia	-14.6057
▁smi	-14.6057
▁robbery	-14.6057
▁admitting	-14.6057
▁jade	-14.6057
▁disappearance	-14.6057
▁spellbook	-14.6057
tech	-14.6058
▁buster	-14.6059
mommy	-14.6059
goal	-14.6059
▁gravelly	-14.6059
▁sincerely	-14.606
▁bid	-14.606
▁prickly	-14.6061
▁tid	-14.6061
▁greenhill	-14.6062
oxy	-14.6063
▁5	-14.6063
▁goodnight	-14.6068
▁playfulness	-14.607
loaded	-14.6092
▁snatcher	-14.6111
▁snippe	-14.6191
▁zapp	-14.6329
▁soothe	-14.6437
▁pierce	-14.6454
▁preserve	-14.6497
▁tearful	-14.6603
▁infiltrate	-14.6714
▁faithful	-14.6822
▁uniform	-14.6846
▁consequence	-14.6847
▁crater	-14.6847
▁bicker	-14.6867
▁expos	-14.6881
▁huff	-14.6881
fast	-14.6886
words	-14.6887
tag	-14.6887
brook	-14.6887
grandparents	-14.6887
polly	-14.6887
neither	-14.6887
behind	-14.6887
creating	-14.6887
empty	-14.6887
turtle	-14.6887
vibrant	-14.6887
betrayal	-14.6887
invite	-14.6887
unlock	-14.6887
maps	-14.6887
▁amaze	-14.6889
▁crazie	-14.6889
▁division	-14.689
▁improvise	-14.689
▁oddities	-14.689
▁peril	-14.689
▁riff	-14.689
▁spectacle	-14.689
activate	-14.689
▁adopt	-14.689
▁ambitious	-14.689
▁apologizing	-14.689
▁apprentice	-14.689
▁arrogance	-14.689
▁avalanche	-14.689
▁bleated	-14.689
▁bumblebee	-14.689
▁choppy	-14.689
▁colliding	-14.689
▁cope	-14.689
▁crisis	-14.689
▁dappl	-14.689
▁discarded	-14.689
▁drake	-14.689
▁flinch	-14.689
▁goldwyn	-14.689
▁gushed	-14.689
▁identities	-14.689
▁intelligent	-14.689
▁lira	-14.689
▁llama	-14.689
▁lobby	-14.689
▁maggie	-14.689
▁maintain	-14.689
▁mesmerizing	-14.689
▁moisture	-14.689
▁moonflower	-14.689
▁observatory	-14.689
▁paris	-14.689
▁passerby	-14.689
▁pollen	-14.689
▁prancing	-14.689
▁sandbags	-14.689
▁silverlake	-14.689
▁slippers	-14.689
▁speck	-14.689
▁spectator	-14.689
▁splinter	-14.689
▁thermos	-14.689
▁tourists	-14.689
▁trident	-14.689
▁tweak	-14.689
▁undeniable	-14.689
▁unharmed	-14.689
▁unused	-14.689
▁vengeful	-14.689
▁visibility	-14.689
▁wrestled	-14.689
▁yara	-14.689
▁zulu	-14.689
▁construct	-14.689
▁coralina	-14.689
▁faerie	-14.689
▁rewritten	-14.689
▁bloop	-14.689
▁auron	-14.689
mmm	-14.689
▁broomstick	-14.689
▁personality	-14.689
▁trend	-14.689
▁elara	-14.689
▁peas	-14.689
▁footfall	-14.689
▁assistance	-14.689
▁arches	-14.689
▁zim	-14.689
▁clunky	-14.689
▁fluffball	-14.689
▁scruffy	-14.689
▁valiantly	-14.689
▁oliver	-14.689
▁bland	-14.689
▁limitless	-14.689
▁speechless	-14.689
▁archery	-14.6891
▁inches	-14.6891
▁ignorance	-14.6891
▁skillfully	-14.6891
▁thunderbird	-14.6891
▁silvermoon	-14.6891
▁sizzled	-14.6891
▁reignited	-14.6891
▁bingo	-14.6892
▁evergreen	-14.6892
▁receiver	-14.6892
▁earnest	-14.6893
▁altogether	-14.6894
▁heels	-14.6895
▁songbird	-14.6895
▁crabby	-14.6895
▁genuinely	-14.6896
▁forgetful	-14.6896
▁moonshadow	-14.6896
▁seriousness	-14.6898
▁watchman	-14.6899
▁scrape	-14.69
oogly	-14.6903
▁min	-14.6919
▁intel	-14.692
▁inhal	-14.693
post	-14.6985
loop	-14.7099
thful	-14.7195
fel	-14.7281
rching	-14.7426
▁waddle	-14.7582
▁congratulate	-14.7675
dragon	-14.7752
▁chick	-14.7755
broken	-14.7766
solving	-14.7775
lift	-14.7777
▁resonat	-14.7784
▁scurry	-14.7785
▁gestur	-14.779
things	-14.7792
place	-14.7794
▁rebellio	-14.7795
alacti	-14.7795
earth	-14.7796
bloom	-14.7796
buy	-14.7796
colors	-14.7796
giggle	-14.7796
mystery	-14.7796
prince	-14.7796
respect	-14.7796
sadness	-14.7796
summer	-14.7796
fresh	-14.7796
yet	-14.7796
tiny	-14.7797
forgiveness	-14.7797
▁recede	-14.7798
▁dazzle	-14.7798
▁proper	-14.7798
▁clunk	-14.7798
▁scruff	-14.7798
▁melodi	-14.7798
▁whim	-14.7799
▁charades	-14.7799
▁defensive	-14.7799
▁discord	-14.7799
▁fabulous	-14.7799
▁significant	-14.7799
▁snooze	-14.7799
▁snug	-14.7799
▁stupid	-14.7799
brimm	-14.7799
▁aeloria	-14.7799
▁aldoria	-14.7799
▁aspirations	-14.7799
▁assigned	-14.7799
▁assignment	-14.7799
▁asylum	-14.7799
▁blueberries	-14.7799
▁blueberry	-14.7799
▁breached	-14.7799
▁buckle	-14.7799
▁carpenter	-14.7799
▁chili	-14.7799
▁conviction	-14.7799
▁demeanor	-14.7799
▁diligently	-14.7799
▁doorknob	-14.7799
▁easing	-14.7799
▁engraving	-14.7799
▁faun	-14.7799
▁fickle	-14.7799
▁flik	-14.7799
▁floria	-14.7799
▁geese	-14.7799
▁gloating	-14.7799
▁golf	-14.7799
▁graffiti	-14.7799
▁grudge	-14.7799
▁horrible	-14.7799
▁insignificant	-14.7799
▁kaleidoscopic	-14.7799
▁klo	-14.7799
▁nala	-14.7799
▁narrative	-14.7799
▁nimbus	-14.7799
▁observation	-14.7799
▁oppressed	-14.7799
▁piracy	-14.7799
▁plump	-14.7799
▁prevail	-14.7799
▁raka	-14.7799
▁recycling	-14.7799
▁rehearsing	-14.7799
▁robbed	-14.7799
▁sliver	-14.7799
▁staggered	-14.7799
▁static	-14.7799
▁sundae	-14.7799
▁talia	-14.7799
▁talisman	-14.7799
▁temporary	-14.7799
▁thoroughly	-14.7799
▁truce	-14.7799
▁unwanted	-14.7799
▁vibrating	-14.7799
▁wrongdoings	-14.7799
▁enrich	-14.7799
▁injustice	-14.7799
▁hoist	-14.7799
▁invaders	-14.7799
▁fifi	-14.7799
▁buddies	-14.7799
▁tranquility	-14.7799
▁passageway	-14.7799
legged	-14.7799
▁shoebox	-14.7799
▁barefoot	-14.7799
▁disable	-14.7799
▁sandals	-14.7799
▁zorax	-14.7799
▁jug	-14.7799
▁payback	-14.7799
▁nobleman	-14.7799
▁twine	-14.7799
▁prime	-14.78
▁earthworm	-14.78
▁stabilized	-14.78
bear	-14.78
▁drizzled	-14.78
▁woof	-14.78
▁edit	-14.78
▁pansy	-14.7801
▁buzzes	-14.7801
▁shutter	-14.7801
▁flourishes	-14.7801
▁denser	-14.7801
▁resonate	-14.7803
rexes	-14.7807
shoot	-14.7808
▁drummer	-14.7831
▁yip	-14.7848
▁gorgo	-14.7863
▁wobbler	-14.7866
▁wedge	-14.8008
bad	-14.8088
breathe	-14.8232
▁ploo	-14.8308
greed	-14.8499
▁enthusiastic	-14.8546
chase	-14.8546
▁squiggle	-14.8669
different	-14.8681
moving	-14.8735
▁exclaim	-14.8747
▁volume	-14.8755
▁tulip	-14.8755
▁grandparent	-14.8756
▁chore	-14.8756
▁cosmo	-14.8756
nspired	-14.8774
foot	-14.8776
▁enchant	-14.8777
▁contemplat	-14.8785
fill	-14.8788
▁separat	-14.879
▁recit	-14.879
▁protest	-14.879
▁gallop	-14.879
▁scuttl	-14.879
▁shriek	-14.879
▁attach	-14.879
▁squa	-14.8792
error	-14.8796
kind	-14.8796
expect	-14.8796
accept	-14.8796
banana	-14.8796
guys	-14.8796
joking	-14.8796
cheese	-14.8796
cooperation	-14.8796
dinner	-14.8796
kids	-14.8796
wrong	-14.8796
delicious	-14.8797
sail	-14.8797
bark	-14.8797
carry	-14.8797
running	-14.8797
scared	-14.8797
▁engage	-14.8798
▁choke	-14.8798
▁intertwine	-14.8798
forgive	-14.8798
▁fuzz	-14.8798
▁origin	-14.8799
▁zorbla	-14.8799
▁broad	-14.8799
▁devot	-14.8799
▁invade	-14.8799
▁verdant	-14.8799
possibly	-14.8799
▁1920	-14.8799
▁3000	-14.8799
▁ablaze	-14.8799
▁abundance	-14.8799
▁academy	-14.8799
▁airport	-14.8799
▁amoria	-14.8799
▁anguish	-14.8799
▁auditorium	-14.8799
▁authenticity	-14.8799
▁banquet	-14.8799
▁banter	-14.8799
▁bargain	-14.8799
▁brandish	-14.8799
▁conceal	-14.8799
▁coyote	-14.8799
▁crease	-14.8799
▁debating	-14.8799
▁debt	-14.8799
▁decades	-14.8799
▁develop	-14.8799
▁diplodocus	-14.8799
▁drama	-14.8799
▁efficient	-14.8799
▁envoy	-14.8799
▁fascination	-14.8799
▁fatigue	-14.8799
▁fervently	-14.8799
▁fiction	-14.8799
▁finny	-14.8799
▁flowerpot	-14.8799
▁flubble	-14.8799
▁gazelle	-14.8799
▁graduation	-14.8799
▁hamster	-14.8799
▁handlebars	-14.8799
▁harold	-14.8799
▁hobby	-14.8799
▁hoppy	-14.8799
▁innovators	-14.8799
▁instinctively	-14.8799
▁jab	-14.8799
▁jagged	-14.8799
▁jones	-14.8799
▁kernel	-14.8799
▁launchpad	-14.8799
▁luno	-14.8799
▁media	-14.8799
▁nifty	-14.8799
▁nightwraith	-14.8799
▁omelet	-14.8799
▁playwright	-14.8799
▁plentiful	-14.8799
▁private	-14.8799
▁remorse	-14.8799
▁residents	-14.8799
▁riot	-14.8799
▁silverfin	-14.8799
▁simmered	-14.8799
▁sleigh	-14.8799
▁smartbrain	-14.8799
▁sneezing	-14.8799
▁spontaneity	-14.8799
▁superior	-14.8799
▁thalor	-14.8799
▁thursday	-14.8799
▁unshared	-14.8799
▁unwary	-14.8799
▁zendar	-14.8799
▁zilp	-14.8799
▁zorkians	-14.8799
6	-14.8799
▁babbl	-14.8799
▁coraldeep	-14.8799
▁dire	-14.8799
▁edda	-14.8799
▁visualiz	-14.8799
4	-14.8799
▁agility	-14.8799
▁ginger	-14.8799
▁penny	-14.8799
▁prosperity	-14.8799
▁funnel	-14.8799
▁ridge	-14.8799
▁skyler	-14.8799
▁hovercar	-14.8799
▁ladle	-14.8799
▁floop	-14.8799
▁midway	-14.8799
▁willowbrook	-14.8799
▁boastful	-14.8799
▁completion	-14.8799
▁goober	-14.8799
ssuring	-14.8799
▁vice	-14.8799
▁panda	-14.8799
)	-16.2088
+	-16.2088
(	-17.7535
