<unk>	0
<s>	0
</s>	0
<pad>	0
<0x00>	0
<0x01>	0
<0x02>	0
<0x03>	0
<0x04>	0
<0x05>	0
<0x06>	0
<0x07>	0
<0x08>	0
<0x09>	0
<0x0A>	0
<0x0B>	0
<0x0C>	0
<0x0D>	0
<0x0E>	0
<0x0F>	0
<0x10>	0
<0x11>	0
<0x12>	0
<0x13>	0
<0x14>	0
<0x15>	0
<0x16>	0
<0x17>	0
<0x18>	0
<0x19>	0
<0x1A>	0
<0x1B>	0
<0x1C>	0
<0x1D>	0
<0x1E>	0
<0x1F>	0
<0x20>	0
<0x21>	0
<0x22>	0
<0x23>	0
<0x24>	0
<0x25>	0
<0x26>	0
<0x27>	0
<0x28>	0
<0x29>	0
<0x2A>	0
<0x2B>	0
<0x2C>	0
<0x2D>	0
<0x2E>	0
<0x2F>	0
<0x30>	0
<0x31>	0
<0x32>	0
<0x33>	0
<0x34>	0
<0x35>	0
<0x36>	0
<0x37>	0
<0x38>	0
<0x39>	0
<0x3A>	0
<0x3B>	0
<0x3C>	0
<0x3D>	0
<0x3E>	0
<0x3F>	0
<0x40>	0
<0x41>	0
<0x42>	0
<0x43>	0
<0x44>	0
<0x45>	0
<0x46>	0
<0x47>	0
<0x48>	0
<0x49>	0
<0x4A>	0
<0x4B>	0
<0x4C>	0
<0x4D>	0
<0x4E>	0
<0x4F>	0
<0x50>	0
<0x51>	0
<0x52>	0
<0x53>	0
<0x54>	0
<0x55>	0
<0x56>	0
<0x57>	0
<0x58>	0
<0x59>	0
<0x5A>	0
<0x5B>	0
<0x5C>	0
<0x5D>	0
<0x5E>	0
<0x5F>	0
<0x60>	0
<0x61>	0
<0x62>	0
<0x63>	0
<0x64>	0
<0x65>	0
<0x66>	0
<0x67>	0
<0x68>	0
<0x69>	0
<0x6A>	0
<0x6B>	0
<0x6C>	0
<0x6D>	0
<0x6E>	0
<0x6F>	0
<0x70>	0
<0x71>	0
<0x72>	0
<0x73>	0
<0x74>	0
<0x75>	0
<0x76>	0
<0x77>	0
<0x78>	0
<0x79>	0
<0x7A>	0
<0x7B>	0
<0x7C>	0
<0x7D>	0
<0x7E>	0
<0x7F>	0
<0x80>	0
<0x81>	0
<0x82>	0
<0x83>	0
<0x84>	0
<0x85>	0
<0x86>	0
<0x87>	0
<0x88>	0
<0x89>	0
<0x8A>	0
<0x8B>	0
<0x8C>	0
<0x8D>	0
<0x8E>	0
<0x8F>	0
<0x90>	0
<0x91>	0
<0x92>	0
<0x93>	0
<0x94>	0
<0x95>	0
<0x96>	0
<0x97>	0
<0x98>	0
<0x99>	0
<0x9A>	0
<0x9B>	0
<0x9C>	0
<0x9D>	0
<0x9E>	0
<0x9F>	0
<0xA0>	0
<0xA1>	0
<0xA2>	0
<0xA3>	0
<0xA4>	0
<0xA5>	0
<0xA6>	0
<0xA7>	0
<0xA8>	0
<0xA9>	0
<0xAA>	0
<0xAB>	0
<0xAC>	0
<0xAD>	0
<0xAE>	0
<0xAF>	0
<0xB0>	0
<0xB1>	0
<0xB2>	0
<0xB3>	0
<0xB4>	0
<0xB5>	0
<0xB6>	0
<0xB7>	0
<0xB8>	0
<0xB9>	0
<0xBA>	0
<0xBB>	0
<0xBC>	0
<0xBD>	0
<0xBE>	0
<0xBF>	0
<0xC0>	0
<0xC1>	0
<0xC2>	0
<0xC3>	0
<0xC4>	0
<0xC5>	0
<0xC6>	0
<0xC7>	0
<0xC8>	0
<0xC9>	0
<0xCA>	0
<0xCB>	0
<0xCC>	0
<0xCD>	0
<0xCE>	0
<0xCF>	0
<0xD0>	0
<0xD1>	0
<0xD2>	0
<0xD3>	0
<0xD4>	0
<0xD5>	0
<0xD6>	0
<0xD7>	0
<0xD8>	0
<0xD9>	0
<0xDA>	0
<0xDB>	0
<0xDC>	0
<0xDD>	0
<0xDE>	0
<0xDF>	0
<0xE0>	0
<0xE1>	0
<0xE2>	0
<0xE3>	0
<0xE4>	0
<0xE5>	0
<0xE6>	0
<0xE7>	0
<0xE8>	0
<0xE9>	0
<0xEA>	0
<0xEB>	0
<0xEC>	0
<0xED>	0
<0xEE>	0
<0xEF>	0
<0xF0>	0
<0xF1>	0
<0xF2>	0
<0xF3>	0
<0xF4>	0
<0xF5>	0
<0xF6>	0
<0xF7>	0
<0xF8>	0
<0xF9>	0
<0xFA>	0
<0xFB>	0
<0xFC>	0
<0xFD>	0
<0xFE>	0
<0xFF>	0
.	-2.57767
,	-2.78517
▁the	-2.8817
▁a	-3.52926
▁and	-3.82645
▁to	-3.99802
▁he	-4.08472
▁she	-4.1354
▁they	-4.26103
▁"	-4.33311
▁of	-4.37051
▁her	-4.44902
▁in	-4.48165
▁it	-4.5597
▁was	-4.56377
▁with	-4.68848
▁but	-4.90547
▁that	-5.01183
▁his	-5.08552
▁felt	-5.09215
▁as	-5.10532
!"	-5.25043
▁had	-5.25391
s	-5.34285
▁their	-5.4244
▁for	-5.47658
'	-5.54554
▁said	-5.61171
▁on	-5.67955
▁one	-5.71819
▁him	-5.75391
▁heart	-5.79601
?"	-5.80133
▁you	-5.80655
▁could	-5.81048
"	-5.83829
▁i	-5.85047
▁not	-5.86181
▁found	-5.87308
▁at	-5.89816
▁like	-5.91593
▁day	-5.92917
▁together	-5.95572
!	-5.98538
▁them	-5.99071
i	-6.05505
▁girl	-6.07141
▁be	-6.09159
▁each	-6.1029
▁is	-6.13129
▁were	-6.13291
▁about	-6.13917
▁would	-6.16019
▁from	-6.16359
▁just	-6.17246
▁into	-6.18248
▁joy	-6.19386
▁boy	-6.19689
▁thought	-6.20903
▁mia	-6.21
▁this	-6.22645
▁can	-6.2401
."	-6.24368
▁filled	-6.26466
▁up	-6.27014
▁leo	-6.27619
▁looked	-6.31209
▁back	-6.34236
▁friends	-6.34497
▁when	-6.35282
▁find	-6.40102
▁old	-6.40488
▁eyes	-6.40796
▁small	-6.42384
▁smiled	-6.42622
▁saw	-6.4334
▁feeling	-6.43937
▁asked	-6.45579
▁through	-6.45888
▁made	-6.46911
▁alex	-6.46993
▁bright	-6.47655
▁all	-6.47761
▁around	-6.48686
▁lost	-6.50404
▁named	-6.50475
▁light	-6.50838
▁wanted	-6.5147
▁treasure	-6.52124
▁time	-6.54019
▁help	-6.54572
ing	-6.54655
▁began	-6.55559
▁sky	-6.55924
▁stars	-6.55957
▁by	-6.56384
▁stories	-6.56576
▁world	-6.57141
▁out	-6.58202
▁kim	-6.58446
▁night	-6.59617
▁if	-6.60167
▁inside	-6.60434
▁samuel	-6.62532
▁dreams	-6.63677
▁what	-6.64749
▁learned	-6.66946
what	-6.67173
▁suddenly	-6.68433
▁big	-6.69921
▁love	-6.70402
▁laughter	-6.71057
▁its	-6.72594
▁shared	-6.73376
▁who	-6.7344
▁new	-6.74168
▁will	-6.74366
▁we	-6.74708
▁air	-6.7493
▁an	-6.75119
▁realized	-6.75838
▁more	-6.76947
▁magic	-6.78441
▁laughed	-6.78443
▁sun	-6.79966
?	-6.80063
▁decided	-6.8109
▁friend	-6.83217
▁something	-6.8333
you	-6.8363
▁then	-6.8663
▁took	-6.87812
▁are	-6.87985
▁knew	-6.88814
▁my	-6.89028
▁danced	-6.90601
▁dark	-6.91965
▁there	-6.92043
▁home	-6.92203
▁down	-6.92354
▁every	-6.92872
▁tree	-6.92879
▁people	-6.93386
▁flowers	-6.94268
▁away	-6.94736
ed	-6.94988
▁see	-6.95291
▁walked	-6.95456
▁did	-6.97038
▁where	-6.97787
▁hope	-6.97843
▁again	-6.97907
▁moment	-6.98047
▁everyone	-6.9816
▁garden	-6.99713
▁me	-7.00782
▁turned	-7.00889
▁strange	-7.00985
▁man	-7.03712
▁now	-7.03948
▁rita	-7.04472
▁hidden	-7.04547
▁deep	-7.04661
▁stood	-7.05139
▁other	-7.05703
▁over	-7.06262
▁do	-7.06405
▁sat	-7.06703
▁even	-7.07034
t	-7.08054
▁how	-7.08346
▁have	-7.0875
▁adventure	-7.09686
▁lily	-7.10703
▁way	-7.11154
▁place	-7.13045
▁happy	-7.13842
▁shouted	-7.14165
▁full	-7.14204
▁loved	-7.15474
▁map	-7.16269
▁brave	-7.16297
▁little	-7.16435
▁came	-7.16663
▁water	-7.18061
▁knowing	-7.18105
▁colors	-7.18325
▁told	-7.19208
▁voice	-7.20635
▁trees	-7.20852
▁make	-7.21147
▁always	-7.21339
▁others	-7.21341
▁story	-7.21667
▁fun	-7.22055
▁life	-7.22976
▁forest	-7.23967
▁no	-7.2426
▁so	-7.24886
▁after	-7.25194
▁under	-7.25454
▁whispered	-7.25988
▁city	-7.26573
▁share	-7.2704
▁shadows	-7.27142
▁too	-7.27238
▁alone	-7.27872
▁reached	-7.28009
▁watched	-7.28327
▁own	-7.30533
we	-7.30611
▁opened	-7.3146
▁held	-7.32382
▁set	-7.32404
▁beautiful	-7.32636
▁door	-7.33665
▁soon	-7.3371
▁fear	-7.33733
▁than	-7.34367
▁alice	-7.3493
▁cave	-7.35472
▁while	-7.36721
▁stone	-7.3677
▁remembered	-7.38534
▁must	-7.39091
▁go	-7.39248
▁village	-7.39347
▁jose	-7.39819
▁sad	-7.39937
▁heard	-7.40489
▁hard	-7.41053
▁ran	-7.41416
▁maria	-7.4164
▁true	-7.41743
▁star	-7.42533
▁your	-7.42925
;	-7.43108
▁smile	-7.44074
▁sharing	-7.44098
▁ready	-7.44145
▁many	-7.44167
▁want	-7.44973
▁friendship	-7.44993
▁grew	-7.45911
▁finally	-7.4636
▁tall	-7.46406
▁come	-7.46602
▁wind	-7.46699
▁jean	-7.47214
▁room	-7.47585
▁both	-7.49284
▁lena	-7.49482
▁giant	-7.49645
▁stepped	-7.49718
▁played	-7.49765
▁nodded	-7.49782
▁never	-7.5088
▁only	-7.5094
▁soft	-7.51008
▁breath	-7.51078
▁became	-7.5131
▁cheered	-7.51532
this	-7.51665
▁once	-7.51709
▁spoke	-7.52167
▁excited	-7.52348
▁excitement	-7.52384
let	-7.52748
▁feel	-7.53118
▁curious	-7.53393
▁warm	-7.53944
▁special	-7.55105
▁gathered	-7.55747
▁best	-7.56017
▁replied	-7.56206
▁noticed	-7.56437
▁emmanuel	-7.56737
▁fish	-7.57142
▁woman	-7.57518
▁words	-7.57538
▁strong	-7.57947
▁hand	-7.5813
▁behind	-7.58212
▁face	-7.58224
▁long	-7.59208
▁days	-7.59262
▁warmth	-7.59285
▁clouds	-7.59916
▁flew	-7.59963
▁returned	-7.59976
▁wish	-7.60206
▁proud	-7.60338
▁past	-7.60514
▁dream	-7.6075
▁young	-7.6084
▁softly	-7.61607
▁path	-7.61663
-	-7.62355
▁ground	-7.62402
▁closer	-7.63681
▁seemed	-7.6456
▁storm	-7.64572
▁bring	-7.64606
▁before	-7.64993
▁flower	-7.65031
▁still	-7.65365
▁sparkled	-7.65384
▁bird	-7.65639
▁tiny	-7.66697
▁play	-7.66744
▁power	-7.66749
▁book	-7.6728
▁take	-7.67805
▁hearts	-7.67806
▁great	-7.67814
▁town	-7.681
▁above	-7.68289
▁next	-7.68314
▁heavy	-7.68904
▁change	-7.69782
▁memories	-7.69994
▁family	-7.70074
▁called	-7.70522
▁listened	-7.71156
▁fell	-7.71339
▁ship	-7.71462
▁raced	-7.72307
▁looking	-7.72345
▁being	-7.72916
▁worked	-7.73137
n	-7.74165
▁step	-7.74424
▁first	-7.74611
▁off	-7.74634
▁alive	-7.76497
▁courage	-7.76514
▁magical	-7.76609
▁also	-7.76787
▁outside	-7.76886
▁here	-7.76995
▁promised	-7.77272
▁appeared	-7.77298
▁things	-7.78115
▁himself	-7.78227
▁need	-7.78336
▁wise	-7.78433
▁am	-7.78519
▁instead	-7.79188
▁secrets	-7.79305
▁dragon	-7.79596
▁journey	-7.79696
▁met	-7.80163
▁work	-7.80366
▁glowing	-7.8077
▁anne	-7.80895
▁mind	-7.81136
▁dance	-7.81229
▁peter	-7.81244
▁brought	-7.81467
▁secret	-7.81969
▁land	-7.82137
▁laughing	-7.82483
▁herself	-7.8255
▁yet	-7.82713
▁happiness	-7.82895
▁us	-7.83191
▁shiny	-7.83938
▁passed	-7.84503
▁kindness	-7.84864
▁high	-7.85038
▁left	-7.85066
▁gold	-7.85108
▁slowly	-7.85161
▁colorful	-7.8529
▁box	-7.85538
▁wondered	-7.86004
▁end	-7.86083
▁real	-7.86588
▁showed	-7.86653
▁sea	-7.86774
▁creature	-7.87117
▁hands	-7.88112
▁shining	-7.88424
▁started	-7.88621
▁game	-7.88897
▁scared	-7.89343
▁thinking	-7.89581
▁last	-7.8975
▁robot	-7.89784
▁adventures	-7.90151
▁understood	-7.90219
▁some	-7.90377
▁or	-7.92214
▁free	-7.92394
▁wide	-7.92442
▁key	-7.92559
▁quiet	-7.92957
▁let	-7.92987
▁our	-7.93242
▁picked	-7.93645
▁group	-7.94036
▁spirit	-7.9453
▁letter	-7.94809
▁making	-7.94983
▁climbed	-7.95186
▁part	-7.9525
▁show	-7.95361
▁river	-7.95978
▁lived	-7.96527
▁island	-7.97691
▁wrote	-7.9771
why	-7.97802
▁keep	-7.98064
▁park	-7.98477
▁truth	-7.98872
▁different	-7.98959
▁weight	-7.99585
▁followed	-8.0013
▁tales	-8.00617
▁tell	-8.01342
▁discovered	-8.01407
▁plan	-8.01595
▁explore	-8.01873
▁know	-8.02027
▁waves	-8.02143
▁owl	-8.02289
▁join	-8.0255
it	-8.02646
▁rock	-8.03235
▁children	-8.03747
▁sweet	-8.04659
▁figure	-8.04738
▁jumped	-8.05235
▁far	-8.05462
▁open	-8.05551
▁snow	-8.05789
▁creatures	-8.05978
▁led	-8.06072
▁went	-8.06164
▁strength	-8.06606
▁leaves	-8.06632
▁been	-8.06686
▁sound	-8.06854
▁better	-8.07377
▁trust	-8.07746
▁everything	-8.08054
▁waiting	-8.0811
▁rain	-8.08583
▁turtle	-8.09091
▁brighter	-8.09298
▁beauty	-8.09314
▁spark	-8.09364
▁kind	-8.09388
▁sang	-8.10195
▁those	-8.10303
▁child	-8.10555
▁kids	-8.10983
▁wished	-8.11183
▁music	-8.11217
▁create	-8.11316
▁among	-8.11398
▁closed	-8.11447
▁sometimes	-8.11875
▁cold	-8.12754
▁grow	-8.12971
▁often	-8.13028
▁think	-8.13198
▁ever	-8.14081
:	-8.14296
▁moved	-8.14339
▁fox	-8.1463
▁rabbit	-8.15443
▁food	-8.15651
▁shadow	-8.15725
▁flying	-8.15834
▁sadness	-8.1634
▁deeper	-8.16545
▁without	-8.17103
▁shone	-8.17357
▁remember	-8.17371
▁surprise	-8.17631
▁needed	-8.1764
▁chest	-8.17678
▁echoed	-8.17961
▁helped	-8.18312
▁glow	-8.18659
▁exclaimed	-8.19015
▁wonder	-8.19283
▁animals	-8.19316
▁read	-8.19536
▁space	-8.20258
▁castle	-8.20628
▁loud	-8.21008
▁another	-8.21034
▁cat	-8.21297
▁dreamed	-8.21329
▁quickly	-8.21734
▁funny	-8.2177
▁faded	-8.22019
▁toward	-8.22146
▁playing	-8.2218
▁lay	-8.22393
▁good	-8.22966
▁agreed	-8.23054
▁fly	-8.23279
▁near	-8.23297
▁swam	-8.23923
▁woods	-8.24172
▁darkness	-8.24279
▁across	-8.24464
▁look	-8.247
▁close	-8.24783
▁watching	-8.25591
▁forever	-8.25694
▁alien	-8.25701
▁glowed	-8.25857
▁mother	-8.25867
▁lights	-8.2601
▁beneath	-8.26062
▁approached	-8.26094
▁blue	-8.26315
▁floated	-8.26316
▁return	-8.26666
▁landed	-8.26915
▁moon	-8.26916
▁stronger	-8.27033
▁searched	-8.27299
▁father	-8.27488
▁fairy	-8.27861
▁walls	-8.28271
▁spotted	-8.28503
▁silly	-8.28589
▁ocean	-8.28797
▁brightly	-8.29219
▁gasped	-8.29486
▁should	-8.29593
▁	-8.29868
▁someone	-8.30084
▁racing	-8.30095
▁gentle	-8.30182
▁luis	-8.30285
▁treasures	-8.30311
▁today	-8.30448
▁changed	-8.31221
▁idea	-8.31343
look	-8.31812
▁tried	-8.32607
▁seen	-8.32853
▁bond	-8.3305
but	-8.33302
▁helping	-8.33671
▁stones	-8.33695
▁forward	-8.33811
▁hero	-8.34873
▁within	-8.35112
can	-8.35156
a	-8.35207
▁hoping	-8.35362
▁gently	-8.35985
▁trying	-8.36039
▁hill	-8.36195
▁empty	-8.36264
▁art	-8.36332
▁sparkling	-8.36576
▁dinosaur	-8.36757
▁whispers	-8.37082
▁boat	-8.37308
▁painted	-8.37508
▁kingdom	-8.3769
▁lonely	-8.37781
▁imagined	-8.38097
▁upon	-8.38379
▁wandered	-8.38829
▁built	-8.38905
▁right	-8.39114
▁searching	-8.39369
▁house	-8.39425
▁pull	-8.3953
▁thank	-8.39541
▁faced	-8.40043
▁crew	-8.40221
▁arrived	-8.4027
▁dog	-8.40312
▁against	-8.40482
▁leader	-8.40715
▁joined	-8.41172
▁villagers	-8.41201
▁waved	-8.41354
▁pulled	-8.41422
▁hear	-8.41886
▁lead	-8.4198
▁laugh	-8.42273
maybe	-8.42647
▁leaving	-8.43037
▁side	-8.4345
▁morning	-8.43703
thank	-8.43913
yes	-8.4413
▁safe	-8.44168
▁along	-8.44256
▁school	-8.44393
▁wave	-8.45412
▁covered	-8.45448
▁two	-8.45645
▁leave	-8.45788
▁fast	-8.45908
▁cried	-8.4626
▁race	-8.46325
▁mirror	-8.46443
▁nearby	-8.46657
▁king	-8.46702
▁grass	-8.47139
▁below	-8.47403
▁care	-8.47444
▁stopped	-8.47851
▁team	-8.4787
▁evening	-8.48106
▁games	-8.48111
▁pushed	-8.48177
▁festival	-8.4824
▁realiz	-8.48903
▁crowd	-8.49072
▁shook	-8.49503
▁head	-8.49591
▁cloud	-8.49974
▁got	-8.50166
▁crystal	-8.50187
▁breeze	-8.5035
▁much	-8.51218
▁rushed	-8.51454
▁window	-8.51487
▁give	-8.51621
▁piece	-8.51758
▁created	-8.52326
▁wings	-8.5254
▁any	-8.52616
▁fears	-8.52631
▁smiling	-8.53239
▁believed	-8.54028
▁letters	-8.54091
▁thick	-8.54138
▁gone	-8.54367
▁kept	-8.54479
▁might	-8.54507
▁dancing	-8.54535
▁stumbled	-8.54535
▁sunny	-8.54908
▁twinkled	-8.55212
▁ball	-8.5544
▁rush	-8.55642
▁edge	-8.55792
▁surprised	-8.55887
▁golden	-8.56045
▁wishes	-8.56235
▁believe	-8.56312
▁worried	-8.56453
▁used	-8.56472
▁lit	-8.56757
▁dreaming	-8.56884
▁sense	-8.57345
▁silence	-8.57547
▁holding	-8.57802
▁shine	-8.58388
the	-8.58441
▁fire	-8.58627
▁turn	-8.59041
▁jester	-8.6003
▁talked	-8.60157
m	-8.60172
▁curiosity	-8.60306
▁learn	-8.60465
▁dusty	-8.60529
▁pirate	-8.61143
▁carefully	-8.61246
if	-8.61952
▁connection	-8.6221
▁sitting	-8.6232
▁birds	-8.62349
▁painting	-8.62523
▁brother	-8.62919
▁shore	-8.6376
▁build	-8.63832
▁sounds	-8.64331
▁faces	-8.64548
▁stay	-8.64952
▁future	-8.65159
▁song	-8.65178
▁inspired	-8.65431
▁anything	-8.6574
▁moments	-8.65745
▁very	-8.666
▁top	-8.66638
▁knight	-8.66736
▁tale	-8.66778
▁sand	-8.67434
▁follow	-8.67462
▁riddle	-8.67735
▁beside	-8.67744
▁caught	-8.67974
▁cool	-8.68625
▁memory	-8.68658
▁gift	-8.69025
▁spent	-8.69412
▁ideas	-8.69477
▁wrong	-8.69815
▁get	-8.69851
▁closely	-8.6987
▁earth	-8.69955
▁grandmother	-8.70194
▁smiles	-8.70445
▁candy	-8.70521
▁seek	-8.70578
▁hold	-8.70631
▁try	-8.70686
▁grabbed	-8.70784
▁places	-8.70901
▁maybe	-8.71016
▁mountain	-8.71036
▁thoughts	-8.71037
▁red	-8.71188
▁later	-8.71204
▁planet	-8.71352
▁important	-8.71355
▁amazing	-8.72047
▁has	-8.72149
do	-8.72191
▁pain	-8.72522
▁ancient	-8.72709
▁beach	-8.73154
▁finding	-8.73324
▁tears	-8.73662
▁filling	-8.73775
▁everywhere	-8.7392
▁longer	-8.73965
▁rocks	-8.73977
▁hours	-8.74089
▁quietly	-8.74207
▁spread	-8.74392
▁between	-8.74513
▁year	-8.74884
▁determined	-8.75175
▁creating	-8.75289
▁songs	-8.75331
ly	-8.75392
▁years	-8.76065
▁rolled	-8.76451
▁broken	-8.76475
▁ago	-8.76797
▁bear	-8.77002
is	-8.77162
▁green	-8.77421
▁suggested	-8.77423
▁remind	-8.77481
▁carry	-8.77492
▁clock	-8.77774
▁amazed	-8.77914
▁party	-8.77958
▁touched	-8.78086
▁gave	-8.78198
▁win	-8.78313
▁confused	-8.78505
▁reach	-8.78846
▁toy	-8.79531
▁note	-8.79933
▁bloomed	-8.80124
▁understanding	-8.80173
▁kite	-8.80282
▁pointed	-8.80363
▁peace	-8.80899
▁lighter	-8.81207
▁shell	-8.81369
▁yelled	-8.82072
▁weeks	-8.82525
▁afraid	-8.82563
▁running	-8.82638
▁tightly	-8.83093
▁surrounded	-8.8314
▁corner	-8.83556
▁ghost	-8.83589
▁forgotten	-8.83854
▁explored	-8.84086
▁feels	-8.84177
▁same	-8.84305
▁entered	-8.84307
▁mix	-8.84417
▁known	-8.84479
▁name	-8.8475
▁toys	-8.8496
▁sister	-8.85297
▁noise	-8.85348
▁run	-8.85503
▁loss	-8.85793
▁continued	-8.85875
▁taking	-8.86
▁chance	-8.86348
▁clever	-8.86586
d	-8.86692
▁valley	-8.86734
▁write	-8.86963
▁rainbow	-8.87173
▁blew	-8.87362
▁shimmered	-8.87458
▁explained	-8.87679
▁soared	-8.87935
▁invited	-8.87936
▁nervous	-8.88097
▁shimmering	-8.88168
▁paint	-8.88612
▁fall	-8.88656
▁taught	-8.88716
▁comes	-8.88785
▁ahead	-8.88847
▁fade	-8.88939
▁distance	-8.89427
▁thrill	-8.89584
▁revealing	-8.89803
▁reminder	-8.89919
▁mean	-8.90157
▁finished	-8.90425
▁friendly	-8.9056
▁mountains	-8.90743
▁teamwork	-8.90837
▁field	-8.91061
▁bridge	-8.9133
▁fight	-8.91967
▁watch	-8.92314
▁energy	-8.92702
▁stared	-8.92859
▁eager	-8.92877
▁until	-8.9292
▁explorer	-8.92925
▁invisible	-8.93167
▁going	-8.93204
▁lives	-8.93501
▁these	-8.93511
▁missed	-8.93524
▁use	-8.93549
▁listen	-8.9381
▁queen	-8.9388
▁trapped	-8.94023
▁streets	-8.94089
▁talk	-8.94169
▁pond	-8.94315
▁planned	-8.94327
▁seeds	-8.94389
▁wonders	-8.94438
▁favorite	-8.94602
▁showing	-8.94794
▁don	-8.94828
▁hurt	-8.94977
▁squirrel	-8.95164
▁catch	-8.95201
▁wisdom	-8.95469
▁tired	-8.95553
▁choice	-8.95614
▁butterfly	-8.95665
▁pirates	-8.96166
▁goodbye	-8.96626
▁chill	-8.96672
▁exploring	-8.96767
▁attic	-8.97252
▁woke	-8.97624
▁sighed	-8.97794
▁lesson	-8.98072
▁times	-8.98223
▁working	-8.9826
▁dust	-8.98276
▁say	-8.98304
▁onto	-8.98412
▁wild	-8.98671
▁higher	-8.98797
▁wore	-8.98835
▁meet	-8.98859
▁jewels	-8.98952
▁lake	-8.99326
▁touch	-8.99551
▁giggled	-8.99806
▁understand	-8.99918
▁plants	-9.0022
▁spot	-9.00234
▁grateful	-9.0028
▁nothing	-9.00326
▁reminded	-9.00328
▁placed	-9.0063
▁sing	-9.00791
▁feet	-9.00946
▁stop	-9.01041
▁matter	-9.0109
▁move	-9.01321
▁wall	-9.01754
that	-9.01964
▁enchanted	-9.02049
▁rose	-9.02237
▁promise	-9.02525
▁enough	-9.0271
▁table	-9.03092
▁broke	-9.03181
▁person	-9.03373
▁doubt	-9.03568
▁busy	-9.03712
▁meant	-9.03933
▁transformed	-9.04084
▁sunlight	-9.04205
▁most	-9.04414
▁save	-9.0443
▁captain	-9.05029
▁paper	-9.05206
▁because	-9.05219
▁put	-9.05429
▁calm	-9.05795
▁telling	-9.05931
▁answer	-9.06153
▁bravery	-9.06246
▁coming	-9.06303
▁aliens	-9.0636
▁act	-9.06525
▁really	-9.06547
▁cannot	-9.06592
▁visit	-9.06656
▁declared	-9.07024
▁singing	-9.07177
▁flickered	-9.07522
▁hugged	-9.07593
▁winter	-9.07689
▁stuck	-9.08515
▁silver	-9.0861
▁fill	-9.08628
▁branches	-9.08709
▁clear	-9.08799
▁spaceship	-9.08803
▁fierce	-9.09786
▁arms	-9.09801
▁echoing	-9.10072
▁guide	-9.1039
▁library	-9.10615
▁rocket	-9.1083
oh	-9.11213
▁plant	-9.11336
▁gather	-9.11881
▁perfect	-9.1241
▁danger	-9.12517
▁hat	-9.13015
▁coins	-9.13033
▁well	-9.13297
▁happened	-9.13364
▁mission	-9.13395
▁drawn	-9.13521
▁growing	-9.13551
▁sailed	-9.13577
▁flash	-9.13623
▁bloom	-9.13727
where	-9.14326
▁however	-9.14493
▁anyone	-9.1465
▁color	-9.14858
▁dinosaurs	-9.14859
▁celebrated	-9.1486
▁powerful	-9.14861
▁low	-9.15309
▁climb	-9.15333
▁saying	-9.15806
no	-9.15911
▁simple	-9.16151
▁happily	-9.16255
▁hesitated	-9.16671
▁hide	-9.16816
▁hiding	-9.17051
▁pressed	-9.17059
▁shape	-9.17123
▁talking	-9.17163
▁moonlight	-9.17298
▁whisper	-9.17664
▁anger	-9.1772
▁burst	-9.17853
▁ice	-9.17915
▁why	-9.17974
▁feather	-9.18016
▁worry	-9.18208
▁challenge	-9.1825
▁gem	-9.18371
▁moving	-9.18419
▁beyond	-9.18455
▁hills	-9.18612
▁crept	-9.18844
▁eagerly	-9.18864
▁hung	-9.19048
▁crown	-9.19162
▁traveled	-9.19504
▁search	-9.19599
▁frog	-9.19906
▁does	-9.20013
▁prince	-9.20234
▁distant	-9.20344
▁worlds	-9.2045
▁carried	-9.20452
▁hit	-9.20525
▁offered	-9.20571
▁paused	-9.20669
▁fog	-9.21138
▁revenge	-9.21502
▁twisted	-9.21863
▁grand	-9.21865
▁remembering	-9.22384
▁lies	-9.22397
▁wonderful	-9.22512
▁rivers	-9.22546
▁fought	-9.22747
▁shapes	-9.22768
▁though	-9.22885
▁teacher	-9.22907
▁word	-9.23013
▁afternoon	-9.23015
▁guiding	-9.23042
▁taken	-9.23136
▁nature	-9.23302
▁greatest	-9.23504
▁waited	-9.23593
▁unsure	-9.23673
▁honesty	-9.2383
▁traveler	-9.23837
▁building	-9.23869
▁books	-9.23891
▁center	-9.23896
re	-9.24194
▁protect	-9.24287
▁dug	-9.24344
▁believing	-9.24607
how	-9.24941
▁sorrow	-9.251
▁walking	-9.25208
▁lifted	-9.253
▁leading	-9.25387
▁universe	-9.25398
▁won	-9.25398
▁large	-9.25469
▁clapped	-9.25512
▁haunted	-9.25516
▁car	-9.26154
▁truly	-9.26311
▁cake	-9.2645
▁few	-9.26572
▁monster	-9.26604
▁slipped	-9.26655
▁may	-9.26765
▁trick	-9.26778
▁swirled	-9.26821
▁mouse	-9.26885
▁become	-9.27558
▁tight	-9.27595
▁packed	-9.2813
▁tower	-9.28686
▁winds	-9.28773
hello	-9.28799
wow	-9.28903
▁smell	-9.28922
▁flowed	-9.29141
y	-9.29183
▁hopes	-9.29227
▁saved	-9.29235
▁cookies	-9.29291
▁escape	-9.29321
▁fix	-9.29529
▁welcomed	-9.29653
who	-9.29684
▁imagination	-9.29851
▁voices	-9.29991
▁lift	-9.30005
▁heroes	-9.30054
▁s	-9.3015
▁vanished	-9.30337
▁plans	-9.30366
▁machine	-9.30368
▁ended	-9.3041
▁using	-9.3047
▁symbol	-9.30685
▁shy	-9.30824
▁snowman	-9.31044
▁balloon	-9.31331
▁themselves	-9.31443
▁surface	-9.31711
▁feelings	-9.31866
▁start	-9.31872
lmost	-9.31888
▁eye	-9.32364
they	-9.32486
▁which	-9.32495
▁dawn	-9.3256
▁forgot	-9.32628
▁bit	-9.32687
▁spring	-9.32942
▁break	-9.33267
▁roared	-9.33324
▁bigger	-9.33478
▁absence	-9.33638
▁careful	-9.34118
▁rise	-9.34198
▁front	-9.34256
▁freedom	-9.34466
▁blanket	-9.34696
▁standing	-9.34761
▁sought	-9.34878
▁calling	-9.35038
▁biggest	-9.35212
▁paths	-9.35385
▁warned	-9.35473
▁done	-9.3589
▁wash	-9.35915
▁fingers	-9.3653
▁silent	-9.36668
▁belonged	-9.3687
▁crossed	-9.37397
▁chaos	-9.3762
▁giving	-9.3822
▁wishing	-9.38252
▁late	-9.38458
help	-9.38526
▁whispering	-9.38569
▁quick	-9.38717
▁line	-9.38859
▁joyful	-9.3887
▁celebration	-9.39002
▁robots	-9.39017
▁knowledge	-9.39215
▁pages	-9.39403
▁butterflies	-9.39781
▁added	-9.39935
▁vibrant	-9.4
▁determination	-9.40087
▁loudly	-9.40139
▁forget	-9.40211
▁howled	-9.40233
▁bench	-9.40479
▁cruel	-9.40791
▁celebrate	-9.40821
▁vines	-9.41088
▁brings	-9.41202
▁pearl	-9.41204
▁crashed	-9.41387
▁canvas	-9.41497
▁pounding	-9.41994
▁gathering	-9.42204
▁snacks	-9.42305
▁prepared	-9.42441
▁creativity	-9.42528
▁street	-9.42774
▁poured	-9.4294
▁picture	-9.42994
▁sank	-9.43023
▁angry	-9.43113
▁ways	-9.43301
▁fields	-9.43322
▁dirt	-9.44058
▁speak	-9.44352
▁sign	-9.44501
▁bag	-9.44509
welcome	-9.44545
▁vast	-9.44613
▁spirits	-9.4467
▁staring	-9.44686
▁remained	-9.4482
to	-9.45181
▁happen	-9.45333
▁faster	-9.45601
▁pictures	-9.45603
▁okay	-9.45642
▁having	-9.45768
▁stayed	-9.45844
▁embrace	-9.45848
▁challenges	-9.45974
▁grant	-9.45993
▁doing	-9.46318
▁scary	-9.46654
▁presence	-9.46747
▁drawing	-9.46813
▁creaked	-9.46947
▁tricks	-9.46996
▁spun	-9.47123
▁feast	-9.47262
▁huge	-9.47408
▁else	-9.47453
▁dear	-9.47457
▁thing	-9.47744
▁fluffy	-9.48022
▁compass	-9.48447
▁summer	-9.48639
▁drew	-9.49118
▁pointing	-9.49317
▁quest	-9.49753
▁walk	-9.49756
come	-9.49798
▁frowned	-9.4986
▁makes	-9.49892
▁hid	-9.49944
▁looks	-9.49994
▁fruit	-9.49996
▁gazed	-9.50038
▁fresh	-9.50179
▁betrayal	-9.50179
▁wrapped	-9.50511
▁ride	-9.50576
▁ruins	-9.50922
▁orange	-9.50974
▁worth	-9.51046
▁society	-9.51153
▁missing	-9.51275
▁loomed	-9.51353
▁backyard	-9.51497
▁buried	-9.51603
▁ask	-9.51825
▁formed	-9.52049
▁grinned	-9.52336
▁pride	-9.52583
▁branch	-9.5263
▁casting	-9.52733
▁lantern	-9.53007
▁shells	-9.53058
▁pulling	-9.53128
▁twist	-9.5326
▁honest	-9.53557
▁learning	-9.53644
▁hoped	-9.53784
now	-9.53903
▁grin	-9.54033
▁chase	-9.54116
and	-9.54159
▁liked	-9.54307
▁turning	-9.54354
▁call	-9.54357
▁chose	-9.54749
▁clearing	-9.5502
▁reaching	-9.55558
▁planted	-9.55864
▁circle	-9.55891
▁son	-9.55941
▁snowy	-9.55956
▁swirling	-9.55967
▁hopped	-9.56019
▁wait	-9.56038
▁shaking	-9.56122
▁oak	-9.56328
▁answers	-9.56697
▁asking	-9.56881
▁choices	-9.56888
▁discover	-9.56907
▁self	-9.57208
▁bad	-9.57296
▁floating	-9.5745
during	-9.57541
▁hair	-9.57626
▁mom	-9.57629
▁puppy	-9.58254
▁tradition	-9.5831
▁stream	-9.5841
▁solve	-9.58821
▁final	-9.59455
▁emerged	-9.59471
▁bushes	-9.59526
▁twirled	-9.59546
▁diamonds	-9.59597
▁mist	-9.59624
▁fair	-9.5978
▁lose	-9.60273
▁clues	-9.60375
▁lessons	-9.60886
▁flicker	-9.60959
▁tail	-9.60985
▁inviting	-9.61079
▁peeked	-9.61089
▁enjoyed	-9.61115
▁ones	-9.61117
▁following	-9.61283
▁connected	-9.61575
▁roots	-9.61939
▁swim	-9.62185
▁splashed	-9.62251
▁apart	-9.6233
▁fading	-9.62385
▁meeting	-9.62401
▁winning	-9.62441
▁jump	-9.62497
ever	-9.62543
▁control	-9.62624
▁symbols	-9.62652
will	-9.62674
▁whole	-9.62702
▁bike	-9.62792
▁thief	-9.62935
▁seeing	-9.63086
▁chuckled	-9.63377
▁shown	-9.63388
▁button	-9.63458
▁floor	-9.63542
▁sent	-9.63543
▁sit	-9.63943
▁panic	-9.64657
▁imagining	-9.64657
▁mixed	-9.65039
er	-9.65099
▁visited	-9.65165
▁chased	-9.65178
▁market	-9.65219
▁louder	-9.65528
▁difference	-9.65651
▁excitedly	-9.65747
▁unknown	-9.65784
▁bed	-9.65956
▁purpose	-9.66011
▁seed	-9.66258
▁draw	-9.66558
▁drifted	-9.66664
▁beginning	-9.66679
▁cozy	-9.66695
▁drawings	-9.66873
▁view	-9.67039
▁practiced	-9.67508
▁hunt	-9.67625
▁enjoying	-9.677
▁coin	-9.67777
▁brush	-9.67834
▁push	-9.67835
▁enjoy	-9.67837
▁heal	-9.68227
▁beast	-9.68301
dear	-9.68391
▁prove	-9.68558
▁hole	-9.68946
▁finish	-9.69177
▁white	-9.69361
▁choose	-9.69363
▁trembling	-9.69537
▁sight	-9.69881
are	-9.70114
▁twinkle	-9.70232
ll	-9.70642
▁beat	-9.70681
▁pink	-9.70781
▁intrigued	-9.71079
▁fruits	-9.71185
▁tools	-9.71217
▁itself	-9.71498
▁yourself	-9.71678
▁teach	-9.71765
▁kitchen	-9.71979
▁failure	-9.71989
found	-9.72135
▁turns	-9.72296
▁eat	-9.7232
▁struck	-9.72766
▁focused	-9.72859
▁yard	-9.73071
▁tug	-9.73253
▁sunset	-9.73331
▁travel	-9.73946
▁bottle	-9.74132
▁unexpected	-9.74343
▁fairies	-9.74484
▁splash	-9.74798
▁blinked	-9.75083
▁course	-9.75729
▁daughter	-9.75789
▁lovely	-9.75998
▁storms	-9.76182
▁glass	-9.76351
▁listening	-9.76682
▁rang	-9.7674
▁week	-9.77084
▁reflection	-9.77213
▁three	-9.77243
▁washed	-9.77322
▁clothes	-9.77559
▁playful	-9.77613
▁trouble	-9.7771
▁class	-9.77747
▁admired	-9.77833
▁knelt	-9.77878
▁awe	-9.77998
▁worries	-9.78006
▁falling	-9.78292
▁wanting	-9.78326
▁gifts	-9.78452
▁mysterious	-9.78633
▁happening	-9.7872
▁page	-9.78757
▁says	-9.78867
▁aloud	-9.7936
▁leaf	-9.7936
▁responsibility	-9.7936
▁shop	-9.79471
▁guardian	-9.79799
▁planets	-9.79844
▁pile	-9.79916
▁greed	-9.79937
▁crash	-9.79968
▁superhero	-9.80008
▁octopus	-9.80273
▁sharp	-9.80447
▁meadow	-9.80667
▁skies	-9.80733
▁live	-9.80889
▁stand	-9.8091
▁sword	-9.81051
▁net	-9.81052
▁longing	-9.81058
▁witch	-9.81323
▁problem	-9.81384
▁spell	-9.81384
your	-9.81606
▁gray	-9.81658
▁rusty	-9.81858
▁digging	-9.82191
▁princess	-9.82192
▁pieces	-9.82263
▁swayed	-9.8229
r	-9.82595
▁artist	-9.82768
▁stroke	-9.82791
▁shake	-9.83018
▁fighting	-9.8315
▁sail	-9.83293
▁yes	-9.83433
▁holds	-9.8344
▁chirped	-9.83613
▁t	-9.83842
▁rainy	-9.83994
▁harder	-9.84014
▁cheer	-9.84114
▁honor	-9.84119
▁nights	-9.84206
▁skin	-9.84219
▁mystery	-9.84283
▁hopeful	-9.84459
▁sure	-9.84477
▁encouraged	-9.84625
▁belong	-9.84639
▁mess	-9.84722
▁poet	-9.84761
▁independence	-9.85037
e	-9.85206
▁battle	-9.85722
▁cover	-9.8577
▁leaned	-9.85814
▁glimmered	-9.85851
▁petals	-9.85942
▁losing	-9.86002
▁message	-9.86155
▁worn	-9.86211
▁wood	-9.86227
▁ears	-9.86313
just	-9.86394
▁entrance	-9.86405
▁fort	-9.86476
▁test	-9.86547
▁gems	-9.86655
▁chasing	-9.86698
▁anymore	-9.8698
▁pocket	-9.87207
▁steps	-9.87214
▁clean	-9.87274
▁smelled	-9.87501
▁bush	-9.87678
▁roar	-9.87888
▁lands	-9.88051
▁project	-9.88128
▁swimming	-9.88247
▁twinkling	-9.88247
▁lingered	-9.88334
▁seeking	-9.88579
▁middle	-9.88674
▁coral	-9.887
▁tomorrow	-9.89034
▁smart	-9.89164
▁horizon	-9.89246
▁swirl	-9.89394
▁taste	-9.89404
▁perhaps	-9.89464
▁notes	-9.89841
▁given	-9.89849
▁marked	-9.89861
▁facing	-9.89965
▁pushing	-9.90071
▁revealed	-9.90096
▁wolf	-9.90254
▁belonging	-9.90261
▁picnic	-9.90506
▁chocolate	-9.90544
▁wizard	-9.90579
▁dig	-9.90689
▁living	-9.90762
▁support	-9.90957
▁trap	-9.91149
▁widened	-9.91283
▁hungry	-9.9186
▁rode	-9.91933
▁reading	-9.92
▁failed	-9.92137
▁echoes	-9.92156
▁send	-9.92221
▁weak	-9.92423
these	-9.92432
▁goal	-9.92458
▁feared	-9.92611
▁questions	-9.92774
▁bread	-9.9282
▁fountain	-9.92969
▁nice	-9.93023
▁riches	-9.93166
▁fallen	-9.93346
▁surprises	-9.93764
did	-9.93768
▁stage	-9.93865
▁soul	-9.94153
▁answered	-9.94171
▁warning	-9.94174
▁celebrating	-9.94316
▁dad	-9.94622
p	-9.94715
▁crab	-9.94903
▁ventured	-9.94998
▁virtual	-9.95073
▁cheers	-9.95145
▁knows	-9.95212
▁jokes	-9.95275
▁sorry	-9.95531
▁dim	-9.9559
remember	-9.95887
▁easy	-9.95912
▁climbing	-9.96003
▁zoomed	-9.96083
▁guided	-9.96099
▁uncover	-9.96133
▁pass	-9.96207
▁neighbor	-9.96284
▁prize	-9.96285
▁bubbling	-9.96296
▁forgetting	-9.96299
▁stretched	-9.96312
▁means	-9.96432
▁cheerful	-9.96666
▁shot	-9.96671
▁comet	-9.96687
▁replaced	-9.9684
▁train	-9.96906
▁keeper	-9.9695
▁tonight	-9.97072
▁cafe	-9.97223
▁planning	-9.97224
▁awaited	-9.97458
▁riddles	-9.97864
▁player	-9.98219
▁lett	-9.9853
▁knights	-9.98665
▁swing	-9.98802
▁lines	-9.99018
▁depths	-9.99048
▁victory	-9.9942
▁apple	-9.99423
▁hurried	-9.99499
▁clue	-9.99902
▁history	-9.99977
▁dolphin	-9.99982
▁wondering	-10.0005
▁contest	-10.0006
▁delight	-10.0036
▁grown	-10.005
▁form	-10.0062
c	-10.0088
don	-10.0098
▁balloons	-10.0108
▁necklace	-10.011
▁flickering	-10.0115
▁jumping	-10.0123
▁caring	-10.0132
▁mattered	-10.0168
▁crystals	-10.0171
▁cream	-10.0175
▁cared	-10.0194
▁passing	-10.0222
▁darkest	-10.0223
▁cheering	-10.0224
▁treats	-10.0232
▁explorers	-10.0234
of	-10.0248
▁scent	-10.025
▁erupted	-10.0257
▁object	-10.0316
▁slow	-10.0335
▁recalled	-10.0343
▁unicorn	-10.0363
▁holiday	-10.0374
▁fate	-10.0379
▁flashlight	-10.0391
▁thunder	-10.0405
▁spine	-10.0408
▁buzzed	-10.0415
▁orb	-10.0426
▁thrived	-10.0455
▁mermaid	-10.0458
▁ring	-10.0479
▁buildings	-10.0486
▁connect	-10.0492
▁soaring	-10.051
▁stranger	-10.0519
▁flooded	-10.0524
▁rest	-10.0535
▁giggling	-10.0539
▁discovery	-10.054
▁relief	-10.0555
▁sparked	-10.0556
▁homes	-10.058
▁community	-10.0581
▁becoming	-10.059
o	-10.06
▁order	-10.0607
▁bell	-10.0613
sometimes	-10.0621
▁half	-10.0623
▁threw	-10.0632
▁locket	-10.0649
▁giggle	-10.065
▁dashed	-10.0692
▁comfort	-10.0693
▁bravely	-10.0737
▁parrot	-10.0743
▁tossed	-10.0744
▁steal	-10.0754
▁creeping	-10.0758
▁gripp	-10.0758
▁rich	-10.0762
▁soar	-10.0834
▁unity	-10.0864
▁stepp	-10.0871
▁job	-10.0873
hey	-10.0873
▁wand	-10.088
▁alley	-10.0886
▁stick	-10.0897
▁float	-10.0906
▁steep	-10.0925
▁hot	-10.0925
▁deer	-10.0942
▁sticks	-10.0946
▁takes	-10.0953
▁unlock	-10.0959
▁mistakes	-10.0961
▁shifted	-10.0967
▁tension	-10.0969
▁enter	-10.098
▁growth	-10.0987
▁odd	-10.1002
te	-10.1003
▁knocked	-10.1044
▁notebook	-10.1093
▁setting	-10.1096
st	-10.1145
▁torn	-10.1155
▁flow	-10.1159
▁deeply	-10.1189
▁regret	-10.1198
▁pondered	-10.1201
▁townsfolk	-10.1209
▁trip	-10.1216
▁watered	-10.1219
▁raised	-10.1229
▁cherish	-10.1239
▁shaped	-10.1267
l	-10.1281
▁flashed	-10.1289
▁myself	-10.129
▁base	-10.1299
▁autumn	-10.1299
▁trusted	-10.1301
▁villain	-10.1307
▁tunnel	-10.1307
▁anywhere	-10.1314
▁soil	-10.1319
▁endless	-10.1354
▁less	-10.1364
away	-10.137
▁shooting	-10.1375
▁square	-10.1382
▁fit	-10.1382
▁mistake	-10.1389
▁apples	-10.139
▁urged	-10.1392
▁feathers	-10.1395
▁practice	-10.1417
▁unique	-10.1418
▁tough	-10.1425
▁students	-10.1427
▁proudly	-10.1429
▁keeping	-10.1432
▁steady	-10.1437
uch	-10.1447
▁metal	-10.1458
okay	-10.1471
▁splashing	-10.1476
▁disappeared	-10.1478
▁surge	-10.1481
▁mural	-10.1482
▁blooming	-10.1494
▁writing	-10.1501
▁sees	-10.1519
▁porch	-10.1529
▁getting	-10.153
▁needs	-10.1541
▁landing	-10.1546
▁snowflakes	-10.1559
▁wearing	-10.1567
▁leap	-10.159
▁images	-10.1596
▁safety	-10.1604
▁mine	-10.1606
▁players	-10.1626
there	-10.1662
▁wooden	-10.1689
▁rising	-10.1698
▁smoke	-10.1717
▁cost	-10.1736
▁bite	-10.1737
▁irony	-10.1774
▁invite	-10.1801
▁minutes	-10.1831
▁leaped	-10.1832
▁tied	-10.186
▁second	-10.1861
▁scales	-10.1866
▁shelf	-10.187
▁waving	-10.187
▁ticked	-10.1884
▁miss	-10.1886
▁smooth	-10.1887
▁familiar	-10.1908
▁shocked	-10.1915
▁hall	-10.1931
▁despair	-10.1937
▁hug	-10.1938
▁thinks	-10.194
▁siblings	-10.1943
▁leads	-10.1973
▁promising	-10.1976
▁portal	-10.1976
▁trembled	-10.2006
▁sailor	-10.2027
▁friendships	-10.203
▁families	-10.2044
▁glanc	-10.2084
urging	-10.2084
he	-10.2087
▁machines	-10.2092
▁souls	-10.2096
▁doors	-10.2148
▁peer	-10.2184
▁block	-10.2185
est	-10.2188
▁mixing	-10.2189
▁emptiness	-10.2192
▁desk	-10.2195
▁pie	-10.2198
follow	-10.22
▁ghosts	-10.2202
▁already	-10.2212
▁swept	-10.2222
▁dipped	-10.2222
▁puzzle	-10.2223
▁creation	-10.2225
in	-10.223
▁clutch	-10.2232
▁purple	-10.2242
▁lock	-10.2246
▁yellow	-10.2252
▁united	-10.2252
▁cliff	-10.2275
▁hats	-10.2283
▁traditions	-10.2312
▁circles	-10.2334
▁road	-10.2335
▁jungle	-10.2342
▁skills	-10.2345
▁betrayed	-10.2366
▁crying	-10.2366
▁wisely	-10.2381
▁beamed	-10.2386
▁maps	-10.2388
midst	-10.2388
▁seasons	-10.2391
▁basket	-10.2417
▁nest	-10.2419
▁shelter	-10.2423
▁screen	-10.2437
▁spinning	-10.2444
▁planting	-10.2449
▁shoes	-10.2466
▁scare	-10.2473
▁rhythm	-10.2474
▁parents	-10.2476
▁underground	-10.2485
every	-10.2494
▁loneliness	-10.2495
▁joke	-10.2497
▁ant	-10.2498
▁childhood	-10.2505
▁studied	-10.2505
▁neighbors	-10.2507
▁sigh	-10.2518
▁mud	-10.2526
▁doubts	-10.2552
▁locked	-10.2566
es	-10.2598
▁written	-10.2608
▁struggled	-10.263
▁civilization	-10.2654
▁bake	-10.2658
▁dove	-10.2667
ng	-10.2686
▁finds	-10.2699
▁whale	-10.2702
▁present	-10.2713
▁guard	-10.2714
▁embraced	-10.2715
▁cry	-10.2719
▁received	-10.2723
▁chair	-10.2728
▁puzzled	-10.2735
▁seem	-10.2737
▁trunk	-10.2754
▁wants	-10.276
▁picking	-10.2789
▁renewed	-10.2817
▁opening	-10.2834
▁attention	-10.2839
f	-10.2851
▁ache	-10.2859
▁dangerous	-10.2882
▁joyfully	-10.2899
▁expected	-10.2899
could	-10.29
▁club	-10.2902
▁lady	-10.2913
▁curiously	-10.2927
▁pretty	-10.2935
▁underwater	-10.2946
▁coat	-10.2962
▁check	-10.2964
▁echo	-10.2996
g	-10.3
▁discovering	-10.3018
▁question	-10.3029
then	-10.3031
▁older	-10.3041
▁valuable	-10.3042
▁ached	-10.3052
▁weeds	-10.3076
▁grandfather	-10.3086
▁success	-10.3101
▁pick	-10.3112
▁uncovered	-10.3121
▁melody	-10.3173
▁bubbles	-10.3174
▁desire	-10.3179
▁guarded	-10.3183
▁breaking	-10.3211
▁reality	-10.3218
▁playground	-10.3228
▁flapped	-10.325
▁spreading	-10.3253
▁happier	-10.3261
▁round	-10.3261
▁paintings	-10.3266
▁money	-10.3272
▁exchanged	-10.3284
▁instant	-10.3292
▁granted	-10.3295
▁shines	-10.3298
▁beating	-10.3321
please	-10.3325
▁statue	-10.3336
▁pot	-10.3359
▁wandering	-10.3364
▁troll	-10.3369
▁exciting	-10.3394
▁balance	-10.3415
▁vowed	-10.3419
▁ate	-10.3426
▁inspire	-10.3434
▁reflecting	-10.3442
▁shined	-10.3447
or	-10.345
▁device	-10.3462
▁dropped	-10.3462
▁nose	-10.3472
▁lifting	-10.348
▁darker	-10.3527
▁raged	-10.353
▁signs	-10.3533
▁boxes	-10.3534
▁tune	-10.3539
▁returning	-10.3543
▁struggle	-10.3561
▁bubble	-10.3561
▁birthday	-10.3564
▁shift	-10.3575
▁sneak	-10.3617
▁sparkle	-10.3618
▁parts	-10.3664
▁soccer	-10.3678
▁dull	-10.369
al	-10.3701
▁roamed	-10.3703
▁rules	-10.3713
▁accepted	-10.3731
▁serious	-10.3735
▁unlike	-10.3748
▁flick	-10.3757
▁glimmer	-10.3758
▁possible	-10.3783
▁sailing	-10.3784
▁rivalry	-10.3794
▁wrapp	-10.3795
▁audience	-10.3806
▁legs	-10.3807
▁trail	-10.3817
▁hum	-10.3829
▁weaving	-10.3841
▁passion	-10.3841
▁notice	-10.3851
▁teaching	-10.3857
▁reveal	-10.3864
▁logic	-10.3869
stay	-10.3874
▁black	-10.39
▁bold	-10.3921
▁kitten	-10.3947
▁changing	-10.3959
▁fur	-10.397
▁pa	-10.3976
▁lanterns	-10.3988
together	-10.3992
▁moves	-10.3993
▁kites	-10.4002
▁screamed	-10.401
▁minds	-10.4019
▁blossomed	-10.4023
▁overcome	-10.4028
wait	-10.405
▁flight	-10.4054
▁dress	-10.4056
▁froze	-10.4062
▁lined	-10.407
▁wet	-10.4081
▁respect	-10.4093
▁cracked	-10.4111
▁cabin	-10.4138
▁cloak	-10.4142
▁waterfall	-10.4175
▁announced	-10.4175
▁sparkles	-10.4176
▁lunch	-10.4187
▁further	-10.4187
▁charm	-10.4197
ally	-10.4215
▁cookie	-10.4225
▁grows	-10.4228
▁fixed	-10.4229
▁stolen	-10.4239
▁dive	-10.4246
▁member	-10.4249
▁pretending	-10.427
▁gust	-10.4272
▁scattered	-10.4285
▁baked	-10.4298
▁waters	-10.4304
▁confusion	-10.4309
▁slipping	-10.4309
▁bee	-10.4311
▁safely	-10.4333
▁vision	-10.4348
▁cross	-10.4359
▁bustling	-10.437
▁importance	-10.4383
▁brightened	-10.4386
▁collected	-10.4391
▁grinning	-10.4395
▁point	-10.4398
▁aside	-10.4401
▁rocky	-10.4405
▁famous	-10.442
▁cut	-10.4422
▁fail	-10.4433
▁forth	-10.444
▁owner	-10.4448
▁flowing	-10.4465
▁body	-10.447
▁popped	-10.4482
b	-10.4493
▁stomach	-10.4507
▁season	-10.451
▁e	-10.4519
▁rustling	-10.452
▁shoulders	-10.4528
▁struggling	-10.4545
▁drink	-10.4546
▁confident	-10.4556
see	-10.4569
▁roof	-10.457
▁figures	-10.4578
▁bonds	-10.4588
▁keys	-10.4593
▁lion	-10.4598
▁talent	-10.4602
▁dressed	-10.4618
▁lying	-10.4646
▁dragons	-10.4652
▁sadly	-10.4667
▁kicked	-10.4676
▁tasted	-10.4687
▁delicious	-10.4697
▁pet	-10.4706
▁thrilled	-10.4718
▁younger	-10.4734
▁glade	-10.4749
▁visions	-10.4759
▁price	-10.4761
▁rushing	-10.4769
▁bark	-10.4776
only	-10.4785
▁shock	-10.479
▁giants	-10.4813
▁patience	-10.4826
▁scene	-10.4856
▁short	-10.4864
▁rough	-10.4864
▁forms	-10.4877
▁tells	-10.4891
▁telescope	-10.4903
▁wear	-10.4908
▁sleep	-10.4914
▁bags	-10.492
▁sudden	-10.4928
▁early	-10.493
▁string	-10.4936
▁frozen	-10.4947
▁pencil	-10.5
▁brushed	-10.5017
▁shows	-10.5017
▁towers	-10.5022
▁silently	-10.5039
ve	-10.504
▁meaning	-10.5079
▁forming	-10.5085
▁bottom	-10.5087
▁taller	-10.5087
▁trusting	-10.5091
▁firm	-10.5099
▁ironic	-10.5101
▁greeted	-10.5103
▁crack	-10.511
▁tripped	-10.5114
▁mask	-10.5124
▁impress	-10.5131
one	-10.5143
next	-10.5151
▁backpack	-10.516
▁urge	-10.5166
▁scarf	-10.5167
▁eagle	-10.5187
▁raccoon	-10.5214
▁scratched	-10.5222
▁stormy	-10.5223
▁tricky	-10.5224
▁effort	-10.5241
▁winding	-10.5242
▁sunshine	-10.5261
▁cheese	-10.5261
▁mouth	-10.5268
▁speed	-10.5274
▁rabbits	-10.5281
▁powers	-10.5285
▁pulsed	-10.5289
▁frogs	-10.5291
▁caves	-10.5301
▁gazing	-10.5302
▁baker	-10.5315
▁swung	-10.5316
▁shimmer	-10.5319
▁admitted	-10.5329
▁lie	-10.5335
▁crawled	-10.5357
▁halls	-10.5368
▁shrugged	-10.5384
▁ruled	-10.5384
▁tear	-10.5385
▁glimmering	-10.5387
▁resilience	-10.5397
▁desert	-10.5401
▁laughs	-10.542
▁expect	-10.5429
▁uneasy	-10.5466
▁walks	-10.5477
▁snail	-10.548
▁cleared	-10.5507
x	-10.5531
▁luck	-10.5534
ers	-10.5543
▁problems	-10.5551
▁gardens	-10.5593
▁men	-10.5593
▁harmony	-10.5605
▁struggles	-10.5607
▁blink	-10.5609
▁tallest	-10.5641
▁hour	-10.567
▁cast	-10.5689
▁pizza	-10.5689
u	-10.5707
▁task	-10.5727
▁frustrated	-10.5731
trust	-10.5743
▁chosen	-10.5744
▁jar	-10.5755
▁blooms	-10.576
▁wrap	-10.5761
▁inspiration	-10.5774
w	-10.5784
▁earlier	-10.5788
▁narrow	-10.5793
▁curse	-10.5801
▁tuck	-10.5802
▁meal	-10.5809
▁tangled	-10.5817
▁lively	-10.582
▁hollow	-10.5831
▁stirred	-10.5831
▁warmed	-10.5846
▁collect	-10.585
▁warrior	-10.587
▁please	-10.5876
▁match	-10.5878
▁grumpy	-10.5888
▁fluttered	-10.5896
▁fireflies	-10.5903
▁lightning	-10.5903
▁pen	-10.5903
▁flames	-10.5907
▁grab	-10.5913
▁smaller	-10.5929
▁precious	-10.5932
▁gaze	-10.5941
▁dinner	-10.5946
▁ruin	-10.5962
▁resting	-10.5985
▁footsteps	-10.6004
▁swelled	-10.6026
ver	-10.6042
▁unseen	-10.6048
▁decide	-10.6058
▁harvest	-10.6062
▁tortoise	-10.6062
▁joked	-10.6108
▁action	-10.6123
▁rainbows	-10.6125
▁bare	-10.6143
buried	-10.6148
▁generosity	-10.6151
▁dared	-10.6167
▁rolling	-10.6174
rex	-10.6179
▁pure	-10.618
▁drop	-10.6192
▁greater	-10.6192
▁disappointed	-10.6195
join	-10.6207
▁snowball	-10.6207
▁grandma	-10.621
▁buttons	-10.6218
▁squeaked	-10.6226
▁stole	-10.625
▁bubbled	-10.6256
▁egg	-10.6277
▁peaceful	-10.6283
▁blank	-10.6284
▁brightest	-10.6307
▁townspeople	-10.6329
▁sprite	-10.6342
▁lot	-10.6343
▁treehouse	-10.6344
▁gate	-10.6357
▁guilt	-10.6358
▁shout	-10.6364
▁ringing	-10.637
▁dreamer	-10.637
▁rival	-10.6372
▁realm	-10.6373
▁reader	-10.638
▁midnight	-10.639
▁ordinary	-10.639
▁responsible	-10.639
▁seaweed	-10.639
▁hurry	-10.6405
▁buy	-10.6405
▁actions	-10.6408
my	-10.6414
▁carrot	-10.6433
▁ants	-10.6446
▁ancestors	-10.645
▁galaxy	-10.6465
▁shiver	-10.6486
▁twirling	-10.6491
▁throw	-10.6493
▁spilled	-10.6497
▁spin	-10.6509
▁rare	-10.6525
▁lighthouse	-10.6542
▁shield	-10.6542
▁possibilities	-10.6557
▁larger	-10.6559
le	-10.6569
▁reflected	-10.6575
▁berries	-10.6588
▁gratitude	-10.6588
▁force	-10.6601
▁painter	-10.6613
▁stealing	-10.6614
▁spoon	-10.6619
▁pretended	-10.6627
▁houses	-10.6641
▁legends	-10.6645
▁shade	-10.6649
▁startled	-10.6666
▁solved	-10.667
▁giggles	-10.6674
▁enemy	-10.6681
▁monkey	-10.6696
▁tea	-10.6717
▁jewel	-10.6727
▁neighborhood	-10.6728
▁source	-10.6728
▁starry	-10.6729
ness	-10.6732
keep	-10.6741
▁elder	-10.6741
not	-10.6748
▁animal	-10.6775
▁confidence	-10.6775
▁classroom	-10.6775
▁un	-10.6782
▁barked	-10.6802
▁corners	-10.6822
▁royal	-10.6822
be	-10.6825
▁asks	-10.6832
▁months	-10.6905
should	-10.6915
▁guards	-10.6925
▁fireworks	-10.6927
▁supplies	-10.6933
▁value	-10.6948
▁bicycle	-10.6949
▁elephant	-10.6965
▁piano	-10.6981
▁lucky	-10.6982
▁freely	-10.699
▁shadowy	-10.6993
▁cheeks	-10.7
▁fishing	-10.7003
here	-10.701
▁bouncing	-10.7013
▁sink	-10.7015
▁hummed	-10.7045
▁surprising	-10.7076
▁company	-10.7078
▁paddled	-10.7078
▁dry	-10.7094
would	-10.7108
▁slip	-10.711
today	-10.7124
▁perched	-10.7127
▁melted	-10.7131
▁castles	-10.7151
▁fence	-10.7159
▁size	-10.7161
▁shouting	-10.7175
▁glasses	-10.7176
▁accept	-10.7184
hold	-10.7189
▁rustled	-10.7193
▁freed	-10.7198
▁classmates	-10.72
▁tricked	-10.7216
▁stands	-10.7228
▁cleaned	-10.7231
▁continue	-10.7242
▁flourished	-10.7245
▁wildly	-10.725
▁peak	-10.726
an	-10.7269
proving	-10.7302
▁puzzles	-10.7303
▁whistle	-10.7322
▁cleaning	-10.7341
▁knock	-10.7347
▁beings	-10.7349
▁unexpectedly	-10.7361
▁despi	-10.7407
▁darkened	-10.7408
▁wealth	-10.7423
▁saving	-10.7424
▁unaware	-10.7424
▁sandcastle	-10.7427
▁cars	-10.7447
▁score	-10.7456
▁sly	-10.7463
▁riverbank	-10.7474
▁tag	-10.75
▁shattered	-10.7544
▁advice	-10.7559
▁guess	-10.7566
▁confront	-10.7583
because	-10.759
▁argued	-10.7611
▁imagine	-10.7613
when	-10.7625
▁embracing	-10.7627
▁misty	-10.763
▁thanks	-10.7635
▁breathe	-10.7638
▁harm	-10.7644
▁single	-10.7646
▁claimed	-10.7653
▁mark	-10.7659
▁carved	-10.7679
▁astronaut	-10.7683
term	-10.7696
▁puddles	-10.7705
▁lush	-10.7713
▁void	-10.7713
▁candle	-10.7717
▁soup	-10.7718
▁incredible	-10.773
▁chilly	-10.7736
▁healing	-10.7739
▁foolish	-10.7747
▁buzzing	-10.7753
▁battles	-10.7762
time	-10.777
▁acorn	-10.777
▁nowhere	-10.7776
▁reply	-10.7782
▁streams	-10.7817
▁timidly	-10.7818
▁pool	-10.7822
k	-10.7832
▁rustle	-10.7833
▁opens	-10.7839
▁begin	-10.784
▁oneself	-10.7852
▁joining	-10.7886
▁swell	-10.7916
▁promises	-10.7917
▁fragile	-10.7922
▁shades	-10.7923
▁dangers	-10.7943
▁kid	-10.7946
▁doll	-10.7971
▁belief	-10.7975
▁recall	-10.7983
▁sugar	-10.7993
▁members	-10.8009
really	-10.801
▁seems	-10.802
▁goes	-10.8021
▁mighty	-10.8055
▁faint	-10.8063
▁flutter	-10.8076
▁eventually	-10.8082
▁glory	-10.8082
▁calmly	-10.8091
▁catching	-10.8102
once	-10.8114
ble	-10.8119
▁dimmed	-10.8136
▁none	-10.8136
▁calmed	-10.8137
▁lamp	-10.8142
▁eating	-10.8161
▁waking	-10.8172
▁collecting	-10.819
▁nod	-10.8192
▁sensed	-10.8195
▁pebble	-10.8197
▁smallest	-10.8201
▁swings	-10.8208
▁heartbeat	-10.8208
▁pretend	-10.8221
▁forests	-10.8222
▁invisibility	-10.8263
▁somewhere	-10.8264
▁snowballs	-10.8266
hi	-10.8279
▁baking	-10.8281
▁relieved	-10.8281
▁cook	-10.8293
▁guitar	-10.8299
▁shaky	-10.8299
▁sibling	-10.8307
▁ghostly	-10.8311
▁wheels	-10.8313
special	-10.8333
▁counted	-10.8343
▁horse	-10.8344
▁admire	-10.8352
▁add	-10.8357
se	-10.836
▁sens	-10.8362
▁flipped	-10.841
▁bounced	-10.841
▁swiftly	-10.8411
▁pay	-10.8415
▁claim	-10.8419
▁disappear	-10.8431
▁beginnings	-10.8433
▁focus	-10.8442
▁visible	-10.8465
▁heads	-10.8477
▁scents	-10.848
▁dolphins	-10.8483
▁settled	-10.8484
love	-10.8492
▁connecting	-10.8497
▁begun	-10.8503
▁sneaky	-10.8504
▁puddle	-10.8511
▁headed	-10.8529
▁defeated	-10.853
▁matters	-10.8538
▁asleep	-10.854
▁ignor	-10.8548
▁begins	-10.8553
▁herring	-10.8559
▁adding	-10.8573
▁tapestry	-10.8578
▁human	-10.8587
▁cherished	-10.8598
▁troubles	-10.8604
▁pale	-10.8622
▁abruptly	-10.8634
▁cooperation	-10.8634
▁event	-10.8636
▁track	-10.8644
▁starts	-10.8649
▁gracefully	-10.8654
▁glittering	-10.8662
▁strongest	-10.8663
off	-10.8673
▁scored	-10.8693
▁warmly	-10.8716
▁perfectly	-10.8719
▁station	-10.8729
▁flute	-10.8729
▁pair	-10.8729
▁ear	-10.8733
▁markings	-10.8745
▁phone	-10.8758
▁board	-10.8778
▁click	-10.8796
▁chicken	-10.8797
▁aboard	-10.8797
▁wagged	-10.8806
▁teased	-10.8806
▁burden	-10.8807
▁messy	-10.8808
▁guardians	-10.8811
▁slide	-10.8811
▁palace	-10.8825
▁shoulder	-10.8844
▁split	-10.8845
▁trash	-10.8864
▁swooped	-10.8865
▁brothers	-10.887
▁potion	-10.8875
▁sled	-10.8875
▁creep	-10.8887
▁evil	-10.8903
hero	-10.8909
▁sick	-10.8941
▁risk	-10.8952
▁grip	-10.8966
▁conquer	-10.8971
▁stairs	-10.8981
▁anti	-10.8988
▁candles	-10.8995
▁plotted	-10.9
ra	-10.9009
she	-10.9024
▁amid	-10.9027
▁sandy	-10.9028
▁nervously	-10.9052
▁breathing	-10.9052
▁sway	-10.9055
stop	-10.9057
▁fuel	-10.9059
▁hanging	-10.9066
▁bees	-10.9078
▁court	-10.9079
▁flour	-10.9099
▁crackled	-10.9099
▁cape	-10.9104
▁tasty	-10.9119
▁growled	-10.9129
▁upset	-10.9139
▁damp	-10.9139
▁connections	-10.9148
▁blocked	-10.9178
▁heavier	-10.9179
▁crow	-10.9192
▁moss	-10.9198
▁sits	-10.9209
▁coffee	-10.9219
▁afar	-10.9219
▁crashing	-10.9223
▁umbrella	-10.9231
▁area	-10.9237
▁ticking	-10.9253
me	-10.9256
▁cries	-10.9259
▁shouts	-10.9262
▁pouring	-10.9264
▁swift	-10.9277
while	-10.9297
▁crops	-10.9299
▁encouraging	-10.9299
▁x	-10.9303
▁glided	-10.934
▁items	-10.9341
▁braver	-10.9342
▁decides	-10.9365
ic	-10.9367
▁ships	-10.9377
▁awoke	-10.938
▁flame	-10.9394
▁throne	-10.9401
ting	-10.9411
▁cloaked	-10.9437
find	-10.9439
▁touching	-10.9481
▁applause	-10.9483
▁tool	-10.9492
▁rumble	-10.9502
▁hopping	-10.9504
▁windows	-10.9505
▁drift	-10.9521
▁appear	-10.9536
▁wake	-10.9539
▁keepers	-10.9552
▁tick	-10.9562
▁twinge	-10.9566
▁bitter	-10.9585
▁skill	-10.9592
▁pressing	-10.9592
▁starting	-10.9604
▁rested	-10.961
▁teeth	-10.9628
▁sails	-10.9628
▁photos	-10.9633
▁thread	-10.9643
▁cursed	-10.9651
▁thankful	-10.9656
▁glances	-10.9659
▁photo	-10.9665
▁wip	-10.9667
▁cities	-10.967
▁starfish	-10.9692
▁coach	-10.9712
▁boats	-10.9713
▁boys	-10.9716
▁recipe	-10.9728
▁turtles	-10.9729
▁overhead	-10.9733
▁colder	-10.9744
▁remain	-10.9746
▁abandoned	-10.9755
▁journeys	-10.9782
▁noises	-10.9789
▁socks	-10.9795
▁realize	-10.9797
▁competition	-10.9797
▁terrible	-10.9797
▁hardship	-10.9813
▁shovel	-10.9813
▁chamber	-10.9818
▁conscience	-10.9818
▁genie	-10.9818
▁defeat	-10.983
▁lurking	-10.9839
on	-10.9843
▁tunnels	-10.9844
▁reef	-10.9856
▁crossing	-10.9864
▁bus	-10.9865
▁offering	-10.9869
▁web	-10.9876
▁lab	-10.9885
▁fixing	-10.9896
▁surged	-10.9907
▁ignored	-10.9916
▁shoe	-10.9921
en	-10.9922
▁sounded	-10.9931
▁duck	-10.9933
▁launch	-10.9937
▁decorated	-10.9947
▁frightened	-10.997
▁monsters	-10.9975
▁yours	-10.9985
▁bent	-10.999
▁spells	-11.0015
▁balls	-11.0035
▁stillness	-11.004
▁gained	-11.0041
▁partner	-11.0051
each	-11.0052
▁shelves	-11.0055
▁charming	-11.0059
▁tide	-11.0073
▁checked	-11.0075
▁brightening	-11.0107
▁closing	-11.0121
▁fake	-11.0121
▁spider	-11.0121
▁math	-11.0122
▁cooking	-11.0138
▁paintbrush	-11.0142
▁tilted	-11.0143
▁highest	-11.0151
▁twirl	-11.0163
▁rebuild	-11.0165
▁speaking	-11.0168
▁trained	-11.017
▁characters	-11.017
▁cup	-11.0184
▁skateboard	-11.0187
▁acts	-11.0188
▁hop	-11.0203
▁decision	-11.0206
▁lemonade	-11.0209
▁clarity	-11.0231
▁petal	-11.0251
▁patch	-11.0253
▁gnome	-11.0273
▁rope	-11.0273
▁hooted	-11.0277
▁burned	-11.0279
▁baby	-11.0298
▁riding	-11.0299
▁spots	-11.0299
▁crunched	-11.0304
▁dares	-11.0314
▁experience	-11.0316
▁pressure	-11.032
▁trickster	-11.0321
▁smells	-11.0344
▁illuminat	-11.0356
▁runs	-11.0356
▁prepare	-11.0364
▁acceptance	-11.0367
▁weather	-11.0378
▁backward	-11.0388
▁garage	-11.0388
▁distract	-11.04
▁remembers	-11.0402
▁maze	-11.041
▁vegetables	-11.0413
▁writer	-11.0415
▁bought	-11.0433
▁disappointment	-11.0433
▁vehicle	-11.0433
▁eggs	-11.0443
▁flapping	-11.0456
▁growl	-11.0461
▁treat	-11.0477
▁sights	-11.0479
▁praised	-11.0479
▁dancer	-11.049
▁item	-11.0499
▁thin	-11.0501
▁easily	-11.0501
▁crumbling	-11.0501
▁skipped	-11.0501
▁sorcerer	-11.0524
▁carrots	-11.0527
▁realizes	-11.0533
▁glistening	-11.0547
▁boots	-11.055
▁nuts	-11.0559
▁re	-11.0574
▁hint	-11.0581
▁pulse	-11.0614
▁guilty	-11.0617
▁drove	-11.0639
▁factory	-11.0639
▁bracelet	-11.0661
▁bunny	-11.0662
▁knot	-11.0662
take	-11.0682
▁church	-11.0685
▁journal	-11.0685
▁basketball	-11.0685
▁snack	-11.0708
▁trophy	-11.0708
▁beautifully	-11.0729
▁pumpkin	-11.0731
▁heavily	-11.0732
▁envelop	-11.0737
▁sweets	-11.0745
▁frown	-11.0754
▁preparing	-11.0755
▁helper	-11.0766
▁radiant	-11.0779
▁role	-11.0779
▁sleeping	-11.0781
▁wires	-11.0789
▁welcome	-11.079
▁travelers	-11.0819
▁local	-11.0849
▁mysteries	-11.0849
▁shut	-11.0849
▁driven	-11.0851
▁weave	-11.0894
▁sandwiches	-11.0897
▁haunting	-11.0901
up	-11.0917
ur	-11.0943
▁neck	-11.0944
▁emotions	-11.0962
▁crisp	-11.0968
go	-11.097
▁weighed	-11.097
▁differently	-11.0979
▁dodging	-11.0992
▁eerie	-11.0992
▁rays	-11.1002
▁rule	-11.1015
▁detective	-11.1016
tell	-11.1039
▁thud	-11.104
▁underneath	-11.104
▁arm	-11.1054
▁complete	-11.1061
▁temple	-11.1064
▁store	-11.1064
▁kick	-11.1064
▁changes	-11.1082
▁beeped	-11.1119
▁protected	-11.1126
land	-11.1131
▁fame	-11.1137
▁since	-11.1137
▁mused	-11.1137
▁farmer	-11.114
▁sisters	-11.1152
▁foot	-11.1161
▁juice	-11.1185
▁roll	-11.1187
▁fastest	-11.119
▁marks	-11.1204
▁glimpse	-11.121
▁dread	-11.121
▁outsmart	-11.1225
▁drum	-11.1254
▁happiest	-11.1259
▁flap	-11.1283
▁roses	-11.1301
▁storyteller	-11.1308
▁embarrassed	-11.1308
▁signal	-11.131
▁student	-11.131
▁bar	-11.1317
▁youth	-11.1319
▁cove	-11.1332
▁mushrooms	-11.1334
▁huddled	-11.1358
▁deepened	-11.1359
▁rumbled	-11.1359
▁breathless	-11.1363
▁escaped	-11.1367
▁count	-11.1382
▁normal	-11.1383
▁bound	-11.1383
▁watches	-11.1386
▁drops	-11.1387
▁sock	-11.1387
▁names	-11.1401
▁helps	-11.1405
▁easier	-11.1407
▁peeking	-11.1415
▁visiting	-11.1422
▁causing	-11.1432
▁lurked	-11.1432
▁wing	-11.1439
▁cosmos	-11.1459
▁fool	-11.1476
▁fluttering	-11.1478
▁flies	-11.1483
▁cats	-11.1488
▁humans	-11.1496
ar	-11.1503
ion	-11.1508
▁intelligence	-11.1508
▁twigs	-11.1514
▁parted	-11.1515
▁ingredients	-11.1518
eyed	-11.1522
▁watering	-11.1559
▁herbs	-11.156
▁amazement	-11.1584
▁amulet	-11.1584
▁crafted	-11.1589
am	-11.1599
▁honey	-11.1609
▁rumor	-11.1613
▁rocked	-11.1624
▁teddy	-11.1635
less	-11.1638
▁drifting	-11.1653
▁impressed	-11.1653
▁mad	-11.166
▁fisherman	-11.166
▁mischief	-11.166
▁cautiously	-11.1661
▁tended	-11.1663
▁worm	-11.169
▁war	-11.1705
▁least	-11.1712
▁vastness	-11.1713
▁ropes	-11.1715
▁b	-11.1733
▁achieve	-11.1736
use	-11.1743
▁widely	-11.1752
listen	-11.1761
▁muddy	-11.1763
▁described	-11.1763
▁blow	-11.1775
▁journeyed	-11.1785
▁capture	-11.1788
▁brilliant	-11.1789
▁greedy	-11.1793
▁bones	-11.1807
▁locks	-11.1808
▁snake	-11.1815
▁boomed	-11.1818
▁raindrops	-11.1826
▁gym	-11.1841
▁blossom	-11.1848
▁dances	-11.1852
▁paws	-11.1855
▁counting	-11.1856
▁chef	-11.1867
▁science	-11.1867
▁judges	-11.1889
▁glad	-11.1892
▁pilot	-11.1894
▁begged	-11.1897
▁papers	-11.1901
▁sparkly	-11.1902
▁camera	-11.1903
▁spooky	-11.192
▁solving	-11.192
▁woven	-11.1948
▁ripples	-11.195
▁seashells	-11.1957
▁heat	-11.196
▁confessed	-11.1975
▁anytime	-11.1976
▁bug	-11.1978
▁blending	-11.1986
▁rumors	-11.1995
true	-11.1996
▁sniffed	-11.2
▁clicked	-11.2012
▁sandwich	-11.2025
▁gallery	-11.2025
▁inserted	-11.2025
▁ruler	-11.2026
▁gardener	-11.2026
▁strolled	-11.2026
▁wildflowers	-11.2027
for	-11.205
▁fades	-11.2051
▁wrist	-11.2052
▁gain	-11.2055
▁fiercely	-11.2065
▁neat	-11.2077
▁truths	-11.2078
▁dusk	-11.2079
▁oven	-11.2079
▁bored	-11.2079
▁grace	-11.2105
▁lizard	-11.2105
▁kissed	-11.2112
▁throwing	-11.2131
▁max	-11.2132
▁slightly	-11.2132
▁model	-11.2132
▁sting	-11.2134
▁twisting	-11.2156
▁guidance	-11.2159
▁unusual	-11.2159
▁pies	-11.2207
▁deception	-11.2213
▁wheel	-11.222
▁learns	-11.2236
▁adventurous	-11.224
▁welcoming	-11.224
▁tiptoed	-11.2267
▁dare	-11.2271
▁washing	-11.2279
▁traced	-11.2295
▁brushes	-11.2296
▁couple	-11.2302
▁wink	-11.231
▁swaying	-11.2314
▁duty	-11.2322
▁carvings	-11.2337
▁scoop	-11.2349
▁kindly	-11.2358
▁chains	-11.2372
▁sailors	-11.2372
▁practicing	-11.2377
▁palm	-11.2377
▁squirrels	-11.2401
▁sprout	-11.2403
▁insisted	-11.2404
▁caused	-11.2405
▁unfold	-11.2436
▁barn	-11.2437
▁wicked	-11.2458
▁cotton	-11.246
▁darted	-11.2489
▁parade	-11.2515
▁teams	-11.2516
▁legend	-11.2524
▁blankets	-11.2526
▁brown	-11.2545
▁wider	-11.2558
▁faith	-11.2571
▁sold	-11.2571
▁tender	-11.2571
well	-11.2572
▁cleverness	-11.2574
▁betray	-11.2584
▁vanish	-11.259
▁fabric	-11.2599
▁sleepy	-11.2601
▁lips	-11.2616
▁forgive	-11.2616
▁reclaim	-11.2618
▁encouragement	-11.2628
▁jellyfish	-11.2628
▁cupcakes	-11.2636
▁cakes	-11.2638
▁engine	-11.2654
▁perseverance	-11.2656
▁philosopher	-11.2656
▁swallowed	-11.2662
looking	-11.2672
llowing	-11.2673
▁belongs	-11.2682
▁glee	-11.2684
▁poem	-11.2694
▁crayons	-11.2699
▁teammates	-11.2706
▁slept	-11.2713
▁fleeting	-11.2713
▁murmured	-11.2715
▁sweetly	-11.2724
▁grasp	-11.2731
▁massive	-11.2741
▁seas	-11.2757
▁zipp	-11.2758
▁appreciate	-11.2768
▁crowns	-11.2778
▁beacon	-11.2798
▁snowmen	-11.2798
▁globe	-11.2798
▁gloomy	-11.2799
▁bowl	-11.2799
▁launched	-11.2811
▁daring	-11.2827
▁blend	-11.2832
▁loves	-11.2833
▁blocks	-11.2849
▁ignore	-11.2856
▁performance	-11.2856
▁cocoa	-11.2856
▁unfolded	-11.2866
▁movement	-11.2867
▁bow	-11.2875
▁diary	-11.2885
▁straight	-11.2885
▁clapping	-11.2885
▁surround	-11.289
out	-11.2904
▁drinks	-11.2907
sh	-11.2908
▁flashback	-11.2914
▁anyway	-11.2914
▁bakery	-11.2916
v	-11.2929
▁inspiring	-11.2943
▁instantly	-11.2947
▁training	-11.2968
▁rooftop	-11.2983
▁dino	-11.3001
▁grove	-11.3001
▁wagging	-11.303
▁captured	-11.3032
▁c	-11.3054
have	-11.3058
▁serpent	-11.306
▁richer	-11.3062
▁valleys	-11.307
▁beam	-11.3074
▁sweeter	-11.3076
with	-11.3087
▁tickle	-11.3088
▁thieves	-11.3089
▁unable	-11.3089
▁materials	-11.3095
▁hugs	-11.3116
many	-11.3117
▁jealous	-11.3118
▁frustration	-11.3119
▁tries	-11.3119
▁falls	-11.3119
▁inventor	-11.3119
▁firefly	-11.3119
▁jealousy	-11.312
▁goat	-11.3124
▁masks	-11.3135
lly	-11.3138
▁glitter	-11.3153
▁rowed	-11.3155
▁wilted	-11.3155
▁scooter	-11.3178
▁destination	-11.3178
▁soaked	-11.3184
▁sides	-11.3185
▁tasks	-11.3189
▁suit	-11.3191
▁pearls	-11.3198
▁hearing	-11.32
▁twilight	-11.3208
▁slowed	-11.3213
▁plane	-11.3226
▁squealed	-11.3239
▁spend	-11.324
▁sneered	-11.3241
▁challenged	-11.325
even	-11.3268
▁mend	-11.3272
▁age	-11.3273
▁bat	-11.3282
▁shivering	-11.3297
so	-11.3299
▁sketched	-11.3304
▁landscape	-11.3311
▁dreamers	-11.3313
▁cooked	-11.3314
▁succeed	-11.3319
▁traps	-11.3343
▁bang	-11.3359
▁timid	-11.3388
▁buddy	-11.3389
▁throat	-11.342
▁truck	-11.342
▁supposed	-11.342
▁agreement	-11.342
▁squeezed	-11.3421
▁cart	-11.3428
▁furry	-11.345
▁compassion	-11.3451
▁dough	-11.3451
▁study	-11.3467
▁bells	-11.3469
▁deck	-11.3481
▁artists	-11.3482
▁softened	-11.3484
▁thorns	-11.3499
sure	-11.3509
▁ignite	-11.351
▁cardboard	-11.3512
▁armor	-11.3512
▁served	-11.3513
▁seat	-11.3516
▁exist	-11.3516
▁dreamland	-11.3518
▁girls	-11.3539
▁deadline	-11.3543
▁threatened	-11.3574
▁tingle	-11.3574
▁decorations	-11.3581
▁pillow	-11.3588
▁author	-11.3605
▁pounded	-11.3607
▁desperate	-11.3634
ro	-11.3635
▁tugged	-11.3636
▁gummy	-11.3636
▁paw	-11.3648
▁cloth	-11.3667
▁boring	-11.3667
▁meals	-11.3677
▁generations	-11.3679
ies	-11.368
▁list	-11.3682
▁fascinated	-11.3698
▁charged	-11.3699
▁sketching	-11.3708
▁playfully	-11.3708
▁banana	-11.3714
▁direction	-11.3714
▁directions	-11.3714
▁survive	-11.3728
▁rage	-11.3728
▁hissed	-11.3754
ch	-11.3755
▁blurred	-11.3761
▁cage	-11.3761
▁neared	-11.3762
▁-	-11.3771
▁shivered	-11.3781
▁marbles	-11.3791
▁melt	-11.3801
▁slid	-11.381
▁gap	-11.3825
▁superheroes	-11.3826
▁released	-11.3827
▁scientist	-11.3841
▁masterpiece	-11.3857
▁exploded	-11.3857
▁whirred	-11.3858
▁acted	-11.3858
▁experiences	-11.386
▁winner	-11.3873
▁captivated	-11.3889
▁cottage	-11.3889
▁wobbled	-11.389
▁forces	-11.3891
▁boldly	-11.3893
▁breezes	-11.39
▁christmas	-11.3921
▁gliding	-11.3921
▁intertwined	-11.3921
▁pad	-11.3925
▁arguing	-11.3953
▁knife	-11.3953
▁whiskers	-11.3953
▁wiser	-11.3972
▁wounds	-11.3979
▁grief	-11.3985
▁theater	-11.3985
▁happens	-11.3992
run	-11.3994
▁glance	-11.4002
▁nods	-11.4005
▁elders	-11.4018
▁patterns	-11.4027
▁shifting	-11.4027
▁calls	-11.4029
▁breathed	-11.4034
▁curtain	-11.4035
▁invention	-11.4035
▁raft	-11.405
▁fine	-11.4051
ling	-11.4053
▁brewed	-11.4053
▁camp	-11.4068
▁crumbled	-11.4083
z	-11.4097
▁strings	-11.4103
▁mice	-11.4115
▁forgiveness	-11.4115
▁f	-11.4133
▁culture	-11.4133
▁drank	-11.4148
▁pedaled	-11.4151
um	-11.4151
treasure	-11.4178
▁overheard	-11.4181
▁resolve	-11.4181
▁paints	-11.4182
▁unlocked	-11.4184
▁guarding	-11.4193
▁sell	-11.4195
▁lean	-11.4204
▁deepest	-11.421
▁grabbing	-11.4214
▁islands	-11.4229
▁acting	-11.4233
▁bits	-11.4234
great	-11.4244
▁thrive	-11.4246
▁diving	-11.4247
▁ourselves	-11.4247
▁panicked	-11.4247
▁pedestal	-11.4247
▁dodged	-11.4247
la	-11.4253
▁cheerfully	-11.4254
▁dish	-11.4266
▁flashlights	-11.4304
▁bittersweet	-11.4313
▁icy	-11.4313
▁anew	-11.4347
▁news	-11.4349
▁holes	-11.435
▁scheme	-11.4365
ter	-11.4368
▁capturing	-11.438
▁shrank	-11.438
▁simply	-11.438
▁intently	-11.4381
▁dancers	-11.4383
▁croaked	-11.4384
▁moons	-11.4386
▁clung	-11.4414
▁workshop	-11.4414
▁spoken	-11.443
▁seashell	-11.4434
▁crumpled	-11.4448
▁lazily	-11.4448
▁approaching	-11.446
▁anxious	-11.448
▁rooms	-11.448
▁strategy	-11.4482
▁acorns	-11.4507
always	-11.4513
▁combined	-11.452
▁surrounding	-11.4533
▁diamond	-11.4537
▁digital	-11.455
▁logg	-11.4556
▁unite	-11.4583
hope	-11.4616
▁argue	-11.4617
▁shroud	-11.4619
▁strike	-11.4619
▁glinting	-11.4631
▁races	-11.4633
▁brushing	-11.4635
▁computer	-11.4653
▁lungs	-11.4653
▁worse	-11.4653
▁chimed	-11.4653
▁express	-11.4663
▁shyly	-11.4667
▁finger	-11.4675
▁hunter	-11.4679
▁daisies	-11.4688
▁deal	-11.4688
▁sprinkled	-11.469
▁rockets	-11.4703
▁gear	-11.471
▁overjoyed	-11.4722
▁whoosh	-11.4723
▁numbers	-11.4732
el	-11.4734
▁flavors	-11.4744
good	-11.4755
magic	-11.4755
▁shipwreck	-11.4757
▁master	-11.4758
▁cause	-11.4791
▁noticing	-11.4792
▁restless	-11.4793
▁scratching	-11.4795
▁dogs	-11.4796
▁traveling	-11.4804
▁offer	-11.4817
▁ease	-11.4827
▁barking	-11.4831
▁brewing	-11.4833
▁melodies	-11.4863
▁purred	-11.4864
▁stretching	-11.4874
▁conflict	-11.4898
▁harsh	-11.4898
▁sketchbook	-11.4898
▁gives	-11.4898
▁marched	-11.49
▁ducks	-11.4905
▁mischievous	-11.4933
▁salty	-11.4934
▁swords	-11.4939
▁selling	-11.4949
--	-11.4952
▁beard	-11.4955
▁artifact	-11.4957
▁clap	-11.4969
▁ceiling	-11.4969
▁refused	-11.4972
▁jumps	-11.4991
▁investigate	-11.5005
▁plain	-11.5005
▁transformation	-11.5005
▁interest	-11.5016
▁log	-11.5022
▁crunch	-11.503
▁perform	-11.5033
▁band	-11.5038
▁poor	-11.5041
▁pine	-11.5041
▁mysteriously	-11.5049
▁sunflowers	-11.5051
at	-11.5074
▁fluff	-11.5076
▁hesitation	-11.5076
▁impossible	-11.5076
▁response	-11.5076
▁stunning	-11.5076
▁accidentally	-11.5077
▁collection	-11.5077
shifter	-11.5078
▁hues	-11.5088
▁attack	-11.5089
▁cupcake	-11.5101
nual	-11.5107
▁pleaded	-11.5113
▁technology	-11.5113
▁footprints	-11.5115
▁aimed	-11.5115
▁fateful	-11.5117
▁tossing	-11.5119
▁fights	-11.5127
▁painful	-11.513
▁current	-11.5138
▁sorceress	-11.5149
our	-11.5193
▁warn	-11.5204
▁astronauts	-11.5213
▁breathtaking	-11.5222
▁phoenix	-11.5222
▁panel	-11.5222
nuck	-11.5222
▁sweetest	-11.5233
▁reward	-11.5234
▁costume	-11.5248
mia	-11.5254
▁eyebrow	-11.5258
▁replies	-11.5258
▁teasing	-11.5258
▁descended	-11.526
▁fed	-11.5269
long	-11.5271
shaped	-11.5271
▁winked	-11.5271
▁gets	-11.5321
▁scroll	-11.5321
▁bounce	-11.5331
▁o	-11.5331
id	-11.5333
▁funniest	-11.5369
▁grey	-11.5369
▁lied	-11.5373
▁togetherness	-11.5393
▁igniting	-11.5406
▁z	-11.5422
per	-11.5426
▁kiss	-11.5434
▁chores	-11.5443
▁dizzy	-11.5443
▁lair	-11.5443
▁rippled	-11.5483
▁costumes	-11.5492
▁beep	-11.5498
mom	-11.5516
▁deserve	-11.5517
▁bouquet	-11.5518
▁tumbled	-11.5519
▁folded	-11.5523
▁hallway	-11.5547
▁choosing	-11.5556
▁triceratops	-11.5556
▁sunflower	-11.5585
▁tablet	-11.5586
lost	-11.5593
▁guessed	-11.5616
▁character	-11.5623
▁protector	-11.5626
ville	-11.5632
▁threat	-11.5632
▁dripping	-11.5632
▁spy	-11.5633
▁existed	-11.5644
▁hears	-11.5658
▁salt	-11.5669
▁alarms	-11.567
▁tribe	-11.567
▁pots	-11.5679
▁creak	-11.5684
lapped	-11.5686
as	-11.569
▁ten	-11.5693
▁agent	-11.5699
▁expression	-11.5709
▁perked	-11.571
▁ignited	-11.571
▁trinkets	-11.5714
▁mars	-11.5752
▁transform	-11.5753
▁reason	-11.5777
▁swinging	-11.5779
leave	-11.5783
▁lone	-11.5784
▁pause	-11.5785
▁cycle	-11.5786
▁envy	-11.5786
▁stirring	-11.5786
▁discoveries	-11.5787
▁demanded	-11.5787
▁brighten	-11.5788
▁kings	-11.5799
▁thrilling	-11.5802
▁musician	-11.5816
▁conversation	-11.5824
▁halloween	-11.5824
▁whimsical	-11.5824
▁mr	-11.5825
▁skated	-11.5826
▁scream	-11.5831
▁chirping	-11.5833
▁lower	-11.5835
▁honored	-11.584
▁marshmallows	-11.5847
▁frost	-11.5848
▁enemies	-11.5863
▁uncertainty	-11.5863
uh	-11.5864
▁grumbled	-11.5864
▁homework	-11.5866
▁image	-11.5894
▁snowflake	-11.5894
ah	-11.5894
▁staying	-11.59
life	-11.59
▁born	-11.5902
▁delicate	-11.5902
▁pop	-11.5903
▁pleased	-11.5906
▁ordered	-11.5908
▁steer	-11.5918
▁month	-11.5934
▁failures	-11.5935
▁ink	-11.5937
▁majestic	-11.5942
▁plotting	-11.5942
▁hugging	-11.5942
▁examin	-11.5942
▁cutting	-11.5942
▁firmly	-11.5946
ation	-11.5957
▁lifetime	-11.5958
▁cautious	-11.5979
▁slice	-11.598
▁ladder	-11.5981
▁marveled	-11.5984
▁piled	-11.5991
led	-11.6
▁squawked	-11.6021
▁humming	-11.6021
▁mirrors	-11.6035
▁pro	-11.6036
▁towered	-11.6038
art	-11.6039
▁cheek	-11.6052
was	-11.6058
▁spices	-11.6084
stone	-11.6086
wood	-11.6097
▁nobody	-11.61
▁flat	-11.61
▁alongside	-11.6101
▁teaches	-11.6102
▁faintly	-11.6104
▁explain	-11.6109
▁eve	-11.6136
▁possibility	-11.614
▁organized	-11.6141
▁sets	-11.6161
ad	-11.6164
▁bend	-11.6166
▁bugs	-11.6172
▁stir	-11.618
▁n	-11.6182
▁ending	-11.6196
▁pillows	-11.6201
▁movie	-11.6213
▁asteroid	-11.6213
▁unspoken	-11.6221
▁laid	-11.6221
▁innovation	-11.6221
▁couch	-11.6221
▁beware	-11.6222
▁sports	-11.6243
▁g	-11.6254
▁protecting	-11.6295
▁paid	-11.6302
il	-11.6306
▁transforming	-11.6317
▁agree	-11.632
▁tables	-11.6325
▁edges	-11.634
everyone	-11.6341
▁host	-11.6343
▁warnings	-11.6354
lit	-11.6357
▁glint	-11.6359
▁accepting	-11.6378
open	-11.6381
kindness	-11.6386
▁smarter	-11.6387
▁encountered	-11.6388
▁guests	-11.6399
▁clearly	-11.6404
▁tracks	-11.6404
▁poems	-11.6411
▁triumph	-11.6415
▁galaxies	-11.6425
▁ladybug	-11.6425
▁ribbons	-11.6426
▁sip	-11.645
▁destroy	-11.6456
rubbed	-11.6466
▁failing	-11.6472
▁handle	-11.6482
▁approach	-11.6483
▁swelling	-11.65
▁chip	-11.6502
▁exit	-11.6509
ted	-11.6514
▁differences	-11.6522
▁zoom	-11.6536
▁imaginations	-11.6546
want	-11.6547
▁wobble	-11.6548
▁weekend	-11.6549
▁gates	-11.6555
▁creations	-11.658
▁ripple	-11.6584
▁video	-11.6585
▁flag	-11.6585
▁concert	-11.6591
▁shame	-11.6591
▁farm	-11.66
▁whipp	-11.6606
▁buzz	-11.6608
▁talents	-11.6622
very	-11.6632
▁chatted	-11.6633
▁clam	-11.6633
▁tilting	-11.6635
▁matched	-11.6661
ity	-11.6661
▁crush	-11.6666
▁skate	-11.6668
ma	-11.6674
▁breakfast	-11.6675
▁responded	-11.6682
▁performed	-11.6686
▁bridges	-11.6697
▁bank	-11.6712
▁prison	-11.6714
▁shopkeeper	-11.6718
▁shall	-11.6718
ce	-11.6721
▁starlight	-11.6722
▁wilting	-11.6731
▁travels	-11.6747
acceptance	-11.6758
▁raptor	-11.676
▁kneeling	-11.6763
▁freeing	-11.6773
▁flood	-11.6779
▁bump	-11.6792
▁plac	-11.6792
▁drums	-11.68
▁twists	-11.6822
h	-11.6828
▁controls	-11.6829
▁ruined	-11.6831
▁ends	-11.6835
happiness	-11.6843
▁loyal	-11.6846
▁jelly	-11.6846
▁threatening	-11.6846
▁doorway	-11.6848
▁tides	-11.6853
us	-11.6857
▁rides	-11.6876
▁warming	-11.6887
▁patient	-11.6887
▁gradua	-11.6889
▁rubber	-11.6889
▁tattered	-11.6889
▁whirlwind	-11.6889
▁sparky	-11.6922
▁defend	-11.6932
▁booth	-11.6932
▁sunrise	-11.6932
▁volcano	-11.6932
▁legendary	-11.6932
▁appears	-11.6945
▁linger	-11.6952
watch	-11.6973
▁museum	-11.6976
▁structure	-11.6976
▁heartbroken	-11.6977
▁dreamt	-11.6995
un	-11.6996
▁screens	-11.7004
▁hang	-11.7005
▁overgrown	-11.7019
▁curled	-11.7023
▁bursting	-11.7023
▁drawer	-11.7025
▁cups	-11.7026
▁dimly	-11.7028
▁studying	-11.704
▁cliffs	-11.7051
▁blast	-11.7054
▁chatter	-11.7054
ping	-11.7063
▁airplane	-11.7063
▁arriving	-11.7063
▁ashamed	-11.7063
▁brushstroke	-11.7063
▁slammed	-11.7063
▁beloved	-11.7063
▁grandpa	-11.7063
▁smoothly	-11.707
▁senses	-11.7088
▁witness	-11.7097
▁seekers	-11.7107
▁resist	-11.7107
▁nodding	-11.7109
▁clouded	-11.7124
▁reflections	-11.7127
▁smirk	-11.7142
ipping	-11.7142
▁admir	-11.7143
▁weapon	-11.7148
▁shark	-11.7151
▁clay	-11.7152
▁hurting	-11.7157
▁sneaking	-11.7163
▁cracks	-11.7176
▁waste	-11.7185
like	-11.7188
▁mood	-11.7196
▁spilling	-11.7201
▁zooming	-11.7211
▁craft	-11.7213
▁mini	-11.7222
all	-11.7234
believe	-11.7238
▁gloom	-11.724
▁super	-11.724
▁muttered	-11.7241
▁fuzzy	-11.7241
▁scanned	-11.725
▁stretch	-11.7261
ped	-11.7263
▁sinking	-11.728
▁warmer	-11.7282
▁bravest	-11.7283
▁false	-11.7285
▁code	-11.7286
▁dirty	-11.7294
▁remains	-11.7296
▁card	-11.7308
▁confronted	-11.7311
▁leg	-11.7328
▁mushroom	-11.7328
▁stalls	-11.7331
▁cards	-11.7333
▁upside	-11.7338
ie	-11.7339
▁kicking	-11.7357
▁ribbon	-11.7374
▁hike	-11.7374
▁anticipation	-11.7376
▁crazy	-11.7376
▁hilltop	-11.7376
▁sturdy	-11.7376
▁tragic	-11.7376
▁transport	-11.7376
▁allowed	-11.7382
▁pack	-11.7397
▁focusing	-11.7411
▁flourish	-11.7412
▁restore	-11.742
▁completely	-11.7424
▁wander	-11.7438
▁crowded	-11.7441
▁r	-11.7458
▁reefs	-11.7477
▁wilt	-11.7489
▁bikes	-11.7494
▁scann	-11.7503
▁tremble	-11.7511
▁charge	-11.7512
▁sheep	-11.7513
▁frosty	-11.7514
▁munching	-11.7515
▁lowered	-11.7524
▁surfaced	-11.7529
▁gears	-11.7529
▁movements	-11.7542
▁dot	-11.7547
ment	-11.755
▁zippy	-11.756
ha	-11.7564
▁ripe	-11.7605
▁sprang	-11.7605
▁vivid	-11.7605
▁gleaming	-11.7608
▁sands	-11.7615
▁speaks	-11.762
ther	-11.7621
▁distracted	-11.7625
▁adventurers	-11.7638
oops	-11.7645
▁glide	-11.765
▁glue	-11.765
▁version	-11.7652
▁typed	-11.7652
▁beckoned	-11.7653
ir	-11.7655
▁crushed	-11.7662
▁lovers	-11.7664
▁rewards	-11.7665
▁noble	-11.767
de	-11.7678
▁includ	-11.7685
▁swallow	-11.7689
▁gadget	-11.7698
▁backdrop	-11.7698
▁emerging	-11.7698
▁someday	-11.7698
▁counter	-11.7706
▁stacked	-11.7707
▁clearer	-11.7708
▁crabs	-11.7709
▁feed	-11.7731
▁row	-11.7737
▁stall	-11.7745
▁candies	-11.7745
▁foggy	-11.7745
▁mystical	-11.7745
▁underfoot	-11.7745
▁bully	-11.7745
▁pixie	-11.7745
▁blind	-11.7768
▁hardest	-11.7774
▁decorate	-11.7791
▁altar	-11.7792
▁staircase	-11.7792
▁loving	-11.7792
▁title	-11.7792
▁baseball	-11.7793
▁whoever	-11.7801
▁risks	-11.7812
▁ages	-11.7821
▁knees	-11.7825
▁messages	-11.7831
ily	-11.7835
▁horn	-11.784
▁magician	-11.784
▁alarm	-11.784
▁lots	-11.7847
▁flashing	-11.7852
▁sour	-11.7855
▁heights	-11.7857
▁melting	-11.7861
ful	-11.7873
▁invent	-11.7887
▁motion	-11.7887
▁medal	-11.7889
▁warriors	-11.7902
▁tested	-11.7905
▁blowing	-11.7914
▁healed	-11.7919
▁crumbs	-11.7921
▁rescue	-11.7934
▁runner	-11.7936
▁stopping	-11.7936
▁lap	-11.7964
▁fortune	-11.7983
▁stuff	-11.7983
▁claws	-11.8001
▁goals	-11.8002
▁sketch	-11.8007
▁biting	-11.8009
ken	-11.8025
▁fully	-11.8031
▁arrive	-11.8031
▁gizmo	-11.8032
▁untouched	-11.8032
▁snapped	-11.8032
get	-11.8049
▁fins	-11.8059
▁strangers	-11.8063
▁points	-11.8071
▁dishes	-11.8081
▁five	-11.8081
▁clown	-11.8081
▁puppet	-11.8081
▁tense	-11.8092
▁stack	-11.8105
▁concern	-11.8119
perhaps	-11.8126
surprise	-11.8126
bot	-11.8127
▁serve	-11.8128
▁clumsy	-11.8129
▁rather	-11.8129
▁hitting	-11.8131
▁rusted	-11.8133
▁sticky	-11.8134
▁fled	-11.8135
▁sped	-11.8136
▁comets	-11.8138
▁co	-11.8154
▁objects	-11.8165
▁trade	-11.8176
▁tasting	-11.8178
▁skip	-11.8178
▁patiently	-11.818
▁weary	-11.8185
▁included	-11.8196
▁chairs	-11.8203
▁helpless	-11.8206
▁sweat	-11.8226
▁saturday	-11.8227
▁loyalty	-11.8227
dad	-11.8227
▁tomatoes	-11.8227
▁bears	-11.8237
▁cloudy	-11.8252
▁hides	-11.826
share	-11.8275
▁creative	-11.8277
▁ticket	-11.8277
ive	-11.8286
▁sweetness	-11.8287
ned	-11.829
▁sealed	-11.8291
▁carefree	-11.8327
▁foe	-11.8329
▁marble	-11.8329
▁wonderland	-11.8332
vale	-11.8359
▁scenes	-11.8359
▁sprinkle	-11.8378
▁prank	-11.8379
▁flashes	-11.8381
▁fearless	-11.8389
▁display	-11.8417
make	-11.8424
▁macguffin	-11.8427
▁magnificent	-11.8427
▁rebuilt	-11.8427
▁minute	-11.843
▁understands	-11.843
▁clashed	-11.8431
mer	-11.8454
▁carries	-11.8477
▁legacy	-11.8477
▁stardust	-11.8477
▁mansion	-11.8477
▁aching	-11.8478
▁queens	-11.8481
▁smirked	-11.8488
▁steered	-11.849
▁desires	-11.8493
▁shower	-11.8498
▁efforts	-11.8503
▁peek	-11.8504
▁disappearing	-11.8517
▁graceful	-11.8527
▁sprinted	-11.853
▁adults	-11.8537
▁midst	-11.8541
▁connects	-11.8561
▁nestl	-11.857
▁questioned	-11.8573
▁disaster	-11.8579
▁innocent	-11.8579
▁drone	-11.8579
▁detail	-11.8583
▁threads	-11.8593
▁picks	-11.8596
▁deceit	-11.863
▁disbelief	-11.863
▁fancy	-11.863
▁merchant	-11.863
▁pact	-11.863
▁gasping	-11.8642
▁press	-11.8658
qu	-11.8681
▁blur	-11.8682
▁hut	-11.8682
▁lunged	-11.8682
try	-11.8685
▁instincts	-11.869
▁meets	-11.8694
▁cap	-11.8701
honesty	-11.8731
▁attempt	-11.8734
▁information	-11.8734
▁streak	-11.8734
▁awakened	-11.8741
▁seal	-11.875
▁sparks	-11.8757
▁angels	-11.8768
▁mermaids	-11.8768
▁undercover	-11.8786
▁sketches	-11.8786
▁flitted	-11.8789
▁ashes	-11.8791
▁ducked	-11.8809
▁beams	-11.8818
ent	-11.8823
▁proven	-11.8825
▁sandcastles	-11.8829
racing	-11.8836
▁studio	-11.8838
▁campfire	-11.8838
▁resourcefulness	-11.8838
▁arranged	-11.8838
▁succeeded	-11.8855
▁hunters	-11.886
▁outsider	-11.8871
▁roads	-11.8875
▁envelope	-11.888
▁bolt	-11.8891
▁mailbox	-11.8891
▁slippery	-11.8891
▁rows	-11.8891
▁putting	-11.8894
▁spaces	-11.8913
▁thinker	-11.8923
▁soak	-11.8935
▁selfish	-11.8943
▁lick	-11.8944
▁pterodactyl	-11.8944
▁sipped	-11.8944
▁sam	-11.8945
▁case	-11.8997
▁gang	-11.8997
▁routine	-11.8997
▁tidy	-11.8997
▁gadgets	-11.8997
▁whisked	-11.8999
▁pictur	-11.9008
▁inventions	-11.9021
light	-11.9023
▁p	-11.9026
▁gasps	-11.9038
▁design	-11.9047
▁generous	-11.905
▁managed	-11.905
▁situation	-11.905
▁stomped	-11.9052
▁soda	-11.9055
▁surprisingly	-11.9056
▁thicker	-11.9069
▁sliding	-11.9075
▁deeds	-11.9083
▁schools	-11.9098
power	-11.9101
▁accident	-11.9104
▁bundl	-11.9104
▁common	-11.9104
▁heaviness	-11.9104
▁unison	-11.9104
leo	-11.9105
▁freeze	-11.9106
▁anxiously	-11.9107
▁overcoming	-11.9107
▁tie	-11.911
▁darkening	-11.911
▁presented	-11.9154
▁pumpkins	-11.916
▁softening	-11.9165
▁becomes	-11.9171
▁flooding	-11.9176
▁celebrations	-11.9207
▁balcony	-11.9212
▁thousand	-11.9212
▁four	-11.9213
▁talks	-11.9213
▁crafting	-11.923
▁seeker	-11.9235
▁breaks	-11.9241
▁cute	-11.9259
▁shoot	-11.926
being	-11.926
courage	-11.9265
▁ability	-11.9267
▁vase	-11.9267
▁chatting	-11.9267
▁seagull	-11.9274
▁burning	-11.9279
ous	-11.9312
▁moral	-11.9322
▁caterpillar	-11.9322
▁cobwebs	-11.9322
▁essence	-11.9322
▁filter	-11.9322
▁tongue	-11.9322
▁wondrous	-11.9322
▁groaned	-11.9324
▁fulfilled	-11.9325
▁darting	-11.9326
▁awake	-11.933
▁reache	-11.9351
▁bottles	-11.9359
thanks	-11.9376
▁blared	-11.9377
▁fishermen	-11.9377
▁wiggled	-11.9378
▁trials	-11.9385
close	-11.943
▁yellowed	-11.9431
▁furious	-11.9431
▁selves	-11.9433
▁sage	-11.9433
show	-11.9443
▁reflect	-11.9473
▁brow	-11.9484
▁extra	-11.9489
▁main	-11.9489
▁zog	-11.9489
▁justice	-11.9489
▁distraction	-11.9489
▁cruelty	-11.9489
▁bucket	-11.9497
▁plate	-11.9504
▁hopeless	-11.9509
▁works	-11.9515
▁corals	-11.9524
dreams	-11.9526
▁sizes	-11.9539
▁uncertain	-11.9545
▁ashore	-11.9545
▁chain	-11.9554
▁judge	-11.9554
▁explaining	-11.9565
▁finishing	-11.957
▁pancakes	-11.9575
▁pendant	-11.9601
▁scurried	-11.9601
▁thickened	-11.9601
▁swimmer	-11.9602
▁squinted	-11.9604
▁worthy	-11.9612
▁recipes	-11.9615
▁artifacts	-11.962
▁contradictions	-11.9648
▁pit	-11.9656
▁cunning	-11.9658
▁hedgehog	-11.9658
▁lid	-11.9658
▁urgency	-11.9658
▁die	-11.9661
▁piles	-11.9672
▁blended	-11.9677
▁thoughtful	-11.9681
▁dock	-11.9712
▁hastily	-11.9715
▁sale	-11.9715
▁root	-11.9716
▁mentioned	-11.9717
▁blushed	-11.9719
▁parties	-11.9722
▁jars	-11.9735
▁oceans	-11.9746
ho	-11.9762
▁vow	-11.9763
▁crumble	-11.9772
oo	-11.9772
▁oasis	-11.9773
▁scoffed	-11.9773
▁panting	-11.9773
▁introduced	-11.9774
▁scaring	-11.9776
▁mayor	-11.9778
▁chips	-11.9781
▁dis	-11.9797
▁potions	-11.9799
▁loose	-11.9799
▁atmosphere	-11.9831
▁hourglass	-11.9831
▁incredibly	-11.9831
▁librarian	-11.9831
▁shaping	-11.9831
▁nap	-11.9831
▁hovered	-11.9832
▁handsome	-11.9835
▁pondering	-11.9836
▁contradiction	-11.9841
▁scrolls	-11.9847
ria	-11.9879
▁flyer	-11.9888
ack	-11.9888
▁borrow	-11.9889
▁exploration	-11.9889
▁pig	-11.9889
▁marking	-11.989
▁wound	-11.989
▁pour	-11.9923
▁v	-11.994
three	-11.9945
by	-11.9946
▁wife	-11.9947
▁willow	-11.9947
▁cousin	-11.9958
▁shovels	-11.9961
▁wronged	-11.9972
▁camping	-11.9973
▁puff	-11.9981
▁respond	-11.9982
ature	-12.0002
tomorrow	-12.0004
▁nurturing	-12.0006
▁orchard	-12.0006
▁violently	-12.0006
▁flee	-12.0006
▁craved	-12.0006
▁basement	-12.0007
▁yummy	-12.0007
▁trails	-12.0009
▁closet	-12.0011
▁seconds	-12.0061
▁glows	-12.0062
▁quite	-12.0065
▁champion	-12.0077
▁troubled	-12.0078
▁tips	-12.0084
▁kinds	-12.0088
▁pebbles	-12.0102
▁dolls	-12.0106
▁frame	-12.0123
▁tragedy	-12.0125
▁tapped	-12.0125
▁roaring	-12.0127
▁elderly	-12.0131
▁constellations	-12.0131
▁blinded	-12.0137
▁hunger	-12.0139
▁al	-12.015
ul	-12.0151
▁beaming	-12.0154
etched	-12.0174
▁office	-12.0184
▁glistened	-12.0185
▁language	-12.0185
▁scholar	-12.0185
▁skating	-12.0185
▁tournament	-12.0185
▁circuits	-12.0188
▁teammate	-12.0197
▁cooler	-12.0202
▁tent	-12.0209
think	-12.0242
▁cosmic	-12.0245
▁glen	-12.0245
▁graveyard	-12.0245
▁jolt	-12.0245
▁paradise	-12.0245
▁solace	-12.0245
▁worst	-12.0245
▁elf	-12.0245
▁battled	-12.0257
▁shares	-12.0275
▁rais	-12.0276
▁leaping	-12.0277
▁br	-12.0281
▁rings	-12.0284
▁engines	-12.0286
▁holidays	-12.0288
▁blossoms	-12.0294
▁carnival	-12.0306
▁independent	-12.0306
▁intentions	-12.0306
▁navigated	-12.0307
▁blinking	-12.0307
▁represented	-12.0313
▁tending	-12.0314
▁bumped	-12.0319
▁circled	-12.0322
▁interesting	-12.033
▁luna	-12.0348
▁drive	-12.0362
▁batter	-12.0366
▁target	-12.0366
▁silk	-12.0366
▁brook	-12.0367
▁strengths	-12.0396
▁oranges	-12.0407
▁decid	-12.0417
▁token	-12.0418
tonight	-12.0426
▁snatch	-12.0428
▁ambition	-12.0428
▁rallied	-12.0428
hearted	-12.0432
▁toes	-12.0434
▁scraps	-12.0446
▁baskets	-12.0469
▁gasp	-12.048
▁layers	-12.0529
▁oh	-12.0537
▁dying	-12.0552
▁potential	-12.0552
▁reunion	-12.0552
▁halfway	-12.0552
▁earn	-12.0556
▁weightless	-12.056
▁advisor	-12.0566
▁emotion	-12.0567
▁regrets	-12.0568
▁hate	-12.0569
▁keeps	-12.0573
▁lighten	-12.0583
▁nurture	-12.0613
▁snap	-12.0614
▁grave	-12.0614
▁nectar	-12.0614
▁warehouse	-12.0614
▁dribbled	-12.0615
▁plot	-12.0616
▁tunes	-12.0625
▁style	-12.0629
▁soldier	-12.063
▁tone	-12.0633
▁chances	-12.0638
▁alleys	-12.0641
▁online	-12.0642
▁creates	-12.0654
▁dazzling	-12.0677
▁giraffe	-12.0677
▁nerves	-12.0677
▁refreshing	-12.0677
▁stegosaurus	-12.0677
▁hoverboard	-12.0677
▁humor	-12.0679
seek	-12.068
▁listens	-12.068
ated	-12.0685
▁colored	-12.0729
▁route	-12.074
▁dripped	-12.074
▁driver	-12.0741
▁spotlight	-12.0742
▁checking	-12.0762
▁sacrifice	-12.0772
▁de	-12.0774
▁sprinkles	-12.0801
▁lightness	-12.0801
▁chat	-12.0804
▁disguise	-12.0804
▁tighter	-12.0815
▁tr	-12.0818
▁needle	-12.0821
▁logs	-12.0825
ance	-12.0833
co	-12.0847
▁greet	-12.0849
▁amazingly	-12.085
▁surf	-12.0854
climb	-12.0866
▁brief	-12.0868
▁daily	-12.0868
▁solitude	-12.0868
▁stung	-12.0868
▁twice	-12.0868
▁wistfully	-12.087
▁thrown	-12.0886
▁frowning	-12.0908
ant	-12.0916
▁carpet	-12.0933
ge	-12.0939
▁myth	-12.0941
▁rivals	-12.0942
▁fists	-12.0954
▁pockets	-12.0981
▁plays	-12.0986
▁softer	-12.0995
▁bookstore	-12.0998
▁lazy	-12.0998
▁recognized	-12.1
▁vine	-12.1016
▁flows	-12.1016
excuse	-12.1063
▁activated	-12.1063
▁schoolyard	-12.1063
▁swan	-12.1063
▁outsmarted	-12.1089
▁overwhelmed	-12.1129
▁tying	-12.1129
▁gun	-12.1129
▁confidently	-12.1137
▁obstacles	-12.1145
whoa	-12.1168
▁hello	-12.1171
without	-12.1193
▁gnaw	-12.1195
▁redemption	-12.1195
▁storytelling	-12.1195
▁nudged	-12.1196
▁shakes	-12.1197
▁coolness	-12.1202
▁supported	-12.1216
▁jellybeans	-12.123
▁swims	-12.1238
▁tech	-12.1261
▁shirt	-12.1262
▁uncle	-12.1262
▁weakness	-12.1264
▁splashes	-12.1265
▁remnants	-12.1266
ber	-12.1271
▁doubted	-12.1272
▁adventurer	-12.1295
man	-12.1295
▁background	-12.1329
▁location	-12.1329
▁victorious	-12.1329
▁budge	-12.1329
th	-12.133
▁risky	-12.1332
▁bot	-12.1335
▁rained	-12.1337
▁nets	-12.134
▁crumb	-12.1348
▁comforting	-12.1375
ready	-12.1394
▁pace	-12.1395
▁attract	-12.1396
▁shrink	-12.1396
▁hardships	-12.1412
▁feeding	-12.1417
▁weathered	-12.1425
▁curtains	-12.1428
▁photographs	-12.144
▁d	-12.1441
▁pets	-12.1445
▁repair	-12.1455
fully	-12.1456
those	-12.1462
▁delightful	-12.1463
▁runners	-12.1464
▁arrival	-12.1464
▁unease	-12.1464
▁handful	-12.1472
▁discussed	-12.1472
▁summoned	-12.1474
ty	-12.1502
▁chirp	-12.1509
▁awaken	-12.1514
stand	-12.153
▁navigate	-12.1531
▁creek	-12.1533
▁eldoria	-12.1533
▁satellite	-12.1533
▁strummed	-12.1533
▁broom	-12.1533
▁boss	-12.1533
▁flipping	-12.1533
▁nurtured	-12.1534
plant	-12.1536
▁chaser	-12.154
▁knee	-12.1541
▁comforted	-12.1541
▁drowning	-12.1543
▁earned	-12.1544
▁partners	-12.1545
▁bone	-12.1555
▁burn	-12.1569
▁workers	-12.1572
▁disturb	-12.1592
▁designs	-12.1594
catch	-12.1599
▁compete	-12.16
▁arrives	-12.16
▁combine	-12.1601
▁brontosaurus	-12.1602
▁driftwood	-12.1602
▁poke	-12.1602
▁bathed	-12.1607
▁ski	-12.1607
▁dreamy	-12.1618
▁greatness	-12.1622
▁lately	-12.1627
give	-12.1628
▁whe	-12.1646
shift	-12.1652
▁pan	-12.166
▁berry	-12.1671
▁dagger	-12.1671
▁daisy	-12.1671
▁fiery	-12.1671
▁proposed	-12.1671
▁third	-12.1671
▁hiking	-12.1671
▁haven	-12.1671
▁proof	-12.1672
▁enchanting	-12.1672
▁speedy	-12.1676
▁sprouted	-12.1696
▁flown	-12.1705
▁h	-12.1719
▁shores	-12.1739
▁roast	-12.1741
▁unbreakable	-12.1741
▁wobbly	-12.1741
▁forged	-12.1741
▁chuckle	-12.1742
ament	-12.1744
▁discussing	-12.1754
▁thoughtfully	-12.1763
▁barrier	-12.1764
▁poster	-12.1765
▁lightly	-12.1774
▁conquered	-12.1776
red	-12.1784
▁sprouts	-12.1792
▁peaks	-12.1803
curiosity	-12.1809
▁data	-12.1812
▁nebula	-12.1812
▁popcorn	-12.1812
▁rumbling	-12.1812
▁velociraptor	-12.1812
▁sidelines	-12.1812
▁skipping	-12.1812
▁singer	-12.1814
▁soothing	-12.1814
▁quacked	-12.1815
▁moonlit	-12.1816
covered	-12.1833
▁north	-12.1869
▁wistful	-12.1881
▁yesterday	-12.1883
▁creaky	-12.1884
▁bet	-12.1894
▁noon	-12.1906
▁angel	-12.1906
▁calming	-12.1926
▁summon	-12.1944
▁furniture	-12.1954
▁tennis	-12.1954
▁sledding	-12.1954
▁advised	-12.1954
▁tickled	-12.1958
▁realization	-12.1958
▁restored	-12.1959
▁beasts	-12.1964
▁stacking	-12.1975
ru	-12.1976
friendship	-12.2023
fine	-12.2025
▁rod	-12.2026
▁electric	-12.2026
▁bullies	-12.2026
▁chapter	-12.2026
▁victories	-12.2026
▁passage	-12.2026
▁closes	-12.2048
happy	-12.2096
▁companion	-12.2098
▁either	-12.2098
▁dried	-12.2098
▁tapping	-12.2098
▁benches	-12.2104
▁believes	-12.2152
▁toast	-12.2166
▁deceive	-12.217
▁organize	-12.217
▁backstage	-12.2171
▁pulsing	-12.2171
▁whirlpool	-12.2171
▁dead	-12.2171
▁flags	-12.2181
some	-12.223
his	-12.2237
▁wove	-12.2241
lily	-12.2243
▁wreck	-12.2245
▁lagoon	-12.2245
▁countdown	-12.2245
▁rejoiced	-12.2246
▁mornings	-12.2246
▁notices	-12.2248
▁timer	-12.2253
▁returns	-12.2256
▁stare	-12.2257
▁waits	-12.2258
▁forts	-12.2264
iest	-12.2267
ck	-12.2272
handed	-12.2285
▁lollipops	-12.2286
▁orders	-12.2288
▁suffer	-12.2295
first	-12.2316
▁symphony	-12.2319
▁leaders	-12.2319
rubbing	-12.2319
▁unleashed	-12.2325
▁pierc	-12.2333
▁fork	-12.2343
▁photograph	-12.2345
▁scale	-12.2346
▁armed	-12.2349
▁details	-12.2388
fear	-12.2391
▁define	-12.2392
▁battling	-12.2394
▁caution	-12.2394
▁chaotic	-12.2394
▁confetti	-12.2394
▁content	-12.2394
▁dew	-12.2394
rita	-12.2395
▁boasted	-12.2398
▁invitation	-12.2421
▁flavor	-12.2421
ke	-12.2447
▁kingdoms	-12.2448
▁dip	-12.2462
▁adrenaline	-12.2469
▁barren	-12.2469
▁depend	-12.2469
▁peculiar	-12.2469
▁completed	-12.2473
▁ours	-12.2474
able	-12.248
▁delighted	-12.2484
▁pixel	-12.2497
da	-12.2506
▁events	-12.2514
▁soldiers	-12.2526
▁sp	-12.2535
▁represent	-12.2535
▁stops	-12.2535
▁plung	-12.2545
▁police	-12.2545
▁titan	-12.2545
▁unforgettable	-12.2545
▁veins	-12.2545
▁unhappy	-12.2545
▁chilling	-12.2548
▁adjusted	-12.2549
▁linked	-12.2552
▁visitor	-12.2581
▁cactus	-12.2621
▁consciousness	-12.2621
▁enormous	-12.2621
▁husband	-12.2621
▁windowsill	-12.2621
▁indeed	-12.2621
▁awaits	-12.263
▁facts	-12.2639
▁deed	-12.2662
ry	-12.2667
▁entering	-12.2669
ara	-12.268
▁spiral	-12.2688
▁artichoke	-12.2698
▁creator	-12.2698
▁juggling	-12.2698
▁zor	-12.2698
▁pod	-12.2699
▁consumed	-12.2699
▁artwork	-12.2699
▁perfection	-12.2701
▁farther	-12.2703
▁anchored	-12.2705
▁tape	-12.2707
shifting	-12.2711
helping	-12.2721
line	-12.2721
king	-12.2734
▁farmers	-12.2772
ba	-12.2772
though	-12.2773
▁erase	-12.2773
thirty	-12.2775
▁goblin	-12.2775
▁ensur	-12.2776
▁keyhole	-12.2776
▁considered	-12.2776
▁endlessly	-12.2789
▁asteroids	-12.2789
▁designed	-12.2789
▁ill	-12.2792
▁banners	-12.2799
▁illusion	-12.2806
▁illuminated	-12.2809
▁wonderfully	-12.2812
quick	-12.2851
▁afterward	-12.2853
▁attached	-12.2853
▁except	-12.2853
▁process	-12.2853
▁waddl	-12.2853
▁twitched	-12.2855
▁monkeys	-12.2857
▁signed	-12.2861
▁willing	-12.2864
▁rex	-12.2868
▁currents	-12.2878
▁packing	-12.2878
▁goods	-12.288
▁spice	-12.2885
▁date	-12.2885
▁firework	-12.2886
people	-12.293
▁juggle	-12.293
▁crime	-12.2932
▁juicy	-12.2932
▁optimism	-12.2932
▁stammered	-12.2932
▁deceived	-12.2934
▁smartest	-12.2936
▁customers	-12.2949
▁weakly	-12.2949
▁limit	-12.2964
▁maker	-12.2971
▁wizards	-12.2973
▁howl	-12.2981
▁avoid	-12.2988
▁secretly	-12.2992
▁buckets	-12.2999
▁receive	-12.301
▁contrast	-12.3012
▁radio	-12.3012
▁sidewalk	-12.3012
▁destiny	-12.3012
▁aback	-12.3014
▁flip	-12.3044
▁guy	-12.3044
▁parked	-12.309
▁hammer	-12.3092
▁salad	-12.3092
▁post	-12.3092
▁hushed	-12.3095
bring	-12.3096
▁touches	-12.3101
▁nails	-12.3119
▁watchers	-12.3123
▁marshmallow	-12.3125
▁skilled	-12.3129
▁healer	-12.314
▁projects	-12.3146
▁tricking	-12.3151
▁encounter	-12.3163
▁sings	-12.3166
▁bunch	-12.3172
▁sacred	-12.3172
▁spray	-12.3172
▁apologized	-12.3173
▁valued	-12.3179
▁thorn	-12.3205
▁windy	-12.3206
▁discuss	-12.3229
▁fold	-12.3244
dance	-12.3253
▁mill	-12.3253
▁level	-12.3253
▁snuggl	-12.3253
▁taunted	-12.3253
▁teapot	-12.3253
▁transcend	-12.3253
▁headset	-12.3253
▁islanders	-12.3273
▁grasped	-12.3281
▁lip	-12.3288
choose	-12.3333
▁due	-12.3335
▁blessing	-12.3335
▁bouncy	-12.3335
▁devis	-12.3335
▁griffin	-12.3335
▁quilt	-12.3335
▁towel	-12.3337
▁crouched	-12.3338
▁tinker	-12.3339
▁meowed	-12.3347
▁gathers	-12.3356
▁gratefully	-12.338
▁lure	-12.338
▁haunt	-12.3394
▁bind	-12.3404
▁emerge	-12.3417
mple	-12.3418
▁approval	-12.3418
▁crooked	-12.3418
▁staff	-12.3418
▁amusing	-12.3418
▁aware	-12.3418
▁pity	-12.342
▁hiked	-12.3421
▁strokes	-12.3421
ten	-12.3429
▁knowingly	-12.3444
▁storybook	-12.3445
▁fin	-12.3452
▁brick	-12.3454
▁roam	-12.3492
bravery	-12.3499
▁trace	-12.35
▁embark	-12.3501
▁escaping	-12.3501
▁sanctuary	-12.3501
▁assist	-12.3501
▁yearning	-12.3502
▁frowns	-12.3504
▁dense	-12.3506
▁hatched	-12.3508
▁looming	-12.3511
▁avoided	-12.3512
bo	-12.3527
▁dearly	-12.353
▁bending	-12.3531
▁sculpture	-12.3538
▁nightmare	-12.3538
▁winners	-12.3542
▁meetings	-12.3556
▁roars	-12.3559
▁cheat	-12.3561
▁mock	-12.3561
▁shatter	-12.3576
more	-12.3581
▁sleek	-12.3585
▁fourth	-12.3586
▁kittens	-12.3586
▁scrambled	-12.3587
▁hovering	-12.3589
▁frightening	-12.3594
▁dots	-12.3596
▁safer	-12.3612
▁openly	-12.3618
▁system	-12.3623
▁bananas	-12.3629
▁seats	-12.3635
▁la	-12.364
eat	-12.3654
▁wins	-12.366
▁collar	-12.367
▁difficult	-12.367
▁heartache	-12.367
▁lever	-12.367
▁seahorse	-12.367
▁unfulfilled	-12.367
▁flock	-12.367
▁bluebird	-12.3672
▁weird	-12.3676
▁murals	-12.368
▁badly	-12.3696
▁schemes	-12.3706
▁lollipop	-12.3708
▁sport	-12.3708
▁deliver	-12.3745
▁meow	-12.3747
▁app	-12.3753
▁resourceful	-12.3755
▁racket	-12.3756
▁ramp	-12.3756
▁regular	-12.3756
▁silliest	-12.3756
▁eel	-12.3756
▁fl	-12.376
▁commanded	-12.3763
▁avoiding	-12.3771
▁toss	-12.3785
▁frosting	-12.3787
▁cone	-12.3795
▁boarded	-12.3799
▁relax	-12.3832
▁bodies	-12.3842
▁neon	-12.3842
▁punch	-12.3842
▁terrified	-12.3842
▁yarn	-12.3842
▁admiration	-12.3842
▁praise	-12.3843
▁thorny	-12.3843
▁writes	-12.3863
▁sheets	-12.387
▁hoop	-12.3881
▁uncovering	-12.3918
boo	-12.3919
▁paddle	-12.3927
▁tempting	-12.3929
▁amused	-12.3929
▁awesome	-12.393
▁rat	-12.3939
her	-12.396
▁tire	-12.3967
▁nut	-12.3969
▁carving	-12.397
▁parks	-12.3987
▁tails	-12.3994
▁clocks	-12.4014
gave	-12.4014
▁beetle	-12.4017
▁doctor	-12.4017
▁pavement	-12.4017
▁dimming	-12.4017
▁joking	-12.4017
▁bitterness	-12.4018
▁traded	-12.4019
▁stickers	-12.4019
▁dived	-12.4027
▁con	-12.4031
▁bowed	-12.4046
▁nightmares	-12.4067
▁horses	-12.4068
▁boom	-12.4081
▁tests	-12.4086
▁counts	-12.4097
▁summit	-12.4105
▁fireplace	-12.4105
▁dragonfly	-12.4107
▁heading	-12.4113
▁spins	-12.4114
▁hunts	-12.412
▁creaking	-12.4138
▁fooled	-12.4139
▁jellybean	-12.4147
▁pancake	-12.4147
▁streetlight	-12.4148
▁mere	-12.4183
▁switch	-12.4185
▁desperation	-12.4194
▁raincoat	-12.4194
▁slope	-12.4194
▁stamp	-12.4194
▁ember	-12.4194
▁junk	-12.4194
▁speech	-12.4194
▁whimper	-12.4194
▁scribbled	-12.4195
▁juggled	-12.4196
▁dunes	-12.4202
▁surely	-12.4215
▁loudest	-12.4219
night	-12.428
turn	-12.4281
▁coconut	-12.4284
▁frisbee	-12.4284
▁helmet	-12.4284
▁neither	-12.4284
▁otter	-12.4284
▁moonstone	-12.429
▁forced	-12.4293
▁desired	-12.4296
▁fetch	-12.4301
▁flaws	-12.4302
▁results	-12.4304
▁crayon	-12.4328
▁climbs	-12.4354
ging	-12.4364
made	-12.4373
▁usual	-12.4374
cing	-12.4374
▁emerald	-12.4375
▁instructed	-12.4375
▁loaf	-12.4375
▁mumbled	-12.4375
▁stargazing	-12.4375
▁steadily	-12.4375
▁chuckling	-12.4375
▁fable	-12.4375
▁fitting	-12.4377
▁bumpy	-12.4377
▁died	-12.4378
▁crafts	-12.4381
▁fury	-12.4382
▁preferr	-12.4388
▁miles	-12.439
▁awakening	-12.4395
▁destroyed	-12.4397
ky	-12.4413
▁illusions	-12.4431
▁locker	-12.4458
ap	-12.4463
play	-12.4465
exactly	-12.4465
beware	-12.4465
▁exchange	-12.4466
▁tease	-12.4467
▁chord	-12.4467
▁jacket	-12.4467
▁lens	-12.4467
▁wagon	-12.4467
▁owls	-12.447
▁crate	-12.447
▁gleamed	-12.447
▁achieved	-12.4472
▁include	-12.4473
▁weapons	-12.4474
▁wanderer	-12.448
ga	-12.4482
▁rises	-12.4505
▁classmate	-12.4512
▁sunsets	-12.4535
▁coast	-12.4548
wing	-12.4549
face	-12.4557
▁reverse	-12.4558
▁bunnies	-12.456
▁hawk	-12.456
▁unicycle	-12.456
▁wallet	-12.456
▁archway	-12.456
▁package	-12.456
▁mu	-12.4582
▁argument	-12.4605
▁inch	-12.4608
▁groups	-12.4613
▁visitors	-12.4618
▁narrowed	-12.4623
ouch	-12.4632
▁belly	-12.4642
▁retreat	-12.465
down	-12.4651
▁ceremony	-12.4653
▁puppies	-12.4653
▁unstoppable	-12.4653
▁bellies	-12.4654
▁eaten	-12.4656
▁displayed	-12.4671
age	-12.4675
▁wits	-12.4692
▁weaver	-12.4702
ving	-12.4716
▁festivals	-12.4722
▁brew	-12.4724
▁regain	-12.4738
▁foes	-12.4743
low	-12.4745
step	-12.4745
▁keen	-12.4747
▁lord	-12.4747
▁tirelessly	-12.4747
▁paced	-12.4749
▁bolder	-12.4753
tted	-12.4757
▁mane	-12.4774
▁builder	-12.4825
friends	-12.4825
alex	-12.484
▁hesitant	-12.4841
▁improve	-12.4841
▁empathy	-12.4843
▁mesmerized	-12.4843
▁solid	-12.4843
▁beak	-12.4843
▁revel	-12.4843
▁shrieked	-12.4844
▁glimmers	-12.485
▁screams	-12.4864
▁arrows	-12.4874
▁gumdrops	-12.489
▁gumdrop	-12.4891
▁exists	-12.4895
joy	-12.4936
▁admit	-12.4939
▁clenched	-12.4939
▁groceries	-12.4939
▁horror	-12.4939
▁progress	-12.4939
▁hideout	-12.4942
▁diver	-12.4943
▁rider	-12.4953
▁mocking	-12.4955
▁grades	-12.4956
ier	-12.4976
▁mo	-12.4984
▁penguin	-12.4988
▁tin	-12.5027
▁blood	-12.5036
▁everyday	-12.5036
▁fellow	-12.5036
▁gut	-12.5036
▁record	-12.5036
▁tightened	-12.5036
▁vendor	-12.5036
▁cavern	-12.5036
▁missions	-12.5039
▁hallways	-12.5061
▁expressing	-12.5077
▁allies	-12.5085
▁cow	-12.5087
▁link	-12.5124
which	-12.5132
▁romance	-12.5134
▁similar	-12.5134
▁spaghetti	-12.5134
▁tricycle	-12.5134
▁health	-12.5134
▁meteor	-12.5134
▁adored	-12.5134
▁atop	-12.5134
▁divided	-12.5135
▁loop	-12.5135
▁twitching	-12.5137
▁helpers	-12.5138
▁repeated	-12.5138
▁survived	-12.5138
▁sparking	-12.514
▁carve	-12.514
▁binding	-12.5151
▁transforms	-12.5157
▁steering	-12.517
▁guides	-12.5179
▁burdens	-12.518
▁blossoming	-12.5188
▁limits	-12.5193
▁fan	-12.5205
rned	-12.5212
adventure	-12.5231
▁replace	-12.5232
▁friday	-12.5233
▁imaginary	-12.5233
▁reconnect	-12.5233
▁scars	-12.525
▁witnessed	-12.5255
▁lemons	-12.5259
▁gloves	-12.5263
▁blinding	-12.5263
▁capes	-12.5273
▁stays	-12.5299
▁drown	-12.5309
▁imagines	-12.5311
▁combin	-12.5323
▁anchor	-12.5323
feel	-12.5331
goodbye	-12.5331
▁text	-12.5333
▁atlantis	-12.5333
▁blade	-12.5333
▁film	-12.5333
▁intense	-12.5333
▁lend	-12.5333
▁mingling	-12.5333
▁plastic	-12.5333
▁squid	-12.5333
▁reappeared	-12.5336
▁consequences	-12.5339
▁chests	-12.5343
▁glinted	-12.5357
▁expectations	-12.5357
▁wakes	-12.5362
▁chimes	-12.5367
▁str	-12.5386
▁kinder	-12.5387
▁owned	-12.5394
▁oldest	-12.5399
kim	-12.5402
ee	-12.5414
▁weigh	-12.5416
fire	-12.543
teamwork	-12.5432
bright	-12.5432
logic	-12.5432
▁tomato	-12.5434
▁blazing	-12.5434
▁burrow	-12.5434
▁wisp	-12.5434
▁opponent	-12.5434
hmm	-12.5434
▁correctly	-12.5435
▁th	-12.5448
▁piercing	-12.5454
ze	-12.547
▁siren	-12.5488
▁pencils	-12.5496
▁blows	-12.5519
▁torch	-12.5536
▁destruction	-12.5536
▁luma	-12.5536
▁miracle	-12.5536
▁stash	-12.5536
▁steel	-12.5536
▁twelve	-12.5536
▁violin	-12.5536
▁tipped	-12.5536
▁exclaims	-12.5541
▁j	-12.5541
▁doorstep	-12.5543
▁weaker	-12.5545
▁gatherings	-12.5594
▁rooftops	-12.56
▁masked	-12.561
▁allow	-12.5614
▁tones	-12.5615
rk	-12.5618
▁teachers	-12.5619
water	-12.5629
▁confess	-12.563
▁somehow	-12.5638
▁release	-12.5639
▁milk	-12.5639
▁steadied	-12.5639
▁waded	-12.5639
▁million	-12.5639
▁solar	-12.564
▁gods	-12.564
▁pushes	-12.5645
▁bud	-12.5657
▁winking	-12.5696
▁clash	-12.5719
▁tend	-12.5723
▁hated	-12.5732
▁croak	-12.5734
▁program	-12.5743
▁alert	-12.5743
▁council	-12.5743
▁dessert	-12.5743
▁entertain	-12.5743
▁fortress	-12.5743
▁nostalgia	-12.5743
▁ostrich	-12.5743
▁swish	-12.5744
▁astray	-12.5744
▁apartment	-12.5745
▁layer	-12.5748
▁dragg	-12.5749
▁findings	-12.5762
▁lingering	-12.5778
▁performer	-12.58
▁orbs	-12.5815
over	-12.5821
▁iron	-12.5847
▁driving	-12.5849
▁thanksgiving	-12.5849
▁tribute	-12.5849
▁helm	-12.5849
▁panicking	-12.5849
▁collapsed	-12.585
▁required	-12.585
▁glued	-12.5852
▁reigned	-12.5854
▁testing	-12.5855
▁blasted	-12.5872
▁attacked	-12.5877
▁refus	-12.5931
▁robo	-12.5947
▁m	-12.5949
▁settle	-12.5954
ctually	-12.5955
▁annoyed	-12.5955
▁aroma	-12.5955
▁communicate	-12.5955
▁strict	-12.5955
▁untold	-12.5955
▁hesitantly	-12.5957
yum	-12.5958
▁agents	-12.5981
▁arch	-12.5982
▁interested	-12.5984
ine	-12.5999
▁ray	-12.6015
▁guys	-12.6019
▁builders	-12.6022
never	-12.6028
▁continues	-12.605
ball	-12.6056
hurry	-12.606
▁encourage	-12.6061
▁potato	-12.6062
▁academic	-12.6062
▁competing	-12.6062
▁harbor	-12.6062
▁onward	-12.6062
▁scarves	-12.6062
▁trekked	-12.6062
▁tumbling	-12.6062
▁comic	-12.6063
▁inner	-12.6063
▁damaged	-12.6063
▁cr	-12.6067
▁ledge	-12.6068
▁follows	-12.6069
▁contained	-12.607
▁slyly	-12.6073
▁repaired	-12.6078
ger	-12.6084
▁sunbeams	-12.6095
▁performing	-12.6106
▁chickens	-12.6113
▁donut	-12.6123
▁wire	-12.6124
▁swirls	-12.6127
car	-12.6133
▁peel	-12.6157
▁dam	-12.6171
▁react	-12.6171
▁agency	-12.6171
▁drought	-12.6171
▁recognition	-12.6171
▁suitcase	-12.6171
▁interrupted	-12.6173
▁envisioned	-12.6173
▁feasted	-12.6175
▁den	-12.6179
▁catches	-12.6184
▁explains	-12.6192
hoo	-12.6195
▁helpful	-12.6197
▁timeless	-12.6233
▁raindrop	-12.6234
▁bricks	-12.6234
▁beats	-12.6274
▁rolls	-12.6275
alright	-12.6279
▁circling	-12.6281
▁fantastic	-12.6281
▁popular	-12.6281
▁rapidly	-12.6281
▁matching	-12.6281
▁beads	-12.6281
▁sniffing	-12.6288
▁samples	-12.6288
▁shots	-12.6296
▁oddly	-12.6301
▁stares	-12.6302
▁instruments	-12.6308
▁command	-12.6335
▁posters	-12.6356
▁el	-12.6364
▁pedal	-12.6368
▁respected	-12.637
▁curl	-12.6382
wishes	-12.639
▁consume	-12.6391
0	-12.6392
▁afloat	-12.6392
▁eternal	-12.6392
▁luminous	-12.6392
▁mentor	-12.6392
▁misunderstood	-12.6392
▁stunned	-12.6392
▁tank	-12.6392
▁research	-12.6392
board	-12.6392
▁amnesia	-12.6392
▁compared	-12.6393
▁pinch	-12.6393
▁convinced	-12.6393
▁whistled	-12.6402
mine	-12.6405
▁suffered	-12.6407
▁decisions	-12.6408
▁booming	-12.641
▁coldness	-12.6413
▁villager	-12.6445
▁hunting	-12.6447
▁streetlights	-12.6452
▁civilizations	-12.6454
▁grain	-12.6457
▁actor	-12.6469
▁reminders	-12.6481
▁aunt	-12.6503
▁blip	-12.6505
▁infectious	-12.6505
▁doom	-12.6505
▁droplets	-12.6505
▁approaches	-12.6505
▁healthy	-12.6506
▁pl	-12.6507
▁fearsome	-12.6515
▁climber	-12.6517
▁trapp	-12.6518
▁skates	-12.6519
▁statues	-12.6533
▁shops	-12.6536
▁icing	-12.6541
▁plea	-12.6541
▁floats	-12.6552
▁backpacks	-12.6567
▁retrieve	-12.6567
▁solution	-12.657
▁wit	-12.6577
rched	-12.6581
▁tents	-12.6594
▁hurts	-12.6598
▁worms	-12.6601
samuel	-12.6616
▁venture	-12.6617
▁business	-12.6618
▁chin	-12.6618
▁liquid	-12.6618
▁occasionally	-12.6618
▁plenty	-12.6618
▁survival	-12.6618
▁terrifying	-12.6618
▁gown	-12.6618
▁jewelry	-12.6619
▁beckoning	-12.6624
▁useless	-12.6624
▁robes	-12.6637
▁musicians	-12.6644
▁foxes	-12.6649
ered	-12.6672
▁scientists	-12.6675
▁flake	-12.6685
▁quests	-12.6707
▁plates	-12.6716
▁shoots	-12.6718
▁brightness	-12.6731
▁require	-12.6732
▁contagious	-12.6733
▁debris	-12.6733
▁doorbell	-12.6733
▁elves	-12.6733
▁experiment	-12.6733
▁gnarled	-12.6733
▁harp	-12.6733
▁innocence	-12.6733
▁judgment	-12.6733
▁mixture	-12.6733
▁traitor	-12.6733
▁reluctantly	-12.6733
▁thirsty	-12.6734
▁separated	-12.6735
▁munched	-12.6737
▁soften	-12.6737
▁princesses	-12.6739
▁yelling	-12.674
▁lakes	-12.6747
▁kindest	-12.6769
rain	-12.6793
▁sticking	-12.6808
▁couples	-12.6819
▁marvel	-12.6836
▁rust	-12.6838
▁onion	-12.6842
▁sung	-12.6847
▁van	-12.6848
▁revive	-12.6848
▁savor	-12.6849
▁abyss	-12.6849
▁brachiosaurus	-12.6849
▁epic	-12.6849
▁inseparable	-12.6849
▁recess	-12.6849
▁penned	-12.685
▁pole	-12.6854
▁shorter	-12.6855
▁lifeless	-12.6883
▁onboard	-12.6885
▁suggests	-12.6885
▁readers	-12.6889
▁tastes	-12.6919
▁spines	-12.6934
ph	-12.6934
▁slides	-12.6939
side	-12.6939
▁fizz	-12.6953
correct	-12.6965
▁entire	-12.6965
read	-12.6966
▁chalk	-12.6967
▁principal	-12.6967
▁valentine	-12.6967
▁awkwardly	-12.6968
▁wildfire	-12.6969
▁passes	-12.6972
▁whirling	-12.6977
▁drinking	-12.6984
▁umbrellas	-12.701
▁ingredient	-12.7039
llow	-12.7045
▁cub	-12.7074
▁strangely	-12.7077
▁cloaks	-12.7077
▁nuzzl	-12.7086
hooray	-12.7086
▁piqued	-12.7086
▁remembrance	-12.7086
▁turbulent	-12.7086
▁sadder	-12.7086
▁banks	-12.71
▁peacefully	-12.7101
▁trips	-12.7117
▁dawned	-12.713
▁stumble	-12.7157
▁chant	-12.7182
▁crawl	-12.7183
grandmother	-12.7204
▁confuse	-12.7205
▁steam	-12.7207
▁upward	-12.7207
▁retrac	-12.7207
▁observed	-12.7208
▁unveiled	-12.7212
▁symbolized	-12.7213
▁reli	-12.7222
▁brain	-12.7281
▁quieter	-12.7283
▁aim	-12.7289
▁afternoons	-12.7297
▁sneer	-12.7319
truth	-12.7326
hidden	-12.7326
gold	-12.7326
stories	-12.7326
▁companionship	-12.7329
▁raging	-12.7329
▁rogue	-12.7329
▁sleeve	-12.7329
▁snowstorm	-12.7329
▁subterranean	-12.7329
▁trudg	-12.7329
▁battlefield	-12.7329
▁unclear	-12.7329
▁complained	-12.7331
▁useful	-12.7332
▁site	-12.734
greetings	-12.7347
▁suffering	-12.7352
end	-12.7366
▁hinted	-12.738
▁sleds	-12.7384
eries	-12.7396
▁cherishing	-12.7402
▁guest	-12.7404
rin	-12.7441
▁murmur	-12.7442
▁wiggle	-12.7451
▁shortcut	-12.7452
▁sunglasses	-12.7452
▁vessel	-12.7452
▁mirage	-12.7452
▁noisy	-12.7452
▁frantically	-12.7452
▁untangled	-12.7453
▁removed	-12.7454
▁experienced	-12.7462
▁rely	-12.7463
▁puffed	-12.7472
▁trolls	-12.7482
▁bother	-12.7501
▁coats	-12.7504
▁howling	-12.7507
▁answering	-12.7527
▁paying	-12.7549
▁unleash	-12.7567
something	-12.7575
▁ajar	-12.7577
▁boulder	-12.7577
▁copy	-12.7577
▁invincible	-12.7577
▁knob	-12.7577
▁overwhelming	-12.7577
▁programmed	-12.7577
▁spoil	-12.7577
▁veil	-12.7577
▁bait	-12.7577
▁spies	-12.7577
▁troublemaker	-12.7577
▁dropping	-12.7578
▁zone	-12.7578
▁crackling	-12.7578
▁presentation	-12.7578
war	-12.7581
▁tentacles	-12.7593
▁hops	-12.7595
▁darken	-12.7609
▁burdened	-12.764
!'"	-12.7678
▁tap	-12.7689
▁hoot	-12.7694
▁ex	-12.7695
change	-12.7701
meet	-12.7701
▁bay	-12.7704
▁confusing	-12.7704
▁explosion	-12.7704
▁extraordinary	-12.7704
▁sunday	-12.7704
▁tv	-12.7706
▁watchful	-12.7707
▁bandit	-12.7715
▁seller	-12.7719
▁insects	-12.7728
▁reasons	-12.7733
▁picnics	-12.777
▁seep	-12.778
▁generation	-12.7784
▁ties	-12.7819
▁dash	-12.7822
▁pranks	-12.7825
▁puppets	-12.7829
everything	-12.7829
▁ferr	-12.7832
▁barrel	-12.7832
▁captive	-12.7832
▁chorus	-12.7832
▁crickets	-12.7832
▁identity	-12.7832
▁instructions	-12.7832
▁melancholy	-12.7832
▁shrimp	-12.7832
▁tummy	-12.7832
▁shard	-12.7832
▁wept	-12.7832
▁superpower	-12.7832
▁posed	-12.7833
▁curly	-12.7833
▁dimmer	-12.7833
▁buzzy	-12.7835
▁bitterly	-12.7842
air	-12.7844
does	-12.7848
▁powerless	-12.7855
star	-12.7869
▁attacking	-12.7883
▁arguments	-12.7898
▁claw	-12.7908
▁outfit	-12.7914
▁height	-12.7914
▁pools	-12.7925
▁spill	-12.7938
▁stitch	-12.7952
que	-12.7955
bird	-12.7957
jose	-12.7959
▁streetlamp	-12.7962
▁bullied	-12.7962
▁cafeteria	-12.7962
▁duties	-12.7962
▁empowered	-12.7962
▁moonbeam	-12.7962
▁unfair	-12.7962
▁women	-12.7962
▁heavens	-12.7962
▁nook	-12.7962
▁rewrite	-12.7962
▁bellowed	-12.7962
▁relic	-12.7962
▁candlelight	-12.7962
▁spare	-12.7963
▁battery	-12.7964
▁villains	-12.7989
▁puffing	-12.7994
▁glittered	-12.8004
▁engineer	-12.8012
▁cultures	-12.8021
▁lists	-12.8029
way	-12.8048
▁zoo	-12.8058
▁styles	-12.8061
▁loom	-12.8069
▁seagulls	-12.8076
▁corn	-12.8092
▁engulf	-12.8093
yay	-12.8093
▁album	-12.8093
▁ankle	-12.8093
▁ankylosaurus	-12.8093
▁downfall	-12.8093
▁hood	-12.8093
▁stray	-12.8093
▁trickery	-12.8093
▁uniting	-12.8093
▁kn	-12.8096
▁drooping	-12.8103
▁daydreaming	-12.8106
▁prizes	-12.8113
▁cheating	-12.8116
▁honestly	-12.8135
▁agreeing	-12.814
▁flips	-12.8172
▁award	-12.8179
▁barriers	-12.8183
▁talented	-12.8195
▁blush	-12.8217
jump	-12.8224
▁dodge	-12.8226
yeah	-12.8227
▁decay	-12.8227
▁inquired	-12.8227
▁laptop	-12.8227
▁reborn	-12.8227
▁starship	-12.8227
▁stubborn	-12.8227
▁wolves	-12.8227
▁zap	-12.8227
▁cling	-12.8227
▁easel	-12.8228
▁yawned	-12.8231
▁retreated	-12.824
▁burnt	-12.8243
▁rob	-12.8286
▁eagles	-12.8299
▁landscapes	-12.8304
▁moat	-12.8314
▁appearing	-12.832
▁desks	-12.833
▁measure	-12.836
ounce	-12.8362
3	-12.8362
▁advantage	-12.8362
▁furrowed	-12.8362
▁kettle	-12.8362
▁sentence	-12.8362
▁striking	-12.8362
▁tempted	-12.8362
▁unnoticed	-12.8362
▁zeta	-12.8362
▁state	-12.8364
▁toaster	-12.8364
▁deserved	-12.8367
▁faltered	-12.8367
▁bites	-12.8371
▁fragments	-12.8374
▁shivers	-12.8377
▁rushes	-12.8386
▁butter	-12.8391
▁chattered	-12.8392
cat	-12.8411
▁pe	-12.8437
▁systems	-12.8438
lived	-12.8441
ical	-12.8441
▁leapt	-12.8485
▁sorrowful	-12.8486
▁bath	-12.8496
independence	-12.8496
▁separate	-12.8497
▁prettiest	-12.8499
▁sponge	-12.8499
▁suspense	-12.8499
▁sympathy	-12.8499
▁sync	-12.8499
▁tray	-12.8499
kart	-12.8499
got	-12.8503
best	-12.8504
▁thinkers	-12.8513
▁spiraled	-12.8516
▁grabs	-12.8539
▁stark	-12.8545
▁mouths	-12.857
▁hesitate	-12.8588
▁chime	-12.8589
▁folk	-12.859
▁nail	-12.859
▁contain	-12.8628
▁type	-12.8636
▁pri	-12.8637
▁bulb	-12.8638
▁cigarette	-12.8638
▁proclaimed	-12.8638
▁report	-12.8638
▁shady	-12.8638
▁skeptical	-12.8638
▁tavern	-12.8638
▁tranquil	-12.8638
▁vulnerability	-12.8638
▁arose	-12.8638
▁beans	-12.8638
▁badger	-12.8639
▁hotel	-12.8639
▁whirled	-12.8646
▁losses	-12.8656
▁videos	-12.8657
▁agrees	-12.8661
▁muffins	-12.8674
▁gazes	-12.8677
dding	-12.8685
▁sculptures	-12.8717
rely	-12.8721
▁tiger	-12.8731
gging	-12.8731
▁dissolve	-12.8734
▁hatch	-12.8774
▁blaze	-12.8777
▁quit	-12.8778
▁birdhouse	-12.8778
▁cherry	-12.8778
▁existence	-12.8778
▁hospital	-12.8778
▁wrath	-12.8778
▁marketplace	-12.8779
▁conch	-12.8779
▁scuttled	-12.878
▁ominously	-12.878
▁considering	-12.8781
▁desperately	-12.8786
▁patt	-12.8805
▁fist	-12.8874
▁frighten	-12.8897
fish	-12.8909
focus	-12.8919
▁address	-12.8921
▁glitch	-12.8921
▁pineapple	-12.8921
▁screw	-12.8921
▁slither	-12.8921
▁overcame	-12.8921
▁rewind	-12.8921
▁ruling	-12.8921
▁scoring	-12.8921
▁spicy	-12.8921
▁unearthed	-12.8921
▁sensors	-12.8921
▁pluck	-12.8921
▁rattled	-12.8922
▁thriving	-12.8922
▁neatly	-12.893
▁scattering	-12.8931
▁sprites	-12.8944
▁yells	-12.8949
▁protectors	-12.8957
▁raise	-12.8968
▁brains	-12.8978
▁wi	-12.8983
▁raccoons	-12.8998
▁suits	-12.9007
work	-12.9045
▁swoop	-12.9057
embrace	-12.9064
need	-12.9064
lena	-12.9064
▁collapse	-12.9065
▁moth	-12.9066
▁championship	-12.9066
▁continuing	-12.9066
▁emma	-12.9066
▁fern	-12.9066
▁hay	-12.9066
▁humbly	-12.9066
▁oars	-12.9066
▁spike	-12.9066
▁canyon	-12.9066
▁assured	-12.9066
▁attend	-12.9068
▁narrowing	-12.9068
▁markers	-12.9068
▁demanding	-12.9075
▁purring	-12.9075
▁hints	-12.9076
▁appreciated	-12.9081
▁disturbed	-12.9087
▁pawn	-12.9087
▁brightvale	-12.9111
▁flakes	-12.9127
▁grains	-12.9128
▁lur	-12.9134
▁daydream	-12.9146
▁truthful	-12.915
▁byte	-12.9157
▁shaken	-12.9161
▁recover	-12.9163
▁arrow	-12.9166
▁hue	-12.9166
▁sheet	-12.9168
▁canes	-12.918
heart	-12.9203
▁squeak	-12.9203
strength	-12.9211
▁hoard	-12.9213
▁trampoline	-12.9213
▁benny	-12.9213
▁hilarious	-12.9213
▁outcast	-12.9213
▁pleasant	-12.9213
▁scampered	-12.9213
▁whimsy	-12.9213
▁canoe	-12.9213
▁easter	-12.9214
▁glider	-12.9215
▁humble	-12.9216
▁screeched	-12.9216
▁drooped	-12.922
▁heist	-12.923
▁aisles	-12.9233
▁movies	-12.924
▁mar	-12.9254
▁gestures	-12.9257
▁folks	-12.9264
▁catcher	-12.9275
▁pixels	-12.9307
▁offers	-12.9312
▁advisors	-12.9327
▁pound	-12.9339
▁outcome	-12.9346
nothing	-12.936
▁expose	-12.9361
▁mid	-12.9362
▁merry	-12.9363
▁breezy	-12.9363
▁crinkled	-12.9363
▁decorating	-12.9363
▁diner	-12.9363
▁gingerbread	-12.9363
▁honk	-12.9363
▁lullaby	-12.9363
▁peacock	-12.9363
▁resources	-12.9363
▁turkey	-12.9363
▁volleyball	-12.9363
▁sneezed	-12.9363
▁chart	-12.9373
▁careless	-12.9373
▁chanted	-12.9375
▁regained	-12.9378
▁mocked	-12.938
▁gnomes	-12.9383
▁docked	-12.9388
▁ponder	-12.939
▁widen	-12.9405
▁fans	-12.9435
▁tim	-12.9439
▁lions	-12.9476
▁adjust	-12.9505
tradition	-12.9512
hop	-12.9512
fly	-12.9514
▁anxiety	-12.9514
▁bobbed	-12.9514
▁fault	-12.9514
▁flopped	-12.9514
▁option	-12.9514
▁wrench	-12.9514
▁grim	-12.9514
▁ritual	-12.9514
▁sculptor	-12.9514
▁weep	-12.9514
may	-12.9514
▁controlled	-12.9516
▁sir	-12.9517
▁core	-12.9517
fived	-12.9517
▁frayed	-12.9518
▁po	-12.9518
▁bracelets	-12.9522
flying	-12.9526
▁relaxed	-12.9531
▁rooted	-12.954
▁screaming	-12.9571
▁actors	-12.9579
▁tip	-12.9584
▁cows	-12.9588
▁penguins	-12.9589
▁unfolding	-12.9594
▁hoops	-12.9598
▁befriend	-12.9601
▁adds	-12.9603
▁nests	-12.9613
▁depth	-12.962
▁silenced	-12.9626
▁planes	-12.9651
ug	-12.9654
▁brainstorm	-12.9658
emmanuel	-12.9665
nice	-12.9665
squawk	-12.9668
▁exhausted	-12.9668
▁farewell	-12.9668
▁foam	-12.9668
▁oblivious	-12.9668
▁pottery	-12.9668
▁rebel	-12.9668
▁remote	-12.9668
▁smoky	-12.9668
▁sparrow	-12.9668
▁zappy	-12.9668
▁quickened	-12.9668
▁surfboard	-12.9668
▁racers	-12.9668
▁mate	-12.9669
▁uniqueness	-12.9672
ary	-12.9672
▁veggies	-12.9676
▁floorboards	-12.9706
▁suggest	-12.9767
▁sunbeam	-12.9776
▁glove	-12.9777
▁mis	-12.9778
▁unravel	-12.9814
rious	-12.9817
2	-12.9822
▁reassured	-12.9824
▁script	-12.9824
▁servant	-12.9824
▁chopped	-12.9824
▁cocoon	-12.9824
▁rejection	-12.9824
▁poof	-12.9825
▁aqua	-12.9836
▁granting	-12.984
▁rediscover	-12.9843
▁clashing	-12.9846
▁mittens	-12.9852
▁entranced	-12.9856
▁sharply	-12.9862
lia	-12.9873
▁weavers	-12.9904
ook	-12.991
▁cones	-12.9912
▁wasted	-12.9922
▁scrap	-12.9926
▁banner	-12.9935
▁champions	-12.9951
grandfather	-12.998
gather	-12.998
▁ominous	-12.9981
▁obscure	-12.9981
▁nudge	-12.9981
▁damage	-12.9982
▁port	-12.9983
▁wag	-12.9983
▁airship	-12.9983
▁cooperate	-12.9983
▁genuine	-12.9983
▁leadership	-12.9983
▁lump	-12.9983
▁stained	-12.9983
▁strawberries	-12.9983
5	-12.9983
▁farthest	-12.9983
▁portrait	-12.9983
▁death	-12.9983
▁original	-12.9983
▁country	-12.9983
▁grandparents	-12.9983
▁meaningful	-12.9984
▁urgently	-12.9984
▁mourned	-12.9985
▁lacked	-12.9988
▁drowned	-12.9998
▁beaches	-13.0007
▁grapes	-13.0009
ched	-13.003
▁gesture	-13.0095
coming	-13.011
▁watcher	-13.0134
▁buying	-13.0137
▁destin	-13.0143
▁aimlessly	-13.0144
▁anniversary	-13.0144
▁celestia	-13.0144
▁challenging	-13.0144
▁constant	-13.0144
▁contact	-13.0144
▁eight	-13.0144
▁gravity	-13.0144
▁involved	-13.0144
▁observing	-13.0144
▁quaint	-13.0144
▁radiating	-13.0144
▁raid	-13.0144
▁silliness	-13.0144
▁twenty	-13.0144
▁jolly	-13.0144
▁jam	-13.0144
▁blazed	-13.0146
▁mage	-13.0146
▁pouted	-13.0148
▁wary	-13.015
▁army	-13.015
▁pol	-13.0156
▁calmness	-13.0156
▁wedding	-13.0157
▁prayer	-13.0161
▁rarely	-13.0161
▁fizzle	-13.0163
▁coolest	-13.0172
▁webs	-13.0181
▁ornaments	-13.0181
▁buds	-13.0221
▁gaining	-13.0233
▁pattern	-13.0265
▁withered	-13.0282
▁thump	-13.0284
▁fools	-13.029
sharing	-13.0306
▁awkward	-13.0306
▁blame	-13.0307
▁apologize	-13.0307
▁brotherhood	-13.0308
▁olive	-13.0308
▁satisfaction	-13.0308
▁scheming	-13.0308
▁trumpet	-13.0308
▁goofy	-13.0308
▁wreckage	-13.0308
▁law	-13.0309
▁overlooked	-13.0309
▁measured	-13.031
▁crafty	-13.0311
▁furiously	-13.0313
▁whirl	-13.0338
▁drumm	-13.0358
br	-13.0399
▁lo	-13.0421
▁number	-13.0428
▁sill	-13.0474
▁comb	-13.0474
▁blorp	-13.0475
▁festivities	-13.0475
▁menacing	-13.0475
▁nymph	-13.0475
▁paddling	-13.0475
▁blurry	-13.0475
▁tomb	-13.0475
▁bedroom	-13.0475
▁pouch	-13.0475
▁reel	-13.0476
▁suck	-13.0476
▁1	-13.0476
▁tripping	-13.0476
▁era	-13.0477
▁finest	-13.0478
▁boiling	-13.0485
▁prisoner	-13.0488
▁tooth	-13.0492
topia	-13.0493
▁pedaling	-13.0497
▁stakes	-13.0503
▁outline	-13.0505
gged	-13.0509
▁fighter	-13.0534
▁isle	-13.0544
▁disappears	-13.057
friend	-13.0571
▁lamps	-13.0583
▁fired	-13.0597
▁releas	-13.0633
▁flitt	-13.0635
old	-13.064
home	-13.0642
▁sauce	-13.0644
▁cackled	-13.0644
▁daunting	-13.0644
▁depict	-13.0644
▁fridge	-13.0644
▁glared	-13.0644
▁quill	-13.0644
▁resumed	-13.0644
▁rink	-13.0644
▁suffocating	-13.0644
▁malice	-13.0644
▁twin	-13.0644
▁drap	-13.0644
▁stew	-13.0644
▁batch	-13.0645
▁july	-13.0645
▁labor	-13.0647
▁symboliz	-13.0648
▁obeyed	-13.0651
▁rhymes	-13.0654
ending	-13.0661
▁seriously	-13.0668
▁betrayer	-13.0675
▁flippers	-13.0682
wear	-13.0686
▁tigers	-13.0702
▁mango	-13.0708
▁worker	-13.0719
▁phones	-13.0727
▁comp	-13.0744
▁reign	-13.0798
▁boast	-13.0807
▁march	-13.0807
▁crossroads	-13.0817
▁goose	-13.0817
▁mail	-13.0817
▁mingled	-13.0817
▁nightfall	-13.0817
▁pensive	-13.0817
▁polished	-13.0817
▁refuge	-13.0817
▁replayed	-13.0817
▁satisfied	-13.0817
▁scrapbook	-13.0817
▁stress	-13.0817
▁stump	-13.0817
▁syrup	-13.0817
▁vulnerable	-13.0817
▁marry	-13.0817
▁rubble	-13.0817
▁illness	-13.0817
▁glo	-13.0817
▁tugging	-13.0818
▁weaken	-13.0821
▁chewed	-13.0822
▁keyboard	-13.0822
hill	-13.0823
▁cheated	-13.0837
▁prints	-13.0845
▁fearful	-13.0871
spire	-13.0882
▁solutions	-13.089
▁bats	-13.0918
▁deserted	-13.094
▁magically	-13.0954
revenge	-13.099
maker	-13.0991
▁bore	-13.0991
▁curve	-13.0992
▁knives	-13.0992
▁phantom	-13.0992
▁sapling	-13.0992
▁ivy	-13.0992
▁mold	-13.0992
▁fle	-13.0992
▁sensation	-13.0993
▁duckling	-13.0993
▁hare	-13.0994
▁awful	-13.1
▁delivered	-13.1012
▁goodness	-13.1022
▁oil	-13.1046
▁swamp	-13.1054
▁rewarding	-13.1062
▁commands	-13.1068
dream	-13.1095
▁tinge	-13.1122
▁lemon	-13.1123
▁fulfill	-13.1161
solve	-13.1168
perfect	-13.1168
town	-13.1168
view	-13.1169
▁observe	-13.1169
▁muse	-13.117
▁bicker	-13.1171
▁deafening	-13.1171
▁dial	-13.1171
▁evidence	-13.1171
▁isolated	-13.1171
▁isolation	-13.1171
▁perspective	-13.1171
▁platform	-13.1171
▁scribbling	-13.1171
▁trek	-13.1171
▁vital	-13.1171
▁nova	-13.1171
▁palette	-13.1171
▁tilly	-13.1171
▁hook	-13.1171
▁sammy	-13.1171
▁badge	-13.1172
▁protection	-13.1178
nature	-13.1182
▁crawling	-13.1192
▁patter	-13.1197
▁endure	-13.1202
row	-13.1228
▁makers	-13.1281
▁muffin	-13.1305
▁reflects	-13.1325
val	-13.1345
pick	-13.135
travel	-13.135
music	-13.135
▁intent	-13.1351
▁disco	-13.1352
▁sweep	-13.1352
▁angrily	-13.1352
▁barnacles	-13.1352
▁boundaries	-13.1352
▁disheartened	-13.1352
▁elegant	-13.1352
▁favor	-13.1352
▁heirloom	-13.1352
▁hesitating	-13.1352
▁hundred	-13.1352
▁junkyard	-13.1352
▁messenger	-13.1352
▁naughty	-13.1352
▁pleading	-13.1352
▁rolo	-13.1352
▁maiden	-13.1353
▁drain	-13.1353
▁slick	-13.1353
▁techie	-13.1353
▁discussion	-13.1353
▁exposed	-13.1356
▁dries	-13.1357
▁rarest	-13.1358
▁rescued	-13.1358
▁mossy	-13.1361
▁tame	-13.1365
▁youngest	-13.1445
▁lover	-13.1448
▁seiz	-13.1461
▁remaining	-13.1479
knowledge	-13.1488
▁load	-13.1528
▁clowns	-13.1534
world	-13.1535
▁announce	-13.1536
▁triumphant	-13.1536
responsibilities	-13.1538
▁absorb	-13.1538
▁amusement	-13.1538
▁chariot	-13.1538
▁conductor	-13.1538
▁dandelion	-13.1538
▁enthusiasm	-13.1538
▁haze	-13.1538
▁league	-13.1538
▁ogre	-13.1538
▁rummag	-13.1538
▁silhouette	-13.1538
▁poking	-13.1538
▁prick	-13.1538
▁flush	-13.1538
▁correct	-13.154
▁cheeky	-13.1542
▁jet	-13.1542
▁lookout	-13.1555
▁noodles	-13.1567
touch	-13.1568
▁sever	-13.157
▁responding	-13.1584
▁tires	-13.164
press	-13.1654
▁dr	-13.1666
▁growling	-13.1675
▁decoration	-13.1679
▁cours	-13.1719
wisdom	-13.1724
maria	-13.1724
▁doodle	-13.1726
▁rice	-13.1726
▁volunteer	-13.1726
▁adapt	-13.1726
▁compliment	-13.1726
▁deceiving	-13.1726
▁entwined	-13.1726
▁fragrant	-13.1726
▁genius	-13.1726
▁heartbreak	-13.1726
▁medicine	-13.1726
▁nourish	-13.1726
▁quirky	-13.1726
▁stripes	-13.1726
▁suspicious	-13.1726
▁teacup	-13.1726
▁antics	-13.1726
▁football	-13.1727
▁tickling	-13.1727
stars	-13.1729
▁fewer	-13.1758
▁concerned	-13.1764
▁jo	-13.1785
▁gritt	-13.1843
▁floorboard	-13.1872
create	-13.1916
alice	-13.1916
filled	-13.1916
imagine	-13.1916
patience	-13.1916
space	-13.1916
▁grumble	-13.1917
▁untangle	-13.1917
▁mundane	-13.1919
▁nagged	-13.1919
▁thumb	-13.1919
▁victim	-13.1919
▁trott	-13.1919
▁strum	-13.1919
▁reaction	-13.1919
▁gas	-13.192
▁bookshop	-13.192
▁guesses	-13.1922
▁splattered	-13.1926
▁pil	-13.1927
▁loaded	-13.1929
▁declares	-13.193
iming	-13.1932
▁features	-13.1935
▁starstone	-13.1948
▁clan	-13.1961
▁donuts	-13.2004
▁relive	-13.202
under	-13.2054
▁instrument	-13.2067
▁obstacle	-13.2067
▁fact	-13.2067
▁expectation	-13.2068
▁droop	-13.2091
▁unveil	-13.2105
▁tink	-13.2106
field	-13.211
freedom	-13.2112
▁explode	-13.2113
misunderstanding	-13.2115
▁absent	-13.2115
▁coexist	-13.2115
▁dreamscape	-13.2115
▁emptier	-13.2115
▁figment	-13.2115
▁opposite	-13.2115
▁referee	-13.2115
▁relationship	-13.2115
▁taunting	-13.2115
▁wiggly	-13.2115
▁charging	-13.2115
▁heritage	-13.2115
▁clownfish	-13.2115
▁laser	-13.2115
▁jingled	-13.2115
▁squeaky	-13.2116
▁accomplished	-13.2116
▁formation	-13.2117
▁sack	-13.2118
▁prayed	-13.2124
▁wanders	-13.2129
▁sharper	-13.2134
▁personal	-13.2135
too	-13.2152
▁min	-13.2157
uck	-13.2158
▁triumphed	-13.2161
▁deepen	-13.2168
▁reclaimed	-13.2183
▁stumbles	-13.2193
▁onions	-13.2198
▁pans	-13.2214
▁musty	-13.2219
▁pray	-13.2284
discovery	-13.2289
▁descend	-13.2291
▁pump	-13.23
▁appreciat	-13.2304
sorry	-13.2312
yummy	-13.2313
▁fright	-13.2315
▁alleyways	-13.2315
▁cemetery	-13.2315
▁circus	-13.2315
▁collaboration	-13.2315
▁copied	-13.2315
▁cushion	-13.2315
▁effect	-13.2315
▁morphed	-13.2315
▁muscles	-13.2315
▁parchment	-13.2315
▁punish	-13.2315
▁receiving	-13.2315
▁robbers	-13.2315
▁stadium	-13.2315
▁strawberry	-13.2315
▁unyielding	-13.2315
▁newspaper	-13.2315
▁six	-13.2315
▁bask	-13.2315
▁gateway	-13.2315
▁mangoes	-13.2315
▁debated	-13.2316
▁reunited	-13.2316
▁wetter	-13.2317
▁sputtered	-13.2319
▁roller	-13.232
▁litter	-13.2327
▁daydreamed	-13.2328
▁bridg	-13.233
▁subjects	-13.2339
▁surfing	-13.236
▁moats	-13.2386
lies	-13.2437
▁piec	-13.2446
▁nurs	-13.2474
▁cousins	-13.248
▁scatter	-13.2495
write	-13.2516
colored	-13.2516
count	-13.2517
inside	-13.2517
▁direct	-13.2517
someone	-13.2517
▁dramatic	-13.2519
▁aardvark	-13.2519
▁foreign	-13.2519
▁guild	-13.2519
▁lila	-13.2519
▁pterosaur	-13.2519
▁scissors	-13.2519
▁stove	-13.2519
▁submit	-13.2519
▁zero	-13.2519
▁saddest	-13.2519
▁heroism	-13.2519
▁thicket	-13.2519
▁dramatically	-13.2519
▁pup	-13.2519
▁kisses	-13.2521
▁daddy	-13.2521
gone	-13.2521
▁polly	-13.2522
▁cawed	-13.2523
▁gestured	-13.2523
▁firelight	-13.2526
▁clinked	-13.2528
▁artie	-13.253
▁brainstormed	-13.2532
▁peeling	-13.2546
▁lightened	-13.2551
▁plank	-13.2557
▁nicely	-13.2563
▁invitations	-13.2651
▁nor	-13.2661
▁ornament	-13.2679
▁twig	-13.268
▁bu	-13.269
▁ho	-13.2701
▁scratch	-13.2703
▁dart	-13.2703
flowers	-13.2712
drink	-13.2725
▁tumble	-13.2726
▁possess	-13.2727
▁cascad	-13.2727
▁bubbly	-13.2727
▁certain	-13.2727
▁commotion	-13.2727
▁fifteen	-13.2727
▁jasmine	-13.2727
▁knitting	-13.2727
▁majesty	-13.2727
▁pastries	-13.2727
▁reputation	-13.2727
▁rosy	-13.2727
▁shallow	-13.2727
▁submarine	-13.2727
▁toolbox	-13.2727
▁ultimate	-13.2727
▁velvet	-13.2727
▁wretched	-13.2727
▁overshadowed	-13.2727
▁starhaven	-13.2727
▁whizz	-13.2727
▁reeds	-13.2728
▁nibbled	-13.2728
▁drenched	-13.273
▁resonated	-13.2732
▁pitch	-13.2743
▁switched	-13.275
▁expressed	-13.2786
▁hesitates	-13.28
▁flipper	-13.2892
dig	-13.2909
▁quack	-13.2916
▁fr	-13.2928
room	-13.2934
imagination	-13.2937
secret	-13.2937
trapped	-13.2937
▁divide	-13.2939
▁recognize	-13.2939
tree	-13.2939
ribbit	-13.294
▁bobbing	-13.294
▁expand	-13.294
▁extend	-13.294
▁impact	-13.294
▁nagging	-13.294
▁poison	-13.294
▁scarecrow	-13.294
▁serene	-13.294
▁solstice	-13.294
▁turmoil	-13.294
▁underestimated	-13.294
▁wacky	-13.294
▁watermelon	-13.294
▁alliance	-13.294
▁bandage	-13.294
▁equally	-13.294
▁directly	-13.2942
▁dismissed	-13.2943
▁improved	-13.2943
▁profound	-13.2943
▁protective	-13.2944
ously	-13.2946
last	-13.295
▁shyness	-13.2952
▁sooner	-13.297
▁whisperer	-13.2975
▁sorts	-13.2983
▁speaker	-13.3004
▁outfits	-13.3019
▁startl	-13.3028
▁sirens	-13.3041
start	-13.3077
▁squint	-13.3148
▁perk	-13.3148
cloud	-13.3155
grab	-13.3155
▁urgent	-13.3156
▁dribble	-13.3156
▁activities	-13.3157
▁athlete	-13.3157
▁bonfire	-13.3157
▁cash	-13.3157
▁casual	-13.3157
▁floppy	-13.3157
▁microphone	-13.3157
▁powder	-13.3157
▁ridiculous	-13.3157
▁slowpoke	-13.3157
▁swore	-13.3157
▁tapestries	-13.3157
▁trading	-13.3157
▁vengeance	-13.3157
▁funnier	-13.3157
▁peck	-13.3157
▁morality	-13.3158
▁wavered	-13.3164
▁creepy	-13.3168
▁streamers	-13.3168
▁vale	-13.3169
▁classes	-13.3169
▁finishes	-13.317
▁pumping	-13.3173
▁va	-13.3176
▁blown	-13.3195
▁cleaner	-13.3241
▁hi	-13.3261
▁bob	-13.3274
ction	-13.3312
▁result	-13.3332
▁sniff	-13.3355
▁replac	-13.3368
▁squeal	-13.337
fight	-13.3377
dancing	-13.3377
order	-13.3377
grow	-13.3377
▁natural	-13.3378
▁reunite	-13.3378
soon	-13.3378
▁blessed	-13.338
▁expert	-13.338
▁gluing	-13.338
▁hovercraft	-13.338
▁immense	-13.338
▁intricate	-13.338
▁lava	-13.338
▁leather	-13.338
▁mercy	-13.338
▁opal	-13.338
▁squish	-13.338
▁stargaze	-13.338
▁surreal	-13.338
▁unworthy	-13.338
▁waft	-13.338
▁wield	-13.338
▁loung	-13.338
▁cupboard	-13.338
▁chipped	-13.338
▁torches	-13.338
▁matches	-13.3385
▁revived	-13.3385
▁rekindled	-13.3385
▁bedtime	-13.3388
▁slower	-13.3397
▁soap	-13.3398
▁thumping	-13.3399
▁ju	-13.3405
▁tacos	-13.3421
whee	-13.3423
▁sunstone	-13.3443
▁whip	-13.3526
▁customer	-13.3559
▁clink	-13.3597
▁repeat	-13.3597
clear	-13.3604
speak	-13.3604
laughter	-13.3604
luis	-13.3604
▁convince	-13.3605
▁rail	-13.3607
▁chess	-13.3607
▁distress	-13.3607
▁empire	-13.3607
▁feign	-13.3607
▁fragrance	-13.3607
▁goggles	-13.3607
▁habit	-13.3607
▁kayak	-13.3607
▁ornate	-13.3607
▁sloth	-13.3607
▁tiko	-13.3607
▁trapdoor	-13.3607
▁tremor	-13.3607
▁ugly	-13.3607
▁unfinished	-13.3607
▁vial	-13.3607
▁cradl	-13.3607
▁cowboy	-13.3607
▁amends	-13.3607
▁outstanding	-13.3607
▁flora	-13.3607
flop	-13.3607
▁critic	-13.3607
▁saucer	-13.3608
▁luckiest	-13.3608
▁poetry	-13.3608
▁sickness	-13.361
▁exchang	-13.3611
laced	-13.3612
▁crunchy	-13.3613
▁dresses	-13.3613
▁churned	-13.3614
▁whirring	-13.3616
▁thumped	-13.362
▁unraveled	-13.3621
▁nibbles	-13.3632
▁bo	-13.3649
▁orderly	-13.365
ipped	-13.3728
▁imp	-13.3796
▁boil	-13.3815
▁obey	-13.383
▁hush	-13.383
▁erupt	-13.383
▁mast	-13.3835
j	-13.3837
▁pose	-13.3838
▁restor	-13.3838
▁channel	-13.3839
▁snicker	-13.3839
▁snorkel	-13.3839
▁bills	-13.3839
▁bizarre	-13.3839
▁cabbage	-13.3839
▁clenching	-13.3839
▁document	-13.3839
▁judging	-13.3839
▁nightshade	-13.3839
▁opportunity	-13.3839
▁reckless	-13.3839
▁starfall	-13.3839
▁vault	-13.3839
▁violet	-13.3839
▁backfired	-13.3839
▁tryouts	-13.3839
▁patchwork	-13.384
▁zara	-13.384
▁heave	-13.384
▁zorp	-13.3841
▁usually	-13.3843
▁strengthen	-13.3863
▁chanting	-13.3868
▁kneel	-13.3869
▁files	-13.3873
▁twisty	-13.3882
▁mournful	-13.3889
▁bella	-13.3906
▁whir	-13.3999
wake	-13.4021
▁sort	-13.4022
▁pipe	-13.4031
opia	-13.4052
▁purr	-13.4053
▁traditional	-13.4067
ask	-13.4074
worm	-13.4075
▁debate	-13.4076
▁afford	-13.4077
▁applauded	-13.4077
▁canopy	-13.4077
▁carousel	-13.4077
▁cereal	-13.4077
▁chief	-13.4077
▁closure	-13.4077
▁courtyard	-13.4077
▁downstairs	-13.4077
▁elude	-13.4077
▁error	-13.4077
▁fantasy	-13.4077
▁grazed	-13.4077
▁lamb	-13.4077
▁lilies	-13.4077
▁outshine	-13.4077
▁rewound	-13.4077
▁rugged	-13.4077
▁santa	-13.4077
▁serving	-13.4077
▁session	-13.4077
▁studies	-13.4077
▁terror	-13.4077
▁unforgiving	-13.4077
▁uplift	-13.4077
▁credit	-13.4077
▁scariest	-13.4077
▁bury	-13.4078
▁belt	-13.4078
▁mug	-13.4078
▁naturally	-13.4079
▁seven	-13.4085
▁pathway	-13.4086
▁lifeline	-13.41
▁searches	-13.41
▁quicker	-13.4113
▁haste	-13.4123
ugh	-13.4128
▁giver	-13.4149
▁yell	-13.4249
▁mat	-13.4306
right	-13.4318
build	-13.4319
daddy	-13.4319
promise	-13.4319
shadow	-13.4319
finally	-13.4319
wise	-13.4319
▁scribble	-13.432
▁clatter	-13.4321
▁actress	-13.4321
▁bragged	-13.4321
▁chasm	-13.4321
▁compell	-13.4321
▁console	-13.4321
▁expanse	-13.4321
▁grasshopper	-13.4321
▁neglect	-13.4321
▁pyramid	-13.4321
▁sapphire	-13.4321
▁scout	-13.4321
▁stem	-13.4321
▁swarm	-13.4321
▁temper	-13.4321
▁texture	-13.4321
▁trophies	-13.4321
▁vinegar	-13.4321
▁wavy	-13.4321
▁accomplishment	-13.4321
▁settling	-13.4321
▁puck	-13.4321
▁dazzled	-13.4322
▁popping	-13.4322
▁mole	-13.4322
▁rebellion	-13.4322
▁blamed	-13.4323
▁huffed	-13.4324
▁skater	-13.4324
▁squeeze	-13.4329
▁cube	-13.4347
▁dreamlike	-13.4349
▁balanced	-13.4353
▁wounded	-13.4362
▁meat	-13.4385
▁insect	-13.4524
▁flaw	-13.4524
unk	-13.4524
▁material	-13.4524
round	-13.4528
▁demand	-13.4547
▁falter	-13.4562
beauty	-13.4569
different	-13.4569
family	-13.4569
generosity	-13.4569
talk	-13.4569
▁provide	-13.4571
▁double	-13.4571
phew	-13.4571
▁cacti	-13.4571
▁cobblestone	-13.4571
▁duo	-13.4571
▁fascinating	-13.4571
▁goddess	-13.4571
▁hazy	-13.4571
▁incomplete	-13.4571
▁injured	-13.4571
▁leak	-13.4571
▁navigating	-13.4571
▁ninja	-13.4571
▁radiate	-13.4571
▁raw	-13.4571
▁rebirth	-13.4571
▁romantic	-13.4571
▁sincerity	-13.4571
▁snowbank	-13.4571
▁snuff	-13.4571
▁surrender	-13.4571
▁suspicion	-13.4571
▁trove	-13.4571
▁wrinkled	-13.4571
▁particular	-13.4571
▁passionate	-13.4571
▁probab	-13.4571
▁saturn	-13.4571
▁sofa	-13.4571
▁batteries	-13.4572
▁arena	-13.4572
▁delivery	-13.4574
▁goalie	-13.4574
▁reversed	-13.4575
▁puffy	-13.4575
▁goldfish	-13.4578
▁yawning	-13.4583
tively	-13.4588
▁canvases	-13.4591
▁skied	-13.4607
both	-13.4618
▁taco	-13.478
▁adult	-13.478
▁ce	-13.4796
▁recogniz	-13.4818
▁cluck	-13.4818
▁splatter	-13.4818
▁cluster	-13.4828
▁colony	-13.4828
▁dedicated	-13.4828
▁insight	-13.4828
▁keychain	-13.4828
▁renewal	-13.4828
▁stranded	-13.4828
▁swerved	-13.4828
▁thunderclap	-13.4828
▁wiggling	-13.4828
▁tingling	-13.4828
▁imperfect	-13.4828
▁gigant	-13.4828
return	-13.4828
▁bustled	-13.4828
▁cancel	-13.4829
▁sphere	-13.4829
▁ballroom	-13.483
▁galloped	-13.483
▁mourning	-13.4834
▁weaved	-13.4843
▁stitched	-13.4847
▁overboard	-13.4847
▁goldie	-13.4851
danger	-13.4948
▁ro	-13.4958
▁loosen	-13.4973
ath	-13.5
▁cla	-13.5008
▁gleam	-13.5067
dian	-13.5073
▁rightful	-13.5079
▁crouch	-13.5081
▁arc	-13.5083
hair	-13.5088
1	-13.5088
answer	-13.5088
peter	-13.5088
making	-13.5089
▁arrange	-13.509
▁thirst	-13.509
▁avatar	-13.5091
▁bookshelf	-13.5091
▁carriage	-13.5091
▁cranny	-13.5091
▁customs	-13.5091
▁defense	-13.5091
▁desolate	-13.5091
▁discouraged	-13.5091
▁downcast	-13.5091
▁eternity	-13.5091
▁foreboding	-13.5091
▁forehead	-13.5091
▁impatient	-13.5091
▁organizing	-13.5091
▁resilient	-13.5091
▁sake	-13.5091
▁sentinel	-13.5091
▁treacherous	-13.5091
▁unafraid	-13.5091
▁undeterred	-13.5091
▁vacation	-13.5091
▁wobbling	-13.5091
▁position	-13.5091
▁nutty	-13.5091
▁pleasure	-13.5091
▁sailboat	-13.5091
▁spat	-13.5091
▁gleefully	-13.5091
▁robin	-13.5092
▁selfishness	-13.5092
▁impressive	-13.5092
▁shuffled	-13.5093
▁coughed	-13.5096
▁seedling	-13.5096
▁framed	-13.5097
five	-13.5098
▁glittery	-13.5099
▁boiled	-13.5102
▁tulips	-13.5103
▁stomping	-13.5105
▁deepening	-13.5111
▁nervousness	-13.5115
▁yo	-13.512
▁pinn	-13.5144
▁mitten	-13.5313
▁grade	-13.5314
plan	-13.5336
▁stomp	-13.5337
▁whisk	-13.5351
▁lack	-13.5352
lock	-13.5358
▁east	-13.536
▁drip	-13.5361
absolutely	-13.5361
▁angrier	-13.5361
▁captivating	-13.5361
▁corridor	-13.5361
▁crucial	-13.5361
▁describing	-13.5361
▁disrupt	-13.5361
▁harness	-13.5361
▁ladies	-13.5361
▁merrily	-13.5361
▁mismatched	-13.5361
▁physical	-13.5361
▁postcard	-13.5361
▁recited	-13.5361
▁section	-13.5361
▁sinister	-13.5361
▁upstairs	-13.5361
▁wane	-13.5361
▁zebra	-13.5361
▁patrol	-13.5361
▁chop	-13.5361
▁exhibition	-13.5361
▁scarce	-13.5361
▁disagreed	-13.5361
▁recently	-13.5362
▁scenery	-13.5362
▁foolishness	-13.5365
▁paintbrushes	-13.5365
▁sorted	-13.5372
▁fred	-13.5375
▁scraped	-13.5378
▁quacking	-13.538
▁clawed	-13.5382
▁wildness	-13.5383
▁undo	-13.539
post	-13.5401
▁scar	-13.5565
▁stake	-13.5602
▁beckon	-13.5615
back	-13.5621
memories	-13.5636
fun	-13.5639
venturing	-13.5639
▁amount	-13.5639
▁anemone	-13.5639
▁babies	-13.5639
▁blurring	-13.5639
▁centuries	-13.5639
▁cinnamon	-13.5639
▁grunt	-13.5639
▁napkin	-13.5639
▁necessary	-13.5639
▁quiz	-13.5639
▁rallying	-13.5639
▁request	-13.5639
▁shoelace	-13.5639
▁typewriter	-13.5639
▁uniform	-13.5639
▁upstream	-13.5639
▁pitcher	-13.564
▁priceless	-13.5642
▁shopping	-13.5642
▁crackle	-13.5643
▁toiled	-13.5643
▁misses	-13.5649
▁descending	-13.5659
▁robotic	-13.5691
▁nurse	-13.5701
▁plo	-13.5787
▁mile	-13.5877
▁print	-13.5877
▁tilt	-13.5901
▁churn	-13.5915
cross	-13.5919
anne	-13.5921
meow	-13.5922
prepare	-13.5922
stick	-13.5922
known	-13.5923
▁kit	-13.5924
▁reject	-13.5925
▁advanced	-13.5925
▁barista	-13.5925
▁collapsing	-13.5925
▁communication	-13.5925
▁doodling	-13.5925
▁laundry	-13.5925
▁obsessed	-13.5925
▁opulen	-13.5925
▁slumber	-13.5925
▁spinosaurus	-13.5925
▁straw	-13.5925
▁thunderstorm	-13.5925
▁unanswered	-13.5925
▁complex	-13.5925
▁enchantment	-13.5925
▁quickening	-13.5925
▁stealthily	-13.5925
▁sillier	-13.5925
▁rug	-13.5925
▁thus	-13.5925
▁relish	-13.5925
▁pogo	-13.5925
▁lapping	-13.5925
▁pounced	-13.5926
▁thunderous	-13.5927
▁entirely	-13.5929
▁contemplating	-13.5929
▁mistwood	-13.593
▁collector	-13.5931
▁banished	-13.5933
▁gorg	-13.5958
▁robe	-13.6038
▁rev	-13.6075
▁wipe	-13.6107
▁showcase	-13.6148
▁dipp	-13.6152
▁grape	-13.6171
▁squeez	-13.6198
▁drag	-13.6202
▁mimic	-13.6204
▁reappear	-13.6209
▁examine	-13.6216
failure	-13.6216
jean	-13.6216
soaked	-13.6216
full	-13.6218
▁chick	-13.6219
▁mira	-13.6219
▁boost	-13.6219
▁adrift	-13.6219
▁bamboo	-13.6219
▁blizzard	-13.6219
▁clutter	-13.6219
▁complicated	-13.6219
▁crimson	-13.6219
▁entry	-13.6219
▁example	-13.6219
▁individual	-13.6219
▁lettuce	-13.6219
▁mammoth	-13.6219
▁murky	-13.6219
▁persevere	-13.6219
▁pigeon	-13.6219
▁pulsating	-13.6219
▁soggy	-13.6219
▁stern	-13.6219
▁tainted	-13.6219
▁technique	-13.6219
▁unpredictable	-13.6219
▁unsettling	-13.6219
▁vortex	-13.6219
▁wheelbarrow	-13.6219
▁controller	-13.6219
▁defiance	-13.6219
▁browsed	-13.6219
▁remove	-13.6219
▁dwell	-13.6219
▁mustache	-13.6219
▁flare	-13.6219
▁hive	-13.622
key	-13.622
▁harmless	-13.6221
▁obscured	-13.6221
▁2	-13.6224
▁clank	-13.6232
loop	-13.6262
mr	-13.6414
▁noodle	-13.6474
▁boot	-13.6474
▁yawn	-13.6498
winning	-13.6519
little	-13.6519
▁astonishing	-13.652
silly	-13.6521
▁astonished	-13.6522
▁choke	-13.6522
▁competitive	-13.6522
▁dreamweaver	-13.6522
▁elusive	-13.6522
▁extinguish	-13.6522
▁fairytale	-13.6522
▁fingertips	-13.6522
▁hips	-13.6522
▁hull	-13.6522
▁magnet	-13.6522
▁malfunction	-13.6522
▁mama	-13.6522
▁nibbling	-13.6522
▁oyster	-13.6522
▁peanut	-13.6522
▁pippin	-13.6522
▁prey	-13.6522
▁recounted	-13.6522
▁relentless	-13.6522
▁scurry	-13.6522
▁stale	-13.6522
▁suspect	-13.6522
▁treetops	-13.6522
▁underbrush	-13.6522
▁unheard	-13.6522
▁unknowingly	-13.6522
▁allure	-13.6522
▁scarier	-13.6522
▁merge	-13.6522
▁melodic	-13.6522
▁remarkable	-13.6522
▁priest	-13.6523
▁gala	-13.6523
▁sift	-13.6523
▁humanity	-13.6523
▁wriggled	-13.6524
woo	-13.6529
▁delightfully	-13.6531
▁reliv	-13.6531
▁pm	-13.6533
▁leftover	-13.6533
▁clucked	-13.6533
▁strengthened	-13.6535
▁bard	-13.654
▁donate	-13.6609
▁fashion	-13.6691
▁pier	-13.6731
▁instinct	-13.6787
▁unkind	-13.6798
▁rid	-13.6803
▁munch	-13.681
▁hover	-13.6811
changing	-13.6812
tock	-13.682
▁sprinkl	-13.6824
▁sprint	-13.6825
▁stroll	-13.6825
bound	-13.6832
draw	-13.6833
▁obs	-13.6834
▁ruffl	-13.6834
gotcha	-13.6834
▁abilities	-13.6834
▁arranging	-13.6834
▁bleep	-13.6834
▁brisk	-13.6834
▁cannons	-13.6834
▁chameleon	-13.6834
▁chimney	-13.6834
▁collage	-13.6834
▁corrupt	-13.6834
▁crane	-13.6834
▁knead	-13.6834
▁motorcycle	-13.6834
▁perfume	-13.6834
▁pillar	-13.6834
▁pranced	-13.6834
▁shuttle	-13.6834
▁snort	-13.6834
▁unfamiliar	-13.6834
▁yourselves	-13.6834
▁newcomer	-13.6834
▁ploop	-13.6834
▁chopping	-13.6834
▁pry	-13.6835
▁wheat	-13.6835
▁blurted	-13.6835
▁issue	-13.6835
▁cuddled	-13.6835
▁secured	-13.6836
▁erased	-13.684
▁boldness	-13.6841
▁provided	-13.6841
▁wickedly	-13.6853
▁pip	-13.6896
▁pal	-13.7074
▁trinket	-13.7109
▁eclipse	-13.7129
▁banish	-13.7147
▁abandon	-13.7147
scent	-13.715
learn	-13.7154
wave	-13.7155
▁sneeze	-13.7156
▁pounce	-13.7156
▁ensure	-13.7156
cap	-13.7156
▁collide	-13.7157
▁smash	-13.7157
▁balancing	-13.7157
▁blob	-13.7157
▁brimming	-13.7157
▁congratulat	-13.7157
▁drill	-13.7157
▁essential	-13.7157
▁fairground	-13.7157
▁flurry	-13.7157
▁forgetfulness	-13.7157
▁giggly	-13.7157
▁goliath	-13.7157
▁hacker	-13.7157
▁humility	-13.7157
▁injury	-13.7157
▁maplewood	-13.7157
▁martian	-13.7157
▁moaned	-13.7157
▁navigator	-13.7157
▁opportunities	-13.7157
▁palpable	-13.7157
▁preparation	-13.7157
▁scowl	-13.7157
▁sizzle	-13.7157
▁squirm	-13.7157
▁tiki	-13.7157
▁unbearable	-13.7157
▁zigzagged	-13.7157
▁trio	-13.7157
▁lane	-13.7157
▁plight	-13.7157
▁vain	-13.7157
▁astra	-13.7158
▁flared	-13.7158
▁eraser	-13.7159
▁officer	-13.716
▁shuddered	-13.7161
▁controlling	-13.7164
prove	-13.7164
▁wrappers	-13.7164
▁alright	-13.7165
▁setback	-13.7165
▁exactly	-13.7166
▁silverstone	-13.7166
▁schemed	-13.7171
▁witches	-13.7174
▁reignite	-13.7175
▁wealthy	-13.7175
▁nicer	-13.7181
los	-13.72
pass	-13.723
▁flu	-13.7236
▁retriev	-13.7305
▁grumpie	-13.7424
▁trial	-13.7443
▁vegetable	-13.7443
▁file	-13.7444
▁chew	-13.7481
brave	-13.7488
explore	-13.7488
through	-13.7488
dark	-13.7488
shall	-13.7489
▁affect	-13.749
saurus	-13.749
▁cockpit	-13.749
▁curb	-13.749
▁festive	-13.749
▁glaring	-13.749
▁heartfelt	-13.749
▁kill	-13.749
▁outnumbered	-13.749
▁pedant	-13.749
▁persistence	-13.749
▁preserv	-13.749
▁raven	-13.749
▁rehearsed	-13.749
▁rude	-13.749
▁skidded	-13.749
▁spacecraft	-13.749
▁strategies	-13.749
▁strumming	-13.749
▁supply	-13.749
▁unimportant	-13.749
▁unroll	-13.749
▁vanilla	-13.749
▁yonder	-13.749
▁rift	-13.749
▁kitty	-13.749
▁toppings	-13.749
▁descent	-13.749
▁recreate	-13.7491
▁rum	-13.7491
▁grandchildren	-13.7491
▁snore	-13.7491
▁vibrated	-13.7492
▁patches	-13.7495
ound	-13.7498
▁angle	-13.7511
▁refuse	-13.7535
lead	-13.772
owed	-13.7759
▁whirr	-13.7812
▁groan	-13.7825
▁hur	-13.7827
free	-13.783
father	-13.7832
check	-13.7833
mistakes	-13.7833
silence	-13.7833
winter	-13.7833
▁secure	-13.7834
▁vibrate	-13.7834
▁accordi	-13.7835
▁apron	-13.7835
▁burger	-13.7835
▁coward	-13.7835
▁dribbling	-13.7835
▁drumbeat	-13.7835
▁gooey	-13.7835
▁hiccup	-13.7835
▁naive	-13.7835
▁partnership	-13.7835
▁prettier	-13.7835
▁reassuring	-13.7835
▁restaurant	-13.7835
▁revisit	-13.7835
▁sabotag	-13.7835
▁shrine	-13.7835
▁shrug	-13.7835
▁skull	-13.7835
▁snoring	-13.7835
▁temptation	-13.7835
▁trench	-13.7835
▁triangle	-13.7835
▁pursue	-13.7835
▁concluded	-13.7835
▁freezing	-13.7835
▁sniffled	-13.7835
▁nine	-13.7835
▁lunchroom	-13.7836
▁receded	-13.7836
song	-13.7838
▁trader	-13.7839
▁techy	-13.784
▁lunchtime	-13.7841
▁fireball	-13.7841
▁sweaty	-13.7842
▁defined	-13.7842
▁sliced	-13.7855
▁fro	-13.7879
▁seize	-13.798
▁je	-13.7998
▁hurtful	-13.806
▁aisle	-13.8146
anned	-13.8158
wish	-13.8188
dragon	-13.819
from	-13.819
moon	-13.819
faster	-13.819
▁tremendous	-13.8191
▁intrigue	-13.8191
▁exam	-13.8192
opical	-13.8192
▁align	-13.8192
▁apology	-13.8192
▁bleachers	-13.8192
▁calendar	-13.8192
▁drizzle	-13.8192
▁eerily	-13.8192
▁glum	-13.8192
▁handwriting	-13.8192
▁interview	-13.8192
▁optimistic	-13.8192
▁pinata	-13.8192
▁publish	-13.8192
▁rainstorm	-13.8192
▁relative	-13.8192
▁stride	-13.8192
▁subway	-13.8192
▁turbo	-13.8192
▁verenthia	-13.8192
▁yelped	-13.8192
▁zorak	-13.8192
9	-13.8192
▁dreamhaven	-13.8192
▁embarrassment	-13.8192
▁charity	-13.8192
▁gloop	-13.8192
▁affection	-13.8192
▁witty	-13.8192
▁tinkling	-13.8192
▁dice	-13.8192
▁possession	-13.8192
▁panted	-13.8193
▁ruby	-13.8193
▁frostvale	-13.8193
▁jumbled	-13.8193
▁astonishingly	-13.8194
▁triumphantly	-13.8195
▁schoolwork	-13.8198
▁schemer	-13.8198
▁blackness	-13.8199
▁competed	-13.82
▁marvelous	-13.8204
▁zib	-13.8239
▁successful	-13.8411
▁tentacle	-13.8515
earth	-13.8559
about	-13.856
creativity	-13.856
forgotten	-13.856
neck	-13.856
swim	-13.856
moments	-13.856
▁boar	-13.8561
▁rekindle	-13.8562
▁compare	-13.8563
bbled	-13.8563
arrr	-13.8563
ricket	-13.8563
▁blaming	-13.8563
▁bluebell	-13.8563
▁brilliance	-13.8563
▁cheetah	-13.8563
▁choking	-13.8563
▁colleague	-13.8563
▁cucumber	-13.8563
▁decode	-13.8563
▁deliberate	-13.8563
▁email	-13.8563
▁ethereal	-13.8563
▁flib	-13.8563
▁granddaughter	-13.8563
▁grazing	-13.8563
▁grill	-13.8563
▁grumbling	-13.8563
▁lavender	-13.8563
▁nonsense	-13.8563
▁overflowed	-13.8563
▁passengers	-13.8563
▁precision	-13.8563
▁rooster	-13.8563
▁rotten	-13.8563
▁survivor	-13.8563
▁tyrant	-13.8563
▁ufo	-13.8563
▁unwavering	-13.8563
▁volume	-13.8563
▁windmill	-13.8563
▁wrestling	-13.8563
▁bomb	-13.8563
▁merrier	-13.8563
▁positive	-13.8563
▁ruthless	-13.8563
▁societies	-13.8563
▁sideways	-13.8563
▁separation	-13.8563
▁tackle	-13.8563
▁comedy	-13.8563
▁capable	-13.8563
▁quitting	-13.8563
▁zork	-13.8564
boy	-13.8564
▁tremendously	-13.8564
▁bedside	-13.8565
▁confrontation	-13.8565
▁stretches	-13.8565
▁witnesses	-13.8565
▁fizzy	-13.8565
▁greenfield	-13.8566
▁tornado	-13.8566
▁carelessly	-13.8567
▁lunar	-13.8675
books	-13.8812
▁prefer	-13.8895
boat	-13.8945
beautiful	-13.8945
doubt	-13.8945
guess	-13.8945
hugged	-13.8945
invisible	-13.8945
▁cuddle	-13.8946
▁ascended	-13.8947
▁boredom	-13.8947
▁bragging	-13.8947
▁bravado	-13.8947
▁brink	-13.8947
▁clumsily	-13.8947
▁crazie	-13.8947
▁fumbled	-13.8947
▁immediately	-13.8947
▁intact	-13.8947
▁labyrinth	-13.8947
▁marigolds	-13.8947
▁memorable	-13.8947
▁nostalgic	-13.8947
▁otherworldly	-13.8947
▁overcast	-13.8947
▁pausing	-13.8947
▁peppers	-13.8947
▁plopp	-13.8947
▁savior	-13.8947
▁schedule	-13.8947
▁smug	-13.8947
▁solemnly	-13.8947
▁gloob	-13.8947
▁rim	-13.8947
guar	-13.8947
▁riverbed	-13.8947
▁ripped	-13.8947
▁jack	-13.8947
▁cookbook	-13.8949
▁enjoyable	-13.895
▁auntie	-13.8954
enter	-13.8961
▁tube	-13.8966
▁sooth	-13.9018
▁showcas	-13.904
edged	-13.9055
▁pin	-13.9253
▁subject	-13.9299
most	-13.9326
▁disappoint	-13.9338
▁fray	-13.9338
mind	-13.9345
beep	-13.9345
food	-13.9345
wonder	-13.9345
throw	-13.9345
▁coco	-13.9345
clock	-13.9345
▁fond	-13.9347
▁shini	-13.9347
▁frantic	-13.9347
▁repa	-13.9347
race	-13.9347
▁magnif	-13.9347
▁allosaurus	-13.9347
▁barbecue	-13.9347
▁centaur	-13.9347
▁crevice	-13.9347
▁cuddly	-13.9347
▁element	-13.9347
▁equipment	-13.9347
▁facade	-13.9347
▁gigi	-13.9347
▁intertwining	-13.9347
▁intriguing	-13.9347
▁liar	-13.9347
▁licorice	-13.9347
▁lute	-13.9347
▁predator	-13.9347
▁pursuit	-13.9347
▁threshold	-13.9347
▁uncontrollably	-13.9347
▁unreadable	-13.9347
▁wailed	-13.9347
▁antenna	-13.9347
▁fuss	-13.9347
▁disagreement	-13.9347
▁unbroken	-13.9347
▁pants	-13.9347
▁mic	-13.9347
▁clara	-13.9348
▁voyager	-13.9348
▁rover	-13.9348
▁misuse	-13.9348
▁peach	-13.9348
▁dishonesty	-13.9349
▁comfortable	-13.935
asty	-13.935
▁presses	-13.935
▁juggler	-13.935
▁dollar	-13.935
▁photographer	-13.9351
▁neatness	-13.9351
▁coaster	-13.9397
▁moo	-13.9544
▁prais	-13.9744
smart	-13.9748
▁rekindl	-13.9754
▁introduc	-13.9754
▁mention	-13.9754
▁perch	-13.9754
▁pout	-13.9755
cookies	-13.9761
instead	-13.9761
mission	-13.9761
roar	-13.9763
▁heavie	-13.9763
ahoy	-13.9764
rigid	-13.9764
▁audition	-13.9764
▁bartender	-13.9764
▁concentrated	-13.9764
▁declaring	-13.9764
▁dedication	-13.9764
▁delay	-13.9764
▁diwali	-13.9764
▁dollhouse	-13.9764
▁effortlessly	-13.9764
▁falcon	-13.9764
▁felix	-13.9764
▁jaw	-13.9764
▁jersey	-13.9764
▁juiciest	-13.9764
▁lining	-13.9764
▁lunchbox	-13.9764
▁maneuver	-13.9764
▁measuring	-13.9764
▁obvious	-13.9764
▁packet	-13.9764
▁precise	-13.9764
▁reminiscing	-13.9764
▁selflessness	-13.9764
▁spade	-13.9764
▁stabilize	-13.9764
▁swoosh	-13.9764
▁tastiest	-13.9764
▁traffic	-13.9764
▁untied	-13.9764
▁zephyr	-13.9764
▁greenery	-13.9764
▁solo	-13.9764
▁random	-13.9764
▁pantry	-13.9764
▁chatty	-13.9764
▁prankster	-13.9764
▁electricity	-13.9764
▁timmy	-13.9765
▁contributed	-13.9765
▁gum	-13.9765
▁mode	-13.9765
▁potatoes	-13.9765
▁stealth	-13.9766
nope	-13.9771
glo	-13.9974
ctic	-14.0058
owl	-14.0147
▁nibble	-14.0149
▁constellation	-14.0151
▁parent	-14.0151
whoosh	-14.0196
intelligence	-14.0196
strong	-14.0196
▁numb	-14.0198
▁exhibit	-14.0199
▁battleground	-14.0199
▁bleak	-14.0199
▁chapel	-14.0199
▁clunk	-14.0199
▁concrete	-14.0199
▁criminal	-14.0199
▁domain	-14.0199
▁dreary	-14.0199
▁envious	-14.0199
▁evolv	-14.0199
▁gymnastics	-14.0199
▁hologram	-14.0199
▁indoors	-14.0199
▁intoxicating	-14.0199
▁jax	-14.0199
▁kelp	-14.0199
▁marathon	-14.0199
▁mechanic	-14.0199
▁mosaic	-14.0199
▁nimble	-14.0199
▁oracle	-14.0199
▁overflowing	-14.0199
▁pollution	-14.0199
▁prowled	-14.0199
▁pudding	-14.0199
▁quarrel	-14.0199
▁recital	-14.0199
▁sandbox	-14.0199
▁savanna	-14.0199
▁schoolhouse	-14.0199
▁scruff	-14.0199
▁stinky	-14.0199
▁thaw	-14.0199
▁vacuum	-14.0199
▁waffle	-14.0199
▁bramble	-14.0199
▁misfit	-14.0199
▁swap	-14.0199
▁unreal	-14.0199
▁organ	-14.0199
▁tiring	-14.0199
▁vote	-14.0199
▁hardened	-14.0199
▁robby	-14.0199
▁appreciation	-14.0199
▁saltwater	-14.0199
▁anna	-14.02
▁duel	-14.0201
escent	-14.0205
▁mimick	-14.022
▁dissolv	-14.0348
▁twitch	-14.0629
▁rippl	-14.0643
▁resonat	-14.0644
hole	-14.0649
cake	-14.0651
anything	-14.0651
captain	-14.0651
finish	-14.0651
mud	-14.0651
growth	-14.0651
▁tangle	-14.0652
▁tiptoe	-14.0652
put	-14.0652
▁dishonest	-14.0652
▁sculpt	-14.0653
▁stab	-14.0653
▁whiz	-14.0653
▁architect	-14.0653
▁oppos	-14.0653
▁snowdrift	-14.0653
▁survey	-14.0653
definitely	-14.0653
mobile	-14.0653
▁bounty	-14.0653
▁chandelier	-14.0653
▁clumsiness	-14.0653
*	-14.1629
q	-14.5305
7	-14.5305
8	-14.6075
6	-14.8817
4	-14.8817
)	-16.2107
(	-16.2107
+	-16.2107
